tree
version=v3
num_class=3
num_tree_per_iteration=3
label_index=0
max_feature_idx=299
objective=multiclass num_class:3
feature_names=0 1 2 3 4 5 6 7 8 9 10 11 12 13 14 15 16 17 18 19 20 21 22 23 24 25 26 27 28 29 30 31 32 33 34 35 36 37 38 39 40 41 42 43 44 45 46 47 48 49 50 51 52 53 54 55 56 57 58 59 60 61 62 63 64 65 66 67 68 69 70 71 72 73 74 75 76 77 78 79 80 81 82 83 84 85 86 87 88 89 90 91 92 93 94 95 96 97 98 99 100 101 102 103 104 105 106 107 108 109 110 111 112 113 114 115 116 117 118 119 120 121 122 123 124 125 126 127 128 129 130 131 132 133 134 135 136 137 138 139 140 141 142 143 144 145 146 147 148 149 150 151 152 153 154 155 156 157 158 159 160 161 162 163 164 165 166 167 168 169 170 171 172 173 174 175 176 177 178 179 180 181 182 183 184 185 186 187 188 189 190 191 192 193 194 195 196 197 198 199 200 201 202 203 204 205 206 207 208 209 210 211 212 213 214 215 216 217 218 219 220 221 222 223 224 225 226 227 228 229 230 231 232 233 234 235 236 237 238 239 240 241 242 243 244 245 246 247 248 249 250 251 252 253 254 255 256 257 258 259 260 261 262 263 264 265 266 267 268 269 270 271 272 273 274 275 276 277 278 279 280 281 282 283 284 285 286 287 288 289 290 291 292 293 294 295 296 297 298 299
feature_infos=[-0.2005520015954971:0.16365799307823181] [-0.19421200454235071:0.15411299467086789] [-0.2122090011835098:0.19157999753952021] [-0.19755099713802329:0.15487800538539881] [-0.18616299331188199:0.16282600164413449] [-0.19169199466705319:0.15985299646854401] [-0.23776300251483909:0.1210720017552375] [-0.23712800443172449:0.12775999307632441] [-0.13489000499248499:0.22169199585914609] [-0.21750600636005399:0.19312199950218201] [-0.1697659939527511:0.19428800046443939] [-0.181425005197525:0.1848209947347641] [-0.21919199824333191:0.16518700122833249] [-0.25937899947166437:0.14470900595188141] [-0.14474199712276459:0.18743200600147239] [-0.1686400026082992:0.19795799255371091] [-0.20250800251960749:0.16802500188350669] [-0.17978300154209129:0.14762599766254419] [-0.17153799533843991:0.16577300429344169] [-0.12890900671482081:0.2285850048065185] [-0.2114360034465789:0.17302499711513519] [-0.20221899449825281:0.19676400721073151] [-0.1453090012073516:0.1936289966106414] [-0.1665450036525726:0.19836699962615961] [-0.2001619935035705:0.16552700102329251] [-0.2738290131092071:0.15150000154972071] [-0.1845269948244094:0.1340409964323043] [-0.1337189972400665:0.1965799927711486] [-0.25384500622749329:0.16041299700737] [-0.1230959966778755:0.2306839972734451] [-0.16559399664402:0.17351099848747251] [-0.24075700342655179:0.11940799653530119] [-0.20522299408912659:0.1414790004491806] [-0.18313099443912501:0.1710010021924972] [-0.15872000157833099:0.15201200544834129] [-0.18074800074100489:0.18318800628185269] [-0.20451399683952329:0.1830170005559921] [-0.17416100203990931:0.1662600040435791] [-0.17601500451564789:0.16855199635028839] [-0.20217800140380859:0.14781099557876581] [-0.13151200115680689:0.19192500412464139] [-0.16128300130367279:0.19484299421310419] [-0.1895669996738433:0.1534059941768646] [-0.1988880038261413:0.1570889949798584] [-0.17692700028419489:0.20207500457763669] [-0.18698099255561829:0.15805600583553309] [-0.158402994275093:0.18929800391197199] [-0.21212799847125999:0.14930200576782221] [-0.23267699778079981:0.1314489990472793] [-0.12783199548721311:0.1854500025510788] [-0.15735599398612971:0.18812799453735349] [-0.13477000594139099:0.2067610025405883] [-0.1770839989185333:0.16657599806785581] [-0.1221520006656646:0.245737999677658] [-0.2161380052566528:0.16970899701118469] [-0.14422300457954401:0.19025799632072449] [-0.22047899663448331:0.15069699287414551] [-0.2322919964790344:0.1326680034399032] [-0.16356499493122101:0.19843700528144831] [-0.1358470022678375:0.1883309930562973] [-0.21268199384212491:0.17017599940299979] [-0.17783799767494199:0.2096170037984848] [-0.1567600071430206:0.20861600339412689] [-0.21355900168418879:0.18946300446987149] [-0.23009200394153589:0.14269900321960449] [-0.14231300354003901:0.17015300691127769] [-0.26914799213409418:0.14943799376487729] [-0.1699029952287674:0.1820729970932006] [-0.21567399799823761:0.1147930026054382] [-0.1770119965076446:0.19962300360202789] [-0.18352499604225159:0.15916700661182401] [-0.24923600256443021:0.1588360071182251] [-0.19982300698757169:0.22139899432659149] [-0.1188630014657974:0.2236710041761398] [-0.26077300310134888:0.1538580060005188] [-0.1244229972362518:0.23461300134658811] [-0.2438919991254806:0.18152500689029691] [-0.20548400282859799:0.17165400087833399] [-0.2120610028505325:0.15871599316596979] [-0.17140799760818479:0.16889399290084839] [-0.18097600340843201:0.16741800308227539] [-0.17874899506568909:0.19854199886322019] [-0.15786400437355039:0.17625999450683591] [-0.16286399960517881:0.1953759938478469] [-0.25819700956344599:0.16047999262809751] [-0.1633570045232772:0.16256000101566309] [-0.17230699956417081:0.16942900419235229] [-0.1808380037546157:0.18766200542449951] [-0.1272210031747818:0.24947699904441831] [-0.15770499408245081:0.2240079939365387] [-0.17018499970436091:0.1625639945268631] [-0.17383700609207151:0.1496800035238266] [-0.1406109929084777:0.2467789947986602] [-0.18585599958896629:0.17013199627399439] [-0.22161400318145749:0.15621200203895569] [-0.1898040026426315:0.16618099808692929] [-0.18980500102043149:0.22543700039386749] [-0.1747850030660629:0.2086659967899322] [-0.18089999258518219:0.14948299527168271] [-0.14098900556564331:0.218640998005867] [-0.2594980001449585:0.1167140007019043] [-0.20503200590610501:0.125568002462387] [-0.23363399505615229:0.17467500269412989] [-0.1510560065507888:0.2547799944877624] [-0.1880239993333816:0.18471400439739219] [-0.16769200563430781:0.17774100601673121] [-0.17233599722385401:0.2031980007886886] [-0.21950200200080869:0.1524520069360733] [-0.22366699576377869:0.17359599471092221] [-0.1201080009341239:0.25433701276779169] [-0.15491500496864319:0.20744200050830841] [-0.13745699822902679:0.1995480060577392] [-0.20342500507831571:0.17684400081634519] [-0.1504410058259964:0.20150600373744959] [-0.2034180015325546:0.1756529957056045] [-0.1912720054388046:0.14036299288272849] [-0.15880399942398071:0.1983679980039596] [-0.2004999965429306:0.1774329990148544] [-0.19344599545001981:0.18374399840831751] [-0.2280769944190979:0.1233400031924247] [-0.17421999573707581:0.1633130013942718] [-0.15702700614929199:0.19393900036811829] [-0.2153420001268386:0.1114989966154098] [-0.2226389944553375:0.16069300472736359] [-0.1822459995746612:0.1622779965400695] [-0.1799490004777908:0.17082500457763669] [-0.15996299684047699:0.19687299430370331] [-0.203793004155159:0.15256400406360621] [-0.1293489933013916:0.22314199805259699] [-0.18025900423526761:0.1851990073919296] [-0.17440399527549741:0.1793670058250427] [-0.1447750031948089:0.19798299670219421] [-0.1794549971818924:0.17338399589061729] [-0.18040400743484489:0.19093899428844449] [-0.2060659974813461:0.16497799754142761] [-0.12849199771881101:0.21074199676513669] [-0.197061002254486:0.14262300729751581] [-0.25110599398612971:0.1974329948425293] [-0.1702920049428939:0.22713600099086759] [-0.1870650053024292:0.14996199309825889] [-0.1896139979362487:0.157150998711586] [-0.1651690006256103:0.1863480061292648] [-0.15471899509429929:0.171206995844841] [-0.16115500032901761:0.14969399571418759] [-0.2031169980764389:0.1272400021553039] [-0.2139409929513931:0.16619299352169031] [-0.2035679966211319:0.20516400039196009] [-0.2166379988193512:0.15633000433444971] [-0.1068779975175857:0.21769599616527549] [-0.1720860004425048:0.21209700405597681] [-0.17599800229072571:0.19360600411891929] [-0.2229000031948089:0.16440899670124051] [-0.18660600483417511:0.1667809933423996] [-0.1859659999608993:0.15624099969863889] [-0.19918699562549591:0.20773699879646301] [-0.19112600386142731:0.15080100297927851] [-0.13196100294589991:0.24108700454235071] [-0.1572909951210022:0.2116609960794448] [-0.19575400650501251:0.14174599945545191] [-0.1694480031728744:0.2022950053215026] [-0.1708710044622421:0.20664200186729431] [-0.19147500395774841:0.10272800177335729] [-0.1624719947576522:0.20735800266265869] [-0.23318199813365931:0.18927499651908869] [-0.1715189963579177:0.1949010044336319] [-0.1689970046281814:0.17694699764251709] [-0.1934469938278198:0.1792329996824264] [-0.12219999730587:0.18911600112915039] [-0.15569199621677399:0.20430999994277951] [-0.19605100154876709:0.15517300367355341] [-0.16244800388813019:0.1858649998903274] [-0.20510800182819361:0.14669899642467499] [-0.18712599575519559:0.1619749963283538] [-0.2150280028581619:0.16147099435329429] [-0.14162300527095789:0.21472999453544611] [-0.22229999303817749:0.1652120053768158] [-0.1982800066471099:0.16726100444793701] [-0.20544800162315369:0.1615210026502609] [-0.2076770067214965:0.1560979932546615] [-0.1555159986019134:0.180758997797966] [-0.15914900600910181:0.2174060046672821] [-0.125118002295494:0.19116500020027161] [-0.14391699433326721:0.1841219961643219] [-0.1790930032730102:0.17411200702190399] [-0.23385700583457941:0.17506299912929529] [-0.18009799718856809:0.20200599730014801] [-0.21092599630355829:0.15482500195503229] [-0.18586599826812741:0.18035599589347839] [-0.15587399899959559:0.21152700483798981] [-0.1742549985647201:0.14600899815559379] [-0.22913199663162229:0.13162699341773981] [-0.2158669978380203:0.1795530021190643] [-0.18022599816322321:0.16661499440670011] [-0.16646400094032279:0.170645996928215] [-0.19343400001525879:0.19958099722862241] [-0.1264639943838119:0.2139409929513931] [-0.1760410070419311:0.1885520070791244] [-0.1475369930267334:0.17933100461959839] [-0.14586000144481659:0.1932699978351593] [-0.23446300625801081:0.16526100039482111] [-0.2436529994010925:0.1278479993343353] [-0.19914799928665161:0.15127700567245481] [-0.1827179938554763:0.18332900106906891] [-0.15618500113487241:0.21347600221633911] [-0.17695899307727811:0.19413900375366211] [-0.17757999897003171:0.15184600651264191] [-0.19001699984073639:0.2232650071382522] [-0.16616599261760709:0.2119480073451995] [-0.20027799904346461:0.15476900339126581] [-0.16743999719619751:0.20946399867534629] [-0.20876200497150421:0.1399299949407577] [-0.2089219987392425:0.1770019978284835] [-0.1955430060625076:0.1532599925994873] [-0.21645599603652951:0.2223459929227829] [-0.16087800264358521:0.19381099939346311] [-0.1829079985618591:0.19446100294589991] [-0.2398349940776825:0.11791700124740601] [-0.14283299446105949:0.2216310054063797] [-0.193244993686676:0.16980800032615659] [-0.1829259991645813:0.16932600736618039] [-0.1837410032749176:0.17857199907302851] [-0.20401899516582489:0.1602469980716705] [-0.1916240006685257:0.18796500563621521] [-0.201554000377655:0.2148440033197403] [-0.2070969939231872:0.13081100583076469] [-0.2040580064058303:0.16342200338840479] [-0.16267700493335721:0.19703100621700281] [-0.1955430060625076:0.16430500149726859] [-0.19743500649929041:0.15336300432682029] [-0.16915200650691981:0.16772499680519101] [-0.20257000625133509:0.1734859943389892] [-0.1631850004196167:0.14729799330234519] [-0.14752300083637229:0.23706899583339691] [-0.18811200559139249:0.16989399492740631] [-0.20455600321292869:0.14488199353218079] [-0.1603090018033981:0.1791180074214935] [-0.25959798693656921:0.20791099965572349] [-0.17330600321292869:0.1908009946346283] [-0.23942999541759491:0.1411799937486648] [-0.12797300517559049:0.2091390043497085] [-0.1225529983639717:0.21986499428749079] [-0.18299600481987:0.1545969992876052] [-0.21585400402545929:0.16981300711631769] [-0.25378701090812678:0.16304999589920041] [-0.23654699325561521:0.12318900227546691] [-0.1753309965133667:0.14345000684261319] [-0.18565399944782249:0.1713870018720626] [-0.18786700069904319:0.157159999012947] [-0.23553100228309631:0.16571399569511411] [-0.1764190047979354:0.1828050017356872] [-0.17068600654602051:0.23510999977588651] [-0.16028900444507599:0.2117850035429] [-0.14266400039196009:0.25074300169944758] [-0.1848729997873306:0.18622100353240961] [-0.2338970005512237:0.16529999673366541] [-0.1826110035181045:0.1588129997253418] [-0.17228299379348749:0.1895869970321655] [-0.2060990035533905:0.190093994140625] [-0.2618890106678009:0.13817399740219111] [-0.1848749965429306:0.1729699969291687] [-0.1194150000810623:0.23583699762821189] [-0.1148530021309852:0.25679901242256159] [-0.28504401445388788:0.1705390065908432] [-0.16521799564361569:0.14996400475502011] [-0.18070100247859949:0.16409200429916379] [-0.2074619978666305:0.20279200375080109] [-0.21085099875926969:0.14015999436378479] [-0.1875289976596832:0.15723699331283569] [-0.22237299382686609:0.14807699620723719] [-0.15467800199985501:0.2937490046024322] [-0.17260000109672541:0.16370800137519831] [-0.13020600378513331:0.22598099708557129] [-0.1406150013208389:0.22328700125217429] [-0.17309899628162381:0.16987599432468409] [-0.18114000558853149:0.16389699280261991] [-0.1991489976644516:0.17642800509929649] [-0.21006299555301661:0.17837999761104581] [-0.1462800055742263:0.206958994269371] [-0.17683699727058411:0.18923699855804441] [-0.19638800621032709:0.1588470041751861] [-0.18620599806308741:0.14643800258636469] [-0.1672080010175705:0.16570700705051419] [-0.2315440028905868:0.18407900631427759] [-0.1113130003213882:0.2604410052299499] [-0.12384700030088421:0.21908900141716001] [-0.2052219957113266:0.14191600680351249] [-0.19730000197887421:0.20752799510955811] [-0.1574209928512573:0.17311200499534601] [-0.1634210050106048:0.17364799976348869] [-0.2095550000667572:0.1778949946165084] [-0.22712099552154541:0.14740699529647819] [-0.1703840047121048:0.1429679989814758] [-0.19896000623703:0.14995600283145899] [-0.14221900701522819:0.17183500528335571] [-0.24629099667072291:0.1653729975223541] [-0.1845059990882873:0.1723330020904541] [-0.16769300401210779:0.16055700182914731] [-0.21923099458217621:0.16087299585342399] [-0.17823599278926849:0.21034400165081019] [-0.1902990043163299:0.20709200203418729]
tree_sizes=3442 3434 3427 3440 3468 3444 3459 3450 3451 3456 3475 3456 3470 3484 3440 3448 3452 3473 3466 3477 3448 3462 3473 3435 3461 3464 3456 3453 3454 3457 3461 3470 3460 3474 3475 3474 3476 3462 3448 3484 3464 3478 3465 3466 3460 3455 3466 3440 3141 3021 3445 2908 3483 3469 3454 3469 3451 3460 3458 2601 3463 3460 3456 3461 3459 2388 3454 3453 3449 3331 3449 1946 3473 3466 3114 3468 3453 3441 3452 3357 3477 3448 3460 3456 3234 3478 3463 3475 3472 3447 3457 3456 3454 2804 3378 3482 3458 2927 3454 3451 3486 3456 3463 3454 3488 3480 3244 3473 3158 3337 3468 3493 3450 3470 2378 3457 3459 3452 3258 3477 2492 3480 3483 3034 3498 3450 3473 3483 3464 3468 3452 3463 3462 3052 3149 3487 3492 2494 3350 3480 3453 3467 3479 3489 3463 3464 3482 3466 3492 3469 3457 3396 3474 2820 3159 3472 3484 2734 2844 3029 3481 3483 3500 3501 3486 3487 3477 3484 3480 2534 3490 3504 3482 3479 3147 3495 3474 3481 3504 3369 3490 3487 3488 3270 3501 3494 3505 3476 3497 2947 3488 2840 3514 3286 3500 3392 3509 3504 3515 2960 3484 3500 3494 3497 3495 3508 3496 3480 3527 3484 3506 3517 3512 2951 3507 3511 2961 3530 3487 3519 3513 3518 3505 3514 3524 3513 3525 3513 3513 3521 3503 3523 3497 2210 3526 3535 3507 3410 3515 3489 3521 3521 3531 3177 3511 3502 3494 3507 3509 3504 3302 3512 3517 3526 3523 3515 3512 3506 3074 3526 3516 3189 3534 3519 3514 3522 3503 3517 3524 3530 3526 3549 3504 3515 3538 3519 3522 3528 3504 3505 3525 3502 3527 3544 3518 3526 3508 3503 3540 3527 3509 3302 3536 3497 3517 3528 3525 3525 3539 3513 3423 3537 2877 3536 3531 3511 3515 3534 3523 3519 3525 3301 3525 3532 3495 3533 3537 3530 3515 3533 3515 3536 3533 3526 3535 3537 3535 3540 3565 3529 3526 3546 3524 3528 3536 3537 3531 3557 3516 3546 3550 3529 3546 3542 3520 3551 3557 3539 3547 3552 3518 3532 3546 3539 3530 3560 3551 3545 3573 3540 3549 3568 3540 3558 3573 3556 3545 3584 3529 3551 3569 3549 3552 3599 3563 3564 3577 3559 3555 3597 3560 3570 3601 3554 3562 3588 3550 3563 3579 3568 3111 3587 3572 3570 3580 3575 3581 3585 3549 2798 3587 3580 3569 3597 3557 3572 3598 3552 3579 3594 3581 3563 3597 3598 3580 3566 3582 3574 3583 3251 3559 3603 3587 3582 3592 2917 3566 3597 3588 3564 3587 3573 3578 3573 3582 3573 3594 3573 3571 3588 3588 3563 3582 3580 3562 3587 3574 3585 3603 3601 3564 3599 3578 3590 3278 3595 3587 3601 3590 3579 3604 3590 3574 3595 3593 3599 2951 3585 3607 2498 3589 3606 3593 3594 3606 3603 3594 3589 3620 3583 3594 3275 3601 3155 2493 3586 3593 3600 3617 3377 3635 3603 2834 2613 3594 3040 3616 3611 3594 3173 3601 2277 3599 3600 3607 3621 3599 2832 3613 3600 3614 3603 3593 2707 3610 3278 3614 3625 3611 3613 3647 3600 3278 3423 2166 2388 3535 2266 3607 2391 3617 3601 3644 2273 3611 3521 3609 3606 3413 2381 3279 3629 3628 3623 2521 3604 3620 3662 3617 3627 3409 3511 3060 3649 2846 1935 3655 3632 2626 3661 3406 3620 3651 3604 3635 3650 3528 2843 3100 3611 2966 3206 3634 2160 3649 3629 3639 2746 3644 3641 3646 3619 2511 3672 3200 2735 3642 3630 3541 3660 3433 3642 3674 3640 2616 3437 3522 3188 2867 2722

Tree=0
num_leaves=31
num_cat=0
split_feature=85 49 95 245 59 118 294 173 125 179 207 18 27 223 133 255 133 283 116 218 10 192 214 24 212 248 81 69 214 111
split_gain=196.164 126.876 87.9255 51.9751 56.3851 48.3625 41.381 40.8825 39.0061 32.6062 32.0637 30.3895 28.7009 27.9922 23.6278 22.9631 22.5848 22.2884 22.0085 21.0091 20.9809 20.9191 19.2482 18.7426 18.4861 17.9368 17.5112 17.0448 17.0376 18.646
threshold=-1.0000000180025095e-35 0.05074950121343131 -0.018104315453394117 -0.077592499554157188 -0.00041925102790118699 0.021817500703036754 -0.061260149316159647 0.00061837944181020838 0.0081849996931850511 0.0093319998122751019 0.070669002830982167 -0.019636113955576091 0.0068789999932050505 -0.055491290165378133 -0.034334771489696415 0.0084000001661478519 -0.079043999314308083 0.059090665129747096 0.021604185462411978 0.00050197045635235827 0.047144835184968613 -0.01582682029390084 0.041910804197684469 -0.017543000169098297 -0.0061584999784826495 0.060375001281499807 0.022501965354356081 -0.012717617019135121 -0.017901086975775287 0.070419497787952354
decision_type=2 2 2 2 2 2 2 2 2 2 2 2 2 2 2 2 2 2 2 2 2 2 2 2 2 2 2 2 2 2
left_child=2 3 5 15 -5 8 24 9 17 19 13 16 -10 -6 22 -2 -8 -1 -12 -3 23 -7 -11 -9 -4 -23 -21 -16 -26 -30
right_child=1 7 6 4 10 21 11 20 12 14 18 -13 -14 -15 27 -17 -18 -19 -20 26 -22 25 -24 -25 28 -27 -28 -29 29 -31
leaf_value=-0.99381355453637199 -0.73165054432716681 -0.70363631210998201 -1.1729243544285475 -1.2312535756256422 -1.2282945338421061 -1.0384012437334529 -0.83861767809830723 -0.81773820754237891 -0.71260393227252816 -0.78056386507173903 -1.0446764530330204 -1.3093688591829928 -1.238877128655453 -1.0746351478759417 -1.1980055650422232 -1.0616104236356216 -1.2072693638464618 -0.73422032531866566 -0.60059171376072451 -1.1095084714148318 -1.2371127337008414 -1.2990100038565264 -1.1175234479453917 -1.1109502186723998 -0.66652688393734016 -0.80103463109763628 -0.77571552574981584 -0.95136681910032017 -1.1698909274341183 -0.67383047201844226
leaf_weight=56.541452407836914 51.885097503662109 118.07185649871826 171.28734111785889 245.45642280578613 113.74809837341309 56.874049186706543 15.964645385742186 35.920452117919922 11.308290481567381 78.160243034362793 19.290613174438477 558.0973949432373 53.215484619140625 1721.8535242080688 42.5723876953125 29.933710098266602 236.80890655517578 62.860791206359863 20.953597068786621 25.609951972961426 43.570178031921387 95.787872314453125 18.958016395568848 43.237581253051758 12.638677597045897 6.9845323562622061 31.596693992614746 61.863000869750977 32.261887550354004 8.6475162506103498
leaf_count=170 156 355 515 738 342 171 48 108 34 235 58 1678 160 5177 128 90 712 189 63 77 131 288 57 130 38 21 95 186 97 26
internal_value=-1.10302 -1.05604 -1.19508 -1.08699 -1.09604 -1.06357 -1.23871 -0.919539 -0.958707 -0.870562 -1.07835 -1.27028 -1.14664 -1.08416 -0.952855 -0.852368 -1.18399 -0.857147 -0.813459 -0.775932 -1.06992 -1.18438 -0.84634 -0.977896 -1.12483 -1.26517 -0.925146 -1.05191 -0.970975 -1.06503
internal_weight=0 2702.68 1379.28 2203.12 2121.3 343.572 1035.71 499.56 183.926 376.832 1875.85 810.871 64.5238 1835.6 201.554 81.8188 252.774 119.402 40.2442 175.279 122.728 159.646 97.1183 79.158 224.835 102.772 57.2066 104.435 53.5481 40.9094
internal_count=12273 8126 4147 6624 6378 1033 3114 1502 553 1133 5640 2438 194 5519 606 246 760 359 121 527 369 480 292 238 676 309 172 314 161 123
is_linear=0
shrinkage=1


Tree=1
num_leaves=31
num_cat=0
split_feature=45 125 85 239 133 114 11 260 49 139 200 248 25 260 49 124 22 89 233 133 207 36 103 26 131 277 45 82 59 2
split_gain=157.913 124.704 81.4881 70.3551 67.7714 63.4394 57.2719 53.1457 43.8097 45.2318 40.1532 37.4463 36.6521 34.0509 31.9583 30.7786 29.7044 33.9479 27.1536 26.7073 26.4713 28.4009 25.0073 21.9542 23.621 21.7852 20.6991 20.2545 20.1319 19.6417
threshold=-0.06669328942488556 -0.026153000071644696 -1.0000000180025095e-35 0.036793500185012755 -0.026848943139390308 -0.03287399932742114 0.023292999714612954 0.023806722773641705 0.090983998030424104 -0.035624999552965143 -0.088621978351390227 -0.025380200221206711 0.0070915000978856507 0.078952502459287616 0.058502382996480036 0.0073022178873788706 -0.028791134532698773 0.00042350000876460004 -0.10030400007963174 -0.067407000809907844 0.032851500436663558 -0.041190000250935492 0.032019000500440556 -0.057158499956130891 0.052189624865657258 -0.032420649368433592 -0.0052239999640732492 0.0085915001109242006 0.022100499831140003 0.0095654622531528271
decision_type=2 2 2 2 2 2 2 2 2 2 2 2 2 2 2 2 2 2 2 2 2 2 2 2 2 2 2 2 2 2
left_child=4 7 3 8 15 18 12 11 9 -3 -4 14 13 -7 26 19 -12 -18 -6 -1 21 -5 27 -17 -25 -13 -2 -21 -9 -20
right_child=1 2 10 20 5 6 -8 28 -10 -11 16 25 -14 -15 -16 23 17 -19 29 22 -22 -23 -24 24 -26 -27 -28 -29 -30 -31
leaf_value=-1.3454541461052314 -0.71256752856761341 -1.0523480733537758 -1.2666123750554381 -1.1547258017975939 -0.72343184917160408 -0.68645137326955896 -1.1549626635621133 -1.2107029528974182 -1.1705804964961239 -0.79404993309754346 -1.2549074038797281 -0.75670383102132543 -1.291997960780449 -0.91130260074815961 -1.2375348952526313 -1.2521621185658165 -1.1125066404757278 -0.98133784798723322 -1.0257481990397934 -1.1543299766563515 -1.239956775932386 -0.94212777223356781 -1.2936717356634166 -0.96568308306484274 -0.57254891388687157 -1.2795492600883764 -1.1611087649323708 -0.91355745974144065 -1.3245371388270546 -1.2720800396731327
leaf_weight=45.52014684677124 44.181318998336792 84.011447489261627 153.63049560785294 111.45741838216782 18.408882915973663 191.4523823261261 41.838370263576508 258.72848170995712 48.867216467857361 222.91483676433563 114.13507407903671 8.0329670906066877 12.049450635910032 88.697344958782196 21.421245574951172 15.061813294887541 1478.0659446716309 201.82829815149307 82.003205716609955 56.90018355846405 89.032051920890808 114.80448800325394 39.830128490924835 47.193681657314301 19.4130038022995 66.941392421722412 11.71474367380142 70.288462042808533 304.24862855672836 45.185439884662628
leaf_count=136 132 251 459 333 55 572 125 773 146 666 341 24 36 265 64 45 4416 603 245 170 266 343 119 141 58 200 35 210 909 135
internal_value=-1.09034 -1.11867 -1.08835 -0.998196 -0.968246 -0.898713 -0.826681 -1.22969 -0.906756 -0.864751 -1.11941 -1.07246 -0.779676 -0.757641 -0.925974 -1.0816 -1.10681 -1.09675 -1.06397 -1.14175 -1.10138 -1.04685 -1.08623 -0.925067 -0.851101 -1.22353 -0.806573 -1.02127 -1.27222 -1.11326
internal_weight=0 3334.02 2618.75 671.087 773.842 479.635 334.038 715.269 355.794 306.926 1947.66 152.292 292.199 280.15 77.3173 294.207 1794.03 1679.89 145.598 212.539 315.294 226.262 167.019 81.6685 66.6067 74.9744 55.8961 127.189 562.977 127.189
internal_count=12273 9961 7824 2005 2312 1433 998 2137 1063 917 5819 455 873 837 231 879 5360 5019 435 635 942 676 499 244 199 224 167 380 1682 380
is_linear=0
shrinkage=1


Tree=2
num_leaves=31
num_cat=0
split_feature=218 246 217 157 29 298 216 269 19 266 248 214 223 12 299 140 264 201 223 248 203 26 63 3 180 138 222 295 116 232
split_gain=76.2307 52.6002 45.6752 41.9693 41.6283 39.5557 43.337 34.6901 30.3391 29.4488 29.1438 24.6792 24.5757 22.5293 21.8311 20.6509 20.4788 20.4375 19.9669 19.9592 19.7726 23.2653 18.0029 16.7523 16.3418 15.5741 15.2411 15.0499 14.9538 14.74
threshold=0.021800999529659703 -0.031402658264542187 0.099889501929283114 0.074217002838850007 0.061718098789576507 -0.0020084999268873993 0.016537352037357365 0.10982500016689302 -0.0047014529779624489 -0.079330999404191888 -0.0047793446872420207 -0.0013514636296131758 0.019400499761104553 -0.046549500897526692 0.098123034931963254 -0.10233150050044053 -0.058235801024844248 0.025252500548958754 0.022546499967575004 -0.0012091969936729103 -0.0053644999861716487 0.033276193181815496 -0.040569892540024376 -0.066176999360322938 0.049394499510526609 0.070285194221323219 0.035033025014520776 0.047564344742582441 -0.034185072431018086 0.0045564733595617893
decision_type=2 2 2 2 2 2 2 2 2 2 2 2 2 2 2 2 2 2 2 2 2 2 2 2 2 2 2 2 2 2
left_child=2 3 5 12 13 7 9 22 -4 23 16 -11 -2 18 15 -10 -8 -17 -3 20 21 -6 25 -7 -24 -1 -9 -22 -15 -30
right_child=1 4 8 -5 19 6 10 26 14 11 -12 -13 -14 28 -16 17 -18 -19 -20 -21 27 -23 24 -25 -26 -27 -28 -29 29 -31
leaf_value=-1.1652930445078138 -0.71625428984649986 -0.73541957171092398 -0.71622427885229489 -1.1584674898956544 -0.7526708306545089 -0.60037183755659751 -1.1013553674839378 -1.109021424183497 -0.58215425465014869 -1.1976381396418485 -1.1577160146007635 -1.11001219600246 -1.0459835036498633 -0.7849447170035122 -0.7776429327616563 -1.1573975928656401 -0.72425140132044885 -0.89415247064020287 -1.0959876868061447 -1.3177802524125486 -1.1820014966917534 -1.3609559239008322 -1.2831140649772026 -0.99155897709267626 -1.1394899346873621 -0.8408439319217208 -0.75782380410519012 -0.81015869071367119 -0.85304179178082129 -1.1186971050583456
leaf_weight=120.42977768182755 104.12850943207741 53.561309963464737 31.937178611755371 33.267894387245178 24.950920790433884 11.976441979408262 16.966626137495041 247.84581318497658 7.3189367651939383 340.66323852539062 31.937178611755371 1917.5614324808121 25.283599734306335 18.962699800729752 25.948957622051239 117.76834613084793 54.892025738954544 34.265931218862534 18.6300208568573 49.901841580867767 122.75853028893471 7.3189367651939383 355.96646994352341 55.557383626699448 89.157956957817078 14.970552474260328 11.643763035535811 10.645726203918455 22.954847127199173 103.79583048820496
leaf_count=362 313 161 96 100 75 36 51 745 22 1024 96 5764 76 57 78 354 165 103 56 150 369 22 1070 167 268 45 35 32 69 312
internal_value=-1.10253 -1.0034 -1.11948 -0.857933 -1.05799 -1.12833 -1.10893 -1.18445 -0.986275 -1.11739 -0.919267 -1.12323 -0.780674 -0.965516 -1.03282 -1.07437 -0.81329 -1.09807 -0.828469 -1.15145 -1.10136 -0.890632 -1.22521 -0.922186 -1.25435 -1.12942 -1.09326 -1.15233 -1.03341 -1.07059
internal_weight=0 596.161 3486.81 162.68 433.481 3269.57 2429.55 840.014 217.239 2325.76 103.796 2258.22 129.412 217.905 185.302 159.353 71.8587 152.034 72.1913 215.576 165.674 32.2699 580.525 67.5338 445.124 135.4 259.49 133.404 145.713 126.751
internal_count=12273 1792 10481 489 1303 9828 7303 2525 653 6991 312 6788 389 655 557 479 216 457 217 648 498 97 1745 203 1338 407 780 401 438 381
is_linear=0
shrinkage=1


Tree=3
num_leaves=31
num_cat=0
split_feature=85 95 49 59 45 239 275 24 207 9 245 292 116 234 205 125 211 222 262 171 265 61 274 258 223 149 49 108 137 116
split_gain=112.985 77.9936 60.0901 54.964 46.1504 36.184 32.65 30.5489 29.2047 28.5597 26.2206 23.831 25.3048 20.4195 19.0063 18.7439 18.146 18.1429 19.268 17.4942 16.8934 16.7476 16.4058 15.6366 15.432 14.8443 14.8004 15.1311 14.5915 14.3462
threshold=-0.0073488978027684516 -0.038929000496864243 0.073762498795986162 0.058718678278391827 -0.059820499271154341 0.068102501332759871 0.047762999311089453 1.0000000180025095e-35 0.00083249999443065013 -0.065358720404112766 -0.040928998962044695 -0.03592599928379054 0.078510500490665422 0.031908169793803974 -0.013244757385745905 0.011585968660184742 0.017181499861180751 0.0039780000224709008 0.0040252637730394522 -0.0040432870086259502 0.081919498741626712 0.078970721233343366 0.045201500877737957 -0.13133449852466578 0.032956499606370905 -0.042551554155284145 0.05074950121343131 -0.071867000311613041 -0.05117600038647644 0.021604185462411978
decision_type=2 2 2 2 2 2 2 2 2 2 2 2 2 2 2 2 2 2 2 2 2 2 2 2 2 2 2 2 2 2
left_child=3 9 4 5 24 11 7 -6 16 -2 21 12 15 19 23 -1 -4 18 28 20 -5 -11 -8 -12 -3 -16 -13 -28 -7 -10
right_child=1 2 8 13 6 17 22 -9 29 10 14 26 -14 -15 25 -17 -18 -19 -20 -21 -22 -23 -24 -25 -26 -27 27 -29 -30 -31
leaf_value=-0.036119756861611903 -0.14560085280052515 -0.12960849508135275 -0.018631863343656411 -0.082760329279014 0.020385325468975098 0.093811617837807407 0.28861318282105614 -0.10949415696528834 0.13910477763985638 0.35657126676957579 0.37968583016516777 -0.22331928611699112 0.17177286298986805 0.32367606522140074 -0.11113777600928837 -0.19509824396722306 0.26289207816951443 -0.12096617755987424 0.26686737728399995 0.15964026838190226 0.41261580516532936 0.09328149841051038 -0.16463425458049069 -0.011039778896207423 0.090175166583667546 0.27064857154480443 0.17713780993550091 -0.13940772953339514 -0.14373049009985409 0.34049453867276275
leaf_weight=153.22450953722 24.285578846931458 286.86839079856873 90.27531161904335 88.976359784603119 1769.7355265915394 60.484776705503464 54.27895712852478 179.52212536334991 56.553318053483963 97.562203019857407 10.298713624477385 293.50115635991096 33.285780280828476 24.898984789848328 10.449946045875548 118.26172563433647 26.700516730546951 68.873884171247482 33.157648205757141 58.833507150411606 6.6594024896621695 27.978873193264008 8.2843174338340742 87.850207656621933 31.955256164073944 74.577682435512543 15.088580444455145 136.89880259335041 37.829485505819321 72.835275560617447
leaf_count=481 73 901 265 280 5263 187 158 547 164 276 30 969 102 76 31 388 76 215 99 180 20 81 25 259 97 217 47 442 118 206
internal_value=0 0.0310143 0.0133593 -0.0807596 -0.00153488 -0.1095 0.0152706 0.00842373 0.15426 0.167642 0.192283 -0.139746 -0.0751037 0.0715593 0.119903 -0.105372 0.0456279 0.00376453 0.0691069 0.0309204 -0.0482658 0.297893 0.228596 0.0299588 -0.10758 0.223727 -0.18397 -0.107983 0.00240987 0.252471
internal_weight=0 2910.01 2577.01 1129.97 2330.64 950.606 2011.82 1949.26 246.364 333.003 308.718 750.261 304.772 179.368 183.177 271.486 116.976 200.346 131.472 154.469 95.6358 125.541 62.5633 98.1489 318.824 85.0276 445.489 151.987 98.3143 129.389
internal_count=12273 8669 7702 3604 6991 3048 5993 5810 711 967 894 2429 971 556 537 869 341 619 404 480 300 357 183 289 998 248 1458 489 305 370
is_linear=0
shrinkage=0.3


Tree=4
num_leaves=31
num_cat=0
split_feature=125 45 107 48 119 24 9 235 171 215 253 49 9 262 36 107 123 260 242 159 218 218 20 276 262 130 156 244 140 175
split_gain=100.399 102.894 60.0955 58.3653 44.9948 44.2778 42.319 41.3988 40.5632 43.5087 36.0232 33.2134 27.981 35.6248 32.2205 26.6025 24.9801 24.7906 28.4608 22.9052 21.8375 21.3796 21.2068 18.586 17.5075 17.3916 16.5825 14.1834 13.7814 13.46
threshold=-0.037961499765515293 -0.038203500211238792 -0.016520174976075573 -0.052009668988308284 -0.091157998889684635 1.0000000180025095e-35 0.026888808059197581 0.017859195731728936 0.0076574999839067008 0.053767500445246655 -0.045060449005048138 0.073072001338005052 -0.040961500257253598 0.018145999871194352 -0.062917999923229176 -0.082346732795062036 -0.021829667924979704 0.077559497207403169 1.0000000180025095e-35 -0.036383500322699498 0.028403999283909753 0.0028783198336755213 0.044049000367522205 0.098854787897544275 -0.0060199373824393878 0.053298350199060048 0.092022497206926304 -0.061357500031590399 -0.0045033027380256612 -0.010848499834537449
decision_type=2 2 2 2 2 2 2 2 2 2 2 2 2 2 2 2 2 2 2 2 2 2 2 2 2 2 2 2 2 2
left_child=3 2 8 12 27 17 11 10 9 15 -7 21 13 26 -14 -2 22 18 -6 -11 -9 -4 -16 -5 -25 -19 -1 29 -18 -3
right_child=1 4 6 23 5 7 -8 20 -10 19 -12 -13 14 -15 16 -17 28 25 -20 -21 -22 -23 -24 24 -26 -27 -28 -29 -30 -31
leaf_value=0.38893979451488486 -0.15060709713111259 -0.030894888035448424 0.31646829812789307 -0.18915552997683674 -0.019846831907174161 -0.16442657440951927 0.015883807634350256 -0.10445090833812849 -0.13879515791117045 -0.060991953026060017 0.22835358942682313 -0.025874898426694787 -0.22869804314917558 -0.28582501011035172 -0.11845386046567963 0.059762769569675418 0.30804468901181298 -0.18408256328442629 0.13435797006931627 0.29589523949392615 0.14721994543150091 0.13360100726649718 0.20367364463111673 0.30931350877128083 -0.20061552394345794 0.088111323542886269 -0.067488791123244213 -0.23570033343511632 -0.10132177140682554 -0.24004476168719707
leaf_weight=38.274761021137238 65.367243260145187 112.18451976776123 221.30714797973633 400.03384360671043 1481.9484105110168 23.7390256524086 103.64165699481964 99.491533070802689 98.164912045001984 19.527610003948212 183.12623572349548 38.866052955389023 61.817727297544479 11.482559174299238 85.231122970581055 313.86412844061852 34.266043543815613 122.27442970871925 116.16293755173683 94.554872959852219 45.094027280807495 77.756948858499527 23.455192118883133 13.479872912168505 11.008167147636412 25.53894916176796 8.8134710490703565 85.711300909519196 9.4404968023300153 36.769965767860413
leaf_count=111 200 343 628 1290 4478 72 304 297 298 57 531 116 196 37 264 926 100 379 348 273 134 227 73 39 36 78 27 267 30 114
internal_value=0 0.021023 0.099841 -0.104051 -0.0138919 4.67639e-05 0.183584 0.0971998 0.0373219 0.0723676 0.18328 0.235017 0.0042245 0.187974 -0.0460173 0.0235018 0.0280866 -0.0195099 -0.00863805 0.234807 -0.0259586 0.268923 -0.0489367 -0.173625 0.0800839 -0.137053 0.30351 -0.138472 0.219623 -0.0825243
internal_weight=0 3365.09 1033.05 697.303 2332.04 2097.38 441.572 351.451 591.479 493.314 206.865 337.93 272.781 58.5708 214.211 379.231 152.393 1745.92 1598.11 114.082 144.586 299.064 108.686 424.522 24.488 147.813 47.0882 234.666 43.7065 148.954
internal_count=12273 10070 3029 2203 7041 6317 1275 1034 1754 1456 603 971 838 175 663 1126 467 5283 4826 330 431 855 337 1365 75 457 138 724 130 457
is_linear=0
shrinkage=0.3


Tree=5
num_leaves=31
num_cat=0
split_feature=245 146 33 95 272 282 226 2 154 121 141 78 63 230 139 217 296 269 63 150 269 228 2 246 27 266 177 88 19 172
split_gain=60.9458 38.9737 36.0109 31.9988 32.1879 25.3451 25.3287 40.6059 34.6632 24.9978 21.6751 22.3996 20.6947 20.0454 20.0073 19.9354 18.1385 18.9833 17.6031 16.922 16.9146 20.5804 16.763 16.8245 16.5523 18.8877 15.5697 15.3344 14.8974 14.7991
threshold=0.012767858313537698 -0.05395313453717232 -0.015434500295668797 -0.030365499667823297 0.091341499239206314 -0.027062607108210564 0.03323350101709361 0.0067824998404830009 -0.0058830000925808494 0.0088607089877077317 0.018860000185668403 0.047183001413941356 -0.037292500957846593 0.010997000150382451 -0.022049642949914659 0.04178742371443623 0.021356220570311366 0.14600650315084829 1.0000000180025095e-35 -0.056187868312000781 0.12034600228071206 -0.0326469644847917 0.030888999812304901 -0.0024620000040157992 0.051599053172401661 0.029369500465691051 -0.045428000390529598 0.0443172299825806 0.067703500390052754 0.066988002508878722
decision_type=2 2 2 2 2 2 2 2 2 2 2 2 2 2 2 2 2 2 2 2 2 2 2 2 2 2 2 2 2 2
left_child=3 29 9 20 6 13 7 18 -9 19 11 -8 -12 15 -7 -6 17 -4 -5 -3 24 -22 23 -11 -1 -26 -18 -15 -21 -2
right_child=1 2 16 4 5 14 10 8 -10 22 12 -13 -14 27 -16 -17 26 -19 -20 28 21 -23 -24 -25 25 -27 -28 -29 -30 -31
leaf_value=-0.14736822324567506 0.3260388390276181 0.43646455592558558 -0.086984128752140885 -0.0062301380772354295 -0.016754497021956603 0.33062307867827645 -0.14392069642717753 0.22132809478445586 0.012919529146771072 0.22408458494513511 0.14089072171285602 0.25597699663435591 -0.064849445848042836 0.15031126449606075 0.03617236542197208 0.27940082369059044 -0.1101816156381675 0.27914593136893839 -0.11067935914798313 0.070202985675919288 -0.056793478384929263 0.30715712862447764 0.33190106369474132 0.031279941231028098 -0.069077162434399861 0.2318749717229823 0.26564752696614563 -0.14828643999167443 -0.19676413740663171 -0.042113736776228185
leaf_weight=292.20703727006912 72.670889168977737 6.9243424236774436 195.68657147884369 1704.5667055547237 40.165719866752625 58.43412309885025 280.96261236071587 129.08910951018333 161.91735982894897 88.172525733709335 65.121609568595886 13.198387980461119 135.66977614164352 20.526510238647461 32.220185726881027 41.68803858757019 14.57683628797531 13.633043229579924 158.74216005206108 40.595246881246567 44.193687528371811 20.455742835998535 51.039958447217941 75.708939343690872 125.92272886633873 22.0557020008564 31.058085590600967 62.944247782230377 35.058519959449768 11.36365833878517
leaf_count=911 213 21 602 5149 123 170 865 379 492 263 193 39 417 62 97 122 45 40 490 122 134 61 149 228 389 68 94 194 107 34
internal_value=0 0.0859147 0.0569618 -0.0152104 -0.00309636 0.0984904 -0.0129119 0.00114829 0.105369 0.127867 -0.07411 -0.125978 0.00187718 0.028588 0.22597 0.134077 -0.0257756 -0.063138 -0.0151286 -0.0124261 -0.0849249 0.0583642 0.181771 0.135014 -0.10597 -0.0242212 0.145599 -0.0748575 -0.0535116 0.276255
internal_weight=0 636.489 552.454 3410.08 2905.25 255.979 2649.27 2154.32 291.006 297.5 494.952 294.161 200.791 165.325 90.6543 81.8538 254.955 209.32 1863.31 82.5781 504.835 64.6494 214.921 163.881 440.185 147.978 45.6349 83.4708 75.6538 84.0345
internal_count=12273 1918 1671 10355 8792 768 8024 6510 871 890 1514 904 610 501 267 245 781 642 5639 250 1563 195 640 491 1368 457 139 256 229 247
is_linear=0
shrinkage=0.3


Tree=6
num_leaves=31
num_cat=0
split_feature=245 207 163 262 81 24 133 27 213 189 95 39 119 118 184 55 22 292 223 286 102 171 156 240 114 77 117 120 45 219
split_gain=74.0564 72.2546 47.3776 40.0586 44.7783 37.9616 30.8212 28.9175 25.5116 22.5747 22.0989 20.7773 19.9234 19.9524 19.7666 18.2813 16.087 15.9821 15.2787 14.7988 14.1427 14.1145 15.4167 13.9693 13.721 13.2112 12.89 12.7457 12.6685 13.1006
threshold=-0.04954454792541408 -0.00035800000478044994 0.049109122969575453 -0.028314318907503133 0.036934165086952485 0.012256499845534502 -0.081415001302957493 0.027529178797135876 0.017960148309216401 0.074309294791350386 0.002368422009157824 0.0010556766899635593 -0.14942399412393562 -0.088659502565860679 -0.037444707462973653 0.010670763126206175 -0.016144766371315806 -0.042427999898791244 -0.012548255842033579 0.035455634832504898 -0.011262921769300464 -0.029049353087588829 0.06518299877643581 0.1117359791702182 -0.050771727222986403 -0.11181677272144068 -0.068742997944354983 0.026665000244975052 -0.021657000295817797 -0.0073325000703334487
decision_type=2 2 2 2 2 2 2 2 2 2 2 2 2 2 2 2 2 2 2 2 2 2 2 2 2 2 2 2 2 2
left_child=5 6 3 12 10 7 18 -1 23 17 -5 15 -3 -14 -6 16 -9 -7 28 -20 -4 25 -23 26 -17 -10 -8 -13 -2 -30
right_child=1 2 20 4 14 9 8 11 21 -11 -12 27 13 -15 -16 24 -18 -19 19 -21 -22 22 -24 -25 -26 -27 -28 -29 29 -31
leaf_value=0.22546903408673896 -0.17143107128856647 0.31269903796002252 0.10966502748428274 0.012583196884479049 0.23364765848685359 0.069529195563353005 -0.045952627812532072 0.17868865015403299 0.33511065133519791 0.34584168524444225 -0.11213428108501436 0.29599931586457501 0.21114879243059331 -0.10056028152459037 0.053443411454931304 0.38746223838167504 -0.12378659426981817 -0.14089410811173275 0.42009902347402955 -0.066790237373777053 0.33792607469652669 -0.06592870184069391 0.12701013570292938 -0.016805758126008208 0.069519738715927537 -0.11799744384843758 -0.19422010323119629 -0.012247586794658264 -0.084104152026574633 0.47681288126100108
leaf_weight=198.61260502040386 20.777299150824547 11.457952976226805 54.83075362443924 1565.5139785706997 113.14843793213367 50.160050019621849 61.97055558860302 19.657854601740837 6.0008494257926932 13.027310520410536 139.23988023400307 48.648846358060837 19.276137992739677 448.35788241028786 106.20228067040443 14.622124314308165 81.15632127225399 92.193331524729729 19.311507284641269 7.9235891401767722 44.059662044048309 80.155849248170853 69.669695466756821 59.472225487232208 74.238257512450218 165.90244296193123 355.53145399689674 16.057676076889038 7.6582140028476715 7.3384440243244153
leaf_count=575 67 34 166 4619 331 152 205 58 18 38 467 139 59 1467 320 45 256 309 55 26 128 257 216 189 227 536 1220 50 23 21
internal_value=0 -0.017943 0.00785993 -0.000514184 0.0188131 0.0957978 -0.0928649 0.139687 -0.108801 -0.0321566 0.0023966 0.0727117 -0.0781352 -0.0877115 0.146399 0.0226341 -0.0648067 -0.0667487 0.109137 0.278447 0.211365 -0.0435178 0.0237889 -0.152835 0.121838 -0.10218 -0.172213 0.219504 -0.0197601 0.190374
internal_weight=0 3363.8 2502.09 2403.2 1924.1 608.374 861.712 452.994 798.703 155.381 1704.75 254.381 479.092 467.634 219.351 189.675 100.814 142.353 63.0091 27.2351 98.8904 321.729 149.826 476.974 88.8604 171.903 417.502 64.7065 35.774 14.9967
internal_count=12273 10424 7591 7297 5737 1849 2833 1350 2641 499 5086 775 1560 1526 651 586 314 461 192 81 294 1027 473 1614 272 554 1425 189 111 44
is_linear=0
shrinkage=0.3


Tree=7
num_leaves=31
num_cat=0
split_feature=108 171 283 49 173 9 259 173 85 232 45 179 111 140 140 31 137 247 275 77 205 64 144 49 171 264 269 157 197 59
split_gain=80.8675 85.6748 54.0284 52.0594 40.0572 37.7799 39.8002 32.8739 35.6518 33.623 29.737 28.0728 27.2668 26.0935 23.3566 23.8152 20.6872 20.2602 18.7055 18.6902 16.7174 14.535 14.4346 14.4196 14.0874 13.5987 13.4289 13.1087 13.063 12.9893
threshold=-0.054655000567436142 -0.046529499813914244 0.030070500448346103 0.070705000311136218 -0.068427120333408503 -0.036749391332523647 0.023594000376760904 -0.050873501226305892 0.0049204254157916528 0.075457240926828303 -0.088983997702598489 -0.023765338748308305 0.064157702510800316 0.031385000795125954 0.04209550097584721 -0.064641825599312516 -0.052520999684929792 -0.049963359338203735 -0.08299950137734409 -0.078159999102354036 -0.059349998831748893 -0.029344223951131801 -0.1060374568267846 0.0086010000668466004 0.014241000171750751 -0.065140378248044389 0.047491500154137556 0.039974664263399802 0.058364499360322904 -0.050975499674677793
decision_type=2 2 2 2 2 2 2 2 2 2 2 2 2 2 2 2 2 2 2 2 2 2 2 2 2 2 2 2 2 2
left_child=7 2 11 5 22 12 10 -1 9 18 -7 -2 19 17 15 -13 -5 -6 28 -3 24 -11 -4 27 -18 -15 -20 -10 -9 -8
right_child=1 3 4 16 13 6 29 8 23 21 -12 14 -14 25 -16 -17 20 -19 26 -21 -22 -23 -24 -25 -26 -27 -28 -29 -30 -31
leaf_value=-0.19490835561055214 -0.035558539666786668 0.34504235948766676 0.21696825757850477 -0.22746741622014599 -0.021495441416266907 0.14269087045192796 0.19499397273442287 -0.036773552780626044 -0.19268118897931835 -0.0615332404333295 -0.0040909601818777267 0.032708794887878694 -0.12600920636814542 0.16552941431615209 -0.080241559744488114 0.31159047459649775 0.30925713263078136 0.16561244476152917 -0.21242410250069405 0.11695592163799133 -0.10621158910415733 0.33209691592302371 -0.14142562061585207 -0.20149964134518009 -0.22500181978017195 -0.21654426825930265 0.0091538453319984364 0.17155588179251666 0.46183422595026158 -0.15039677158098785
leaf_weight=227.47146859765053 36.6227106153965 41.587153315544128 11.168444767594336 122.11181205511093 66.41742816567421 133.04824413359165 10.318135887384413 8.7428774982690829 15.610846310853956 10.637739107012747 1872.3053891062737 32.08723583817482 33.552677348256111 11.200970619916914 18.280591905117035 195.26519064605236 17.527552574872974 241.3397870361805 45.172186598181725 145.31729523837566 104.80615890026093 40.915355414152145 107.12986668944359 117.85355515778065 5.9497206807136527 33.335451364517212 54.096802666783333 20.663688167929649 10.300420135259627 194.98474988341331
leaf_count=754 109 115 33 410 202 384 29 27 51 33 5726 94 104 32 55 550 53 713 146 433 342 114 349 395 21 107 165 64 29 634
internal_value=0 0.0162695 0.105695 -0.0088372 0.0434537 0.00457784 -0.00723218 -0.107492 -0.0461182 0.0486762 0.0056475 0.209467 0.123004 0.0941734 0.245999 0.272231 -0.139085 0.125232 -0.0394286 0.167706 -0.0549549 0.250873 -0.10759 -0.150592 0.173863 -0.120452 -0.0916748 0.0148055 0.232921 -0.133038
internal_weight=0 3434.36 752.848 2681.51 470.592 2431.11 2210.66 551.465 323.993 169.865 2005.35 282.256 220.457 352.294 245.633 227.352 250.395 307.757 118.312 186.904 128.283 51.5531 118.298 154.128 23.4773 44.5364 99.269 36.2745 19.0433 205.303
internal_count=12273 10495 2244 8251 1436 7425 6773 1778 1024 514 6110 808 652 1054 699 644 826 915 367 548 416 147 382 510 74 139 311 115 56 663
is_linear=0
shrinkage=0.3


Tree=8
num_leaves=31
num_cat=0
split_feature=299 180 115 223 272 215 131 245 10 260 299 134 237 244 283 241 245 104 291 287 167 243 194 146 53 265 223 280 14 241
split_gain=43.36 36.4975 31.0307 36.4964 25.9275 27.5136 24.3064 22.9573 21.4058 18.646 18.5296 18.3346 17.7886 16.9775 15.4121 16.2017 15.021 17.0325 14.2743 13.9169 13.5811 13.2498 16.0576 13.5478 12.5728 12.43 11.0501 10.8016 10.3101 10.0797
threshold=0.093224998563528019 0.071486607573506458 -0.078891010904456119 1.0000000180025095e-35 0.1366624981164932 0.039606001228094059 -0.03413470798113151 -0.011750239798466565 0.030235500074923004 0.10058949887752532 -0.015971500426530796 -0.054136499762535047 0.048571500927209806 -0.12777874242231307 -0.030666346208814099 -0.0015685000107622997 0.016687699502143119 0.027792500331997854 0.021608499810099553 -0.039021501317620194 1.0000000180025095e-35 0.017945499159395653 0.049490001052617957 0.030364358010013848 -0.012139500118792 0.073267497122287709 -0.0090553521482039483 -0.061840650412862082 0.017099999822676154 -0.017378000542521397
decision_type=2 2 2 2 2 2 2 2 2 2 2 2 2 2 2 2 2 2 2 2 2 2 2 2 2 2 2 2 2 2
left_child=1 2 8 6 5 13 7 -4 27 19 -8 16 14 -3 -13 26 17 -2 -15 -5 -17 22 -7 -23 -11 -10 -16 28 -1 -19
right_child=11 4 3 9 -6 21 10 -9 25 24 -12 12 -14 18 15 20 -18 29 -20 -21 -22 23 -24 -25 -26 -27 -28 -29 -30 -31
leaf_value=-0.06673182086577073 -0.09187735850576921 -0.1611517317208197 -0.0087096712378255392 0.035276341301433367 0.3294856234700182 0.10465008065835447 -0.096248008804350041 0.25279015318621911 0.25882201560711632 0.26978973313251903 -0.0047735625429892719 0.51759891616826481 0.35480000223310626 0.22341609257507947 0.13888252229366674 -0.13702661149891321 0.36116648543497981 -0.0080730869491572894 0.034975361967375565 -0.13116994798039799 0.32080315165335932 -0.02105626209141799 -0.15212318628548641 -0.27776654147173302 -0.027598028850252414 -0.15315261783695705 -0.082593202846112407 -0.059717853268205064 0.34297370527260373 0.47335765644609801
leaf_weight=9.1642448306083697 69.62654784321785 15.677948176860808 59.312291517853737 50.171699523925781 33.638943910598755 87.21790999174118 220.25972001254559 61.589777991175652 72.329754695296288 13.698910236358641 2094.4253997802734 8.4027659595012647 38.974725514650345 117.02890752255917 37.5512435734272 6.9557502269744864 9.9619429409503919 7.2071433663368216 52.366910040378571 457.16990007460117 36.07368016242981 48.255730286240578 29.276929393410683 30.007773041725159 193.83390326797962 7.2522292435169211 44.068340048193932 62.449396952986717 13.931438654661177 8.5659520924091321
leaf_count=29 214 50 181 159 95 265 692 181 216 41 6391 24 111 343 112 21 28 23 159 1479 106 152 90 97 597 22 133 196 41 25
internal_value=0 -0.00699673 -0.0174775 -0.024122 0.077048 0.0546915 -0.00662868 0.124503 0.109292 -0.083722 -0.013478 0.118067 0.176556 0.137519 0.124344 0.0978339 0.0125563 -0.0281093 0.165162 -0.11471 0.246795 -0.0240173 0.040119 -0.119484 -0.00796794 0.221279 0.0193025 0.00511107 0.180405 0.253379
internal_weight=0 3729.06 3315.59 3150.46 413.471 379.832 2435.59 120.902 165.127 714.874 2314.69 267.388 172.027 185.074 133.052 124.649 95.3616 85.3996 169.396 507.342 43.0294 194.758 116.495 78.2635 207.533 79.582 81.6196 85.5451 23.0957 15.7731
internal_count=12273 11476 10225 9721 1251 1156 7445 362 504 2276 7083 797 507 552 396 372 290 262 502 1638 127 604 355 249 638 238 245 266 70 48
is_linear=0
shrinkage=0.3


Tree=9
num_leaves=31
num_cat=0
split_feature=85 275 27 207 10 197 173 242 59 125 119 223 193 176 13 261 70 216 18 156 239 223 109 137 156 18 184 90 161 262
split_gain=55.5303 61.5075 38.1671 32.8992 30.3868 26.0856 23.856 23.3596 21.8368 20.7718 20.1876 19.1759 21.0349 18.321 17.6578 17.3955 17.1794 15.9456 15.4695 15.0025 14.9276 14.0227 13.9011 12.6452 12.4223 12.3413 11.2087 10.8187 13.7818 10.7694
threshold=0.030650918852501142 -1.0000000180025095e-35 0.0082470001652836505 0.048240716195729304 0.013356500305235353 -0.029502912178065287 -0.10540299862623213 0.0075940000824629506 0.067084997892379761 0.0077710000332444516 -0.089097000658512046 -0.06325352987887152 0.036092287248719539 -0.026638000272214347 0.0091554555711144854 0.045112054665779132 -0.063866950228672517 -0.12404149770736689 -0.050438874269032152 0.090016992096833573 0.13099500536918643 0.00051700000767590005 0.077765054272419684 -0.04638598164587663 0.13711500167846677 0.013503999914973903 1.0000000180025095e-35 0.0021125000203027502 -0.03956750035285949 -0.038083994055931943
decision_type=2 2 2 2 2 2 2 2 2 2 2 2 2 2 2 2 2 2 2 2 2 2 2 2 2 2 2 2 2 2
left_child=1 2 5 6 14 -1 -3 18 20 26 13 -6 15 -7 29 25 -10 -12 -8 -16 24 -18 -17 -9 -4 -13 -5 -14 -29 -2
right_child=4 3 8 9 11 10 7 23 16 -11 17 12 27 -15 19 22 21 -19 -20 -21 -22 -23 -24 -25 -26 -27 -28 28 -30 -31
leaf_value=0.28883387809516631 0.095311512552899588 0.22512993948969484 -0.13603358496906415 0.26630936883065626 -0.12676339534470105 0.27589525838310763 0.18648210903572812 -0.024690840790440399 0.29539313480467699 -0.0088398815067273796 0.31023510181113262 0.27702053325913073 0.27279883109898506 -0.026118663887219864 -0.047113622508926901 -0.072686139664112734 -0.11265472775350228 -0.095549840347416357 0.0038385992297474015 0.22516069122127055 0.28771035900508207 0.13551496288614676 0.10944469370274322 -0.17680009096589031 0.050458212282475774 -0.030704651790480545 0.019282277489409114 -0.091267834099821366 0.38673093461597052 0.24858955508083924
leaf_weight=30.36446487903595 59.060025855898857 42.223885864019394 703.48372611403465 86.96994112432003 63.805268794298172 35.60729868710041 42.807025462388992 98.377636030316353 17.205934032797813 53.932695552706718 9.291216313838957 32.978101804852486 49.998243808746338 36.719730123877525 58.022176176309586 153.90222796797752 62.26530085504055 140.65022769570351 1668.1908922195435 26.54671673476696 7.8756482154130927 30.543578594923019 49.958992376923561 98.373205870389938 33.685007736086845 18.204255223274231 20.411214157938957 20.009007290005687 7.4499650895595542 136.84094375371933
leaf_count=88 178 124 2545 253 215 106 130 326 51 176 27 95 142 114 182 480 209 481 4960 76 24 92 149 344 113 56 62 63 21 391
internal_value=0 -0.0171787 -0.0744306 0.0128587 0.077358 0.0280187 0.00208757 -0.00284899 -0.1047 0.143061 -0.00761165 0.0238808 0.0527886 0.122566 0.152922 0.0112053 0.0200623 -0.0704051 0.00840811 0.038355 -0.123123 -0.0309816 -0.0280525 -0.100744 -0.127512 0.167571 0.219354 0.18971 0.0384193 0.202379
internal_weight=0 3218.98 1107.69 2111.29 676.776 252.633 1949.97 1907.75 855.059 161.314 222.268 396.306 332.501 72.327 280.47 255.044 110.015 149.941 1711 84.5689 745.044 92.8089 203.861 196.751 737.169 51.1824 107.381 77.4572 27.459 195.901
internal_count=12273 10225 3850 6375 2048 816 5884 5760 3034 491 728 1221 1006 220 827 780 352 508 5090 258 2682 301 629 670 2658 151 315 226 84 569
is_linear=0
shrinkage=0.3


Tree=10
num_leaves=31
num_cat=0
split_feature=294 171 211 290 200 163 260 93 76 176 173 173 107 2 205 22 153 205 119 268 45 70 261 270 9 297 127 254 279 174
split_gain=58.6569 60.4301 38.8396 29.9187 29.8648 36.3381 36.532 28.0826 27.7412 22.5092 24.9342 22.2274 17.6033 17.3352 15.6693 15.4541 15.4347 15.3329 14.8769 14.4848 14.1556 16.6107 15.0863 14.1226 12.1538 11.4994 10.1299 12.3489 9.86975 9.6779
threshold=-0.058474499732255894 -0.053532977337071637 0.0068716345360560474 0.012143358292998023 -0.1178115010261535 -1.0000000180025095e-35 0.064531632552243007 0.060507500544190358 0.015383321508070381 -0.011997499968856549 0.0068624999839812005 -0.055596281119654804 -0.01128529421420927 0.071282003074884415 -0.069937218561143474 0.077743750139906739 0.058884499594569206 -0.019765890321958295 -0.0065595000050961494 -0.042550999671220745 -0.038769232724581486 -0.081035997718572589 0.092690729155321464 -0.032363500446081092 -0.0049380153779554356 -0.060250350650110709 -0.040996191692213142 -0.067859999835491139 0.013478500302880952 0.014250500127673102
decision_type=2 2 2 2 2 2 2 2 2 2 2 2 2 2 2 2 2 2 2 2 2 2 2 2 2 2 2 2 2 2
left_child=9 3 4 7 -3 6 -6 8 13 17 14 -7 -4 -2 -11 26 19 20 -10 -14 21 24 -23 -12 -1 -22 -5 -28 -9 -16
right_child=1 2 12 15 5 11 -8 28 18 10 23 -13 16 -15 29 -17 -18 -19 -20 -21 25 22 -24 -25 -26 -27 27 -29 -30 -31
leaf_value=0.50573964354201861 0.2029934462821221 -0.14776076342771613 -0.17919609548825322 -0.24227409833709215 0.14819708052521313 -0.16844181148799506 0.0090169828203023605 -0.19137929951634222 -0.075065828638514118 0.19300246097240431 -0.18725293713752164 -0.00193446602599283 -0.20583241153333973 -0.066882730618821468 -0.205397979795681 0.31723944833398149 0.20689037448490857 -0.18285639398877718 0.20761688731762315 0.035886043079394671 0.11842758357413925 -0.14443279424492128 0.11243053924775175 0.28095702385657684 -0.043351383555949412 -0.20003602216406546 0.18307575518841743 -0.14430328665874409 0.14478467300705303 -0.036742553620167713
leaf_weight=9.5611092001199705 349.9811769425869 106.80953039228916 153.93604499101639 30.428939089179039 312.68600361049175 75.593114957213402 371.2540431022644 31.111895158886909 64.452680617570877 19.267526462674141 6.9693861305713645 1586.3664060980082 41.87317119538784 22.817741468548775 47.352216064929962 8.5191704332828504 21.333131656050682 215.62435986101627 22.641559526324272 47.760874703526497 11.861447364091871 51.10298752784729 34.452788636088371 34.494508937001228 5.8464638441801062 73.057178974151611 16.990967303514481 26.610530450940132 10.517734602093695 86.664720550179482
leaf_count=28 1020 364 543 101 943 266 1175 103 207 59 22 4856 142 69 160 24 64 758 66 152 39 168 108 102 20 267 49 84 31 283
internal_value=0 0.0144098 -0.00440584 0.101957 0.00738069 0.0144443 0.0726478 0.129504 0.150862 -0.0878287 -0.00413465 -0.00950794 -0.113536 0.186475 -0.0599647 -0.0654016 -0.0224507 -0.128424 -0.00157787 -0.0770344 -0.0652821 0.0106432 -0.0409955 0.202259 0.297385 -0.155553 -0.109435 -0.0167277 -0.106447 -0.0963336
internal_weight=0 3301.68 2717.61 584.072 2452.71 2345.9 683.94 501.523 459.893 596.255 194.748 1661.96 264.903 372.799 153.284 82.5496 110.967 401.506 87.0942 89.634 185.882 100.963 85.5558 41.4639 15.4076 84.9186 74.0304 43.6015 41.6296 134.017
internal_count=12273 10259 8505 1754 7604 7240 2118 1496 1362 2014 626 5122 901 1089 502 258 358 1388 273 294 630 324 276 124 48 306 234 133 134 443
is_linear=0
shrinkage=0.3


Tree=11
num_leaves=31
num_cat=0
split_feature=145 223 272 260 0 95 127 79 104 115 217 280 2 249 195 112 271 167 96 280 149 246 19 151 184 233 194 79 193 21
split_gain=34.4079 34.4661 26.3469 23.3095 25.5812 25.2605 23.0438 17.7158 18.2316 17.2558 15.2177 14.9795 14.6642 14.5337 14.4201 14.3011 18.5271 12.9737 12.9532 12.2867 11.7 11.6703 11.4474 11.2931 12.3189 11.1409 13.9569 10.6012 10.0111 9.89698
threshold=-0.037564499303698491 -0.10889479815506141 -0.00062950002029529991 0.13271350413560865 0.054703999310731853 -0.0040900001768021986 -0.059459500014781889 0.052684110652900469 0.030264882169884325 -0.030653961453557501 0.085486501455306965 -0.080409001559019047 -0.009426500182598798 -0.022300500422716096 -0.010330500081181498 -0.0096414997242390468 0.071760501712560668 0.054633500054478611 0.068900499492883668 -0.10700076600872237 -0.024529499933123547 -0.023492500185966447 0.099722880380388151 -0.077752999961376149 -0.056232500821351991 0.0087215001694857519 -0.030402739818164898 -0.0052643695925815347 -0.020112499594688398 0.026599999517202353
decision_type=2 2 2 2 2 2 2 2 2 2 2 2 2 2 2 2 2 2 2 2 2 2 2 2 2 2 2 2 2 2
left_child=6 13 11 4 5 -4 7 8 15 14 -6 20 21 -2 -8 28 -17 19 -14 -16 -3 -5 -15 24 -13 -11 -27 -22 -1 -28
right_child=1 2 3 12 10 -7 9 -9 -10 25 -12 23 18 22 17 16 -18 -19 -20 -21 27 -23 -24 -25 -26 26 29 -29 -30 -31
leaf_value=0.2261669025266248 -0.036783307497943382 0.29883046058152163 -0.070510664176157062 0.2240921537409987 0.070084979091248639 -0.00070170055354077385 0.37531540848838457 0.38820346870847644 0.31574450553787797 -0.092253568599905897 0.33044498957907392 -0.19023273560168388 0.23117220184543749 0.35149270071789412 0.37717219432120735 0.28617430596842219 -0.053582814081857146 0.23254032643546702 -0.05582746758473469 -0.046508034310202923 0.17661975231368229 -0.033782695181155849 -0.070546740591278398 -0.12823100835767617 0.22792515380029729 0.32554378181132065 -0.12039347690830651 -0.14588898348676144 -0.16218366403951742 0.26466895610995428
leaf_weight=7.4571629613637915 16.097317755222321 13.789388328790663 596.27225057780743 19.63593527674675 114.05811451375484 2143.704191416502 16.58113032579422 28.217287451028824 33.931495994329453 104.82757350802422 24.553673028945923 10.046881958842279 79.764781713485718 41.395059987902641 6.8747457265853873 36.306142717599869 23.989359274506569 31.06905671954155 17.206343546509743 59.27612467110157 14.834184825420378 80.735595881938934 6.7236918807029715 295.03346775472164 17.188274547457695 14.723376110196112 24.618856742978096 24.036600112915039 30.039989218115807 7.9463807046413413
leaf_count=22 52 41 1934 59 360 6560 48 81 98 342 72 31 236 120 21 106 77 92 53 189 47 246 20 992 52 43 78 78 99 24
internal_value=0 -0.0077942 -0.0118466 -0.00269472 -0.00953259 -0.0158935 0.082498 0.17248 0.126269 0.0283761 0.116205 -0.0869286 0.0970475 0.209973 0.116731 0.0605264 0.150997 0.0726287 0.180248 -0.00247696 0.0614131 0.016666 0.292521 -0.111168 0.0736693 -0.0377238 0.0831556 -0.0228106 -0.0849513 -0.0264328
internal_weight=0 3515.08 3450.86 3075.93 2878.59 2739.98 425.859 159.941 131.724 265.917 138.612 374.929 197.343 64.2161 113.801 97.7927 60.2955 97.2199 96.9711 66.1509 52.6602 100.372 48.1188 322.269 27.2352 152.116 47.2886 38.8708 37.4972 32.5652
internal_count=12273 10953 10761 9520 8926 8494 1320 483 402 837 432 1241 594 192 350 304 183 302 289 210 166 305 140 1075 83 487 145 125 121 102
is_linear=0
shrinkage=0.3


Tree=12
num_leaves=31
num_cat=0
split_feature=245 59 242 161 207 165 240 243 213 151 108 26 146 10 184 132 45 211 81 37 133 202 146 63 48 102 95 69 227 3
split_gain=40.9931 40.6459 36.1856 29.5055 29.4166 26.7203 22.0098 19.6134 25.8575 18.8385 16.825 16.508 15.2088 15.3496 15.1004 14.6237 13.722 13.4404 13.0163 12.6749 12.5235 12.8963 12.1935 10.5799 10.5658 10.4777 10.2299 10.0809 9.59387 9.32695
threshold=-0.071411298070840415 -0.00041925102790118699 -0.035831582699346991 -0.049115476408221274 -0.0013469996675610349 0.032590501010417904 0.093245498836040455 -0.036500001326203291 0.068130999803543063 0.044226998463273007 -0.0560797062197518 -0.076838500797748482 0.038780000060796703 0.012459500227123452 0.026158999651670404 -0.054334213399586863 -0.052729999646544394 0.014106277501548761 0.018133500590920403 -0.0322569818196295 -0.017602979236819919 -0.052064620661705703 0.0374864486300601 0.055863000452518408 -0.0082584996707736977 -0.079466499388217829 0.021757500246167152 0.0097480722058072653 -0.0076465001329778992 -0.011203116439006513
decision_type=2 2 2 2 2 2 2 2 2 2 2 2 2 2 2 2 2 2 2 2 2 2 2 2 2 2 2 2 2 2
left_child=14 6 4 7 11 9 10 8 -4 -5 15 19 13 -6 16 -2 25 -13 -9 -3 21 22 -8 -17 -7 -1 -27 -23 -16 -22
right_child=1 2 3 5 12 24 20 18 -10 -11 -12 17 -14 -15 28 23 -18 -19 -20 -21 29 27 -24 -25 -26 26 -28 -29 -30 -31
leaf_value=-0.082309361179337695 0.25644220509316512 -0.019001065634926501 -0.037511387525220923 -0.0011996972036179615 0.22850424628932647 0.098968200425107386 0.10345915884657185 -0.17307261930911264 0.23542071373080264 0.24261992695163312 -0.15280541874382181 -0.087573189696450546 0.29457014668834564 0.026498498237020326 -0.22182877771163212 -0.11077912460063234 0.17953267233115786 0.14044503167665764 -0.060472194517961417 0.35064700046745539 -0.17744418953093896 -0.099887288720748826 0.48379358832977837 0.22540245783288812 0.31034591803129569 0.20437841213819471 -0.14322188842854178 0.10213697574794427 0.19615928073890043 0.0004651812230678262
leaf_weight=38.936589330434799 15.973677232861517 14.679106399416922 221.39711879193783 1738.2161637246609 60.57464811205864 75.907846167683601 33.046251013875008 155.11284555494785 36.373081639409065 28.995835617184639 316.14626176655293 114.28433068096638 62.048312157392502 76.746116548776627 18.698110267519954 58.519404530525208 172.48478412628174 29.212681099772453 228.5110367834568 19.358408108353615 49.777640178799629 49.504536986351013 9.8470887243747693 9.8421198278665525 29.574530333280563 35.578910872340202 9.6967761963605863 40.347830355167389 6.7175821959972373 56.763097986578941
leaf_count=147 50 47 737 5228 175 232 104 589 114 88 1239 395 186 243 68 211 513 88 763 57 183 173 30 31 87 108 34 137 21 195
internal_value=0 -0.00961085 0.00553116 -0.00746428 0.0922156 0.0115558 -0.0780348 -0.0629976 0.00100114 0.00280082 -0.121046 0.0033998 0.171304 0.115607 0.109228 -0.00199164 0.131067 -0.0411539 -0.106001 0.191232 -0.00604849 0.055437 0.190773 -0.0623785 0.158233 0.0317997 0.129932 -0.00916914 -0.111351 -0.0826571
internal_weight=0 3530.76 2890.99 2514.09 376.904 1872.69 639.768 641.394 257.77 1767.21 400.481 177.535 199.369 137.321 282.113 84.3352 256.697 143.497 383.624 34.0375 239.286 132.746 42.8933 68.3615 105.482 84.2123 45.2757 89.8524 25.4157 106.541
internal_count=12273 11382 9029 7838 1191 5635 2353 2203 851 5316 1531 587 604 418 891 292 802 483 1352 104 822 444 134 242 319 289 142 310 89 378
is_linear=0
shrinkage=0.3


Tree=13
num_leaves=31
num_cat=0
split_feature=125 133 205 162 260 151 283 146 259 213 59 234 171 196 204 225 240 227 296 150 279 275 251 232 135 134 202 84 112 120
split_gain=47.304 41.4544 40.2882 27.9564 29.5568 31.0919 27.4364 43.7988 26.4597 22.1324 15.9144 15.4445 14.9753 15.2537 13.9938 14.648 13.4013 12.8136 12.6002 12.6803 12.0575 11.0582 10.6927 10.6837 8.84506 8.51236 7.8068 6.64665 5.47296 11.2897
threshold=-0.087186999619007097 -0.042277000844478593 -0.005006000166758849 0.10203000158071511 0.13181910397620375 0.036627000197768156 0.039310225602801584 1.0000000180025095e-35 0.032598000019788707 -0.064749501645564936 0.028958848082231158 -0.038201499730348545 -0.062804264551278591 0.0039372746567097735 -0.0078710477058387442 1.0000000180025095e-35 0.12975299358367917 -0.043860999867319991 0.026333499699830953 -0.014503499958664149 -0.055911073948717048 -0.093882497400045326 0.086210001260042163 -0.0049890000373124495 -0.0058149998076259491 -0.0021689999848603495 0.029810000211000404 -0.11270800232887258 0.052990499883890103 -0.033362176685096591
decision_type=2 2 2 2 2 2 2 2 2 2 2 2 2 2 2 2 2 2 2 2 2 2 2 2 2 2 2 2 2 2
left_child=27 9 3 4 5 -3 7 20 -9 11 16 25 13 22 15 -5 -8 -6 19 -14 -4 -12 -11 -15 -13 -2 -16 -1 -29 -30
right_child=1 2 6 14 17 -7 10 8 -10 12 21 24 18 23 26 -17 -18 -19 -20 -21 -22 -23 -24 -25 -26 -27 -28 28 29 -31
leaf_value=0.11477162965551331 0.39502527552387739 0.12008036216459797 -0.25325175611705025 -0.085050890213540856 0.031657862350437979 -0.091385615067283474 -0.0021884839472962017 0.18719760560538712 -0.10779197548384009 -0.15646432152810602 0.15717705608298987 0.24461366522171535 -0.17940295816685878 -0.20988869869896462 -0.20751211498902786 0.23085427695439464 -0.21585229478802495 -0.19424300900612881 -0.21261797712877056 -0.051211693486957914 -0.0043693006356165416 -0.17477301088448724 0.22967996264240789 0.14164833806216692 -0.17301276806881091 0.0080423959735611682 0.05669637736220802 -0.23457318235630767 0.28887756546504506 -0.26501355780876229
leaf_weight=6.0258408635854712 18.610958233475689 757.00880470871925 17.738563016057014 32.104449287056923 46.541616126894951 68.214878395199776 208.85546576976776 173.18807019293308 32.501873075962067 50.721771910786629 9.6478049606084806 6.4091322124004391 93.254521355032921 8.8601750731468183 55.226237952709198 22.446093618869781 30.245574831962585 43.927733451128006 84.288117825984955 272.03082785010338 1415.7386161237955 141.49019016325474 7.3950262963771811 63.867156907916069 15.855962060391901 7.0550174415111533 12.308443814516066 94.437294095754623 5.7378296852111816 7.833359017968176
leaf_count=22 53 2337 64 107 148 228 687 513 110 174 31 19 341 30 198 70 106 152 309 950 4343 497 22 202 55 23 42 389 19 32
internal_value=0 0.00431295 0.0186943 0.0667751 0.0847542 0.1026 -0.00589289 0.0111269 0.140585 -0.0658871 -0.0773831 0.130041 -0.0820669 0.00725572 -0.0680754 0.0449357 -0.0292163 -0.0780292 -0.108063 -0.0839379 -0.0074491 -0.153583 -0.10733 0.0988215 -0.0527967 0.288652 -0.159359 -0.191866 -0.208973 -0.0308312
internal_weight=0 3695.53 3067.18 1037.78 915.693 825.224 2029.41 1639.17 205.69 628.349 390.239 47.9311 580.418 130.844 122.085 54.5505 239.101 90.4693 449.573 365.285 1433.48 151.138 58.1168 72.7273 22.2651 25.666 67.5347 114.034 108.008 13.5712
internal_count=12273 11811 9633 3282 2865 2565 6351 5030 623 2178 1321 150 2028 428 417 177 793 300 1600 1291 4407 528 196 232 74 76 240 462 440 51
is_linear=0
shrinkage=0.3


Tree=14
num_leaves=31
num_cat=0
split_feature=266 246 272 245 296 154 246 139 229 200 142 147 229 13 0 94 80 220 68 29 15 263 93 257 235 47 74 271 241 73
split_gain=28.506 20.8665 20.7684 23.8911 19.6311 24.5289 18.9688 17.4424 16.5056 13.514 13.5615 12.993 12.6796 12.6266 11.1169 10.9453 11.7714 11.1131 10.5453 10.1963 10.121 10.0964 9.33808 8.98555 8.78876 8.77993 7.94104 7.34717 6.88911 6.42595
threshold=-0.078653499484062125 -0.078797382087391968 -0.0026544999564065996 0.044968999922275509 0.049677418593295462 0.0017673813287568531 1.0000000180025095e-35 -0.026183835196721714 -0.027622565653751117 -0.010764220204948794 -0.011953999754041397 -0.074723497033119132 0.037841999903321259 0.047046000137925106 0.065943952192228886 -0.049156147151227333 -0.01779403810487961 -0.043770000338554348 -0.094684500247239997 0.06971485962733602 0.089411626672576058 -0.047050474710380256 0.045709689249035575 0.053528999909758505 0.0084910341412779509 0.046122498810291256 -0.10860749706625934 -0.010455499868839948 -0.031150000169873199 0.051627209411882084
decision_type=2 2 2 2 2 2 2 2 2 2 2 2 2 2 2 2 2 2 2 2 2 2 2 2 2 2 2 2 2 2
left_child=7 8 13 4 6 -6 -4 12 23 10 -5 -9 27 18 22 16 21 -17 26 -15 -20 -13 24 -2 -10 -19 -3 -1 -18 -29
right_child=1 2 3 9 5 -7 -8 11 14 -11 -12 15 -14 19 -16 17 28 25 20 -21 -22 -23 -24 -25 -26 -27 -28 29 -30 -31
leaf_value=0.026044498436892233 0.33064139925083241 0.37191304802944974 0.0022650849194235578 0.24169519359680644 0.24343897339742981 -0.029946977535494013 -0.053923582071974056 0.29842145868047143 -0.11216834618937756 0.35679499751989763 0.0015850741608142284 0.20349820710122715 -0.080557433409174109 0.28249677917055832 0.30473453083316454 0.31484610030646026 0.030517672313874103 -0.10167540026751194 -0.13397064704438127 -0.15221652834388882 0.11770310820591547 -0.1802461231394894 -0.24434568176798152 -0.050601855923740398 0.13254506659341439 0.19696696048823789 -0.01270193485444563 0.14377718061004982 0.29768444460301285 0.31577241309248821
leaf_weight=14.86482824385166 34.982013151049614 5.3484966158866873 2159.914243966341 32.521714642643929 61.834421306848526 56.549858167767525 721.31555274128914 15.456828087568281 20.836724534630775 20.068451970815659 60.653276979923248 9.5129796266555804 14.381089732050894 14.82000343501568 11.961835935711859 7.1246892511844626 12.84666435420513 91.550615414977074 250.17704114317894 7.2225999683141699 15.258108019828795 17.562487259507179 12.399914935231207 6.6162782311439505 36.07966822385788 9.8092447221279127 49.966130673885345 30.342702761292458 26.823259338736534 54.963256746530533
leaf_count=47 103 16 6679 95 187 189 2365 46 70 59 188 29 43 48 35 20 40 289 889 26 48 55 41 20 112 28 178 91 81 156
internal_value=0 -0.00517366 -0.00949345 -0.00177564 -0.00688226 0.112848 -0.0118017 0.0903353 0.116312 0.133489 0.0853929 0.0347518 0.182861 -0.079578 0.0376519 0.0114938 0.107082 -0.047317 -0.0946718 0.140056 -0.119504 -0.0454173 -0.0084382 0.270004 0.0429571 -0.0727739 0.0244874 0.220679 0.211165 0.254595
internal_weight=0 3578.53 3455.65 3112.86 2999.61 118.384 2881.23 305.239 122.876 113.243 93.175 190.687 114.552 342.792 81.2781 175.23 66.7454 108.485 320.75 22.0426 265.435 27.0755 69.3163 41.5983 56.9164 101.36 55.3146 100.171 39.6699 85.306
internal_count=12273 11348 10967 9762 9420 376 9044 925 381 342 283 588 337 1205 258 542 205 337 1131 74 937 84 223 123 182 317 194 294 121 247
is_linear=0
shrinkage=0.3


Tree=15
num_leaves=31
num_cat=0
split_feature=108 116 240 68 59 204 262 18 244 180 264 262 59 165 216 181 56 161 265 18 297 93 226 117 242 137 284 49 55 85
split_gain=33.5971 49.185 23.1083 22.7664 25.7607 19.987 19.3116 15.8939 17.5898 15.7759 14.8407 14.6989 13.1124 11.7097 11.174 11.0523 10.7711 13.0046 11.3467 10.3419 13.061 10.2756 10.1373 9.773 9.25826 9.18718 9.10863 8.81004 8.48528 10.0022
threshold=0.0009050159669840188 0.064752001315355259 0.067927529300558828 -0.065980882075367092 0.072602499276399612 0.079423002898693071 0.0021079999860375508 0.015660999342799103 -0.034551041746052162 1.0000000180025095e-35 0.032696999609470305 0.081668093500266978 0.046069500967860159 -0.023503500036895195 -0.13325149565935127 0.065355997532606111 -0.078369997441768577 0.016086500138044305 0.036104999482631663 -0.058834500610828337 -0.052425500005483593 -0.016588499769568398 -0.027068468193325878 -0.028420999646186797 0.013044839316229554 -0.099123500287532737 0.026961000636219954 0.13247999548912048 -0.062503498047590186 -0.023418598013940303
decision_type=2 2 2 2 2 2 2 2 2 2 2 2 2 2 2 2 2 2 2 2 2 2 2 2 2 2 2 2 2 2
left_child=1 3 12 7 5 10 16 8 14 -8 -5 15 27 -11 -1 -9 24 18 -18 20 -14 -3 23 -6 25 -4 -10 28 29 -2
right_child=2 21 6 4 22 -7 9 11 26 13 -12 -13 19 -15 -16 -17 17 -19 -20 -21 -22 -23 -24 -25 -26 -27 -28 -29 -30 -31
leaf_value=0.18449870608770869 -0.26222416961994466 0.025146964966790631 0.42905819462783062 -0.00032921243536309454 -0.28309654395064504 0.25081820472869865 0.26492987625473574 -0.19493138128247375 0.24269692895204656 -0.11976377497914976 0.17638227405859006 0.26653033991627395 -0.18792920356240886 0.12978337714721525 -0.066929433370177385 -0.01029258868813677 -0.12820909093782121 0.25979889692562613 0.025113480794710905 -0.071397671967464493 0.33499735409497466 0.17070974845373199 0.18098534243031064 0.16148351969683269 -0.085152581709252204 0.072259161595927379 0.027157894973023417 0.20595623854944684 -0.17633186537344223 0.27375221119967419
leaf_weight=16.891461431980133 5.050566539168357 55.799905717372894 9.348249167203905 2004.9950203150511 8.9998585134744662 29.822640493512154 35.520749717950821 121.20975132286549 28.984577253460884 30.531429141759872 43.705043107271194 7.9878052175045005 6.3056047260761288 37.969296559691429 273.32602027058601 38.428162142634392 170.59084683656693 10.032459087669848 58.282587461173534 87.797943234443665 13.50630936026573 200.39307971298695 108.46749939024448 8.8027460575103742 19.05958753824234 21.279629975557327 45.107489094138145 5.9943532049655905 221.49530283361673 8.2561303526163083
leaf_count=55 20 183 29 6183 28 93 111 508 93 108 141 25 22 122 962 140 625 35 203 304 38 616 326 26 68 68 151 19 945 26
internal_value=0 0.0133094 -0.0580405 0.00154263 0.0149826 0.00698996 -0.00813481 -0.054164 -0.0189883 0.102688 0.00344058 -0.130613 -0.114279 0.0185578 -0.0522956 -0.150485 -0.04808 -0.0745113 -0.0891655 -0.0272187 0.168564 0.139006 0.146549 -0.0632677 0.0790062 0.181161 0.111476 -0.153185 -0.162354 0.070322
internal_weight=0 2992.92 741.021 2736.73 2204.79 2078.52 392.615 531.935 364.31 104.021 2048.7 167.626 348.406 68.5007 290.217 159.638 288.593 238.906 228.873 107.61 19.8119 256.193 126.27 17.8026 49.6875 30.6279 74.0921 240.796 234.802 13.3067
internal_count=12273 9530 2743 8731 6797 6417 1369 1934 1261 341 6324 673 1374 230 1017 648 1028 863 828 364 60 799 380 54 165 97 244 1010 991 46
is_linear=0
shrinkage=0.3


Tree=16
num_leaves=31
num_cat=0
split_feature=76 211 227 124 213 283 260 281 119 258 108 6 283 201 233 200 70 257 218 210 286 115 124 211 124 232 238 224 86 39
split_gain=39.7801 27.8016 32.124 32.5264 29.7138 27.7161 25.6244 28.4402 21.9143 17.7617 17.2268 16.4032 16.5813 15.6772 14.2051 13.8222 12.1869 10.767 10.317 10.1664 12.6151 9.3602 10.5288 8.98912 8.19241 7.30648 6.7199 12.1619 8.85231 7.26353
threshold=0.029657999984919952 -1.0000000180025095e-35 0.036713052229993388 -0.0085753360415112782 0.036343999207019757 0.028491499833762601 0.13181910397620375 0.025011000223457803 -0.03873549960553644 -0.05878099985420699 -0.059807161017522863 -0.14852000027894965 0.063807697958591994 -0.059081498533487244 -0.061707999557256643 -0.086216301376908833 -0.030380999669432595 0.051620000973343808 -0.024454000405967145 -0.0216200425937523 0.064186825424894053 0.0097264320538387791 0.0056994999758898509 -0.066576707423121398 0.04111699946224686 0.083667498081922462 -0.067471999675035435 -0.11041349917650213 0.025056775312095204 -0.05957333133022711
decision_type=2 2 2 2 2 2 2 2 2 2 2 2 2 2 2 2 2 2 2 2 2 2 2 2 2 2 2 2 2 2
left_child=1 2 3 6 11 10 7 -1 26 -7 -5 -3 14 -10 -13 25 17 -17 -18 -4 -21 -6 -23 -8 -14 -15 27 28 -2 -29
right_child=8 4 19 5 21 9 23 -9 13 -11 -12 12 24 15 -16 16 18 -19 -20 20 -22 22 -24 -25 -26 -27 -28 29 -30 -31
leaf_value=0.053877993937080641 -0.1327692997460363 0.2898816541607559 -0.16993632594691385 -0.071942613170324785 -0.20470391841253488 -0.027492630934139003 0.044463452046758542 -0.10875011326309734 -0.23171355373474894 0.10644314183441952 0.20817131804791975 0.18272629697663142 -0.15954476822530878 -0.19033314669079618 -0.0070010630396621252 0.22591470990501145 0.18395631345030825 -0.19684192850297735 -0.16347041287169914 -0.10369389703117722 0.23045046037447758 -0.18659513882870035 0.17483502082641894 -0.18797231875233927 0.1678271568043315 0.158676812074244 -0.19737535484645899 0.081099739368132542 0.31508489693943004 -0.20771632785598876
leaf_weight=655.05791661888361 6.5205113068223026 16.589517802000046 82.375061720609665 21.744896188378334 95.040765404701233 151.598787792027 18.957205444574356 113.5569059997797 24.021657451987267 216.19193643331528 216.42605046927929 36.376510456204414 85.263205572962761 29.073129668831825 1501.9746362194419 50.429854735732079 11.619106382131575 6.075126275420188 22.762747570872307 30.980192326009274 15.137251928448675 14.852349273860456 14.178866185247896 71.277891434729099 7.4835605025291434 6.6295493841171256 140.02589205652475 9.6145790517330152 10.163579642772673 42.387685708701611
leaf_count=2147 27 50 285 79 371 518 64 392 92 668 653 116 337 111 4704 154 40 22 80 114 45 59 45 257 26 21 555 32 32 177
internal_value=0 0.00827475 0.0370297 0.0496461 -0.0175839 0.102867 0.0120958 0.0298509 -0.0967381 0.0512365 0.182597 -0.00692293 -0.00994166 -0.00952379 -0.00251469 0.032639 0.0947704 0.180462 -0.04606 -0.106797 0.0059832 -0.159163 -0.0100724 -0.139141 -0.13313 -0.125526 -0.159674 -0.0828142 0.140054 -0.154318
internal_weight=0 3365.06 1593.3 1464.81 1771.76 605.962 858.85 768.615 359.323 367.791 238.171 1647.69 1631.1 150.611 1538.35 126.59 90.8868 56.505 34.3819 128.493 46.1174 124.072 29.0312 90.2351 92.7468 35.7027 208.712 68.6864 16.6841 52.0023
internal_count=12273 10930 5222 4778 5708 1918 2860 2539 1343 1186 732 5233 5183 520 4820 428 296 176 120 444 159 475 104 321 363 132 823 268 59 209
is_linear=0
shrinkage=0.3


Tree=17
num_leaves=31
num_cat=0
split_feature=18 272 203 142 76 214 97 226 154 281 245 63 264 254 197 217 62 126 254 29 224 24 218 222 149 43 34 137 246 38
split_gain=23.0116 22.6316 18.8447 18.4783 18.5282 18.3123 18.7402 18.1405 14.1842 15.6808 14.0571 18.2058 13.9426 13.9108 15.2331 13.7742 12.7312 12.2137 11.6045 11.3495 11.2407 11.2373 11.2191 14.6281 11.0898 10.7591 10.6921 10.0002 9.90746 9.82334
threshold=0.014528499916195802 0.04153249971568581 -0.061766499653458547 -0.037304038550002187 -0.0095749278302440389 -1.0000000180025095e-35 -0.011092499829828699 -0.042486494243615273 -0.043080234132038049 -0.020392811508900467 -0.035054400925466515 -0.026335406844713947 -0.0082205003127455486 -0.11289279027246042 0.03248812951451252 0.097031082287801593 -0.0021584999049081492 0.026708000339567602 0.044207914732574204 0.008920000400394151 -0.074508602961498319 -0.092374499887227943 -0.028069694300576258 0.0095954929131945241 0.026285999454557854 -0.013518500141799398 -0.018047000281512696 0.017668000422418104 -0.051716499030589995 0.031205871846105435
decision_type=2 2 2 2 2 2 2 2 2 2 2 2 2 2 2 2 2 2 2 2 2 2 2 2 2 2 2 2 2 2
left_child=2 8 -1 12 16 6 10 17 27 18 28 -12 -3 14 -9 -15 -5 -7 21 -19 -6 -10 23 -11 -18 29 -14 -2 -4 -8
right_child=1 3 5 4 20 7 25 13 9 22 11 -13 26 15 -16 -17 24 19 -20 -21 -22 -23 -24 -25 -26 -27 -28 -29 -30 -31
leaf_value=0.21552069969135287 0.15776457232468868 0.27352911079676828 0.21526339363356764 -0.085723044552822036 0.23330883452442053 0.23493595746079599 -0.018145236057787756 0.0070165695215832526 0.13221381711118119 -0.12647213521752193 0.12037897526600802 -0.04992245629070436 -0.20755578471038572 -0.014698698904639299 0.26459046444249212 0.1039770177835517 0.15567652237318108 0.31496734539214222 0.25073103283695025 -0.077723768842286572 0.060547062858999703 -0.12349193207428194 0.1252434446285208 0.14673335688092334 -0.10638347734522614 -0.17095112405868812 0.15310966973060144 -0.18410445611901449 -0.11263920032881131 -0.18909138242605922
leaf_weight=33.080439776182175 65.29541403055191 76.058188647031784 8.9281455427408201 90.04451410472393 62.431622311472893 48.524217009544373 127.81394888460636 49.680268213152885 17.031421065330505 52.956022873520851 113.8837982416153 112.1127877831459 10.54520598053932 2035.1273064762354 35.381880104541779 92.000112622976303 52.494409516453743 8.4949069768190366 8.8967799693346006 30.074944339692593 74.156322777271271 168.46217130124569 76.994111940264702 26.446583360433578 20.097457557916641 141.60650485754013 24.78448823094368 8.7303187102079374 116.58658641576767 39.635982662439346
leaf_count=101 200 228 30 304 185 148 433 161 52 197 343 366 36 6366 107 287 164 25 27 101 231 610 254 91 64 512 77 32 405 136
internal_value=0 0.046659 -0.00965265 0.0968826 0.0580535 -0.0121693 -0.0561939 0.000478684 -0.00188572 -0.027068 -0.00881351 0.0358955 0.20119 -0.0048086 0.114155 -0.00956587 -0.0103592 0.134776 -0.0839611 0.0087654 0.139513 -0.100014 0.0436463 -0.0354757 0.0831238 -0.110083 0.0454583 0.117446 -0.0893148 -0.0586088
internal_weight=0 835.425 2992.93 410.612 299.224 2959.85 660.568 2299.28 424.813 350.787 351.511 225.997 111.388 2212.19 85.0621 2127.13 162.636 87.0941 194.39 38.5699 136.588 185.494 156.397 79.4026 72.5919 309.056 35.3297 74.0257 125.515 167.45
internal_count=12273 2752 9521 1289 948 9420 2225 7195 1463 1231 1144 709 341 6921 268 6653 532 274 689 126 416 662 542 288 228 1081 113 232 435 569
is_linear=0
shrinkage=0.3


Tree=18
num_leaves=31
num_cat=0
split_feature=95 24 45 213 158 33 63 59 49 265 255 64 138 18 265 108 101 13 200 119 26 256 56 65 171 128 239 174 160 112
split_gain=28.545 28.9782 21.9909 20.5411 18.6125 22.2263 18.1515 16.6322 15.7928 14.8638 13.8241 13.6216 13.4267 13.2382 13.0626 12.0675 13.9293 11.6812 10.6935 10.4721 9.85168 10.3088 10.6307 9.76812 9.62165 9.46723 9.2911 9.05379 8.96337 8.48973
threshold=-0.038451086960001053 1.0000000180025095e-35 0.011973182377747086 0.023283499293029253 -0.040533151879457524 -0.069687787050335764 0.0541265127840116 0.038486533927085141 0.07820250093936916 0.034826902191798806 0.0049275203773567582 0.032862000167369808 -0.064111001789569785 -0.040576730116223356 0.10020300000905986 -0.0073762895995873263 -0.091694999486207893 -0.065829718742894949 -0.033934498205780893 -0.12196955060037484 -0.067088920415885586 -0.0038003040726628749 -0.076947837514377462 0.074466999620199162 -0.0074521181323127803 0.018722499720752201 0.031359332756927115 -0.017964500002562948 -0.023260522567934219 -0.028437973950256344
decision_type=2 2 2 2 2 2 2 2 2 2 2 2 2 2 2 2 2 2 2 2 2 2 2 2 2 2 2 2 2 2
left_child=6 2 4 12 8 26 9 27 13 11 -9 15 29 -2 19 16 -1 -10 -11 -14 -4 22 -22 -7 -16 -23 -6 -5 -17 -3
right_child=1 3 20 7 5 23 -8 10 17 18 -12 -13 14 -15 24 28 -18 -19 -20 -21 21 25 -24 -25 -26 -27 -28 -29 -30 -31
leaf_value=0.25743320125029628 0.018125928777673508 0.40102810554705376 0.25515341134287056 0.18648542736161042 -0.0077535194583867517 -8.3159694432991126e-05 0.26068286144308311 0.25287285607240295 0.21069962768762007 0.20451498343896174 -0.01122311853759813 0.20707991860694608 0.042457757563327293 -0.099849256883494178 0.30992897612030285 0.034596256390948876 0.0097521028214912955 -0.015130514020314756 -0.017763642703752518 -0.14692037553477014 0.29104977103402901 -0.046667963784866061 -0.078719313040843647 0.14985642723255271 -0.13601249323920989 0.20530754078961477 0.21924222094196041 -0.083596058224998909 -0.14990446523476847 -0.0046196444651359463
leaf_weight=23.965866774320602 111.0474746376276 6.7716143429279354 33.280952453613281 12.427159503102301 21.884526096284389 1747.0532438755035 41.019112177193165 37.049966901540756 31.624235555529594 77.812582321465015 34.401683211326599 30.445597097277641 28.45120046287775 373.59906484931707 10.722025081515314 36.647980719804764 138.72699864208698 59.21094486862421 25.98361074924469 344.28430747240782 8.1935880407690984 17.584716491401196 47.935145668685436 39.999256566166878 7.3323163241147986 56.661261707544327 62.789730504155159 110.49239969998598 67.067111775279045 14.774739898741243
leaf_count=74 366 21 103 44 82 5278 133 114 97 242 118 95 96 1469 35 127 460 208 83 1507 25 58 161 141 27 177 201 432 238 61
internal_value=0 -0.0107225 0.00300181 -0.0697827 -0.0041182 0.010389 0.0706109 0.0106168 -0.0513021 0.0511511 0.125719 0.0169827 -0.107682 -0.0728175 -0.120394 -0.00474193 0.0462374 0.0634922 0.148871 -0.132465 0.10947 0.0722814 -0.024741 0.00327291 0.128821 0.145629 0.160574 -0.0562908 -0.0847107 0.122868
internal_weight=0 3217.57 2610.86 606.707 2447.21 1871.73 441.669 194.371 575.482 400.65 71.4517 296.854 412.336 484.647 390.79 266.408 162.693 90.8352 103.796 372.736 163.656 130.375 56.1287 1787.05 18.0543 74.246 84.6743 122.92 103.715 21.5464
internal_count=12273 10821 8366 2455 7842 5702 1452 708 2140 1319 232 994 1747 1835 1665 899 534 305 325 1603 524 421 186 5419 62 235 283 476 365 82
is_linear=0
shrinkage=0.3


Tree=19
num_leaves=31
num_cat=0
split_feature=125 133 232 36 290 184 4 263 48 49 119 44 231 130 289 274 207 213 20 285 134 54 4 276 237 42 247 69 127 196
split_gain=31.3082 24.0919 28.6652 35.4533 25.5556 23.1483 20.6476 20.3102 16.8239 16.5886 15.5627 13.2665 17.8098 15.7642 13.0014 19.1195 11.5668 10.9628 10.9464 10.0341 8.88233 8.56654 8.0186 9.77545 8.58527 13.8854 11.9228 7.85214 7.54538 6.89039
threshold=-0.045864999294280943 -0.069787498563527992 0.0051174978917281665 -0.042915500700473695 0.0043586253322661075 -0.057135500013828243 -0.019764697740103549 -0.015824000351130896 -0.053067109643058816 0.042257629116378807 -0.1437904597970234 -0.027917499653994995 -0.00037947670585293687 0.020423000678420053 -0.067090935746104544 0.00039849999302530003 0.0049356055756016428 -0.064749501645564936 -0.067744765313534003 -0.012542823855235008 -0.0021689999848603495 -0.033060394364648304 -0.054628982344816987 0.11949076157733064 -0.024990319292214305 -0.010203180469099847 -0.10597398670163112 -0.035372219538416953 -0.097792997956275884 0.011884499806910703
decision_type=2 2 2 2 2 2 2 2 2 2 2 2 2 2 2 2 2 2 2 2 2 2 2 2 2 2 2 2 2 2
left_child=8 17 6 4 7 9 18 -4 11 -5 -7 12 13 -1 -8 -16 21 20 -3 -6 -2 -13 -10 24 25 -24 -26 -23 -20 -19
right_child=1 2 3 5 19 10 14 -9 22 -11 -12 16 -14 -15 15 -17 -18 29 28 -21 -22 27 23 -25 26 -27 -28 -29 -30 -31
leaf_value=0.23284643441661215 0.25149122658076672 0.11337661117774259 -0.053047483912070405 0.077345238980001896 -0.20794093509483855 -0.23542512769553306 -0.1907262430604626 0.068182223262025332 -0.23234958383714255 -0.1041249941691112 0.13064140682632222 -0.23953721436293141 -0.14911935516062394 -0.23215392350792699 -0.0054693779700765027 0.16231609936630825 -0.18691595992494303 -0.17600152311985864 0.11218745780130394 -0.021038778081895766 -0.18200003843481011 -0.2702575191821629 -0.13153369409673021 0.23342343277517374 0.30701972466879357 0.17584529971980159 -0.17678215053054069 0.12024682640765441 -0.18628194211568477 -0.053188921424579559
leaf_weight=49.518629014492035 13.513433545827867 14.598735049366949 199.41525136679411 107.41093688458204 67.736282259225845 10.661917492747305 32.29417672753334 330.53110101819038 53.604491516947746 78.446615993976593 531.37082806229591 9.6598542183637601 21.502539679408073 7.5638278126716605 1438.6796220988035 63.835840560495853 48.283280335366726 92.671589374542236 8.2550393342971784 41.807978391647339 6.2086216807365409 5.2749115079641333 35.798116587102413 7.5547673851251593 4.7647083550691596 20.977579586207867 121.17380527406931 38.155986435711384 99.558659143745899 73.903073735535145
leaf_count=161 41 44 689 357 264 39 124 1089 262 292 1678 37 89 31 4445 205 191 369 27 146 23 21 164 26 16 82 575 128 370 288
internal_value=0 0.00823376 0.014683 0.0468352 -0.00470197 0.0921134 -0.0118458 0.0225643 -0.0785176 0.00075042 0.123441 -0.00893781 0.083576 0.171231 -0.00238886 0.00165915 -0.0806544 -0.0964731 -0.130417 -0.136609 0.115026 0.015985 -0.129862 -0.100988 -0.114815 -0.0179628 -0.158478 0.072818 -0.163429 -0.121514
internal_weight=0 3210.9 3024.6 1367.38 639.491 727.89 1657.22 529.946 423.832 185.858 542.033 179.959 78.585 57.0825 1534.81 1502.52 101.374 186.297 122.412 109.544 19.7221 53.0908 243.873 190.269 182.714 56.7757 125.939 43.4309 107.814 166.575
internal_count=12273 10490 9769 4554 2188 2366 5215 1778 1783 649 1717 658 281 192 4774 4650 377 721 441 410 64 186 1125 863 837 246 591 149 397 657
is_linear=0
shrinkage=0.3


Tree=20
num_leaves=31
num_cat=0
split_feature=180 298 22 201 145 256 222 194 169 126 276 90 216 14 266 216 274 233 2 170 174 62 188 50 148 37 178 194 271 286
split_gain=19.112 17.6753 18.3528 15.5981 14.9809 15.3727 14.7285 14.4469 18.1487 13.8802 17.0185 13.3017 14.8185 12.4342 12.2376 11.637 11.6338 11.1518 11.0712 11.017 10.6594 10.3653 11.1472 9.52271 9.71116 8.75691 8.67238 9.16895 9.9509 8.589
threshold=0.08456499874591826 0.068702713277921143 0.025633499957621052 -0.019414499402046197 -0.074674228364391373 -0.010143000166863149 0.022403065557852177 -0.028119499795138746 -0.0040494999848305997 0.029661690394941837 -0.080644998699426582 -0.017308910451742425 -0.091997755032613954 0.038855910019929905 -0.038060499355196946 -0.025336534080555074 0.081068727807786317 0.077099546010600858 -0.04040873934498037 0.064721498638391467 -0.010162999853491698 0.0020194103997818943 -0.048428519645248504 -0.022259759174020417 0.047338499376533179 -0.024066500365734048 0.062403500080108608 0.06181699968874451 0.006146500128497101 -0.015628499910235395
decision_type=2 2 2 2 2 2 2 2 2 2 2 2 2 2 2 2 2 2 2 2 2 2 2 2 2 2 2 2 2 2
left_child=1 3 9 4 21 6 -6 8 18 10 -3 12 -2 23 -4 25 17 -9 -5 -7 -16 -1 -23 -13 -25 -11 27 28 -14 -10
right_child=11 2 14 7 5 19 -8 16 29 15 -12 13 26 -15 20 -17 -18 -19 -20 -21 -22 22 -24 24 -26 -27 -28 -29 -30 -31
leaf_value=-0.095150158897224002 -0.24750132884892945 -0.20351927225634106 0.14090286955019887 -0.020885755724004241 -0.03144140302910798 -0.090556655754045909 0.12331704914706439 -0.010173593378346333 0.088994096034050341 0.16624365012551148 0.27336432224134455 -0.13306149323166319 -0.14634217302202898 0.204054915879574 0.24992429589077148 0.22139156043695543 0.27176313099821481 0.21248508037167585 0.12486460550167305 0.069305025415848473 -0.15332847240459346 -0.11980609661987633 0.26875644112444741 -0.10299884899365651 0.18289128580089539 -0.14459921389030148 -0.19744542629005635 -0.12497764945165205 0.17217688143855078 -0.1327312535796458
leaf_weight=16.116159334778786 18.420837372541428 7.4389013946056357 25.586762353777885 59.239820510149002 256.32021796703339 545.61654835194349 70.588727995753288 1891.0170214623213 21.992458879947662 11.379502534866331 71.178865432739258 20.683737516403198 10.350717812776564 93.697577178478241 6.652840018272399 20.458478137850761 13.49241206049919 20.463714152574539 225.26527188718319 41.768694564700127 52.106455206871033 8.3594840914010984 32.396270632743835 14.622502684593199 39.796282485127449 28.800038844347 11.634905099868773 16.210215523838997 59.981872066855431 55.162672802805901
leaf_count=56 74 23 80 200 862 1937 232 5967 76 38 217 72 40 286 21 61 41 66 720 142 187 29 98 49 123 97 43 55 185 196
internal_value=0 -0.00342266 0.0781702 -0.00902286 -0.0408756 -0.0501684 0.00197525 0.00450545 0.0595193 0.14506 0.228241 0.0773302 -0.000597006 0.131158 -0.0322653 0.037215 -0.00583045 -0.00778988 0.0945164 -0.079189 -0.107671 0.10852 0.189058 0.0402128 0.106072 -0.0565634 0.045729 0.0784217 0.125301 -0.0695302
internal_weight=0 3481.4 223.602 3257.8 971.166 914.294 326.909 2286.63 361.66 139.256 78.6178 285.399 116.599 168.8 84.3461 60.638 1924.97 1911.48 284.505 587.385 58.7593 56.8719 40.7558 75.1025 54.4188 40.1795 98.1777 86.5428 70.3326 77.1551
internal_count=12273 11346 724 10622 3356 3173 1094 7266 1192 436 240 927 397 530 288 196 6074 6033 920 2079 208 183 127 244 172 135 323 280 225 272
is_linear=0
shrinkage=0.3


Tree=21
num_leaves=31
num_cat=0
split_feature=184 24 158 156 133 156 292 259 86 222 88 46 98 245 225 188 118 81 265 112 173 208 62 242 279 38 9 248 177 58
split_gain=24.0436 23.1378 18.777 17.9126 16.0845 15.0896 13.9254 13.0319 11.8796 11.4912 10.874 10.6454 10.4157 10.2559 11.1571 10.1367 10.0799 10.0728 10.0127 10.0294 10.6322 9.97462 9.96461 10.0183 9.44296 9.17353 8.98537 8.89297 8.88844 8.60047
threshold=-0.078454239175997961 0.0018040972391099876 0.01194219242512087 0.066802331340690482 0.0035409999545663001 0.0098807530444540576 -0.063951000571250846 0.025651000440120652 -0.061149926058231038 -0.024903075138695305 0.050513999536633457 0.04807700030505651 -0.038678364452273621 -0.04954454792541408 -0.10921888308185999 0.023095000535249651 -0.048115499317645943 0.021324980203766834 0.073267497122287709 -0.03837220279017671 -0.12244600057601923 0.0046004999894648504 -0.024402441587846071 -0.021762500517070248 0.038034323027078862 0.028588999994099102 -0.065358720404112766 -0.016582255546530384 0.0060505000874400009 0.032982999458909007
decision_type=2 2 2 2 2 2 2 2 2 2 2 2 2 2 2 2 2 2 2 2 2 2 2 2 2 2 2 2 2 2
left_child=5 2 4 6 7 9 10 8 -2 25 -3 -9 -4 15 -15 -6 24 -14 19 -5 -21 -20 26 -24 -8 28 -7 -11 -1 -25
right_child=1 3 12 18 13 22 16 11 -10 27 -12 -13 17 14 -16 -17 -18 -19 21 20 -22 -23 23 29 -26 -27 -28 -29 -30 -31
leaf_value=-0.16493337316767304 0.18505907950490291 -0.082227622081439578 0.26334059425637896 0.11031386646060728 -0.06621605451091131 -0.14886448655319245 -0.069103850796283089 0.015894423727120469 -0.00481710527818248 -0.18567451326217183 0.17601164050497467 0.16083890082167906 -0.054934998402479486 0.33670693678408953 -0.12274876685431461 0.18248873409279498 -0.16707941685914524 0.15240678524436965 0.26689385266073207 0.25613834347304992 -0.075457560203353022 -0.097640090548747588 0.16112492278580479 0.075856162909458194 0.32262870100656954 0.28209040542685287 0.21594384120276197 0.0121919631330772 0.2754519127422182 -0.087751250760499624
leaf_weight=12.798813939094545 30.093951173126698 38.694400288164616 32.575071662664413 39.087827108800411 38.157678306102753 6.5599685758352271 31.216625295579433 101.17170044034719 2034.694871507585 39.733089692890644 23.641768626868725 83.029875554144382 36.688379764556885 4.8844484984874716 181.87423892319202 24.042472988367081 219.01340655982494 49.589324116706848 21.815731003880504 9.189198434352873 164.32922453433275 9.7859607636928541 67.526879414916039 81.80631048232317 6.7327031418681136 16.724431529641151 82.437278561294079 42.107857137918472 6.086284175515174 44.728144913911819
leaf_count=49 102 147 101 139 139 33 132 350 6350 173 83 270 133 16 748 78 1037 160 67 29 677 34 223 277 26 56 277 166 20 181
internal_value=0 -0.00956948 0.00230493 -0.0647116 -0.00323828 0.0684264 -0.111489 0.00477117 -0.00204969 -0.0219728 0.0157128 0.0812289 0.118808 -0.0755923 -0.110732 0.0299168 -0.142346 0.0642376 -0.00355134 -0.0269712 -0.0578969 0.15401 0.105936 0.0678179 0.000394585 0.120286 0.189054 -0.0838705 -0.0230061 0.0180233
internal_weight=0 3180.31 2616.8 563.507 2497.95 400.509 319.299 2248.99 2064.79 117.45 62.3362 184.202 118.853 248.959 186.759 62.2002 256.963 86.2777 244.208 212.606 173.518 31.6017 283.059 194.061 37.9493 35.6095 88.9972 81.8409 18.8851 126.534
internal_count=12273 10818 8447 2371 8053 1455 1425 7072 6452 464 230 620 394 981 764 217 1195 293 946 845 706 101 991 681 158 125 310 339 69 458
is_linear=0
shrinkage=0.3


Tree=22
num_leaves=31
num_cat=0
split_feature=165 3 171 49 44 22 173 290 86 243 190 82 106 39 6 141 139 210 59 209 133 108 161 43 25 121 295 243 70 230
split_gain=23.3153 23.4958 25.7169 23.3016 25.4724 21.1057 16.0707 16.6167 15.3896 20.8842 14.6492 12.9238 12.8163 12.5913 12.471 12.3225 13.6229 11.7794 12.7995 11.3992 11.3334 10.0486 10.029 15.2623 10.8968 9.94933 9.47921 9.35882 7.93777 8.50252
threshold=0.023026499897241554 -0.093334499746560981 -0.043965129336260754 0.043061006607501763 -1.0000000180025095e-35 -0.039672499522566747 -0.068427120333408503 0.0071604999247938004 -0.0031685000285505997 -0.0022325000027193995 0.014719999860972102 -0.016063000075519047 0.028134220802297012 0.028192291896119066 -0.14481906183792095 -0.021392169312987801 -0.0067600000184028994 0.029783999547362303 0.060064999386668212 0.10695961755089903 -0.0015075000119395498 -0.035815627716892784 -0.063679261535602022 0.0080189998261630015 -0.086099462388863887 0.012039999943226501 -0.1166963896444649 -0.023609851030514776 0.012056077856399417 -0.043150376665260747
decision_type=2 2 2 2 2 2 2 2 2 2 2 2 2 2 2 2 2 2 2 2 2 2 2 2 2 2 2 2 2 2
left_child=1 14 6 4 5 -4 12 10 19 22 -8 25 21 -6 -1 16 -5 18 -13 26 -9 -3 23 24 -10 -11 -2 -17 -28 -30
right_child=8 2 3 15 13 -7 7 20 9 11 -12 17 -14 -15 -16 27 -18 -19 -20 -21 -22 -23 -24 -25 -26 -27 28 -29 29 -31
leaf_value=0.29420240900705313 0.17770251693152286 -0.15554445631218461 -0.18373852417478437 -0.088183864831332212 -0.0035544281649690698 0.098266373328237552 0.12850499866745393 -0.16098006569819451 -0.086100057137300831 -0.12131649870926928 -0.070975889605968345 0.04195634032113732 -0.17910219259254176 -0.25695660961979011 -0.16925618298180228 -0.058599277495134744 0.13929022179773953 0.24286712365570412 -0.21899614382736218 0.15544819253772105 0.071003072625303601 0.080462477699740645 -0.17491401251230193 -0.21449293620549489 0.21051642637703927 0.31656310150515182 -0.20152061264482954 -0.17160427782556359 0.22249551609052676 -0.12065441460623652
leaf_weight=5.5590879917144767 7.5536008551716796 20.6954430565238 25.583393089473248 49.162621319293976 1577.4271499142051 359.83681064099073 398.51576770097017 36.396242700517178 19.382856488227844 5.7266442738473442 36.136889405548573 59.582073599100113 36.554127797484398 17.847564417868853 87.061939872801304 164.34401462227106 45.73912862688303 16.85867715626955 23.623823337256908 11.657496087253092 39.548467181622982 75.362443707883358 74.866423048079014 23.174595534801483 26.232972759753466 25.312904331833124 128.44830936938524 110.17666351422668 8.326362229883669 29.605117470026016
leaf_count=18 26 94 97 206 4927 1239 1304 138 68 29 119 218 165 71 337 650 154 52 112 43 139 275 326 90 90 81 567 485 30 123
internal_value=0 0.00737464 0.0119793 -0.00256807 0.0103329 0.0795475 0.0651316 0.0892982 -0.0650007 -0.01992 0.11192 0.066658 -0.0279171 -0.00638943 -0.14144 -0.0717378 0.0214502 0.0141982 -0.0321333 -0.131741 -0.0401741 0.0296153 -0.0989327 -0.0162403 0.0844796 0.235776 -0.150989 -0.103953 -0.165912 -0.0453294
internal_weight=0 3085.95 2993.33 2350.12 1980.69 385.42 643.209 510.597 460.352 274.761 434.653 131.104 132.612 1595.27 92.621 369.422 94.9017 100.065 83.2059 185.591 75.9447 96.0579 143.657 68.7904 45.6158 31.0395 173.933 274.521 166.38 37.9315
internal_count=12273 10418 10063 7829 6334 1336 2234 1700 1855 1066 1423 492 534 4998 355 1495 360 382 330 789 277 369 574 248 158 110 746 1135 720 153
is_linear=0
shrinkage=0.3


Tree=23
num_leaves=31
num_cat=0
split_feature=3 210 245 141 77 91 115 166 60 101 281 208 236 131 199 55 163 37 282 212 69 10 122 31 63 179 162 18 32 173
split_gain=16.7861 18.5963 14.4588 18.2864 15.829 18.764 14.0686 12.3931 11.7524 11.1215 10.9402 10.1348 10.0289 12.7132 10.996 9.68887 9.61139 9.57529 9.45726 8.67671 8.50928 8.48607 8.25589 8.22333 8.75085 8.21291 8.17847 7.7116 7.51739 5.98671
threshold=-0.085425227940657184 -0.027914500795304744 -0.068500500172376591 0.065971497446298558 -0.069643501192331245 0.060895185336037015 -0.078891010904456119 -0.039124500006437239 0.065287999808788258 -0.0096404999494552491 0.004294499987736301 -0.095128539079308808 -0.021980999968945897 0.046528563047322356 -0.043639499694108942 -0.040123999118804897 0.038445498794317211 -0.033308001235127394 0.047249499708414057 -0.037150011042324828 0.014839656022992269 0.011893500108271801 0.0080066004691822668 -0.048436503901224379 -0.037292500957846593 0.030567564307540197 0.062261499464511809 0.025713499635457954 0.033651500940322807 -0.028006999753415546
decision_type=2 2 2 2 2 2 2 2 2 2 2 2 2 2 2 2 2 2 2 2 2 2 2 2 2 2 2 2 2 2
left_child=1 12 10 4 18 6 -6 15 9 -9 11 -2 26 -14 -15 -5 -7 29 25 -19 -16 28 -17 24 -23 -4 27 -1 -12 -3
right_child=2 17 3 7 5 16 -8 8 -10 -11 21 -13 13 14 20 22 -18 19 -20 -21 -22 23 -24 -25 -26 -27 -28 -29 -30 -31
leaf_value=-0.16151185881137189 0.19521367766351769 -0.011843307411356536 -0.12020501608904466 -0.11941478035717723 0.09670262920560635 0.18192673986181129 -0.005589809185033422 -0.041892745300691668 0.2973142849263023 0.18264225001154571 -0.16922645285825047 -0.14786200491523874 0.32059742720654405 -0.07612480697722103 0.39598603280378875 0.24517439885065209 -0.12697319378834615 0.10671552386792305 0.15330678040082477 -0.15776384947346733 0.012110882412718559 0.52397870616845454 -0.083234943629193966 -0.01675919590106548 0.1033570128068428 0.011290403050590586 0.24048589684794025 0.23171471143650516 0.21016632956183526 0.40543998158428107
leaf_weight=19.117188669741157 8.2378852888941747 5.9865103662014008 182.78003096580505 8.8915620744228345 126.9076254889369 73.073673456907272 2601.9420490637422 100.80236091464758 13.458873853087423 24.722865715622902 27.843378245830536 130.74623657763004 46.732317239046097 18.8984255194664 12.606378108263018 67.630515411496162 10.349490717053412 15.232931427657602 15.373827040195463 41.792834386229515 8.8423154950141889 6.4424946010112789 7.670693263411521 27.360002912580967 14.404545351862906 55.798228219151497 11.079517014324663 5.8656977862119666 5.6550149768590918 6.4050077944993955
leaf_count=67 30 24 662 30 405 232 8410 358 42 78 118 540 145 71 39 208 37 52 49 157 31 20 25 107 50 190 38 19 19 20
internal_value=0 0.0889949 -0.00197795 0.0030093 -0.00302531 0.00345197 -0.000832607 0.0859188 0.0308961 0.00233062 -0.0763135 -0.127527 0.158993 0.214088 0.0907227 0.176749 0.143605 -0.0351766 -0.074755 -0.0871152 0.237732 0.010803 0.21172 0.0913976 0.233344 -0.0894511 0.0259545 -0.0691867 -0.105179 0.203845
internal_weight=0 192.559 3510.09 3289.4 3066.22 2812.27 2728.85 223.177 138.984 125.525 220.69 138.984 123.142 87.0794 40.3471 84.1928 83.4232 69.4173 253.952 57.0258 21.4487 81.7054 75.3012 48.207 20.847 238.578 36.0624 24.9829 33.4984 12.3915
internal_count=12273 663 11610 10726 9985 9084 8815 741 478 436 884 570 410 286 141 263 269 253 901 209 70 314 233 177 70 852 124 86 137 44
is_linear=0
shrinkage=0.3


Tree=24
num_leaves=31
num_cat=0
split_feature=116 216 137 10 98 171 282 185 193 102 212 200 41 275 256 130 213 156 43 76 278 201 200 192 165 45 198 103 138 30
split_gain=18.4146 19.4556 17.821 20.5097 18.2257 14.7466 12.7361 12.057 14.0897 10.7871 10.7231 10.7262 12.5152 11.014 9.6739 9.3101 10.6009 9.31245 9.24598 9.2214 9.09734 9.0828 7.90629 7.87215 7.85493 7.48674 7.05586 6.77146 6.34493 6.28831
threshold=-0.0084999999962746976 -0.12124980252663663 -0.068918500095605781 0.0050335000269114511 0.0099835000000893515 0.028884911914914855 -0.061443400571765894 -0.089357998222112586 0.055496002735078064 0.0073964998591691004 0.040015500038862208 -0.052214499562978696 0.09048431887688467 -0.0039665000513195488 -0.012812499888241248 -0.010362257800441683 -0.032205338880130822 0.12767849862575528 0.020750271218871876 -0.059566735555544349 -0.0035724999615921993 -0.0033025845519740094 -0.10722149908542629 0.00068730222780738991 0.077398497611284214 0.027820856951165276 -0.0013651938972977036 -0.062482459825869759 -0.048512000590562793 -0.077054999768733937
decision_type=2 2 2 2 2 2 2 2 2 2 2 2 2 2 2 2 2 2 2 2 2 2 2 2 2 2 2 2 2 2
left_child=10 14 4 5 15 18 22 26 -9 -8 11 12 13 20 19 17 -17 -3 -4 -2 -1 -15 -6 -7 25 28 -5 -16 -13 -29
right_child=1 2 3 7 6 23 9 8 -10 -11 -12 24 -14 21 27 16 -18 -19 -20 -21 -22 -23 -24 -25 -26 -27 -28 29 -30 -31
leaf_value=0.020733566833229338 -0.19355852561528145 -0.02006407088404135 -0.0014893907692946013 0.40401869619135589 0.32235654868978686 0.27894657425270653 -0.062978998108649778 -0.090360444362114448 0.030044160885819259 0.24728754658853688 0.12950766623756818 0.038403331387305541 0.27815935495442179 0.11844327218173811 -0.21523657731550158 -0.04577433396756192 0.14594614185053031 0.22519132082400331 0.11900943396708466 0.10721065217901017 -0.13319310015596419 -0.06659930495545141 0.053992468498925229 0.028492003394182376 0.18410098420290125 0.10623816438642857 0.050661105246381247 -0.12675211859184846 -0.1599751172800967 0.22331297315933987
leaf_weight=49.524819418787956 13.897029019892214 90.196229580789804 1563.1602700985968 6.6436819881200817 12.585103385150431 27.052228599786758 194.89611617475748 452.14772418886423 108.44946780800819 10.635372139513491 27.15174650400877 15.881608441472052 11.690247960388659 56.676726438105106 3.6690219119191161 29.386228960007429 222.4080865457654 16.47960701584816 59.491007089614868 26.996075183153152 114.3348048441112 41.248585745692253 45.969853140413761 19.390768975019455 7.5303406268358222 11.541584879159926 21.689613021910191 4.9233181849122039 168.06735685840249 74.535748947411776
leaf_count=206 51 333 4722 21 41 88 738 1899 431 34 98 58 41 206 15 132 745 52 208 94 489 148 161 71 23 41 84 19 754 270
internal_value=0 0.00811463 0.00310556 -0.00928447 0.0480444 0.00769905 -0.0117592 -0.0574176 -0.0670678 -0.046924 -0.053871 -0.0643203 -0.0255386 -0.0391005 0.124458 0.092102 0.123571 0.0178237 0.00292844 0.00499787 -0.0866704 0.0404987 0.111671 0.174377 -0.11656 -0.128142 0.133518 0.183224 -0.142848 0.201623
internal_weight=0 3004.6 2880.58 2258.02 622.557 1669.09 264.086 588.93 560.597 205.531 503.648 476.496 273.475 261.785 124.021 358.47 251.794 106.676 1622.65 40.8931 163.86 97.9253 58.555 46.443 203.021 195.491 28.3333 83.1281 183.949 79.4591
internal_count=12273 10209 9760 7524 2236 5089 974 2435 2330 772 2064 1966 1090 1049 449 1262 877 385 4930 145 695 354 202 159 876 853 105 304 812 289
is_linear=0
shrinkage=0.3


Tree=25
num_leaves=31
num_cat=0
split_feature=76 14 261 263 124 283 281 276 15 133 124 13 283 297 144 223 205 162 114 160 226 210 125 228 296 228 15 185 71 42
split_gain=20.671 19.6439 21.6423 26.7835 21.0556 19.5379 17.3349 15.0065 14.4483 13.2854 14.2924 12.3128 12.2536 11.0362 10.5817 10.3488 12.2534 10.2543 9.58863 8.2995 8.73538 8.46595 8.24432 8.08416 8.1516 7.96073 6.96763 5.5228 5.46934 5.42452
threshold=0.029657999984919952 0.10184150189161296 0.096625358516235757 -0.034483653113266295 0.0010710000060498001 0.028491499833762601 0.0082904999144374509 0.022516000084578953 -0.034273000434040947 -0.069787498563527992 -0.095661502331495243 0.0058593279863801175 0.069187998771667467 -0.024287999607622596 -0.095745500177144935 0.0040287157231141896 -0.06795949861407273 -0.020987499505281396 0.041649499908089603 0.042635215029261236 0.031783500686287859 -0.070147000253200434 -0.0025885000359266498 -0.022991063010487398 -0.036034192609520198 -0.098049998283386133 0.051290029152145124 0.099806202305899247 -0.066093999892473138 0.0632611467704806
decision_type=2 2 2 2 2 2 2 2 2 2 2 2 2 2 2 2 2 2 2 2 2 2 2 2 2 2 2 2 2 2
left_child=1 2 3 7 8 -6 9 17 -5 26 -11 22 13 25 -9 16 -15 -1 -13 -3 -21 -22 -8 24 -17 28 -4 -14 -2 -27
right_child=12 19 6 4 5 -7 11 14 -10 10 -12 18 27 15 -16 23 -18 -19 -20 20 21 -23 -24 -25 -26 29 -28 -29 -30 -31
leaf_value=0.084840659843534519 0.26364365485111951 -0.15922421580086035 -0.17262824955070438 -0.11593651057023752 0.17570995821220048 0.022457534127576919 -0.21110037638531418 0.26238191644584358 0.0029910084166774016 -0.24783665695343576 0.11430012187996828 0.15003404172963902 -0.18580906408619596 0.24595725906278948 -0.025926288557127211 -0.11437080071068467 -0.13157950065066054 -0.14840667024671528 -0.16661816009783337 -0.18745411886224442 0.31976730719145113 -0.12408779855759408 -0.023514724301645654 -0.10564748884266038 0.18662453212523925 -0.21190188743071312 0.15720801224107547 0.17505375588170202 -0.10534267116081664 0.13765849736155994
leaf_weight=18.555285230278969 6.6772796958684921 90.185783248394728 24.527458250522614 97.041807364672422 120.17556032538414 198.59383482113481 35.295527599751949 13.653348229825495 1748.1329106763005 10.055298663675783 399.64713820070028 41.677938185632229 86.281221739947796 9.0273196436464769 71.23412087187171 9.6732321605086309 54.137919906526804 197.74807922169566 10.846489250659941 10.343915715813639 10.918864578008654 5.9888445213437072 52.377333618700504 15.506608132272957 49.72004284709692 51.938709460198879 7.5348210707306853 3.9936286509037009 7.8844163268804532 4.328350529074668
leaf_count=72 22 383 106 415 413 727 144 51 5637 37 1357 149 447 33 276 43 246 815 44 40 35 24 176 75 183 238 29 14 26 16
internal_value=0 0.0050142 0.00965444 -0.00263003 0.00903626 0.0802335 0.0616903 -0.086448 -0.00326365 0.0908584 0.105412 -0.0302192 -0.0774869 -0.0375737 0.0204454 0.0118155 -0.0776235 -0.128398 0.0846442 -0.115384 0.0296989 0.16255 -0.0990334 0.0872419 0.137602 -0.133847 -0.0951148 -0.169845 0.0638564 -0.185012
internal_weight=0 3164.53 3047.1 2465.13 2163.94 318.769 581.962 301.191 1845.17 441.765 409.702 140.197 299.169 208.894 84.8875 138.065 63.1652 216.303 52.5244 117.437 27.2516 16.9077 87.6729 74.8999 59.3933 70.8288 32.0623 90.2749 14.5617 56.2671
internal_count=12273 10930 10448 8406 7192 1140 2042 1214 6052 1529 1394 513 1343 882 327 580 279 887 193 482 99 59 320 301 226 302 135 461 48 254
is_linear=0
shrinkage=0.3


Tree=26
num_leaves=31
num_cat=0
split_feature=199 299 228 75 281 260 178 250 166 130 146 214 169 246 98 237 297 294 248 163 245 127 144 12 187 179 227 99 180 38
split_gain=14.6829 12.1983 12.6526 16.1159 15.1792 16.3311 14.3864 13.5704 12.8072 11.1466 10.7946 10.1208 10.0554 9.97554 9.03649 8.91513 8.55159 8.39539 8.04808 7.66158 7.79787 7.27952 7.25548 7.77974 7.09425 6.57703 7.08719 6.39497 6.38463 6.0368
threshold=0.042695499956607805 0.10057958982920441 -0.037660107071100103 0.13053949922323224 0.032469999045133556 0.13114699721336362 -0.10206099972128864 0.11055050045251841 -0.034366501495242098 -0.017368631179600774 -0.0069144999142735494 -0.033390499651431989 -0.037288499996066045 -0.053916187347452786 0.040795000270009006 0.033313499763607958 0.047193501144647557 -0.024138499982654996 -0.066310829037772315 0.029775655102134764 -0.056841500103473594 0.013640500139445051 -0.068188000470399843 -0.024120718143914043 -0.051785498857498141 -0.045128500089049291 -0.074099998921155888 0.018745720059295774 0.023967999964952403 0.050698185544338609
decision_type=2 2 2 2 2 2 2 2 2 2 2 2 2 2 2 2 2 2 2 2 2 2 2 2 2 2 2 2 2 2
left_child=1 2 4 7 5 6 -1 13 -7 -6 -9 -2 14 -4 25 -11 17 22 28 20 27 -5 -13 -24 -22 -3 -27 -14 -19 -20
right_child=11 12 3 21 9 8 -8 10 -10 15 -12 16 19 -15 -16 -17 -18 18 29 -21 24 -23 23 -25 -26 26 -28 -29 -30 -31
leaf_value=0.36094650446119531 -0.12630014915548135 0.25735815217737368 0.075959838079511746 0.21062590602952699 0.271350055429526 0.11593081832314127 -0.073889772606841972 0.17383814601634417 -0.066387306765701565 0.085362945145644312 0.018098339286661838 0.30433443619735839 0.19216027467051197 -0.0089458964364924308 -0.23038474989034469 -0.14565517762458824 -0.10902114688161529 -0.014500825476498388 0.38035315011883591 -0.10549837943706607 0.046758503524225253 -0.064145412696990603 0.20647205751942577 -0.073257424333334029 0.24743768999938048 0.18654567218566853 -0.085712472747592319 -0.21955869718780249 0.30100242006790817 0.056808135485262395
leaf_weight=6.9208053201436988 16.041711866855621 10.249876677989958 132.46237786859274 48.259100452065468 20.743666395545006 85.838612586259842 648.23805563896894 70.87923227250576 58.179713413119316 56.103766269981861 92.101519718766212 9.3007005304098112 5.8397426307201377 2081.9917406216264 13.879390880465506 20.537567466497421 12.441582337021826 15.995195731520655 28.780363515019417 10.868400290608404 21.418481424450874 10.580105960369108 12.850558102130888 29.465577751398087 61.027267426252365 11.912427335977549 30.993775293231014 8.1113851070404035 9.0323132276535016 6.3320453912019721
leaf_count=22 63 33 455 153 67 262 2414 226 191 194 305 29 22 6806 48 77 45 60 86 37 75 38 39 108 196 36 107 30 27 22
internal_value=0 -0.00104677 -0.00509287 0.00612037 -0.0355632 -0.0491896 -0.0692964 0.00228184 0.042279 0.0762599 0.0858285 0.0979462 0.0763194 -0.00386708 -0.0148287 0.0234571 0.12691 0.153176 0.229352 0.133283 0.160204 0.161218 0.0644215 0.0116908 0.195303 0.0414543 -0.010123 -0.047219 0.0993628 0.322006
internal_weight=0 3507.14 3332.84 2436.27 896.562 799.177 655.159 2377.43 144.018 97.385 162.981 140.24 174.301 2214.45 67.0355 76.6413 124.198 111.757 60.1399 107.265 96.3969 58.8392 51.6168 42.3161 82.4457 53.1561 42.9062 13.9511 25.0275 35.1124
internal_count=12273 11794 11210 7983 3227 2889 2436 7792 453 338 531 479 584 7261 224 271 416 371 195 360 323 191 176 147 271 176 143 52 87 108
is_linear=0
shrinkage=0.3


Tree=27
num_leaves=31
num_cat=0
split_feature=278 223 188 184 138 102 158 265 36 174 160 273 176 125 207 199 22 36 18 161 111 47 3 141 200 29 183 152 59 41
split_gain=16.5466 18.521 17.1968 15.4847 12.0358 13.2181 11.1399 10.7554 11.3024 10.7597 9.66954 11.4862 9.80625 9.5587 9.38618 8.31779 7.62419 7.59173 7.38153 7.25488 6.59376 6.54246 6.50618 6.10926 6.05497 6.15208 5.59392 5.42961 5.16439 5.10559
threshold=-0.026619499549269645 -0.06251300126314159 -0.033303499221801695 -0.11825850233435624 0.020838879535694573 0.043540396529162202 0.013389499858021701 0.054423483671076599 -0.042604468114135395 0.047965500503778409 -0.033270046992556486 -0.044124571768329422 -0.10040549933910363 0.02081376608160063 0.03885149955749511 -0.067176036918015034 -0.028184044034349379 -0.0014695096770426604 -0.05770649947226044 -0.025865634596864872 0.011181500274687952 -0.049247499555349294 -0.047341429362808586 -0.048752556250079952 -0.033478991742902267 0.042938999831676462 -0.090027000755071585 -0.0096700416887665983 0.0714271555292538 0.096361000090837465
decision_type=2 2 2 2 2 2 2 2 2 2 2 2 2 2 2 2 2 2 2 2 2 2 2 2 2 2 2 2 2 2
left_child=2 6 16 19 5 13 18 8 -6 -9 11 20 -12 -5 15 -14 -1 -16 22 23 -4 -7 -2 -3 -13 -26 -20 -24 -28 -18
right_child=1 3 10 4 7 21 -8 9 -10 -11 12 24 14 -15 17 -17 29 -19 26 -21 -22 -23 27 -25 25 -27 28 -29 -30 -31
leaf_value=0.077331368452042026 0.29568035313271862 -0.30230287067446232 0.14419349391503133 0.0077655356577238689 -0.014462185936402064 -0.038144947762686371 0.12386108483554589 0.14344097278588669 -0.10917909662086518 -0.054598904980447317 0.26966860231653905 0.2300721869855343 0.10514489249095529 -0.065815804945392548 0.20217483686968388 -0.05538812277366241 -0.18091968737019695 -0.026218425474635904 0.11565491878541481 0.29395050138826739 -0.223009671032667 0.24294133581077509 0.11738817691860304 0.11459021379404713 -0.097011390036916542 0.1943988248278129 -0.1709657868885871 -0.22217440840542266 -0.027569545342283439 0.17110244073041611
leaf_weight=18.500367052853107 6.6056892201304462 3.5636277645826366 7.5283056870102909 1997.3539701700211 217.24251103401184 9.8392001688480359 19.407498225569725 49.838665805757046 237.17297478765249 48.933476094156504 16.266321308910847 78.307314574718475 39.609727844595909 172.62620348855853 40.425320506095886 108.94394110888243 42.58308370038867 19.376638390123844 7.6058711409568778 21.351848661899567 10.595110461115835 30.723686389625072 8.3343361318111455 28.183033749461174 11.811110064387323 14.554873608052729 138.04169566184282 8.6229919940233195 27.030178315937519 4.0617649480700484
leaf_count=77 22 14 26 6302 852 36 76 167 1004 184 56 266 150 751 132 460 228 70 30 70 42 108 34 109 47 52 757 32 104 15
internal_value=0 -0.00822398 0.0558126 -0.00173692 -0.00482001 0.0050837 -0.0929588 -0.0443953 -0.0638978 0.0453285 0.082335 0.150026 0.0453296 0.00191199 0.0278155 -0.0125843 -0.0856315 0.128172 -0.114402 0.158735 -0.0704767 0.174759 0.0431064 0.0677931 0.188204 0.0638565 -0.135895 -0.0552832 -0.147485 -0.150266
internal_weight=0 3032.48 412.564 2816.83 2763.73 2210.54 215.648 553.188 454.415 98.7721 347.419 122.797 224.622 2169.98 208.356 148.554 65.1452 59.802 196.241 53.0985 18.1234 40.5629 23.563 31.7467 104.673 26.366 172.678 16.9573 165.072 46.6448
internal_count=12273 10652 1621 9597 9404 7197 1055 2207 1856 351 1301 433 868 7053 812 610 320 202 979 193 68 144 88 123 365 99 891 66 861 243
is_linear=0
shrinkage=0.3


Tree=28
num_leaves=31
num_cat=0
split_feature=125 57 77 227 59 230 76 205 215 79 160 138 36 124 262 78 165 277 161 107 149 107 19 112 52 40 152 84 253 13
split_gain=18.607 17.4434 17.0296 20.2222 19.9628 19.9477 15.5752 12.8024 9.76054 8.40278 8.39105 8.02375 7.88529 7.50459 7.25374 6.92642 6.8645 6.29215 6.14574 6.8326 5.14641 5.30778 4.95126 6.56905 4.54716 4.26744 3.95786 3.93266 3.02805 2.84667
threshold=-0.087186999619007097 -0.11330650001764293 0.070983998477458912 -0.00045350000436874996 0.040447499603033059 0.051201177647697708 0.0062245000153779506 -0.043077999725937795 0.086660500615835162 -0.018281499855220245 -0.0023443160553794041 0.058388868872570887 1.0000000180025095e-35 0.083661001175641972 -0.074008498340845039 -0.023699000477790798 -0.011710999999195297 0.0041894998867064515 -0.021526965748005389 -0.026793500408530197 0.010307885766727877 -0.009747000411152798 0.023227999918162753 0.052990499883890103 -0.08363100141286843 0.098506998270750018 -0.03105709530707863 -0.081929506693690715 0.018441000021994055 -0.090245001018047291
decision_type=2 2 2 2 2 2 2 2 2 2 2 2 2 2 2 2 2 2 2 2 2 2 2 2 2 2 2 2 2 2
left_child=22 9 3 4 5 -3 8 -6 -5 10 20 18 24 -8 -13 -14 17 -12 26 -20 -2 -22 23 27 -11 -26 -4 -1 -18 -24
right_child=1 2 11 6 7 -7 13 -9 -10 12 16 14 15 -15 -16 -17 28 -19 19 -21 21 -23 29 -25 25 -27 -28 -29 -30 -31
leaf_value=0.14984266845489741 -0.21912840074174758 0.086069985795089884 -0.11597802234711588 -0.0064687666360750753 0.057670945825298817 -0.014624839831255763 -0.13413595015172167 -0.064016705335932678 0.17646515463180354 0.091284865557016051 -0.089901118140123873 0.23283902318652039 -0.16482936659355307 0.25068066906298159 -0.18830789570445017 0.31135861957108851 -0.26837734954889514 0.29949506026365141 -0.23939895491638005 0.15692756140243475 -0.22499021207466627 0.16411932547625882 0.016152165888904457 0.27700724390254738 -0.21964318609879183 0.0070274311749324797 -0.27969256559310723 -0.1995133020074468 0.081672330303784096 -0.2235027262913864
leaf_weight=3.7565630823373839 18.17217626795173 711.13483412563801 22.099162966012955 1631.7972375936806 117.36627545207739 235.76016623526812 109.39137300476432 230.87550259381533 26.67907889187336 5.2449892461299887 4.9360320866108003 9.5676292851567251 5.149667501449585 4.7594599202275267 5.9821491017937651 5.897451236844061 4.9256582297384721 15.345516350120304 6.6046357899904278 9.6131162941455823 4.9237919598817816 8.7832734286785108 4.9247939884662619 4.861610382795333 74.149982001632452 8.3131960891187173 33.340785905718803 12.717620618641376 4.0549944937229156 47.340006049722433
leaf_count=18 79 2621 88 5205 463 842 522 1020 94 18 20 32 23 17 27 19 25 49 28 37 24 32 28 17 335 35 140 88 16 311
internal_value=0 0.00130073 0.00619993 0.00991607 0.0384115 0.0609987 -0.0109036 -0.0230049 -0.003526 -0.095367 -0.0079642 -0.124525 -0.14948 -0.118091 0.0708198 0.0893813 0.108037 0.204726 -0.166915 -0.00447534 -0.114442 0.0243451 -0.151205 -0.0294219 -0.179565 -0.196792 -0.214434 -0.119851 -0.110321 -0.200921
internal_weight=0 3314.87 3154.97 3067.76 1295.14 946.895 1772.63 348.242 1658.48 159.897 61.1414 87.2075 98.7553 114.151 15.5498 11.0471 29.2622 20.2815 71.6577 16.2178 31.8792 13.7071 73.6006 21.3358 87.7082 82.4632 55.4399 16.4742 8.98065 52.2648
internal_count=12273 11811 11136 10784 4946 3463 5838 1483 5299 675 245 352 430 539 59 42 110 69 293 65 135 56 462 123 388 370 228 106 41 339
is_linear=0
shrinkage=0.3


Tree=29
num_leaves=31
num_cat=0
split_feature=140 115 18 101 142 298 35 170 238 60 131 243 0 71 50 159 260 265 278 193 234 117 31 282 237 91 46 72 154 62
split_gain=11.5114 12.7628 12.8333 13.5082 12.2221 10.3349 13.6869 9.9853 10.1522 9.70542 9.66223 10.9097 9.21149 10.1347 8.9113 8.82486 9.75809 8.67082 8.44779 8.33828 9.93548 6.47417 6.24024 6.17796 6.00771 5.75305 5.25802 5.25435 5.27563 4.68141
threshold=-0.10641699656844134 -0.078891010904456119 -0.017660500481724694 -0.035657409346576359 -0.054581498727202339 0.070087000727653462 0.0077740000560879005 -0.045385500416159595 -0.086526002734899479 -0.073037501424550941 -0.036838000640273046 -0.036500001326203291 -0.065633498132228782 0.015766999684274152 0.061948999762535061 0.063034517242611152 0.067717999219894368 0.012053537174767169 0.034585999324917759 0.022970000281929904 -0.034441500902175841 0.047639500349760007 -0.029745845886769078 0.014698749371175436 -0.0043835001997648993 -0.018745000474154897 -0.016073499806225248 -0.063081499189138343 0.020936999469995454 0.080992481263583119
decision_type=2 2 2 2 2 2 2 2 2 2 2 2 2 2 2 2 2 2 2 2 2 2 2 2 2 2 2 2 2 2
left_child=15 9 3 10 7 6 -6 24 -9 26 11 -3 -5 -14 19 16 23 -7 -12 20 -11 29 -21 -1 -4 -17 -2 -16 -29 -18
right_child=1 2 4 12 5 17 -8 8 -10 14 18 -13 13 -15 27 25 21 -19 -20 22 -22 -23 -24 -25 -26 -27 -28 28 -30 -31
leaf_value=-0.12772056222965447 0.1333583067582236 0.21407468708061753 0.35595760249470471 -0.16158163908407269 0.0045052579368993718 0.14167899189421779 -0.064215193266459913 -0.16569909966294233 0.081924102056960171 0.24614740056720136 -0.11861321701369584 -0.089485350855711354 0.045830647856966389 -0.14880909895220748 -0.0081192334244131036 -0.31415160562243299 0.30826540403935537 -0.043218423206365396 -0.025777330594684827 0.067503267783349349 0.045647572386273483 -0.054703507369351353 -0.12953350235108221 0.21235688729778651 0.081990288877806655 0.077138613945275297 -0.19636953746598523 0.40158577607498708 0.10392365242826469 0.077939350339300439
leaf_weight=15.016910910606386 5.8450346291065243 21.360011711716652 17.369591951370243 25.701902486383915 1984.294036924839 79.910968594253063 300.31781239807606 17.130242809653282 114.51399187743664 35.407234266400337 264.63111685588956 21.261321805417538 241.48689582943916 26.74251701682806 6.010024473071101 6.616717554628849 36.485593438148499 31.954343400895596 132.33120553195477 31.159593537449837 59.829634979367256 6.8252698481082907 27.001718625426292 7.071605533361434 12.30827025324106 6.9169854670762998 17.047377891838551 16.511058479547504 7.9338243529200545 10.151886232197283
leaf_count=63 20 68 54 101 6469 267 1143 80 401 112 1015 76 846 104 19 22 112 116 489 106 200 22 94 23 43 22 72 50 31 33
internal_value=0 -0.000278414 -0.00482007 -0.0398013 0.00521169 -0.000168798 -0.00452821 0.0851401 0.0497021 0.0720231 -0.0730915 0.0626461 0.00998538 0.026425 0.0949592 0.108927 0.14889 0.088863 -0.0876655 0.0655303 0.12019 0.218191 -0.0239722 -0.0188453 0.242335 -0.114166 -0.112181 0.24319 0.304977 0.258129
internal_weight=0 3498.06 3291.31 733.515 2557.8 2396.48 2284.61 161.322 131.644 206.746 439.584 42.6213 293.931 268.229 183.853 89.085 75.5513 111.865 396.962 153.398 95.2369 53.4627 58.1613 22.0885 29.6779 13.5337 22.8924 30.4549 24.4449 46.6375
internal_count=12273 11976 11272 2699 8573 7995 7612 578 481 704 1648 144 1051 950 612 297 253 383 1504 512 312 167 200 86 97 44 92 100 81 145
is_linear=0
shrinkage=0.3


Tree=30
num_leaves=31
num_cat=0
split_feature=245 119 180 200 211 255 299 163 176 62 262 284 145 240 188 253 132 151 8 105 26 240 220 18 133 235 15 181 210 205
split_gain=14.0585 13.5 16.8314 13.2528 12.6021 12.8545 12.4239 11.054 10.702 10.2026 10.7438 10.3322 10.01 9.56081 9.35987 9.35517 8.72269 7.94387 7.91927 7.24389 7.20863 8.30149 7.11475 6.91358 6.69021 5.0481 4.75871 4.57193 5.06606 4.27494
threshold=-0.11017800122499463 -0.081337500363588291 0.017058500088751306 -0.10209551909937106 0.0057387285201414952 -0.065257001668214742 0.015001786518189753 -0.021460000425577146 -0.03622380903443289 1.0000000180025095e-35 0.057951498776674264 -0.016981500200927195 0.049944998696446356 0.050630317622113154 0.011463999748229951 -0.073626499623060129 0.020635500550270001 0.026826561438868118 0.074877375367009044 -0.015888837783223704 -0.030268999747931898 0.049107499420642804 0.051951000466942711 0.024422999471425951 -0.026535847474951503 -0.015637000091373848 0.030756457867030396 0.019271999597549404 -0.046500581708270525 -0.065452001988887745
decision_type=2 2 2 2 2 2 2 2 2 2 2 2 2 2 2 2 2 2 2 2 2 2 2 2 2 2 2 2 2 2
left_child=29 4 3 14 5 27 13 16 12 10 -5 -11 -7 24 18 -15 19 -10 -3 -6 21 -8 -16 26 -4 -22 -9 -2 -29 -1
right_child=1 2 6 9 7 8 20 23 17 11 -12 -13 -14 15 22 -17 -18 -19 -20 -21 25 -23 -24 -25 -26 -27 -28 28 -30 -31
leaf_value=-0.22731754490918252 0.31320151935561097 -0.034268644940849635 0.0078175594051328907 0.0012194054104542264 -0.17332865922767801 0.015524883080918324 -0.15262116946016183 0.14941540534353284 -0.074662232465604605 0.16415085093383738 0.20999480703546605 -0.062640529547785956 0.18764173743251708 0.25626617924184653 0.11609070374099806 0.010757834052142607 -0.15801132946378238 0.10569418110998031 0.18565767270608333 0.15394854064175115 -0.029393251743982867 0.0088322276239444671 0.35056808593382205 0.024407638373561153 -0.13286951445972364 -0.16727535984351441 0.30956161269442295 -0.037580635788872947 0.2101951099954672 0.19633335997006582
leaf_weight=2.2678702287375918 13.577392458915709 64.804311260581017 51.052865501493216 1582.8968066759408 7.497313328087329 201.32108329236507 43.945861645042896 33.745460629463196 177.6627701818943 19.056310802698135 22.499529719352722 352.62848740443587 35.821954526007175 15.373212501406668 58.997676514089108 152.91735181212425 18.260615631937981 25.082161843776703 19.072698444128036 32.35073433816433 29.069959349930286 82.411054700613022 14.511275842785833 19.20017246901989 75.275867648422718 134.31067362427711 33.058757983148098 13.023164771497248 17.282122340053323 39.140858501195908
leaf_count=19 46 272 225 4810 37 730 239 119 721 70 78 1461 125 58 206 638 81 91 70 129 139 354 47 70 383 691 107 48 63 146
internal_value=0 -0.00274859 -0.0119051 0.000445432 0.0369003 0.0137031 -0.0570175 0.11477 -0.00174244 -0.0062242 0.00414538 -0.0510129 0.0415242 -0.0136382 0.0842293 0.0331848 0.0136893 -0.0523498 0.0157402 0.0923721 -0.101128 -0.0473199 0.162378 0.183066 -0.0760141 -0.142742 0.228665 0.168533 0.103718 0.173131
internal_weight=0 3346.71 2718.82 2134.47 627.884 483.771 584.357 144.113 439.888 1977.08 1605.4 371.685 237.143 294.619 157.386 168.291 58.1087 202.745 83.877 39.848 289.738 126.357 73.509 86.0044 126.329 163.381 66.8042 43.8827 30.3053 41.4087
internal_count=12273 12108 9741 7014 2367 1824 2727 543 1667 6419 4888 1531 855 1304 595 696 247 812 342 166 1423 593 253 296 608 830 226 157 111 165
is_linear=0
shrinkage=0.3


Tree=31
num_leaves=31
num_cat=0
split_feature=114 85 150 150 272 33 164 199 158 144 140 235 243 97 94 239 205 130 59 165 283 65 13 131 259 23 227 217 28 190
split_gain=16.3312 18.1941 19.5211 17.069 16.8073 13.7061 13.6226 13.0346 11.8201 11.4599 11.1464 11.0407 10.627 13.1721 9.33287 8.98103 8.7999 8.21135 7.86275 6.98595 6.97985 6.63417 8.77429 6.46057 6.69405 6.38975 5.53417 5.13255 4.86706 4.75377
threshold=-0.057927500456571544 0.04227199964225286 1.0000000180025095e-35 0.085320954472647217 0.070111748910648211 -0.046244582135102651 -0.061579055071174012 -0.018980751693281419 -0.014919499866664349 -0.074630430156451585 0.039535000920295653 0.00081050000153475011 0.020299564870211392 -0.0150056283117038 0.031327499076724059 0.011884999927133251 -0.069937218561143474 -0.084957998245954444 -0.071447083725364041 0.022517776245399582 0.086324156704372337 -0.010863500181585498 -0.014239230736637505 -0.011987270275251842 -0.029251500032842097 -0.015546429805102601 -0.11312049999833099 -0.024711173033432361 -0.063803953163467278 -0.016172485028230016
decision_type=2 2 2 2 2 2 2 2 2 2 2 2 2 2 2 2 2 2 2 2 2 2 2 2 2 2 2 2 2 2
left_child=11 2 10 4 6 -6 -4 9 15 20 14 23 17 -14 16 -5 -2 -13 -19 21 25 28 -23 24 -1 -3 -11 -20 -9 -15
right_child=1 7 3 8 5 -7 -8 19 -10 26 -12 12 13 29 -16 -17 -18 18 27 -21 -22 22 -24 -25 -26 -27 -28 -29 -30 -31
leaf_value=0.20463878958191398 0.14221754492507965 -0.11702287465563845 -0.088349835996441112 0.12099490579456898 -0.18602590068620101 0.020859295701864917 0.096565929143214824 0.31036421938228942 -0.22507377771388573 0.080319960044136579 -0.1742623983202142 0.21362339196388733 -0.16866919810068715 0.25086767648069275 -0.16977667753203807 -0.079656129161815331 -0.0043394666891330537 0.22568000755676249 0.14893033435665265 -0.15228647021781325 -0.19450195390018843 -0.13048661773412926 0.10147923348987356 -0.21495914287660567 -0.17177285050775806 0.16692527141785451 -0.19245583097420116 -0.14080704369154923 0.037367959222865309 -0.055702155856934492
leaf_weight=7.5471510514616993 37.671785205602646 10.528438605368136 38.176372442394495 31.581784322857857 33.480924412608147 207.03884622454643 589.76399420946836 12.692225493490698 29.985364321619272 7.1376567408442488 35.296347208321095 7.9315973818302146 12.365131013095377 25.861795902252197 30.068689148873091 55.108924105763435 1738.7252664230764 6.1647037640213957 5.8504507243633261 18.957184858620167 11.726321015506981 26.927728015929461 32.255789145827293 61.657041817903519 9.7393266558647138 22.113922189921141 107.6847982313484 92.54366272315383 10.946812838315962 5.5246555656194714
leaf_count=26 139 54 155 113 147 831 2232 45 144 33 169 29 60 89 140 228 5735 20 21 97 69 132 129 252 43 90 582 393 51 25
internal_value=0 0.00393669 0.0109335 0.0450203 0.0594945 -0.00793962 0.0853238 -0.0718541 -0.0627159 -0.125464 -0.00729917 -0.0780728 -0.0318693 0.093586 -0.0040369 -0.00655813 -0.00123145 -0.0806634 -0.102987 0.0119959 0.00402338 0.0495983 -0.0040622 -0.169517 -0.00743425 0.0753409 -0.175499 -0.123579 0.183945 0.196905
internal_weight=0 3087.87 2826.9 985.136 868.46 240.52 627.94 260.971 116.676 159.191 1841.76 235.186 156.242 43.7516 1806.47 86.6907 1776.4 112.49 104.559 101.78 44.3687 82.8226 59.1835 78.9435 17.2865 32.6424 114.822 98.3941 23.639 31.3865
internal_count=12273 11315 10033 3850 3365 978 2387 1282 485 828 6183 958 637 174 6014 341 5874 463 434 454 213 357 261 321 69 144 615 414 96 114
is_linear=0
shrinkage=0.3


Tree=32
num_leaves=31
num_cat=0
split_feature=167 219 252 246 150 199 196 277 118 52 154 112 216 276 236 124 101 43 20 208 227 45 2 73 295 149 178 161 158 125
split_gain=10.6769 10.4436 9.04317 11.2215 12.3105 11.8955 10.111 11.6874 9.80538 15.5163 9.73593 9.3546 9.26409 8.95739 13.0662 8.68447 8.23555 8.03807 7.36914 7.28404 7.15002 6.99754 6.97185 5.44283 5.03294 4.98858 4.75133 4.62145 4.31749 4.31208
threshold=0.10543256300406784 -0.0034475459030715162 0.12916043391834914 0.012980500236153552 -0.013903388692134913 0.031449039390549528 0.084590304468303693 -0.0058639999479054494 0.074512019513736108 -0.011739999987185 0.0024930000072344504 0.089358500027797202 -0.068342000246047932 -0.040430000051855992 0.030121292370636304 -0.055508499965071643 0.039535000920295708 -0.057126829180093285 -0.021198499947786296 -0.035503499209880739 -0.044342543366501903 -0.039902500808238893 -0.0021029167488186636 0.054654000326991005 -0.0098405000753700473 0.0075089999008923014 0.038834499195218058 1.0000000180025095e-35 -0.050318000838160445 0.0021974999690428008
decision_type=2 2 2 2 2 2 2 2 2 2 2 2 2 2 2 2 2 2 2 2 2 2 2 2 2 2 2 2 2 2
left_child=2 17 3 5 13 6 10 -8 11 -10 -1 -6 21 15 -15 -5 18 19 -7 -2 -3 -4 25 24 -24 -22 -14 29 -23 -19
right_child=1 20 12 4 8 16 7 -9 9 -11 -12 -13 26 14 -16 -17 -18 27 -20 -21 22 28 23 -25 -26 -27 -28 -29 -30 -31
leaf_value=0.0065283627126884302 0.27287323615103226 -0.15907594125581065 0.18390834901136907 -0.029663376499774227 -0.092945632506513789 0.012549062579801795 -0.067832103274615058 0.16934410138574402 0.2247348734586494 -0.06966074259942491 -0.040819063434271427 0.15175881391116394 0.24856491775291062 -0.090891016593226334 0.15838855061979093 0.20729828543758302 -0.18828221168010326 0.19461247701441711 0.17200808518847402 -0.19067540177218409 -0.20576103446914309 0.084526075978901757 -0.11649979242940894 0.38261948954766395 0.27118048497366737 0.14765548342768184 -0.0011171149792709714 0.0034433421065389229 -0.21650225507356261 0.4020159704860537
leaf_weight=2053.1593442745507 4.8429456949234 17.201945081353188 9.9385201930999774 21.618007764220238 368.33120102807879 39.782451808452606 26.46639509499073 63.714825324714184 25.557541154325008 43.600249096751213 482.77200011909008 14.617950834333895 32.931315310299397 70.692369788885117 25.842028491199017 39.088499799370766 8.535113185644148 19.633346021175385 75.745545625686646 8.2447615116834623 9.7428308352828008 6.1967809870839146 6.4383787959814054 8.1061674430966359 5.6661564931273496 5.6961130797862998 8.663989990949629 5.8898829519748679 13.921269588172434 16.692315779626369
leaf_count=6645 18 59 32 70 1472 141 111 228 88 168 1896 48 103 282 90 126 29 69 260 32 36 22 24 24 20 23 31 21 54 51
internal_value=0 0.095134 -0.000598619 -0.00284786 -0.0396825 0.00531348 0.00102506 0.0997376 -0.0648296 0.0391343 -0.00248529 -0.0836048 0.104861 0.0326219 -0.0241595 0.122915 0.0960887 0.186267 0.117098 -0.0191449 -0.000226849 -0.0220391 0.0764223 0.192376 0.0649741 -0.07537 0.196558 0.249949 -0.123779 0.289918
internal_weight=0 108.155 3431.18 3359.52 609.348 2750.18 2626.11 90.1812 452.107 69.1578 2535.93 382.949 71.6519 157.241 96.5344 60.7065 124.063 55.3033 115.528 13.0877 52.8516 30.0566 35.6496 20.2107 12.1045 15.4389 41.5953 42.2155 20.1181 36.3257
internal_count=12273 377 11896 11654 2344 9310 8880 339 1776 256 8541 1520 242 568 372 196 430 191 401 50 186 108 127 68 44 59 134 141 76 120
is_linear=0
shrinkage=0.3


Tree=33
num_leaves=31
num_cat=0
split_feature=108 9 116 145 180 130 184 245 109 216 89 260 259 213 59 124 24 59 105 168 157 237 17 255 33 265 231 217 95 298
split_gain=12.2734 14.264 13.2519 12.3662 11.7799 12.592 11.2389 13.0984 10.8073 10.8309 10.0906 9.04213 8.72862 12.6563 10.9803 8.22287 8.20208 8.14004 8.07102 8.04967 7.58456 7.37935 6.86754 8.03948 10.1032 6.84678 6.70705 6.55294 6.54686 6.28227
threshold=-0.040231015729615772 -1.0000000180025095e-35 0.039299499243497814 -0.037564499303698491 0.054347411194742339 0.0076923241783546864 0.016871121432374372 -0.042357999831437995 0.10583134612806754 -0.10006349906325333 -0.09994300082325934 0.10110949724912636 0.018377661268870651 -0.0017685848969285717 0.047287499532103504 -0.085283745468094543 0.063829338243940867 0.096427999436855302 -0.029680000618100149 -0.032787000760435996 0.016131999902427151 -0.061912000179290695 0.0077454999554901508 0.020066999830305503 -0.051996499300002989 0.085448998957872363 0.029912952535201032 -0.0074218405643781933 0.047189231146427681 -0.031259501352906192
decision_type=2 2 2 2 2 2 2 2 2 2 2 2 2 2 2 2 2 2 2 2 2 2 2 2 2 2 2 2 2 2
left_child=2 8 4 26 5 6 7 -1 9 20 -3 18 13 25 19 -11 28 -17 -10 -14 -2 -15 23 -5 -25 -12 -4 -6 -7 -13
right_child=1 10 3 22 27 16 -8 -9 11 15 12 29 14 21 -16 17 -18 -19 -20 -21 -22 -23 -24 24 -26 -27 -28 -29 -30 -31
leaf_value=0.14015909197432205 0.16567034389533233 0.27396037175593929 0.0037469944334511196 0.13345440244920678 0.055740627603278275 0.16991640627098933 -0.21573765477612719 -0.037648074990681339 0.20868849269237227 0.056541572240486185 -0.096461995781937343 -0.17680755265649245 0.17953060990216804 0.16880607404871353 0.16319392131748386 -0.1127810806688566 -0.14974022456318048 0.087593588447483051 -0.07104518402014813 -0.025847389505509206 -0.032428588947304375 8.6330761780569948e-05 0.21797792969831745 0.24670546391339462 -0.16932591677215636 0.12169198943997657 -0.32050292695067989 -0.10599775507321435 -0.024423993564728318 0.21737784924538855
leaf_weight=53.485738817602396 25.637348204851151 12.20696449279785 27.357195518910885 88.731037139892578 29.154601033776999 92.923478703945875 21.043130718171597 123.12106123939157 11.13266710564494 31.83086134493351 171.79802285134792 4.1663016229867926 20.738013043999672 23.657832887023687 63.934791795909405 350.82030402868986 9.7417980805039388 19.247775562107563 55.866726782172918 99.986484963446856 54.099933121353388 1687.5307271555066 56.432965349406004 7.2403146326541927 19.145047798752785 14.003394447267054 7.2663068920373908 99.446889124810696 18.748569630086422 28.739808700978756
leaf_count=198 110 43 109 337 122 334 105 484 43 128 845 17 94 89 221 1757 51 73 240 398 277 5181 219 22 77 54 25 458 72 90
internal_value=0 -0.00954404 0.0363068 0.099241 0.00732236 0.0382181 -0.00849256 0.0162012 -0.0511093 -0.0697356 0.00200019 0.0386862 0.00040539 -0.0056556 0.0626694 -0.0897742 0.114259 -0.102359 -0.0245644 0.00943237 0.0312647 0.00241895 0.132249 0.0902219 -0.0551642 -0.0800203 -0.0643021 -0.0693309 0.137289 0.167469
internal_weight=0 2675.4 653.838 206.173 447.665 319.064 197.65 176.607 581.542 481.636 2093.86 99.9055 2081.65 1896.99 184.659 401.899 121.414 370.068 66.9994 120.724 79.7373 1711.19 171.549 115.116 26.3854 185.801 34.6235 128.601 111.672 32.9061
internal_count=12273 9660 2613 789 1824 1244 787 682 2735 2345 6925 390 6882 6169 713 1958 457 1830 283 492 387 5270 655 436 99 899 134 580 406 107
is_linear=0
shrinkage=0.3


Tree=34
num_leaves=31
num_cat=0
split_feature=108 275 130 199 159 136 121 10 272 293 297 291 162 131 123 272 266 259 249 272 298 211 205 115 139 247 120 42 283 48
split_gain=15.6144 14.8721 14.1748 14.1193 15.6572 19.9196 13.7672 13.4788 13.4693 13.3988 12.5701 15.0004 10.8259 12.2227 9.96963 8.22581 8.10868 7.69995 8.68264 7.28291 6.95656 6.73187 6.69566 6.66619 9.11229 6.66543 5.89073 5.17078 5.08989 4.95291
threshold=-0.040231015729615772 -0.081881109986555331 0.0076923241783546864 -0.10789773317085387 0.002792965443516802 -0.07205149903893468 0.081950400069557228 0.010975510322015289 0.042361499741673407 -0.050606001168489394 0.017598499543964804 0.014312499668449103 0.083976108145956893 1.0000000180025095e-35 0.06657800078392026 0.089233499020338017 -0.0079866404255274619 0.0050354345028289912 0.046770727639598532 -0.034500500187277745 0.041809511941414503 -0.0031345000024884493 -0.055046498775482143 0.039462000131607007 -0.0055794999934732489 0.0050683463110194381 0.039898886808127906 -0.0065951533928133065 0.14102599769830701 -0.046345581414985106
decision_type=2 2 2 2 2 2 2 2 2 2 2 2 2 2 2 2 2 2 2 2 2 2 2 2 2 2 2 2 2 2
left_child=1 7 10 22 9 20 8 -1 -7 -5 17 16 13 -11 23 27 -12 18 -3 -14 -6 -13 -2 28 -25 -8 -19 -9 -4 -22
right_child=3 2 14 4 5 6 25 15 -10 12 11 21 19 -15 -16 -17 -18 26 -20 -21 29 -23 -24 24 -26 -27 -28 -29 -30 -31
leaf_value=-0.18462387995103771 0.071224252071622737 0.038144142153935127 -0.16796477372451349 -0.17999542436642868 -0.17452441604636831 0.12538216815497036 -0.158765821064732 0.21255711143767431 0.031436607062766075 -0.0078622073122231687 -0.10510284802511466 0.25945003196080768 0.23430931401897745 0.049786532691951206 0.23443805606483792 -0.17515959426326985 0.14194718381033322 -0.19098247919067882 -0.13789749587892086 -0.1397065433630538 0.14832375257865224 -0.010813887279247193 -0.16979639430718735 -0.19307460682633498 0.32863502557084523 0.093061638809961295 0.099907876726902878 -0.078420235024588433 0.084175617912100417 -0.14441029942017505
leaf_weight=14.339628666639326 12.683641213923691 69.190712407231331 168.79155546240509 37.519738733768463 44.002540757879615 292.70905913226306 33.703737929463387 46.993585675954819 258.78513560444117 1439.6223030351102 44.521160122007132 32.861183784902096 5.0399940907955161 429.82896996662021 6.5362143814563742 6.6587143354117861 16.347443766891956 55.450006149709225 39.67354578897357 66.640966147184372 13.181038759648802 11.095388822257517 56.956562908366323 5.8999477736651897 6.157935153692959 13.150197867304085 7.0635962039232245 6.2244362682104102 7.5268492773175231 8.5930423066019994
leaf_count=72 55 294 912 160 201 1110 151 179 1024 4533 213 116 18 1670 26 33 74 305 175 305 54 51 281 36 24 54 29 32 42 44
internal_value=0 -0.0481955 -0.067859 0.00743766 0.0109512 0.0508086 0.068035 0.0766263 0.0812988 -0.00242668 -0.024145 0.0576868 0.00100551 0.00539254 -0.129805 0.139192 -0.0387528 -0.0741982 -0.0260109 -0.113409 -0.105894 0.191231 -0.125899 -0.142443 0.0733614 -0.088087 -0.158114 0.178524 -0.157201 0.0327976
internal_weight=0 545.332 471.116 2712.42 2642.78 664.125 598.348 74.2164 551.494 1978.65 276.203 104.825 1941.13 1869.45 194.913 59.8767 60.8686 171.378 108.864 71.681 65.7766 43.9566 69.6402 188.376 12.0579 46.8539 62.5136 53.218 176.318 21.7741
internal_count=12273 2613 2297 9660 9324 2638 2339 316 2134 6686 1257 454 6526 6203 1040 244 287 803 469 323 299 167 336 1014 60 205 334 211 954 98
is_linear=0
shrinkage=0.3


Tree=35
num_leaves=31
num_cat=0
split_feature=162 176 291 203 194 4 210 131 18 246 247 37 149 221 24 115 129 210 164 291 90 115 116 227 298 231 16 55 141 169
split_gain=8.9917 11.783 11.6625 10.4136 9.70008 13.2477 11.2126 11.9158 10.6945 10.2705 10.1539 9.87443 9.81441 9.41845 8.83619 8.81771 8.81864 8.74264 8.63552 8.41724 8.12515 8.08255 7.99412 9.10664 8.04588 7.5739 7.55925 7.54672 7.16879 7.0152
threshold=0.083355994291714919 -0.040790225333454798 -0.010937000159174148 0.10500549897551532 0.022292500361800156 -0.038195821937984813 -0.14175972177030802 0.025297041309581086 0.0054271471730186873 1.0000000180025095e-35 -0.069113500416278784 -0.026511500589549496 -0.077307499945163685 0.022523062817610882 -0.007843500003218597 0.032470500096678706 0.048353500664234106 -0.011040499899536297 0.076909857759757519 -0.0070860170922382735 0.0026013596789962426 -0.064550315736139216 0.039847500622272457 -0.046271596935449473 0.034316500648856101 0.041078500449657405 -0.0048485000152140491 -0.024116500280797447 0.0372078308897923 -0.026270320039541058
decision_type=2 2 2 2 2 2 2 2 2 2 2 2 2 2 2 2 2 2 2 2 2 2 2 2 2 2 2 2 2 2
left_child=4 2 13 18 5 8 -6 11 10 21 29 19 -11 17 -10 16 -9 -2 -4 -8 -13 27 23 24 -3 -23 -24 -7 -28 -1
right_child=1 22 3 -5 6 9 7 15 14 12 -12 20 -14 -15 -16 -17 -18 -19 -20 -21 -22 25 26 -25 -26 -27 28 -29 -30 -31
leaf_value=0.26451620772281043 0.14830547347227055 -0.075742580420430597 -0.11715961623996544 0.21751210836206117 0.27282747936135721 -0.14480407129515085 0.28529551871084063 -0.13823734784753652 0.050681195008307395 0.2257611575599838 -0.014238188150988847 -0.11442507623649928 -0.062418179583125372 -0.087879653579619035 0.19657433141978145 0.10428519081175458 0.042792071852310938 -0.028173864907166571 0.18920067003006444 0.01811005697878244 0.054109244495442528 -0.0055793857530304697 -0.069644307642963477 0.18663077652332347 0.13594825363034066 0.11981901280486738 -0.0094214812658391864 0.10603942330704351 0.29005420316740371 -0.028209678698989146
leaf_weight=21.938435308635235 81.532989472150803 29.380349829792976 109.71680160984397 10.511013165116308 9.5603164657950384 12.059451319277285 18.326594453305006 188.3791650608182 82.673825845122337 10.980987608432768 186.74117996543646 57.927811458706856 338.61717010289431 32.896234758198261 68.171219307929277 17.874149829149246 27.791318498551846 36.606592923402786 8.9566727429628354 25.208135843276978 46.340834155678749 1706.9591645896435 44.997653838247061 93.705283127725124 35.907944671809673 44.478427574038506 15.822174094617369 102.89229441806674 13.191939145326613 11.094263844192026
leaf_count=71 277 116 429 32 33 44 60 757 303 38 708 218 1380 121 245 68 100 130 33 98 163 5542 186 330 121 163 62 361 44 40
internal_value=0 0.0389382 -0.00251219 -0.0686886 -0.00405647 0.00260385 -0.048071 -0.0561053 0.0551023 -0.0061764 0.0128826 0.0105822 -0.0533664 0.05409 0.116615 -0.0982196 -0.114964 0.0936218 -0.0940376 0.130586 -0.0395222 0.00266287 0.0887879 0.126701 0.0406854 -0.00239485 0.00734314 0.0797237 0.126742 0.166202
internal_weight=0 513.226 280.22 129.184 2978.01 2586.61 391.408 381.848 370.619 2215.99 219.774 147.803 349.598 151.036 150.845 234.045 216.17 118.14 118.673 43.5347 104.269 1866.39 233.005 158.994 65.2883 1751.44 74.0118 114.952 29.0141 33.0327
internal_count=12273 1881 1022 494 10392 8895 1497 1464 1367 7528 819 539 1418 528 548 925 857 407 462 158 381 6110 859 567 237 5705 292 405 106 111
is_linear=0
shrinkage=0.3


Tree=36
num_leaves=31
num_cat=0
split_feature=45 214 176 216 63 220 196 117 229 262 101 59 164 183 261 46 262 137 103 231 294 186 226 18 277 240 78 35 89 10
split_gain=11.4638 9.61374 13.8258 12.341 11.4839 9.59443 9.49767 9.37935 9.0976 9.03787 9.61213 8.42485 13.3209 9.95277 8.40005 8.37452 8.0629 7.56411 7.49211 7.37695 6.67786 8.182 6.67561 6.75532 6.67159 6.35276 6.94757 6.23699 6.76192 6.72057
threshold=0.019435000605881155 0.00046772426077624997 -0.064088976418938501 -0.080333954026780133 0.027485354161382019 0.084552496671676622 0.048318000510334906 0.0072379141212082594 -0.0031110000563784996 0.073207365464920654 -0.085257496684789588 0.080390002578496864 0.019836000166833352 0.0037745857375873211 0.067366484341474603 0.087735500186681761 -0.037037499248981441 -0.1091958084145702 0.084972999989986364 -0.0094370003789662482 -0.072940498590469291 0.0017815499981354295 -0.0096014998853205993 -0.009828456710490107 0.070676997303962721 0.068459312191589447 -0.035848846932553642 -0.032714501023292493 0.0042968093067029499 0.095045901322935847
decision_type=2 2 2 2 2 2 2 2 2 2 2 2 2 2 2 2 2 2 2 2 2 2 2 2 2 2 2 2 2 2
left_child=1 3 16 4 7 9 27 8 -1 10 -4 12 13 -5 22 -9 20 -14 -11 -7 21 -3 -8 -24 -13 -18 -27 28 -2 -29
right_child=6 2 5 11 -6 19 14 15 -10 18 -12 24 17 -15 -16 -17 25 -19 -20 -21 -22 -23 23 -25 -26 26 -28 29 -30 -31
leaf_value=0.15114499923651661 0.12602806504338696 -0.19144342577987847 0.0058211959475190566 -0.0029119139318103328 0.22203483496212562 0.22772396526783603 -0.20240178477776907 -0.091146312456631795 0.0068858627003491272 -0.0023385374038355339 -0.092300038381483665 0.16582784420530458 0.053462584167743958 0.12045158169977134 -0.16386606040529783 0.29778413694819306 0.0064104838736799893 -0.11253196418317057 0.29127666938867652 -0.031881679299650328 -0.06695941679561318 0.30636379259629326 0.26993859366029344 -0.024728510350116903 -0.10241136898563521 0.23955741985048237 0.043887818217721336 0.15479995255063381 -0.048776818341932059 -0.18211190184892509
leaf_weight=79.70079693198204 35.957158379256725 4.2407560199499121 111.7951441667974 1604.4061501175165 36.738388743251562 18.459097407758236 7.1355259455740443 57.231238927692175 77.702049914747477 30.698750324547291 457.81922743842006 43.195826090872288 29.659207161515951 61.100544434040785 27.884613413363695 5.4577883929014197 48.974374361336231 147.95694098994136 10.495572730898855 21.125496510416269 75.992476789280772 9.928461514413355 14.00714021921158 14.001067936420439 10.343225583434103 35.348724789917469 30.356927070766687 108.40094214677811 44.64357928186655 5.6041185408830634
leaf_count=311 140 17 477 4893 153 70 31 245 339 129 2324 151 122 247 126 17 225 733 36 90 352 33 47 60 44 121 125 409 181 25
internal_value=0 -0.00563694 -0.0325464 0.00504984 0.0667657 -0.0539528 0.0602994 0.0408477 0.0799314 -0.0632287 -0.0730423 -0.00330721 -0.00671494 0.00161378 -0.040914 -0.0572855 0.0354212 -0.0848134 0.0724693 0.0891777 -0.0317048 0.157373 0.0566416 0.122637 0.114007 0.0881958 0.149155 0.0930801 0.0292062 0.138238
internal_weight=0 3008.73 855.235 2153.49 256.83 650.393 257.634 220.092 157.403 610.809 569.614 1896.66 1843.12 1665.51 63.0283 62.689 204.842 177.616 41.1943 39.5846 90.1617 14.1692 35.1437 28.0082 53.5391 114.68 65.7057 194.606 80.6007 114.005
internal_count=12273 11254 3999 7255 1065 3126 1019 912 650 2966 2801 6190 5995 5140 264 262 873 855 165 160 402 50 138 107 195 471 246 755 321 434
is_linear=0
shrinkage=0.3


Tree=37
num_leaves=31
num_cat=0
split_feature=33 260 287 174 263 37 31 74 275 153 205 95 124 276 265 160 228 73 172 238 173 278 272 159 260 45 229 161 121 124
split_gain=14.0119 13.7676 12.1932 15.5299 15.2518 13.684 13.4142 13.3817 11.0215 8.66934 8.47381 10.4112 8.29549 7.717 7.28488 7.21603 8.3848 10.2395 9.08735 7.07083 6.94416 6.11107 5.91868 7.47231 5.91442 5.73458 5.13527 5.62903 4.97175 4.52398
threshold=-0.058585001155733993 0.14484850317239764 -0.041836999356746639 0.0013850000104866503 -0.032979870523549164 0.0009430000209249002 -0.037118193467606274 -0.059399999678134842 -0.08299950137734409 -0.00029845672848534047 -0.060028185544535533 -0.0049073770942461119 0.029788999818265351 0.084182001650333363 -0.066286599357767942 -0.051668498665094341 -0.030206829599724403 0.078258550732412155 -0.046862214655838459 0.041371689768377316 -0.016559999436139995 0.032044500112533507 0.071453496813774067 0.037782918409102598 0.00073400000110265004 -0.11659550294280044 -0.080543499439954688 -0.075074996799230478 0.062230499461293207 -0.011009938821118568
decision_type=2 2 2 2 2 2 2 2 2 2 2 2 2 2 2 2 2 2 2 2 2 2 2 2 2 2 2 2 2 2
left_child=9 2 8 5 7 19 -6 -5 28 13 11 -3 25 26 -12 -11 17 21 -19 -4 -14 -17 23 -18 -7 -10 27 -1 -2 -28
right_child=1 10 3 4 6 24 -8 -9 12 15 14 -13 20 -15 -16 16 22 18 -20 -21 -22 -23 -24 -25 -26 -27 29 -29 -30 -31
leaf_value=0.27183042915794337 -0.031521625266598324 -0.25861593667802413 -0.0033938164909479416 -0.080376210092877376 0.013481067688763814 0.05329426312580355 0.09313606148918073 0.03765959460917092 0.12713890912359391 -0.1738143366955035 0.19237186348367871 0.26126322567793753 -0.13952845614961545 0.16900031007310223 -0.2167853729910944 0.044666461165098988 0.046588067433938216 0.27924123832531966 -0.18235660093673026 0.19951841621234526 0.16008187128095111 0.2536399985144413 -0.24745166430959131 -0.20801866669646979 -0.17282289784386828 -0.18983150703347584 -0.20184158352789264 -0.14334418061886436 0.26527277016976647 -0.081836245107327801
leaf_weight=5.568608783185482 9.9023525156080741 5.4636250138282767 1450.5016674548388 152.40145653951913 315.18677512928843 12.564933154731987 480.11406444385648 199.7274928689003 5.5106420814990988 22.546061180531979 4.2549795843660823 9.4862883426249009 12.992389813065531 7.9132942855358115 49.21413953229785 23.998771503567696 37.736603919416666 4.8486436456441906 18.422773256897926 15.622433308511971 15.000627946108578 26.502958159893751 13.330004464834927 14.307617649435995 60.728762140497565 75.755114421248436 72.227917926385999 6.2242523506283742 10.430269613862036 46.457202531397343
leaf_count=20 47 25 4676 725 1302 60 2005 798 23 100 19 32 59 30 248 105 159 15 80 64 57 92 69 68 338 395 359 30 46 227
internal_value=0 0.00457006 0.00780024 0.0121353 0.0385533 -0.00755575 0.0615679 -0.0134263 -0.0820798 -0.063544 -0.128399 0.0712672 -0.119822 -0.118661 -0.184225 -0.0163702 0.00914045 0.0784646 -0.0861818 -0.00123166 0.0210238 0.154334 -0.06909 -0.0234066 -0.134059 -0.168338 -0.136107 0.052702 0.120729 -0.154868
internal_weight=0 2884.86 2816.44 2686.85 1147.43 1539.42 795.301 352.129 129.591 300.085 68.419 14.9499 109.259 138.391 53.4691 161.693 139.147 73.7731 23.2714 1466.12 27.993 50.5017 65.3742 52.0442 73.2937 81.2658 130.478 11.7929 20.3326 118.685
internal_count=12273 10919 10595 9968 4830 5138 3307 1523 627 1354 324 57 534 666 267 688 588 292 95 4740 116 197 296 227 398 418 636 50 93 586
is_linear=0
shrinkage=0.3


Tree=38
num_leaves=31
num_cat=0
split_feature=141 101 223 260 256 230 167 166 38 12 241 255 284 44 9 262 84 76 202 29 278 288 295 55 63 58 285 18 38 229
split_gain=8.26893 7.82357 7.80417 7.48106 8.16686 12.9341 10.0773 9.55715 9.3636 8.88379 7.87674 7.57256 6.30134 6.15678 6.03838 6.42679 6.02514 6.44533 6.16527 5.95586 5.74436 5.31998 5.03335 4.6168 4.2161 3.98452 3.69646 3.24602 3.07079 3.02362
threshold=0.08889449760317801 -0.08128239349705467 -0.10889479815506141 0.15583799779415133 0.0024841625860936821 -0.031665498390793738 0.069503264225746111 0.013527499977499203 0.053732000291347455 -0.056382499635219491 -0.035809038775035613 -0.00099055125431327128 0.044885175866570697 -0.0042614587618542239 0.032805379259952028 -0.037580499425530343 -0.065800499171018531 0.016452172683455248 0.022454002449351817 0.091447286837233896 -0.069318503141403129 0.0022295710203615615 -0.027308999560773348 -0.041144499555230092 -0.068309387781334704 0.041198000311851453 -0.071103498339652932 0.016281997196768688 -1.0000000180025095e-35 0.025936499238014204
decision_type=2 2 2 2 2 2 2 2 2 2 2 2 2 2 2 2 2 2 2 2 2 2 2 2 2 2 2 2 2 2
left_child=2 27 16 4 5 8 9 -8 -4 -6 14 -7 21 -12 15 -5 -1 18 26 -20 -14 28 -15 -23 -22 -25 -18 -2 -3 -26
right_child=1 12 3 10 6 11 7 -9 -10 -11 13 -13 20 22 -16 -17 17 -19 19 -21 24 23 -24 25 29 -27 -28 -29 -30 -31
leaf_value=0.26863501919381877 -0.20819232965480625 0.041664877753683043 0.11557323762982727 0.17417347303435127 0.01769702739422916 -0.038894691503999768 -0.0080302815430089609 0.13175520832603435 -0.069852875661869679 -0.058373237836632522 0.3355056260080454 0.0080731752163484966 -0.23471389211907315 -0.10959895572900302 -0.21475302034180746 -0.13885697080016213 0.11937746218796297 0.29179214115930036 0.24456485481662887 -0.16084483386010737 0.015977307910091817 -0.13961358516847316 0.19155118462235393 0.23173135265622896 0.34139008324716008 -0.040657575921700113 -0.16771172116688057 0.083657162277521999 -0.24213511051234288 0.10236950711236618
leaf_weight=15.20691481977701 10.128249660134314 6.5557747483253479 144.97885762900114 17.039498373866081 176.3418781645596 382.56299982592463 160.53115147724748 60.650936245918274 29.496695157140493 638.2831976339221 15.242125958204268 1605.5045037530363 2.3946855366230002 7.6250858679413804 9.3979140669107419 9.0316414088010806 5.2577467411756507 8.3231382519006711 12.467625901103021 4.4167091846466056 5.9813465327024451 5.2964780777692786 14.481166645884514 20.343847811222084 23.246048681437973 6.3393376842141143 17.376220740377907 5.1860816180706015 7.1998668722808343 5.9907204732298842
leaf_count=53 50 27 544 54 727 1465 628 231 129 2626 51 5063 10 24 29 34 16 28 45 23 21 19 45 73 77 29 77 21 30 24
internal_value=0 0.0877221 -0.000403525 -0.00241852 -0.00458326 0.00590837 -0.0264875 0.0303007 0.0842252 -0.0419063 0.0926632 -0.000964832 0.123934 0.188817 -0.00858518 0.0657325 0.104141 0.0518552 0.00132088 0.138515 0.214893 0.0491286 0.0876758 0.116233 0.245465 0.167018 -0.101022 -0.10936 -0.106879 0.292414
internal_weight=0 98.6624 3334.22 3271.17 3198.35 2162.54 1035.81 221.182 174.476 814.625 72.8174 1988.07 83.3481 37.3484 35.4691 26.0711 63.0484 47.8414 39.5183 16.8843 37.6128 45.7353 22.1063 31.9797 35.2181 26.6832 22.634 15.3143 13.7556 29.2368
internal_count=12273 381 11892 11650 11413 7201 4212 859 673 3353 237 6528 310 120 117 88 242 189 161 68 132 178 69 121 122 102 93 71 57 101
is_linear=0
shrinkage=0.3


Tree=39
num_leaves=31
num_cat=0
split_feature=242 90 24 154 243 262 89 143 60 125 173 204 207 46 205 19 144 88 122 223 265 106 245 78 268 122 164 179 37 117
split_gain=10.2022 10.9962 10.6841 10.7742 11.9372 11.0372 11.7196 10.43 9.47157 9.36759 8.78301 8.04259 8.03879 7.84908 7.54614 7.21054 9.33361 6.75494 6.72124 6.71524 6.67775 6.97365 6.5693 6.39412 6.37615 6.23867 6.50842 6.20124 6.1855 6.05088
threshold=-0.028855499811470446 -0.029917735786971263 0.0018040972391099876 -0.082671497017145143 -0.0027275401875851112 -0.038631605613199498 -0.020827999338507597 0.023152000270783853 -0.084520500153303132 -0.034961000084876938 -0.012200499884784149 0.01270604466513924 0.038205500692129107 -0.026211500167846648 -0.043534648741505783 0.0182385122325853 -0.098526500165462438 0.12034240013503993 -0.022937727912732495 -0.00044299999717614999 0.037476500496268252 0.040709510276365345 -0.041911117985018932 -0.094462765854894298 -0.049954028463871973 0.010011499747633901 -0.015060000121593397 0.04271350055932991 0.0030069999629631005 -0.02944153317802126
decision_type=2 2 2 2 2 2 2 2 2 2 2 2 2 2 2 2 2 2 2 2 2 2 2 2 2 2 2 2 2 2
left_child=1 13 3 4 -2 7 18 11 -3 17 15 -5 -12 19 24 -10 -17 29 -7 -1 25 28 -9 -8 -15 27 -27 -11 -22 -4
right_child=2 8 9 5 -6 6 23 22 10 20 12 -13 -14 14 -16 16 -18 -19 -20 -21 21 -23 -24 -25 -26 26 -28 -29 -30 -31
leaf_value=-0.23811668537188926 0.28156097865208501 0.15329298748440093 0.076285352737921142 -0.036282278668788331 -0.12697905507504056 0.12065783666285268 -0.094243378768304173 -0.0031710978418871914 -0.071070804606189003 -0.16211280581930282 -0.11172843531909947 0.1211711709617764 0.096697286139381861 0.18398263732201886 0.15877225092993946 -0.16152344652383024 0.079501596716667386 0.20036960837580631 -0.062920300526746076 0.15048552047119532 -0.03583242965793669 -0.17284872215578986 -0.12616076667644754 0.0029187432391460369 -0.11357525463997567 0.40052497124870945 -0.056766545068036085 -0.027982041746868646 0.18113432023552606 -0.085849243876858633
leaf_weight=10.537682838737966 23.749182127416134 36.949267882853746 37.755699146538973 96.362481603398919 8.8302292525768262 112.7675386108458 63.165874816477299 52.337164845317602 51.145470950752497 133.97573221102357 93.44059774838388 41.888403829187155 20.266701586544514 9.8190269172191638 117.15686261095107 15.933792244642971 156.33217321150005 15.947526741772888 21.347296603024006 6.4529473930597296 29.205574683845043 16.61360302567482 154.37950753420591 1743.7740042880177 19.066375587135553 4.0311856791377059 9.1798742786049825 40.368915386497974 19.87250442430377 45.902357265353203
leaf_count=51 89 152 149 446 47 425 265 198 228 859 450 160 85 41 455 83 654 64 87 28 142 89 748 5559 86 14 57 235 83 244
internal_value=0 0.0374381 -0.00787465 -0.000473486 0.170831 -0.00291485 0.00587298 -0.052362 0.00909956 -0.0565078 -0.00670449 0.0114243 -0.0745795 0.102459 0.124911 0.0278411 0.0572079 0.0214338 0.0914374 -0.0905277 -0.0871632 -0.00484923 -0.0950219 -0.000477789 -0.0124263 -0.115994 0.0827701 -0.131055 0.0520209 -0.0126763
internal_weight=0 537.101 2671.45 2318.6 32.5794 2286.02 1941.05 344.968 374.068 352.853 337.119 138.251 113.707 163.033 146.042 223.411 172.266 99.6056 134.115 16.9906 253.247 65.6917 206.717 1806.94 28.8854 187.556 13.2111 174.345 49.0781 83.6581
internal_count=12273 2313 9960 8024 136 7888 6336 1552 1652 1936 1500 606 535 661 582 965 737 457 512 79 1479 314 946 5824 127 1165 71 1094 225 393
is_linear=0
shrinkage=0.3


Tree=40
num_leaves=31
num_cat=0
split_feature=2 281 204 67 140 69 222 227 123 133 197 216 233 271 141 142 214 258 40 234 205 268 250 121 143 235 223 107 178 34
split_gain=12.2608 12.1292 11.2737 10.6756 15.3375 12.1507 11.9743 10.3594 9.2907 7.65151 7.37983 7.39344 7.18673 6.23787 6.05627 5.54816 5.49792 5.13956 4.76709 5.67551 4.52911 4.48504 4.33652 2.15408 1.97391 1.44104 0.959712 0.412302 0.280226 0.134904
threshold=0.071282003074884415 0.039028499275445862 0.089258499443531022 1.0000000180025095e-35 0.029471999965608103 -0.061039761990476289 -0.088723499327897928 0.010785971938628005 0.078465498983859974 0.10080499947071071 0.031249999068677401 -0.00063293774633266958 -0.049974000081419896 -0.036240000277757596 -0.023082560623281571 0.022372500039637051 0.043775999918580007 -0.073439002037048298 0.0678229650084268 -0.046139196711941048 -0.070872319682722021 -0.03279400058090684 0.031804500147700261 0.085815001279115607 0.053916500881314257 -0.0087574999779462485 -0.070792499929666436 -0.095253001898527076 -0.065146498382091481 -0.044672500342130592
decision_type=2 2 2 2 2 2 2 2 2 2 2 2 2 2 2 2 2 2 2 2 2 2 2 2 2 2 2 2 2 2
left_child=1 2 3 5 6 14 -5 -7 9 13 18 12 -12 16 -1 -6 -3 -15 26 21 -14 -20 -13 -22 27 -21 -2 -4 -28 -29
right_child=10 8 24 4 15 7 -8 -9 -10 -11 11 22 20 17 -16 -17 -18 -19 19 25 23 -23 -24 -25 -26 -27 28 29 -30 -31
leaf_value=0.07713263415570458 -0.11591292691455972 -0.12585566913886961 -0.1184192778494107 -0.12798497231139805 -0.11043877720567541 0.0046264842383648454 0.060260733535426721 -0.10766467293035363 0.21434171711795152 0.31150277634504692 0.23136854489104222 0.32042145964302921 0.1303728534060864 -0.2085063782854151 -0.17321211041338919 0.048808673351893456 0.31454196602201806 -0.084068544523040065 -0.091590663353594101 -0.027968627953391726 -0.24178801074001724 0.32103196325770283 -0.049602785016651496 -0.013952514129631121 -0.00051696431197425293 -0.25597954179995558 -0.3309271578008337 -0.3069842513024818 -0.24912959251605973 -0.24054456026773655
leaf_weight=10.379365950822828 4.7527179867029181 4.6754101216793043 2.3022965490818086 31.810941774398088 78.847533905878663 1867.0877677602693 691.45674429554492 76.990178698673844 9.0583849288523179 3.9775386005640021 5.4053247496485701 7.8298745676875097 4.4948522485792628 46.253224078565836 53.657159121707082 26.243704576045275 5.6153936237096786 84.344933951273561 4.8305931091308594 3.3980816937983045 19.340566726401455 4.655988387763502 4.4823441468179226 4.6285541132092467 3.7493354864418498 9.3830419145524466 4.3855719231069115 3.4116792380809864 26.827828329056501 14.192831475287669
leaf_count=42 30 21 14 163 388 6491 2931 404 34 13 20 29 18 257 286 122 19 415 26 18 104 16 28 19 20 57 20 14 158 96
internal_value=0 0.0016299 0.00604483 0.00776489 0.0364208 -0.00405582 0.0519813 0.000179483 -0.0804054 -0.0988357 -0.102937 -0.0133765 -0.0857493 -0.11042 -0.132635 -0.070671 0.114457 -0.12814 -0.173961 -0.0648752 -0.14597 0.110923 0.185712 -0.197792 -0.200198 -0.195359 -0.2415 -0.237807 -0.260622 -0.25342
internal_weight=0 3014.05 2860.13 2836.47 828.359 2008.11 723.268 1944.08 153.925 144.867 104.415 46.1815 33.8693 140.889 64.0365 105.091 10.2908 130.598 58.2338 22.2677 28.464 9.48658 12.3122 23.9691 23.6561 12.7811 35.9661 19.9068 31.2134 17.6045
internal_count=12273 11730 10971 10827 3604 7223 3094 6895 759 725 543 218 161 712 328 510 40 672 325 117 141 42 57 123 144 75 208 124 178 110
is_linear=0
shrinkage=0.3


Tree=41
num_leaves=31
num_cat=0
split_feature=217 265 219 0 272 143 226 54 81 291 254 236 298 39 89 44 223 79 290 187 248 59 174 51 67 165 287 154 118 283
split_gain=7.45394 10.3564 7.92697 9.38073 9.23276 7.50118 11.0488 9.00701 8.15227 8.10006 7.85708 10.4463 7.70947 10.8106 7.53911 8.27112 8.82261 7.32811 7.15926 8.40123 7.95989 6.96079 6.6661 6.50545 6.50543 7.53157 6.03944 5.92604 5.90228 5.74302
threshold=0.093936000019311863 0.039468636951740486 -0.023720254265785511 0.053550999611616107 0.048227500170469208 0.043907500803470556 0.019382398343242291 -0.038079138304624539 -0.024031999520957397 -0.0080186170812433944 -0.10363100096583359 -0.033654504695308278 0.0033040483879847658 -0.034301445343661703 0.093858443577044939 -0.011980132160394718 -0.060271975316655714 0.038817999884486157 0.026046351986335963 -0.024849690339800553 -0.029070500284433295 -0.018500967089946644 0.060769001021981205 0.1253034017550716 -0.00051731873734655687 -0.034163567691021503 0.070559997111558914 -0.064876770239902251 0.0044775002170353512 0.036385999992489752
decision_type=2 2 2 2 2 2 2 2 2 2 2 2 2 2 2 2 2 2 2 2 2 2 2 2 2 2 2 2 2 2
left_child=5 2 29 4 17 6 7 8 -1 12 11 28 13 21 15 -11 -17 -4 20 -20 -12 -7 -13 26 -14 -26 -9 -10 -8 -2
right_child=1 -3 3 -5 -6 9 10 23 27 14 18 22 24 -15 -16 16 -18 -19 19 -21 -22 -23 -24 -25 25 -27 -28 -29 -30 -31
leaf_value=0.24887943120661749 0.059044839853257383 -0.066962131492285262 -0.11216422922885748 0.30078211275020456 0.092120483662210248 -0.063770687424910252 -0.15464142323430471 -0.0029743508188098942 -0.19312802308820656 -0.097868330453723368 -0.031195216450516254 0.060579570419764972 0.24508793431477982 -0.097889764273180746 0.28932096303193144 0.20448744604336963 -0.0058104950672561361 0.16985887346397371 0.14554002903336022 -0.075165868869272456 -0.10567899086777542 0.13282808483797548 0.30210963861132822 -0.1580447381801913 0.28903384408551158 0.0026795500720507215 0.099705339946409274 0.068292580151517249 0.069675601532391954 0.2238394919093237
leaf_weight=21.690778695046902 32.611324913799763 54.90834229439497 53.504843316972256 11.091884613037108 65.627711802721024 20.955016314983368 26.223972368985415 1808.4513726122677 8.5313805937767011 73.46904843300581 278.74570469371974 31.50409872084856 35.662715561687946 40.291918769478798 7.503334440290927 21.272877559065819 115.09352824091911 9.8129052072763425 33.058403346687555 29.26223686337471 240.57816797122359 71.555093914270401 15.268507286906241 23.753396634012461 10.965378597378729 33.58589331060648 53.067797463387251 91.556846380233765 17.670536130666733 45.70932986587286
leaf_count=78 150 231 213 40 255 82 115 5988 33 330 1133 121 120 168 24 74 414 33 121 114 1098 251 53 102 36 128 191 345 68 164
internal_value=0 0.0495036 0.0787902 0.0360431 0.0132702 -0.00217492 -0.00807997 0.00306991 0.0821438 0.0345895 -0.0413657 0.0407773 0.0761628 0.0318071 -0.00615691 -0.0167227 0.0269955 -0.0684566 -0.0541702 0.0419091 -0.0657 0.0882953 0.139425 -0.00203786 0.149598 0.0731598 -4.71798e-05 0.0460095 -0.0643385 0.155222
internal_weight=0 273.266 218.358 140.037 128.945 3109.72 2679.36 2007.05 121.779 430.355 672.312 90.6671 213.016 132.802 217.339 209.835 136.366 63.3177 581.645 62.3206 519.324 92.5101 46.7726 1885.27 80.214 44.5513 1861.52 100.088 43.8945 78.3207
internal_count=12273 1086 855 541 501 11187 9560 6737 456 1627 2823 357 785 501 842 818 488 246 2466 235 2231 333 174 6281 284 164 6179 378 183 314
is_linear=0
shrinkage=0.3


Tree=42
num_leaves=31
num_cat=0
split_feature=161 188 278 155 196 68 122 298 48 219 154 85 259 85 23 19 214 208 218 114 290 229 225 32 183 200 112 101 49 95
split_gain=9.00104 9.46236 11.3764 8.87811 8.36018 9.46463 8.65317 8.46545 8.232 7.53338 7.22382 6.96559 6.67062 6.3657 6.65368 7.36297 6.24087 6.59604 6.97871 6.74215 6.18641 6.15161 5.82889 5.80303 5.58962 5.23438 5.1461 4.20623 5.56144 3.43943
threshold=0.014592535301928217 -0.033950568153981849 -0.026619499549269645 -0.095795501023530891 0.0012211105502601964 -0.049337697727005643 -0.067614998668432194 -0.038136211728823838 0.011899412228279041 -0.10182199999690049 -0.093644499778747489 -0.023877558736358905 0.011795999947935303 0.012677500024437851 0.035925130480696225 0.096880000084638568 -0.035326011368175383 -0.052595588574808408 -0.01275876096814983 -0.040915001183748197 0.054007999598979901 -0.012048999778926348 -0.0076021404362433482 -0.038721499964594792 0.045416905956578553 -0.10943350195884699 -0.07473655468940138 -0.035180998966097797 0.036779001355171211 -0.03761399909853929
decision_type=2 2 2 2 2 2 2 2 2 2 2 2 2 2 2 2 2 2 2 2 2 2 2 2 2 2 2 2 2 2
left_child=1 3 9 -1 7 6 -6 11 -7 -3 -9 -4 23 14 15 24 17 18 -5 -19 26 22 -16 -11 29 -14 -18 -15 -29 -2
right_child=13 2 4 16 5 8 -8 10 -10 12 -12 -13 25 27 21 -17 20 19 -20 -21 -22 -23 -24 -25 -26 -27 -28 28 -30 -31
leaf_value=0.27323358308391243 0.082947727571994839 -0.2018485539510958 -0.083918331250312964 0.35844331669600155 -0.01303809867164527 -0.015284514483147613 -0.10726872476399162 0.30648628266305172 0.12859633381686908 0.090898239058627123 -0.00086173244669067938 0.12768712146137243 0.2247165835103809 0.23414254025017339 0.22546987159227544 0.17161845749022867 0.039938385685099373 0.28718443227738844 -0.084468159391371381 -0.1004687667843729 0.15198887603925557 0.24266845777025892 -0.21913601805045138 -0.030595702917031821 0.23060403738476568 0.08339760440621638 -0.12400382894894811 -0.20214792104671758 0.16866796810753609 -0.17989768594471278
leaf_weight=6.9778823815286151 5.2776244133710817 9.6199524253606779 16.936214815825224 8.9834713675081712 153.60833375714719 219.58310264348984 204.43382726423442 6.9092272520065299 42.757043294608593 64.263811213895679 1781.9445777982473 80.772529479116201 31.446962513029575 29.777309164404869 4.4586524218320847 11.515479601919649 19.299975354224443 4.7076283246278754 4.9747226238250724 28.382332108914852 8.7414426170289499 18.981614198535681 6.5562181510031241 78.729336004704237 4.0867096260190001 94.399167988449335 160.83396234735847 5.4657605644315508 10.897901877760885 29.665433961898092
leaf_count=25 23 49 93 36 735 1004 1109 24 179 277 5700 311 126 117 16 45 85 18 26 144 41 71 51 365 16 406 944 28 43 166
internal_value=0 -0.0034749 0.00147723 -0.0602621 -0.00491258 -0.0351234 -0.0668416 0.00502203 0.00816565 0.0590041 0.000325361 0.0910088 0.0683383 0.0781472 0.0272471 -0.0391787 -0.0701258 0.0276372 0.200589 -0.0453183 -0.0944782 0.139177 -0.0391663 0.024006 -0.101373 0.118711 -0.106439 0.166996 0.0448087 -0.140199
internal_weight=0 3028.31 2785.4 242.901 2506.94 620.382 358.042 1886.56 262.34 278.459 1788.85 97.7087 268.839 126.683 80.5417 50.5452 235.924 47.0482 13.9582 33.09 188.875 29.9965 11.0149 142.993 39.0298 125.846 180.134 46.141 16.3637 34.9431
internal_count=12273 11697 10378 1319 9155 3027 1844 6128 1183 1223 5724 404 1174 576 388 250 1294 224 62 162 1070 138 67 642 205 532 1029 188 71 189
is_linear=0
shrinkage=0.3


Tree=43
num_leaves=31
num_cat=0
split_feature=240 170 211 208 180 199 215 260 228 275 113 51 97 16 52 70 197 159 236 272 261 228 233 89 264 23 85 85 85 82
split_gain=10.4892 12.2036 10.7425 13.2713 12.4882 11.8632 10.6261 9.76408 9.61209 10.2998 9.12638 8.23366 7.49112 6.47488 5.88177 8.30794 7.59485 5.85412 7.49592 5.68801 5.56639 5.49366 5.42039 7.21553 5.33302 4.96743 4.8136 4.72118 4.61603 5.40614
threshold=0.12460149824619286 -0.047044001519679988 -1.0000000180025095e-35 -0.10382999852299683 -0.07166949659585943 -0.10789773317085387 0.050401501357555355 0.076934567446314023 -0.039348499849438646 0.0065579998772591006 -0.0014820000506005997 0.10428849980235096 -0.051615498960018137 0.067196090175035625 -0.031143500469624944 -0.056144015447073543 0.029600944221581143 -0.065013002604246084 -0.00077034739185938641 0.081638903035824689 0.11481700092554091 -0.10157850012183182 -0.06709270731426327 0.051449974830617508 0.0016833088863889146 0.025261399827614509 0.026990400804826734 -0.00089898397101964686 -0.042439167073085933 0.025144499726593453
decision_type=2 2 2 2 2 2 2 2 2 2 2 2 2 2 2 2 2 2 2 2 2 2 2 2 2 2 2 2 2 2
left_child=1 6 3 -3 -5 -6 21 17 9 10 24 12 -12 28 15 -11 20 -4 -19 25 -16 -1 23 -9 -2 26 -8 -24 29 -10
right_child=8 2 7 4 5 -7 19 22 13 14 11 -13 -14 -15 16 -17 -18 18 -20 -21 -22 -23 27 -25 -26 -27 -28 -29 -30 -31
leaf_value=0.1300799195990924 -0.2002837335890266 -0.15568604376321213 -0.20161233748426965 -0.17027753663269632 -0.097311998441393197 0.052190593950911045 0.20320376801335516 -0.060367745513271634 -0.15050757527686606 0.30285046513644992 -0.076969896248477429 -0.18573151317095948 0.17048576347240627 0.24117543421562343 -0.14466454753514416 -0.13929114979757046 -0.25337355660745214 0.086303860945506225 -0.004104615497303914 -0.1919294292758946 0.097967750615026244 -0.1411693577012394 -0.060689296838398105 0.33362672463225285 0.077266524614214627 -0.095871105033396797 -0.09010869101759432 -0.21036220522681176 -0.20015954359423282 0.13975300177028077
leaf_weight=7.1596602462232104 18.542868275195364 32.555306302383542 12.914030183106659 25.020361375063658 50.397293033078313 916.01223729737103 25.177116381004456 19.237245321273807 16.257469918578867 7.1424076631665221 13.52129404991865 8.6082386970520002 59.285235866904259 3.8754082322120658 21.094305286183953 8.2345003560185415 29.275731627829373 87.735941121354699 1392.8849802277982 7.9156901054084292 14.264219600707291 109.42424109019339 37.311521239578724 5.3459662012755862 9.3836751300841552 10.25582994148135 6.2945660389959803 38.579072607681155 60.57130984775722 8.9566226527094823
leaf_count=34 89 149 79 124 272 3997 120 93 74 23 56 34 218 15 101 44 124 423 4499 42 52 619 196 20 37 52 35 274 343 35
internal_value=0 0.0038064 0.00881113 0.0327877 0.0389766 0.0443942 -0.0750156 -0.00659135 -0.0572061 -0.0188898 0.040963 0.0917246 0.124529 -0.138125 -0.100683 0.0660789 -0.140357 -0.000501451 0.00125265 0.0412221 -0.0467826 -0.124511 -0.0971173 0.0253119 -0.107023 0.0854509 0.144539 -0.136776 -0.15526 -0.0474004
internal_weight=0 2784.22 2617.99 1023.99 991.43 966.41 166.227 1594.01 279.013 189.352 109.341 81.4148 72.8065 89.6608 80.0112 15.3769 64.6343 1493.53 1480.62 49.6432 35.3585 116.584 100.474 24.5832 27.9265 41.7275 31.4717 75.8906 85.7854 25.2141
internal_count=12273 11028 10126 4542 4393 4269 902 5584 1245 778 434 308 274 467 344 67 277 5001 4922 249 153 653 583 113 126 207 155 470 452 109
is_linear=0
shrinkage=0.3


Tree=44
num_leaves=31
num_cat=0
split_feature=188 194 91 131 293 38 210 169 73 263 256 223 145 298 237 215 192 286 23 65 116 136 207 203 241 218 144 273 59 171
split_gain=6.54997 11.7732 10.1199 10.0363 9.13357 8.30245 7.70742 7.2737 7.02609 6.88416 7.02943 10.222 9.66897 8.82837 8.3335 6.26726 6.67095 6.26718 6.1855 5.9545 6.30822 5.89473 5.5724 5.9542 6.52282 6.49029 5.47453 5.45447 7.43998 5.3759
threshold=-0.032020499929785638 -0.021753739625812615 0.0023858049171688708 0.025848120273245099 0.023401517609415043 0.019388641789770487 -0.055550999939441591 0.0080774999223649016 0.070257000625133459 -0.088386498391628238 0.0024841625860936821 -0.10655800356179208 -0.048148999303531656 0.054517500102519954 -0.091868001967668492 0.074506498873233754 -0.060474500060081447 0.028588803163216582 0.036420000717043856 -0.015231937541419783 -0.01716668158767443 0.0072415000759064509 -0.035198500379919943 0.063370000571012469 -0.051912501454353242 -0.044184934536706195 -0.0023574999067931999 0.041794499382376608 -0.018500967089946644 -0.004381500184535949
decision_type=2 2 2 2 2 2 2 2 2 2 2 2 2 2 2 2 2 2 2 2 2 2 2 2 2 2 2 2 2 2
left_child=1 2 5 6 -4 27 18 -5 -9 22 13 -12 21 15 -14 16 -11 -17 26 -15 -21 -13 -2 24 -24 -26 -3 28 -1 -8
right_child=9 3 4 7 -6 -7 29 8 -10 10 11 12 14 19 -16 17 -18 -19 -20 20 -22 -23 23 -25 25 -27 -28 -29 -30 -31
leaf_value=-0.042247570482345211 -0.13109137236274973 0.3273369864402525 0.28303463806253076 -0.1001165968378742 0.060472585286801828 -0.11014472539821639 -0.094769349019137306 -0.036750272551203181 0.30203737173605583 0.099070005851207857 0.16298922942848318 0.020178606887459382 -0.21176943333524337 -0.13506337322215087 -0.039075105691550746 -0.015590723082630792 -0.00061158748155471572 -0.19863966897219221 -0.011542763399125713 -0.05643809786679678 0.13722284128041556 0.21035818652610749 -0.08837228973931345 0.26584684676099563 -0.14794535541526835 0.20110048451638171 0.027317452068643503 -0.061472472756120909 0.20416762331691038 0.11430802509313419
leaf_weight=15.318929463624952 9.3912584334611875 20.084400288760662 38.89515084028244 97.531860053539276 28.944818094372749 25.451563231647015 28.24640079215169 15.424642980098726 8.5705878734588605 62.557218763977289 24.488662756979465 75.460918985307217 26.067242477089167 10.212611272931097 713.62282758578658 42.246825445443392 1770.8503593429923 27.984439104795456 12.117038033902643 18.205402337014675 89.841908071190119 18.207478992640972 16.979447308927774 17.562593571841717 5.8088352791964999 27.456278823316097 7.524567216634753 16.540608465671539 39.365101207047701 18.199782967567444
leaf_count=67 37 66 142 439 120 130 128 63 28 233 99 328 117 39 3038 174 5778 143 50 74 340 73 71 57 26 95 32 69 147 70
internal_value=0 0.039304 0.0992534 -0.00818124 0.188076 0.0369247 0.0701333 -0.0637124 0.0842575 -0.00292294 -0.00529296 -0.0280481 -0.0336618 0.00436153 -0.045161 -0.000579398 0.00278962 -0.0885286 0.167146 0.083896 0.104592 0.0571462 0.0854864 0.115482 0.0629236 0.140149 0.245569 0.0894789 0.135138 -0.0128431
internal_weight=0 372.215 164.516 207.699 67.84 96.6762 86.1722 121.527 23.9952 2956.94 2879.75 857.847 833.358 2021.9 739.69 1903.64 1833.41 70.2313 39.726 118.26 108.047 93.6684 77.1984 67.8072 50.2446 33.2651 27.609 71.2246 54.684 46.4462
internal_count=12273 1551 675 876 262 413 346 530 91 10722 10436 3655 3556 6781 3155 6328 6011 317 148 453 414 401 286 249 192 121 98 283 214 198
is_linear=0
shrinkage=0.3


Tree=45
num_leaves=31
num_cat=0
split_feature=216 213 85 109 184 207 267 165 195 200 271 100 17 134 237 96 64 190 298 49 235 217 158 84 161 272 8 99 0 186
split_gain=8.25798 8.10655 8.64751 8.28587 9.43856 8.21412 7.49214 7.38305 6.63708 6.56967 6.1676 5.55152 5.66511 6.57355 6.39755 7.4064 6.21288 5.41664 10.1623 5.35032 6.75418 5.30649 4.89053 4.84617 4.57045 4.19998 4.14779 3.7651 3.72538 3.70166
threshold=-0.11997499310920809 -0.029873999767005398 0.079578001052141162 0.10714200139045711 0.0025841190362126359 -0.00035800000478044994 0.026597806468849416 0.070063501596450764 0.15927699953317645 -0.099277000874280888 0.059178084880755835 -0.034348848132809855 -0.0049442493674011273 -0.070521999150514533 -0.025539499707519949 0.066317498683929402 -0.016442500054836197 -0.015654000453650896 -0.012725736052467526 0.029295292723889543 0.062138643138291892 0.04178742371443623 -0.0075850707298312989 -0.061172796739345135 -0.069997714224390883 0.062679499387741061 0.11400349810719486 -0.056500602051015154 -0.033859999850392293 0.020428500138223154
decision_type=2 2 2 2 2 2 2 2 2 2 2 2 2 2 2 2 2 2 2 2 2 2 2 2 2 2 2 2 2 2
left_child=11 8 3 4 7 22 -7 -3 10 -6 17 12 13 -1 -15 -16 21 28 -19 26 -21 29 -5 25 -23 -4 -12 -25 -2 -14
right_child=1 2 23 5 9 6 -8 -9 -10 -11 19 -13 16 14 15 -17 -18 18 -20 20 -22 24 -24 27 -26 -27 -28 -29 -30 -31
leaf_value=0.23811189527438384 -0.058147765166567805 -0.0037559356528079142 0.13978863518731122 -0.075590791614961947 0.08692060994266855 0.06394248186082313 0.24241644770952683 0.1238093980357346 0.36203169625813902 -0.093027754829445961 -0.13072438391182947 0.20300812345427061 -0.16717341213198347 0.17997665254942999 -0.13224848150727939 0.22105257747387788 0.22318769730109511 0.21703614658265 -0.10383461477397053 -0.0044161009563701446 0.23588372744011563 -0.046777080341837363 0.12567147348758989 -0.11845481980725368 0.26874635987173739 -0.15201572677099939 0.23556222019219439 0.17642159262864282 -0.19489533988071819 0.16782373069755241
leaf_weight=8.1333666294813138 26.095719354227185 2217.1062101442367 7.71795176714659 50.430316053330898 20.60189769230783 112.49603956192732 26.075699701905251 41.599281530827284 3.36053143441677 160.60133866406977 33.764486851170659 23.212571354582906 13.139927830547096 9.2895414140075427 45.274898817762733 6.0543431714177123 25.522847898304462 11.73601161316037 36.545397063717246 55.231101132929325 13.006052054464815 6.8132936246693161 13.850411146879194 4.2468865364789954 10.498270824551581 10.449647583067415 3.0322591066360465 47.312877517193556 57.297206838615239 3.8350696414709082
leaf_count=34 173 7876 31 245 85 433 103 162 11 922 237 112 76 37 212 21 113 55 235 260 53 33 52 15 39 49 12 190 380 17
internal_value=0 -0.00377303 0.000903499 -0.00184791 -0.00669147 0.0564104 0.0975268 -0.00140653 -0.0566122 -0.0725685 -0.0625557 0.0679807 0.0436006 -0.0151363 -0.0491153 -0.0905762 0.11112 -0.105806 -0.0258389 -0.00833584 0.0413852 0.027697 -0.0322253 0.105186 0.144566 -0.0280515 -0.10054 0.152133 -0.152104 -0.0914893
internal_weight=0 2952.56 2712.49 2642.76 2439.91 202.852 138.572 2258.71 240.069 181.203 236.708 151.774 128.562 68.7522 60.6188 51.3292 59.8094 131.674 48.2814 105.034 68.2372 34.2866 64.2807 69.7274 17.3116 18.1676 36.7967 51.5598 83.3929 16.975
internal_count=12273 11579 10163 9878 9045 833 536 8038 1416 1007 1405 694 582 304 270 233 278 843 290 562 313 165 297 285 72 80 249 205 553 93
is_linear=0
shrinkage=0.3


Tree=46
num_leaves=31
num_cat=0
split_feature=17 9 151 171 14 196 294 76 284 259 147 44 176 205 267 27 188 45 26 36 173 234 239 219 5 194 259 281 132 61
split_gain=9.60601 11.5159 9.69494 10.2456 8.93727 8.4715 9.2603 8.65144 8.83324 8.76354 8.21546 8.13455 7.28853 11.2619 7.00406 6.67856 6.59674 10.2822 8.04047 6.38143 6.17576 5.16247 5.02004 4.64425 4.19788 4.15911 3.50891 3.41608 3.31052 3.17101
threshold=-0.036117000505328088 -0.062857501208782127 0.036627000197768156 -0.053532977337071637 0.10339500010013576 0.0039372746567097735 -0.057329168345576893 0.050776001065969405 -0.0096939997747539971 0.026126021104145924 0.049056855120967434 -0.029179500415921145 -0.03579851909613227 1.0000000180025095e-35 0.027127940036267131 0.085438291453987195 0.0054760000202804015 -0.04245600104331964 0.011495499871671153 -0.054647386486833489 -0.03976497506941739 -0.08942449837923043 0.02325115930433248 0.0076204047834229566 -0.021629000082611944 -0.001308535057959649 -0.084955250680436925 -0.066803214302554328 -0.058300500735640443 0.019271000288426803
decision_type=2 2 2 2 2 2 2 2 2 2 2 2 2 2 2 2 2 2 2 2 2 2 2 2 2 2 2 2 2 2
left_child=1 20 3 14 5 6 12 8 19 -10 11 -8 -2 -14 15 -3 17 -5 -18 -7 23 25 -22 -1 -24 -6 -23 -28 -16 -9
right_child=4 2 -4 16 21 7 10 29 9 -11 -12 -13 13 -15 28 -17 18 -19 -20 -21 22 26 24 -25 -26 -27 27 -29 -30 -31
leaf_value=0.21472188390000488 -0.18466188198520977 0.022749538992850607 -0.19793827154044363 0.044887245213472433 0.23994676687930688 -0.23363540665865343 0.074817950936699587 -0.23943197676004935 0.076359251249181553 -0.021017599965017741 -0.21286054997718626 -0.00094820670959031191 0.077287945839519645 -0.18337160865113486 0.070888769624514236 0.22545347836932783 -0.17711399754678755 -0.13631103972305572 0.022304298584278941 0.0005595621296929712 0.13455448007441209 0.14464885519828027 -0.29206958564519742 -0.10987516746857499 0.019706287015658113 -0.13740410308949119 0.0787776188462435 -0.1978967893695559 -0.2493901640025962 -0.042045740871353557
leaf_weight=27.476729355752468 42.396925486624241 57.393860056065023 42.910535452887416 67.432927589863539 6.1826130487024784 15.759831324219702 138.19558732397854 11.592531437985601 433.08234121277928 102.9513554610312 15.729847617447374 1653.0798083236441 38.503602020442486 24.353473115712404 4.1020072922110549 19.632460754364729 84.25220113620162 48.425713708624244 23.2095414865762 31.20549732632935 10.158993765711786 3.394946187734603 7.79523940756917 4.6364709809422484 7.7519186697900277 4.5732616484165174 4.4429043196141711 41.834363142028451 9.9500665217637998 19.897856530733407
leaf_count=130 247 294 299 290 27 88 590 86 1906 569 84 5515 166 133 21 78 546 287 136 155 47 14 32 23 36 21 20 248 52 133
internal_value=0 -0.0440772 -0.0641771 -0.0459207 0.00508328 0.00781005 -0.00203695 0.0384534 0.0467264 0.0576569 0.00300153 0.0048971 -0.0885379 -0.0237025 0.0388811 0.0744147 -0.0805061 -0.0308486 -0.134044 -0.0780276 0.0801353 -0.108934 -0.0294503 0.167857 -0.136616 0.079502 -0.149738 -0.171334 -0.155896 -0.114709
internal_weight=0 415.129 357.309 314.399 2587.18 2526.75 1912.26 614.489 582.999 536.034 1807.01 1791.28 105.254 62.8571 91.0784 77.0263 223.32 115.859 107.462 46.9653 57.8194 60.4281 25.7062 32.1132 15.5472 10.7559 49.6722 46.2773 14.0521 31.4904
internal_count=12273 2271 2003 1704 10002 9672 6735 2937 2718 2475 6189 6105 546 299 445 372 1259 577 682 243 268 330 115 153 68 48 282 268 73 219
is_linear=0
shrinkage=0.3


Tree=47
num_leaves=31
num_cat=0
split_feature=87 91 105 25 79 299 177 254 69 284 296 63 57 29 60 232 139 238 185 95 52 58 160 286 198 197 83 94 263 112
split_gain=6.0565 7.28463 6.87893 5.95667 7.55591 6.7213 8.93733 8.44145 7.9909 7.12703 6.53403 8.21048 6.53464 8.47564 7.49135 6.10748 5.96797 5.92231 5.2192 4.93455 5.04555 4.7559 4.47373 4.07921 3.87675 5.04531 3.56933 2.68525 2.4278 2.22513
threshold=0.081260499801067934 -0.036566782790818445 0.026579000055789902 0.018767632248832041 -0.050694800083441023 -1.0000000180025095e-35 0.04536600038409231 -0.086739502847194574 0.025907601692319083 0.053914891195479764 0.035732500255107859 0.040031500160694101 -0.11178449913859363 0.0082175000570714005 -0.020801608092926232 0.074990000575780869 0.030047995533829416 -0.09719349816441529 -0.022932999767362999 -0.066254999488592078 -0.034506000578403438 0.045887000858783659 0.010722500272095153 0.041352537036475456 0.027451000176370102 0.014781999867409402 -0.013487500138580749 -1.0000000180025095e-35 0.018158500082790855 -0.030120077857994965
decision_type=2 2 2 2 2 2 2 2 2 2 2 2 2 2 2 2 2 2 2 2 2 2 2 2 2 2 2 2 2 2
left_child=3 2 26 5 28 6 7 9 -9 -1 12 17 13 -7 -14 18 19 -12 -8 -6 -21 24 -23 -13 25 -3 -2 -27 -5 -24
right_child=1 21 -4 4 16 10 15 8 -10 -11 11 23 14 -15 -16 -17 -18 -19 -20 20 -22 22 29 -25 -26 27 -28 -29 -30 -31
leaf_value=-0.047277210878522588 0.024388310771283037 -0.11279156709471612 0.17244335053646792 -0.25755158115887739 -0.14172583593032534 0.23762090844075778 -0.075267480579935028 -0.11255902826636863 -0.017044334722152815 0.08834465629295335 -0.047958591816632999 -0.20136779972398755 -0.041960310742689536 0.030114318272270409 0.0038038783190318926 -0.18698664594128228 -0.12880264762226634 0.12182091195630756 0.21749599450621027 0.018938261334909095 0.17668027752880883 -0.11907221409428277 0.00033389035670416126 0.074260565214627011 0.32562792779923144 0.072744078132230078 -0.24564837235231751 0.34796809146144586 0.017100859936261054 0.28268385612190078
leaf_weight=75.350740730762482 7.012943804264073 5.6947057172656086 9.0910844616591913 7.8203995972871763 6.3308445885777465 21.802951648831367 6.9764464460313311 188.46820120699704 135.5122643802315 64.917896516621113 22.351361580193043 14.203221607953312 386.73587420210242 94.494130164384842 1920.882536418736 5.5042035207152358 10.03262837231159 107.06561882793903 25.556588996201754 25.40150224044919 64.818923201411963 9.4709510058164614 4.2769977748394012 7.3245950005948535 15.48488165438175 5.7256244495511046 11.848112411797047 7.2056405767798415 4.6006335243582726 6.0872308611869794
leaf_count=324 27 26 34 38 27 78 33 877 586 253 99 78 1637 374 6551 25 45 432 97 106 241 39 17 37 55 21 51 22 20 23
internal_value=0 0.0823774 -0.0419195 -0.000243357 0.0656135 -0.00279029 -0.0345353 -0.0459898 -0.0726078 0.0154901 0.0034023 0.0639621 -0.000368945 0.0690169 -0.00386578 0.105269 0.0914192 0.0924986 0.154715 0.114302 0.132268 0.146782 0.0299701 -0.107588 0.214707 0.122492 -0.145243 0.226106 -0.155823 0.166167
internal_weight=0 81.8982 27.9521 3196.15 119.005 3077.15 502.286 464.249 323.98 140.269 2574.86 150.945 2423.92 116.297 2307.62 38.0372 106.584 129.417 32.533 96.5513 90.2204 53.946 19.8352 21.5278 34.1109 18.626 18.8611 12.9313 12.421 10.3642
internal_count=12273 315 112 11958 477 11481 2195 2040 1463 577 9286 646 8640 452 8188 155 419 531 130 374 347 203 79 115 124 69 78 43 58 40
is_linear=0
shrinkage=0.3


Tree=48
num_leaves=28
num_cat=0
split_feature=245 65 252 59 26 223 207 255 211 284 185 220 244 100 48 229 97 122 55 208 24 261 1 135 197 91 262
split_gain=7.16741 7.15937 7.97697 9.82174 7.32978 8.57096 8.51972 7.22354 6.23788 5.79866 5.77224 5.91178 5.7094 5.64337 5.63357 5.44329 4.53966 4.32811 4.23204 3.7193 3.15689 3.74271 2.73692 2.44156 1.69691 0.814227 0.403291
threshold=-0.1048386869564062 0.090048000216484056 0.088272999972104957 0.098696641268345708 -0.080626498907804434 -0.054742000997066442 0.038205500692129107 -0.027159214412028041 -0.10628549754619594 0.068788498640060411 -0.092299958751675695 0.068993497639894472 -0.12434149906039234 -0.13383150100708002 -0.085696499794721534 -0.014072000049054548 0.0033714999444782001 -0.093301497399806879 -0.043134465409616039 -0.042705999687313999 0.034137492608163754 0.036159001290798153 -0.0028824999462812493 -0.00081699999282129989 -0.048561631821910957 0.016804409176770858 -0.047030499204993192
decision_type=2 2 2 2 2 2 2 2 2 2 2 2 2 2 2 2 2 2 2 2 2 2 2 2 2 2 2
left_child=20 2 3 4 6 -6 -2 9 -3 16 -10 14 -5 -11 -12 19 -4 -17 -14 -9 23 -22 -13 -1 -25 26 -26
right_child=1 8 7 12 5 -7 -8 15 10 13 11 22 18 -15 -16 17 -18 -19 -20 -21 21 -23 -24 24 25 -27 -28
leaf_value=-0.038568291123232096 0.02087101132909025 0.31055052539459532 0.13428759853413197 -0.14330955290467554 -0.073518309044971378 -0.0019870634658009207 0.18277559080372513 0.11245385578416248 0.33196245525628992 0.22009604153515358 -0.18332182701497499 0.049976832116979127 -0.076697938683954511 -0.14133811953646913 0.039495234084112048 -0.0087844007698788459 -0.046861834003211776 -0.15726332126591708 0.17566729808513293 -0.071882069436223522 0.15972808478313807 -0.2788765102004474 0.35408249453634838 0.034755097067119739 0.34671725738858428 0.12829140656734739 0.24245954255035357
leaf_weight=4.2782550808042314 123.46325406804681 9.4349960014224035 36.058611931279302 6.8556763529777518 161.38241645507514 2289.9761534687132 38.333861369639635 15.776510234922169 6.2203505262732497 4.5397576540708569 12.477467022836207 4.391010332852602 6.7711656391620627 27.080078583210707 56.257696142420173 21.837256884202361 19.016996555030346 92.565503707155585 51.212267883121967 26.228531228378415 3.6349100470542899 3.378412339836359 6.7702501788735372 4.3554710075259235 4.5209960974753001 4.6489201150834552 12.774475434795017
leaf_count=21 569 33 156 33 1087 8319 151 77 26 17 72 23 28 135 289 117 98 491 201 129 17 33 24 21 17 23 66
internal_value=0 -0.00183262 -0.00447589 0.000247539 -0.00261431 -0.00669624 0.0592303 -0.0565086 0.0789746 0.012951 0.053603 0.0319313 0.115586 -0.0894459 -0.000952659 -0.0950094 0.0717387 -0.128922 0.146197 -0.00264806 0.129977 -0.0515537 0.234443 0.171612 0.205803 0.239752 0.269712
internal_weight=0 3016.65 2921.1 2677.99 2613.16 2451.36 161.797 243.103 95.5518 86.6954 86.1168 79.8964 64.8391 31.6198 68.7352 156.408 55.0756 114.403 57.9834 42.005 37.5914 7.01332 11.1613 30.5781 26.2999 21.9444 17.2955
internal_count=12273 12075 11608 10388 10126 9406 720 1220 467 406 434 408 262 152 361 814 254 608 229 206 198 50 47 148 127 106 83
is_linear=0
shrinkage=0.3


Tree=49
num_leaves=27
num_cat=0
split_feature=77 227 129 125 295 22 74 49 243 115 149 117 72 268 53 51 284 116 254 132 215 84 234 298 14 266
split_gain=9.0594 9.39935 9.00847 7.95407 7.72563 8.24197 6.06716 5.90995 4.47369 3.54635 3.59182 3.34435 4.35624 4.8981 3.09994 2.42337 2.36573 1.41591 1.27913 1.25116 1.03806 1.03135 0.337622 0.0275564 0.0260385 0.00214535
threshold=0.068766999989747959 0.059457499533891657 0.082539502531290013 -0.098522998392581884 -0.097586955795104458 -0.060583241609769738 0.036057450730933721 0.023179999552667103 0.059216951848958442 0.0060462907898082268 -0.0048390466454406424 0.024611500091850706 0.012935500126332001 -0.059331499040126738 -0.012974907865189659 0.012604063024596423 0.0075429999269544514 -0.05938849970698349 -0.060845999047160093 0.041299120491708634 0.061257394613671169 -0.11270800232887258 -0.062100179495362902 -0.009988208773376207 0.09073849767446511 -0.042763499543070745
decision_type=2 2 2 2 2 2 2 2 2 2 2 2 2 2 2 2 2 2 2 2 2 2 2 2 2 2
left_child=1 2 3 14 7 -6 8 -5 11 20 -11 17 13 -13 -1 -8 -4 -2 -18 -19 23 -16 -20 25 -25 -3
right_child=6 9 16 4 5 -7 15 -9 -10 10 -12 12 -14 -15 21 -17 18 19 22 -21 -22 -23 -24 24 -26 -27
leaf_value=0.14849049837055223 -0.043232417602147591 -0.22939996923225839 0.05379311883738494 0.16914790093804641 -0.089849173660856596 0.0062160971550710604 0.28467628380923721 0.011472595318019691 0.15677342572696679 0.18230382797107322 -0.17582308765557453 0.079332347921521315 0.16256631913522959 -0.24503375626283874 0.043587968828812468 -0.025181663268579152 -0.096355058037908725 -0.25227642597882211 -0.32848919957415024 -0.074364182080047248 -0.095659180353489123 -0.20950935394006676 -0.23210362322439843 -0.23858726423506441 -0.27112190591207641 -0.21887821751681408
leaf_weight=2.6570199020206955 4.034796640276908 2.7362855188548565 3.3784231245517757 45.29981042817235 82.932544159702957 2610.1461924901232 4.4398495852947217 40.541362103074789 4.417594499886035 5.0268462300300598 5.0551417730748636 6.250375466421251 5.6231362856924525 12.709481652826071 1.5495097115635896 4.6515770088881254 5.7494947202503726 30.009260596707463 4.7840304337441966 4.0359523557126513 5.993695229291915 22.342222296632826 10.34021418914198 10.663718586787583 2.7940165549516669 4.8097038269042995
leaf_count=22 16 19 21 201 435 10345 19 224 22 22 30 32 33 60 12 25 30 181 17 28 33 240 69 75 13 49
internal_value=0 0.000980348 0.00294672 0.00452051 0.00608185 0.0032578 -0.103845 0.0946805 -0.135015 -0.149084 0.00273782 -0.155586 -0.0693269 -0.138102 -0.158909 0.126139 -0.179108 -0.211271 -0.216803 -0.231185 -0.20578 -0.193095 -0.262592 -0.237205 -0.245342 -0.222694
internal_weight=0 2866.8 2829.72 2805.47 2778.92 2693.08 76.172 85.8412 67.0806 37.0794 10.082 62.663 24.583 18.9599 26.5488 9.09143 24.2522 38.08 20.8737 34.0452 26.9974 23.8917 15.1242 21.0037 13.4577 7.54599
internal_count=12273 11857 11616 11479 11205 10780 416 425 372 241 52 350 125 92 274 44 137 225 116 209 189 252 86 156 88 68
is_linear=0
shrinkage=0.3


Tree=50
num_leaves=31
num_cat=0
split_feature=115 92 280 183 12 18 31 231 236 130 165 6 1 4 292 123 285 163 140 60 50 55 110 31 169 59 83 192 274 46
split_gain=5.63842 6.3223 8.0094 6.97651 6.80685 6.43048 6.64701 7.97672 6.80177 7.7205 6.29056 6.22828 7.04809 5.99546 5.80704 5.76416 5.7439 5.71918 5.44735 4.91092 5.38882 4.87297 5.42038 6.06723 5.20228 4.45427 4.01444 3.68594 3.48107 3.46096
threshold=-0.078891010904456119 0.095561500638723304 -0.044585735606813108 -0.080528501421213081 -0.064151499420404337 -0.075939998030662481 -0.098972998559474876 -0.057963047648896815 -0.00077034739185938641 0.027834000065922706 -0.070487998425960485 -0.08639600127935404 -0.033563211704515795 -0.045964499935507691 0.039192000404000255 -0.026792000047862499 -0.017732027195805047 -0.12501550093293182 0.040555641331423177 -0.073037501424550941 0.064536032143295036 -0.03825850039720529 0.058840001001954058 -0.029745845886769078 -0.058463498950004543 -0.052510499954223591 0.060972500592470162 0.0018087364136556152 -0.036823499947786296 -0.016073499806225248
decision_type=2 2 2 2 2 2 2 2 2 2 2 2 2 2 2 2 2 2 2 2 2 2 2 2 2 2 2 2 2 2
left_child=19 5 3 26 16 14 7 -7 9 -8 -6 12 -5 -10 25 -9 -4 -13 -12 29 21 -21 23 -23 -24 -2 -3 -27 -22 -1
right_child=1 2 4 11 10 6 8 15 13 -11 18 17 -14 -15 -16 -17 -18 -19 -20 20 28 22 24 -25 -26 27 -28 -29 -30 -31
leaf_value=0.12374199009310795 0.16117986620881994 0.34337749404347107 -0.030598311982640534 -0.11322129378857962 0.20285984091206627 -0.15573474553981545 -0.011696637692039073 0.18285342558092835 0.058613492129683531 -0.082955838518209465 -0.055355568411005092 0.34110253193278955 0.11853492938213171 -0.0027986490100469171 0.2420637848959877 0.0050854366647165184 0.30263581295173247 0.074113379114101666 0.24541988877809184 -0.1569232937264152 0.014518928710378614 0.16709232608128266 -0.24894393467405607 0.017706213198981881 0.029649170225767713 -0.20350906833184274 0.031321170654719344 -0.060773529808659452 0.26646339703730604 -0.17528632590930465
leaf_weight=4.7421089932322529 4.9089442789554587 12.6615227162838 8.1924647092819232 34.01254490762949 9.7875739634037 11.147920936346052 450.55707293190062 44.550474129617214 156.36917915195227 196.52338864281774 155.24648130498827 7.6089891195297232 18.09208507090807 1682.5580049101263 4.3689722195267668 25.994816422462463 10.782343983650206 141.56009121052921 5.6153128743171683 9.8398808240890485 6.7756098657846477 51.435932330787182 8.4875076189637202 46.67068499699235 20.855375129729509 33.996019234880805 5.2481055706739417 31.250272288918495 18.175668977200985 13.12473078817129
leaf_count=20 18 44 30 145 34 48 2006 161 642 925 642 24 76 5659 15 106 37 570 20 41 30 189 32 190 81 175 22 148 66 77
internal_value=0 -0.00126777 0.0334507 0.0725083 -0.0116952 -0.00663945 -0.00411809 0.0800836 -0.00688506 -0.0333386 -0.0306485 0.0565426 -0.0327495 0.0024234 -0.0935118 0.117349 0.15876 0.0877323 -0.0448562 0.0533569 0.0697961 0.0464875 0.062192 0.0960273 -0.0509346 -0.11441 0.251935 -0.135145 0.198047 -0.09592
internal_weight=0 3051.03 408.808 219.183 189.624 2642.23 2567.7 81.6932 2486.01 647.08 170.649 201.274 52.1046 1838.93 74.5242 70.5453 18.9748 149.169 160.862 180.107 162.241 137.289 127.45 98.1066 29.3429 70.1552 17.9096 65.2463 24.9513 17.8668
internal_count=12273 11547 1644 881 763 9903 9547 315 9232 2931 696 815 221 6301 356 267 67 594 662 726 629 533 492 379 113 341 66 323 96 97
is_linear=0
shrinkage=0.3


Tree=51
num_leaves=26
num_cat=0
split_feature=102 6 212 132 264 278 18 119 24 137 73 255 184 132 271 55 124 261 22 234 97 174 70 127 90
split_gain=6.59902 6.23465 6.43768 6.19522 5.96365 7.94689 8.36949 8.21897 6.74244 7.59058 5.65478 5.36589 4.98998 5.424 4.52336 4.29541 3.79457 3.17638 2.75581 2.43955 2.04402 1.78306 1.66161 1.62539 0.171991
threshold=0.068779498338699327 -0.13573750108480448 0.063169534873881258 -0.025775999762117797 0.015408500097692001 0.0003983168196867311 -0.041801202355765579 -0.075460497289895942 -0.054583013137546259 -0.08886450156569474 0.014731000177562202 0.009198401038423341 -0.037444707462973653 -0.051827000454068142 0.09724200144410132 0.0080045795066809866 -0.032551998272538143 0.053535999730229308 -0.033865833184650342 -0.031543498858809443 -0.07067399844527239 0.016901968954131871 -0.049807563092188104 -0.037243001163005794 -0.018822000361978949
decision_type=2 2 2 2 2 2 2 2 2 2 2 2 2 2 2 2 2 2 2 2 2 2 2 2 2
left_child=1 3 4 15 5 7 -7 -3 10 -10 -6 14 23 -14 22 -1 -15 19 -19 -5 -20 -18 -4 -2 -23
right_child=12 2 11 17 8 6 -8 -9 9 -11 -12 -13 13 16 -16 -17 21 18 20 -21 -22 24 -24 -25 -26
leaf_value=-0.14730349183433766 0.18746147008916716 0.070788095693142164 0.08621505588229357 -0.16241159505810834 -0.18379865930446523 0.025115144716569275 -0.049418174295397022 -0.0011983315583953007 0.11195934572922438 -0.027016419093739585 0.13975574773069854 -0.10852903975396164 0.30184639343124986 0.1737504622903833 -0.042995242764203648 0.26188033937959876 0.038254209403232223 0.095635899674512082 0.0096463589796176395 0.19734051662538649 -0.25529159705662835 -0.2973421125681534 0.28523466733911323 0.40296596119346734 -0.20089373996227547
leaf_weight=3.7464834395796043 7.4141690954566002 155.50015340745449 4.7621661797165933 3.2833348326385021 5.2213411480188361 177.66193750314415 572.6444774447009 1740.1102640517056 48.531304717063904 130.4288148554042 70.524279441684484 7.0932568162679663 5.2513354942202577 4.5886571109294882 6.2964363731443873 6.0173891261219978 3.0367420315742493 2.5633535310626021 2.9118127636611488 3.5100958682596675 26.226538576185707 2.6093420945107919 18.223421603441238 5.4764506071805936 4.5931141320616025
leaf_count=35 35 715 23 22 26 792 3089 5901 208 650 263 34 19 22 27 30 14 11 14 21 172 11 80 17 42
internal_value=0 -0.00160093 0.000156481 -0.108555 -0.00141638 -0.00563688 -0.0317697 0.00470684 0.0424267 0.0106717 0.117452 0.125579 0.133354 0.0398398 0.182289 0.104873 -0.0529507 -0.162689 -0.202581 0.0234686 -0.228816 -0.154546 0.244002 0.279016 -0.235836
internal_weight=0 2985.26 2937 48.259 2900.62 2645.92 750.306 1895.61 254.706 178.96 75.7456 36.3753 32.9698 20.0792 29.282 9.76387 14.8279 38.4951 31.7017 6.79343 29.1384 10.2392 22.9856 12.8906 7.20246
internal_count=12273 12113 11808 305 11644 10497 3881 6616 1147 858 289 164 160 108 130 65 89 240 197 43 186 67 103 52 53
is_linear=0
shrinkage=0.3


Tree=52
num_leaves=31
num_cat=0
split_feature=154 242 77 174 204 263 139 36 192 218 94 130 93 247 117 30 86 271 169 267 220 40 161 205 152 55 223 52 215 217
split_gain=7.98794 8.07123 7.51866 7.99571 11.9432 11.8651 11.8774 10.1872 7.8528 6.44989 8.46591 7.28165 6.13593 6.15592 6.61239 5.92783 5.85985 5.55207 4.83815 4.49235 3.99617 3.97417 3.53611 2.68377 2.53422 1.8183 1.42228 1.12475 0.858672 0.590366
threshold=-0.052957501262426342 -0.11012400314211838 0.068766999989747959 0.0043405001051723515 0.014641500078141653 -0.028470000252127595 -0.022959499619901146 -0.062917999923229176 -0.060474500060081447 -0.031096000224351796 -0.097546998411416938 0.059286499395966509 0.0016135000041685502 -0.010340247350664114 -0.051714729107223932 -0.073592225469936032 -0.0063165000174193993 0.026184498951011211 -0.094141288219485017 -0.042973981114398048 -0.043770000338554348 0.098506998270750018 -0.11572907575940697 -0.049449000507593092 -0.061616726297683236 -0.060506999492645194 -0.027554499916732245 -0.065684257831725781 -0.034174500033259343 -0.011906666837214388
decision_type=2 2 2 2 2 2 2 2 2 2 2 2 2 2 2 2 2 2 2 2 2 2 2 2 2 2 2 2 2 2
left_child=9 27 3 4 8 6 -5 -7 -3 10 -1 15 13 14 -11 -12 26 -6 -4 -16 -17 24 -14 -15 -20 -24 -13 -2 -25 -27
right_child=1 2 18 5 17 7 -8 -9 -10 12 11 16 22 23 19 20 -18 -19 21 -21 -22 -23 25 28 -26 29 -28 -29 -30 -31
leaf_value=0.33605170664663736 -0.033656928478671695 -0.19946931837680462 0.12068514411479804 -0.074069814575613444 -0.033308409340597096 -0.0039230170982047664 0.030617078161877937 0.075167263063644824 0.00041326623810076976 -0.2480250569719121 0.23830792924908198 0.39254685295185682 0.025703438648481135 0.09875164006532032 -0.16730379180345514 0.16736466308714337 -0.12345197383728627 -0.21379333983215704 -0.01079684016370207 0.12376655616694003 -0.13864290844663424 0.069939712725695019 0.010343909102817106 -0.077236199071167119 -0.20001192478641225 -0.14519078588708495 0.17869759361359233 -0.24029869584904667 -0.24898182545312042 -0.24365959958429251
leaf_weight=6.4442953914403907 2.8590909540653255 17.902467699721456 7.7113612070679656 172.7328858487308 27.014887350145727 213.70990816876292 224.06345558259636 466.56241895165294 1487.3889890429564 6.7540738061070433 4.8132207021117202 4.7706700544804344 6.4218242289498439 2.7676541041582849 5.7034535482525817 4.2188227903097859 4.9368811137974253 35.493783164769411 7.6911602877080432 29.227768948301673 42.86499185487628 7.3895252402871838 3.0785336755216113 3.1834396757185521 37.101072701625526 6.4768850822001687 6.7728039547801027 13.875828060321508 14.802501052618021 35.596859214827418
leaf_count=22 20 113 39 936 175 1092 1027 2233 4936 38 18 17 30 17 35 21 26 255 46 146 220 39 16 22 239 47 33 100 97 218
internal_value=0 0.00270676 0.00399185 0.00637205 -0.00729969 0.0262729 -0.0149551 0.0503208 -0.00196394 -0.0610998 0.00734182 -0.0236378 -0.106015 -0.0427632 0.0237022 -0.0788064 0.150089 -0.135792 -0.101117 0.0762416 -0.111224 -0.133895 -0.182592 -0.176264 -0.167522 -0.212216 0.267077 -0.204995 -0.218584 -0.228501
internal_weight=0 2721.5 2704.76 2644.87 1567.8 1077.07 396.796 680.272 1505.29 188.835 74.8217 68.3774 114.013 62.4389 41.6853 51.897 16.4804 62.5087 59.8931 34.9312 47.0838 52.1818 51.5741 20.7536 44.7922 45.1523 11.5435 16.7349 17.9859 42.0737
internal_count=12273 11250 11130 10767 5479 5288 1963 3325 5049 1023 357 335 666 355 219 259 76 430 363 181 241 324 311 136 285 281 50 120 119 265
is_linear=0
shrinkage=0.3


Tree=53
num_leaves=31
num_cat=0
split_feature=278 183 63 26 272 146 77 285 286 132 37 112 252 199 89 108 264 273 221 158 92 58 295 204 70 103 201 297 117 269
split_gain=5.21806 9.1541 7.9898 8.67554 7.36933 7.07518 6.93789 5.98375 5.95695 5.92794 9.33536 6.5964 5.78995 5.66536 5.64217 5.43932 6.55476 8.66852 8.21923 6.57058 6.38377 6.19203 6.49879 5.29591 5.2505 5.15707 4.77989 4.61303 5.12006 4.95991
threshold=0.03703146804166977 -0.054315000772476148 -0.026335406844713947 -0.028174999170005249 -0.0013360000448300999 0.0029933093698151247 -0.10030600056052204 0.071756999939680113 -0.034979499876499141 -0.0019477395215491357 0.021682896691755372 -0.055133499205112395 0.13971000164747235 0.029981499537825505 0.017376999370753755 0.013296499848365751 0.019870812465806267 -0.045243000611662844 0.0019665000727399503 -0.081517133237140688 -0.019089999608695448 0.015097489962214066 0.024869748856552038 -0.030314499512314744 -0.11370507030584465 0.071914501488208757 -0.030695384927300378 -0.013372499961405949 0.05994050018489356 0.13512301977814603
decision_type=2 2 2 2 2 2 2 2 2 2 2 2 2 2 2 2 2 2 2 2 2 2 2 2 2 2 2 2 2 2
left_child=4 14 3 9 7 6 -4 27 -8 11 -11 -3 13 -7 26 16 17 19 -19 -6 -17 22 -22 -18 -23 -5 -2 28 29 -1
right_child=1 2 5 25 15 12 8 -9 -10 10 -12 -13 -14 -15 -16 20 23 18 -20 -21 21 24 -24 -25 -26 -27 -28 -29 -30 -31
leaf_value=-0.059972667637523631 0.05839837318124444 0.17275305931419135 -0.2086308895243115 0.1073027002100138 0.21538214848951368 -0.10666283505713135 -0.082210544979790579 0.20183405576633337 0.087641466347825256 0.15695961344849652 -0.11355736232878322 -0.10244846184875785 0.24138971694818007 0.06788305763244358 -0.0033349301905517895 -0.1036233046477663 0.052216512465806116 0.002119127495119319 -0.056589195418297496 0.041964065233371248 -0.0038766107877001889 -0.26074871908767605 0.19342755601760056 -0.11361020030656532 0.13495365464091968 0.33827607800542608 0.20776511509553203 -0.10740232400088723 0.15416038371703539 0.28053286742453737
leaf_weight=88.447918746620417 32.47156872227788 9.3006711043417436 10.132764704525469 56.671951808035374 24.757163815200329 117.72786246519536 23.723375342786312 7.8259871751070014 85.770877316594124 39.046950377523899 16.262997470796108 49.870639894157648 5.1754158660769454 19.509387951344252 31.197332926094532 24.475681219249964 22.062121897935867 1688.3869468457997 245.87717858329415 95.568854300305247 127.37021039798856 3.1305631995201102 17.033902127295732 80.861685778945684 83.864675166085362 10.277866445481775 47.470663018524647 112.61460735090077 13.263705585151909 4.025282345712184
leaf_count=465 133 36 47 223 105 606 103 39 362 145 71 226 18 104 122 120 92 5590 1077 427 539 14 67 362 322 34 169 585 55 15
internal_value=0 0.0278783 0.00858365 0.0569768 -0.0041324 -0.0249228 0.0288628 -0.0559119 0.0508408 0.0068095 0.0774185 -0.0591917 -0.0701029 -0.0818497 0.104868 0.000720267 -0.00418448 -0.000483491 -0.00534368 0.077645 0.0420767 0.0574877 0.0193974 -0.0780646 0.120714 0.142761 0.147094 -0.0651498 -0.020149 -0.0451507
internal_weight=0 554.61 443.471 181.431 2639.57 262.04 119.627 226.178 109.494 114.481 55.3099 59.1713 142.413 137.237 111.14 2413.39 2157.51 2054.59 1934.26 120.326 255.875 231.399 144.404 102.924 86.9952 66.9498 79.9422 218.352 105.737 92.4732
internal_count=12273 2399 1975 735 9874 1240 512 1159 465 478 216 262 728 710 424 8715 7653 7199 6667 532 1062 942 606 454 336 257 302 1120 535 480
is_linear=0
shrinkage=0.3


Tree=54
num_leaves=31
num_cat=0
split_feature=63 222 37 288 245 289 138 20 122 205 95 179 186 49 95 18 268 97 256 53 213 193 60 262 27 229 24 121 116 237
split_gain=5.65692 5.69161 7.72445 7.30113 6.51383 6.37208 7.15234 6.6718 6.58402 6.24243 5.77208 5.71348 5.56788 5.31662 5.28054 5.98657 6.59131 4.52218 4.36697 4.27947 4.24463 4.23582 4.18537 4.1246 3.78516 3.73787 3.62379 3.5843 3.51664 3.43859
threshold=0.0541265127840116 0.0091302962209068774 0.004184301011638347 0.063395644250615876 -0.06028549931943409 -0.09546780401529173 0.0009735000203363 0.065920498222112614 -0.05979650095105165 0.01715075698822828 0.031999500468373257 -0.013749500270932849 0.034230500459671007 0.073762498795986162 -0.04113024445885774 -0.016120632697200269 -0.02355420811987333 0.030910457777092431 0.0053055000025778506 -0.026226999238133396 -0.01141632545765171 0.025046999566256955 -0.054493406993319053 0.0040252637730394522 0.029275226151889096 0.0097635001875459523 0.011605999898165452 0.009966417111891902 0.019830200971721387 0.053505500778555856
decision_type=2 2 2 2 2 2 2 2 2 2 2 2 2 2 2 2 2 2 2 2 2 2 2 2 2 2 2 2 2 2
left_child=1 3 12 5 26 20 7 -7 -8 13 22 -11 17 -6 -2 -16 29 19 -14 -3 25 -18 28 -24 -19 -1 -4 -12 -5 -17
right_child=14 2 4 10 9 6 8 -9 -10 11 27 -13 18 -15 15 16 21 24 -20 -21 -22 -23 23 -25 -26 -27 -28 -29 -30 -31
leaf_value=-0.2108706637660451 0.19301275588891342 0.11910524868580162 0.18663275840026564 0.078185158216656239 -0.07886978268054691 0.003294300651191046 0.0054502991867904993 0.11323617508122001 -0.062296231927912449 -0.073645960926594159 0.10596347757797993 0.17807760309966675 -0.095833826223410662 0.068158464515714556 0.1137266714257946 -0.17600899704546033 -0.023726558402313396 0.079435718361255694 0.16068465131991508 -0.13165636110217457 0.15696227762235049 0.25776413511701562 0.004651119933633938 0.18979747557887894 -0.10194162059157739 0.1799461259736154 -0.021192791426034311 -0.13617834880741303 0.29237459890394452 0.13613213718147102
leaf_weight=6.0343329273164255 23.291428757831454 6.4193740915507069 24.612670246511698 11.134937778115274 106.13629690650851 1728.6212619636208 225.59720900468528 51.147326000034809 301.87267225887626 12.309937331825493 8.6683963760733622 23.814329072833061 10.016280855983497 27.967487765476108 43.255216337740421 24.103870349004868 11.771716520190241 21.629567055031657 14.796116754412649 133.59770748671144 36.353756753727794 8.136701498180626 32.061163701117039 16.352412175387144 19.866355903446674 3.4685281831771135 10.892974732443689 15.061083855107425 18.133922800421715 3.658381048589944
leaf_count=40 125 36 106 48 686 5605 1091 221 1599 67 44 117 56 123 208 169 74 114 65 804 174 39 161 76 140 16 76 99 71 23
internal_value=0 -0.00251892 -0.0351446 0.00295824 0.00598917 -0.000438477 -0.00263936 0.00645383 -0.0333213 -0.0183901 0.0817733 0.0922987 -0.0761605 -0.0482069 0.0655626 0.0329152 -0.0404112 -0.0943814 0.0571331 -0.12016 0.110297 0.0913205 0.121331 0.0671871 -0.00739948 -0.0682232 0.122873 -0.0477238 0.210889 -0.134876
internal_weight=0 2866.57 412.059 2454.51 205.734 2353.1 2307.24 1779.77 527.47 170.228 101.412 36.1243 206.325 134.104 114.217 90.9259 47.6707 181.513 24.8124 140.017 45.8566 19.9084 77.6824 48.4136 41.4959 9.50286 35.5056 23.7295 29.2689 27.7623
internal_count=12273 11635 2390 9245 1175 8746 8516 5826 2690 993 499 184 1215 809 638 513 305 1094 121 840 230 113 356 237 254 56 182 143 119 192
is_linear=0
shrinkage=0.3


Tree=55
num_leaves=31
num_cat=0
split_feature=114 150 173 41 12 33 76 91 30 246 204 171 227 69 44 267 214 122 128 147 110 125 130 146 12 179 57 27 48 101
split_gain=7.41042 7.4061 7.48383 9.89017 8.20236 8.87279 10.475 8.37641 7.39904 6.87368 6.52331 6.41784 6.2801 7.37568 6.23708 6.12098 6.11382 5.66626 5.39152 4.93519 4.65358 4.44746 4.9789 4.44738 6.13751 3.99466 4.61287 3.72727 3.88926 3.56873
threshold=-0.057927500456571544 -0.056187868312000781 1.0000000180025095e-35 0.058452500030398355 0.0089203953713120517 -0.094035498797893483 -0.0010842757973270492 0.036228110970756594 0.012202411772413751 0.03595362992453275 0.0017112382989413132 -0.047594999894499744 0.030619000084698155 -0.030243439565701462 -0.028644618178175846 0.031905980481546643 0.017755500040948304 -0.061001000925898489 -0.047550362217967754 -0.059764001518487896 0.011651313869942859 -0.045864999294280943 -0.0743554013342939 0.018758705072300146 -0.064151499420404337 0.015258289181551182 0.0012899999856017003 0.04350499995052811 -0.054884804765699215 0.009625670618834575
decision_type=2 2 2 2 2 2 2 2 2 2 2 2 2 2 2 2 2 2 2 2 2 2 2 2 2 2 2 2 2 2
left_child=9 23 4 12 5 -3 -7 16 10 14 -5 -10 13 -4 17 25 -6 27 -14 -16 -19 -21 -23 29 -25 -11 -27 28 -1 -2
right_child=1 2 3 8 7 6 -8 -9 11 15 -12 -13 18 -15 19 -17 -18 20 -20 21 -22 22 -24 24 -26 26 -28 -29 -30 -31
leaf_value=0.22517800499728904 -0.19825483117947004 -0.18718219197162886 -0.0080216431108149026 -0.20348833209639411 -0.086179733211155976 0.049756285652113375 -0.0042272469862858816 -0.20465399795769368 0.21536990886079355 0.2236277771213516 0.0028362305720421397 -0.043852097736260927 0.21469578878395729 0.11123645155691213 -0.26772257684273065 -0.22342855352919352 0.01333309455831385 -0.13065386693158657 -0.15951326014348954 -0.22786810505673222 0.16913638108288764 0.18889635740296537 -0.088049774773762329 0.27672036978787196 -0.086981300316678292 -0.18237271201579353 0.23656236109265605 -0.25027530869593106 -0.16381129219998261 0.068433732689410748
leaf_weight=4.3125407695770264 33.465443638153374 21.421110942959785 60.456178119406104 30.519251186400652 103.80788427591324 407.88062994601205 1563.7194911167026 28.862611064687371 14.85631116107106 15.638223389163619 25.161866173148155 20.398122627288103 4.3372052535414722 204.72468359395862 18.646048867143691 5.3626421615481368 119.56086357403547 6.1134215258061912 17.23461551591754 18.34284205455333 19.602721130475402 6.4775585755705825 59.573805503547192 5.6371360956691232 16.108914030715823 6.0840760469436628 3.8702318593859673 9.5521078221499902 4.9900595173239726 5.2203832678496829
leaf_count=18 221 138 288 143 609 2100 5470 192 68 66 128 99 19 974 102 26 609 36 102 144 91 27 299 27 100 36 16 52 45 28
internal_value=0 0.00258378 0.00497608 0.0440471 -0.00159631 0.00485431 0.00694076 -0.0525663 -0.04216 -0.0605312 -0.110252 0.0653847 0.0713853 0.0840479 -0.0874852 0.0680001 -0.0329143 0.00627755 -0.0842752 -0.128043 0.0978681 -0.0971823 -0.0608901 -0.10125 0.00729954 0.129066 -0.0194909 -0.118644 0.0165181 -0.162267
internal_weight=0 2683.37 2622.94 377.688 2245.25 1993.02 1971.6 252.231 90.9356 178.566 55.6811 35.2544 286.753 265.181 147.611 30.9552 223.369 44.5709 21.5718 103.04 25.7161 84.3942 66.0514 60.4319 21.7461 25.5925 9.95431 18.8547 9.3026 38.6858
internal_count=12273 11315 10939 1821 9118 7708 7570 1410 438 958 271 167 1383 1262 814 144 1218 242 121 572 127 470 326 376 127 118 52 115 63 249
is_linear=0
shrinkage=0.3


Tree=56
num_leaves=31
num_cat=0
split_feature=95 258 84 153 149 93 255 246 243 99 237 31 248 254 255 174 289 19 21 283 183 50 144 18 194 235 70 58 289 12
split_gain=5.04824 5.45536 6.21324 5.73272 5.06054 7.56546 6.10608 6.08034 5.70447 7.64862 5.60069 8.13561 7.04782 6.09002 5.89567 5.59545 5.42823 5.90406 5.35973 5.78713 5.32919 5.24273 6.7406 4.56407 4.49267 4.35844 4.34219 4.27943 4.05967 5.952
threshold=0.072412198086945934 -0.093428499996662084 -0.060576235443161389 -0.010733506305854191 0.065249962775793216 0.090858500450849464 -0.0027501085050191973 -0.02913774870435067 0.03684349916875361 0.05949000082910056 -0.023375499993562646 -0.096125498414039542 -0.10791171516430709 -0.10701515855674849 0.020066999830305503 0.027553991369027763 -0.00076523123945850013 0.07747777639735505 0.054677000269293757 0.10520645128539967 -0.071050498634576742 0.049932935071812352 -0.097112499177455833 -0.013894999865442449 0.026469087769676186 0.0052325001452118011 -0.043213497537248534 -0.061156999319791745 0.0023315000580623004 0.021203500218689404
decision_type=2 2 2 2 2 2 2 2 2 2 2 2 2 2 2 2 2 2 2 2 2 2 2 2 2 2 2 2 2 2
left_child=4 26 -3 28 8 6 16 23 10 18 12 15 24 -13 -14 -12 25 -18 19 -10 -9 22 -11 -8 -1 -6 -2 -5 29 -4
right_child=1 2 3 27 5 -7 7 20 9 21 11 13 14 -15 -16 -17 17 -19 -20 -21 -22 -23 -24 -25 -26 -27 -28 -29 -30 -31
leaf_value=0.15611679079773466 0.0084698924984716924 0.1340426650282103 0.1084343717735929 0.12884201220910521 -0.15158111865196594 0.37345161628675067 -0.21593819565556494 -0.18362849887514823 -0.13913050182723805 -0.18341986970404373 0.013812604395011053 0.087732162094912636 -0.068913072162338246 -0.0012835229038477068 0.01421299803052717 0.18373195085189067 0.17079377958997874 -0.15310167584809972 0.083735909675646911 0.067833195881187205 0.21807680890140246 -0.14555509484918533 0.18336746591967934 0.10654416695647073 -0.1394511810564234 0.0077746616018595878 0.24068119382747644 -0.12779339436704684 0.23348800064368261 -0.21585003464975999
leaf_weight=25.766421804204587 10.845028065145014 32.926165170967579 16.025873977690939 6.8723223879933348 26.244818344712257 6.3036121483892193 7.1169966533780089 3.2511664181947699 101.46313459798694 5.5048078782856456 32.378485932946205 71.485347267240286 266.17627028655261 2137.1197112184018 107.92470457963645 37.808963149785995 22.663572516292337 6.5228304360061875 13.764582043513654 13.815195240080355 34.648787714540958 8.8269642256200296 24.93591092526913 8.8759454078972322 5.6418649330735198 37.543734230101109 21.847611028701067 39.227618543431163 10.012591272592543 7.4675493277609339
leaf_count=108 48 137 72 29 132 24 32 14 574 38 126 304 1270 7605 468 148 95 29 74 62 138 48 103 37 27 182 83 189 38 39
internal_value=0 0.0557742 0.0244342 -0.0209015 -0.00149443 0.0516274 0.0378146 0.118159 -0.00434682 -0.0579225 -0.000987526 0.00479309 -0.0334722 0.00159762 -0.044932 0.105346 -0.00875707 0.0984068 -0.0932008 -0.114328 0.183617 0.0580104 0.117039 -0.0369633 0.103024 -0.0577898 0.16365 -0.0895356 0.0735302 0.0053583
internal_weight=0 145.225 112.532 79.606 3005.78 153.171 146.868 53.8929 2852.61 168.311 2684.3 2278.79 405.509 2208.61 374.101 70.1874 92.975 29.1864 129.043 115.278 37.9 39.2677 30.4407 15.9929 31.4083 63.7886 32.6926 46.0999 33.506 23.4934
internal_count=12273 635 504 367 11638 683 659 221 10955 899 10056 8183 1873 7909 1738 274 438 124 710 636 152 189 141 69 135 314 131 218 149 111
is_linear=0
shrinkage=0.3


Tree=57
num_leaves=31
num_cat=0
split_feature=298 207 32 143 197 198 49 192 35 245 83 171 156 173 76 269 71 283 195 226 37 192 256 111 59 215 131 256 85 213
split_gain=5.63503 6.71712 6.46813 9.04099 6.77156 7.6446 6.4371 6.34825 6.33233 6.1929 6.16601 6.03009 5.84644 5.81881 5.81064 5.68202 5.42531 5.13559 5.13428 5.08195 4.87624 4.68587 4.59423 4.50472 4.77494 4.4757 5.19843 4.26705 4.14758 3.76767
threshold=-0.038136211728823838 -0.026399499736726246 -0.059077928369500883 0.03425299935042856 0.0073699778269585786 0.093127001076936708 0.0041742568715357831 0.055158000439405407 0.033322500064969056 -0.047757500782608937 0.085997998714447008 -0.038751998916268293 0.082541395024317274 -0.12244600057601923 -0.034401500597596092 0.20403270500831325 -0.070539001375436741 0.0090446045794185873 -0.056501001119613592 0.098313000053167315 0.033924499526619856 -0.010980424432960758 -0.011400999967008748 -0.0508830102264341 0.0022507435009018902 0.0043929999228566512 0.041856499388813959 -0.010795615713826732 -0.021088563837758614 0.047857999801635707
decision_type=2 2 2 2 2 2 2 2 2 2 2 2 2 2 2 2 2 2 2 2 2 2 2 2 2 2 2 2 2 2
left_child=9 11 3 7 8 6 -6 18 19 16 15 13 -13 -2 -14 23 22 -18 -3 -4 -15 -10 -1 -11 -25 -5 -27 -12 -16 -9
right_child=1 2 4 25 5 -7 -8 29 21 10 27 12 14 20 28 -17 17 -19 -20 -21 -22 -23 -24 24 -26 26 -28 -29 -30 -31
leaf_value=0.21859059106632087 0.18432361194321839 -0.19921092512670652 -0.0012142607710315678 -0.12058935326331612 -0.12395458258597664 0.18721117264173182 -0.0281095136107147 -0.20082982730819557 0.18601605717760281 0.22767044639703893 -0.029887629094192344 -0.052789602737129841 -0.10834671745258651 -0.14939046503544234 0.36262168405675405 0.30049982118739116 -0.0093973220849312925 0.18493588519094811 0.094217043469746214 0.20579815908327542 0.02273999996082425 -0.0016322686917650631 -0.12128060042946558 -0.094603510798005469 0.013458240785308375 -0.035094689820699909 0.23150464713503396 0.26856863194973774 0.093789702434197916 0.14892852645336885
leaf_weight=4.76252403110266 5.9786482751369467 5.5142959021031848 1646.5480080731213 37.789128717035055 77.565460088662803 13.044997230172156 337.36619953392074 11.368736876174806 29.188543502241373 6.3724617660045615 6.4613502267748144 82.741428940556943 10.308377042412756 86.697455613873899 6.6055119559168842 5.1558090522885314 15.634795425459741 56.345975521951914 200.70533349458128 10.742484742775558 17.863935563713312 20.311035841703415 14.410639597102998 61.319907762110233 92.039921786636114 28.778213769197464 8.5347884856164438 12.95642042160034 23.685647733509541 3.6656655929982653
leaf_count=18 25 26 5278 213 518 62 1747 64 134 25 41 512 58 623 24 18 87 268 958 46 112 102 74 399 462 150 41 61 105 22
internal_value=0 -0.00408117 0.000590351 0.0421216 -0.00517518 -0.0389171 -0.0460264 0.07265 0.0032856 0.04099 0.00935581 -0.0526402 -0.00703736 -0.103524 0.0862052 -0.00947456 0.104952 0.142725 0.0863708 0.000127585 -0.119983 0.109019 -0.0368582 -0.0194799 -0.0297495 -0.047816 0.0258859 0.169256 0.152413 -0.115552
internal_weight=0 2665 2431.12 296.356 2134.77 427.977 414.932 221.254 1706.79 275.46 184.306 233.881 123.341 110.54 40.5995 164.888 91.1539 71.9808 206.22 1657.29 104.561 49.4996 19.1732 159.732 153.36 75.1021 37.313 19.4178 30.2912 15.0344
internal_count=12273 10820 9361 1474 7887 2327 2265 1070 5560 1453 1006 1459 699 760 187 904 447 355 984 5324 735 236 92 886 861 404 191 102 129 86
is_linear=0
shrinkage=0.3


Tree=58
num_leaves=31
num_cat=0
split_feature=214 49 9 40 52 107 208 186 11 36 263 124 98 262 154 220 158 237 119 81 22 213 271 231 55 85 122 169 8 135
split_gain=7.0403 6.92823 8.04189 7.15572 8.36303 7.06128 8.2288 6.58687 8.6165 9.25029 8.74189 6.52489 6.25682 6.62465 6.20086 5.60705 5.69784 5.55417 5.70531 5.3944 5.26316 5.05786 4.84998 4.73155 4.2681 3.59347 2.72197 2.44984 1.98365 1.452
threshold=-0.073578000068664481 0.070705000311136218 -0.062857501208782127 0.056872500106692259 -0.0070248162428711873 -0.08629399910569184 -0.0022454999852924997 0.022881499491631953 -1.0000000180025095e-35 -0.10481491440587433 -0.031310659445706386 0.061141001060605007 -0.050942000001668895 0.047408999875187853 -0.0067722065617236817 0.049630315192179676 -0.053122947980132632 -0.070464223080170529 -0.042414000257849645 0.066377997398376465 0.012693999800831052 0.016240678340303908 0.049565000459551756 0.057702001184225055 0.084692496806383119 -0.057040203373883026 -0.025162687826666721 -0.07809220911553412 0.061116499826312003 -0.016110000200569546
decision_type=2 2 2 2 2 2 2 2 2 2 2 2 2 2 2 2 2 2 2 2 2 2 2 2 2 2 2 2 2 2
left_child=11 2 12 4 5 6 -3 8 10 -10 -4 25 28 23 24 16 27 18 -9 -16 -19 -18 -7 -14 -6 -1 -15 -5 -2 -27
right_child=1 3 7 15 14 22 -8 17 9 -11 -12 -13 13 26 19 -17 21 20 -20 -21 -22 -23 -24 -25 -26 29 -28 -29 -30 -31
leaf_value=0.075421431189423335 -0.25147919141509029 0.15383246772972445 -0.018322604682438546 -0.038672558722045731 -0.08364062357295024 -0.043402842446774982 -0.24749314875637879 -0.12449018084409391 -0.17597089531029547 -0.0014049381370812679 0.063855205775665072 0.18898529021092741 0.14690603075507785 -0.27291959628103557 0.14903733844436454 -0.23829465556858792 -0.12760434081003241 -0.12057596653925218 0.3037940161989528 -0.12552447218324406 -0.01469926020337859 0.064218617510355458 -0.20828447032884567 -0.11115385663432426 0.16550029571352909 0.0041726035436570616 0.060118049706366382 -0.22007495200932212 0.025352216216250712 -0.21602795549627815
leaf_weight=4.9944597808644167 6.0670248083770257 19.539577395655218 167.03666580654681 9.411605838686226 33.351775764487684 31.644974591210485 6.0132419634610406 4.4580296715721488 27.796515668742359 1593.261419239454 385.09990524221212 5.4183784648776046 88.684291524812579 5.4742855057120323 51.419252168387175 22.324895920231938 19.891940476372838 83.38594913855195 7.5238444432616216 7.3624398848041883 85.66896765306592 32.720380555838346 32.593038839288056 6.8913632929325095 7.5984351243823758 2.9497839268296948 3.7025955915451032 23.258503294549882 3.7816135101020336 31.212234485894442
leaf_count=22 35 107 856 47 224 214 51 33 180 5539 1925 25 456 34 255 154 116 477 30 54 480 192 242 31 38 19 21 161 23 232
internal_value=0 0.000615151 0.00582394 -0.0426643 -0.00758388 -0.074 0.0593901 0.00204627 0.00662632 -0.00439825 0.0389941 -0.119568 0.083428 0.104922 0.052212 -0.104449 -0.069412 -0.0529334 0.144445 0.114648 -0.0669227 -0.00830681 -0.12706 0.128299 -0.0374118 -0.162265 -0.138549 -0.167817 -0.145183 -0.197014
internal_weight=0 2765.96 2468.83 297.13 189.523 89.7908 25.5528 2354.23 2173.19 1621.06 552.137 44.5749 114.601 104.753 99.7319 107.607 85.2824 181.037 11.9819 58.7817 169.055 52.6123 64.238 95.5757 40.9502 39.1565 9.17688 32.6701 9.84864 34.162
internal_count=12273 11975 10120 1855 1185 614 158 9520 8500 5719 2781 298 600 542 571 670 516 1020 63 309 957 308 456 487 262 273 55 208 58 251
is_linear=0
shrinkage=0.3


Tree=59
num_leaves=23
num_cat=0
split_feature=210 199 201 269 84 296 170 85 171 5 162 205 154 249 299 240 265 85 291 93 188 54
split_gain=4.59119 4.72257 4.81762 9.69385 7.1688 6.54558 6.79089 6.77583 6.46227 6.23912 6.23579 6.11533 5.98955 5.99621 5.97456 5.81918 4.67166 4.0687 3.74282 2.75702 2.22402 1.94383
threshold=-0.16388750076293937 0.071113001555204364 -0.020748817428173829 0.14600650315084829 -0.0061995000578462496 0.024326499551534604 0.071326497942209216 0.0055690000299364007 -0.04608549922704689 0.023164999671280304 0.083976108145956893 -0.066776502877473734 -0.013601356898368765 0.04993230080763917 0.052990346087333114 0.049107499420642804 0.021884500049054553 -0.0050437551604455054 0.013427000027149852 0.0024875000817700505 0.0096440703927903274 0.0014197542219920962
decision_type=2 2 2 2 2 2 2 2 2 2 2 2 2 2 2 2 2 2 2 2 2 2
left_child=-1 2 5 10 8 6 9 -8 -5 -2 11 -4 13 -7 -14 -12 -6 19 21 20 -3 -19
right_child=1 17 3 4 16 12 7 -9 -10 -11 15 -13 14 -15 -16 -17 -18 18 -20 -21 -22 -23
leaf_value=0.21591500716697706 -0.057227109354156584 -0.057237796599517207 -0.10025426424082032 0.25519165363418206 0.15358899800338341 0.03700850111530718 0.22038007718625366 -0.048147992724826193 0.077600688604322454 0.011066115657583852 0.14481575713431791 -0.00093893388952808615 -0.065227909568789197 0.21353637272785483 0.099529312736095263 0.024023815105051475 -0.17251303192566825 0.23940741557955786 -0.16893452060869288 0.31267738557482688 0.24391820705572725 -0.033528439440722285
leaf_weight=8.9232787154614908 484.79125276580453 4.7435496337711829 57.582377383485436 23.064564660191536 5.4641960002481964 56.404338259249926 18.433463096618652 15.626596271991728 91.994214594364166 160.17395553551614 46.049269907176495 1802.1296255663037 70.443663418292999 24.99066926073283 27.558294149115682 162.77312022820115 14.302846580743788 5.4375364407897013 6.850156892091035 9.9908524155616742 4.1271841302514076 4.1338025815784931
leaf_count=33 2335 27 290 85 22 255 68 75 336 749 204 6266 375 106 130 715 72 21 34 35 18 22
internal_value=0 0.000415491 -0.000842076 0.00658569 0.0845277 -0.0199073 -0.0333724 0.0971807 0.1132 -0.0402668 0.00150548 -0.00401404 0.0310586 0.0912078 -0.0188979 0.0506607 -0.0823688 0.109544 0.000362855 0.204601 0.0828776 0.121528
internal_weight=0 3097.07 3061.78 2203.36 134.826 858.422 679.025 34.0601 115.059 644.965 2068.53 1859.71 179.397 81.395 98.002 208.822 19.767 35.2831 16.4215 18.8616 8.87073 9.57134
internal_count=12273 12240 12083 7990 515 4093 3227 143 421 3084 7475 6556 866 361 505 919 94 157 77 80 45 43
is_linear=0
shrinkage=0.3


Tree=60
num_leaves=31
num_cat=0
split_feature=158 199 291 200 18 46 290 91 49 258 138 161 216 171 213 148 119 4 248 156 211 69 280 37 45 90 267 201 209 109
split_gain=4.76094 6.07468 5.36783 6.32964 5.84691 6.39759 5.37569 5.94588 5.82827 5.16248 6.77832 5.61632 5.60113 5.07156 4.77883 8.79571 4.64119 4.57824 4.39853 5.52758 4.17529 4.14517 4.1202 4.96753 4.29212 4.05102 4.59997 3.86724 3.72951 3.61757
threshold=0.038747001439332907 -0.078247502446174538 0.023229000158607901 -0.043232398826947585 -0.040576730116223356 0.043938999995589256 -0.070722501724958337 -0.071860923375801827 0.089979499578475911 -0.13388150185346598 0.012843620768414133 -0.024540499784052348 -0.15153799951076502 -0.08068518767255857 0.037329500541090958 0.10927456509981412 -0.025276999920606547 -0.02752616888039244 -0.026473999954760043 0.076276363175135489 0.0013274999801069001 0.025907601692319083 -0.039814500138163546 -0.020572000183165046 0.020473280951417559 -0.035365399754462977 -0.036749921855811933 0.027544442408775908 0.076736626366218655 0.017855999991297652
decision_type=2 2 2 2 2 2 2 2 2 2 2 2 2 2 2 2 2 2 2 2 2 2 2 2 2 2 2 2 2 2
left_child=2 -2 4 6 5 14 18 -8 -9 25 12 -12 -11 -7 16 -16 -1 20 19 -4 -3 -15 28 -24 -25 27 -27 -6 -5 -19
right_child=1 17 3 22 9 13 7 8 -10 10 11 -13 -14 21 15 -17 -18 29 -20 -21 -22 -23 23 24 -26 26 -28 -29 -30 -31
leaf_value=0.0054484366102679907 0.24364247809755657 -0.18885267443724491 -0.13682626138868134 -0.17295362241584109 0.22727614208422375 -0.13147036805890128 0.15651697673966022 -0.069495506396565904 0.072552985746747914 0.22161764878824183 -0.066053965785236077 0.024244992627164931 0.0013349991783957911 0.074390417834496153 0.14025522743685115 -0.14239527842669911 -0.14241550296240765 0.31321373119764817 0.17840538081418092 0.20698342868632705 0.12366436860094586 0.20041260666357782 -0.13131708160550132 -0.015910537210006657 0.24557730404173211 -0.110491262074394 0.077729273335521057 -0.0613234363858444 0.062944929280817977 0.045071373107613437
leaf_weight=67.979172533378005 15.807601589709519 12.188007775694134 12.175518630072476 54.448426530696452 20.781250743195418 7.9583097212016574 14.404422279447315 144.5488085555844 31.696540668606758 10.449146263301371 252.43923243694007 82.169180675409734 1793.442316156812 69.603476073592901 42.728286422789097 12.900172553956507 26.573208305984735 5.9428042247891453 22.890523990616202 6.4319099411368361 5.6224246062338343 35.456673614680767 26.446906486526132 24.343896038830284 7.3568229079246512 15.956085512414573 43.666167484596372 5.2306045871227971 6.7831997089087954 19.023578198626637
leaf_count=339 72 64 83 340 96 47 57 804 147 44 1574 511 6239 302 198 48 155 21 114 25 30 157 158 147 33 87 214 30 37 100
internal_value=0 0.0847281 -0.00167158 -0.0363721 0.00323254 0.0455146 -0.00750435 -0.028803 -0.043949 -0.00177103 -0.0046633 -0.0438794 0.002611 0.0994308 0.00493995 0.0747089 -0.0361076 0.0260034 0.0903457 -0.0179838 -0.0901968 0.116922 -0.0925091 -0.0353168 0.0447733 0.0704562 0.0273578 0.169243 -0.146821 0.108898
internal_weight=0 58.5844 2838.86 351.527 2487.33 263.199 232.148 190.65 176.245 2224.13 2138.5 334.608 1803.89 113.018 150.181 55.6285 94.5524 42.7768 41.498 18.6074 17.8104 105.06 119.379 58.1476 31.7007 85.6341 59.6223 26.0119 61.2316 24.9664
internal_count=12273 287 11986 1945 10041 1246 1230 1008 951 8795 8368 2085 6283 506 740 246 494 215 222 108 94 459 715 338 180 427 301 126 377 121
is_linear=0
shrinkage=0.3


Tree=61
num_leaves=31
num_cat=0
split_feature=2 258 208 12 136 86 199 163 241 45 61 127 287 224 244 144 212 155 282 178 177 216 256 257 229 59 163 265 154 170
split_gain=6.26849 6.49611 6.01422 6.93547 12.0722 8.00144 7.90228 5.68334 5.25647 4.99435 5.70067 5.12881 4.90945 5.1273 4.57389 4.12501 3.92611 3.70938 5.26432 3.70007 3.60688 3.58799 3.487 3.41067 3.15983 2.65482 2.47924 2.37552 2.28528 2.24643
threshold=0.071282003074884415 -0.13254399597644803 -0.090211586661971474 -0.00083897467219258754 -0.073865000158548286 -0.057410499081015545 -0.1014582609253431 0.052436999976634958 0.031282969823504696 -0.049805499613284988 0.04234400019049641 -0.044931998476386042 0.027019603960827334 -0.037515498697757645 -0.063970498740672996 0.013740499969571803 0.00046949999523345003 0.057415999472141259 -0.024253000505268497 -0.0069635588885450369 -0.11437100172042843 0.023052499629557101 -0.018796421057884403 0.0020249999361112007 0.076987501233816105 -0.04466300100199181 -0.058586468904303364 0.050099000334739657 0.010595999658107752 0.052150012395752433
decision_type=2 2 2 2 2 2 2 2 2 2 2 2 2 2 2 2 2 2 2 2 2 2 2 2 2 2 2 2 2 2
left_child=1 8 12 4 14 -6 27 -8 9 10 11 -1 20 28 -4 21 -15 25 -19 -10 -3 24 -23 -17 -2 -11 -22 -5 -14 -12
right_child=15 2 3 6 5 -7 7 -9 19 17 29 -13 13 16 -16 23 -18 18 -20 -21 26 22 -24 -25 -26 -27 -28 -29 -30 -31
leaf_value=-0.11468382244360006 -0.17427504910744529 0.22308779241388224 -0.025686947068837028 -0.23740281314832884 -0.084163341929209406 0.052059721724141327 0.0016382258518500383 -0.10637430590774825 0.18587880712498919 0.048725748667113301 -0.22947029945535127 0.14018339403536242 -0.21499314143869341 -0.031196384582869389 -0.18653758562446807 0.16425224080464948 0.22000797219819973 0.24111456051453672 -0.20961164484634762 -0.11203919292262765 -0.0078586746773442687 0.25203878870927954 -0.15496677033417278 -0.11724918241152066 0.10116719050671204 -0.20776632190524527 -0.21739825311133151 0.013319955783486458 0.062933487924237322 0.022305575971794854
leaf_weight=10.754146061837675 47.07191639393568 2.115825578570365 39.197386712301522 16.7113431962207 41.385747890453786 622.78357910132036 1693.7275986671448 45.007804500870407 11.430783612653615 3.9644119292497626 12.197796311229469 20.948227308690548 10.480422733351586 11.937925016507508 26.781085263937712 9.3947399947792274 10.546302394010125 4.7692886702716351 4.5638840924948436 5.5852336548268786 6.1748766396194688 4.1890805289149284 3.4586680606007567 6.5914634726941577 4.0727118104696265 43.297106133773923 28.711421448737383 4.2701056934893122 3.5695955539122215 4.3185812253504983
leaf_count=62 358 9 229 132 276 3294 6095 293 64 23 59 93 71 67 212 52 50 22 34 42 38 20 29 57 27 308 182 27 22 26
internal_value=0 0.00111875 0.00433556 0.00683283 0.0314131 0.0435714 -0.00336611 -0.00115772 -0.0665658 -0.0916738 -0.0207271 0.0537268 -0.0802194 -0.00220947 -0.0909773 -0.0869412 0.0866319 -0.15212 0.0207113 0.088092 -0.157243 -0.123683 0.0679719 0.048183 -0.152341 -0.186251 -0.18031 -0.186376 -0.144382 -0.163638
internal_weight=0 2685.23 2563.4 2489.86 730.148 664.169 1759.72 1738.74 121.829 104.813 48.2188 31.7024 73.5364 36.5342 65.9785 74.7786 22.4842 56.5947 9.33317 17.016 37.0021 58.7924 7.64775 15.9862 51.1446 47.2615 34.8863 20.9814 14.05 16.5164
internal_count=12273 11730 10997 10558 4011 3570 6547 6388 733 627 240 155 439 210 441 543 117 387 56 106 229 434 49 109 385 331 220 159 93 85
is_linear=0
shrinkage=0.3


Tree=62
num_leaves=31
num_cat=0
split_feature=196 277 297 14 185 185 17 57 168 65 182 32 205 179 35 117 193 127 53 51 281 262 146 131 241 252 52 112 152 60
split_gain=4.59853 6.2399 4.61675 4.33586 7.20953 4.97741 5.78074 5.23064 5.20142 5.86276 4.99803 4.62445 5.22936 4.37411 4.12405 4.1054 4.00769 4.35132 3.89775 5.04801 3.52748 3.33318 3.43046 3.03911 2.61331 3.19174 2.24034 2.08346 1.67966 1.16434
threshold=0.086117250271844983 0.021016499958932355 0.094616502523422213 0.098802045422005422 0.067205000668764114 0.083555500954389517 0.031217999756336153 -0.11804449930787084 0.032963499426841708 -0.00047675711704827907 0.095990501344203907 -0.067137502133846241 -0.0046581260024178102 1.0000000180025095e-35 0.026549500413238954 -0.056403500959277091 -0.079321770834310926 -0.03605799935758109 0.093532149572643414 0.04095499962568281 0.0079104998148977531 0.024993064656944633 0.0081697648427199454 -0.0033507749480183075 -0.027560770088440361 0.060444671006250512 0.014400999993085802 -0.060735000297427143 0.0099144997075199508 -0.036410499364137594
decision_type=2 2 2 2 2 2 2 2 2 2 2 2 2 2 2 2 2 2 2 2 2 2 2 2 2 2 2 2 2 2
left_child=2 18 3 5 11 6 7 -1 13 -10 -8 12 -5 -7 16 -13 -3 29 19 21 24 22 -2 -19 -4 -26 -6 -21 -16 -18
right_child=1 14 20 4 26 8 10 -9 9 -11 -12 15 -14 -15 28 -17 17 23 -20 27 -22 -23 -24 -25 25 -27 -28 -29 -30 -31
leaf_value=0.078866507043882469 0.17262440163852594 -0.12164796987937286 -0.30465311026333269 0.10282518115645091 -0.26572576893753713 0.042548574193977444 -0.059370764007760417 -0.003303344328812568 -0.094905270514274581 0.085014206090297792 0.22400887709698478 -0.0098429935096049134 -0.1882208717787259 0.22312488388250032 0.056149346522747161 0.14932104789813336 0.12559574959277081 0.21646571126043901 0.26553874895936413 0.037968728147646645 0.084253495570888154 -0.12770995225275042 -0.095579773406543736 -0.004844735554027352 0.08379634299305698 -0.23471581423502991 -0.0090229732263942576 -0.21358999455561833 -0.22794855930011293 0.29913917111212562
leaf_weight=71.805183688178658 15.648396324366336 4.2513888925313941 9.0759164802730119 11.309393525123598 7.3345466703176481 23.91861404851079 212.14747522491962 2403.6568937813863 29.628404073417187 36.234220363199711 5.7534102723002425 18.788144545629621 10.921661369502543 24.377243638038635 3.8930672928690901 65.196264445781708 4.1902131438255337 9.6357588842511195 4.1065382510423651 3.7158326059579876 5.5952682942152014 7.996893383562564 5.9141763262450686 13.282523468136786 5.2210570722818375 6.1867212764918804 5.2500020042061806 14.627516863867639 3.6094634532928467 20.511654779314995
leaf_count=318 74 20 42 49 37 112 1061 9161 146 157 20 83 63 95 23 291 16 37 20 18 23 42 35 61 22 28 24 90 17 88
internal_value=0 0.0609085 -0.00118728 -6.73612e-05 0.0560699 -0.0024428 -0.00504337 -0.000919862 0.0589129 0.00407715 -0.0518885 0.0815084 -0.0401598 0.133694 0.127366 0.113714 0.157435 0.182351 -0.0149593 -0.0390054 -0.126853 0.0377117 0.0990614 0.088203 -0.184519 -0.0889407 -0.158635 -0.162631 -0.08053 0.269701
internal_weight=0 111.383 2952.4 2926.32 118.8 2807.52 2693.36 2475.46 114.158 65.8626 217.901 106.215 22.2311 48.2959 59.3741 83.9844 51.8715 47.6202 52.0094 47.9028 26.079 29.5595 21.5626 22.9183 20.4837 11.4078 12.5845 18.3433 7.50253 24.7019
internal_count=12273 541 11732 11617 547 11070 10560 9479 510 303 1081 486 112 207 262 374 222 202 279 259 115 151 109 98 92 50 61 108 40 104
is_linear=0
shrinkage=0.3


Tree=63
num_leaves=31
num_cat=0
split_feature=102 176 23 207 114 111 43 299 241 134 243 181 127 15 145 266 64 18 296 112 143 117 113 59 187 159 124 83 22 210
split_gain=4.54003 4.78067 6.55163 5.85874 5.73952 5.55398 5.35213 6.10819 5.53979 5.56368 5.30147 5.12475 5.21437 5.04633 4.65516 4.48171 4.41605 4.21651 4.0874 3.98525 3.67172 3.66038 3.63562 3.57814 3.527 3.25329 3.19364 2.96356 2.50108 1.83728
threshold=0.068779498338699327 -0.078850001096725394 0.022413500584661902 -0.026399499736726246 -0.055406080675349779 -0.046407500281929942 -0.0087325000204145475 0.072131767711783187 -0.048495477785063544 -0.061205999925732592 -0.13609350472688667 0.11562749743461606 0.0005555000097956001 0.018396999686956354 0.013025348850130666 -0.059400556380324113 -0.03458584932421991 -0.066293496638536439 -0.059976000338792738 -0.039924362982937535 0.054567719215909506 0.0077795002143829515 0.041949015433415567 0.048675796438594821 -0.008360140491321057 -0.00082193814346900515 -0.026222999207675398 0.022799500264227352 0.026881354290380636 0.0077634998597204503
decision_type=2 2 2 2 2 2 2 2 2 2 2 2 2 2 2 2 2 2 2 2 2 2 2 2 2 2 2 2 2 2
left_child=1 2 6 5 23 28 8 14 15 -10 25 12 -12 -13 -8 -1 20 22 -18 -19 -6 -9 -7 -4 29 27 -26 -5 -3 -2
right_child=24 3 4 10 16 17 7 21 9 -11 11 13 -14 -15 -16 -17 18 19 -20 -21 -22 -23 -24 -25 26 -27 -28 -29 -30 -31
leaf_value=-0.11094139325407097 0.242462946977403 0.056396274510292659 0.30264129442443 0.024658412769375911 0.028670822557658515 0.1660251759765472 0.021501862436213107 0.040484933871186242 0.089679131362268488 -0.13746070968461496 5.2969143577867939e-05 0.0087347929470923784 -0.057364653431008987 0.25271506098300189 0.16792398000901865 0.17847954011129444 -0.13260567176334609 0.00013920280304566707 0.16490622490612741 -0.098393330243563268 -0.21874162361669688 -0.18968538059399617 -0.09756134982093391 0.024711228057214787 0.22891293055341111 -0.064755707185220057 -0.1453887724812315 0.26190064598241197 0.36542376567219231 0.0054151782461612829
leaf_weight=7.306352665647867 14.987677985802298 6.8211872726678831 16.483052723109726 7.0308720096945825 32.986686293035746 12.844450388103725 41.9682058962062 11.807963458821179 11.869639258831738 53.231789724901319 2098.2527482518926 16.821805279701952 152.70894757658243 13.962628956884144 36.569927830249071 14.123760104179381 4.7129691839218131 48.967072784900665 35.170655746012926 150.45631921943277 6.4548188503831616 13.135810919106005 7.4359110854566088 5.5803936570882788 2.9853495173156261 6.0267314016818991 6.5589118190109712 14.53653704933822 3.6016437858343124 3.6616405658423892
leaf_count=40 70 39 66 30 155 61 185 54 64 302 7899 98 989 59 161 67 28 318 174 1041 42 68 49 26 16 28 44 56 14 30
internal_value=0 -0.000971517 0.0354225 -0.00514771 0.0970037 -0.0507947 0.00256372 0.048605 -0.0524964 -0.0960474 -0.000598967 -0.00217967 -0.00384234 0.119395 0.0896808 0.0798048 0.0593596 -0.0609459 0.12975 -0.0741993 -0.0118196 -0.0807266 0.0693797 0.232346 0.120012 0.130109 -0.0283109 0.184561 0.163182 0.195921
internal_weight=0 2830.87 291.402 2539.47 101.389 230.127 190.013 103.482 86.5315 65.1014 2309.34 2281.75 2250.96 30.7844 78.5381 21.4301 79.3251 219.704 39.8836 199.423 39.4415 24.9438 20.2804 22.0634 28.1936 27.5941 9.54426 21.5674 10.4228 18.6493
internal_count=12273 12113 1432 10681 491 1522 941 468 473 366 9159 9045 8888 157 346 107 399 1469 202 1359 197 122 110 92 160 114 60 86 53 100
is_linear=0
shrinkage=0.3


Tree=64
num_leaves=31
num_cat=0
split_feature=240 171 3 244 122 229 112 274 228 241 290 119 278 65 251 262 157 291 152 265 66 75 144 41 267 116 32 2 16 86
split_gain=6.18873 6.48263 6.37575 6.90599 8.0381 7.44262 6.8353 6.75833 5.62582 6.63006 6.52284 7.38493 5.59075 6.13944 5.56137 5.36285 5.33417 5.08768 4.66422 4.17663 3.75174 3.57339 4.11323 3.56292 3.10775 3.01221 2.9323 2.57994 2.2776 2.22118
threshold=0.12460149824619286 0.055630575711039111 -0.10318732652078171 -0.063511221469204987 -0.093301497399806879 1.0000000180025095e-35 -0.094641039055900891 -0.025038091940059602 -0.039348499849438646 -0.055748499929904889 -0.064674009013482095 -0.0079539938183408095 -0.006483191276552132 0.06215613540601244 0.05414311373450089 -0.020797999575734045 -0.038774000480771044 0.049164500087499556 0.051187500357627806 0.00061149999964975007 -0.052103500813245697 0.026184000074863354 -0.044791682287720715 0.080448001623153659 -0.048090498894452993 0.047048530526428649 -0.059077928369500883 -0.077961497008800437 0.055919999256730003 0.052324428784692893
decision_type=2 2 2 2 2 2 2 2 2 2 2 2 2 2 2 2 2 2 2 2 2 2 2 2 2 2 2 2 2 2
left_child=1 2 14 6 16 -6 20 -8 9 19 11 26 23 -14 27 -16 -5 29 21 25 -4 22 -10 -12 -19 -2 -11 -1 -23 -3
right_child=8 17 3 4 5 -7 7 -9 18 10 12 -13 13 -15 15 -17 -18 24 -20 -21 -22 28 -24 -25 -26 -27 -28 -29 -30 -31
leaf_value=0.0073212839604155869 -0.16557568012636015 -0.19916682261459076 0.10117814633764778 0.11140564878858235 -0.004966186841853436 0.055924487080106076 -0.0052920370973011397 0.065868992725383477 0.12431830786871156 0.012505170300997742 -0.17323886011401415 0.21423682596235366 0.1243652918879375 -0.10621082358590467 0.19708795814051105 -0.22176557338126884 -0.12978934178664006 0.29423319510776297 0.15649770816462236 -0.21897239084654546 -0.18768614467347558 -0.20775609911815729 -0.16463153136096481 0.16672155085808743 -0.081742857721009629 0.21475111265553312 -0.20600780932341514 -0.21998027823030988 0.05812575273488154 0.010453372783892429
leaf_weight=5.4834778048098114 3.4427585192024734 28.247065219096839 5.2099460586905506 9.4641961604356748 1560.3341122646816 204.31887775007635 178.37483080709353 367.75743452738971 8.2870132140815276 7.2109548721928176 13.474693519063296 5.7896167635917655 64.253526893444359 12.398516744375227 8.3491577599197608 4.1031954670324913 64.442591520957649 3.8667468875646591 5.0285965446382752 20.786284007132053 18.121806990820915 41.512313336599618 9.5358648439869267 3.4939905097708097 4.0521867536008349 4.1135626770555973 23.669243313372135 24.90922431461513 3.117382686585187 5.4228781238198271
leaf_count=28 25 228 28 51 5539 1208 1011 1982 52 31 83 23 281 62 41 42 470 17 31 117 137 280 85 18 29 17 121 184 19 33
internal_value=0 0.00293171 0.00492473 0.00696575 -0.0019755 0.00208399 0.0358333 0.0426268 -0.0489023 -0.0180388 0.0105665 -0.0966879 0.0525763 0.0870695 -0.109787 0.0590708 -0.0989029 -0.114519 -0.121455 -0.149537 -0.123183 -0.143836 -0.03028 -0.103238 0.101843 0.0414693 -0.154982 -0.17897 -0.189184 -0.165405
internal_weight=0 2492.46 2450.87 2408.02 1838.56 1764.65 569.464 546.132 226.114 158.633 130.291 36.6698 93.6207 76.652 42.8451 12.4524 73.9068 41.5889 67.4812 28.3426 23.3318 62.4526 17.8229 16.9687 7.91893 7.55632 30.8802 30.3927 44.6297 33.6699
internal_count=12273 11028 10721 10426 7268 6747 3158 2993 1245 778 619 175 444 343 295 83 521 307 467 159 165 436 137 101 46 42 152 212 299 261
is_linear=0
shrinkage=0.3


Tree=65
num_leaves=21
num_cat=0
split_feature=272 299 77 3 4 278 53 27 299 161 167 246 210 22 184 20 263 158 19 163
split_gain=3.77298 3.65328 3.70763 7.28088 6.33163 6.94997 5.95497 5.41603 5.24521 4.89911 4.81695 4.49082 4.28658 4.15591 3.29358 3.13653 2.9786 2.94741 1.93183 1.60774
threshold=0.17569150030612948 0.12824259876680935 -0.037305001169443096 -0.085425227940657184 -0.036622500047087593 0.091418565573339758 -0.062305498868226943 0.058257650854385522 -0.010905500035732948 0.005126500036567401 0.11750147798718591 -0.0050035000313072989 -0.078088000416755579 0.022993056806882538 0.00061550000100390014 0.054466810884530141 0.047116000205278362 -0.062236499041318845 0.095495000481605516 -0.041111500933766289
decision_type=2 2 2 2 2 2 2 2 2 2 2 2 2 2 2 2 2 2 2 2
left_child=1 2 3 7 9 8 -5 13 -6 12 -8 -7 -4 -1 -11 16 18 -9 19 -3
right_child=-2 15 4 6 5 11 10 17 -10 14 -12 -13 -14 -15 -16 -17 -18 -19 -20 -21
leaf_value=0.072682247955655435 0.24462236519308789 0.26229996099157493 0.12470625390800065 0.27547939170143859 -0.057085045522987779 0.24986481772763161 -0.046052482653141533 0.0058249397715449108 0.00056677674164124761 -0.15502890996251301 0.1144030588206383 0.019425578338597711 0.035800138788868098 -0.15929545096786521 0.093084144662035143 -0.15105561820552307 -0.073038572461933543 0.28942892010713245 -0.021705981747850142 0.092736674558417373
leaf_weight=27.992311200127006 5.7119023390114299 14.631451163440948 62.17143726721406 5.4548025652766219 153.05226782616228 16.049818476662043 435.81892031803727 4.4157960973680046 1972.1581319253892 17.33933898340911 17.515292640775442 14.476266963407395 227.06941854022443 9.2463746294379217 6.6664496362209311 4.1088879853487006 5.5144433677196494 13.029576957225798 4.0305040478706351 7.6711776629090336
leaf_count=146 31 68 252 22 815 69 2169 23 7145 107 83 73 1021 53 28 20 34 47 23 44
internal_value=0 0.000569752 -0.000576223 -0.0237706 0.0042475 -0.00154366 -0.0361039 0.0797032 -0.00358516 0.0441018 -0.039853 0.140585 0.0549102 0.0150821 -0.0861275 0.0956241 0.12745 0.217643 0.169435 0.203977
internal_weight=0 3018.41 2982.46 513.473 2468.98 2155.74 458.789 54.6841 2125.21 313.247 453.334 30.5261 289.241 37.2387 24.0058 35.9565 31.8476 17.4454 26.3331 22.3026
internal_count=12273 12242 12053 2543 9510 8102 2274 269 7960 1408 2252 142 1273 199 135 189 169 70 135 112
is_linear=0
shrinkage=0.3


Tree=66
num_leaves=31
num_cat=0
split_feature=207 216 95 137 185 212 69 108 177 142 265 46 108 238 50 127 132 245 151 103 192 96 158 36 56 68 106 49 175 124
split_gain=4.27597 4.35074 4.98489 4.15572 8.41176 5.22549 4.38081 4.99073 4.05812 4.69971 3.94168 4.54079 5.05009 3.8243 3.61391 3.50222 3.48889 3.43115 3.42857 2.93536 2.96067 2.87463 2.87138 2.60495 2.18938 2.16335 1.87315 1.84004 1.66003 0.777072
threshold=0.12133499979972837 -0.10595266891654551 0.037986999377608258 1.0000000180025095e-35 -0.10478850081562995 0.059294000267982455 -0.0018915000255219497 0.0037849952731349884 0.082554001361131613 -1.0000000180025095e-35 0.03142456860031597 0.079548999667167664 -0.068421445544556495 -0.08030899986624708 0.0035228995269612289 -0.048355000093579244 -0.0091194398011710739 -0.040928998962044695 0.0098159997723996518 0.062736500054597813 -0.00057892411234294753 0.014204999897629002 -0.045149501413106842 -0.0068624999839811988 -0.028621500357985448 -0.032542498782277045 0.045675501227378811 0.066082486366608781 -0.056830998510122244 -0.019095854051026005
decision_type=2 2 2 2 2 2 2 2 2 2 2 2 2 2 2 2 2 2 2 2 2 2 2 2 2 2 2 2 2 2
left_child=1 2 10 5 24 8 13 -8 9 -3 11 12 -1 -6 17 21 -16 -12 25 28 -21 27 -13 -10 -5 -17 29 -4 -7 -2
right_child=26 3 15 4 6 19 7 -9 23 -11 14 22 -14 -15 16 18 -18 -19 -20 20 -22 -23 -24 -25 -26 -27 -28 -29 -30 -31
leaf_value=0.13313405213644147 0.33925420879571655 -0.028095540926034841 -0.20134049848637223 0.29583301807721435 0.020753352923818122 0.075106208584518511 0.014491831175591321 -0.1103254514698042 0.25177478400377595 0.0043448856478846319 0.19511649073276391 0.04042001023296482 -0.036026109846307247 -0.15226997152258825 0.28138884133327147 -0.22526471384995483 0.10373889723255292 -0.096693500521513917 0.16961622410891644 0.13216720158003381 -0.21106357258368016 0.29390248093214866 0.24545301143668005 -0.031469612531137593 0.025829609825711003 -0.014305903352191679 -0.0035389788322902705 0.14117619654846633 0.28466528865542673 0.15880819044276306
leaf_weight=20.164129896089435 4.5081557296216479 514.86387365497649 3.0675470028072578 7.7331754025071859 14.366647083312271 5.0423121564090243 89.549691256135702 42.52042635018006 9.233243612572549 1832.2048938432708 5.5250485315918949 12.107977738603951 74.819729492068291 57.559068756178021 15.957560513168572 15.553866039030256 26.425764586776495 10.553257012739776 3.1381106227636328 6.1700067333877087 3.5708443708717805 3.7789118476212025 12.487171594053505 4.2753907516598693 4.155175890773533 6.0871245488524464 3.6349404342472544 2.6148414462804794 10.458466254174711 4.1024648919701567
leaf_count=125 19 2925 31 30 89 30 544 337 40 6451 22 64 438 435 65 132 123 53 19 34 18 18 54 21 27 30 20 12 44 23
internal_value=0 -0.000613055 0.0406836 -0.00398258 -0.0438413 -0.000375903 -0.058137 -0.0256935 -0.00182773 -0.0027714 0.0608442 0.029633 -0.000115088 -0.11771 0.124684 -0.0641459 0.170625 0.00358226 -0.123432 0.135398 0.00634414 0.0911253 0.144517 0.16213 0.201462 -0.165927 0.177048 -0.043726 0.216497 0.253282
internal_weight=0 2813.98 212.281 2601.7 215.884 2385.82 203.996 132.07 2360.58 2347.07 178.041 119.579 94.9839 71.9257 58.4616 34.2404 42.3833 16.0783 24.7791 25.2416 9.74085 9.4613 24.5951 13.5086 11.8884 21.641 12.2456 5.68239 15.5008 8.61062
internal_count=12273 12211 1186 11025 1462 9563 1405 881 9437 9376 944 681 563 524 263 242 188 75 181 126 52 61 118 61 57 162 62 43 74 42
is_linear=0
shrinkage=0.3


Tree=67
num_leaves=31
num_cat=0
split_feature=141 215 160 260 202 205 240 113 11 79 105 293 241 74 281 158 83 0 166 164 87 257 58 48 137 49 50 181 11 294
split_gain=5.93464 5.78345 5.46621 7.43479 7.00391 6.70355 7.48057 6.37281 7.28843 6.32633 6.13055 6.01337 6.00635 5.90092 5.38922 5.26925 5.16316 5.09406 4.69688 4.55282 4.48684 4.40205 4.3384 5.51301 3.89947 3.88909 4.96798 3.79738 3.6898 3.62267
threshold=0.073860259842769574 0.041657992938752574 -0.036427713279144444 0.073269235998651344 0.021650499664247005 -0.046003499999642344 0.14193319639521429 0.097504001110792174 -0.0010092545541050299 -0.0071005499536419903 0.033669000491499859 0.011466000229120202 0.00074099999619645009 0.0089710000902414027 0.037813424336594827 -0.084723498672246836 -0.013487500138580749 -0.0034110000124200498 -0.067758052276924732 -0.055398499593138646 0.051672499626874903 0.02286422866978759 -0.020527000539004747 -0.072147438833112448 0.034227499738335561 -0.0011568306645301741 0.0025854998966678504 0.058938501402735703 -0.10087349638342853 -0.026449499651789599
decision_type=2 2 2 2 2 2 2 2 2 2 2 2 2 2 2 2 2 2 2 2 2 2 2 2 2 2 2 2 2 2
left_child=2 25 3 4 14 9 7 8 -7 13 22 12 -11 20 19 -12 27 -17 -3 -1 -4 -18 23 -5 -13 26 -2 -8 -9 -20
right_child=1 18 5 10 -6 6 16 28 -10 11 15 24 -14 -15 -16 17 21 -19 29 -21 -22 -23 -24 -25 -26 -27 -28 -29 -30 -31
leaf_value=-0.17020451535561282 -0.2507784329663505 -0.22666901108374862 0.14120617579631894 0.12641406528904503 -0.12062159501566047 0.04298870310477191 -0.16564970500317769 0.16083344297384805 -0.002801070050070415 0.10242412796793841 -0.24401122507327791 -0.12966275561090598 -0.090418808751624238 -0.13217717253031375 -0.15139522991138937 -0.056039117469623652 -0.23137126196657565 0.15253702760767454 -0.13556484024864016 0.084284797642048881 -0.15798461842570669 -0.032042973541806533 -0.18515392185038729 -0.1153806412534418 0.11633847815064349 -0.17469126380201111 0.12668634208543011 0.165749322642466 -0.15276750433783773 0.11275676965778296
leaf_weight=6.7774080447852603 4.6409734040498725 6.006804102100431 96.532712607644498 10.945498397573827 28.567552010528743 390.53881944110617 4.7218902548775068 3.7661092942580572 1572.7438943441957 59.643493899144232 6.6797088831663123 33.37385964486748 19.220306234434247 8.5596749633550626 11.25419339025393 22.257057085633278 27.071972843259573 20.01563838776201 6.6438291748054317 95.158758474048227 4.7322949189692727 15.785962508991359 52.87236857926473 37.778590469155461 7.0189375057816497 45.63084873999469 9.6908213561400753 9.1267146598547679 32.655663010664284 25.897792314179242
leaf_count=55 30 36 503 51 178 2256 39 18 5696 307 48 224 105 44 87 152 152 96 62 561 29 97 326 210 50 383 64 49 207 158
internal_value=0 -0.0735912 0.00143614 -0.0371926 0.0121136 0.00637662 0.00095382 0.00400078 0.00630749 0.0550559 -0.0836197 0.0072137 0.0554254 0.107007 0.045614 0.00359403 -0.106495 0.0427193 0.0170675 0.0673646 0.127224 -0.157952 -0.125642 -0.0610633 -0.0869158 -0.131873 0.00445434 0.0527538 -0.12034 0.0620584
internal_weight=0 98.5111 2577.8 292.307 141.758 2285.49 2056.41 1999.7 1963.28 229.081 150.549 119.257 78.8638 109.825 113.19 48.9524 56.7065 42.2727 38.5484 101.936 101.265 42.8579 101.596 48.7241 40.3928 59.9626 14.3318 13.8486 36.4218 32.5416
internal_count=12273 733 11540 1764 881 9776 8514 8177 7952 1262 883 686 412 576 703 296 337 248 256 616 532 249 587 261 274 477 94 88 225 220
is_linear=0
shrinkage=0.3


Tree=68
num_leaves=31
num_cat=0
split_feature=141 197 232 91 294 210 194 193 1 175 128 87 116 114 170 180 269 6 123 131 83 251 215 51 73 288 288 100 61 272
split_gain=3.62994 4.43165 3.80071 5.53071 4.54268 4.36895 4.62083 6.46073 5.07593 4.69705 7.11944 5.50028 4.30784 4.26399 4.97741 3.96355 3.67776 4.70621 3.14096 3.09627 3.67127 2.94986 2.76125 2.68914 2.65579 2.33999 2.20844 1.96655 1.88865 1.85136
threshold=0.084873002022504765 -0.048561631821910957 -0.014670500066131298 -0.0015049325935581255 -0.081315490727347575 -0.16388750076293937 0.0096515002660452522 0.034012388077553531 0.015098364342102275 -0.07481100037693969 0.019691998518484247 0.034639000892639112 -0.021669464989013964 -0.058823499828576993 -0.037364000454544993 0.044683451059271136 0.13408021133479159 0.0055694399272658637 -0.0072261525673389506 0.067295428665655521 0.0026816930290733203 0.062245000153779956 0.038135001435875858 0.032091999426484101 0.054218589719156399 0.016100500710308503 0.031912500038743012 -0.033408965541356618 0.032078531843670106 0.054548500105738605
decision_type=2 2 2 2 2 2 2 2 2 2 2 2 2 2 2 2 2 2 2 2 2 2 2 2 2 2 2 2 2 2
left_child=2 29 3 4 18 -4 9 8 -8 10 -7 -11 -9 -6 -15 16 17 -5 28 20 25 23 24 -21 -22 -3 -24 -17 -1 -2
right_child=1 19 5 15 13 6 7 12 -10 11 -12 -13 -14 14 -16 27 -18 -19 -20 21 22 -23 26 -25 -26 -27 -28 -29 -30 -31
leaf_value=-0.2376300560400916 -0.2329941872417525 -0.19872390828235831 0.22604402932477025 -0.063919313906246208 0.21199037623573849 0.054162147500164813 -0.029535534735185952 0.019642834768413567 0.065133164846199715 0.0016037690590231764 -0.071784454326191571 0.064914123275585697 -0.12153954983013412 0.19318147717508682 -0.030791007314883746 0.22860460692182255 0.24167309580115343 0.20674392529462482 0.084182898732650113 -0.037101776246768088 0.063057173231953437 0.31753417636555792 0.11227429020592111 0.19465417233035456 0.25425470052805627 0.046407050443305856 -0.17802140427381288 0.035576260243550477 -0.029713606142616714 0.023724819569148466
leaf_weight=12.939731789752846 5.9286573939025384 7.7508803680539113 7.4436182212084523 23.959351930767301 10.440516505390404 53.615900821983814 246.43280225805938 24.5319291241467 64.266986669972539 1948.4090347979218 163.79892643261701 131.86122597381473 93.912985952571034 10.661757081747053 54.98248677700758 24.036136539652947 7.0049280114471904 7.6206583119928828 5.4696178808808318 7.5050400123000207 16.057349648326639 8.2193690091371518 4.3016211912035924 11.276330489665268 11.029535606503485 6.39762919023633 5.22144865244627 5.9200811758637419 5.6484402455389491 4.4079775139689445
leaf_count=69 42 40 28 126 42 287 1263 113 310 7019 856 632 513 46 278 109 27 32 25 41 80 29 26 50 47 40 28 26 27 22
internal_value=0 0.0610311 -0.000782662 0.042921 -0.00201992 -0.00347884 -0.00410539 -0.032681 -0.0099537 0.00123176 -0.0407252 0.0056168 -0.0922983 0.0339092 0.00558599 0.108582 0.0450166 0.00139517 -0.115649 0.0855635 0.0419021 0.167642 0.092059 0.102044 0.140911 -0.0878814 -0.0468933 0.190457 -0.17445 -0.123518
internal_weight=0 88.0958 2902.96 168.684 100.143 2734.27 2726.83 429.145 310.7 2297.69 217.415 2080.27 118.445 76.0848 65.6442 68.5412 38.5849 31.58 24.0578 77.7592 50.7585 27.0007 36.61 18.7814 27.0869 14.1485 9.52307 29.9562 18.5882 10.3366
internal_count=12273 445 11828 807 487 11021 10993 2199 1573 8794 1143 7651 626 366 324 320 185 158 121 381 261 120 181 91 127 80 54 135 96 64
is_linear=0
shrinkage=0.3


Tree=69
num_leaves=30
num_cat=0
split_feature=293 112 242 199 202 147 261 271 276 100 268 3 49 294 119 247 33 116 210 248 226 105 201 298 81 276 239 115 70
split_gain=4.20717 4.37622 4.83684 4.96168 4.62831 4.48212 5.09152 4.49486 4.48323 4.3367 4.28248 4.04877 3.86076 3.85311 3.70164 3.90322 4.07208 3.73175 3.35182 3.86418 2.73524 2.95659 2.34729 3.38414 1.97065 1.82886 1.54727 1.51224 1.35433
threshold=-0.078979998826980535 -0.07473655468940138 0.023021999746561005 -0.10665550082921973 -0.10453550145030013 0.06559200212359427 0.12009735137968812 0.015173431590967066 -0.0162868025714966 -0.14616600424051276 -0.059331499040126738 -0.059819276492706026 0.016703999601304455 -0.10576849364665365 -0.03873549960553644 -0.011018008473993387 -0.018508993993230052 0.031602500006556455 -0.039110888386245816 -0.027331879200523865 0.0039606083699971944 -0.022198056001599773 -0.0066323184892959882 0.034893000498414005 -0.010504476372349749 -0.040430000051855992 0.030123000033199756 0.0012657962062926637 0.020142793256080236
decision_type=2 2 2 2 2 2 2 2 2 2 2 2 2 2 2 2 2 2 2 2 2 2 2 2 2 2 2 2 2
left_child=18 2 14 -4 9 6 13 26 -9 -3 -8 -11 -13 -6 22 17 -17 -16 19 -1 28 -22 24 -24 -2 -20 -7 -21 -5
right_child=1 4 3 20 5 7 10 8 -10 11 -12 12 -14 -15 15 16 -18 -19 25 27 21 -23 23 -25 -26 -27 -28 -29 -30
leaf_value=-0.21856967802979088 0.033739386594685797 -0.15524544553541234 0.32976196479738656 -0.21145337371906586 0.06771349779928526 0.3351045050857559 -0.12220676035568706 -0.10251053856385615 0.13876914731895848 -0.13254915053099392 -0.02268155523237465 -0.061129163918018044 0.18715955161024636 -0.0049784440797734824 -0.24489366891551459 0.31760793226566858 -0.050707101072219485 0.15949195596082022 0.37386012543889563 0.0025650879947556964 -0.22325308886889675 0.065594590692264643 0.14502439544010076 -0.20304465658327292 0.22693583503024189 0.13757231635195769 0.13362171204092751 0.27626894364157523 -0.0017574146771435462
leaf_weight=4.2070610206574202 5.6974261114373794 6.0049173310399047 3.2432238459587088 10.829635254107414 67.531637076288462 6.7900520563125593 58.458635058254004 13.276051219552755 14.501793392002583 5.2543979324400416 116.36570387613028 6.7254106625914565 34.808519365265965 2326.6396625312045 7.2756347460672277 5.2580263428390026 5.5566021958366019 2.8616335205733776 5.0717607028782368 3.5491934511810559 3.9240276133641592 17.033336864784363 8.3784488686360401 3.5916479825973502 28.627901711501181 7.0406338740140182 6.9326114151626825 3.7220317237079144 3.72555362060666
leaf_count=28 37 29 11 92 341 30 376 72 79 27 713 47 152 9578 64 24 40 20 19 28 27 102 51 25 144 39 41 18 19
internal_value=0 -0.000799365 0.058978 -0.0254356 -0.0031786 -0.00495708 -0.00653704 0.0928468 0.0234527 0.0847632 -0.0559613 0.115566 0.146955 -0.00292805 0.107627 0.00300127 0.128366 -0.13074 0.12643 0.0102672 -0.0578744 0.0115112 0.154977 0.0405857 0.194868 0.236512 0.233317 0.14267 -0.157779
internal_weight=0 2769.29 106.003 38.7558 2663.29 2610.5 2569 41.5005 27.7778 52.7932 174.824 46.7883 41.5339 2394.17 67.2473 20.9519 10.8146 10.1373 23.5907 11.4783 35.5126 20.9574 46.2954 11.9701 34.3253 12.1124 13.7227 7.27123 14.5552
internal_count=12273 12141 656 251 11485 11230 11008 222 151 255 1089 226 199 9919 405 148 64 84 132 74 240 129 257 76 181 58 71 46 111
is_linear=0
shrinkage=0.3


Tree=70
num_leaves=31
num_cat=0
split_feature=67 124 260 106 133 4 83 165 58 277 153 20 244 220 30 128 109 12 179 47 271 15 263 21 39 184 120 34 34 213
split_gain=5.39622 6.21529 5.15201 5.20737 7.96979 7.8413 7.14243 5.49067 5.21653 5.03512 4.75286 4.69553 5.53587 4.28106 5.03744 3.95488 3.87547 3.62143 3.93512 3.16935 3.08389 3.05919 3.03854 3.02606 2.3863 2.32299 2.13598 2.08732 2.01639 1.78217
threshold=-0.054734500125050496 -0.089374240183954498 0.14776749908924103 0.0015580974568464954 -0.04192115727512969 -0.038753873573082152 0.082219999283552156 0.034814499318599652 -0.040608000010251943 0.014071499928832 0.09214450046420096 0.052848610282284457 -0.15697572595670348 0.008711042243277135 -0.046228999271988792 0.075470499694347368 0.028710499405860856 -0.024593000300228495 0.023552387759827102 0.011758828113156898 0.033340338335573795 0.040080500766634906 0.0017761934585083805 -0.08711599393260587 -0.049658816507579411 -0.037444707462973653 0.017305907009898581 -0.034138500690460143 0.012468953327558796 0.0637028618203241
decision_type=2 2 2 2 2 2 2 2 2 2 2 2 2 2 2 2 2 2 2 2 2 2 2 2 2 2 2 2 2 2
left_child=11 13 3 5 8 10 -6 -7 -5 16 -3 12 26 -2 -15 17 -4 22 -19 24 28 -22 -14 -11 -13 -26 -1 -25 -16 -17
right_child=1 2 9 4 6 7 -8 -9 -10 23 -12 19 15 14 20 29 -18 18 -20 -21 21 -23 -24 27 25 -27 -28 -29 -30 -31
leaf_value=-0.0073980553701331131 -0.20491228926658187 -0.10128528019221791 0.20474388818586836 -0.13341447704048356 0.056002682975341639 0.0045715990217850902 -0.085531953164782251 -0.11023920884855042 -0.002377661658814863 0.057709249844475979 0.17580969938061722 0.2584061627647985 -0.21539385131126745 -0.21827027105540719 -0.081026243681958654 -0.23012680914472189 -0.16762821356143368 0.078630063082721122 -0.15040385938652337 -0.15788809925871308 -0.22967519911486273 0.15370360792993412 -0.013259986118547232 0.071129703184732967 -0.20608563964419446 0.15870465699827557 0.28654791575708644 -0.22183996968281536 0.18626542934214804 -0.068291619858224836
leaf_weight=4.4949486888945085 21.038979833945632 93.913273274432868 7.281996457371859 32.945586878806353 484.98620707099326 1560.5614379332401 34.363192513585091 38.411647401750088 160.76993340952322 4.976777700707312 5.9224176025018087 7.6117395553737888 18.03742973506451 9.2370960619300586 3.2667484823614386 25.733113353140652 3.8428860055282712 21.60162685113028 9.8210513549856824 4.0097710136324158 5.5843314547091705 2.8187913075089455 10.642095535062252 2.3966322280466548 2.6384625621140012 3.8836789689958096 4.4054141491651535 25.226725397631533 11.418696854263542 8.0368209909647685
leaf_count=30 162 606 39 203 2793 5541 208 290 1068 27 33 36 126 67 23 200 30 150 75 32 47 17 72 15 26 25 18 184 60 70
internal_value=0 0.00170046 0.00390163 0.00575183 0.0272678 -0.00327937 0.0466379 0.00181353 -0.0246634 -0.0981555 -0.0848475 -0.0631846 -0.0880242 -0.0995872 -0.031037 -0.109464 0.0761148 -0.0633064 0.00704629 0.0775166 0.0438699 -0.101072 -0.140388 -0.157626 0.144301 0.0111326 0.138096 -0.196422 0.126807 -0.191612
internal_weight=0 2508.96 2455.6 2411.87 713.065 1698.81 519.349 1598.97 193.716 43.725 99.8357 120.916 102.773 53.3646 32.3257 93.8721 11.1249 60.1022 31.4227 18.1437 23.0886 8.40312 28.6795 32.6001 14.1339 6.52214 8.90036 27.6234 14.6854 33.7699
internal_count=12273 11413 11037 10742 4272 6470 3001 5831 1271 295 639 860 741 376 214 693 69 423 225 119 147 64 198 226 87 51 48 199 83 270
is_linear=0
shrinkage=0.3


Tree=71
num_leaves=17
num_cat=0
split_feature=24 107 12 196 203 98 238 216 275 291 289 24 109 281 132 299
split_gain=3.44314 3.44204 3.27399 5.52059 5.8964 3.462 3.38114 5.27536 4.14423 3.65885 4.31736 3.98531 2.76644 2.02406 0.117037 0.0929652
threshold=0.12846949696540833 0.079713501368718215 -0.090456080368941608 -0.05576746262593902 0.018844500184059105 -0.021189500577747749 -0.11698164398027917 0.016537352037357365 0.012111971799294215 0.083541497588157612 0.081142000854015309 -0.013430000282824 0.070005087588999204 -0.0068574999459087493 0.02623076228831215 0.03669658776700515
decision_type=2 2 2 2 2 2 2 2 2 2 2 2 2 2 2 2
left_child=1 2 3 -1 5 -5 7 8 -4 10 -8 -11 -6 14 15 -3
right_child=-2 13 6 4 12 -7 9 -9 -10 11 -12 -13 -14 -15 -16 -17
leaf_value=-0.23675230122877969 0.21515782574735859 -0.22969696766944872 -0.028225563678608536 0.1225579838155431 0.11153279685208188 -0.079939362136938905 0.001506911556998691 0.15186542271633169 -0.16814643995613016 -0.072011881212318316 -0.10505670526374376 0.1812529608997987 0.28821789558137156 0.034291272006448964 -0.2769910911773471 -0.15084818229371325
leaf_weight=5.2397352904081336 6.7337937690317622 4.3116764463484269 48.393291251733899 11.528344515711067 30.095372516661882 22.290872041136026 2700.7844544481486 9.6191159226000291 31.420598313212395 7.7860386595129993 34.656176023185253 19.842402994632721 10.851349778473375 3.686030860990285 3.0182987302541733 1.9564223662018774
leaf_count=31 31 34 264 57 143 132 10910 39 190 47 195 92 52 20 15 21
internal_value=0 0.000392429 0.00107452 0.0609285 0.0817905 -0.0109118 -0.000604239 -0.0580141 -0.0833087 0.00125396 0.000156823 0.10988 0.158356 -0.153799 -0.228457 -0.205086
internal_weight=0 2945.48 2932.51 80.0057 74.7659 33.8192 2852.5 89.433 79.8139 2763.07 2735.44 27.6284 40.9467 12.9724 9.2864 6.2681
internal_count=12273 12242 12152 415 384 189 11737 493 454 11244 11105 139 195 90 70 55
is_linear=0
shrinkage=0.3


Tree=72
num_leaves=31
num_cat=0
split_feature=158 199 257 149 18 36 252 142 247 102 240 71 137 129 104 36 180 56 34 146 25 217 226 78 126 192 274 143 15 143
split_gain=3.65505 4.21057 4.06177 5.14097 5.06668 5.62123 6.29 5.46035 5.28809 4.98583 5.0932 4.80336 5.86196 5.65692 4.54148 3.79731 3.29029 3.6906 3.05903 2.96494 3.49006 2.91228 4.49134 2.87822 2.66079 2.58159 3.37119 2.52941 2.45906 2.37998
threshold=0.021100211908984024 -0.078247502446174538 -0.078144361566656204 -0.064243765288719515 0.0032001979594918884 -0.045316500589251442 0.057196473748948366 -0.062214307025859984 -0.069113500416278784 0.043540396529162202 0.050217773218824639 -1.0000000180025095e-35 -0.064305499196052482 0.061386499553918804 -0.050555000081658294 -0.089502855258383765 0.0420220740323815 -0.064894317589137676 -0.029990499839186596 -0.022541600057736925 -0.037994521901039857 0.0064849635108242517 0.02713243840824494 0.0022170417372101626 0.048783934690450753 0.0065309999044984007 0.004892439997317562 -0.015409499872475798 -0.0019489999976939998 0.0049440806344377506
decision_type=2 2 2 2 2 2 2 2 2 2 2 2 2 2 2 2 2 2 2 2 2 2 2 2 2 2 2 2 2 2
left_child=2 -2 3 -1 5 6 14 21 -8 10 -9 12 -7 -13 -4 29 17 -17 -11 23 25 22 -6 -3 -18 26 -21 -27 -22 -5
right_child=1 19 4 15 7 11 8 9 -10 18 -12 13 -14 -15 -16 16 24 -19 -20 20 28 -23 -24 -25 -26 27 -28 -29 -30 -31
leaf_value=-0.1865275147411993 0.14839487578568888 -0.13431751735411798 -0.021307743041128389 0.08050586194742855 -0.20738890012320824 -0.0028176407044372526 -0.16584382680949417 -0.082547426880132738 0.013209461506789227 -0.11577404570700342 -0.0059508427118208597 0.0024922605777765771 -0.077708910983832674 0.24770473235414636 0.098646407613161888 -0.015612016398851472 0.088673859772718383 0.22656701237443783 0.19598407004203583 0.13454578933715691 0.0090360388750380174 -0.1762750247112993 0.22102202635507734 0.1156122596599351 -0.19879095992459447 0.078839187985089418 -0.10583716444734759 -0.17502921430342075 0.24145363856641738 -0.25645164145321186
leaf_weight=6.2214829996228209 30.538600971922278 17.257708001881841 35.280231386423111 3.567480592057108 4.1981460768729431 229.15949564985931 17.743889819830656 113.77920022327453 90.860463975928724 3.5447997609153417 249.35545614408329 1478.1618744479492 159.55859854491428 8.515926890075205 145.78556281980127 7.0477933250367597 10.581858047284184 28.827973045408729 14.099536740221081 17.936860557645563 6.2101604677736786 33.538051810581237 4.6328897140920162 5.4586655944585791 3.9908075705170623 5.3075909111648807 7.4239458441734305 10.559524323791262 12.040893055498598 4.0038314033299685
leaf_count=34 155 112 179 23 44 1105 97 1023 517 43 1560 4483 1006 37 817 48 63 137 78 96 40 264 21 27 23 35 46 70 58 32
internal_value=0 0.0532768 -0.00187744 0.0726383 -0.00372697 0.00214108 0.0410363 -0.0337512 -0.0160444 -0.0223835 -0.0299505 -0.0038666 -0.0335585 0.00389688 0.0752736 0.100429 0.130161 0.178991 0.133351 0.0179369 0.0531491 -0.135915 0.0173617 -0.0742603 0.00994998 0.00479822 0.0641778 -0.0901096 0.162371 -0.0976827
internal_weight=0 112.734 2652.46 64.2412 2588.21 2165.07 289.67 423.148 108.604 380.779 363.135 1875.4 388.718 1486.68 181.066 58.0197 50.4484 35.8758 17.6443 82.1953 59.479 42.3691 8.83104 22.7164 14.5727 41.2279 25.3608 15.8671 18.2511 7.57131
internal_count=12273 639 11634 360 11274 8241 1610 3033 614 2704 2583 6631 2111 4520 996 326 271 185 121 484 345 329 65 139 86 247 142 105 98 55
is_linear=0
shrinkage=0.3


Tree=73
num_leaves=31
num_cat=0
split_feature=125 148 171 238 17 232 240 75 194 228 107 9 22 108 156 83 13 251 109 275 20 127 163 211 50 296 55 156 265 105
split_gain=4.75208 5.00351 4.44049 7.12682 6.86184 6.63696 6.28197 5.72311 6.15663 5.63791 4.77488 5.48528 4.91089 4.74811 4.40606 4.17972 3.67233 4.15131 3.42189 2.44878 2.02787 1.96336 1.94802 1.43722 1.34748 1.55907 1.33375 0.106285 0.0348246 0.0164072
threshold=-0.08565400168299668 0.15239799767732623 -0.0524807680996719 -0.03538900054991239 -0.037424499168991994 0.0055450000800191506 0.153710117518538 0.11481550335884091 0.00094595812323361895 -0.059491500258445691 -0.053198998793959541 0.048373338053769907 0.080564502626657472 -0.062843501567840535 0.0046575971793458033 0.051139317087993262 -0.047005999833345344 -0.011060914843511948 0.12619243935834459 -0.071473833347175844 -0.069266501814126941 0.010768949171418594 -0.063787002116441685 -0.093323998153209645 0.094821572578489624 -0.082246500998735386 -0.018250500783324197 -0.040755328324263401 -0.014491499867290198 -0.030520000495016544
decision_type=2 2 2 2 2 2 2 2 2 2 2 2 2 2 2 2 2 2 2 2 2 2 2 2 2 2 2 2 2 2
left_child=16 2 3 6 10 21 15 8 -6 -9 12 -12 -4 -7 -3 -2 17 26 19 -16 -19 -5 -8 -21 25 -18 -1 -27 -22 -29
right_child=1 14 4 5 7 13 22 9 -10 -11 11 -13 -14 -15 18 -17 24 20 -20 23 28 -23 -24 -25 -26 27 -28 29 -30 -31
leaf_value=0.34730212264150473 0.10226725426233908 0.15781109294188506 -0.16842970757704809 -0.21153758271367459 -0.0014324514728442891 -0.17778051829627586 0.013739371156365738 0.013732784522967695 0.050711151673716127 -0.16098500217634185 -0.0048274366619896689 -0.20759040013213956 0.079132281382308156 0.027696278499786547 0.032367949486506058 0.0029900405698670891 0.093706982928557558 0.19999637107559434 0.070783791762319734 -0.055335028286405116 -0.1731838328776821 0.01592728139792635 -0.25111824569845137 -0.26514481278054508 0.062919944490685761 -0.1268988685016669 0.070869475398111087 -0.23716159410585003 -0.22919072557024747 -0.21659128446280865
leaf_weight=2.8825164400041103 157.67716455925256 4.7758157830685368 48.094317842740566 18.310691258870069 1680.6873648345936 11.165390862151979 3.9024981167167425 29.707106690853834 231.91019719908945 37.737534143961966 112.74728819727898 13.439098663162438 8.4837854327633959 108.23894924577326 3.6446943478658858 50.356447680154815 1.5691032456234122 1.2929459549486635 5.1976616382598868 3.4756140522658887 1.2953807609155772 4.1982110552489749 6.9505858649499697 19.011359921656545 1.9823067556135345 1.1371709853410781 3.4521325323730707 4.4866612404584965 4.3698235619813186 15.705960900988423
leaf_count=13 915 37 428 123 6228 100 21 147 1306 263 753 128 66 674 26 338 21 9 25 22 28 29 44 105 20 17 30 54 53 250
internal_value=0 0.000280961 0.00186745 0.0326781 -0.0032724 -0.019686 0.066628 0.00186143 0.00489017 -0.0840277 -0.0588915 -0.0264221 -0.131308 0.00848233 -0.110608 0.0782363 -0.106353 0.0209495 -0.151526 -0.195744 -0.139014 -0.169112 -0.155882 -0.232716 -0.174364 -0.194905 0.196657 -0.216136 -0.216384 -0.221162
internal_weight=0 2559.71 2523.61 360.8 2162.81 141.913 218.887 1980.04 1912.6 67.4446 182.764 126.186 56.5781 119.404 36.1051 208.034 38.174 13.2928 31.3293 26.1317 6.95815 22.5089 10.8531 22.487 24.8812 22.8989 6.33465 21.3298 5.6652 20.1926
internal_count=12273 11778 11563 2244 9319 926 1318 7944 7534 410 1375 881 494 774 215 1253 495 133 178 153 90 152 65 127 362 342 43 321 81 304
is_linear=0
shrinkage=0.3


Tree=74
num_leaves=28
num_cat=0
split_feature=246 82 296 108 158 274 67 4 75 287 257 149 295 206 149 40 120 81 163 16 57 39 38 201 75 265 226
split_gain=3.26756 3.68709 3.21561 4.07868 3.5778 4.55267 5.27296 3.9718 3.64504 4.0871 3.52127 3.54462 3.51248 4.79013 4.11964 3.31943 3.31604 2.98374 2.48788 2.45653 1.68847 1.41325 1.20761 1.11499 0.244104 0.167847 0.0344631
threshold=-0.10917526436780446 0.032292185558780995 0.06689849868416782 -0.066274002194404533 0.021100211908984024 0.038940187529921337 -0.059189500287175144 -0.048668890358108285 0.14221357770419987 0.071571502834558473 0.013284339960640363 -0.016276211449676416 -0.079218000173568642 -0.028531999327242295 0.065249962775793216 0.054729498922824811 0.011737999971956002 -0.014026911888063584 -0.030064913292222713 -0.019719538377806264 -0.014175000134855448 0.011125514362628311 -0.035205143317188589 -0.061255973852603056 0.058946000412106507 0.0090793294994872108 0.011702500283718052
decision_type=2 2 2 2 2 2 2 2 2 2 2 2 2 2 2 2 2 2 2 2 2 2 2 2 2 2 2
left_child=1 21 4 18 8 6 15 -8 12 16 11 -5 13 -2 -14 -6 -10 -13 -4 -7 24 25 -11 -20 -12 -1 -25
right_child=2 -3 3 10 5 19 7 -9 9 22 20 17 14 -15 -16 -17 -18 -19 23 -21 -22 -23 -24 26 -26 -27 -28
leaf_value=0.22745588784528695 0.040345375204904388 -0.10333677126130383 0.098015262713707835 0.23948401357136742 0.24310775894575543 -0.026629242441776266 -0.012761641529210555 -0.1588915020623726 0.084294660792988044 0.35768597530250029 0.30524707229632719 0.15998925434058189 -0.00097775025038152638 -0.081840933760878698 0.059624180998145933 -0.080424501397606707 -0.11197975163084052 -0.081979300927354601 -0.015218135182461427 0.24236209919419222 0.080241360122486574 0.068744476137688859 0.15055753854736867 -0.26511598869545466 0.22377791708818665 0.3063368740391208 -0.22011667825624945
leaf_weight=5.408181272447111 40.392278473824263 4.9176812656223765 4.8336005210876456 6.3584890346974161 6.737460218369959 5.8496317025274038 25.037046872079372 50.513086050748825 32.751744408160448 4.8518290221691132 7.0324547961354273 6.3803806565701988 2444.5760646411218 101.28647480066866 105.30406824313104 4.9517748393118382 10.147234946489332 16.31362715177238 2.9146811887621871 6.3969867490231973 6.4930292144417754 5.1447834745049468 5.3013122454285604 2.7668258864432564 6.253337450325489 4.4054508022964001 3.4313922934234142
leaf_count=26 204 26 27 29 32 36 132 308 148 16 28 31 9681 610 538 27 51 99 18 25 33 29 25 15 33 18 28
internal_value=0 0.122015 -3.80902e-05 0.0671216 -0.00152051 -0.0574082 -0.0814532 -0.110465 0.000505296 0.0783776 0.107988 0.0415169 -0.00102961 -0.0470059 0.00152497 0.106054 0.0378683 -0.0139503 -0.0759636 0.113878 0.205624 0.1961 0.249537 -0.168244 0.266901 0.262866 -0.240204
internal_weight=0 19.8761 2906.87 62.7778 2844.1 99.486 87.2394 75.5501 2744.61 53.0521 48.8313 29.0525 2691.56 141.679 2549.88 11.6892 42.899 22.694 13.9465 12.2466 19.7788 14.9584 10.1531 9.1129 13.2858 9.81363 6.19822
internal_count=12273 99 12174 341 11833 560 499 440 11273 240 253 159 11033 814 10219 59 199 130 88 61 94 73 41 61 61 44 43
is_linear=0
shrinkage=0.3


Tree=75
num_leaves=31
num_cat=0
split_feature=184 145 274 35 200 189 232 148 63 201 276 231 186 248 171 233 295 138 20 188 99 133 130 234 153 297 200 218 94 108
split_gain=3.5201 5.11574 4.16242 5.52311 5.15474 4.56502 4.72361 4.45519 4.84438 4.31497 5.46072 4.20652 4.52629 4.12011 3.95346 3.82275 4.23978 3.68219 3.63534 4.45757 3.76043 3.66902 3.54457 3.3188 3.17337 3.35624 3.09133 3.07226 3.06741 3.03637
threshold=-0.078454239175997961 -0.0045165000483393487 0.025012967504201813 0.022730500437319254 -0.13126725077866089 0.045250000432133654 0.12235699966549866 0.14605168465214746 -0.056057037887449174 -0.059081498533487244 0.031956501305103253 -0.029290183843469639 -0.0084024998359381979 -0.018095999956130898 -0.099419500678777639 0.083876002579927458 -0.013815110522974442 -0.0090924999676643987 -0.048255499452352489 0.047514092396249687 0.07655150070786472 0.0050030001439154009 0.04777850024402136 0.031908169793803974 -0.043969999998807845 -0.016954999417066546 -0.032921461397738584 0.059530999511480311 -0.093270481726691432 -0.050137516701805045
decision_type=2 2 2 2 2 2 2 2 2 2 2 2 2 2 2 2 2 2 2 2 2 2 2 2 2 2 2 2 2 2
left_child=1 13 5 4 -4 6 9 17 -9 10 -2 -7 23 22 -11 16 24 -6 21 20 -20 -5 28 -13 -3 -26 -14 -15 -1 -17
right_child=2 15 3 18 7 11 -8 8 -10 14 -12 12 26 27 -16 29 -18 -19 19 -21 -22 -23 -24 -25 25 -27 -28 -29 -30 -31
leaf_value=0.14428087213854998 0.078585158629214488 0.23950988098050957 0.1883885721435262 0.20513094929078943 -0.018271159980600568 0.1759854279630241 -0.14500254657493628 -0.10436427804532757 0.38664649378129279 -0.11499103202080416 -0.064769418919933916 -0.078028043168642855 0.17733109911266803 0.068676777785865131 -0.0025338753058027079 0.10632368680662742 0.017258141276806211 -0.12551503231795233 -0.13073478051654475 0.12413083376551359 0.11859361724915229 -0.12040959487705953 0.1094657619696527 0.18319361866283101 0.010036239833090394 0.1533305629697341 -0.059054729806625121 -0.16567581107606127 -0.14493370433733591 -0.24592988721854384
leaf_weight=3.6393954623490563 116.55997552070767 17.999271921813488 6.5220895688980809 15.518526554107668 39.947338572703302 23.694583117961884 20.557187941856682 3.5517495255917311 3.6843545231968156 28.537849225103855 30.088249853812158 31.238424500450492 20.662856334820393 44.289026600308716 1992.8214986198582 3.5399905741214752 50.06518379971385 103.38758063456044 25.200063245836645 14.368578148074446 6.9445373844355336 3.8986940253525963 7.3206622526049605 5.0906066000461569 24.44744685292244 36.937201201915741 6.5596819147467604 5.6802595928311339 35.438991090282798 5.8283726386725885
leaf_count=21 643 92 30 74 236 128 178 22 18 212 207 190 106 298 7508 23 310 800 225 81 46 45 43 28 165 205 41 37 229 32
internal_value=0 0.0353665 -0.00302406 -0.0421368 -0.0727214 0.000808883 -0.00187379 -0.0840315 0.14564 -0.000516637 0.0491727 0.0681037 0.027881 -0.0177372 -0.00412156 0.0722316 0.0856244 -0.0956262 0.0307374 -0.0147778 -0.0768697 0.139767 -0.0821105 -0.0414243 0.128741 0.0962612 0.12037 0.0420367 -0.117999 -0.112825
internal_weight=0 235.186 2498.83 223.024 157.093 2275.81 2188.56 150.571 7.2361 2168.01 146.648 87.2462 63.5516 96.3683 2021.36 138.817 129.449 143.335 65.9304 46.5132 32.1446 19.4172 46.399 36.329 79.3839 61.3846 27.2225 49.9693 39.0784 9.36836
internal_count=12273 1455 10818 1577 1106 9241 8748 1076 40 8570 850 493 365 628 7720 827 772 1036 471 352 271 119 293 218 462 370 147 335 250 55
is_linear=0
shrinkage=0.3


Tree=76
num_leaves=31
num_cat=0
split_feature=154 151 127 124 112 287 175 0 234 245 218 128 96 6 55 137 275 117 57 39 271 173 101 93 271 62 37 96 14 98
split_gain=4.70768 4.6488 5.46554 4.67627 5.07398 4.93026 4.37385 4.27411 4.59402 4.23999 4.04115 4.53083 3.98248 3.85806 3.80634 3.95945 3.66743 3.40738 3.12887 3.10991 3.30664 3.04083 2.84837 2.72928 2.99032 2.93276 2.72 3.1714 2.5097 2.36706
threshold=-0.052957501262426342 0.042630000039935056 0.012532999739050801 0.049468999728560406 -0.10123400017619123 -0.041836999356746639 -0.010112361865424293 0.0094194998964666522 -0.029261499643325747 -0.041429115823048181 -0.0077619755845133162 0.090972498059272752 -0.025422439082976537 -0.011977815391807185 -0.013085999991744748 -0.070206228195998241 -0.09214100241661069 -0.04331200011074534 -0.038804043174578771 -0.042389499023556647 0.032881500199437107 -0.027618999592959846 -0.045935500413179342 -0.071916753642501038 0.021718000061809951 0.0090051177039706248 -0.059651913899474683 0.012186980990847212 -0.028303499333560394 -0.037720499560236896
decision_type=2 2 2 2 2 2 2 2 2 2 2 2 2 2 2 2 2 2 2 2 2 2 2 2 2 2 2 2 2 2
left_child=7 3 23 4 -2 16 -7 8 10 21 11 18 -4 19 17 -16 -6 -11 -1 20 -9 -5 -14 -3 25 -25 -21 -28 -10 -22
right_child=1 2 12 9 5 6 -8 13 28 14 -12 -13 22 -15 15 -17 -18 -19 -20 26 29 -23 -24 24 -26 -27 27 -29 -30 -31
leaf_value=-0.0029842739961311554 -0.15390561878650061 0.11659883649024816 -0.22551415962962637 -0.2410858270307491 0.11990256107376318 0.027787232565431322 -0.002714927047439994 0.10046503107354934 0.12902054197947405 -0.16796124784693583 -0.15106633055735882 -0.23669433219242514 -0.12413734215384536 -0.15425036344010915 -0.059975417076880908 0.17922690719875764 -0.1125121541500621 0.10221130522640229 0.22003689078819874 0.29917354347193093 0.045294158371368111 0.062078532545572426 0.18700668643118915 -0.17368542079137447 -0.20555236948844455 0.030939479362958527 -0.085200678806243477 0.13078132774992354 -0.22544160305220656 -0.24432806213849112
leaf_weight=16.266591213643558 18.699625537265092 4.1298215705901375 3.5361878091935095 5.9603087548166513 6.961122276261448 573.5328500631731 1613.1255163107999 7.4012089017778662 1.9341642409563089 7.6004393408075002 20.338399912696332 5.0601986702531567 3.3056927858851894 11.433535659220068 7.2584708021022371 43.867412017658353 50.006511977175251 9.3939327811822277 8.6840619444847089 4.9769832342863074 3.6740462966263303 5.9504479356110078 13.309142150916156 11.608146115206184 27.318510768935084 13.795374327804891 9.2224865173921007 18.180841997265816 25.485300579573959 8.2262080982327426
leaf_count=106 172 30 22 44 57 3565 5945 51 10 47 166 41 27 88 48 262 400 49 56 23 25 41 78 107 265 91 84 100 224 49
internal_value=0 0.00185525 -0.0706742 0.00423959 0.00171846 0.00301552 0.0052854 -0.0545584 -0.101632 0.0755073 -0.0478239 0.0221436 0.0635739 0.00344432 0.104381 0.145267 -0.0841124 -0.0186187 0.0746381 0.038331 -0.0569862 -0.0896291 0.125101 -0.118258 -0.136655 -0.0625639 0.0951484 0.0580934 -0.200438 -0.154911
internal_weight=0 2419.36 77.0029 2342.36 2262.33 2243.63 2186.66 140.884 77.7687 80.031 50.3493 30.0109 20.151 63.1153 68.1203 51.1259 56.9676 16.9944 24.9507 51.6818 19.3015 11.9108 16.6148 56.8519 52.722 25.4035 32.3803 27.4033 27.4195 11.9003
internal_count=12273 11250 620 10630 10139 9967 9510 1023 603 491 369 203 127 420 406 310 457 96 162 332 125 85 105 493 463 198 207 184 234 74
is_linear=0
shrinkage=0.3


Tree=77
num_leaves=31
num_cat=0
split_feature=231 103 88 278 196 66 2 133 254 245 292 63 221 1 210 142 18 165 38 269 82 179 294 158 156 207 118 269 227 41
split_gain=3.01061 4.09859 4.00714 3.03441 3.22206 3.61608 3.95047 3.65043 3.49824 3.40548 4.27422 3.71666 3.11701 2.85174 2.70259 2.51169 2.43864 3.53166 2.39573 3.55833 1.94915 3.0305 2.41627 1.30453 1.11663 0.994259 0.711922 0.594114 0.440518 0.220986
threshold=0.066883999854326207 0.024131999351084201 0.0033735319639973424 -0.085813499987125341 0.081613000482320716 -0.063703499734401633 0.026197500526905004 0.014546082718586742 0.07270750030875206 0.049450499936938258 -0.012491268238910809 0.0050281200478194789 -0.053349500522017444 -0.07218800112605088 -0.0019674999639391496 -0.021375499665737097 0.0054271471730186873 -0.030368545116423718 -0.0014309999532996999 0.045985499396920156 0.017414342867084601 0.032409500330686562 -0.035353261834036122 -0.052661001682281446 0.079199999570846516 0.010074000339955052 -0.040701499208807897 -0.018063500523567148 -0.0051100000273435987 0.053580732007258283
decision_type=2 2 2 2 2 2 2 2 2 2 2 2 2 2 2 2 2 2 2 2 2 2 2 2 2 2 2 2 2 2
left_child=3 2 -2 13 8 18 7 -7 9 11 -11 -5 -10 -1 20 -8 28 -18 19 -6 27 22 -22 -20 -14 -4 -19 -3 -15 -29
right_child=1 14 25 4 5 6 15 -9 12 10 -12 -13 24 16 -16 -17 17 26 23 -21 21 -23 -24 -25 -26 -27 -28 29 -30 -31
leaf_value=0.10463921629563641 0.18153940168780705 0.15790598355342547 -0.055230716474899522 0.00015793081754883343 -0.13496955375012237 -0.10311148500027956 0.25145990483056835 0.09868007991271896 -0.033935708827233624 -0.0010809797322380941 0.13783737240758689 -0.033362713954845913 0.29521162384280919 -0.26694535180356155 -0.084958013263192925 0.044993500757766064 0.20661387495902825 -0.033143880405816971 0.29139872065439071 0.15763753815014114 -0.20450890364867699 0.22151899646494702 0.12037656574602409 0.13597702157940811 0.11178381650756965 -0.24789506925829413 -0.23701391655805501 0.24218582204878364 -0.14216354874813417 0.33375871577215699
leaf_weight=5.0760149359703091 4.2302090004086486 5.4514083489775649 4.1457881405949575 2268.7179499231279 6.2257617004215708 29.379625551402569 7.2512400485575226 11.122839555144308 6.9717807918787029 46.8576226439327 34.690984794870019 342.65664577903226 7.0425445139408094 9.1074401494115609 4.6672110334038761 19.73558328486979 3.5528339445590973 2.410635232925415 8.0073420628905279 9.3696807324886304 4.0633696839213336 7.751084327697753 4.1794080287218112 12.367385283112528 5.1867429036647081 5.7599575594067574 4.2761796265840513 5.4875115901231748 3.5344252772629252 4.1772351935505867
leaf_count=22 22 25 23 8710 37 190 41 56 37 221 176 2075 25 48 27 125 15 15 37 41 24 38 20 63 27 33 32 27 25 16
internal_value=0 0.0738825 -0.0628815 -0.0004399 0.000536649 0.0524972 0.0115514 -0.0476952 -0.00144549 -0.00235528 0.0580152 -0.00424055 0.126151 -0.0987874 0.127919 0.10047 -0.143915 -0.0350937 0.129322 0.0408276 0.159856 0.0868533 -0.0397794 0.197058 0.217415 -0.16726 -0.163518 0.237097 -0.232059 0.281765
internal_weight=0 49.9132 14.136 2843.54 2815.58 103.459 67.4893 40.5025 2712.12 2692.92 81.5486 2611.37 19.2011 27.9575 35.7772 26.9868 22.8815 10.2396 35.9702 15.5954 31.11 15.9939 8.24278 20.3747 12.2293 9.90575 6.68681 15.1162 12.6419 9.66475
internal_count=12273 255 78 12018 11861 590 412 246 11271 11182 397 10785 89 157 177 166 135 62 178 78 150 82 44 100 52 56 47 68 73 43
is_linear=0
shrinkage=0.3


Tree=78
num_leaves=31
num_cat=0
split_feature=165 130 116 200 41 39 293 212 58 114 82 6 171 51 30 132 172 138 292 248 293 186 183 222 62 192 133 23 221 48
split_gain=3.17338 4.44156 3.13796 4.9785 5.28434 5.00392 4.91753 4.19404 4.29195 4.10891 3.81894 3.74681 4.12954 5.80465 4.06259 3.55236 3.2808 4.24861 3.08696 3.24415 2.90044 2.69062 2.63405 2.37539 2.33811 2.24392 2.10471 2.01843 1.95584 2.98974
threshold=0.077398497611284214 -0.026928500272333598 -0.0089884996414183981 -0.064371745875128464 0.09048431887688467 -0.11012849956750863 -0.055452499538660042 -0.0028257056180436236 -0.043798999860882697 -0.045628062312577336 0.094352997839450822 -0.13573750108480448 0.008920543766259368 0.06959899887442586 -0.046228999271988792 -0.025775999762117797 -0.032963531725714985 -0.0020636797808815748 -0.034678349512536281 -0.0052977421564848392 0.049435666103964555 -0.015149635081810673 0.032157912244960736 0.0039780000224709008 0.010170499794185101 0.039160523217377383 -0.019678523476829208 0.032810499891638707 -0.013640054738041953 -0.050239324219743406
decision_type=2 2 2 2 2 2 2 2 2 2 2 2 2 2 2 2 2 2 2 2 2 2 2 2 2 2 2 2 2 2
left_child=2 -2 3 4 5 -1 18 16 -9 -10 -7 15 14 -14 -13 21 17 -5 23 24 -18 -8 25 -4 -20 28 -25 -17 29 -3
right_child=1 22 6 7 -6 10 11 8 9 -11 -12 12 13 -15 -16 27 20 -19 19 -21 -22 -23 -24 26 -26 -27 -28 -29 -30 -31
leaf_value=0.24702242481243442 -0.16575282625400278 -0.089775010013921297 0.22193267371859512 0.1739588626500182 0.2445183353138505 -0.027899185871761725 -0.17790360169269157 0.25549011251969794 0.18486983395131215 -0.078598017165057432 0.28465207948564947 -0.059069992641623818 0.01242819889516034 0.12912708840875162 0.0008053243426840368 -0.22195695655472089 -0.15717312086173921 -0.1040528579689681 -0.21091396215509106 0.13873558787592083 -0.0030019666619612211 0.22578102303328629 -0.1228731999716321 0.1774890257382376 0.040886538829991222 -0.066901848217774826 -0.12599490344203904 -0.0072599165536667842 0.22639771983009099 0.18578868059233947
leaf_weight=6.7008318081498137 5.9564109463244668 5.7189598362892857 18.965619146823887 7.9832155164331224 8.0582473911344987 123.28732848679647 2.2885235380381346 5.5620309412479392 6.5797279216349116 27.989534443709999 3.6217337697744361 107.51149434084073 146.30218722485006 51.993214892223477 1985.1680443235673 15.955206858925523 66.371142098214477 13.00896815350279 6.5432489216327685 10.709025470539926 13.160059871152042 4.2373313345015076 3.9262766465544692 4.2016344740986824 6.7351536797359586 4.3752363957464686 4.0286665074527246 5.2337168790400019 18.642471751198176 9.3153459317982144
leaf_count=27 33 36 91 45 33 817 37 28 35 215 19 725 851 284 7638 146 522 125 52 69 102 20 20 19 49 23 33 36 94 49
internal_value=0 0.076676 -0.00120774 -0.031105 0.00859024 -0.005639 0.00235392 -0.0710863 0.0109021 -0.028451 -0.0189796 0.00032355 0.00164996 0.0430267 -0.00227077 -0.10932 -0.103818 0.00167352 0.094333 0.0158849 -0.131662 0.0842146 0.111075 0.163526 -0.0831942 0.135214 0.0289361 -0.168926 0.161473 0.0809659
internal_weight=0 47.9347 2652.2 282.323 141.668 133.61 2369.87 140.655 40.1313 34.5693 126.909 2318.69 2290.97 198.295 2092.68 27.7148 100.523 20.9922 51.1833 23.9874 79.5312 6.52585 41.9783 27.1959 13.2784 38.052 8.2303 21.1889 33.6768 15.0343
internal_count=12273 255 12018 1968 896 863 10050 1072 278 250 836 9737 9498 1135 8363 239 794 170 313 170 624 57 222 143 101 202 52 182 179 85
is_linear=0
shrinkage=0.3


Tree=79
num_leaves=30
num_cat=0
split_feature=89 200 242 163 173 202 246 172 9 239 111 78 88 76 196 251 148 186 127 125 144 88 147 161 190 235 28 226 50
split_gain=4.56855 5.47929 4.36781 4.17057 4.31773 5.82086 5.48127 5.50924 5.03746 4.3683 4.00754 3.94162 3.55464 4.36595 2.14495 2.09979 1.93215 1.16349 1.15802 0.708674 0.438451 0.226723 0.210368 0.135202 0.118871 0.0669726 0.041646 0.00621398 0.0042038
threshold=-0.071478500962257288 -0.092366588416282105 -0.11012400314211838 0.10413549840450285 0.0014709244645931935 -0.055826500058174092 0.022626000456511901 -0.072206497192382799 -0.062857501208782127 0.11247099936008452 -0.028487423716186119 -0.032251000404357848 0.065614454318239535 -0.034401500597596092 -0.013832675199347546 -0.025485236463153541 0.10319688291514652 0.0056316126222601169 0.021746685215264121 0.055265234414441922 -0.080832158639537244 -0.010142134606446257 -0.093006499111652333 -0.066572773076407701 0.023014999926090202 -0.053898500278592047 -0.064262085156143234 0.052560500800609505 0.0047993204868342935
decision_type=2 2 2 2 2 2 2 2 2 2 2 2 2 2 2 2 2 2 2 2 2 2 2 2 2 2 2 2 2
left_child=1 11 18 4 5 9 7 -6 -7 -4 -8 15 13 16 -13 -1 -3 23 21 24 -14 -2 -22 -15 27 -24 -23 -5 -28
right_child=2 12 3 19 6 8 10 -9 -10 -11 -12 14 20 17 -16 -17 -18 -19 -20 -21 22 26 25 -25 -26 -27 28 -29 -30
leaf_value=0.27217677170169846 -0.11461032587925085 0.19142692993365684 -0.080507275726909563 -0.21370464922358492 -0.21110392210475154 0.086873541681140615 -0.13777751631174459 0.021635652480279283 -0.00096963161965821286 0.078429981199876084 0.12269409239288692 0.11946056974180116 -0.12859174209291288 -0.30838310841869959 -0.24532199323843235 -0.0036453415280868168 -0.1022766725650331 -0.050208878500958662 0.034162905053248795 -0.049749663176219684 -0.34320789984979494 -0.26306629560734435 -0.29695473064448569 -0.22502407292471766 -0.30631969634542661 -0.24037221547731175 -0.22917259574555487 -0.23686758872294439 -0.21186862064725295
leaf_weight=6.5291526438668379 1.579655579291283 5.8981103580445069 125.79277336434461 2.7159394146874529 9.5244486676529032 60.606263726949692 5.735024854540824 235.11829432426021 1922.5478680951055 17.760779075324535 72.791804756037891 2.1401532869786024 2.4037947002798346 3.299501359462738 4.5036160452291361 4.0094645582139501 3.0626493245363235 3.3916204404085875 1.9327051183208812 2.0391717907041311 2.6525378562510022 3.5658446932211492 2.2896994538605222 3.731603183783589 2.3345589376986027 10.590859442483628 2.5901014013215908 1.6916224509477613 2.467100172303617
leaf_count=29 14 38 965 43 80 432 30 1435 8193 115 444 16 19 14 39 34 14 28 17 16 10 25 11 27 16 84 25 13 47
internal_value=0 -0.0870332 0.000775822 0.00166198 0.00240172 -0.00250779 0.0347101 0.0125746 0.0017149 -0.0608432 0.103671 0.053153 -0.151575 -0.062511 -0.127815 0.167239 0.0910436 -0.194527 -0.178762 -0.204716 -0.247823 -0.219097 -0.266274 -0.264142 -0.251586 -0.250431 -0.238238 -0.222595 -0.220731
internal_weight=0 54.5028 2470.79 2458.66 2449.88 2126.71 323.17 244.643 1983.15 143.554 78.5268 17.1824 37.3204 19.3835 6.64377 10.5386 8.96076 10.4227 12.1354 8.78129 17.9369 10.2027 15.5331 7.0311 6.74212 12.8806 8.62305 4.40756 5.0572
internal_count=12273 363 11910 11782 11694 9705 1989 1515 8625 1080 474 118 245 121 55 63 52 69 128 88 124 111 105 41 72 95 97 56 72
is_linear=0
shrinkage=0.3


Tree=80
num_leaves=31
num_cat=0
split_feature=156 130 274 144 252 58 118 148 53 63 239 132 217 219 112 185 156 278 60 224 184 69 39 105 204 131 94 20 281 158
split_gain=2.85932 4.13008 4.24741 3.94734 3.64652 4.12042 3.47243 3.35064 3.18361 4.43968 6.61602 4.9155 5.56354 5.16573 4.87049 4.91077 5.08959 4.29654 4.98971 4.34699 4.2878 4.28518 3.71571 4.27233 3.10013 4.16456 3.66752 3.56563 3.17686 3.00069
threshold=-0.016300351737694462 0.026131613009586833 -0.0030975330482635051 0.001460723894758826 0.098617997020482961 -0.062560800300858602 0.027554596175913045 0.034548500552773406 -0.0067884998861699993 0.0086260000243782529 0.078157499432563768 -0.037879174248526416 0.057074515091466445 -0.019783500581979696 0.061163357126138483 0.026238131024920657 0.096818998456001268 0.093029499053955064 -0.027468500658869698 -0.046281511151909295 0.033295501023530905 0.082571502774953801 0.0026780343741789636 0.042792499065399163 -0.012889000121504049 -0.030186999589204747 -0.017274999991059244 -0.035184905696233289 -0.028451463516383915 -0.020411567907366011
decision_type=2 2 2 2 2 2 2 2 2 2 2 2 2 2 2 2 2 2 2 2 2 2 2 2 2 2 2 2 2 2
left_child=1 2 6 7 5 -3 -1 -4 21 14 11 12 -11 -13 17 20 -17 18 -10 -19 -16 24 23 -12 26 -26 -2 -28 -27 -8
right_child=8 4 3 -5 -6 -7 29 -9 9 10 22 13 -14 -15 15 16 -18 19 -20 -21 -22 -23 -24 -25 25 28 27 -29 -30 -31
leaf_value=0.21778999604232971 0.14625469822542647 0.22688288095077616 0.10043726092518357 0.17080528321707386 0.21395877137260733 -0.10735218373056299 0.14385554732487582 -0.085237305620669404 -0.040942136176183197 -0.052328904754135284 0.20054369757247817 -0.03400411863918492 0.11775290609501546 -0.13637097213225399 -0.058203928807573656 0.04037815799163362 0.18248793738315217 0.17624505905950871 0.0011823642694097712 -0.077893187565358513 0.21011672457428299 0.1531231397409355 -0.080477393784213924 -0.020164836921304774 0.19650646838411537 0.047257724584185479 -0.086268865068342873 0.083801894824287362 -0.083670954443133938 -0.081825768174979274
leaf_weight=24.874559041112661 29.170067630708218 3.7129948250949374 12.711336056701837 11.631702871993182 4.5348508059978476 31.327715756371617 13.393900070339443 28.047966413199902 295.443892121315 50.195722231641412 21.023080207407475 89.762694415636361 26.419676627963781 87.726707531604916 42.630093874409795 62.40052529796958 35.634413681924343 22.547461032867435 1764.6877824896947 8.2826248630881292 6.1309141218662253 24.703996300697327 11.401836473494766 12.639028385281561 7.2452178895473471 24.607932139188051 19.647752253338695 25.486790701746941 51.764843177981675 8.7771110385656339
leaf_count=110 142 16 64 70 21 198 73 183 1527 320 102 609 147 547 219 280 148 103 6259 51 26 111 76 76 37 152 111 133 305 57
internal_value=0 0.04279 0.0754123 0.0166577 -0.039176 -0.0719359 0.140843 -0.0273322 -0.00132151 -0.00407549 -0.038399 -0.0571865 0.00632127 -0.0846004 0.000513262 0.0533355 0.0920332 -0.00319512 -0.00485872 0.10797 -0.0244669 0.0369349 0.0675394 0.117675 0.0187595 -0.0208635 0.0633488 0.00976751 -0.0414847 0.0545123
internal_weight=0 139.012 99.4366 52.391 39.5756 35.0407 47.0456 40.7593 2719.55 2536.93 299.169 254.105 76.6154 177.489 2237.76 146.796 98.0349 2090.96 2060.13 30.8301 48.761 182.627 45.0639 33.6621 157.923 83.618 74.3046 45.1345 76.3728 22.171
internal_count=12273 792 557 317 235 214 240 247 11481 10490 1877 1623 467 1156 8613 673 428 7940 7786 154 245 991 254 178 880 494 386 244 457 130
is_linear=0
shrinkage=0.3


Tree=81
num_leaves=31
num_cat=0
split_feature=65 199 294 161 272 195 298 203 96 68 266 171 10 0 188 70 8 223 147 281 38 28 70 254 27 295 296 167 99 16
split_gain=3.23332 3.75656 3.71505 3.43298 5.93818 5.71583 5.69915 4.66708 4.60957 4.30094 4.98397 4.24161 4.1501 4.76264 3.7517 3.83232 3.76199 3.67335 3.54844 5.36758 3.45537 3.22081 3.19287 3.00795 2.83273 4.47466 2.68525 2.57864 2.41283 2.28307
threshold=0.090048000216484056 -0.057970391461146305 -0.013767499942332449 -0.07254911926995633 0.073035558107968898 0.10531225304386811 -0.027670931803104416 0.0076990001834928512 0.076250001788139316 -0.054828290128647268 -0.010705499909818098 0.063362081174943505 -0.067982498556375434 0.0029747819377306081 0.031834499910473803 -0.021078745659403316 0.038696000352501855 -0.023261499591171696 -0.016470499277430255 -0.013787499628960998 0.071520499885082203 -0.04612155582022761 -0.091952502727508476 -0.0010575595165559909 0.078683000057935673 -0.004160500131547399 -0.017220499925315345 0.032883585929073963 0.021855556527129134 -0.018637999892234747
decision_type=2 2 2 2 2 2 2 2 2 2 2 2 2 2 2 2 2 2 2 2 2 2 2 2 2 2 2 2 2 2
left_child=3 2 28 4 5 9 8 20 14 17 -11 12 29 -14 15 -5 -16 -1 19 -9 22 27 -6 -20 25 -3 -13 -7 -2 -8
right_child=1 24 -4 6 7 21 11 18 -10 10 -12 26 13 -15 16 -17 -18 -19 23 -21 -22 -23 -24 -25 -26 -27 -28 -29 -30 -31
leaf_value=-0.1722226136676267 0.024029800811137866 0.14184315529895108 0.17250751271712936 0.065620302400912156 0.17439009108923295 -0.20789944218983034 0.01507546561201346 0.19422168242123292 0.2039160022770457 0.018409547655634469 -0.10379406833205568 -0.023413800215173485 0.000741109690403383 -0.050143701515797674 0.23574137560962352 -0.036859740773468409 0.040118355976043837 -0.065770844290635982 -0.040660601755976904 0.015734518199855673 0.17974854085997544 0.23051487154702002 -0.1319645259380236 0.20995826518076999 0.26355334528190377 -0.097368764272024413 0.21408193850665772 0.14043610296305944 -0.17983738576429975 0.24674874570796196
leaf_weight=42.894218849949539 9.6746648438274914 26.22730919346213 6.5602362826466551 66.80000798497349 3.4183398671448222 3.7399075590074089 6.5479024648666373 30.002452871762216 16.729378348216414 87.197143528610468 45.820057124365121 6.325532570481303 1771.7601340606343 182.60581772262231 15.553032161667941 64.603370639495552 20.521145638078451 91.210558651015162 35.8032236257568 30.659763108938932 4.5217070067301384 9.7041740063577873 29.353895729407668 4.8999504037201396 9.2887701243162137 9.6189312105998415 13.27990537509322 3.9147120099514723 11.359804526902733 9.2175201941281539
leaf_count=456 73 162 34 390 17 32 40 152 82 517 310 40 6456 1213 78 438 124 577 221 176 26 58 228 25 47 70 73 23 91 44
internal_value=0 0.0626005 -0.024597 -0.0015333 -0.026256 -0.0510676 0.00327878 0.0246487 0.053762 -0.0619078 -0.0236856 -0.00139489 -0.00277664 -0.0040133 0.0387631 0.0152368 0.124459 -0.0998201 0.0580331 0.104011 -0.0660906 0.115745 -0.10001 -0.0104905 0.115912 0.0776534 0.137456 -0.0297543 -0.08607 0.150527
internal_weight=0 72.7297 27.5947 2597.08 423.14 284.481 2173.94 138.659 184.207 267.122 133.017 1989.74 1970.13 1954.37 167.478 131.403 36.0742 134.105 101.365 60.6622 37.2939 17.3588 32.7722 40.7032 45.135 35.8462 19.6054 7.65462 21.0345 15.7654
internal_count=12273 477 198 11796 2818 1973 8978 845 1112 1860 827 7866 7753 7669 1030 828 202 1033 574 328 271 113 245 246 279 232 113 55 164 84
is_linear=0
shrinkage=0.3


Tree=82
num_leaves=31
num_cat=0
split_feature=31 249 97 252 226 167 172 150 113 104 68 41 294 295 186 205 212 138 37 143 55 129 50 160 225 189 251 132 133 66
split_gain=4.47771 5.00323 4.8782 4.77795 4.55823 4.45803 4.24871 4.24518 5.17783 6.46014 6.1971 5.66559 5.16088 4.18619 3.93392 3.87452 3.70288 3.51297 3.40181 3.39034 3.4004 3.24671 3.20104 3.57326 3.05925 2.907 2.88817 2.87382 2.78149 2.53971
threshold=-0.082814000546932179 0.069436624348423057 -0.069194505158165776 0.065307002514600712 -0.024809175329892821 0.036341998726129511 -0.017018499784171498 0.091036502271890613 0.010921999812126102 0.060883000493049608 -0.099656314531297294 0.075391001999378163 -0.062612500041723182 -0.062375489611811497 -0.044386661420069425 -0.06208150088787074 -0.0077704999130218493 0.065467320209061666 -0.092271000146865775 0.066604363189868315 -0.040123999118804897 0.053997999057173708 0.0065925000235437506 -0.043262666662687368 -0.0095405001193284485 0.022383499890565855 -0.060180999338626841 0.039498500525951358 -0.0065425001084803988 -0.038921998813748297
decision_type=2 2 2 2 2 2 2 2 2 2 2 2 2 2 2 2 2 2 2 2 2 2 2 2 2 2 2 2 2 2
left_child=1 3 5 13 -5 14 -6 8 11 10 -10 12 -4 22 -2 29 21 -11 -17 20 -16 -9 -1 -24 27 -3 -13 -18 -8 -15
right_child=2 25 7 4 6 -7 28 16 9 17 -12 26 -14 15 19 18 24 -19 -20 -21 -22 -23 23 -25 -26 -27 -28 -29 -30 -31
leaf_value=-0.15829427035083099 0.15766719834702678 -0.20768911416729327 -0.1064121398893754 -0.16678163134265594 -0.11406599870968134 -0.14517346490467606 0.1951284731776208 -0.18728498943257549 -0.037370394248995208 -0.031133187665328726 0.055406067958306222 0.13799663823141728 0.0036000376466423611 -0.12666198574028081 0.17526011700822594 0.19854295918063011 0.14229924553091844 -0.23249230767963408 -0.16344268191839167 0.23713426104655205 -0.14357392360389859 0.11877225172283057 -0.14856507404199989 0.21214651535977311 -0.13049523093329982 0.03786697162323828 -0.14803738330485447 -0.17811701805678179 -0.053107136816427016 0.1786346028336166
leaf_weight=4.7144218096509602 10.372316424269227 23.87282716808841 39.324112148024142 6.8371773445978752 6.682299841195344 38.078398048412055 23.343963319435716 25.852771862410012 76.355488758534193 30.757762572960928 428.05304604978301 3.5248902551829806 1595.5280853223521 4.0450330544263124 3.5238207480870214 2.4640265367925158 13.516661291942006 10.446214601397513 45.153443807736039 3.0783670619130126 20.667985281907026 3.547519917599856 3.2237800993025312 10.593933509662744 9.5510225258767587 5.3027640860527745 32.199675094336271 3.0963618494570246 4.9184215292334583 6.228416159283368
leaf_count=40 72 180 385 45 43 283 119 203 469 238 2814 21 5984 32 23 14 118 76 334 13 180 25 19 58 90 34 258 30 33 40
internal_value=0 -0.0517997 0.00210812 -0.0243386 0.0572337 -0.0727991 0.101064 0.00460488 0.00665833 0.032032 0.0413619 -0.00162874 0.000953847 -0.0689356 0.000413412 -0.108662 -0.077297 -0.0821826 -0.144711 -0.0593987 -0.097132 -0.150355 0.0551614 0.12799 0.00479792 -0.163058 -0.119815 0.0825795 0.151929 0.0584282
internal_weight=0 147.381 2347.47 118.205 41.7819 75.7209 34.9447 2271.75 2216.19 545.613 504.409 1670.58 1634.85 76.4231 37.6425 57.8909 55.5643 41.204 47.6175 27.2702 24.1918 29.4003 18.5321 13.8177 26.164 29.1756 35.7246 16.613 28.2624 10.2734
internal_count=12273 991 11282 777 240 571 195 10711 10245 3597 3283 6648 6369 537 288 420 466 314 348 216 203 228 117 77 238 214 279 148 152 72
is_linear=0
shrinkage=0.3


Tree=83
num_leaves=31
num_cat=0
split_feature=140 190 174 297 256 230 150 258 11 92 292 206 108 35 134 233 64 84 213 128 87 57 143 121 202 248 175 136 240 277
split_gain=2.66295 4.11099 3.06831 2.77828 5.80561 6.06499 5.16611 4.32705 4.54499 3.96643 4.50184 4.32051 3.88796 4.37858 3.88069 3.74889 3.66181 3.61356 4.49521 3.45107 3.42786 3.99793 3.26142 3.19707 3.01405 2.60726 2.53984 2.06349 1.9734 1.57083
threshold=-0.11717250198125834 -0.068411499261855982 0.035445131687792432 0.034803500398993457 -0.015197604827646061 0.080956999212503419 -0.0060989998746662491 -0.12275951381006107 0.010178000200539753 0.13011799752712253 -0.075165998190641389 -0.11203350126743308 -0.0073762895995873263 -0.016272266577458009 -0.052518999204039497 0.070872496834045173 -0.033080499619245439 -0.034456500783562598 0.077954310028983467 0.081828001886606175 0.063583677182081702 -0.041929471427088187 0.034703145184076432 0.12121749669313427 -0.053344000130891744 -0.037196913593429415 0.026264999993145452 -0.017729999497532747 0.090846996754407813 0.032141679881065109
decision_type=2 2 2 2 2 2 2 2 2 2 2 2 2 2 2 2 2 2 2 2 2 2 2 2 2 2 2 2 2 2
left_child=1 25 -3 9 5 20 7 24 -9 11 22 14 26 -14 -2 23 -17 18 -12 -19 21 -5 -11 -13 -6 -1 -8 -22 -4 -16
right_child=3 2 28 4 6 -7 12 8 -10 10 17 15 13 -15 29 16 -18 19 -20 -21 27 -23 -24 -25 -26 -27 -28 -29 -30 -31
leaf_value=0.060849437204632637 -0.097242870254529143 -9.6505389245804559e-05 0.10250237136078047 0.090855928881986084 0.24850561783846664 -0.26838595675205124 -0.16836995932009519 -0.070537231332532341 0.1162431234326394 -0.23422404568428892 0.21039999114761831 -0.0031198475591513427 -0.13118840361110531 0.082059704381431134 0.075390788434757799 0.13759351722098498 -0.0085530013037294125 -0.044036226191418198 -0.11749517668533509 0.23041018817962591 0.29511230441909447 -0.057577942156782219 0.088585691740968128 0.14081618191723655 -0.041148248696504672 -0.21548698649522982 0.0081691508708323611 0.044692875732534769 0.32065981872899363 0.27227013093880292
leaf_weight=7.2950789965689182 4.9509418401867178 7.4995749443769482 6.2141183875501147 39.926230492070317 9.20270838588476 5.5122526362538329 58.707094094716012 59.969992820173502 14.574538160115479 6.6626074351370317 30.130037249065936 2347.0405297442339 17.016792800277472 17.65802230220288 5.4994719401001957 34.495662434026599 27.917046254500747 18.440176434814934 4.2999117299914351 5.3113927915692321 7.8445700835436583 27.634059915319085 4.8799196779727936 13.971188258379696 4.9843891188502303 5.3093862161040288 8.3815826997160894 4.7575312815606576 9.3419387862086278 10.829531414434312
leaf_count=33 25 45 28 200 36 23 374 285 83 38 134 9742 104 97 25 183 178 103 22 20 31 166 19 82 23 25 47 25 34 43
internal_value=0 0.0822101 0.157524 -0.000292742 -0.028855 0.0360044 -0.0580253 -0.0051177 -0.034019 0.00284436 0.0733987 0.000832121 -0.104158 -0.0225926 0.13542 -0.000349685 0.0722226 0.107352 0.16945 0.0173363 0.0569354 0.0301423 -0.0977474 -0.00226811 0.146741 -0.0555519 -0.146314 0.200574 0.233513 0.205963
internal_weight=0 35.6601 23.0556 2790.6 276.17 85.6746 190.495 88.7316 74.5445 2514.43 69.724 2444.7 101.763 34.6748 21.2799 2423.42 62.4127 58.1815 34.4299 23.7516 80.1624 67.5603 11.5425 2361.01 14.1871 12.6045 67.0887 12.6021 15.5561 16.329
internal_count=12273 165 107 12108 1494 445 1049 427 368 10614 336 10278 622 201 93 10185 361 279 156 123 422 366 57 9824 59 58 421 56 62 68
is_linear=0
shrinkage=0.3


Tree=84
num_leaves=29
num_cat=0
split_feature=240 52 183 175 62 246 245 136 252 257 216 229 155 271 24 123 286 10 32 199 270 85 214 91 43 259 18 214
split_gain=2.97422 3.7792 3.19454 3.85698 2.94438 3.55226 3.44304 3.25559 3.07988 4.77805 4.29895 3.99762 3.71129 2.86926 2.75688 2.72104 2.17614 1.76538 1.80503 1.53139 1.40054 1.39757 0.987131 1.03845 0.913372 0.853198 0.185322 0.0156214
threshold=0.17028449475765228 0.013479500077664802 -0.033423500135540941 -0.059617346674036668 -0.073875002562999684 -0.018837103802555228 -0.11442650109529494 -0.089665687595497409 0.049775133813953411 -0.078144361566656204 -0.051957499235868392 0.084823999553918811 0.067251000553369508 0.006146500128497101 -0.048905791179326176 -0.0064115000423043489 0.046246999874711009 0.0046035000123083513 -0.0051065001171081486 -0.055629075439326096 -0.0032049999572335997 -0.037449008824058605 0.010244499891996351 -0.033861704887835894 -0.02118583621002975 -0.022269526545660532 0.011224499903619201 -0.012771571783996367
decision_type=2 2 2 2 2 2 2 2 2 2 2 2 2 2 2 2 2 2 2 2 2 2 2 2 2 2 2 2
left_child=4 2 20 -4 5 15 22 -7 11 13 -11 12 -8 -10 -5 17 -13 -1 -19 -3 -2 -9 26 -24 -23 -17 27 -6
right_child=1 19 3 14 6 7 8 21 9 10 -12 16 -14 -15 -16 25 -18 18 -20 -21 -22 24 23 -25 -26 -27 -28 -29
leaf_value=0.20430254396145844 -0.0032913428227916335 0.29258203107338793 -0.098513950692025759 0.36661416596838198 0.22418355711752289 -0.17627929378104581 -0.0013685981674359411 0.0081931793250745732 -0.1790909589537345 -0.0073567928543247542 -0.066546065587085867 0.20567325540762485 0.080249154029650716 0.12301372223755094 0.067329785988725271 -0.26562807151479439 -0.029728652991664863 -0.18325308229481654 0.14292674686729967 0.097950028208790549 -0.23507677967090446 0.10696313861861728 0.19731902638537085 -0.05442942992886312 0.24488363217463963 -0.04857824926168737 0.13876656975387977 0.25478948733017176
leaf_weight=4.5890727713704127 4.3768627196550369 7.8698579743504524 6.360563442111018 4.7815439999103555 3.2603649515658608 2.6170644098892835 1985.0363721475005 3.8125004228204551 3.1625070646405247 261.1740822866559 191.35168824996799 13.193618364632131 51.440927569754422 26.863644356839359 6.5848885960876951 4.0875225719064474 4.8275887593626967 3.5029027760028848 2.7067793663591138 6.7665648497641069 5.0570062175393087 6.0487213963642796 2.5460372641682625 3.50446957303211 15.133650041185309 2.710982182994484 2.3357303238008171 2.7812238857150069
leaf_count=31 24 28 35 16 28 29 7987 29 21 1712 1347 76 310 155 33 29 35 36 17 34 19 39 15 28 87 28 30 15
internal_value=0 0.0797159 0.0134954 0.0885506 -0.000952066 0.074939 -0.00229677 0.142072 -0.00312783 -0.0246956 -0.0323851 0.00193791 0.000693047 0.0911945 0.19323 -0.0303992 0.142613 0.0632029 -0.0410724 0.202602 -0.127539 0.175404 0.14384 0.0515057 0.2055 -0.179077 0.210529 0.238273
internal_weight=0 41.7973 27.1609 17.727 2596.69 45.2092 2551.48 27.6119 2537.05 482.552 452.526 2054.5 2036.48 30.0262 11.3664 17.5973 18.0212 10.7988 6.20968 14.6364 9.43387 24.9949 14.4278 6.05051 21.1824 6.7985 8.37732 6.04159
internal_count=12273 189 127 84 12084 325 11759 184 11643 3235 3059 8408 8297 176 49 141 111 84 53 62 43 155 116 43 126 57 73 43
is_linear=0
shrinkage=0.3


Tree=85
num_leaves=31
num_cat=0
split_feature=120 33 178 283 281 50 93 174 92 185 179 46 228 260 5 53 272 77 251 228 139 256 145 223 19 199 217 271 205 85
split_gain=3.94983 3.5726 3.95964 5.77768 5.70397 5.086 6.48835 5.50573 4.51713 5.15875 4.19385 4.1098 3.82332 5.19007 3.98238 3.52265 3.56612 3.52678 3.43137 3.47223 3.43866 2.98588 2.8987 2.90608 2.57798 2.42231 1.96623 1.85888 0.981071 0.483674
threshold=-0.10238499939441674 -0.058585001155733993 -0.008061000145971749 0.094554502516984912 0.022997000254690602 1.0000000180025095e-35 0.032935377213149791 -0.017964500002562948 0.11817650124430656 1.0000000180025095e-35 0.030567564307540197 0.053479000926017706 0.022371125596256706 0.028815000317990704 0.051495501771569203 0.086390581284398124 0.077019501477479921 -0.051993792902644796 -0.033120442840799909 -0.065874502062797477 -0.03612586920669663 0.055141998454928356 0.0090654999949037526 -0.0086819999851285978 0.092181000858545317 -0.05397416020874727 0.069915998727083165 -0.0033589999657123999 -0.072023499757051426 -0.053643500432372045
decision_type=2 2 2 2 2 2 2 2 2 2 2 2 2 2 2 2 2 2 2 2 2 2 2 2 2 2 2 2 2 2
left_child=27 15 3 5 8 6 -3 -7 9 -4 11 -5 14 -14 -6 16 18 25 20 -20 -2 -10 -17 24 -24 -18 -12 -1 -29 -30
right_child=1 2 4 10 12 7 -8 -9 21 -11 26 -13 13 -15 -16 22 17 -19 19 -21 -22 -23 23 -25 -26 -27 -28 28 29 -31
leaf_value=0.04588246243441553 -0.084132924289281333 0.028488955973987914 -0.0042795530542237645 0.064338670828557362 -0.1421943481727625 -0.089828105333341679 -0.14705119828234192 0.076228534973238143 -0.13298349657994671 0.042189001077973846 -0.21774076937369455 -0.13896489646024976 0.24052325468779226 -0.16009429407005824 0.14137913145858938 -0.22719990598317508 0.2189489021923246 -0.22500890825440303 0.076880348648219562 -0.07367833849176475 0.11278053971512532 0.16195802831563436 0.11823425362152823 -0.19761212241217549 -0.18245011027553346 -0.14673706922494967 -0.011183837223757188 0.030566445740094504 -0.072485577363557041 -0.23740262781425794
leaf_weight=3.9051693575456765 10.461387172341345 78.961580915376544 1467.9756283944007 28.367519612424076 53.408423285465688 19.347778908908367 24.934987016022205 252.32081299135461 32.510787876322865 251.91277000261471 15.757374854758384 13.07308236369863 6.7678444087505323 5.1063336133956909 4.8629402667284003 14.779746402753515 3.3995882514864206 13.478266766294835 17.952726252377033 59.398736582137644 33.668773915618658 3.4135323050431898 9.2513460079207999 7.7844410119578269 3.551394708454608 3.132370910607281 5.6293357750400892 1.6608637049794204 1.863989386707545 11.323838141746814
leaf_count=29 80 529 5325 206 511 141 184 1559 229 1661 119 111 39 59 29 114 18 156 119 466 207 22 58 65 25 37 39 15 13 108
internal_value=0 -8.42374e-05 0.00312316 0.0287262 -0.00302384 0.0428125 -0.0136404 0.0644023 0.000327552 0.00252672 -0.0554783 0.000203399 -0.0869126 0.068243 -0.118529 -0.041149 -0.0199812 -0.137331 -0.000651563 -0.0387347 0.0661007 -0.104958 -0.125835 -0.0530634 0.0348264 0.0435859 -0.163372 -0.13829 -0.186727 -0.214093
internal_weight=0 2441.21 2264.35 438.392 1825.96 375.565 103.897 271.669 1755.81 1719.89 62.8273 41.4406 70.1455 11.8742 58.2714 176.859 141.492 20.0102 121.482 77.3515 44.1302 35.9243 35.3669 20.5872 12.8027 6.53196 21.3867 18.7539 14.8487 13.1878
internal_count=12273 12108 10763 2888 7875 2413 713 1700 7237 6986 475 317 638 98 540 1345 1083 211 872 585 287 251 262 148 83 55 158 165 136 121
is_linear=0
shrinkage=0.3


Tree=86
num_leaves=31
num_cat=0
split_feature=111 19 214 203 241 17 18 184 204 68 281 142 195 250 51 137 275 255 238 67 169 144 259 207 102 55 252 277 107 103
split_gain=2.69156 2.91056 3.11727 2.78323 4.96858 3.29976 5.13216 4.52278 4.54588 4.16353 4.00363 3.82774 3.80086 3.42447 4.98333 4.85134 3.36275 3.27274 3.20155 4.24858 3.57092 3.1916 2.12921 1.55629 1.19386 1.01793 0.712785 0.221091 0.0327795 0.00500199
threshold=-0.062587570550019775 0.06673730325795782 -0.00093501620012730318 0.12151850014924996 -0.00056750001385804988 0.020339499227702552 0.014030668160929046 -0.0031244999263434999 0.0043965000659226513 -0.073989998549222877 -0.065156500786542837 -0.087915997638200766 0.11298338648978594 0.15360900014638904 0.10340899974107741 -0.04435252862759085 -0.095254871153164652 -0.0050345654212454851 -0.022473500110208895 0.024125435213556069 -0.043061484174413654 -0.012069200635059129 -0.015784500166773748 -0.0098079032508172331 -0.063857499510049778 0.042195445840328173 0.037980883409852305 0.073921240642828803 -0.020154291812982988 0.05723177839591484
decision_type=2 2 2 2 2 2 2 2 2 2 2 2 2 2 2 2 2 2 2 2 2 2 2 2 2 2 2 2 2 2
left_child=1 2 -1 5 18 6 13 8 12 -10 26 23 -7 15 -15 -2 -13 -12 19 20 -5 -6 -4 -8 -23 -20 -9 28 -3 -30
right_child=3 27 22 4 21 7 11 10 9 -11 17 16 -14 14 -16 -17 -18 -19 25 -21 -22 24 -24 -25 -26 -27 -28 -29 29 -31
leaf_value=-0.23358603719087234 -0.032965878198811832 -0.26495594064463696 0.22902605830775902 -0.01387069651423274 0.12539706621557253 -0.092593523004075029 0.079162184795665405 -0.2348209766239569 0.12471819005459144 -0.036304220914212787 -0.026263791499488761 -0.083741585552395761 0.13266948455490982 0.039961537511559307 0.3344194866621748 0.0039035947258804623 0.040118965787857001 0.10344279276992106 0.11475840382442959 -0.19281327864507505 0.24446876212303348 -0.036017759487677548 -0.049447871255320956 0.29620187525068392 -0.2527751581994096 0.28993378573825251 -0.050021979177763673 -0.14033965190659894 -0.21789728788824902 -0.23754244508752731
leaf_weight=3.9385814839042732 399.61534012667835 3.156499406322836 4.6768464446067801 9.1410310938954353 4.6677172705531111 140.88729172106832 5.1879575289785862 5.2401189524680358 20.501564294099808 48.978135944344103 28.718629879876971 21.09728248231113 7.0800932049751273 32.556735061109066 6.1497698798775664 1636.7754193600267 303.825613851659 44.849215161055326 4.2335054129362097 4.8125335425138465 10.176455110311512 3.560080721974372 5.2394981458783159 6.9657708331942541 6.3947560526430598 10.127189548686145 2.9281233064830303 2.5901717981323591 2.9338015392422667 1.9363680258393285
leaf_count=29 2147 16 21 42 24 823 33 39 104 307 182 168 40 145 24 5813 1768 219 19 24 39 16 30 32 38 39 23 23 34 12
internal_value=0 -0.0983596 -0.00779217 0.00157226 0.0695836 0.00023997 0.00392578 -0.029477 -0.0520914 0.0112091 0.0306854 0.0382596 -0.0818149 -0.00165136 0.0867456 -0.00333156 0.0320767 0.0528093 0.126138 0.0593913 0.122223 -0.0792846 0.0818888 0.203556 -0.175258 0.238292 -0.168575 -0.21655 -0.241142 -0.225708
internal_weight=0 24.4718 13.8549 2764.47 53.1133 2711.36 2412.17 299.183 217.447 69.4797 81.7361 337.077 147.967 2075.1 38.7065 2036.39 324.923 73.5678 38.4907 24.13 19.3175 14.6226 9.91634 12.1537 9.95484 14.3607 8.16824 10.6168 8.02667 4.87017
internal_count=12273 165 80 12108 241 11867 10130 1737 1274 411 463 2001 863 8129 169 7960 1936 401 163 105 81 78 51 65 54 58 62 85 62 46
is_linear=0
shrinkage=0.3


Tree=87
num_leaves=31
num_cat=0
split_feature=124 161 125 6 11 84 287 63 240 256 102 13 241 55 75 86 152 299 231 56 156 57 170 214 47 33 39 55 43 102
split_gain=2.74953 5.38928 4.1702 4.0897 4.25956 3.93476 4.57653 3.77804 4.75396 4.33076 4.67999 3.58998 4.00085 3.37011 3.34865 3.31471 3.20703 3.19584 3.58026 3.85515 3.84231 3.53411 3.26788 3.06083 3.45015 2.99279 2.95029 2.94027 4.03901 2.75872
threshold=-0.032551998272538143 -0.076808439245768509 -0.08133799955248823 0.0024907306398799759 -0.077597998082637731 -0.03710446934185789 0.063534747219357604 -0.005636861494923308 0.14749699831008908 -0.046008289936006905 -0.0011502463144014504 -0.091550162665664639 -0.035447999835014295 -0.067086085498055129 0.068087998777627917 -0.037983499467372846 -0.024796359000599223 0.080956500023603425 -0.056065025877320047 -0.086299337984790211 -0.034424999728798845 -0.15832872767369596 0.031729999929666457 -0.016425499692559197 -0.038522367430954836 -0.0057908852956294376 -0.022668453713923443 0.023525499738752804 0.0015544625417859275 -0.016535999253392147
decision_type=2 2 2 2 2 2 2 2 2 2 2 2 2 2 2 2 2 2 2 2 2 2 2 2 2 2 2 2 2 2
left_child=3 5 -3 7 -5 23 13 8 9 -1 -11 -10 -13 -7 -15 26 29 18 19 -4 -20 -19 -23 24 -2 -8 -6 28 -18 -9
right_child=1 2 17 4 15 6 25 16 11 10 -12 12 -14 14 -16 -17 27 21 20 -21 -22 22 -24 -25 -26 -27 -28 -29 -30 -31
leaf_value=-0.13275538383956428 0.13834076643744533 0.094055000677533598 -0.076899020015236755 0.12089160309557666 -0.095348647022239996 0.1841607556413879 0.0075312332182105087 -0.046024790129442127 -0.082523199686961965 -0.0098516593423589854 0.11126623404814945 0.27298115370287995 0.055541501986206672 -0.088674592511190808 0.028167668554880107 -0.097590875193745388 -0.021479455453499764 0.34103667171968832 -0.17480616982618818 0.11139967108499778 -0.00072647003837269717 -0.14739570901705382 0.011774597971687553 -0.13166559265871469 -0.087890936893048541 0.26938994168183722 0.16602341836919135 0.16130368856799412 0.14349979077540284 0.12947458200680528
leaf_weight=21.172030366491526 9.1416924148798007 42.027950250077993 12.316991850733755 12.957607689313589 6.6999407242983571 5.8733105696737757 7.9500654246658087 29.185572762042284 6.988719228655099 179.91245876206085 34.16492790915072 14.125371247529985 16.525932567194104 66.198969381162897 33.120276411063969 59.902486252598464 28.373607343062758 1.7760433889925469 11.486948665231465 47.614433809183538 1734.5904148602858 31.956877928227186 18.231594014912844 65.08667777525261 18.038444568403065 7.7646017000079137 9.2568768896162492 43.272484757937491 25.232291305437684 11.137390300631521
leaf_count=148 59 262 91 88 43 30 51 204 32 1084 198 56 75 562 232 428 187 9 105 280 6392 267 112 568 126 41 54 268 148 73
internal_value=0 -0.0044684 0.000606288 0.0202925 -0.0380721 -0.0496986 -0.0140937 0.032933 0.0125156 -0.003323 0.00947773 0.111506 0.155747 -0.0366529 -0.0497109 -0.0652248 0.0735426 -0.00150755 0.00060296 0.0727009 -0.00187169 -0.0748576 -0.0895751 -0.0963556 -0.0118008 0.136915 0.0562786 0.103133 0.0561763 0.00244895
internal_weight=0 2113.18 1900 498.908 88.8169 213.174 120.907 410.091 272.889 235.249 214.077 37.64 30.6513 105.193 99.3192 75.8593 137.201 1857.97 1806.01 59.9314 1746.08 51.9645 50.1885 92.2668 27.1801 15.7147 15.9568 96.8784 53.6059 40.323
internal_count=12273 9187 7518 3086 613 1669 916 2473 1593 1430 1282 163 131 824 794 525 880 7256 6868 371 6497 388 379 753 185 92 97 603 335 277
is_linear=0
shrinkage=0.3


Tree=88
num_leaves=31
num_cat=0
split_feature=125 150 236 38 204 241 205 49 202 158 203 149 86 114 16 44 155 103 233 293 271 9 141 218 173 65 231 228 259 280
split_gain=3.7639 5.01207 3.93938 4.39402 4.08881 3.79218 4.05677 4.36989 3.55868 3.5311 3.96452 3.38804 3.21901 3.12979 3.16733 3.93072 3.09507 2.72709 2.61176 2.44515 2.17031 1.93649 1.7131 1.45031 1.58359 1.22156 2.15986 0.919415 0.647979 0.207827
threshold=-0.050029499456286396 -0.024671435616199371 0.063193000853061662 -0.084351637664014281 0.097142498940229416 0.047475000843405703 -0.056515604630451875 0.091893501579761463 -0.092381499707698739 -0.038001666694060444 -0.018365830087236922 0.047640500590205158 -0.038544892440217811 -0.061261499300599043 -0.057377500459551742 0.020767347302906931 0.016456499695777855 -0.044319499284028945 -0.036123499274253797 -0.0010630000033415496 -0.051394000649452147 -0.053521657002930066 0.055006500333547557 0.046147477244485278 -0.05801500007510179 0.037857500836253104 -0.056065025877320047 -0.081241499632596886 -0.058566899414983373 -0.10576573952443739
decision_type=2 2 2 2 2 2 2 2 2 2 2 2 2 2 2 2 2 2 2 2 2 2 2 2 2 2 2 2 2 2
left_child=1 20 4 -4 5 6 8 -8 -2 10 12 13 -5 22 15 -15 -16 -7 -12 -19 -1 -13 28 24 -11 -22 -27 -28 -3 -23
right_child=2 11 3 9 -6 17 7 -9 -10 23 18 21 -14 14 16 -17 -18 19 -20 -21 25 29 -24 -25 -26 26 27 -29 -30 -31
leaf_value=0.16213815008676671 -0.15215442363766221 0.016391442477447907 0.23053911817449749 -0.22558944284899063 -0.22245020978633043 -0.17976295978182011 0.0027691783040722159 -0.072909445350123087 0.068234049376947215 -0.080072301445660451 0.10810240235661882 0.077687942762154238 0.14833202807935503 0.13134065414733273 0.021766961431933084 -0.18656546468482485 -0.12440836937592277 -0.023466571944005206 -0.14656544910870203 0.15372732515145066 -0.23025464925844094 -0.085602187988547476 0.11840819144100645 0.0541413940814299 -0.2433096221354909 0.10608162737234592 0.040564393262100824 -0.22207754019935855 -0.22482745376251953 -0.22287397303769227
leaf_weight=1.8133071716874862 6.9856705833226433 1.1325667370110739 4.2115912418812504 2.4603530569002041 7.1294279810972503 3.0639545479789367 1955.8155309360009 71.168711546109989 117.62969608884305 7.8593881851993563 4.3768570758402339 2.5786621617153278 13.129707940854129 28.727544380351901 42.594613929511979 3.9860902307555071 18.786471456522122 9.0440142136067134 21.080045789480213 31.147893839050084 16.237700023222718 1.0967366527765978 1.83838840574026 2.3789135701954356 16.743117002770305 3.2219316954724482 1.4265135372988869 7.5402681371197096 8.7112139794044179 10.455636137630789
leaf_count=13 57 12 19 23 78 29 8351 611 726 69 38 23 94 246 405 45 203 71 156 216 193 19 13 22 128 34 19 109 105 146
internal_value=0 -0.0469298 0.00211176 -0.0668228 0.00437328 0.00511006 0.00334197 0.000112053 0.0558795 -0.0852323 -0.0298178 -0.0194043 0.0893214 -0.000972676 0.0172102 0.0926044 -0.0229719 0.0930571 -0.10278 0.113855 -0.156075 -0.157373 -0.147428 -0.169535 -0.191163 -0.176374 -0.104594 -0.180294 -0.197074 -0.209842
internal_weight=0 150.148 2274.22 72.24 2201.98 2194.86 2151.6 2026.98 124.615 68.0284 41.047 119.908 15.5901 105.777 94.0947 32.7136 61.3811 43.2559 25.4569 40.1919 30.2397 14.131 11.6822 26.9814 24.6025 28.4264 12.1887 8.96678 9.84378 11.5524
internal_count=12273 1585 10688 549 10139 10061 9745 8962 783 530 311 1217 117 1029 899 291 608 316 194 287 368 188 130 219 197 355 162 128 117 165
is_linear=0
shrinkage=0.3


Tree=89
num_leaves=31
num_cat=0
split_feature=115 3 220 27 113 92 24 220 126 0 45 75 35 295 209 291 137 66 287 90 111 81 103 78 116 238 261 266 207 256
split_gain=2.53154 3.3165 3.74165 3.00027 3.69829 3.14034 3.47944 3.04918 2.93882 4.40881 4.49029 3.91302 3.69082 4.70005 3.89946 3.68255 4.1391 3.63978 3.51797 3.65807 3.31005 3.28723 4.0288 3.0376 3.00467 2.99143 2.76256 2.62057 2.60088 2.59549
threshold=-0.078891010904456119 0.019742177084827329 -0.058946000412106438 0.045594498515129055 0.063018500804901109 0.054150947355652554 -0.057028999552130644 0.05593554758096396 -0.0023570000194012494 0.047370667779250322 -0.056655000895261695 0.040304141524841387 -0.090595997869968387 -0.050217000767588539 0.058744499459862702 0.016110000200569605 -0.072960000485181739 0.055718999356031355 0.076540999114513356 0.057601999491453157 0.033853000029921511 -0.041498001664876889 0.0058428214287371671 0.067726175975797651 -0.0050166994102487971 -0.073754500597715281 0.03682349994778631 -0.042207999154925298 0.059239000082015957 -0.043993613369220239
decision_type=2 2 2 2 2 2 2 2 2 2 2 2 2 2 2 2 2 2 2 2 2 2 2 2 2 2 2 2 2 2
left_child=1 3 -3 7 5 -5 -7 -1 9 10 18 20 13 -10 26 17 -17 -12 19 -2 -11 22 24 25 -14 -23 -15 -16 -25 -4
right_child=8 2 29 4 -6 6 -8 -9 12 11 15 -13 21 14 27 16 -18 -19 -20 -21 -22 23 -24 28 -26 -27 -28 -29 -30 -31
leaf_value=0.14009200981888878 -0.026014242004466923 0.19380626824845501 0.12239557888770325 0.15126937930806142 -0.18882176413161303 0.11319169901423426 -0.13301850405555637 -0.064352598643621847 -0.13911843135086338 0.091947649371293516 -0.11357535861056343 0.1307700087762334 0.087371632702466825 -0.1613054716892354 0.312093442477199 -0.14715335784239375 0.035531565867560413 0.14833227002643279 0.22767681754630362 0.21367121271588102 -0.18516102804577902 -0.033464255130906367 0.12110016209246273 0.21643509576013611 -0.1479304053575265 0.0015131757499296471 0.098150533685501973 0.058216879520505915 -0.097055117932111162 -0.11928496057959985
leaf_weight=49.815476121380925 60.503545645624399 5.270447874441742 4.7639062851667431 15.225546758621929 7.1343957688659421 9.0396407768130285 12.054548826068642 7.5622883755713692 7.0806876402348271 7.1331670880317679 110.97756278701127 26.275141332298517 8.8081525377929228 4.6866873856633928 11.860874153673651 14.911083767190574 44.394491078332067 4.99026134610176 6.5122956857085219 6.3303403817117205 8.5052656568586809 247.86222837818787 42.045728415250778 10.045817460864781 10.9633004181087 1962.0785619290546 17.426987918093801 5.2918980456888667 3.1220999415963879 24.915777383372188
leaf_count=265 450 29 26 80 38 38 74 49 57 38 692 137 51 27 41 107 263 29 32 28 58 1454 253 49 81 7543 102 30 25 127
internal_value=0 0.0405084 -0.0391286 0.068112 0.00864737 0.0474368 -0.0275083 0.113147 -0.00150205 -0.0299536 -0.0451274 0.060053 0.0020437 0.0858565 0.126425 -0.0712082 -0.0104005 -0.102305 0.0171973 -0.00331183 -0.0587633 0.000343652 0.0685816 -0.00155382 -0.0431037 -0.00240982 0.0431624 0.233769 0.142107 -0.0804927
internal_weight=0 135.782 34.9501 100.832 43.4541 36.3197 21.0942 57.3778 2621.81 290.533 248.62 41.9136 2331.27 46.3471 39.2664 175.273 59.3056 115.968 73.3462 66.8339 15.6384 2284.93 61.8172 2223.11 19.7715 2209.94 22.1137 17.1528 13.1679 29.6797
internal_count=12273 726 182 544 230 192 112 314 11547 1834 1601 233 9713 257 200 1091 370 721 510 478 96 9456 385 9071 132 8997 129 71 74 153
is_linear=0
shrinkage=0.3


Tree=90
num_leaves=31
num_cat=0
split_feature=119 196 57 86 24 285 133 243 95 262 231 201 168 223 96 59 164 238 101 62 254 110 231 246 222 284 0 70 28 89
split_gain=2.47916 4.12969 2.7164 3.11876 2.69585 4.3483 4.02631 3.89774 3.56026 3.68081 4.91276 4.83529 3.50592 3.20856 4.02481 3.06586 3.42671 3.01459 3.38841 2.98693 2.82664 2.79304 2.76335 3.679 3.14607 1.80904 1.73549 1.65209 1.38093 2.48256
threshold=-0.14942399412393562 -0.024269500747322946 -0.087060996548159061 0.015064210997610341 1.0000000180025095e-35 -0.0096600005338116982 -0.066791497170925085 -0.12811479763101438 -0.054790999740362091 -0.038631605613199498 -0.045336908691580059 -0.020748817428173829 0.060018559543585037 1.0000000180025095e-35 0.060434438756954999 0.09382750093936916 -0.055398499593138646 -0.010908626039788276 -0.0029748342176196133 0.040838500484824104 0.021587785043263124 -0.030417500063776897 -0.020995999686419898 -0.05878217245572364 -0.088723499327897928 0.075954500585794407 0.03464900143444536 -0.030025666348179266 -0.04612155582022761 0.041512667318552784
decision_type=2 2 2 2 2 2 2 2 2 2 2 2 2 2 2 2 2 2 2 2 2 2 2 2 2 2 2 2 2 2
left_child=1 -1 3 -3 7 13 21 12 17 11 -11 -10 26 22 19 16 -8 18 -9 -15 -19 -7 23 -6 -24 -23 -2 -16 29 -4
right_child=4 2 28 -5 5 6 15 8 9 10 -12 -13 -14 14 27 -17 -18 20 -20 -21 -22 25 24 -25 -26 -27 -28 -29 -30 -31
leaf_value=-0.13593245854878286 0.25961859583766889 0.15368766946971046 0.21747440153921047 -0.1801413197115159 0.19154289293078927 -0.20094663411351671 0.028139793242478593 0.12034875148257258 0.012346446664986873 0.069774199116581809 0.0004701794289285603 -0.065298221294600695 -0.068487390438902132 0.1024499848176646 -0.26268731329792833 0.16391170285510939 -0.13556587104254689 0.015539922373185249 -0.062003605910925935 -0.059094560620536155 -0.28320986125257358 0.1842286934286903 0.14216607422377442 -0.013515651240129297 -0.077320851920285691 -0.035309941645376583 0.058483554972885182 -0.019531603838455005 0.26237482290646386 -0.12623523429731001
leaf_weight=6.6203654557466498 11.662311171181505 5.4867767654359358 5.5743054049089569 4.6560637950897217 9.8500237241387349 3.1717443931847837 13.561100307852028 55.886090642772615 126.4802944152616 97.268928302219138 1717.6382084221113 168.1498641455546 6.2738684583455315 56.086199970915914 4.5948549099266529 3.8125121258199206 76.003507478162646 11.964940235950051 10.971385240554808 12.61869652289897 3.7417233251035205 9.8488666545599681 6.3383262678980818 39.259872836060822 80.843269129749388 5.1416040956974021 5.771679811179637 5.5553239993751031 10.943721022456883 2.8625090420246124
leaf_count=31 53 31 38 22 64 27 88 361 809 597 6060 1064 38 382 27 23 784 80 69 115 15 61 44 343 872 31 27 40 55 22
internal_value=0 0.0782114 0.126231 0.000443708 -0.000915133 -0.0263565 -0.0744259 0.00283579 0.00152728 -0.000864571 0.00418449 -0.0319665 0.123825 -0.00143566 0.046729 -0.0995636 -0.110779 0.0626398 0.0904245 0.0727799 -0.0556298 0.0548139 -0.0293026 0.0276132 -0.0613636 0.108929 0.193031 -0.129605 0.192063 0.100858
internal_weight=0 36.1437 29.5234 10.1428 2542.5 326.686 111.539 2215.81 2192.1 2109.54 1814.91 294.63 23.7079 215.147 78.8551 93.3771 89.5646 82.5641 66.8575 68.7049 15.7067 18.1622 136.291 49.1099 87.1816 14.9905 17.434 10.1502 19.3805 8.43681
internal_count=12273 199 168 53 12074 2901 1014 9173 9055 8530 6657 1873 118 1887 564 895 872 525 430 497 95 119 1323 407 916 92 80 67 115 60
is_linear=0
shrinkage=0.3


Tree=91
num_leaves=31
num_cat=0
split_feature=67 244 238 193 9 155 40 150 173 77 163 136 199 294 50 28 249 6 232 147 104 119 101 183 56 213 203 265 197 19
split_gain=3.33987 3.54191 3.39945 4.15676 3.23268 4.56086 4.16392 3.70311 3.50829 3.3785 3.01604 2.91002 2.86788 2.66988 2.66757 2.60876 2.46879 2.42704 2.3803 2.36896 2.32105 2.56091 2.14771 1.73514 1.66697 1.16044 1.01083 0.795814 0.68243 0.575576
threshold=-0.054734500125050496 0.027613500133156752 -0.015990233973311858 -0.057775447319847288 -0.074580659009844494 -0.063657999038696234 0.12230786810229879 -0.056187868312000781 0.054243499413132661 0.070983998477458912 -0.0075432062357721277 -0.0042737503534808633 -0.016583606061795063 -0.041676624557752597 0.023593751561409079 -0.10939759438321704 -0.020689145901078416 -0.14481906183792095 0.10048250108957286 -0.096230000257491996 0.023537375731804717 0.014119999948889001 -0.085257496684789588 -0.052696162392534281 -0.095872824973061571 -0.0084910268952972275 0.02108219162161128 -0.011600887280486272 0.013321000151336151 -1.0000000180025095e-35
decision_type=2 2 2 2 2 2 2 2 2 2 2 2 2 2 2 2 2 2 2 2 2 2 2 2 2 2 2 2 2 2
left_child=2 4 3 11 5 -2 7 14 19 -9 13 23 16 26 -6 -14 -5 -17 24 -7 -3 27 -12 -1 -8 -15 -4 -22 -27 -24
right_child=1 20 10 12 6 8 18 9 -10 -11 22 -13 15 25 -16 17 -18 -19 -20 -21 21 -23 29 -25 -26 28 -28 -29 -30 -31
leaf_value=0.13077745595698892 -0.25387208487048618 -0.212699330273736 0.068307430698155716 0.053915318920010759 -0.024144133950658279 -0.11721701949762067 0.082539292703438932 0.0050607143957390188 -0.20291004453769723 -0.096301562992192807 0.098344773647233 0.23974011180765917 0.13371914722433292 -0.0012592580003149469 -0.18814108724978362 0.21371500771987076 -0.21704387876512049 -0.15416446129563841 0.089104920834779125 0.13764876489797209 0.030034136496040316 0.18490829417339855 0.04277465335814977 -0.22418304946737258 -0.20213436708053986 0.10444921345111859 -0.22323524157584604 -0.23280996218709205 0.25003817865890543 -0.21402029732261696
leaf_weight=2.0797872357070446 3.5498871412128201 11.443541110260414 1.7450587470084453 3.3897363273426917 21.449718067189679 3.5476499013602725 2.0805373722687426 2134.6681782625383 3.2651536595076314 30.010748016647995 3.4349253657273948 5.0526975914835912 5.4620531238615539 3.4995802603662041 15.289570395369081 1.8418020028620965 28.230340000940487 13.050560047384348 3.8126628119498482 43.881462374236435 1.5193902142345903 3.6289546396583319 0.88369618635624636 3.0673419311642647 16.801652825903147 4.6817015381529909 2.7681910321116447 3.2633865755051357 7.603893892839551 7.0727440309710783
leaf_count=20 32 105 16 28 195 25 14 9995 22 276 36 28 35 24 157 15 276 127 23 354 12 23 9 35 142 42 33 38 40 96
internal_value=0 0.00139985 -0.0563338 -0.0970934 0.00249929 0.0748585 0.000734515 0.00205249 0.097878 0.00365544 0.0236352 0.0780089 -0.131457 0.0929678 -0.0923938 -0.0436235 -0.187997 -0.108667 -0.12711 0.118585 -0.124759 -0.00512279 -0.0999094 -0.0807551 -0.170768 0.151145 -0.11051 -0.14931 0.194558 -0.185499
internal_weight=0 2298.21 93.8641 62.1743 2278.36 54.2442 2224.11 2201.42 50.6943 2164.68 31.6898 10.1998 51.9745 20.2984 36.7393 20.3544 31.6201 14.8924 22.6949 47.4291 19.8553 8.41173 11.3914 5.14713 18.8822 15.7852 4.51325 4.78278 12.2856 7.95644
internal_count=12273 11413 860 564 11235 433 10802 10623 401 10271 296 83 481 155 352 177 304 142 179 379 178 73 141 55 156 106 49 50 82 105
is_linear=0
shrinkage=0.3


Tree=92
num_leaves=31
num_cat=0
split_feature=267 275 18 216 243 159 278 173 198 278 242 118 194 161 245 31 210 193 2 43 161 63 167 13 108 16 56 90 179 235
split_gain=2.438 2.89506 3.07117 3.16693 2.51104 3.22339 3.06756 4.03749 3.93789 3.61544 3.10177 2.98861 2.93776 2.89115 3.09703 2.8458 2.34311 2.12511 2.01724 1.99207 1.97849 1.84331 3.05478 1.82999 1.76201 1.7469 1.65757 1.17639 0.997602 1.07364
threshold=-0.084764000028371783 0.042322000488638857 0.016281997196768688 -0.052391501143574638 0.061928499490022611 -0.017270999960601299 0.034979000687599154 0.028563000261783555 0.096821002662181813 0.032044500112533507 0.024636000394821101 0.042445501312613453 0.011012999806553103 0.0044232831157104855 -0.061659017055416772 -0.065187901680273816 -0.014665696004899026 -0.040793102756443288 0.088004499673843314 -0.063981499522924382 -0.046265663650313323 -0.0021593961704211967 0.049812499433755805 0.010516191736528102 -0.015690499916672696 -0.06636250019073478 -0.027511499822139695 -0.028700000606477195 0.039565858479080167 0.0028549999697133504
decision_type=2 2 2 2 2 2 2 2 2 2 2 2 2 2 2 2 2 2 2 2 2 2 2 2 2 2 2 2 2 2
left_child=1 2 3 17 6 26 9 8 12 13 -10 20 -8 15 -15 -2 27 -1 21 -11 -9 22 -7 -19 -13 -21 -6 -5 29 -4
right_child=4 -3 28 16 5 18 7 11 10 19 -12 24 -14 14 -16 -17 -18 23 -20 25 -22 -23 -24 -25 -26 -27 -28 -29 -30 -31
leaf_value=0.16286841913183464 0.03591075997373129 -0.15169519382223939 0.011017943087567173 0.046526887309612151 0.20590904892160289 -0.15988902030524085 0.060045688449696877 -0.18952438344778255 -0.14822894335351178 0.083330276105305731 0.16325559713737117 0.21496058565973955 0.0012188350905278163 -0.21349395600318277 -0.035530762378582603 -0.0038707091524172016 -0.093841083427050845 -0.22343426277080572 0.17084751386462474 0.010696289441686466 -0.016104316772998596 -0.1914994226924395 0.090008191190933493 0.046818017566433938 -0.067185331055655509 -0.18372101257224874 -0.040228630619948261 0.23715266652773892 0.3148066159503044 0.21142876606621061
leaf_weight=2.6372441947460166 176.4532769639045 4.9776351377367964 3.5108579285442811 4.2767734862864026 5.0074110478162766 10.644544474780558 237.30247266404331 16.045257551595569 16.801632507704202 4.1291240993887213 3.4717976562678805 4.3103308454155922 112.68178331525996 10.729088793508707 48.971334708854556 1954.1694572083652 3.6796394363045719 7.1726935431361181 2.21138572692871 5.3013343885540989 9.3832062501460332 18.277776809409264 7.5075652189552775 3.2890813816338778 3.703809052705763 19.311583884060383 4.8448560256510955 9.1410267129540443 4.5670550726354113 7.6433249041438103
leaf_count=16 960 32 20 27 24 85 1301 110 110 25 18 23 658 116 306 7712 24 52 15 27 71 183 49 27 18 125 39 40 20 40
internal_value=0 0.0656199 0.0891776 0.0331956 -0.00066236 -0.0683062 0.000588338 0.0246427 0.0336593 -0.00378772 -0.0948876 -0.0751846 0.0411057 -0.00240057 -0.0675135 -0.000576099 0.118234 -0.0778007 -0.107361 -0.109497 -0.125532 -0.124249 -0.0565336 -0.13847 0.0845642 -0.141846 0.0848708 0.176393 0.196705 0.148348
internal_weight=0 50.8953 45.9177 30.1965 2671.26 48.4935 2622.77 403.7 370.258 2219.07 20.2734 33.4426 349.984 2190.32 59.7004 2130.62 17.0974 13.099 38.6413 28.742 25.4285 36.4299 18.1521 10.4618 8.01414 24.6129 9.85227 13.4178 15.7212 11.1542
internal_count=12273 298 266 186 11975 395 11580 2309 2087 9271 128 222 1959 9094 422 8672 91 95 332 177 181 317 134 79 41 152 63 67 80 60
is_linear=0
shrinkage=0.3


Tree=93
num_leaves=25
num_cat=0
split_feature=16 20 108 8 143 166 261 101 125 63 85 238 135 81 237 76 137 138 242 92 170 43 275 253
split_gain=2.37251 3.64056 2.40577 3.18952 3.26726 2.90504 2.96694 3.07782 2.98413 3.77485 3.71471 2.55544 2.84192 2.43329 2.75327 2.62516 2.26341 2.15543 1.84157 1.69933 1.56426 0.911331 0.602017 0.0399595
threshold=-0.11617549881339069 0.015422999858856151 0.05066900141537186 -0.036331504186360469 0.033788498491048757 0.07574849948287006 -0.039403500035405097 -0.014825500082224599 0.014333533724718244 0.022597514788220432 0.010381000116467453 0.038184499368071508 0.10722499713301657 0.067189998924732167 -0.0038710000226273495 -0.011896499898284599 -0.015552380377143871 0.056183082606035009 -0.04356549866497509 0.016347116599715997 0.01089126232022827 0.0024519537337224376 -0.01840273403365161 0.024768000468611655
decision_type=2 2 2 2 2 2 2 2 2 2 2 2 2 2 2 2 2 2 2 2 2 2 2 2
left_child=1 18 5 4 -4 6 7 22 9 -8 -10 12 17 14 16 -15 -5 -7 -1 -16 23 -3 -2 -20
right_child=2 21 3 13 -6 11 8 -9 10 -11 -12 -13 -14 15 19 -17 -18 -19 20 -21 -22 -23 -24 -25
leaf_value=0.22669364318223109 0.33050437614861017 0.28476703503948142 -0.09047561396664118 0.018340691203190752 0.33795877418377834 0.20580089300026061 -0.00027022838548603276 -0.059063123633186387 -0.05931592656866326 0.055733734019319178 0.013246777090313046 -0.15462856753706786 -0.14403641559542116 0.19418516412591974 -0.075150349971260341 -0.12853626036893681 -0.20849240422081522 0.0069102482141662758 -0.23719974738213084 -0.22729456227077507 0.039832288436052472 0.10444548661672191 0.17332344156724244 -0.1763628370412586
leaf_weight=2.0974468514323226 3.9542981814593068 7.064391687512396 2.9273557234555474 19.046682313550267 3.5383044686168432 18.744867596309639 2032.7101543983445 4.5981950443238011 162.35003840224817 114.41598372906446 104.27829093812034 3.4145648255944243 3.253604349680244 5.573762521147728 10.878853392787283 3.8255026508122665 4.9979554712772325 6.6414989382028571 2.7686563925817627 16.826070087496191 4.3492375314235687 3.9233530822675675 4.9238327182829371 1.4971208521164951
leaf_count=10 16 37 27 148 15 121 8162 33 1513 842 729 17 31 29 89 27 52 49 25 173 34 27 35 32
internal_value=0 0.0990516 -0.000569272 -0.0563956 0.143983 0.000965592 -0.000219309 0.140153 -0.00100303 0.00271411 -0.0309367 0.0906885 0.119936 -0.0775829 -0.103087 0.0628375 -0.0288092 0.153768 -0.025395 -0.167552 -0.0867696 0.22038 0.243331 -0.215848
internal_weight=0 21.7002 2526.9 67.6145 6.46566 2459.29 2427.23 13.4763 2413.75 2147.13 266.628 32.0545 28.64 61.1488 51.7496 9.39927 24.0446 25.3864 10.7125 27.7049 8.61501 10.9877 8.87813 4.26578
internal_count=12273 165 12108 560 42 11548 11330 84 11246 9004 2242 218 201 518 462 56 200 170 101 262 91 64 51 57
is_linear=0
shrinkage=0.3


Tree=94
num_leaves=30
num_cat=0
split_feature=180 242 76 61 295 171 53 124 240 106 59 255 191 142 70 161 198 29 260 96 152 137 52 245 195 278 259 79 91
split_gain=2.94173 3.2418 2.8744 3.80471 3.30532 3.22344 4.34887 4.30909 5.03875 4.14979 4.11438 3.33574 2.60971 2.39455 2.25702 2.24358 1.98713 1.64131 1.40435 1.33934 1.29539 1.08619 0.728661 0.63219 0.0989395 0.0357962 0.0315649 0.0191678 0.00189574
threshold=-0.069302499294280936 -0.11012400314211838 0.041691001504659604 0.025241999886929954 -0.028554000891745045 -0.0524807680996719 0.089702221619484726 -0.054332999512553139 0.16242250055074689 0.035894500091671909 0.0078004999086260006 0.035341000184416708 0.028261500410735604 -0.017966485598215672 -0.071598500013351385 -0.082338497042655875 -1.0000000180025095e-35 0.053230501711368554 0.018779499456286351 0.045290200305315283 -0.032908499240875196 -0.035549821679567294 -0.065684257831725781 -0.076421202261487756 -0.013453000225126698 0.047098999843001359 -0.038689000532030997 -0.043202874214920112 0.00038923453494048207
decision_type=2 2 2 2 2 2 2 2 2 2 2 2 2 2 2 2 2 2 2 2 2 2 2 2 2 2 2 2 2
left_child=13 22 5 14 16 7 9 11 -9 -7 -8 -3 -6 15 20 17 -5 -1 -16 -17 -4 23 -2 -15 -25 27 -26 -24 -29
right_child=1 2 3 4 12 6 10 8 -10 -11 -12 -13 -14 21 18 19 -18 -19 -20 -21 -22 -23 25 24 26 -27 -28 28 -30
leaf_value=0.2367767181001259 0.0058665551834333352 -0.090139830739291466 -0.13392200267492349 -0.0084513996622684259 0.089063170964712515 -0.0027685402063206046 -0.0096901313192708487 0.057767952376342704 -0.18696418571586818 0.041869392924033536 -0.12521035121134735 0.14105236896914938 -0.17216356877043515 -0.00758301441972153 -0.019679428226302875 -0.24506510259802822 -0.22644985543597057 -0.044419914119144685 -0.19971059592339907 0.016254884730563454 0.1786334744931545 -0.017620555105063461 -0.25928521194511389 -0.15641277600337866 -0.26171490393771907 -0.17667138557492187 -0.22526631365054164 -0.21166374259792237 -0.22486401368167419
leaf_weight=4.2097996231168509 1.5523876133374868 36.057394789066166 2.008878767490387 7.6663134787231684 27.070205313735645 1643.1909886215581 66.296198818366975 225.04554275376722 7.835137913003563 211.57357859192416 47.721665492514148 6.6531736934557548 3.9432829702273002 1.3359994110651303 4.7174788156989989 3.7747684177011234 7.3916329839266819 3.3585690818727016 22.492994907312095 3.3156504919752479 2.9398883283138266 3.5370832760818329 1.5448422997724254 1.6608713706955303 2.918035896494982 1.3653930025175212 8.003438550978899 1.4742629365064193 2.9156544439028949
leaf_count=25 20 275 24 67 218 6577 406 1714 58 1565 391 48 54 24 52 34 108 23 267 31 23 32 15 20 18 29 90 31 34
internal_value=0 0.000420175 0.00111081 -0.0554176 -0.000142315 0.00308118 -0.00117253 0.033469 0.0495341 0.00232332 -0.0580406 -0.0541262 0.0558489 -0.0910005 -0.134605 -0.00160813 -0.115462 0.111992 -0.168499 -0.122866 0.0517562 -0.166071 -0.180778 -0.203797 -0.224631 -0.220469 -0.235005 -0.230545 -0.220431
internal_weight=0 2331.46 2322.6 78.2307 46.0714 2244.37 1968.78 275.591 232.881 1854.76 114.018 42.7106 31.0135 32.1142 32.1592 14.6588 15.0579 7.56837 27.2105 7.09042 4.94877 17.4554 8.85254 13.9183 12.5823 7.30015 10.9215 5.93476 4.38992
internal_count=12273 11976 11847 813 447 11034 8939 2095 1772 8142 797 323 272 297 366 113 175 48 319 65 47 184 129 152 128 109 108 80 65
is_linear=0
shrinkage=0.3


Tree=95
num_leaves=31
num_cat=0
split_feature=111 199 165 207 2 291 201 237 114 11 104 16 21 39 110 192 255 259 276 19 122 123 227 55 173 161 30 209 120 198
split_gain=2.09326 2.31998 2.45283 2.63194 3.36709 3.14111 2.21276 5.14476 4.05822 4.00125 4.84942 3.76258 3.84964 3.73902 3.66329 4.58321 3.94857 3.25296 2.9185 2.09313 2.19861 1.82155 1.64816 1.36658 0.999865 0.821217 0.452209 0.377188 0.0689652 0.0162077
threshold=-0.066464915383875459 0.042695499956607805 0.031036774105282067 0.039591001346707309 -0.074235498905181843 0.049164500087499556 -0.020748817428173829 0.032183144515271871 0.026415990000426565 0.066020082085031032 -0.0052330000326036999 -0.049250001087784691 0.0030821757126267431 -0.13062799721956248 0.050265500321984256 -0.036009000614285393 -0.0013668764811068485 -0.0054489061904442046 -0.052585501223802546 0.067202500998973805 -0.04432650096714489 -0.0023140000412239996 -0.050878042780861076 -0.0019239999819546498 -0.019294999539852049 -0.015872561123175258 -0.038565000519156394 0.0065180000383406505 -0.042974499985575641 0.016038999892771206
decision_type=2 2 2 2 2 2 2 2 2 2 2 2 2 2 2 2 2 2 2 2 2 2 2 2 2 2 2 2 2 2
left_child=19 6 3 4 24 -6 8 13 11 10 -9 12 -2 26 15 -10 -16 -13 -15 20 27 25 -11 -4 -3 -5 -8 -1 -21 -30
right_child=1 2 23 21 5 -7 7 9 14 22 -12 17 -14 18 16 -17 -18 -19 -20 28 -22 -23 -24 -25 -26 -27 -28 -29 29 -31
leaf_value=-0.062233381840664605 -0.096354214028597479 -0.25013166836768713 0.28378718884880816 -0.21298403527584267 0.11879263420553249 -0.13029924038864493 -0.12297118232060526 0.13036031237447299 -0.082799509655082718 -0.22632477300255996 0.01201154963893011 -0.038296395831084018 0.023944923072730284 0.047398192427797754 0.014018568753399361 0.039341137977864198 0.20422046629391294 0.023701559491544663 -0.0018245438593741785 -0.17188719568762209 0.12713045972518361 0.10113698316606999 0.0031891020365127161 0.071911014276510143 -0.0042479650241167679 -0.011622521716153149 -0.26390837889465146 -0.23017047350199513 -0.25658700959509811 -0.22405602399432101
leaf_weight=2.1679653450846672 112.87820356991142 3.5629602484405041 5.8287150077521801 6.8530528862029305 39.328061843290925 5.1532544530928126 3.7143069952726364 67.915278507396579 41.14438777603209 5.584277031943202 57.578254478983581 180.37956277793273 30.38523895572871 115.720269119367 20.731234960258007 84.302729299291968 18.669392397627234 131.83562179142609 1716.1788074513897 1.9415761390700943 5.0391229949891585 3.2571016401052466 5.6803378500044328 5.1698162481188756 2.5563036743551484 2.4833901990205041 4.5698372758924943 2.7061396632343531 2.3304929435253126 3.373867710120976
leaf_count=18 732 28 24 56 234 37 32 386 268 32 369 1090 205 551 133 551 98 818 6348 22 22 16 32 37 18 16 30 22 12 36
internal_value=0 0.0011367 0.0534445 0.0306881 0.0612315 0.0899348 -0.000357506 0.00454755 -0.0159896 0.0606861 0.0760602 -0.0305874 -0.0708396 0.000375461 0.0243444 -0.000718788 0.104143 -0.0121172 0.00128484 -0.102784 -0.0118193 -0.0920345 -0.110589 0.184196 -0.147415 -0.159424 -0.200717 -0.155473 -0.220724 -0.237346
internal_weight=0 2671.46 74.1927 63.1941 50.6006 44.4813 2597.27 1976.94 620.326 136.758 125.494 455.479 143.263 1840.18 164.848 125.447 39.4006 312.215 1831.9 17.5592 9.91323 12.5935 11.2646 10.9985 6.11926 9.33644 8.28414 4.87411 7.64594 5.70436
internal_count=12273 12141 466 405 317 271 11675 7780 3895 819 755 2845 937 6961 1050 819 231 1908 6899 132 62 88 64 61 46 72 62 40 70 48
is_linear=0
shrinkage=0.3


Tree=96
num_leaves=31
num_cat=0
split_feature=82 74 109 45 242 54 188 272 34 21 267 55 137 289 212 128 68 254 245 28 184 13 179 167 271 47 133 171 227 43
split_gain=2.27887 3.16763 3.76204 3.70995 3.37625 2.99346 2.92539 4.41685 3.46223 3.13864 3.12211 3.8679 3.98762 3.14396 3.04485 2.88129 2.83599 2.82714 2.77469 3.25819 2.58778 3.34264 3.11472 2.51766 2.51701 2.50453 2.5036 2.43522 2.34446 2.22927
threshold=0.05490233251784566 -0.11016849800944324 0.077765054272419684 -0.0041413592869969972 -0.0084883008575845804 -0.024513499811291646 -0.0055074999108910491 0.07755900174379346 0.051334758177352217 -0.12618250399827952 0.026597806468849416 0.077252499759197221 -0.10560150071978565 -0.06461549922823899 -0.06000272739401051 0.15347500145435328 -0.10216250270605078 -0.076007937576643772 -0.018347499892115548 0.014936000108718801 0.017844588624242128 -0.07851292363207775 -0.021077500656247097 0.054287999582874842 0.11228297094487151 0.046122498810291256 0.011304500047117453 0.033135071758565678 -0.062282999977469396 0.032732998952269506
decision_type=2 2 2 2 2 2 2 2 2 2 2 2 2 2 2 2 2 2 2 2 2 2 2 2 2 2 2 2 2 2
left_child=6 3 5 24 -4 28 7 10 14 -8 11 13 -13 -1 -9 20 -7 29 23 -20 22 -22 -11 -12 25 -2 -16 -18 -3 -6
right_child=1 2 4 -5 17 16 9 8 -10 15 18 12 -14 -15 26 -17 27 -19 19 -21 21 -23 -24 -25 -26 -27 -28 -29 -30 -31
leaf_value=0.03197683247681158 -0.15772242627858915 0.079165205191755808 0.19975315610751687 0.085288199058611056 -0.17434995386471919 0.16904681094242227 0.18650951375736824 -0.15637796865181294 0.16089533149672947 0.049581125321685821 0.15595934838205411 0.2237883484546456 -0.037213138647733651 -0.099863998578973004 0.061296786051130633 0.15515242476470695 0.0017517285202657317 0.11787526876812818 -0.10112388938108544 0.20483924792427954 0.06662499395577097 -0.094832320930611405 -0.0010041489815801428 -0.028636735405224444 0.16233695910518464 0.13299816804922124 -0.12791910725486461 0.16088221408127137 -0.10058803810505808 0.15770810837263544
leaf_weight=18.385723137762398 25.073336591012783 8.7595477160066348 23.752172939479351 14.413566805422304 6.9769373461604136 14.867270354181526 8.2339271968230587 9.2617864115163666 15.513431051746009 116.65011209296063 16.338902713265274 7.5829606028273728 17.259271356277168 142.0475437194109 40.133743802085519 10.840204481966792 59.839527861680835 16.605085047427565 21.619514508172873 3.6631765174679449 14.908994171768425 51.073911043349653 1799.8975150515325 11.213075307197867 2.9993684682995072 2.9844052596017709 7.4639571188017717 10.118675270583479 25.659625802654773 2.4615999329835176
leaf_count=147 193 68 146 87 76 104 47 76 96 795 92 38 171 1297 234 62 516 124 196 24 83 444 6647 84 19 20 79 77 215 16
internal_value=0 0.0297914 0.0486989 -0.0404984 0.117955 0.0197778 -0.0025323 -0.0296268 0.0352754 0.00167052 -0.0493536 -0.0676982 0.0424562 -0.084755 0.00100155 0.000907015 0.0500557 0.0433547 0.0149752 -0.0567933 6.36221e-05 -0.0583507 0.00207471 0.0808326 -0.0988759 -0.126799 0.0316252 0.0247682 -0.0548415 -0.0877482
internal_weight=0 214.511 169.04 45.4707 49.7958 119.245 2312.09 310.483 72.3729 2001.6 238.11 185.275 24.8422 160.433 56.8595 1993.37 84.8255 26.0436 52.8347 25.2827 1982.53 65.9829 1916.55 27.552 31.0571 28.0577 47.5977 69.9582 34.4192 9.43854
internal_count=12273 1661 1342 319 362 980 10612 2534 485 8078 2049 1653 209 1444 389 8031 697 216 396 220 7969 527 7442 176 232 213 313 593 283 92
is_linear=0
shrinkage=0.3


Tree=97
num_leaves=26
num_cat=0
split_feature=148 105 209 188 167 241 128 284 107 213 281 232 291 198 211 139 160 210 15 71 30 99 196 170 29
split_gain=2.95739 2.98463 3.01934 3.09869 2.92512 3.03544 5.50065 3.58318 3.3925 3.662 3.52349 2.79488 2.33453 2.36452 2.03182 1.96506 1.93466 1.88935 1.78588 1.56769 1.38905 1.0082 0.876733 0.312366 0.0620553
threshold=0.15239799767732623 0.092273999005556065 0.08573019915972363 -0.081700000911951023 0.1128027989967708 0.020726675340991992 0.096949998289346667 0.011706500314176053 -0.071739003062248188 -0.071404180387906732 -1.0000000180025095e-35 0.096369501203298555 0.034811498597264255 0.0048635511698480001 -0.065953406270498713 -0.029578999616205647 0.043911479790583179 -0.0046078529362609385 0.082941498607397066 -0.00078704582781720042 -0.054245050867400939 -0.024081000126898247 -0.027278170663718172 -0.0090914845081717707 0.092903502285480513
decision_type=2 2 2 2 2 2 2 2 2 2 2 2 2 2 2 2 2 2 2 2 2 2 2 2 2
left_child=1 4 3 -3 5 8 7 -7 9 -1 -10 14 18 -14 15 -2 -8 20 22 -19 -5 -16 -6 -23 -25
right_child=11 2 -4 17 12 6 16 -9 10 -11 -12 -13 13 -15 21 -17 -18 19 -20 -21 -22 23 -24 24 -26
leaf_value=0.11113780747752695 0.12907291634100185 0.21164072738328618 0.15551651115941745 0.001247589751451924 -0.024941281037271494 -0.031666937435798251 -0.1853049799725581 0.097085566725479938 0.026456138878542715 -0.060088818148354733 -0.0036509997066665025 0.14181900146382592 -0.17358245362265265 0.18099230951783382 -0.010107080300009766 -0.1539320386422649 0.038096520599057826 -0.10323875506370013 0.052860555557857014 0.18589912705587588 -0.21099490481604483 -0.13148390800167886 -0.22540596236668936 -0.23664578428180988 -0.28579628270795149
leaf_weight=12.325575184775515 4.2039338992908597 2.4460418671369544 4.2293078815564504 3.2195003274828222 2.3037643078714654 24.69689659611322 11.277021846268328 91.629514418309554 454.51288912666496 127.7924926718697 1519.1980228752363 3.8088637422770253 2.724380472674965 4.4696603370830417 2.1796043482609138 4.6512871645391023 5.0516279842704526 5.2806383324787021 3.119299770332872 2.4804446659982231 20.109881307696924 2.3826288580894497 13.29455241933465 7.8006688859313638 3.2856467291712761
leaf_count=84 27 12 29 24 22 209 132 781 3401 1162 5704 28 22 38 29 32 39 55 20 14 175 30 127 61 16
internal_value=0 0.00029639 -0.0833481 -0.113472 0.00168651 0.00284248 0.0468628 0.0697505 7.99507e-05 -0.0450268 0.00328217 -0.0972543 -0.0985338 0.046715 -0.134416 -0.0195781 -0.116191 -0.13905 -0.15436 -0.0108302 -0.181705 -0.1994 -0.195799 -0.230033 -0.251212
internal_weight=0 2310.16 37.7658 33.5365 2272.4 2246.48 132.655 116.326 2113.83 140.118 1973.71 28.3126 25.9117 7.19404 24.5038 8.85522 16.3286 31.0905 18.7176 7.76108 23.3294 15.6485 15.5983 13.4689 11.0863
internal_count=12273 12050 309 280 11741 11512 1161 990 10351 1246 9105 223 229 60 195 59 171 268 169 69 199 136 149 107 77
is_linear=0
shrinkage=0.3


Tree=98
num_leaves=31
num_cat=0
split_feature=93 130 295 173 2 188 255 297 269 96 201 222 94 50 144 4 67 95 203 49 93 16 76 130 184 126 185 46 69 8
split_gain=2.12363 3.9623 4.65612 4.30479 4.1491 3.96477 3.31947 3.15106 3.12903 3.714 5.23894 3.97271 3.73773 4.0476 2.98284 2.95688 2.91496 3.6002 3.66946 4.04436 3.41556 3.88121 3.13497 2.72316 2.6777 2.66981 4.70578 4.20795 4.09264 3.45889
threshold=0.064151998609304414 -0.012543999589979598 -0.041037157594657016 0.025903999805450401 -0.010123107975942873 0.031834499910473803 0.03867799974977966 0.034803500398993457 0.14769177586954468 0.037391999736428254 -0.018110499717295146 -0.035190265115751143 -0.035808999091386746 -0.0032154999207704496 -0.017865999601781344 -0.0028089999686925992 -0.028131499886512697 0.071255138961953388 -0.024347757423006575 -0.034844967759984941 -0.0018720000516622497 -0.059265033502176163 0.017112500034272653 -0.0030674889428662457 -0.035396329779150547 -0.0023570000194012494 0.083555500954389517 0.016899500042200054 0.12023999914526935 0.036689499393105458
decision_type=2 2 2 2 2 2 2 2 2 2 2 2 2 2 2 2 2 2 2 2 2 2 2 2 2 2 2 2 2 2
left_child=7 -2 3 4 -3 -6 -4 8 25 12 14 -12 15 -14 -11 -10 20 18 24 -20 21 -9 -23 -19 -18 27 28 29 -27 -1
right_child=1 2 6 -5 5 -7 -8 16 9 10 11 -13 13 -15 -16 -17 17 23 19 -21 -22 22 -24 -25 -26 26 -28 -29 -30 -31
leaf_value=-0.044373037952914675 0.12190010549051548 -0.22678070101104911 0.032902523669485706 0.14027482451097181 0.090496280720156336 -0.22093302892003572 0.24978167677272001 0.22838191380774617 0.10109196424309801 -0.16668822948798581 -0.016534909548215734 0.17597826929666233 0.20215544474597588 -0.052887399064733921 0.055055952448443031 0.28604954448420089 -0.082358323751876669 -0.097831387163767797 0.28637720394417843 -0.094500429798559396 -0.056803024494365882 -0.10889396377171229 0.12151816919270811 0.16091750681870248 0.18943468806785896 -0.00035153720817768458 0.10431528318562022 -0.073069319712337474 0.22182471238778784 0.069771124684340713
leaf_weight=47.649761653039604 36.346490636235103 16.21627838909626 52.027265532873571 6.9982584267854682 11.040109073743226 5.5179475974291554 7.2346910908818236 11.325593890622256 21.618761606514454 19.254990682005886 21.919211763888597 17.231486570090055 7.7958550006151226 19.8856879491359 7.6204243041574946 12.151750672608612 5.5507523640990257 5.4550774311646846 2.5590190533548585 128.67080324329436 27.672494973987341 10.211871866136791 11.081785682588814 11.128398559987543 7.913025498390196 1924.6030511548743 40.119903343729675 110.6812151693739 7.4909644834697238 47.923274314031005
leaf_count=343 209 120 304 36 58 40 30 52 98 96 107 71 35 101 32 48 49 42 13 836 153 71 51 59 45 7821 211 807 39 296
internal_value=0 0.0371817 0.00608933 -0.0733135 -0.118921 -0.0132871 0.0593791 -0.00138499 0.00189848 0.047582 -0.00181891 0.0681964 0.10066 0.0189394 -0.103813 0.167646 -0.0355572 -0.0565962 -0.0717706 -0.0870732 0.020721 0.0864884 0.0110186 0.0758029 0.0773818 -0.000774799 0.00262154 -0.0332507 0.000509867 0.0128624
internal_weight=0 135.381 99.0346 39.7726 32.7743 16.5581 59.262 2527.52 2305.95 127.478 66.0261 39.1507 61.4521 27.6815 26.8754 33.7705 221.569 161.277 144.694 131.23 60.2917 32.6193 21.2937 16.5835 13.4638 2178.47 1972.21 206.254 1932.09 95.573
internal_count=12273 797 588 254 218 98 334 11476 10105 588 306 178 282 136 128 146 1371 1044 943 849 327 174 122 101 94 9517 8071 1446 7860 639
is_linear=0
shrinkage=0.3


Tree=99
num_leaves=31
num_cat=0
split_feature=200 104 45 10 157 61 37 31 145 184 212 249 13 119 196 145 108 116 156 95 7 4 16 263 185 10 285 63 204 226
split_gain=2.3336 4.22197 4.69539 4.23844 3.40137 3.4186 3.06908 2.9732 2.87155 2.8085 3.24042 2.76168 3.18607 2.71176 3.28421 3.1849 2.68123 2.53149 2.4953 2.45028 2.32537 2.21926 2.21437 2.23205 2.16274 2.15168 2.02011 1.96317 1.96255 1.86549
threshold=-0.10209551909937106 -0.054025501012802089 -0.097135499119758592 -0.0065655000507830992 0.00064171189261341666 -0.012432500254362747 -0.071557499468326527 -0.07402313551109603 -0.074674228364391373 0.016871121432374372 0.067308999598026206 0.04922950081527231 0.017500290852587429 -0.10451050102710718 1.0000000180025095e-35 0.048545580182255708 0.045656500384211506 0.081030521738804026 0.027948635083916078 -0.042813999578356694 0.010920432734910798 0.03143399953842161 -0.022440999746322597 0.0037839999422430502 -0.00077464235753221344 -0.021610370697372327 -0.052718674299407679 -0.056057037887449174 1.0000000180025095e-35 0.0067696498331640334
decision_type=2 2 2 2 2 2 2 2 2 2 2 2 2 2 2 2 2 2 2 2 2 2 2 2 2 2 2 2 2 2
left_child=1 2 -1 22 5 24 7 -2 -6 10 13 12 17 15 -15 -8 -10 -11 -9 -7 25 29 23 -3 -5 -20 -14 -12 -23 -4
right_child=6 3 21 4 8 19 9 18 16 11 27 -13 26 14 -16 -17 -18 -19 20 -21 -22 28 -24 -25 -26 -27 -28 -29 -30 -31
leaf_value=-0.20069878165928379 -0.20258003869754296 0.10815371351286715 0.067930209537430453 -0.13017401376676291 -0.19087965712025773 0.1321447897348175 0.021033606710573541 -0.17505851883610504 0.038013910786267695 -0.0067312323158317819 -0.071068791521774394 -0.11366369751293876 0.096684667903931598 0.0027063943597677499 -0.031593503853607798 0.14737550572297797 -0.20491589009404654 0.1808614733629654 0.21967317436279704 -0.14073749069985458 -0.22507107289289827 -0.13409815920266674 0.17955560413346297 -0.11400599077722028 0.12669532720493423 -0.0030101927386071091 -0.21194352038201744 0.21256032227690166 0.17231276247383581 0.2523453144098739
leaf_weight=3.6346767679788163 12.515900158323346 11.691698811016979 6.7879513315856483 4.1297986628487715 5.5728489947505286 3.2332084504887453 101.39609704166651 8.7746300743892771 115.57853204198182 43.628701257985085 2.8057116959244004 38.17725391080603 2.381648418493568 1663.4052332057618 295.93776609608904 21.822120163589716 4.2389470920898011 7.6023330502212039 4.7608522195369032 35.237063840962946 3.4429051633924237 3.8364316597580901 18.097036207094789 6.2438560314476481 10.326365792192515 21.72865378018469 9.6126736067235452 10.11242651613429 3.691484022885561 18.1021743491292
leaf_count=37 95 91 44 42 67 24 648 88 704 437 21 352 21 5869 2435 145 52 53 28 268 28 25 133 34 65 173 115 81 16 82
internal_value=0 0.027649 0.122633 0.011673 -0.00729036 -0.0710649 -0.00288251 -0.0754744 0.0196285 -0.00118994 0.00116966 -0.0499509 -0.0114793 0.000240517 -0.00247424 0.0434089 0.0294195 0.0211062 -0.0343748 -0.117803 0.00686633 0.158885 0.105518 0.0308139 0.0533136 0.0370118 -0.150661 0.150958 0.0161574 0.202052
internal_weight=0 250.402 36.0527 214.349 178.317 52.9264 2248.1 51.2229 125.39 2196.88 2095.48 101.403 63.2254 2082.56 1959.34 123.218 119.817 51.231 38.707 38.4703 29.9324 32.418 36.0326 17.9356 14.4562 26.4895 11.9943 12.9181 7.52792 24.8901
internal_count=12273 1684 204 1480 1222 399 10589 412 823 10177 9199 978 626 9097 8304 793 756 490 317 292 229 167 258 125 107 201 136 102 41 126
is_linear=0
shrinkage=0.3


Tree=100
num_leaves=31
num_cat=0
split_feature=36 142 43 216 144 247 115 17 260 51 50 210 49 77 41 235 255 57 117 5 50 26 33 173 276 205 182 299 59 201
split_gain=2.89358 4.90766 4.95587 4.81551 4.6925 4.59044 4.07929 4.04798 4.0163 3.92138 3.8166 4.43802 3.93439 3.83909 3.84325 3.44513 3.22257 3.19957 2.94513 3.06193 2.74673 3.49293 2.85175 4.4165 3.8339 2.80175 2.49917 2.34173 2.32976 2.58719
threshold=-0.042915500700473695 -0.00036399999225974995 0.035616179610777614 -0.11055050045251839 -0.10433201932586254 -0.044391499832272446 -0.076967999339103629 -0.036766499280929489 0.099957499653100954 -0.025632999837398498 0.067558196721777514 -0.082300998270511586 0.0086010000668466004 -0.019701999612152497 0.066775001585483509 0.019890000112354703 0.009198401038423341 -0.098903499543666784 -0.0025745015156105563 -0.057189499959349591 0.074779392597702832 -0.057158499956130891 -0.017561569628908879 0.0014709244645931935 0.067183498293161364 0.0020756292634954076 0.031365500763058655 -0.056739998981356544 -0.022022586009741534 -0.038195832080360863
decision_type=2 2 2 2 2 2 2 2 2 2 2 2 2 2 2 2 2 2 2 2 2 2 2 2 2 2 2 2 2 2
left_child=4 2 3 28 15 -4 -5 -8 20 -6 13 -12 -13 17 -15 -1 -10 -11 27 -20 22 -22 24 -24 -3 -23 -17 -7 29 -2
right_child=1 8 5 6 9 18 7 -9 16 10 11 12 -14 14 -16 26 -18 -19 19 -21 21 25 23 -25 -26 -27 -28 -29 -30 -31
leaf_value=-0.076336495977764263 0.26186897005409115 -0.097227981587935428 -0.18829780898110063 -0.080510167585339049 -0.16074662791278924 0.15017927947567086 0.0033514904225954022 0.097196298979092211 -0.13811275921129434 -0.070486080481887411 -0.26034507929600464 0.07907706317685971 -0.11294202647568113 -0.029018384093037929 -0.16684130367623343 0.14953992361054194 0.032801927185851162 0.034734693924026672 -0.17011586337364565 0.12660263681504716 -0.19175370460491353 0.16861828993275121 -0.0019037598348710962 0.11742194062248043 0.15086653625635513 -0.11184872151587463 -0.14673185168549818 -0.15083471126462356 -0.10840457970040308 -0.081368649829457379
leaf_weight=10.464355321601031 3.7382768224924803 49.069941393565387 14.946939441608263 15.979056291282175 20.651693151798099 2.867961399257184 53.371900246711448 183.92283553059679 34.1044728042325 31.716356522403657 11.919282852672039 13.787567852064965 31.646310344105586 109.25562389637344 21.851472062175162 28.262022030772645 14.006011929363011 144.54859987320378 3.7573936702683559 18.74630365148187 3.4824435883201685 22.241828329395506 1384.5065562721575 28.490421035327017 6.3289920045062891 3.745399566134437 2.8179692244157186 12.308140797307711 22.761564100161195 4.1935551026836064
leaf_count=83 20 462 109 131 242 17 429 1188 306 339 93 139 292 963 225 227 108 1150 31 135 36 173 4679 211 49 52 26 127 188 43
internal_value=0 0.00411113 0.0369381 0.0526092 -0.0232445 -0.0476207 0.0662091 0.0760889 -0.00303605 -0.0335713 -0.0263703 -0.0974148 -0.0546711 -0.0131139 -0.0519892 0.072549 -0.0883558 0.0158017 0.0081835 0.0770602 -0.000295632 0.0903875 -0.00211558 0.000502218 -0.0688847 0.128196 0.122677 -0.0939495 -0.0596136 0.0803994
internal_weight=0 1882.57 336.594 283.967 426.921 52.6267 253.274 237.295 1545.98 385.377 364.725 57.3532 45.4339 307.372 131.107 41.5443 48.1105 176.265 37.6798 22.5037 1497.87 29.4697 1468.4 1413 55.3989 25.9872 31.08 15.1761 30.6934 7.93183
internal_count=12273 8494 2418 1999 3779 419 1748 1617 6076 3443 3201 524 431 2677 1188 336 414 1489 310 166 5662 261 5401 4890 511 225 253 144 251 63
is_linear=0
shrinkage=0.3


Tree=101
num_leaves=31
num_cat=0
split_feature=223 38 296 193 257 289 21 131 153 22 292 136 93 57 267 238 292 157 40 224 247 269 257 272 277 133 42 296 277 297
split_gain=2.10713 2.94112 2.11352 2.54401 2.44037 2.39453 2.54715 2.31081 3.14455 2.76895 2.73952 3.54864 2.54952 2.27475 2.02616 1.98365 1.9187 2.06292 1.77347 2.1427 1.7281 1.71725 1.36375 1.32193 1.17471 1.0582 0.840083 0.70866 0.471173 0.324745
threshold=-0.10889479815506141 -0.0065299998968838995 0.06689849868416782 0.0012081430977893565 0.011825636204146018 0.081142000854015309 0.028634567892289419 -0.055589901743248189 -0.043303500860929441 0.035244999453425359 -0.091545000672340338 -0.061004060386333263 -0.038778999820351538 -0.066011499613523442 -0.062048500403761794 -0.072438542304819623 -0.028749065839862014 0.0067030000500380507 0.058102998882532106 -0.028170868152149968 -0.033818500116467441 0.10892549902200696 -0.0061175001319496991 -0.0090513028851995983 0.014071499928832 0.00044738258285913917 -0.061499586484143012 -0.052724906145867854 0.066523000597953755 0.023812778774297657
decision_type=2 2 2 2 2 2 2 2 2 2 2 2 2 2 2 2 2 2 2 2 2 2 2 2 2 2 2 2 2 2
left_child=1 21 5 4 23 7 14 8 9 -2 11 -9 -10 -12 -7 -6 17 -5 26 27 -16 25 -19 -4 -25 -1 -3 -20 -18 -28
right_child=2 18 3 16 15 6 -8 10 12 -11 13 -13 -14 -15 20 -17 28 22 19 -21 -22 -23 -24 24 -26 -27 29 -29 -30 -31
leaf_value=-0.23293261585653283 0.25176608878224799 0.056843996704629057 0.043001417413196588 -0.14167826163849837 -0.047000726991024137 0.16119906108352369 0.17792637632818367 0.082307203375166393 0.13253157502572421 -0.012474236836561712 0.019333429845616073 -0.077629121450117577 -0.042829920588095309 -0.0043499390819151055 -0.01421729532953755 0.20893522618596058 0.25811245164360908 -0.013884890881433498 -0.24554518812917187 0.23505170370239367 -0.19936957975582936 0.13624404798661918 0.24240998150136708 0.0026507948176026368 -0.22876039777297194 0.0095438315458895723 0.2333060746766471 -0.0065963775065564847 0.12207345350992901 0.11843801908409625
leaf_weight=4.4508111411705595 11.474040931090714 4.0861303806304958 4.5409595193341383 3.572709063068034 4.7454097215086222 2.0950452331453624 2.8660654537379733 14.843122370541094 10.785028424113987 5.1805705092847338 450.30775059317239 78.611773864366114 24.214102167636156 1926.6289809935261 6.3123208526522019 6.4030076526105386 8.3612026497721654 3.2304204776883125 2.1897829677909613 2.2547466605901709 16.129757365211837 2.7193423621356487 4.432106040418148 2.8949069958180189 6.2078720740973949 2.5466663464903831 11.491322814486923 2.2802297919988632 3.1563742142170659 2.7439972404390565
leaf_count=32 59 29 37 35 36 16 17 76 51 32 2651 496 152 7939 49 39 52 31 26 15 127 20 25 21 45 22 74 24 23 22
internal_value=0 0.0740318 -0.000320614 0.0623494 -0.00413024 -0.00148935 -0.0896924 -0.000530987 0.0622689 0.169572 -0.00184408 -0.052227 0.011208 0.000136846 -0.120952 0.0999941 0.134788 0.0465818 0.128383 -0.003383 -0.147291 -0.0660648 0.134359 -0.0892112 -0.155166 -0.144686 0.176747 -0.123653 0.220831 0.211164
internal_weight=0 34.763 2596.99 47.545 24.7922 2549.45 27.4032 2522.05 51.6537 16.6546 2470.39 93.4549 34.9991 2376.94 24.5371 11.1484 22.7528 11.2352 25.0462 6.72476 22.4421 9.71682 7.66253 13.6437 9.10278 6.99748 18.3215 4.47001 11.5176 14.2353
internal_count=12273 264 12009 344 178 11665 209 11456 294 91 11162 572 203 10590 192 75 166 91 190 65 176 74 56 103 66 54 125 50 75 96
is_linear=0
shrinkage=0.3


Tree=102
num_leaves=31
num_cat=0
split_feature=160 117 275 205 236 296 95 145 67 29 10 16 95 9 28 273 61 220 0 9 191 59 273 81 41 16 46 48 22 124
split_gain=2.30404 3.24451 3.55377 3.55052 3.46134 3.15904 4.07623 3.06074 4.04203 3.33178 2.95098 2.95534 3.06805 2.66429 3.97879 3.06238 2.63057 3.88245 2.8698 2.5262 2.50429 2.94691 2.46563 2.90823 2.43995 2.39147 2.35174 2.37348 2.51318 2.24213
threshold=-0.045276001095771741 -0.080213361482225201 -0.015853983257953317 -0.06136099994182579 0.11144350096583362 -0.039817500859498943 0.061161591263184274 -0.0027073616922121692 -0.080463003367185537 0.092903502285480513 -0.049152909123554391 0.0064526586759583024 -0.022907104875169136 -0.0021570000099017995 -0.10860250145196909 -0.024629951658372031 0.043991498649120254 0.051951000466942711 0.033656001091003411 -0.012003000359982198 -0.061459500342607443 -0.026151999831199594 0.015441999770700902 0.067189998924732167 -0.022137500345706895 -0.048836998641490888 0.013696500100195352 -0.06298150122165673 0.0031170441859558022 0.020269634494315934
decision_type=2 2 2 2 2 2 2 2 2 2 2 2 2 2 2 2 2 2 2 2 2 2 2 2 2 2 2 2 2 2
left_child=5 2 26 10 7 6 20 9 -9 -5 -3 12 -12 19 15 -15 18 -18 -16 22 25 -22 23 -7 -23 -1 -2 -28 -29 -4
right_child=1 3 29 4 -6 13 -8 8 -10 -11 11 -13 -14 14 16 -17 17 -19 -20 -21 21 24 -24 -25 -26 -27 27 28 -30 -31
leaf_value=0.16156506779990307 0.11240988213894172 0.13911650851357607 0.17983540122229255 -0.051090949913342433 0.17911142460238375 -0.097973632009208972 -0.16299982512516809 0.13756867986013355 -0.00037664530309558926 0.031981741225906524 0.043753680690738421 -0.19350036449880095 -0.097398613203429962 -0.050430735935580971 0.091705593741496574 0.20502541397462423 0.010770690116206018 -0.19953781224686554 -0.085469552857420861 -0.1603652609798932 -0.073799055982002093 -0.0396503410155555 0.07670876110771925 0.17435082537706001 0.18947966136599537 -0.17558386873396026 -0.16848282229436354 0.090072914387509029 -0.14528837368084024 0.0056543325625693442
leaf_weight=3.1015517376363277 11.675699952989815 5.926894847303628 24.077712694182992 206.59379703179002 9.4060375909320992 26.983638476580385 5.3399318421725175 19.323695562779903 1790.4482996293809 55.023942516418174 20.732250834815204 16.452576434239745 41.802951451856643 5.5153143182396915 37.060982569120824 18.031388672068715 25.546543803997338 11.436966223642228 10.57584834564477 12.839617686811833 5.2789965933188787 4.7074015643447629 18.203298256732523 4.0604677144438019 37.527804592624307 4.8613155730999997 9.6432390678673965 12.744119010865694 6.0081240367144337 9.1898400140926224
leaf_count=18 89 34 161 1780 62 212 62 127 6967 419 147 143 407 28 245 85 186 92 69 94 37 47 160 24 211 46 98 87 58 78
internal_value=0 -0.0028161 0.0592418 -0.0049176 -0.00246377 0.0286484 0.0873382 -0.00328829 0.00109625 -0.0336189 -0.0650475 -0.0803671 -0.0506025 0.00768363 0.0361162 0.14519 0.00576496 -0.0542662 0.052371 -0.0418512 0.111434 0.137528 -0.0109526 -0.0623545 0.163942 -0.0442637 -0.000930013 -0.0475333 0.0146643 0.13172
internal_weight=0 2239.05 73.3387 2165.71 2080.8 231.071 60.817 2071.39 1809.77 261.618 84.9147 78.9878 62.5352 170.254 108.167 23.5467 84.6203 36.9835 47.6368 62.087 55.4771 47.5142 49.2474 31.0441 42.2352 7.96287 40.0712 28.3955 18.7522 33.2676
internal_count=12273 10657 571 10086 9355 1616 421 9293 7094 2199 731 697 554 1195 705 113 592 278 314 490 359 295 396 236 258 64 332 243 145 239
is_linear=0
shrinkage=0.3


Tree=103
num_leaves=31
num_cat=0
split_feature=141 260 3 6 210 297 190 196 147 140 246 87 14 216 144 190 16 120 88 2 167 259 232 107 181 166 60 108 58 173
split_gain=2.82778 3.03401 2.81165 4.55137 3.1393 3.35675 2.99884 3.8546 5.55067 3.78633 3.6641 3.85868 3.3738 2.87927 2.74094 2.37639 2.27798 2.3778 2.05802 2.29421 2.00184 1.87426 1.80334 1.75986 1.46817 1.33481 1.58244 1.61757 1.2915 1.23934
threshold=0.073860259842769574 0.042032322068706829 -0.07519650086760514 -0.12942700088024131 -0.028439797817358371 0.058779202219600486 -0.12012299895286553 0.0024826536726279152 0.049056855120967434 -0.097746498882770497 -0.032985500991344389 -0.029206500388681847 0.10339500010013576 -0.019371218352521764 -0.087730341292665784 -0.10227449983358379 -0.056900376087503 0.0046804919313897866 0.040443852356927691 0.019463777098992965 0.026108499616384454 0.017452894537964864 0.066718500107526765 -0.0062646032353093567 0.036334447647325831 -0.034366501495242098 0.038070904344832852 -0.013605999760329697 -0.014184000436216548 -0.0079639574327302048
decision_type=2 2 2 2 2 2 2 2 2 2 2 2 2 2 2 2 2 2 2 2 2 2 2 2 2 2 2 2 2 2
left_child=2 14 3 20 5 13 16 8 9 -8 11 -9 -12 -5 -2 -16 -4 21 -6 -20 -1 -18 28 -24 25 -3 27 -27 -17 -19
right_child=1 24 6 4 18 -7 7 10 -10 -11 12 -13 -14 -15 15 22 17 29 19 -21 -22 -23 23 -25 -26 26 -28 -29 -30 -31
leaf_value=0.21993107509189733 0.14442042403506575 -0.19379851359725961 -0.24284182156511042 -0.20635292551573292 -0.15061697324378445 0.14226368059218147 -0.14721431627737885 -0.11799877840010496 -0.19393394385197502 0.00091223813930029851 0.051421666205632932 0.01558129034162997 -0.14021655757947338 -0.032634031558611817 0.24056493873211188 0.020296927153179038 0.10221560063914849 -0.30239624381717684 0.094698612325035028 -0.21514018659170239 -0.045188138419975626 -0.16029346110309475 -0.15573830944256986 0.16158384907463 -0.20388718166881042 -0.15633842550716615 -0.23525207074495591 0.10090754031299194 -0.21344271866794823 -0.037490412731360494
leaf_weight=7.0952565455809218 8.933552916627379 5.8421361723449072 7.1037959307432201 28.841350275091823 5.8843279645079773 3.7393613164313129 15.677336718887089 26.436483248602599 13.454399081412701 1662.1645578799071 305.32947122503538 73.776582922087982 8.4980594795197231 12.227108598686756 2.1972915055230287 2.7726045306772056 9.2199330409057456 3.773120635189116 16.011231043608863 2.4845762569457284 4.0129649620503187 3.3326440621167412 2.5959596196189523 3.9915695707313708 13.282663647085426 3.0695852306671423 2.5355020333081475 7.764956037048254 9.143928119097831 2.7464163377881041
leaf_count=53 82 71 55 292 63 29 114 251 151 6718 2511 669 104 136 19 32 79 28 143 47 36 36 34 35 188 52 39 71 110 25
internal_value=0 -0.0638851 0.00100973 -0.0540995 -0.0827183 -0.129855 0.00308575 0.00434046 -0.00201083 -0.000471819 0.0302846 -0.0196575 0.0462323 -0.154632 0.0055351 -0.0544001 -0.0978312 -0.043819 0.00391423 0.0530774 0.124154 0.0325208 -0.0894261 0.0365361 -0.127195 -0.0741733 -0.0219022 0.028026 -0.159059 -0.190802
internal_weight=0 62.1297 2211.81 80.2962 69.188 44.8078 2131.51 2105.34 1691.3 1677.84 414.041 100.213 313.828 41.0685 29.6349 20.7014 26.1759 19.0721 24.3801 18.4958 11.1082 12.5526 18.5041 6.58753 32.4948 19.2122 13.37 10.8345 11.9165 6.51954
internal_count=12273 733 11540 799 710 457 10741 10518 6983 6832 3535 920 2615 428 312 230 223 168 253 190 89 115 211 69 421 233 162 123 142 53
is_linear=0
shrinkage=0.3


Tree=104
num_leaves=31
num_cat=0
split_feature=223 170 177 174 167 89 208 9 152 26 297 134 277 108 254 228 226 245 45 256 194 133 16 138 264 233 142 108 269 163
split_gain=1.81859 3.98643 3.41125 3.15865 5.20752 4.54076 4.01164 3.88919 3.26346 3.09907 2.88712 4.6062 3.08924 2.87498 3.28847 2.82712 2.72396 3.17199 3.37464 3.14303 3.05095 2.85615 3.35733 2.87105 2.68899 2.85592 3.53449 2.77236 2.74723 2.53047
threshold=0.022546499967575004 0.0059195000212639006 -0.015978499315679046 0.072249002754688221 0.04948138984503677 -0.057388499379157992 0.034073000773787457 -0.072759997099637944 -0.0065380001906304988 -0.048203620029865481 -0.053306163612116993 -0.043583000078797292 0.017790100329307022 0.018840000033378553 -0.072300242053985261 -0.068323999643325736 -0.042486494243615273 -0.012080000247806248 -0.088983997702598489 -0.010143000166863149 -0.022544123397736111 0.0055848797534987843 0.055919999256730003 -0.05370860309418999 -0.037586499396455059 -0.042464999482035595 0.0036405000137164504 -0.00032000000646799999 0.11759450286626817 -0.036432499065995196
decision_type=2 2 2 2 2 2 2 2 2 2 2 2 2 2 2 2 2 2 2 2 2 2 2 2 2 2 2 2 2 2
left_child=3 2 24 16 5 -5 8 -6 -7 -4 11 29 -13 -9 -15 -11 19 18 -18 -1 -20 23 -23 -19 28 27 -27 -26 -2 -3
right_child=1 10 9 4 7 6 -8 13 -10 15 -12 12 -14 14 -16 -17 17 21 20 -21 -22 22 -24 -25 25 26 -28 -29 -30 -31
leaf_value=0.12075912739484079 -0.094099598515101981 0.29080764281155919 -0.16281318189676783 0.1616142534350285 -0.14355084302358831 -0.087983184096669095 0.15774125438289466 0.11826503906587511 0.017107591854866318 -0.15209708125347401 -0.080019641364629093 0.10940932698970227 -0.16031746046462544 0.16987741927024158 -0.099205993358563241 0.039223411055960833 -0.10380994525990032 -0.1015506976891382 0.020314267818226903 -0.0060729320468429363 -0.042377824121173711 0.073293917090256677 -0.21649186047677721 0.0016328225820866113 -0.088293399623509003 0.042462996557594203 0.22932993091444667 0.17779069913379794 0.22787316888351861 0.011176051010955387
leaf_weight=35.247662829235196 14.810671004001053 6.7426610309630632 13.843518431065602 13.173737315461038 6.4735832661390296 59.492682655341923 9.9890412390232068 89.077821284532547 48.093083440791816 8.7210561470128578 110.6513719628565 5.6700591761618879 11.722642181441186 6.0667009428143528 12.529523918405173 34.254107648506761 46.882910887245089 24.649527465924621 117.17631222191267 35.091141483746469 173.02778659528121 73.472095256671309 3.7834655679762355 1574.631353107281 11.862590640783312 17.454812141135335 19.054031473584473 5.0135902352631083 2.8428641632199279 5.1273172907531279
leaf_count=207 116 27 102 66 57 371 60 475 285 94 756 32 90 31 83 242 377 161 724 252 1204 487 32 5609 71 102 93 28 13 26
internal_value=0 -0.0228665 0.0154248 0.00323953 0.0354691 -0.00540619 -0.0241201 0.082289 -0.0410054 -0.0393672 -0.057858 0.025942 -0.0723859 0.095867 -0.0114221 0.000398271 -0.000547921 -0.00257507 -0.0291293 0.0574842 -0.0170645 0.00276396 0.0591021 4.24672e-05 0.0592489 0.092813 0.139989 -0.00924491 -0.0422502 0.170019
internal_weight=0 267.771 127.857 2328.86 244.896 130.749 117.575 114.148 107.586 56.8187 139.914 29.2627 17.3927 107.674 18.5962 42.9752 2083.96 2013.62 337.087 70.3388 290.204 1676.54 77.2556 1599.28 71.0386 53.385 36.5088 16.8762 17.6535 11.87
internal_count=12273 1792 861 10481 1428 782 716 646 656 438 931 175 122 589 114 336 9053 8594 2305 459 1928 6289 519 5770 423 294 195 99 129 53
is_linear=0
shrinkage=0.3


Tree=105
num_leaves=31
num_cat=0
split_feature=202 100 250 145 178 82 61 76 240 216 159 118 122 272 64 262 289 231 124 242 40 94 146 208 157 43 212 218 94 27
split_gain=2.02859 3.31361 2.46536 2.41306 2.65523 2.21488 2.65942 4.45686 3.87174 3.1893 3.72044 3.50194 4.29344 2.98504 2.51469 2.44662 3.54574 2.72682 2.44174 2.96029 2.9664 2.62881 2.96434 2.40969 2.47231 2.93636 2.36941 2.29644 1.96597 1.96752
threshold=-0.10453550145030013 -0.15099452671917019 0.094712000340223271 0.035591000691056203 0.002358854606537559 0.05490233251784566 0.0010009999969042003 0.0095925000496208026 0.065076999366283361 -0.094375498592853477 0.06222049664796906 -0.066371500492095878 -0.050541382643813311 0.098770499229431166 -0.013073000125586898 -0.040480500087141942 -0.0095345000736414987 -0.028399500064551796 -0.030135413669707959 -0.0084883008575845804 0.12230786810229879 -0.00040294790025321173 0.076836500316858208 -0.043502500280737842 0.051799160663979153 0.022712744634047582 0.0142590003088116 -0.0029774101652514009 -0.03259100019931789 0.049858501181006404
decision_type=2 2 2 2 2 2 2 2 2 2 2 2 2 2 2 2 2 2 2 2 2 2 2 2 2 2 2 2 2 2
left_child=1 -1 3 4 -3 6 7 15 27 10 14 13 -13 -11 -8 16 -2 -17 23 21 26 22 -20 -7 25 -25 -21 -9 -4 -30
right_child=5 2 28 -5 -6 18 9 8 -10 11 -12 12 -14 -15 -16 17 -18 -19 19 20 -22 -23 -24 24 -26 -27 -28 -29 29 -31
leaf_value=-0.23298503183612315 0.012349664603605268 -0.13159151595244117 0.29228637552849746 0.15907581280498226 0.13313738074354919 0.13833414424969609 -0.024250035126714722 0.069482204363697994 0.12408698002933413 0.10108577164755768 0.18141881380638911 -0.016444241089107799 -0.080839591464169927 -0.056342596247122512 0.072324662955612046 0.086627517147355337 -0.13789944942746823 -0.00051998004401380396 -0.019976564912882713 -0.081642611979033233 0.27232043253309429 0.15235116994595796 0.25296630817482918 -0.095230071091640209 0.11822613344419772 0.15695222489518909 0.049440300096787196 -0.11120250664066297 -0.051433579497991475 0.23902069922602046
leaf_weight=3.1079561561346045 28.499042859300971 10.205332621000709 7.4515134170651427 8.1277841292321664 5.1209803996607652 30.396133031696081 83.519728532060981 12.6968089370057 48.554652786813676 29.687228654744104 11.666506682522593 222.92298943852074 160.11125458485913 17.074473175220191 34.203843566123396 33.033632131293416 28.04841550020501 1483.074442039011 31.710809142561629 49.803874182049185 2.6910740286111823 17.649733799509704 4.0371067505329838 17.817994579672817 15.517786878161131 5.4194044861942521 16.529517927207053 12.626410416793076 4.6045664958655816 3.8573101609945297
leaf_count=23 211 73 29 55 38 194 654 111 283 204 80 1694 1402 138 263 230 258 4759 245 552 15 132 28 158 109 31 154 104 28 18
internal_value=0 0.0652332 0.0887767 0.0269374 -0.0431377 -0.00090673 -0.0035941 0.00247651 0.0744893 -0.0214691 0.0198234 -0.0339003 -0.043362 0.0436027 0.00380914 -0.0009064 -0.0621762 0.00137883 0.0300349 0.00457987 -0.0364517 0.0576193 0.0108476 0.0750992 0.0255033 -0.0364164 -0.0489783 -0.020609 0.179919 0.0809688
internal_weight=0 42.4754 39.3675 23.4541 15.3263 2397.29 2205.72 1646.53 73.8779 559.186 129.39 429.796 383.034 46.7617 117.724 1572.66 56.5475 1516.11 191.573 122.422 69.0245 53.3976 35.7479 69.1513 38.7552 23.2374 66.3334 25.3232 15.9134 8.46188
internal_count=12273 264 241 166 111 12009 10391 5956 498 4435 997 3438 3096 342 917 5458 469 4989 1618 1126 721 405 273 492 298 189 706 215 75 46
is_linear=0
shrinkage=0.3


Tree=106
num_leaves=29
num_cat=0
split_feature=227 69 291 128 131 181 45 114 139 141 287 128 236 84 165 218 159 144 139 249 50 205 148 191 149 154 82 85
split_gain=2.56568 2.78174 2.72626 4.57161 4.49448 4.04194 4.39205 3.25318 3.45727 2.90914 3.06049 2.37133 2.19556 2.17667 1.99445 1.79941 1.7747 1.74282 1.63058 1.58648 1.51277 1.30864 1.25509 0.937582 0.927282 0.577014 0.0701589 0.0608066
threshold=0.040681499987840604 -0.088021002709865528 0.014945076729079056 0.10189949721097942 0.11413949728012086 0.11317474234407125 0.030644499696791155 -0.072108521694889308 0.015789000317454303 0.039570501074194908 0.026561273549451137 -0.030426643832801879 -0.14676550030708307 -0.056931499391794142 0.0089414999820291528 -0.016083499416708894 0.047026018352716775 -0.16924678793909104 0.079182002693414619 -0.00045826347645905476 0.094821572578489624 -0.086542498320341096 0.10505000129342076 0.075936000794172273 0.030279013469507236 0.087934951441777223 -0.030988500453531697 -0.01482816079451319
decision_type=2 2 2 2 2 2 2 2 2 2 2 2 2 2 2 2 2 2 2 2 2 2 2 2 2 2 2 2
left_child=1 13 3 7 5 6 -4 16 -9 10 -5 14 -13 15 24 -1 -3 -14 21 -6 -11 -19 -7 25 -2 26 -15 -21
right_child=11 2 4 9 19 22 -8 8 -10 20 -12 12 17 23 -16 -17 -18 18 -20 27 -22 -23 -24 -25 -26 -27 -28 -29
leaf_value=0.20010443127338434 0.22111020494798125 -0.15557485744462232 0.056246089495727548 -0.12836310481908741 -0.016618583777071268 -0.23352624391763024 -0.10317108861907567 -0.0011106631341775183 0.054966869925937627 -0.21878469075423485 0.018340575567767001 0.25743014538156611 0.22835963956433958 -0.1537868391273344 -0.12515414807539513 -0.13030397126989865 0.023703770634775714 0.070132147845798298 0.14543228615502984 -0.27889196696180912 0.044774382015854514 -0.16376381539168247 0.035711648494217027 0.0321391656372048 -0.0020212072225081882 -0.036108875429096625 -0.23013422206789089 -0.2215657006016841
leaf_weight=3.1618459541350603 4.8018253806512785 18.227192279882733 229.33374592545442 21.859133043559268 4.5211040657013655 6.2824226948432607 16.685570870991796 1707.0798650241341 105.034023229382 15.006711530033501 30.875527388998307 1.4455817518755782 1.2503111138939846 1.2124807415530074 3.7637728489935398 2.7945579756051329 6.8322281222790471 2.3154498562216679 1.8058232539333392 2.8774234093725681 2.2544730957597485 30.662078077439226 2.0722934976220131 1.8236286612227548 2.5751700587570667 1.7315897974185634 10.165205489378421 3.9530641562305373
leaf_count=28 37 198 1896 230 36 61 194 7447 808 188 245 8 8 19 37 25 61 14 13 16 26 435 15 19 23 18 110 58
internal_value=0 0.000707276 0.00175471 -0.0022118 0.0302231 0.0384652 0.0454341 0.000655168 0.00213971 -0.0774607 -0.0424698 -0.0689674 -0.105089 -0.108246 0.0525526 0.0450872 -0.106696 -0.119633 -0.132142 -0.154471 -0.184361 -0.147341 -0.166745 -0.169407 0.143219 -0.197444 -0.221998 -0.245715
internal_weight=0 2193.78 2172.89 1907.17 265.726 254.374 246.019 1837.17 1812.11 69.9958 52.7347 48.62 37.4792 20.8893 11.1408 5.9564 25.0594 36.0337 34.7834 11.3516 17.2612 32.9775 8.35472 14.9329 7.377 13.1093 11.3777 6.83049
internal_count=12273 11698 11479 9203 2276 2166 2090 8514 8255 689 475 575 478 219 97 53 259 470 462 110 214 449 76 166 60 147 129 74
is_linear=0
shrinkage=0.3


Tree=107
num_leaves=31
num_cat=0
split_feature=298 62 13 4 229 243 270 266 140 193 215 171 39 175 192 108 18 15 272 35 110 227 69 234 154 220 289 57 28 63
split_gain=1.74247 4.30242 4.22285 3.02598 3.85444 3.67393 3.87875 3.47464 3.46027 3.61171 3.26487 3.21452 3.01204 2.83669 2.80968 3.81779 2.8069 2.70451 4.01132 2.61445 2.54065 2.51127 2.4533 2.43589 2.42615 2.72873 2.41083 2.34626 2.33959 2.30456
threshold=-0.020789000205695598 0.041455948984775129 0.015466341071396932 -0.025241999886929944 -0.018824000842869247 -0.06766049936413758 -0.0036004918372162524 0.024888500571250853 -0.029878499917685947 -0.0013360103949914385 -0.012619135077119753 -0.012485457269304874 -0.015637483922721383 0.014727000147104203 -0.026151999831199597 -0.029837000183761096 0.014528499916195802 -0.02685204650679902 0.023919500410556755 -0.082286998629569938 0.039567310335167895 -0.012958937979449326 -0.021659000776708095 0.019977000541985004 -0.049072100451961261 -0.026388499885797449 0.078840649759814488 -0.051591273389445365 -0.13031511928292103 -0.053278282757802865
decision_type=2 2 2 2 2 2 2 2 2 2 2 2 2 2 2 2 2 2 2 2 2 2 2 2 2 2 2 2 2 2
left_child=3 26 12 5 10 -1 8 11 -7 -10 24 19 14 -8 15 -3 29 18 -12 -6 27 -19 -13 -16 -5 -26 -2 -14 -22 -9
right_child=1 2 -4 4 7 6 13 16 9 -11 17 22 20 -15 23 -17 -18 21 -20 -21 28 -23 -24 -25 25 -27 -28 -29 -30 -31
leaf_value=0.10918640659633867 0.0003990907891141641 -0.16116095666206728 0.15059811155150718 -0.094332834243538874 0.033943950921256197 -0.17140587354386275 0.085762782746712715 0.18150844930097404 0.13924085631013888 -0.096415171760555266 -0.12770752328216139 0.05578763167846524 -0.00898996222802384 -0.089118094907320811 0.10755428923951606 0.073663084623927524 0.19308082669300006 -0.1212517034288387 0.15497973979654872 -0.15664311804877984 0.2733183688601899 0.023902659247033758 -0.09002605534903714 -0.028693295167288618 -0.14260017211353243 0.12150496872176156 -0.11401070998012645 -0.16233090478650825 0.010843578188904036 -0.21056007913100286
leaf_weight=30.718189151026309 1985.0169932665303 11.154306142590942 29.403874131850898 7.3413368519395581 7.2877500019967547 19.100861487910151 38.080512517597526 2.0072426870465279 9.8559043351560849 14.412778947502373 7.0144816190004375 17.692590951919556 20.545593292452395 10.691465694922952 68.985730575397611 14.117908625863491 7.3349688127636909 34.955047475174069 12.6920551918447 58.295419010333717 3.5515933483839062 15.476298172958193 25.141955714672804 14.249157205224035 3.9284004364162675 33.938892055302858 16.715680940076709 15.954140545334665 21.919880240224302 4.1163696025032532
leaf_count=168 8459 74 202 46 45 116 248 12 61 115 46 108 148 88 375 81 35 195 68 487 16 96 184 106 28 169 158 144 142 53
internal_value=0 0.00363444 0.0456029 -0.0188766 -0.0386682 0.0193378 -0.010616 -0.0758702 -0.0758889 -0.000711452 0.000639805 -0.0937172 0.0274935 0.0474266 0.0576293 -0.0299804 0.0678994 -0.0398818 0.0543581 -0.135465 -0.0252722 -0.0767069 -0.0297985 0.0842298 0.0635061 0.0941064 -0.0005563 -0.0760157 0.0474415 -0.082045
internal_weight=0 2201.61 199.882 360.083 237.223 122.86 92.1415 121.876 43.3695 24.2687 115.347 108.418 170.478 48.772 108.507 25.2722 13.4586 70.1379 19.7065 65.5832 61.9712 50.4313 42.8345 83.2349 45.2086 37.8673 2001.73 36.4997 25.4715 6.12361
internal_count=12273 9905 1288 2368 1572 796 628 924 292 176 648 824 1086 336 636 155 100 405 114 532 450 291 292 481 243 197 8617 292 158 65
is_linear=0
shrinkage=0.3


Tree=108
num_leaves=28
num_cat=0
split_feature=46 242 94 269 63 74 154 255 157 294 298 188 35 262 219 280 136 292 266 263 24 245 177 54 130 169 112
split_gain=1.96192 2.17189 2.91077 3.57721 3.93145 2.81035 2.47085 2.33373 2.25316 4.46878 3.98249 4.25177 2.55168 2.35017 2.13286 2.13063 2.09451 1.64569 1.52531 0.835525 0.877816 0.730053 0.692794 0.392867 0.203217 0.0930014 0.00962308
threshold=-0.084503422815092169 -0.052679004071278825 0.062963702466185434 0.073408927755179293 0.0030999999726190508 -0.0084000001661478987 -0.09710989617172773 0.034507000818848554 -1.0000000180025095e-35 -0.10368401404190673 -0.020789000205695598 0.012285000178962852 0.042973499745130504 0.085241500288248021 0.034970998764038051 -0.11760806929350597 -0.005562488673291145 -0.072047002613544436 -0.044373499229550292 -0.024889143372691203 -0.022077499888837296 -0.074279498308896935 -0.018428197885947028 -0.020007873770356292 0.069420501589775072 -0.07005549967288964 -0.039924362982937535
decision_type=2 2 2 2 2 2 2 2 2 2 2 2 2 2 2 2 2 2 2 2 2 2 2 2 2 2 2
left_child=21 2 3 4 15 7 18 -5 10 16 11 -8 -12 -11 -6 -2 -10 -7 22 -20 -21 -1 -3 -4 25 -23 -27
right_child=1 6 23 5 14 17 8 -9 9 13 12 -13 -14 -15 -16 -17 -18 -19 19 20 -22 24 -24 -25 -26 26 -28
leaf_value=0.099550729482833264 0.18449371305084489 -0.16752920283093184 0.11248623428920408 0.12385688747358642 0.098934170119093348 0.17343781792772642 -0.032303108119433134 -0.040292209637598518 0.15369420213065996 -0.0020554826372395311 -0.073446714541404126 0.12234707446706367 0.044513777698780989 0.10365935769887061 -0.17036515537972791 -0.090273945859692437 -0.041759292107933305 -0.11967269582945522 0.27271701441367729 0.21645199350458957 0.0046801757168454094 -0.30422087396850495 0.071583230078690982 0.25303565975619596 -0.1131637233809116 -0.18093743705973631 -0.22338275094634596
leaf_weight=0.76732630003243674 2.6971592456102362 1.956292974296957 2.6206378620117903 51.161218035966158 24.212543895235289 2.1247330456972113 40.021175111178309 9.196145352907477 24.502847744151953 1968.9803654891439 131.10637491662055 26.656338048167527 18.881062530446798 19.110211852006614 2.9717408772557965 43.566818322986364 6.1787417456507674 9.1396567309275252 4.5706189349293718 3.4411845616996297 3.6092643458396161 1.6187699069268999 2.4642375153489438 5.6464659413322789 1.3207038929685948 0.72903541661798965 1.4114061221480365
leaf_count=11 16 21 25 316 246 16 346 67 164 8753 1104 174 151 146 24 342 45 102 18 19 28 12 19 32 20 38 18
internal_value=0 0.000788611 0.0353355 0.0254684 -0.0210512 0.0731744 -0.00156421 0.0988469 -0.0024061 0.000714134 -0.0314788 0.0295229 -0.0585973 -0.00103932 0.0694948 -0.0742552 0.114333 -0.064385 0.115755 0.172809 0.108042 -0.173197 -0.0342353 0.208482 -0.214396 -0.249961 -0.208926
internal_weight=0 2404.82 153.337 145.07 73.4483 71.6218 2251.48 60.3574 2235.44 2018.77 216.665 66.6775 149.987 1988.09 27.1843 46.264 30.6816 11.2644 16.0416 11.6211 7.05045 5.84724 4.42053 8.2671 5.07992 3.75921 2.14044
internal_count=12273 12174 1186 1129 628 501 10988 383 10883 9108 1775 520 1255 8899 270 358 209 118 105 65 47 99 40 57 88 68 56
is_linear=0
shrinkage=0.3


Tree=109
num_leaves=30
num_cat=0
split_feature=260 209 175 214 139 29 167 174 204 107 93 178 27 207 66 156 64 286 44 287 71 54 23 203 234 99 254 244 92
split_gain=2.48775 3.72425 2.89371 2.39909 3.06377 2.3413 2.50797 2.39041 4.86828 3.70013 2.16325 2.05987 1.89119 1.85263 1.52241 1.55475 1.50415 1.49609 1.33312 1.31453 0.799834 0.420397 0.32486 0.230612 0.232883 0.0900718 0.0250921 0.024508 0.00404936
threshold=0.14776749908924103 0.010451499838381952 -0.11756550148129459 -0.075504500418901388 0.015789000317454303 0.14371700584888458 0.1128027989967708 0.0013850000104866503 0.0006974999851081001 -0.012294499669223998 -0.04399295237534994 0.013815297113475794 0.053735999390482854 0.0086379996500909016 0.0029354017960991053 0.08481856471866718 -0.040684498846530838 0.022781499661505156 -0.044739000499248491 0.02950671398601026 -0.091109998524188981 0.042663998901844004 -0.01804449968039985 0.012782093078924766 -0.02540808912348581 -0.059236039593952912 -1.0000000180025095e-35 -0.1198806671853072 0.11209567293166797
decision_type=2 2 2 2 2 2 2 2 2 2 2 2 2 2 2 2 2 2 2 2 2 2 2 2 2 2 2 2 2
left_child=3 12 -3 4 20 6 7 8 -5 -9 -7 21 16 19 15 -8 -2 -6 -12 -13 -1 27 -20 24 -22 -25 -16 -4 -15
right_child=1 2 11 5 17 10 14 9 -10 -11 18 13 -14 28 26 -17 -18 -19 22 -21 23 -23 -24 25 -26 -27 -28 -29 -30
leaf_value=0.0079505265329946357 -0.22025449377191789 0.27031017917307776 -0.26521044137929434 -0.0004277883680287112 -0.11009084586859605 0.096428684330923595 0.0068998017126402338 0.00090102556007975293 -0.098225300582601677 0.047026452609142587 -0.016673770929454199 0.18950223164397909 0.293787157491535 -0.21113392266735989 -0.22069675463511776 -0.20364648637746083 0.14178975378945743 0.17106031921201575 -0.1252736232578015 -0.10227811990471332 -0.01008946833384214 -0.10259608473063524 -0.25426939170110108 -0.33794655700305459 -0.21560652708290831 -0.22954759377374637 -0.2621264326436481 -0.22399304028986675 -0.23321708542708483
leaf_weight=1.6061975555494434 1.8427051589824257 1.552601995877924 1.431294806301598 1401.1611112888204 2.8852735152468076 3.6504568378441062 11.062303746119143 421.18275025684852 47.358567229937762 249.09290510875871 3.9474215051159272 3.3656514920294267 3.0285471670795232 1.706603520549834 3.2114344439469278 4.4168247128836802 2.3497540287207803 4.158559640403837 2.3067696643993258 2.3668917973991483 0.87629382056184146 2.8607212146744123 7.3733529869932646 0.7506861537694921 1.1441441723145551 8.5187229218427074 2.2288351994357063 13.977219256805256 1.3295083511620758
leaf_count=18 22 7 8 4887 32 31 125 3615 594 2171 38 22 18 35 39 54 35 30 20 25 19 29 60 3 23 123 14 164 12
internal_value=0 -0.079355 -0.127975 0.000363046 -0.103219 0.00132059 0.00220876 0.00322931 -0.00362523 0.0180425 -0.10867 -0.150846 0.11315 -0.0313239 -0.101156 -0.0531776 -0.017339 0.055896 -0.163611 0.06903 -0.190128 -0.208213 -0.22353 -0.218309 -0.126471 -0.238326 -0.23767 -0.227822 -0.220804
internal_weight=0 35.8115 28.5905 2176.93 19.9399 2156.99 2139.71 2118.8 1448.52 670.276 17.278 27.0379 7.22101 8.76866 20.9194 15.4791 4.19246 7.04383 13.6275 5.73254 12.896 18.2692 9.68012 11.2898 2.02044 9.26941 5.44027 15.4085 3.03611
internal_count=12273 377 302 11896 248 11648 11499 11267 5481 5786 149 295 75 94 232 179 57 62 118 47 186 201 80 168 42 126 53 172 47
is_linear=0
shrinkage=0.3


Tree=110
num_leaves=31
num_cat=0
split_feature=237 79 253 43 111 249 58 80 249 159 153 125 19 71 228 129 211 221 156 175 269 215 78 291 30 282 177 66 248 86
split_gain=1.76916 2.55573 1.80798 2.69412 1.79308 3.84966 2.97595 2.96697 2.93811 3.21794 3.19378 2.83855 3.45958 2.67126 3.23559 2.5214 2.46372 2.485 2.45003 2.43648 2.39289 2.32347 2.28808 2.26423 2.21772 2.20036 1.7942 1.62729 1.55714 1.36323
threshold=-0.091868001967668492 -0.028168500401079596 -0.060960499569773646 -0.016820706463863674 0.055029965551513786 -0.0022495000157504498 -0.049715004345078091 0.015607499983161603 -0.0063130001071839996 -0.026014706709873932 -0.013731575092325031 -0.0094488468747732073 0.029846607095153816 0.0089639998041092517 -0.042273499071597991 -0.096019502729177378 0.058228999376296955 -0.064156180923647679 0.032531752931916402 -0.099039706688092935 0.037696802335287501 -0.017705181110761709 -0.073068499565124442 -0.049248162722018186 -0.029858999885618649 -0.0071320006056362828 -0.010567331141439656 -0.097378998994827173 0.013835072844258788 -0.0095279999077319492
decision_type=2 2 2 2 2 2 2 2 2 2 2 2 2 2 2 2 2 2 2 2 2 2 2 2 2 2 2 2 2 2
left_child=1 -1 3 -3 8 6 -6 11 9 10 28 12 -7 14 -11 26 17 -17 21 -13 -12 -9 29 -24 -20 -18 -10 -4 -2 -8
right_child=4 2 27 -5 5 7 22 18 15 13 20 19 -14 -15 -16 16 25 -19 24 -21 -22 -23 23 -25 -26 -27 -28 -29 -30 -31
leaf_value=0.11718783699720409 0.17559071747139351 -0.13552190763830416 0.067327446668589808 0.19332679717082374 -0.12017104914137901 -0.0065765063233160278 0.27338551790598398 0.18605205954314921 0.019840107431988562 -0.13698367252684229 -0.15102856334629611 0.10534826395859428 0.12022212488326618 -0.18853971964542968 -0.013863449123077376 0.053193407010713914 -0.19000249441148695 -0.00052341352427905574 0.011252191402462098 -0.041483534005831491 0.038934615901389656 -0.021369853308584808 -0.083946665854791158 0.098674445237905445 -0.13730212544224901 0.065430517682168315 0.27835394504628913 -0.18114055674819365 -0.069546875658881374 0.12219933646476802
leaf_weight=5.7728919815272084 13.33735619671643 5.0243336670100689 2.7251065913587835 4.0491372221149522 5.6922233644872895 33.113093006424606 8.9781993478536624 6.075800288468602 4.649703174829483 27.478322307579219 10.10333536565304 12.373127697035669 46.646640731021762 14.740462467074392 63.845856031170115 80.711439059581608 11.013510784134267 1953.0297802763525 13.076191570609806 57.148872587829828 14.580642823129891 24.296564587391913 7.6426046015694729 30.475648177787662 29.33320140093565 4.1898124124854794 5.0303590148687345 18.32244830369018 2.8263184521347275 13.34785810112953
leaf_count=35 83 34 22 22 46 241 42 37 34 244 75 80 281 149 493 620 90 8041 89 403 93 209 51 201 231 31 23 151 22 100
internal_value=0 -0.0656672 -0.100713 0.0112305 0.00141346 0.0236674 0.0872009 0.00474534 -0.00149448 -0.0424826 0.029063 0.0289583 0.0675803 -0.0700362 -0.0509088 0.00143061 0.000708961 0.0016084 -0.0449175 -0.0153513 -0.0388187 0.0201236 0.10673 0.0620594 -0.091498 -0.119609 0.15418 -0.14897 0.132727 0.182997
internal_weight=0 35.8939 30.121 9.07347 2493.74 288.2 66.1365 222.063 2205.54 146.912 40.8477 149.282 79.7597 106.065 91.3242 2058.62 2048.94 2033.74 72.7818 69.522 24.684 30.3724 60.4443 38.1183 42.4094 15.2033 9.68006 21.0476 16.1637 22.3261
internal_count=12273 264 229 56 12009 2011 440 1571 9998 1159 273 1005 522 886 737 8839 8782 8661 566 483 168 246 394 252 320 121 57 173 105 142
is_linear=0
shrinkage=0.3


Tree=111
num_leaves=31
num_cat=0
split_feature=200 68 8 76 282 37 254 194 223 221 108 115 177 163 289 16 137 221 184 254 249 101 219 4 59 266 72 197 139 216
split_gain=1.83859 3.34664 3.12307 3.49811 3.13318 3.11493 2.98148 3.44669 3.09499 2.83133 3.21076 2.92523 2.89499 2.69463 2.69377 2.61774 2.54094 2.52746 3.48151 3.04013 2.79638 2.64457 2.45316 2.30541 2.24586 2.38153 2.89533 2.22757 2.21166 2.17541
threshold=-0.070533499121665885 -0.065454501658677985 0.10336050018668171 0.012877263283166946 -0.050749000161886194 -0.04688150063157074 -0.0021780000533907994 0.012698579420987739 -0.058398000895976993 -0.028212999925017298 -0.038123514560662743 -0.0051417661957250558 -0.11437100172042843 0.08607250079512592 -0.068934500217437689 -0.074288886409738145 -0.13581249862909311 -0.014474499970674447 -0.019085000269114898 0.042240293651676523 0.017469755257230008 -0.080699998885393087 -0.012031500227749297 -0.0054935151181593799 0.09382750093936916 -0.03912123557738207 -0.060947999358177095 0.047295366316133201 -0.084306925712848604 -0.025336534080555074
decision_type=2 2 2 2 2 2 2 2 2 2 2 2 2 2 2 2 2 2 2 2 2 2 2 2 2 2 2 2 2 2
left_child=1 2 6 4 -4 14 7 15 -9 -3 16 12 -12 17 29 -1 -11 18 20 -20 -7 28 -8 -18 25 26 -16 -23 -19 -2
right_child=5 9 3 -5 -6 13 22 8 -10 10 11 -13 -14 -15 24 -17 23 21 19 -21 -22 27 -24 -25 -26 -27 -28 -29 -30 -31
leaf_value=0.05084863290597038 0.11660505282794795 0.080625339077727357 -0.0080693965317591518 -0.090235258684431191 0.21325125187896807 0.073160119280258409 -0.030707930511327221 -0.23259920124782416 0.060861674151649357 0.20023697338784166 0.19330746322248374 0.072684360029270159 -0.060875284493661384 0.12020951025169392 0.25823907880518687 -0.093855008165054668 0.094579719326166059 -0.15308255028831172 -0.1090876943995875 0.12028974044249606 -0.039626179005711991 0.00040130500721499766 0.11869284233446978 -0.028100936915439998 0.075916915602616167 -0.14279728484248352 -0.069355058008260376 -0.080104595594570227 0.081179515827920407 -0.13954077132453577
leaf_weight=12.867634132970123 11.601945745758711 96.14606285863556 9.1648044865578395 8.7089566024951619 15.481512721627952 30.923397018341348 19.313788379076868 3.5890396013855925 32.738509563729167 10.801067929714916 4.2715951055288306 24.385099794948474 72.110435422509909 16.291589556261897 3.0101336836814889 89.583428495097905 31.769448862411082 3.8967645158991209 62.212293779943138 5.6747059780172995 54.925376883242279 1573.4812385865953 20.275617063045502 24.354321949183941 6.7584301456809035 43.370356129715219 12.557801550719883 31.553026637760922 52.40742496214807 4.01733842678368
leaf_count=106 78 730 68 65 96 283 183 46 225 56 27 195 474 118 15 789 225 42 694 40 455 5503 140 183 53 459 140 362 385 38
internal_value=0 0.0170381 -0.0110555 0.0732011 0.130953 -0.00380584 -0.0268117 -0.0475278 0.0318687 0.0395824 0.0160505 -0.0177796 -0.0466603 -0.00125476 -0.0612603 -0.0756805 0.0669877 -0.00234499 -0.0391458 -0.0899139 0.00100032 0.00106046 0.0458073 0.0413437 -0.0878842 -0.106667 -0.00601319 -0.00118134 0.0649664 0.0507234
internal_weight=0 475.561 211.723 33.3553 24.6463 1912.68 178.368 138.779 36.3275 263.838 167.692 100.767 76.382 1831.37 81.316 102.451 66.9248 1815.07 153.736 67.887 85.8488 1661.34 39.5894 56.1238 65.6967 58.9383 15.5679 1605.03 56.3042 15.6193
internal_count=12273 3608 1718 229 164 8665 1489 1166 271 1890 1160 696 501 7882 783 895 464 7764 1472 734 738 6292 323 408 667 614 155 5865 427 116
is_linear=0
shrinkage=0.3


Tree=112
num_leaves=31
num_cat=0
split_feature=47 272 124 184 183 50 173 291 77 259 99 266 218 192 43 38 5 43 251 119 25 160 61 288 232 118 96 241 37 80
split_gain=2.33082 4.06538 2.56637 2.46681 2.6003 2.33356 2.42798 3.46554 2.56413 5.85531 4.60948 3.56295 3.23428 2.54924 2.3393 2.17178 2.12702 2.09609 1.96355 1.93636 1.88245 1.82307 1.6801 1.61978 1.8221 1.21658 1.14379 1.1402 1.02086 0.875801
threshold=-0.066717789740387293 0.04935010035955454 0.036226028555173463 -0.0083575001917778977 -0.026450761887537724 0.1366124972701073 -0.088674500584602287 0.031461499631404856 -0.054183499887585591 0.039127999916672658 -0.020931085233041515 -0.081399277883421939 -0.049024614035651205 0.0039748974559433515 -0.061396999284624991 -0.033611216234096651 -0.019940673318884026 -0.045479203545179037 -0.064646915762576432 -0.11103549972176543 0.026755999773740751 -0.023721842000884372 -0.0062765001785009492 0.047678999602794606 0.019885499961674154 -0.0023734999122097494 0.033422827386556685 0.0003846621702690839 0.010354000143706752 -0.022240499965846497
decision_type=2 2 2 2 2 2 2 2 2 2 2 2 2 2 2 2 2 2 2 2 2 2 2 2 2 2 2 2 2 2
left_child=1 3 20 4 16 6 7 15 10 12 13 -12 -10 -8 -11 -2 25 -9 -6 -17 -3 -4 -19 24 -5 -1 -7 -20 -26 -18
right_child=5 2 21 23 18 26 8 17 9 14 11 -13 -14 -15 -16 19 29 22 27 -21 -22 -23 -24 -25 28 -27 -28 -29 -30 -31
leaf_value=0.1235314261341776 -0.21507960547586022 -0.18887367487772702 0.20082826043823093 -0.067058098077392062 0.13957023891698661 0.017977478688745659 -0.16924242303646875 -0.13102678813763069 0.049162469894873745 0.032249191186872181 -0.12330332771791291 0.074513708684399133 -0.0010830483934729396 0.055011095736470762 -0.12492183182173301 -0.21714248648853798 0.0177665709194838 -0.21562778158531651 -0.20062859225255122 -0.033001245000105414 0.1128676606526626 -0.11715108812565972 0.1638100986477399 -0.13490812934409757 0.21411488702052212 -0.18894747686170296 0.26928974918496956 -0.020806595568311565 0.0031765588200251844 0.21325005628656415
leaf_weight=1.5862351516261695 10.752367570996283 26.279067182214934 3.2418106608092785 3.60134961083532 2.3266423484310534 2.6129215573891988 13.370792884379627 3.710699110524728 123.67617870005779 10.462080125929786 8.7926165764220041 120.47508266346995 1702.216112221824 6.9251017719507209 45.979471629019827 6.1187077844515434 3.2643635109998277 1.163107436033896 12.406839633127676 32.117561500403099 2.0025885892100623 3.2491479343734673 10.82480577402748 2.5361336376518002 10.729631782509385 3.8262303918600074 4.3323962409049273 4.2642485040705642 2.5569843482226124 5.6031059799715868
leaf_count=22 121 309 21 33 23 31 150 51 997 139 79 1060 7315 64 607 127 31 23 158 406 19 45 121 23 94 44 25 60 28 47
internal_value=0 -0.0488423 -0.128463 0.00369139 -0.0458959 0.0011361 0.000561 -0.0566565 0.00238257 -0.000621464 0.0401898 0.0610585 0.00232031 -0.0927255 -0.0957884 -0.0959644 0.0508302 0.0660067 -0.118602 -0.0624682 -0.167508 0.0416589 0.126996 0.0886451 0.122217 -0.0973691 0.174743 -0.154632 0.17352 0.141287
internal_weight=0 87.4744 34.7726 52.7018 33.2777 2103.53 2096.58 64.6872 2031.9 1882.33 149.564 129.268 1825.89 20.2959 56.4416 48.9886 14.2799 15.6986 18.9977 38.2363 28.2817 6.49096 11.9879 19.4241 16.888 5.41247 6.94532 16.6711 13.2866 8.86747
internal_count=12273 957 394 563 385 11316 11260 849 10411 9058 1353 1139 8312 214 746 654 144 195 241 533 328 66 144 178 155 66 56 218 122 78
is_linear=0
shrinkage=0.3


Tree=113
num_leaves=31
num_cat=0
split_feature=217 265 219 0 241 10 79 46 255 296 140 223 260 210 238 224 243 255 118 295 114 65 12 98 194 119 193 243 299 78
split_gain=1.50654 2.72255 2.84712 2.85871 3.02257 3.05668 2.473 2.28945 2.16422 3.17816 2.85676 3.23446 3.43384 2.62937 2.44661 3.38536 3.07913 2.51947 2.4395 2.36787 2.30954 2.22123 2.06782 2.03917 1.98546 2.8142 1.91405 1.89436 1.78492 1.6918
threshold=0.093936000019311863 0.039468636951740486 -0.023720254265785511 0.053550999611616107 -0.014157500118017148 -0.0084655000828205984 0.038817999884486157 0.0080401186535861546 -0.028189499862492046 0.035732500255107859 0.062477442210114621 -0.031602999195456442 0.1120739988982677 -0.14644664773863927 -0.10628774572420792 -0.15372200310230247 -0.038883584740524814 0.010561313807764702 0.0062998199974890106 0.038582000881433459 -0.029007095795152951 0.062746498733758913 -0.041601283665226578 0.019675791594828837 0.0080400002188980024 -0.079631616546279704 0.045760630543811118 0.016830280805315893 0.00046199999633240004 -0.039409064492976133
decision_type=2 2 2 2 2 2 2 2 2 2 2 2 2 2 2 2 2 2 2 2 2 2 2 2 2 2 2 2 2 2
left_child=8 2 22 4 6 -6 -4 -3 9 10 11 20 -13 -10 16 17 18 -16 -15 -17 -1 -18 23 -2 25 -11 -24 -27 -12 -9
right_child=1 7 3 -5 5 -7 -8 29 13 24 28 12 -14 14 15 19 21 -19 -20 -21 -22 -23 26 -25 -26 27 -28 -29 -30 -31
leaf_value=0.079974634482166837 0.099640319514487166 0.097998847816917783 -0.080662583626499099 0.21826342394366111 -0.14075033007445784 0.12862406875034968 0.10093501851625548 -0.20334182760114036 0.16277538334455302 -0.069872947553847167 -0.066858844221271807 -0.088720293590434082 0.0036924328406972478 -0.045230843727327885 0.24345627448692869 0.00055097501993688655 -0.15540239043617024 -0.032402766182239577 0.15866107793434867 0.070677086926726085 -0.028189410028256534 0.047236568631014705 0.18633111428263602 -0.13760199260474695 -0.05324676761415368 0.19027669032156144 -0.0096400379588571401 -0.048221791827133979 0.19513031648553453 -0.034950109697071678
leaf_weight=26.846578545868397 8.9978672536089999 7.0460008736699846 37.741455592215061 5.7210972029715768 4.621372269466522 21.105380215682089 8.2188535854220373 8.5389127749949729 9.1281008459627611 6.8929644944146267 3.3886350421234948 135.361286299536 49.39209802262485 15.945698333904149 9.0711589735001308 1911.9786108194385 27.175070750527084 4.4373267814517012 7.8968240916728965 44.340261929668486 52.529023656155914 5.9309733537957063 25.688915516249839 5.1139398068189612 10.982812675647436 17.920370514504619 5.4343847110867491 3.599354224279522 7.566143702249974 14.467782845720645
leaf_count=177 67 60 253 40 40 158 50 70 52 55 32 1117 256 106 46 8005 247 30 42 299 385 49 162 43 94 112 42 38 45 101
internal_value=0 0.0292988 0.0491284 0.0141865 -0.00210014 0.0802356 -0.0481884 -0.0516249 -0.00145272 -0.0246152 -0.0360283 -0.0422545 -0.0640146 0.00212512 0.00140159 0.00317385 -0.0599002 0.152841 0.0222997 0.00214039 0.00839405 -0.119099 0.108922 0.0136667 0.0550781 0.0969507 0.152113 0.150386 0.114089 -0.0974485
internal_weight=0 152.696 122.643 77.4082 71.6871 25.7268 45.9603 30.0527 2350.38 314.479 275.084 264.129 184.753 2035.9 2026.78 1969.83 56.9486 13.5085 23.8425 1956.32 79.3756 33.106 45.2351 14.1118 39.3955 28.4127 31.1233 21.5197 10.9548 23.0067
internal_count=12273 1086 855 541 501 198 303 231 11187 2311 2012 1935 1373 8876 8824 8380 444 76 148 8304 562 296 314 110 299 205 204 150 77 171
is_linear=0
shrinkage=0.3


Tree=114
num_leaves=21
num_cat=0
split_feature=243 14 199 59 137 177 138 132 91 47 267 185 144 130 219 22 105 27 177 1
split_gain=1.84029 2.00447 1.99602 2.25841 1.65403 1.53793 1.61609 3.34846 2.74372 2.6698 3.08809 2.74244 2.04344 1.10927 1.01105 1.00462 0.909254 0.749433 0.275399 0.0818816
threshold=-0.13163799792528144 0.018824703616844057 -0.051616733411002466 0.046069500967860159 -0.19442749768495551 0.082554001361131613 0.019446379031251616 -0.072201501578092533 -0.025183000601828046 -0.033848999068140893 0.030609000474214502 -0.075330998748540781 -0.13178949803113926 -0.010362257800441683 0.005278000142425251 0.0053975000046193001 0.014138999860733701 0.027875361724876872 -0.040160998702049193 -0.011257499922066897
decision_type=2 2 2 2 2 2 2 2 2 2 2 2 2 2 2 2 2 2 2 2
left_child=1 16 14 17 -2 6 7 8 -6 11 -11 -8 -9 -7 -3 -15 18 -4 -1 -17
right_child=4 2 3 -5 5 13 9 12 -10 10 -12 -13 -14 15 -16 19 -18 -19 -20 -21
leaf_value=0.27183502183934755 0.17014715012179463 0.017693547756966525 -0.044568337747653612 0.13538747954354047 0.17199189048532479 -0.057152870398615684 0.18890012229670744 -0.14768338304158185 0.026140485565331464 -0.059469082645103338 0.022745404548064108 0.0031536589192448961 0.0004526935766316483 0.023516333804493899 0.2590423274972487 0.2553906415228609 0.046708077797873657 -0.24295888394514631 0.1630072192383567 0.18550972274545238
leaf_weight=4.6105750873684874 5.0931459721177808 3.0374484080821302 2.8016190081834775 3.246212949976325 17.997205012477934 2.9554250333458194 7.5912290595006189 8.4179927422665042 32.698411588557065 172.37938222894445 53.998952144756913 124.15461700689048 1894.349786835257 3.457094525918361 3.2163270935416222 3.5330018997192374 3.8622072860598555 4.413093245588243 3.832314237952235 2.6342731527984151
leaf_count=19 29 30 21 22 122 26 61 84 281 1693 443 1157 8111 25 16 20 33 35 22 23
internal_value=0 0.0753881 0.00773816 -0.0724187 -0.000628119 -0.00100235 -0.00157165 0.0018247 0.0779185 -0.0200978 -0.0398581 0.0138564 -0.000202672 0.103608 0.14182 0.152974 0.167281 -0.16592 0.222437 0.225542
internal_weight=0 29.0198 16.7147 10.4609 2329.26 2324.17 2311.59 1953.46 50.6956 358.124 226.378 131.746 1902.77 12.5798 6.25378 9.62437 12.3051 7.21471 8.44289 6.16728
internal_count=12273 198 124 78 12075 12046 11952 8598 403 3354 2136 1218 8195 94 46 68 74 56 41 43
is_linear=0
shrinkage=0.3


Tree=115
num_leaves=31
num_cat=0
split_feature=109 4 103 99 155 156 171 190 119 164 41 176 37 173 107 7 160 171 93 254 9 163 47 49 151 213 172 155 174 48
split_gain=2.35814 3.2057 3.05983 3.3038 2.98697 2.98388 2.7439 2.42891 2.39489 2.71744 2.28987 2.59256 2.68602 2.43381 3.891 3.60471 3.44119 3.00917 2.95885 2.52108 3.17386 2.92863 2.91011 2.50235 2.38399 2.48028 1.93091 1.7294 1.72246 1.71116
threshold=0.10583134612806754 -0.031132754038846341 0.019460000097751552 0.028302252955387835 -0.022707000374793947 0.098248999565839754 -0.086600076941066376 -0.035608999431133243 -0.0589018054239712 0.01933999457782588 0.09048431887688467 -0.011271500028669749 -0.051216999068856142 0.0014709244645931935 -0.033225184842261272 -0.018718999810516796 -0.050142999738454742 -0.031027499586343696 0.055241500958800253 0.024666828957145993 -0.048900203710261485 0.02142899038587194 0.026665999554097604 0.064698848103462575 -0.032438293473678138 0.021445674469060826 -0.0094856270496543778 -0.015494999941438398 0.12478291277647863 -0.034873162717288124
decision_type=2 2 2 2 2 2 2 2 2 2 2 2 2 2 2 2 2 2 2 2 2 2 2 2 2 2 2 2 2 2
left_child=10 5 3 8 7 26 -5 -4 -3 -10 13 -12 -13 19 16 23 -15 -18 -17 20 21 -1 -22 -16 25 -21 -2 -8 -26 -6
right_child=1 2 4 6 29 -7 27 -9 9 -11 11 12 -14 14 15 18 17 -19 -20 24 22 -23 -24 -25 28 -27 -28 -29 -30 -31
leaf_value=0.10225079613581949 -0.14972327329764465 0.17207854927642094 -0.13439194294689505 0.21815703408695541 -0.2344039216716422 -0.20814751933962242 0.033090433581701391 0.14646181928368462 -0.093593755086929561 0.19218062729215898 -0.12459227136504511 0.15236769647191994 -0.060237414820893058 -0.19201452594284793 0.058997586692996776 0.1826011443641295 0.067066394721194897 -0.055356528579021187 -0.057135572061195156 0.10877393635840434 0.001172905160509867 -0.0758052870421215 -0.067680163438673863 -0.074349430268667818 -0.16235064283482081 -0.16328564589373179 0.025859396440408352 -0.21653784596234199 0.1433413555741222 -0.060868090350726566
leaf_weight=47.00514575582929 9.2239564778283256 17.512386983959004 4.3916595629416406 2.3527141427621237 10.057159348390995 16.635700703598559 3.6583999772556117 7.5115160867571813 8.821770137757996 4.533807296305894 27.196230209141504 8.019258417189123 16.056413107318804 8.9372143191285414 68.164595874259248 31.220578296110034 35.823131605051458 36.463393819751218 5.4408286317484444 9.2617855332791788 1639.0463995835744 10.10004469216801 57.173613990016747 15.55600625486113 20.931026724632833 4.4721490459050974 14.495124912820755 7.8730444381944826 1.80171339213848 10.404474262963051
leaf_count=523 99 112 49 18 85 137 44 63 82 38 306 62 168 83 590 232 306 350 50 85 7236 105 606 147 258 67 163 74 18 117
internal_value=0 -0.0422316 -0.00638162 0.0444372 -0.0766509 -0.11074 -0.0771017 0.0428412 0.0991045 0.00341785 0.00147852 -0.0611204 0.0105783 0.00309023 0.0343392 0.0685735 -0.0163996 0.00531277 0.147022 -0.000429714 0.00119408 0.0707585 -0.00114789 0.0342206 -0.0785019 0.0201838 -0.0424218 -0.137342 -0.138123 -0.146163
internal_weight=0 117.472 77.1169 44.7521 32.3648 40.3548 13.8842 11.9032 30.868 13.3556 2042.67 51.2719 24.0757 1991.4 201.606 120.382 81.2237 72.2865 36.6614 1789.79 1753.33 57.1052 1696.22 83.7206 36.4667 13.7339 23.7191 11.5314 22.7327 20.4616
internal_count=12273 1081 682 368 314 399 136 112 232 120 11192 536 230 10656 1758 1019 739 656 282 8898 8470 628 7842 737 428 152 262 118 276 202
is_linear=0
shrinkage=0.3


Tree=116
num_leaves=31
num_cat=0
split_feature=4 291 72 88 19 27 5 62 114 219 109 200 296 141 162 19 142 149 28 263 89 155 120 154 245 102 290 212 195 156
split_gain=1.46351 2.52251 2.50302 2.71152 2.70311 2.6694 2.62008 2.96283 2.89534 2.42022 2.41088 3.11052 4.11789 3.83838 2.92286 2.88257 2.65391 2.51496 2.74832 2.73216 2.37032 2.24732 2.23557 2.18717 2.47297 2.26343 2.19768 2.18619 2.1275 1.83794
threshold=-0.046687999740242896 0.064982999116182258 -0.0095868444101974547 0.045032000169157906 0.098937521626616551 0.057729526118291401 0.025292499922215852 0.018144999630749201 -0.06971849873661988 -0.011482412520823828 0.080824259048481228 -0.10619799792766564 -0.052152010495803418 0.038096725219554414 0.14170499891042707 0.11564217884894741 -0.0015394999645649498 0.061251488154394511 -0.11309020575373292 -0.00030626722365138451 -0.075936000794172231 -0.039913000538945143 -0.004063499858602799 0.070713231641512928 0.05519550107419486 0.061805998906493159 -0.093150500208139336 -0.023630499839782649 0.093943499028682667 0.10043801797072553
decision_type=2 2 2 2 2 2 2 2 2 2 2 2 2 2 2 2 2 2 2 2 2 2 2 2 2 2 2 2 2 2
left_child=1 2 6 4 27 29 7 20 -9 -7 14 12 -12 17 23 16 -14 18 -13 -19 -1 -8 -15 24 25 -2 -25 -4 -28 -5
right_child=10 -3 3 5 -6 9 21 8 -10 -11 11 13 15 22 -16 -17 -18 19 -20 -21 -22 -23 -24 26 -26 -27 28 -29 -30 -31
leaf_value=0.28371775858197362 0.0011293377956171772 0.13465717305523439 0.15349076962450472 -0.064303019320147856 -0.15597646416098002 -0.089142191489553269 -0.075524831002790518 0.21634944596142422 -0.086068172906534415 0.10301399004077356 -0.13155000952660167 0.067585940781026616 0.16297597436483571 -0.049587018302568238 0.10973374502724846 -0.1821613544781446 0.013680980090440687 0.14944021880949038 -0.099635208328573352 -0.11934164619108559 0.037221949070103816 0.12999751773168847 0.080556492422246717 0.16349694999412243 0.099622910974412102 -0.14456127532088683 -0.13160335728617253 0.0065621480793995601 0.078927972326800599 -0.20980791452574557
leaf_weight=3.7199685871601096 1855.79880333459 16.537596372887492 16.27335793338716 41.156884229276329 5.4023036509752265 9.6654619723558444 5.505358798429369 3.140472710132598 30.723689516540617 15.13892546482384 11.320177654735742 9.5669218190014345 22.581644583493468 20.917287211166695 22.177807366475463 3.7491121208295217 20.394202929921452 8.7995426524430496 117.31975200842135 5.550690663047134 62.50004251068458 36.767717438749969 27.492521731182933 3.1893977839499703 22.872801646590233 9.6471253028139454 26.799073942471299 20.717310350388288 5.1501473151147357 9.6437031710520369
leaf_count=16 7891 109 105 340 46 74 45 15 207 95 82 58 113 162 148 30 137 50 899 51 400 216 184 16 163 85 253 161 36 86
internal_value=0 0.021044 0.0138274 -0.0184816 0.0422506 -0.0525351 0.0406079 0.0141571 -0.0580228 0.028137 -0.00210217 -0.0299783 0.0307892 -0.0485774 0.00144664 0.0701196 0.092128 -0.0735644 -0.0870272 0.045475 0.0510691 0.103232 0.0243231 0.000198069 0.00157806 0.000375901 -0.0739614 0.0712007 -0.0976661 -0.0919249
internal_weight=0 276.893 260.355 117.998 42.393 75.605 142.357 100.084 33.8642 24.8044 2193.33 247.692 58.0451 189.647 1945.64 46.725 42.9758 141.237 126.887 14.3502 66.22 42.2731 48.4098 1923.46 1888.32 1865.45 35.1386 36.9907 31.9492 50.8006
internal_count=12273 1915 1806 907 312 595 899 638 222 169 10358 1766 362 1404 8592 280 250 1058 957 101 416 261 346 8444 8139 7976 305 266 289 426
is_linear=0
shrinkage=0.3


Tree=117
num_leaves=31
num_cat=0
split_feature=125 283 22 144 196 281 261 124 68 45 90 252 229 164 105 136 99 201 155 145 201 155 171 8 172 139 63 149 203 223
split_gain=1.62324 2.00002 2.11791 2.07546 1.83694 2.52891 3.05691 2.61372 2.4798 2.43395 2.79702 2.44945 2.61087 2.39535 2.34237 2.27883 2.26522 2.20877 2.17158 2.15884 2.28367 2.04043 2.01393 1.97647 1.82746 1.82231 1.75436 1.62293 1.61797 1.59254
threshold=-0.078237447305314609 -0.025519749097907839 -0.041150850787084518 -0.1060374568267846 0.037423100055207097 -0.028076999820768746 0.022317999973893155 -0.033425999805331195 -0.12424106000005383 0.00719610190709864 -0.011786499992012948 0.089724000543355914 -0.0088266715692772238 -0.098024997860193183 -0.039454000070691046 0.0067485518789009488 0.097730997949838569 -0.097226500511169392 0.066125500947236973 -0.037564499303698491 -0.029537499882280795 0.058394500985741553 -0.018975298362030584 0.011628658273698607 -0.061366500332951442 0.0024215338357908064 -0.013956000097095899 -0.005653999978676349 0.11653173093358986 -0.082207106864851012
decision_type=2 2 2 2 2 2 2 2 2 2 2 2 2 2 2 2 2 2 2 2 2 2 2 2 2 2 2 2 2 2
left_child=1 -1 -3 -4 8 6 22 19 15 11 14 18 -13 -12 -11 25 17 -9 -10 23 -21 -17 -6 -7 -8 27 -27 -2 29 -5
right_child=4 2 3 28 5 7 24 16 9 10 13 12 -14 -15 -16 21 -18 -19 -20 20 -22 -23 -24 -25 -26 26 -28 -29 -30 -31
leaf_value=-0.15436827529766939 0.034951495759567915 -0.076607515209853566 -0.17912770407540554 -0.099131838927315308 -0.10302187835612252 0.17888790218274153 0.091730643878231002 0.11208365635257267 -0.0016721405685357672 -0.081930835741252386 0.30316727660661436 0.023529114421072479 -0.1057667033232659 -0.019778382147689302 0.11419993193882509 -0.17412272741785137 0.116623097573402 -0.069627428007133396 0.070121746762179749 0.17230094673289967 0.02647231794848336 0.20234204148582952 0.14734694710569968 -0.14122086334094672 -0.11871007280871772 -0.13664408418180721 0.17751549845332645 0.26121043601574295 -0.16273647956057488 0.10729349448609712
leaf_weight=4.3783010377082965 3.9307534093968615 9.6741024432703835 2.790992726571857 3.5790977005381128 4.4716888573020688 2.1966660786420098 3.9920499119907609 6.60246813064441 1820.2078157681972 6.1819677706807843 2.1591266859322777 21.549415454268456 40.421301567577757 48.472866896074265 48.28560165851377 4.5107621983624986 7.7643040125258258 68.297598888399079 38.724522226955742 14.954769655130802 27.3218222563155 1.8179379752837119 8.1826612986624223 8.2769677494652552 53.301600273698568 3.495619676541537 2.9497410361655048 10.407891097478569 2.2784825693815938 55.871907058637589
leaf_count=48 39 73 22 47 56 16 38 67 7563 52 13 186 416 406 375 63 59 758 275 119 202 17 59 74 655 30 21 54 15 455
internal_value=0 0.0426632 0.0542903 0.0739169 -0.00120011 -0.0282526 -0.074573 -0.00432591 0.00150581 0.000299693 0.0447536 -0.00213254 -0.060806 -0.00600684 0.0919395 0.0916332 -0.0376203 -0.0536095 -0.00017656 0.0478495 0.0780572 -0.0659821 0.0588737 -0.0740835 -0.104047 0.139627 0.00713211 0.199184 0.0853579 0.0948662
internal_weight=0 78.5729 74.1946 64.5205 2258.48 205.363 69.948 135.415 2053.12 2026 105.1 1920.9 61.9707 50.632 54.4676 27.1127 82.6644 74.9001 1858.93 52.7502 42.2766 6.3287 12.6544 10.4736 57.2937 20.784 6.44536 14.3386 61.7295 59.451
internal_count=12273 660 612 539 11613 2103 808 1295 9510 9286 846 8440 602 419 427 224 884 825 7838 411 321 80 115 90 693 144 51 93 517 502
is_linear=0
shrinkage=0.3


Tree=118
num_leaves=29
num_cat=0
split_feature=120 269 107 228 189 30 208 275 289 295 86 157 59 44 192 11 92 128 246 240 271 237 205 171 21 214 8 100
split_gain=2.09966 2.08863 2.48629 2.27627 2.23434 2.982 2.0768 2.23393 2.26341 2.17541 2.15958 2.30314 2.15682 2.03093 1.96994 1.85283 1.84209 1.56063 1.30501 1.04369 1.03919 0.782568 0.598088 0.267878 0.252612 0.0338313 0.0207946 0.00815937
threshold=-0.10238499939441674 0.18729700148105624 -0.01128529421420927 -0.048998501151800093 -0.033623000606894445 -0.039876500144600792 -0.09310871025552199 0.035284500569105107 -0.0041131562148905452 -0.097586955795104458 -0.058736000210046692 -0.016185640158883168 -0.0017539999680592996 0.027517500333487901 -0.060474500060081447 0.047144799722988094 0.00072287729684930406 -0.033718500286340693 -0.014882500283420049 0.095342997461557361 -0.0033589999657123999 -0.061912000179290695 -0.072023499757051426 -0.078912826750223972 -0.053299998864531496 0.014148443938639321 0.011043999809771752 -0.14292127878147234
decision_type=2 2 2 2 2 2 2 2 2 2 2 2 2 2 2 2 2 2 2 2 2 2 2 2 2 2 2 2
left_child=20 6 4 19 5 -3 7 8 15 13 11 -11 -12 14 -8 -2 -9 -18 -15 -4 -1 -10 -22 -24 25 -6 -25 -28
right_child=1 2 3 -5 24 -7 9 16 21 10 12 -13 -14 18 -16 -17 17 -19 -20 -21 22 -23 23 26 -26 -27 27 -29
leaf_value=0.042116716119676337 -0.069618093848145018 0.13374361117333453 0.23095526287013118 -0.18393912979259319 -0.23731281213026642 -0.24789759907601089 -0.13414616123426643 0.32573719556003944 -0.016976569019830662 0.036356342736926214 0.030500610309142626 -0.10934077721094811 -0.0010446103558948018 -0.25592197649816328 0.12843983476488047 0.20237687398104426 0.2112654561066018 -0.1729485261654172 0.016097455891790246 0.0056427674009225087 0.036307731629103682 -0.20751498625586798 -0.079196691872732178 -0.24657605487413273 -0.15757049023961273 -0.27717314994761882 -0.18145132850952481 -0.21841746957084066
leaf_weight=2.5534653258509943 11.578024899587037 4.7047009281814098 4.0551621131598949 2.9295374851208162 5.1954211057163793 3.0289492579177049 2.8213569987565306 2.0732119658496222 2.2584946891292956 14.217362243914975 219.53975334292045 31.17904136038851 1750.0730459441547 2.320439494214952 29.011197279207408 2.7989130294881752 1.562066223472357 2.4341454843524843 5.0238853404298416 3.4030990852043033 1.0729756914079178 13.756361343432216 1.3358243070542792 2.7030658442527038 3.6919581112451842 3.0363489165902138 0.63653313112444943 3.4502893853932641
leaf_count=29 149 30 21 29 42 27 40 12 25 137 1981 446 8491 24 293 22 12 43 58 28 15 154 23 19 30 14 19 60
internal_value=0 -4.65982e-05 -0.0785822 0.0401343 -0.141317 -0.0157294 0.00108206 -0.0698892 -0.103074 0.00234178 0.000980493 -0.063711 0.00247153 0.0723575 0.105167 -0.0166659 0.0962778 -0.0227644 -0.0698471 0.128148 -0.127203 -0.180644 -0.174204 -0.202002 -0.222772 -0.252016 -0.226162 -0.21266
internal_weight=0 2120.69 30.0452 10.3878 19.6574 7.73365 2090.65 36.4612 30.3918 2054.19 2015.01 45.3964 1969.61 39.1769 31.8326 14.3769 6.06942 3.99621 7.34432 7.45826 11.7522 16.0149 9.19869 8.12571 11.9237 8.23177 6.78989 4.08682
internal_count=12273 12108 221 78 143 57 11887 417 350 11470 11055 583 10472 415 333 171 67 55 82 49 165 179 136 121 86 56 98 79
is_linear=0
shrinkage=0.3


Tree=119
num_leaves=31
num_cat=0
split_feature=227 288 196 93 43 203 174 146 24 188 220 142 41 232 105 194 79 95 106 178 267 250 17 124 26 265 113 14 241 22
split_gain=1.40878 2.59923 2.77288 2.64181 2.83949 2.57862 2.85297 2.35945 2.99668 3.08891 2.82714 2.54337 2.34799 2.33436 2.24722 2.54348 2.42317 2.22529 2.19135 2.30285 2.17891 2.05343 2.86073 2.81992 2.89207 2.82927 3.94121 2.65882 2.65506 2.60102
threshold=0.0088013410619651924 0.016100500710308503 0.06135100126266476 0.049900000914931256 -0.01123220731259008 -0.0016899871272290509 0.027936764714486736 0.041348351365135656 -0.042192147842418849 0.0012183699263633356 -0.00040400000580114993 -0.07718784647399464 0.043177500367164556 0.013798571605849247 -0.0048191318736059592 0.0046895997373994558 -0.0099842964768449925 0.074323325150247088 0.031207489488710275 -0.056927999481558744 -0.018877177808957556 0.10167599841952321 0.020339499227702552 -0.058145500719547195 -0.08639400079846378 0.042590999975800507 0.033192999660968704 0.065484002232551561 -0.023302999325096548 0.039447578383627876
decision_type=2 2 2 2 2 2 2 2 2 2 2 2 2 2 2 2 2 2 2 2 2 2 2 2 2 2 2 2 2 2
left_child=7 18 3 5 -5 -3 -7 21 9 10 -9 -11 -6 -12 16 17 -10 -16 19 -2 -21 22 29 25 27 26 -23 -25 -26 -1
right_child=1 2 -4 4 12 6 -8 8 14 11 13 -13 -14 -15 15 -17 -18 -19 -20 20 -22 23 -24 24 28 -27 -28 -29 -30 -31
leaf_value=0.0034999471038021463 -0.10062892221411786 0.050713506811841974 0.11552371516693627 0.18631656836970106 -0.21014336435087505 -0.18249018603158632 -0.030717860457005725 0.11026191891199506 0.15477397237691623 0.1603694648094505 0.11337758503806877 -0.15806479873730872 0.13645926880007384 -0.1228334790430336 -0.017020466497296289 -0.099443672043212986 -0.0022519667140343822 0.15072537039213521 0.10716638811792505 0.11923467840788621 0.00537097238764782 0.089307282192057857 -0.055104271102285232 -0.1407250953181961 0.020839714133225822 -0.15981839277977516 -0.15181492436567595 0.078865326998516991 0.094750193077620976 -0.045888614328562137
leaf_weight=1600.6935736280866 11.620501345023511 12.812021645717321 12.361719794571398 8.6468259738758189 4.2904718490317455 20.999548856634647 23.758066117181443 10.983493585139511 14.110752275213597 2.4049946982413521 4.7328305616974857 36.787859907839447 2.981354508548975 18.420711262151599 55.245776813942939 31.734279145486653 23.700152923353016 8.1700395280495268 42.523030935321003 22.878914612345397 44.633267886936665 18.513185171410445 87.42602055799216 13.759904140606524 94.715196424163878 13.015100966207681 9.0997477322816831 7.7618976384401313 81.280521110631526 102.09028970357031
leaf_count=6068 88 110 96 59 40 177 200 71 80 17 24 275 19 122 488 262 197 53 276 170 368 107 767 82 531 72 53 46 497 858
internal_value=0 0.0240352 -0.0159339 -0.0380469 0.0701232 -0.0679571 -0.101927 -0.00180585 -0.032373 -0.0810611 -0.0150869 -0.138525 -0.0680408 -0.0745494 -0.00552075 -0.0301066 0.056349 0.00459071 0.0522406 0.0227254 0.0439578 0.00130293 -0.00217851 0.0274739 0.0422796 -0.0445054 0.00984628 -0.0615292 0.054974 0.000538859
internal_weight=0 207.506 85.85 73.4883 15.9187 57.5696 44.7576 2234.65 206.291 73.3299 34.137 39.1929 7.27183 23.1535 132.961 95.1501 37.8109 63.4158 121.656 79.1327 67.5122 2028.36 1790.21 238.146 197.518 40.628 27.6129 21.5218 175.996 1702.78
internal_count=12273 1603 701 605 118 487 377 10670 1589 509 217 292 59 146 1080 803 277 541 902 626 538 9081 7693 1388 1156 232 160 128 1028 6926
is_linear=0
shrinkage=0.3


Tree=120
num_leaves=22
num_cat=0
split_feature=207 232 189 119 160 260 240 219 217 265 268 245 299 53 199 163 106 103 106 117 32
split_gain=1.62941 1.53342 2.79391 1.762 1.70026 2.37993 2.05168 2.12888 3.1629 2.95205 2.0342 1.96608 2.20966 1.89773 1.6969 1.43223 1.19894 1.13182 0.880928 0.247333 0.196348
threshold=0.12133499979972837 0.11794850230216976 0.048845992772907319 -0.11600299924612038 -0.055408500134944895 -0.00155049999011675 0.17028449475765228 -0.023155700490536769 0.0086489999666809533 0.079156000167131368 -0.068901497870683587 -0.042357999831437995 0.11205900087952611 0.057401327422647773 -0.045275500044226598 0.094042233510202758 -0.013285543762699316 -0.024774507400570637 0.045675501227378811 -0.021835499443113745 -0.0086340000852941981
decision_type=2 2 2 2 2 2 2 2 2 2 2 2 2 2 2 2 2 2 2 2 2
left_child=1 4 3 -3 5 16 7 8 -6 -9 -8 13 -13 -7 -12 17 -1 -5 19 -2 -18
right_child=18 2 -4 15 6 11 10 9 -10 -11 14 12 -14 -15 -16 -17 20 -19 -20 -21 -22
leaf_value=0.072134530374765041 0.27503428510594918 0.1357289495519263 0.17626837581038257 0.0064679343087381764 0.028057006046070022 0.019716682692889811 -0.070186243439793003 0.00021076406787389173 -0.044057046939554589 0.114712446942421 0.20938519591579247 0.023472441970252347 -0.20751750265969635 0.13288011831757801 0.032337933580016409 0.16411904583402201 -0.23055486861320904 -0.17009690336752833 -0.0083295938456242839 0.1421135873185006 -0.10951209200934234
leaf_weight=2.0368593093007803 2.63593490421772 2.6128148175776067 3.7761752521619192 3.9139039074070849 72.921556987799704 22.672608705703169 5.9811439439654377 1804.1173247741535 219.51336213736795 20.495039223693311 10.810658581554893 64.143903232412413 3.9571249131113282 32.391751123592257 8.8694543279707396 1.4711629562079895 4.1302606472745538 19.782931117340919 2.4301966391503811 2.4134992985054842 1.7036117231473316
leaf_count=20 16 32 26 47 680 192 34 7592 2154 157 56 499 37 248 62 11 39 297 20 26 28
internal_value=0 -0.000172408 -0.0658491 -0.0987595 0.00073911 0.0339128 -0.00128961 -0.00231165 -0.0260747 0.00149691 0.0830286 0.0441333 0.0100504 0.0862854 0.129593 -0.123103 -0.126023 -0.140934 0.140077 0.211502 -0.195208
internal_weight=0 2305.3 31.557 27.7808 2273.74 131.036 2142.71 2117.05 292.435 1824.61 25.6613 123.165 68.101 55.0644 19.6801 25.168 7.87073 23.6968 7.47963 5.04943 5.83387
internal_count=12273 12211 413 387 11798 1063 10735 10583 2834 7749 152 976 536 440 118 355 87 344 62 42 67
is_linear=0
shrinkage=0.3


Tree=121
num_leaves=31
num_cat=0
split_feature=170 136 28 232 194 221 122 128 154 230 93 144 139 20 226 259 215 169 288 190 78 9 111 9 51 206 293 59 45 27
split_gain=2.05079 1.94099 3.48115 3.29666 2.71279 2.37378 2.30556 2.57651 2.39975 3.61521 3.21191 2.85005 3.21047 2.66307 2.06314 2.03895 1.98422 1.8869 1.81841 1.44671 1.40517 1.16311 1.06882 1.06124 1.0048 0.848981 0.79581 0.792385 0.435572 0.165639
threshold=-0.081203637316287908 -0.073865000158548286 -0.078052498400211293 0.066181000322103514 -0.063048541458267979 -0.027245000004768347 -0.111182074318917 -0.027305080891306403 0.0003409474016410528 0.065520498901605564 0.065168000757694217 0.036194000393152202 0.012131967753315371 1.0000000180025095e-35 0.032910000532865503 0.040041500702500253 0.0077005414507525924 -0.0065154999028890987 0.082063499838113771 -0.061963500455021796 -0.10840949788689609 0.031577998772263458 0.066631499677896458 -0.072759997099637944 0.094636000692844363 -0.019390000030398345 -0.0085244998335837988 -0.00041925102790118699 -0.099165057509718296 -0.025981018163223502
decision_type=2 2 2 2 2 2 2 2 2 2 2 2 2 2 2 2 2 2 2 2 2 2 2 2 2 2 2 2 2 2
left_child=17 2 23 16 -5 -6 7 15 11 10 -10 12 -8 -11 -13 25 26 24 20 -18 -9 27 -20 -2 -1 -3 -4 -19 -25 -30
right_child=1 6 3 4 5 -7 8 18 9 13 -12 14 -14 -15 -16 -17 19 21 22 -21 -22 -23 -24 28 -26 -27 -28 -29 29 -31
leaf_value=-0.21905320370880446 0.12067965196056173 -0.024087958500094382 -0.051861112273883049 -0.18868661275052889 -0.1841558938457192 0.15696049750840721 -0.0024043581771522903 0.038442998749478881 0.051007820104483202 -0.18940640156471311 -0.064699926010577308 -0.21307110317431943 0.060820438367942459 0.00055710520980466562 -0.010875707409833174 -0.19726442306205216 -0.15654875184763845 0.099679791329764483 -0.12528918937899913 0.013584346091340193 -0.14265335233965662 0.22119166230094928 0.18213345299523223 -0.023446637805877624 0.0015698823772055033 0.20508107277245005 -0.22077093308887699 -0.21888768671331529 -0.10324461427918163 -0.22502922885488619
leaf_weight=9.0472355715464818 1.0058165173977602 1.9528199285268781 3.5987922358326605 2.9683782123029259 2.0605192012153628 16.851375375874337 1591.6329742388334 4.415638074278827 231.60390197962988 10.882226490997711 23.811207721941173 9.7349557732231933 75.721924813347869 17.044732556212693 8.5140002047410217 1.9456703234463928 5.7114029871299854 1.2792625669389965 1.5179976262152184 21.178245907416571 30.432795043452646 2.0511360487435013 3.0890943575650454 1.1725949253886927 2.3380016270093611 5.7058306308463198 8.3006323865847644 1.5591784114949394 1.1000877155456681 11.643495046126189
leaf_count=131 16 20 46 39 35 165 6657 48 2362 121 241 114 665 195 87 17 69 16 18 279 403 20 47 14 37 63 133 27 24 164
internal_value=0 0.000101884 -0.0470948 -0.0151666 0.0779447 0.119795 0.0018698 -0.0623696 0.00347044 0.0290157 0.0402209 -0.000823591 0.000466958 -0.0734655 -0.118737 0.0769765 -0.0676891 -0.106805 -0.0962895 -0.0225522 -0.119707 0.0490688 0.0808403 -0.176908 -0.173747 0.146647 -0.169687 -0.0753119 -0.198416 -0.214516
internal_weight=0 2093.6 75.5913 60.6693 21.8803 18.9119 2018.01 49.0598 1968.95 283.342 255.415 1685.6 1667.35 27.927 18.249 9.60432 38.7891 16.2748 39.4555 26.8896 34.8484 4.88958 4.60709 14.922 11.3852 7.65865 11.8994 2.83844 13.9162 12.7436
internal_count=12273 12042 984 766 239 200 11058 616 10442 2919 2603 7523 7322 316 201 100 527 231 516 348 451 63 65 218 168 83 179 43 202 188
is_linear=0
shrinkage=0.3


Tree=122
num_leaves=31
num_cat=0
split_feature=246 260 272 130 268 192 204 217 137 284 39 166 70 10 233 250 236 230 263 239 214 277 156 220 99 279 236 169 184 290
split_gain=1.46232 4.48059 3.45228 3.3797 2.79846 3.09027 2.91606 2.74997 2.96272 3.77713 3.61565 2.80698 2.7649 2.70149 2.64402 2.55699 2.53727 2.42748 2.34846 2.45497 2.3123 2.96517 2.8585 2.25994 2.22044 2.20157 2.17977 2.16204 2.08754 2.52387
threshold=-0.0057568175319561276 0.11336368696050415 0.040025500580668408 0.021503500640392251 0.027339500375091953 -0.053625400767139078 -0.0051361135585714403 0.011820000130683151 -0.052520999684929792 0.0096364999189972027 -0.054596500471234245 -0.017381000332534296 -0.028275172235371879 0.097871500998735358 0.058214104166085488 0.097489043265423708 -0.069966517280011659 0.045352629023597012 -0.093740999698638847 -0.030790000222623296 0.048589031699100373 0.069267999380826964 0.047275498509407009 0.064765997231006608 -0.053527500480413388 0.0020292060276061539 0.08500850200653072 -0.037288499996066045 -0.028546500019729099 -0.032701499760150847
decision_type=2 2 2 2 2 2 2 2 2 2 2 2 2 2 2 2 2 2 2 2 2 2 2 2 2 2 2 2 2 2
left_child=1 7 -3 13 5 6 -5 14 10 16 17 -11 -12 20 18 -8 -10 -9 -1 -20 21 -2 -23 28 -7 -22 -26 -27 -4 -30
right_child=3 2 23 4 -6 24 15 8 9 11 12 -13 -14 -15 -16 -17 -18 -19 19 -21 25 22 -24 -25 26 27 -28 -29 29 -31
leaf_value=0.14624970957887989 0.00018092528567089508 -0.0003580924374748303 0.17714917114939729 0.12985130265933215 0.08926188379758461 0.097855491336636277 -0.16733535241977637 -0.038101476979099533 0.20535322334392206 0.017740697538016881 -0.034265670796138063 0.10741015578458511 0.059245086781884788 0.1175445572832029 0.11702432505787753 0.10018944643978177 -0.055541412396531369 -0.19879058343992861 0.11282764774596479 -0.076087254393913298 0.12502006450241859 0.044425340282654983 -0.098826931763397727 -0.042770910808795699 -0.091908084026707207 -0.14926955251269922 0.099029902207554171 0.10870540766046448 0.0014024812343479136 0.18380883133778761
leaf_weight=5.0471751894801846 1571.8958937790012 42.95164833124727 33.833095822483301 14.369521753862502 13.132234918884931 6.4112838013097635 8.33065910451114 22.047626876272261 3.6553791314363471 56.643726451322436 60.784617207013071 70.553454193752259 53.508902044035494 17.538611340336502 8.8894938668236119 5.2367357388138762 40.812617734540254 13.730192055925725 6.6325213434174648 92.984499071259052 24.620183142833412 16.587587148882449 51.332563692121767 8.015899755060671 118.12402284215204 6.4636261626146734 5.6378895742818704 5.3388684503734094 18.719101507216696 10.746240515261887
leaf_count=36 5770 271 177 96 108 50 73 182 23 439 497 529 421 116 62 31 351 99 46 771 173 126 399 45 1074 61 37 39 107 64
internal_value=0 0.0139628 0.0668334 -0.00364538 -0.0438098 -0.0548624 0.0356715 8.40255e-05 0.01425 0.0411668 -0.0165399 0.0674784 0.00951335 0.00041528 -0.040053 -0.0640763 -0.0340952 -0.099768 -0.0533941 -0.0635093 -0.000810253 -0.00247085 -0.0638416 0.107302 -0.0742922 0.0739528 -0.08321 -0.0325744 0.126307 0.0679275
internal_weight=0 549.556 114.266 1865.02 171.242 158.11 27.9369 435.29 321.737 171.665 150.071 127.197 114.294 1693.78 113.554 13.5674 44.468 35.7778 104.664 99.617 1676.24 1639.82 67.9202 71.3143 130.173 36.4227 123.762 11.8025 63.2984 29.4653
internal_count=12273 4120 664 8153 1469 1361 200 3456 2541 1342 1199 968 918 6684 915 104 374 281 853 817 6568 6295 525 393 1161 273 1111 100 348 171
is_linear=0
shrinkage=0.3


Tree=123
num_leaves=27
num_cat=0
split_feature=85 199 239 169 62 246 123 46 63 236 100 89 291 275 188 172 82 216 95 149 130 219 157 107 131 78
split_gain=1.49718 1.73045 1.63837 1.56805 1.48768 1.51089 1.66032 1.50776 2.7937 1.73148 1.91005 1.5898 1.4479 1.25439 1.20306 1.05955 0.99132 0.845593 0.836679 0.825498 0.361089 0.273262 0.120416 0.0369558 0.00780858 0.00107088
threshold=0.091187499463558169 -0.016049660657079169 -0.057450000196695293 0.031326999887824052 -0.073875002562999684 -0.018837103802555228 -0.0064115000423043489 -0.02146173672415767 0.012092000339180202 0.11144350096583362 -0.10793003600949165 -0.10888599976897238 -0.039111500605940742 0.014088891703613706 0.016443950485598016 -0.048883998766541446 0.039818000048398909 -0.026822113052151132 0.044301516238106263 0.039637498557567555 0.026131613009586833 0.028606145286179933 0.021621155180414221 -0.055348114110732836 0.088170634682663562 -0.082449306440689915
decision_type=2 2 2 2 2 2 2 2 2 2 2 2 2 2 2 2 2 2 2 2 2 2 2 2 2 2
left_child=2 3 16 19 5 6 17 8 12 11 -11 -9 -6 -10 -3 -7 23 -4 -17 21 -8 22 -2 -1 25 -25
right_child=1 14 4 -5 7 15 20 9 13 10 -12 -13 -14 -15 -16 18 -18 -19 -20 -21 -22 -23 -24 24 -26 -27
leaf_value=-0.14740707241140444 0.30171984030700311 0.069090219870601197 0.12431964163314126 -0.052325882687002945 0.0088579217468218799 -0.11611804971522138 -0.23402995400148091 0.13566789484871505 0.064023741151813779 -0.10873660442188013 0.17424358689167704 -0.00067593429365301856 -0.12751197400069897 -0.087550539575868128 -0.18430709509806051 0.17408015812278743 0.013195585049516314 -0.12230874826133654 -0.033382135074878604 0.038434101914765914 -0.054038012606259962 0.13128216918620927 0.22004683275170564 -0.22137056163758523 -0.24169522640744895 -0.2100737214736009
leaf_weight=0.69107482279650856 2.3705885261297279 3.5343001633882514 5.7348646705504507 3.4219661010429254 9.0969901960343105 1.5045967225451065 2.622720150509851 7.7246059321332714 20.945510791148994 2.7540391231887034 9.7348054521717113 2144.8731487721088 30.502881914260797 6.4200269514694801 3.2248950824141502 13.635934789199377 2.6395736243575811 1.6003148565068839 2.0070462096482524 3.0247256550937882 1.6244043614715336 2.4999825805425644 5.1634373851120472 1.1736237639561293 1.2825397299602626 2.118363634916022
leaf_count=15 10 35 61 30 112 23 37 50 244 34 66 10642 403 88 26 132 38 23 19 27 19 20 43 14 10 52
internal_value=0 0.0760186 -0.000515353 0.128444 -3.86301e-05 0.067793 -0.0159166 -0.000911726 -0.0452468 0.000459543 0.111841 -0.000186664 -0.0961847 0.028464 -0.0518088 0.124334 -0.136852 0.0705128 0.147462 0.175814 -0.165188 0.217227 0.245745 -0.212069 -0.221838 -0.214101
internal_weight=0 23.2399 2268.69 16.4807 2260.78 28.7299 11.5823 2232.05 66.9654 2165.09 12.4888 2152.6 39.5999 27.3655 6.7592 17.1476 7.90518 7.33518 15.643 13.0587 4.24712 10.034 7.53403 5.2656 4.57453 3.29199
internal_count=12273 191 12082 130 11953 314 140 11639 847 10792 100 10692 515 332 61 174 129 84 151 100 56 73 53 91 76 66
is_linear=0
shrinkage=0.3


Tree=124
num_leaves=31
num_cat=0
split_feature=160 202 276 124 118 296 260 199 175 64 123 266 172 184 42 249 12 179 285 213 186 52 223 110 298 244 109 42 222 285
split_gain=1.92848 2.76161 3.62562 2.62352 2.88265 3.04223 2.20882 1.94779 3.63114 2.47469 3.39803 3.00142 3.10002 2.63266 2.48897 2.46314 2.3585 2.20601 2.95622 2.67188 2.19402 2.15898 2.01867 1.98959 2.18215 2.21279 1.85738 1.84792 1.80421 1.75041
threshold=-0.043857000768184641 0.018683805936076828 0.016973395880200453 0.015457499772310201 0.029652499593794301 -0.032347850535382049 0.10476300120353696 -0.076185068596786712 -0.020452000200748399 -0.011550701317797693 -0.12519900500774378 -0.077908501029014546 -0.035915000364184289 -0.074314217856225273 -0.052171500399708692 0.072691999375820118 0.013844989083971216 -1.0000000180025095e-35 -0.064467355399136186 0.034485197988517194 -0.010760500095784598 -0.030108687885342909 0.0036499880581599038 0.043050000444054555 -0.0048169368954972683 -0.065723497420549337 0.010476999916136253 -0.033015610201807162 -0.020713660490116057 0.0070025001186877012
decision_type=2 2 2 2 2 2 2 2 2 2 2 2 2 2 2 2 2 2 2 2 2 2 2 2 2 2 2 2 2 2
left_child=1 2 3 4 5 -1 -4 8 16 10 15 20 -13 14 -11 29 21 18 -15 -19 -12 -2 -18 24 -10 -26 -17 -5 -23 -9
right_child=7 -3 6 27 -6 -7 -8 9 23 13 11 12 -14 17 -16 26 22 19 -20 -21 -22 28 -24 -25 25 -27 -28 -29 -30 -31
leaf_value=-0.13354698745629245 -0.076341604880821951 -0.13076338025524556 0.10015585371424372 -0.10820938175560332 -0.16219224688459832 0.020292141010628362 -0.13713720731178322 -0.10534002258346961 -0.16266340495601028 0.031249075712615641 0.025004581676304947 -0.04157529360821207 0.056994538019486098 -0.12161574692230903 -0.17165566812276822 0.048300819115223964 -0.18152588977105724 -0.00035972449371921938 0.084708206753088641 -0.11470092611717789 -0.12245738100387747 -0.024391485374975375 0.063464606038078464 -0.22169225523200306 0.098680360505051037 -0.16410219730588085 -0.2497705858846202 0.11916983653632038 0.098879019661984632 0.12242760648208564
leaf_weight=17.627351921284571 14.258095289056653 22.474307849304751 28.03790575498715 4.3466444932855692 22.096645173267461 33.662149917799979 4.0390667277388266 6.0028465110808629 11.737577217165381 8.4072787112090754 18.891008660197258 32.441564904293045 250.02925623615738 7.1563062837813041 15.421257858164607 2.39868279127404 10.157619228353722 1384.8228596335975 49.350738628301769 18.640647240565158 17.486360297072679 16.230729109753153 4.3119404516182831 10.963057288085109 9.043914952548219 4.2341711755143487 8.7261419352143985 12.375366187421603 31.279429000802342 6.1455508638173342
leaf_count=222 198 273 359 61 248 340 49 70 144 106 178 396 2419 97 217 19 133 4715 483 220 163 192 56 170 86 81 63 128 338 49
internal_value=0 -0.0341149 -0.0163378 -0.0471709 -0.0716063 -0.0325798 0.0702764 0.00179273 -0.0365703 0.00415042 0.027151 0.0352286 0.0456739 -0.00115284 -0.100066 -0.0835136 0.000502199 0.000461543 0.0585784 -0.00187839 -0.0458794 0.0260409 -0.108519 -0.115126 -0.0684233 0.0148832 -0.185502 0.0600659 0.0567665 0.00988156
internal_weight=0 144.659 122.185 90.1082 73.3861 51.2895 32.077 1938.14 112.217 1825.92 342.121 318.848 282.471 1483.8 23.8285 23.2732 76.2378 1459.97 56.507 1403.46 36.3774 61.7683 14.4696 35.9787 25.0157 13.2781 11.1248 16.722 47.5102 12.1484
internal_count=12273 1680 1407 999 810 562 408 10593 1398 9195 3357 3156 2815 5838 323 201 917 5515 580 4935 341 728 189 481 311 167 82 189 530 119
is_linear=0
shrinkage=0.3


Tree=125
num_leaves=31
num_cat=0
split_feature=136 0 136 8 203 137 238 228 168 260 25 211 206 15 237 255 94 146 252 95 205 240 99 273 8 175 2 44 81 153
split_gain=1.40332 2.56947 2.19106 2.16893 2.08322 2.7254 2.4967 1.92832 1.89682 1.86637 2.56303 2.41464 1.85297 3.33109 1.85334 3.3919 2.36655 1.69312 1.60261 1.44296 1.29921 1.28008 1.27327 1.24403 1.22937 1.13073 1.07727 1.60946 0.997359 0.876363
threshold=0.02075945132716223 -0.053701523360624961 0.015222841468293169 -0.033903500065207391 0.12151850014924996 -0.10013100132346149 -0.015990233973311858 -0.11934990569828507 -0.024413690800956102 0.11391676466516966 -0.11482349783182139 -0.11791500076651569 0.080356265083263448 -0.0040304998401551996 -0.023375499993562646 0.036162539557808578 -0.072471419831817221 -0.018612048874439468 -0.0073546833900428885 -0.03227099962532514 -0.022378548368666179 0.069373998790979371 0.03763887325376674 0.043837500736117307 -0.068514279824589783 -0.035926507318207367 0.016142787884628949 0.010710999835282552 0.063276445194365316 0.023240500129759253
decision_type=2 2 2 2 2 2 2 2 2 2 2 2 2 2 2 2 2 2 2 2 2 2 2 2 2 2 2 2 2 2
left_child=2 8 4 24 12 -6 28 -5 -2 11 -11 -9 14 23 15 -1 -16 22 -10 20 -19 -15 -4 -14 -3 -8 -20 -28 -7 -21
right_child=1 3 17 7 5 6 25 9 18 10 -12 -13 13 21 16 -17 -18 19 26 29 -22 -23 -24 -25 -26 -27 27 -29 -30 -31
leaf_value=-0.043685096238131715 0.11743453738351338 0.080559738207564957 -0.095991750237886989 -0.14390251149212654 0.25235770958797199 -0.20487101463290813 0.0077728189842951644 -0.18833738014437654 0.094063175186787223 -0.064545583391627456 0.18565262256411577 0.05817395018415631 -0.10334615992308033 0.079442784125692292 0.047065047112784301 0.04794039103247235 -0.0015980918843906088 0.23336603139625969 -0.1973165830519687 -0.19824047058942235 -0.11478513202197395 0.23977636534002694 0.18485469123341736 0.16349269546779541 -0.15421227503079971 0.22740237801470103 0.094855131733827994 -0.21232719364485605 0.046492412083685215 -0.02650624811038204
leaf_weight=199.33255726762582 4.4599631018936661 2.8213403448462486 2.6869112700223949 3.9645927781239143 6.6362574025988605 4.2427433859556922 3.8680784776806831 3.764945847913622 3.2258451394736829 4.4953986257314709 20.438487716019154 71.334571735351346 9.0078175775706786 9.7407738929614442 94.585953717119992 44.475661239586771 1831.5685085637961 1.7130438797175886 10.193301511462776 13.652877100743352 2.2082296228036347 8.3004695121198875 3.1633573900908232 1.9049899019300927 6.9580736150965077 4.6409049089997971 3.5210285391658536 2.7216497743502259 2.1358310896903276 3.3257664148695758
leaf_count=1666 39 17 24 38 30 46 26 35 28 25 114 590 91 86 593 350 7939 12 105 105 28 46 23 14 72 27 33 23 16 32
internal_value=0 0.0297375 -0.0014408 0.048593 -0.000412607 0.0924657 0.0211924 0.0612946 -0.0592001 0.0694272 0.140544 0.0458157 -0.00132173 0.0740697 -0.00232769 -0.0269707 0.000791566 -0.0867871 -0.0992668 -0.126719 0.0373079 0.15321 0.0558675 -0.0567655 -0.086481 0.127562 -0.137211 -0.0390686 -0.120703 -0.164601
internal_weight=0 137.899 2247.19 113.777 2220.44 21.5238 14.8876 103.998 24.1218 100.033 24.9339 75.0995 2198.92 28.9541 2169.96 243.808 1926.15 26.7502 19.6618 20.8999 3.92127 18.0412 5.85027 10.9128 9.77941 8.50898 16.436 6.24268 6.37857 16.9786
internal_count=12273 1119 11154 891 10930 145 115 802 228 764 139 625 10785 237 10548 2016 8532 224 189 177 40 132 47 105 89 53 161 56 62 137
is_linear=0
shrinkage=0.3


Tree=126
num_leaves=31
num_cat=0
split_feature=65 272 285 125 92 193 222 209 111 108 122 13 113 89 296 79 156 205 65 148 132 265 36 26 182 110 67 273 16 49
split_gain=1.39536 2.07452 2.06931 2.40218 1.81493 1.656 1.60772 3.00889 2.56202 2.5604 2.17166 3.57779 2.83739 2.33581 2.82651 2.36676 1.89799 1.86295 2.29572 1.84538 1.77138 2.02812 2.67942 2.31622 1.83652 1.70035 1.6996 1.5301 1.51972 1.36475
threshold=0.090048000216484056 0.10357715838381738 -0.005867244049703165 0.0017355000018141502 0.08541578949354374 -0.023642083494434352 0.0091302962209068774 -0.032104180808262529 0.055029965551513786 0.0083386151890676389 -0.080056499689817387 -0.046105357190072124 0.041949015433415567 -0.032523998990654897 -0.026543763369163694 -0.034218499436974442 0.062782000750303268 -0.04715050011873239 0.0096334996633231033 0.090878002345561967 -0.063425685911874377 -1.0000000180025095e-35 -0.01008149981498715 -0.11378100141882889 -0.05778699927031989 0.099387999624013859 0.099604997783899266 -0.033175999298691743 -0.088413499295711476 0.060146499425172757
decision_type=2 2 2 2 2 2 2 2 2 2 2 2 2 2 2 2 2 2 2 2 2 2 2 2 2 2 2 2 2 2
left_child=6 2 4 5 -2 -4 10 9 17 -8 11 13 16 14 -1 -15 -13 19 -19 -9 24 22 -22 -23 -12 28 -26 -3 -10 -11
right_child=1 27 3 -5 -6 -7 7 8 25 29 20 12 -14 15 -16 -17 -18 18 -20 -21 21 23 -24 -25 26 -27 -28 -29 -30 -31
leaf_value=-0.023993910319045329 0.15041000002005334 0.12960603107585961 -0.11863427398336927 -0.22768414154935329 -0.059016400892414694 0.17233847317535178 0.10320919664284159 -0.043177204030883432 0.1094950125867324 -0.19829953703809486 -0.20209886800133944 -0.027215355366923225 0.1569737442575673 0.11022529315428066 0.2184643912378875 -0.088255875927753302 0.090089556221239001 0.071124216227244838 -0.028452808419526888 -0.21291588559985863 -0.013764941426203584 0.16985993770430283 -0.10761801523693133 -0.00017293756502900466 0.080884204247075847 0.1655700029225923 -0.16803851402818978 -0.15701313926710653 -0.13244305669101511 0.067772203712942625
leaf_weight=10.900537414941939 25.374051504069943 2.2613985612988472 2.7742094341665506 3.7423871997743845 4.3649088684469453 4.8168080411851388 25.394228886347264 22.550218274351213 2.4872856996953479 4.5835966556332997 2.3902303688228121 22.445928491884843 27.906325704650953 6.4097897773608556 7.1760924910195163 34.562000621575862 27.774523492902517 28.234778616577387 79.532610293710604 7.7442748763132832 118.98943710920867 7.2417985298670819 35.558293442009017 1659.751012040535 45.364823559299111 1.9986108895391215 2.6107275523245326 6.4789162687957269 38.588674551283475 2.7917258525267243
leaf_count=89 221 16 23 40 56 39 267 223 34 63 23 226 245 54 51 324 216 303 844 90 1152 52 419 6136 404 15 22 82 524 20
internal_value=0 0.0498598 0.078102 -0.0309772 0.119672 0.0659997 -0.000910201 -0.0256357 -0.0407694 0.0580171 0.00172231 0.0381576 0.0802783 -0.0175721 0.0722576 -0.0572047 0.0376604 -0.0208405 -0.00236388 -0.086568 -0.0009477 -0.00248226 -0.0353586 0.000565724 0.0545516 -0.104645 0.0673384 -0.0828556 -0.117793 -0.0975854
internal_weight=0 49.8127 41.0724 11.3334 29.739 7.59102 2222.99 213.906 181.136 32.7696 2009.08 137.175 78.1268 59.0484 18.0766 40.9718 50.2205 138.062 107.767 30.2945 1871.91 1821.54 154.548 1666.99 50.3658 43.0746 47.9756 8.74031 41.076 7.37532
internal_count=12273 477 379 102 277 62 11796 2383 2033 350 9413 1205 687 518 140 378 442 1460 1147 313 8208 7759 1571 6188 449 573 426 98 558 83
is_linear=0
shrinkage=0.3


Tree=127
num_leaves=31
num_cat=0
split_feature=53 3 260 185 61 170 89 66 150 159 139 204 277 121 15 191 70 110 283 39 270 27 159 122 72 197 282 85 179 48
split_gain=1.8236 2.52648 3.0023 3.55769 2.44262 2.78264 2.4058 2.33323 3.46813 3.69292 2.96767 3.11514 3.56204 2.74944 2.59269 2.49463 2.482 2.41325 2.35315 2.29789 2.20274 2.1876 2.10693 2.10456 2.09499 2.01352 2.175 2.05994 2.01146 1.94334
threshold=0.067194325092763504 -0.038154499605297994 0.13114699721336362 0.0291380006819963 0.055383320257310985 -0.041618983047476583 -0.052101001143455443 0.023169499821960902 0.00088658950138368654 -0.042461000382900189 -0.036645999178290291 -1.0000000180025095e-35 0.078759003430604921 0.051714867551227887 0.045032000169157961 -0.0083742921688685652 0.055396719171393292 0.032539453834804076 0.038208000361919355 -0.05400600098073479 0.026258999481797152 0.062228498980402905 0.054647000506520209 -0.029223499819636296 0.032680500298738459 0.035889758015562039 -0.054009499028325046 0.018649999983608653 0.0085828506477823464 -0.04204891738278644
decision_type=2 2 2 2 2 2 2 2 2 2 2 2 2 2 2 2 2 2 2 2 2 2 2 2 2 2 2 2 2 2
left_child=7 24 4 21 5 -3 -7 8 10 14 15 12 -12 16 19 28 -11 -13 29 -10 -5 -4 -15 -20 25 26 -2 -28 -1 -9
right_child=1 2 3 20 -6 6 -8 18 9 13 11 17 -14 22 -16 -17 -18 -19 23 -21 -22 -23 -24 -25 -26 -27 27 -29 -30 -31
leaf_value=-0.11191776097682855 -0.11337992848314836 -0.13221198449307989 0.093852334286742625 -0.21961928380855264 -0.071311778349422691 -0.068010871171626949 0.052050837102608175 0.094913196532502214 -0.15350687991759496 0.080361187312697466 0.091215511476931424 -0.00048722666974630497 -0.15006620645892646 0.018383653770009261 -0.1287191482784226 -0.13826862363343434 -0.080222412729035686 -0.11453346648392385 -0.18918747076371298 0.047095332080287336 0.062911045993082435 -0.22812247311393399 -0.15167509487372963 -0.0019988173522418168 -0.18378205199039147 -0.13708919283103144 0.10901451320337342 -0.1458170241914068 0.058603073690038851 -0.10195667911100344
leaf_weight=10.109750574920328 10.066341132624073 9.5283348625525814 9.890902809333058 15.942353375721725 29.188998250523582 17.369620290002786 111.07840908900835 10.984757994301619 6.2688791132532051 157.05033285572426 55.278808017028496 1340.196922615869 6.1159710360225281 62.19330512243323 18.230676031904295 25.734534326009452 9.1681639524176699 16.909422189230099 16.390442286618057 28.520211579860188 2.9418684854172161 2.350514826248399 7.329572372545953 8.0656759166158718 13.409950883884447 15.000253125093876 14.864743547048425 3.5335515160113564 16.205894909100607 7.6591342592146239
leaf_count=151 145 131 88 152 350 163 1003 146 72 1667 491 4327 61 704 208 402 96 218 257 324 26 30 99 105 226 138 136 62 192 103
internal_value=0 -0.024384 -0.00839661 -0.0939448 0.00753219 0.0242117 0.0358153 0.00271336 0.00440279 0.0344614 -0.00149958 0.00108199 0.0671797 0.0505507 -0.0370764 -0.0718542 0.0715038 -0.00190823 -0.066248 0.0109475 -0.175605 0.0320289 0.000454909 -0.127452 -0.080123 -0.0481417 -0.00126825 0.0600719 -0.00690636 0.0140367
internal_weight=0 255.166 198.291 31.1256 167.165 137.976 128.448 1802.41 1759.31 288.761 1470.55 1418.5 61.3948 235.741 53.0198 52.0502 166.218 1357.11 43.1 34.7891 18.8842 12.2414 69.5229 24.4561 56.8748 43.4649 28.4646 18.3983 26.3156 18.6439
internal_count=12273 2650 1943 296 1647 1297 1166 9623 9012 3170 5842 5097 552 2566 604 745 1763 4545 611 396 178 118 803 362 707 481 343 198 343 249
is_linear=0
shrinkage=0.3


Tree=128
num_leaves=31
num_cat=0
split_feature=78 207 243 99 50 163 232 13 284 151 104 31 250 69 88 62 298 32 34 188 145 26 67 57 159 281 242 39 263 84
split_gain=1.33967 1.75259 1.32955 3.07397 2.39913 2.29854 2.21786 2.03177 3.3671 2.09085 4.16451 3.37049 2.47687 2.45046 2.42675 1.85374 1.84931 1.81276 1.7509 1.57886 1.55421 1.54181 1.52366 1.53466 1.21788 1.6746 1.0337 0.995619 0.99027 0.592313
threshold=0.067726175975797651 0.048240716195729304 0.035845249673291134 0.046740718723356493 0.050438729069263839 -0.023192499764263599 0.12235699966549866 0.050548998638987507 0.036007566032416415 -0.056432001292705494 -0.035667499527335146 -0.075721276847061633 0.16535132601556854 -0.013652497924801854 0.056723000481724704 0.028771341690331121 0.065702501684427261 -1.0000000180025095e-35 1.0000000180025095e-35 -0.0044341334262306608 -0.065526404251563156 -0.040570499375462442 -0.053637498989701195 -0.029306020796126302 -0.0074411260143365009 -0.032425500452518394 -0.032347775372184882 -0.023633499629795548 -0.014819843779868478 0.011363499797880603
decision_type=2 2 2 2 2 2 2 2 2 2 2 2 2 2 2 2 2 2 2 2 2 2 2 2 2 2 2 2 2 2
left_child=2 27 7 5 24 6 20 9 22 10 13 -12 14 -1 -11 17 19 -10 -6 -7 -4 -14 -9 -24 -5 -26 -17 -2 -29 -3
right_child=1 29 3 4 18 16 -8 8 15 12 11 -13 21 -15 -16 26 -18 -19 -20 -21 -22 -23 23 -25 25 -27 -28 28 -30 -31
leaf_value=0.015334364089307757 0.23704216810525183 -0.19986469467849391 0.083181942045144563 0.18632423549312058 -0.2027023181553862 0.068726078949712291 0.16913850604694353 -0.10822489093568995 -0.12393787212236768 0.00099094641203190744 0.074287276642896277 -0.026566599459116779 0.25631931842094802 0.1309972066932486 -0.026478696768039888 -0.043974698123346978 0.15991254480190936 0.065652105514700437 0.064624164244145063 -0.10077436706217116 -0.14864623250692333 0.012056331554516166 0.2110548574282296 0.024168094713399337 0.14375710475279602 -0.046201336749583093 0.20057010471137995 0.14846430206505096 -0.072644841711165253 0.038690583833433927
leaf_weight=26.325420727021992 5.2739112675189981 2.1327473749406631 2.8047609962522975 7.8597606029361513 5.3030057521536929 7.678464991739026 2.3339881682768455 1.9868024699389959 13.089535274542872 1602.8314086882165 40.355343422852457 114.26826414884999 5.3387411870062351 44.104775922372937 353.22880231041927 2.3127154260873795 5.1317911949008694 6.9483041777275512 3.7745725521817803 13.897940101101993 36.121963288169354 4.120932422578333 16.497219070792205 5.201373970136042 7.8902930608019259 8.8743703663349134 4.7525024367496362 5.0564929535612473 2.850740815512836 1.6703947950154541
leaf_count=166 34 33 30 59 55 87 22 11 124 6282 269 856 23 269 2736 22 36 58 39 167 423 26 109 45 69 95 36 44 29 19
internal_value=0 0.0843205 -0.000239456 -0.0337932 0.0402866 -0.0705253 -0.114911 0.00128259 0.0606023 -9.27415e-05 0.0272977 -0.000244663 -0.00322897 0.0877647 -0.00396957 -0.0116079 -0.00195474 -0.0581958 -0.0915446 -0.0404537 -0.131942 0.149911 0.143232 0.166256 0.088885 0.0432027 0.120521 0.136085 0.0687493 -0.0950878
internal_weight=0 16.9843 2343.03 101.671 33.702 67.9689 41.2607 2241.36 50.7885 2190.57 225.054 154.624 1965.52 70.4302 1956.06 27.1031 26.7082 20.0378 9.07758 21.5764 38.9267 9.45967 23.6854 21.6986 24.6244 16.7647 7.06522 13.1811 7.90723 3.80314
internal_count=12273 159 12114 1082 317 765 475 11032 405 10627 1560 1125 9067 435 9018 240 290 182 94 254 453 49 165 154 223 164 58 107 73 52
is_linear=0
shrinkage=0.3


Tree=129
num_leaves=31
num_cat=0
split_feature=6 154 88 68 292 138 112 242 188 156 122 14 75 12 145 216 143 72 151 52 45 127 20 242 245 229 292 272 280 21
split_gain=1.31659 1.64357 3.31372 2.56036 2.29901 2.18152 1.71696 2.04295 1.92702 2.07697 1.81098 1.7696 1.68152 1.6306 1.56215 1.60084 1.5546 1.77478 1.49483 2.27552 1.41292 1.37494 1.28706 1.27955 1.27163 1.0241 1.16501 0.985732 0.909011 0.78107
threshold=-0.13573750108480448 0.050976499915122951 0.033870499581098508 -0.078152379473825112 -0.058160999789833995 0.090440500527620302 -0.07473655468940138 0.020845499821007203 -0.036703633967578031 0.082541395024317274 -0.11265949904918669 -0.0067740001250057988 -0.019975000061094695 -0.0011959999683312497 0.036246500909328454 -0.084329500794410636 -0.020501499995589197 -0.051110500469803741 -0.047922931351581162 0.0082314996980130013 -0.058765772699319575 -0.024821999482810445 -0.058654500171542147 -0.015970688635049444 -0.038745000958442639 -0.075397000348574758 -0.03592599928379054 0.0024114999687298504 0.011225500144064352 -0.034716231380058672
decision_type=2 2 2 2 2 2 2 2 2 2 2 2 2 2 2 2 2 2 2 2 2 2 2 2 2 2 2 2 2 2
left_child=18 5 4 13 29 6 7 11 9 -8 -10 -2 -5 23 15 -6 17 -7 27 21 -14 -20 -9 -4 -19 -18 -27 -1 -16 -3
right_child=1 2 3 12 14 16 8 22 10 -11 -12 -13 20 -15 28 -17 25 24 19 -21 -22 -23 -24 -25 -26 26 -28 -29 -30 -31
leaf_value=0.069689783022343146 -0.082151597163012485 -0.25523885305382321 0.042810803821540309 -0.08900694683226304 0.18082444565372924 0.25355121812354453 -0.084634888154924079 0.13420426522025694 0.062866910130442891 0.016946314989386632 -0.00039734971829974539 0.13973271322257616 0.014721983458322735 0.12307355782129545 -0.2051094678159022 -0.014026518254610531 0.063241726237978343 0.086089347408578126 0.15000055586069164 -0.15829403096697728 0.1525204261779175 -0.15491120737318162 -0.086632355263352015 -0.16577515065789511 -0.14872423673069485 -0.024762716681171828 -0.1977974974929283 -0.21119018826824548 0.058997701024931917 -0.07637170182719899
leaf_weight=1.3245453219860808 3.7567145330831435 4.6658039204776287 4.226464463165029 3.4731421899050465 5.977346324361867 2.1897844867780796 49.144179189810529 3.1017620470374814 41.59735104534775 28.691408393671736 1937.4147547015455 23.290503308875486 8.1750008659437281 4.6591479601338497 3.9342423074413082 10.392509792000054 2.228596048429611 3.5994747746735802 6.6499651421327135 5.609645345946773 37.037837133742869 1.6640635179355729 10.139885585289447 7.082061118213459 4.9030147958546904 4.7512047132477226 13.318406993057573 7.4455899628810585 1.6710445629432795 4.1528621269390005
leaf_count=15 44 29 42 42 57 11 700 28 425 301 8678 241 92 37 50 122 42 42 73 77 342 48 127 99 82 59 173 117 20 58
internal_value=0 0.000872422 0.0393854 0.0779627 -0.0416103 -0.000854901 0.000312722 0.0616461 -0.000888657 -0.0471905 0.000932418 0.108914 0.112152 -0.0262827 0.010317 0.057122 -0.0798683 0.0127103 -0.0717546 -0.0106478 0.127605 0.0889721 -0.0349029 -0.0878179 -0.0493174 -0.128635 -0.1523 -0.168769 -0.126374 -0.171007
internal_weight=0 2223.57 95.4475 64.6537 30.7938 2128.13 2097.14 40.2889 2056.85 77.8356 1979.01 27.0472 48.686 15.9677 21.9751 16.3699 30.9905 10.6923 22.6938 13.9237 45.2128 8.31403 13.2416 11.3085 8.50249 20.2982 18.0696 8.77014 5.60529 8.81867
internal_count=12273 11943 990 654 336 10953 10544 440 10104 1001 9103 285 476 178 249 179 409 135 330 198 434 121 155 141 124 274 232 132 70 87
is_linear=0
shrinkage=0.3


Tree=130
num_leaves=31
num_cat=0
split_feature=125 136 195 250 140 9 130 209 9 6 200 248 23 8 260 148 67 100 130 47 24 238 69 285 185 164 117 97 219 150
split_gain=1.71988 2.41674 2.27361 1.80498 2.25769 2.09991 1.9533 1.70018 2.01999 1.78308 2.40987 2.05575 2.03181 2.25308 2.31919 2.04778 2.04043 1.83813 1.65774 1.63459 1.67651 1.62213 1.57594 1.55264 1.45092 1.37571 1.36201 1.34227 1.17368 1.16753
threshold=-0.050029499456286396 -0.04963449947535984 0.018260000273585302 0.11500876427644777 -0.055097499862313194 0.0042920000851153503 -0.026928500272333598 -0.049483440384082422 -0.071133767840343337 -0.12000755825170054 -0.098012499511241885 -0.072553680989778338 -0.046522176395487065 0.059838409866230007 0.05743114892031919 0.15239799767732623 1.0000000180025095e-35 -0.08897049725055689 -0.026270821050304743 0.053791001439094509 0.06963899731636046 -0.067904564112165458 -0.025843294056201584 0.025587999261915653 0.069776979014047558 -0.012642499990761199 -0.014010000042617298 0.040504117019862139 0.042310001328587504 -0.031231000088155197
decision_type=2 2 2 2 2 2 2 2 2 2 2 2 2 2 2 2 2 2 2 2 2 2 2 2 2 2 2 2 2 2
left_child=1 2 -1 4 5 21 22 8 -2 10 18 17 13 23 -15 16 -14 -12 -9 20 24 -3 -6 -11 -10 -17 27 -4 -7 -28
right_child=7 3 26 -5 6 28 -8 9 19 12 11 -13 15 14 -16 25 -18 -19 -20 -21 -22 -23 -24 -25 -26 -27 29 -29 -30 -31
leaf_value=-0.14327667243913478 0.18524761271144208 -0.089284714056255751 -0.07208956862279324 -0.18835722789907292 -0.21384284423540773 -0.18039256303334278 -0.15313567207643741 0.12593540099295211 -0.17211743630784584 -0.15675282837948867 -0.13699259917950465 0.14145145061977812 -0.00093595241590518864 0.11340682457219289 -0.15156255155612761 -0.021097000556745921 0.026809611265173641 0.1042035423615961 -0.2008082820223033 0.15608984903603859 0.061301289159309887 0.15567210512370913 0.07448206925544322 0.029768798721904566 0.050138058521720298 -0.21390868465965732 -0.069796041000466921 0.19328232718084165 0.12426696698959537 0.16778030109060946
leaf_weight=5.5708366609760587 2.6193107739090911 3.2119375478941956 7.9067591757047975 10.471496153157203 2.206007014028728 5.0493011198705053 21.230489869485609 1.9945761403068898 19.797600444755528 20.280720789800402 5.503364629112184 24.963836698327214 1526.1986039511394 9.5270896351430547 4.3214757125824681 6.8678203481249511 282.74273621395696 5.8840067910496128 4.6682196808978906 2.2492806231603018 4.3225328689441076 10.03308211802505 7.5298001996998227 5.0084929784061378 3.0508896955288938 6.4661025074310583 2.2122965091839424 2.1907302050385624 1.4691966511309145 11.746452569728712
leaf_count=137 29 36 172 168 46 99 449 24 278 308 60 284 6222 119 70 81 2898 57 37 26 47 105 123 51 29 68 54 36 18 142
internal_value=0 -0.0409117 0.0294217 -0.0749595 -0.0515523 0.0276677 -0.102113 0.00132722 -0.0672061 0.00248021 0.0628669 0.0932675 0.00108478 -0.066547 0.0307225 0.00253734 0.00340076 -0.0123633 -0.102994 -0.0896823 -0.110028 0.0962697 0.0091514 -0.119812 -0.14244 -0.114598 0.0694144 -0.014515 -0.111726 0.130127
internal_weight=0 90.8284 29.6271 61.2013 50.7298 19.7635 30.9663 1936.47 32.0396 1904.43 43.014 36.3512 1861.41 39.1378 13.8486 1822.28 1808.94 11.3874 6.6628 29.4203 27.171 13.245 9.73581 25.2892 22.8485 13.3339 24.0562 10.0975 6.5185 13.9587
internal_count=12273 1585 541 1044 876 258 618 10688 409 10279 462 401 9817 548 189 9269 9120 117 61 380 354 141 169 359 307 149 404 208 117 196
is_linear=0
shrinkage=0.3


Tree=131
num_leaves=31
num_cat=0
split_feature=223 188 121 12 298 274 274 17 288 130 51 155 13 0 189 115 74 147 22 182 161 140 156 137 134 17 203 21 2 40
split_gain=1.26339 1.97811 1.56831 1.22628 2.62947 2.27791 2.21324 2.08631 2.1014 2.02747 1.97503 1.81292 2.13574 1.90095 1.72027 1.49352 2.88274 1.88673 2.47606 1.73325 1.67703 1.54664 1.25787 1.58635 1.04567 1.51528 1.0072 0.827269 0.732481 0.633951
threshold=-0.10889479815506141 0.024368500337004603 0.07446999847888941 -0.056382499635219491 -0.027670931803104416 -0.088301384607379088 -0.094694998115301091 0.028950999490916653 -0.0040395001415162992 -0.0743554013342939 0.06361849978566167 0.042710564848372663 -0.093057997524738284 0.0010200958308799616 0.013138296166464222 -0.078891010904456119 -0.066066998988389927 0.029915495787816083 -0.038245073505990296 0.039641000330448102 -0.061700867885572587 -0.10641699656844134 0.055557958702499861 -0.031623000279068898 -0.062483500689268043 0.0047295000404119015 0.11653173093358986 -0.053718820462374882 0.045413499698042856 0.055114833632596914
decision_type=2 2 2 2 2 2 2 2 2 2 2 2 2 2 2 2 2 2 2 2 2 2 2 2 2 2 2 2 2 2
left_child=1 2 24 4 7 -6 9 8 14 -5 -10 12 -7 -13 -2 16 19 21 -19 -8 -18 -17 23 -11 -1 27 -9 -26 -24 -3
right_child=3 29 -4 6 5 11 15 26 10 22 -12 13 -14 -15 -16 17 20 18 -20 -21 -22 -23 28 -25 25 -27 -28 -29 -30 -31
leaf_value=-0.20254162314976587 -0.0051162290667361885 0.21555077820420188 0.17439453133483687 0.21834388921003364 0.19224717987827122 -0.16834752931681682 -0.072792749628715736 -0.20920304298728531 -0.0027208100905940099 -0.10809825962789275 0.21750881206608733 0.016074075533312658 0.06078942454360102 -0.18018479778620433 -0.17361854936252286 0.077454185698757935 0.16653752949617928 0.11471573973259636 -0.06952551912028887 0.065865369134685228 0.040188907122387013 -0.0020169988836078001 -0.19032629932230091 0.21601121430974657 -0.046702333365127316 -0.16262759114401856 0.043139547222008995 0.20569406898423029 0.007318027288644142 0.029700883763961773
leaf_weight=3.1438031513243905 16.971038527786735 7.4665206857025606 3.4944584574550381 1.730439200997355 8.9367818310856801 3.8067200668156138 21.957372796721756 7.6536134751513583 9.614492127671836 4.3297587698325515 5.9225203469395629 14.085247939452531 95.645686218282208 6.4876001672819248 8.034366150852291 22.294064167886972 17.391319755930454 7.3119275178760281 64.259580662823282 12.868766807951031 20.71721226349473 1934.709355891915 13.417502706404774 1.9809366669505859 1.9350957944989193 3.0916077494621277 1.7488550730049608 2.9512259811162984 1.9304021038115013 2.121132084634155
leaf_count=35 138 66 33 12 60 34 170 92 88 55 29 128 786 60 82 138 114 49 634 88 179 8873 150 14 24 35 16 32 20 39
internal_value=0 0.0685417 -0.000919602 -0.000357946 0.0234954 0.0461291 -0.00236629 -0.0349468 -0.00541905 -0.0941416 0.081228 0.0352495 0.0520188 -0.0458157 -0.0592569 -0.00134487 0.0408335 -0.00286133 -0.050703 -0.0215566 0.0978497 -0.00111167 -0.119108 -0.00635981 -0.0560035 0.00174174 -0.162267 0.105739 -0.165467 0.174434
internal_weight=0 24.2038 14.6162 2303.81 178.907 128.962 2124.9 49.9449 40.5424 23.389 15.537 120.025 99.4524 20.5728 25.0054 2101.51 72.9347 2028.57 71.5715 34.8261 38.1085 1957 21.6586 6.3107 11.1217 7.97793 9.40247 4.88632 15.3479 9.58765
internal_count=12273 264 159 12009 1513 1068 10496 445 337 251 117 1008 820 188 220 10245 551 9694 683 258 293 9011 239 69 126 91 108 56 170 105
is_linear=0
shrinkage=0.3


Tree=132
num_leaves=31
num_cat=0
split_feature=202 100 116 115 289 168 192 183 232 115 48 205 35 148 207 88 48 242 9 250 83 281 89 158 184 41 260 12 117 186
split_gain=1.25243 2.01558 1.58059 2.11734 2.00019 2.1412 1.94377 2.62068 1.92067 2.0214 1.90381 1.7792 2.79684 2.23274 1.71213 1.69214 1.87108 1.65803 1.5832 1.55296 1.60452 1.53292 1.49281 1.41666 1.2037 1.19727 1.15268 1.13501 0.992335 0.905463
threshold=-0.10453550145030013 -0.15099452671917019 -0.0089884996414183981 -0.017254575906928572 0.071600496768951361 0.083120498806238105 -0.015404000412672697 -0.061441998928785289 0.047157926086091061 0.058765136817346998 -0.053450028180701638 -0.026926686598933904 0.087722214011216701 0.12592049688100812 0.012112139015734732 0.18135350197553632 -0.064500000327825477 0.047705790717424507 -0.021611500531434947 0.094712000340223271 0.085997998714447008 -0.056410513844599532 -0.053527500480413388 -0.052106069349785636 -0.023239538606094959 0.09048431887688467 0.091949033912845715 0.021786999888718055 0.0087341342753738133 0.032375501468777608
decision_type=2 2 2 2 2 2 2 2 2 2 2 2 2 2 2 2 2 2 2 2 2 2 2 2 2 2 2 2 2 2
left_child=1 -1 3 15 5 11 21 -8 10 25 14 12 -4 -13 -5 16 22 -18 27 20 24 -7 -2 -12 28 -10 -21 -6 -3 -26
right_child=2 19 4 8 18 6 7 -9 9 -11 23 13 -14 -15 -16 -17 17 -19 -20 26 -22 -23 -24 -25 29 -27 -28 -29 -30 -31
leaf_value=-0.21654628497835932 0.030375819770668045 0.19950636299421692 -0.031914536661804056 -0.077477490845000954 -0.11061810234464743 -0.090142500533936284 0.1404433298725021 -0.058045855278553798 0.050822299760867655 -0.22246278470837175 0.026942138053635684 0.00055106435626404852 0.21600872507482896 0.078478379039870802 0.11441040269345891 0.16252759536984621 -0.014157187536868851 -0.14432721731029022 0.14674880116506342 0.022575707454233745 0.23672588737143094 0.14902196874277537 -0.15564136634837841 -0.15313701225613061 -0.14039187572759354 0.20078650691559155 0.21557817790950914 0.18172656570717877 -0.045137320007728701 0.064512659288776308
leaf_weight=2.2526028864085665 4.5873236136976656 3.3030205687973675 208.03383565612603 7.2068131872219992 4.5603581296745714 2.7144090766087201 8.8327451199293154 18.579102449119091 28.866545754892286 2.1747718853875986 5.4521018078085062 1700.6106509565143 4.1774377862457177 33.746945150196552 9.980277968104927 3.0324242971837512 52.607351760147139 10.577358844922854 14.822209582198409 4.0233954843133679 2.6443521454930297 21.646244042553008 25.279950859956443 14.099153124261646 6.841237762942912 5.7449323255568734 9.0482046492397767 1.6197551656514404 2.7219091653823853 2.7097009671851993
leaf_count=23 57 33 2062 99 75 22 53 181 356 24 68 7072 36 254 95 21 519 152 134 29 21 157 357 157 60 40 46 18 23 29
internal_value=0 0.0575383 -0.000872088 -0.028688 0.00146423 0.000496288 0.0607107 0.00591205 0.0096299 0.0580859 -0.0388893 -0.00110522 -0.0270341 0.00206737 0.0339488 -0.0580092 -0.0651962 -0.0359481 0.0935628 0.0772688 0.0206615 0.122373 -0.127071 -0.10292 -0.0160203 0.0757139 0.156173 -0.033997 0.0889826 -0.0822583
internal_weight=0 33.5444 2188.95 169.609 2019.34 1998.34 51.7725 27.4118 73.5246 36.7862 36.7383 1946.57 212.211 1734.36 17.1871 96.0844 93.052 63.1847 21.0023 31.2918 18.2202 24.3607 29.8673 19.5513 15.5759 34.6115 13.0716 6.18011 6.02493 9.55094
internal_count=12273 264 12009 1945 10064 9837 413 234 839 420 419 9424 2098 7326 194 1106 1085 671 227 241 166 179 414 225 145 396 75 93 56 89
is_linear=0
shrinkage=0.3


Tree=133
num_leaves=27
num_cat=0
split_feature=129 242 249 217 41 69 113 113 202 172 190 18 254 38 205 177 141 128 281 182 88 90 227 13 98 35
split_gain=1.57802 1.65369 1.51032 2.38554 2.6155 2.48189 1.55849 2.05928 2.84371 2.737 2.0017 1.43011 1.08179 1.28767 1.03298 0.96852 0.941876 0.397989 0.258123 0.208148 0.0349947 0.00559609 0.00340457 0.00114253 0.00113654 9.16192e-05
threshold=0.082539502531290013 -0.11012400314211838 0.086547996848821626 0.089173998683691011 0.061516501009464201 -0.053908942816925272 0.10099221705977929 1.0000000180025095e-35 0.019593499600887253 -0.035167348055477492 -0.06390700116753574 -0.045851999893784488 -0.060845999047160093 -0.018947500735521244 -0.048759000375866841 -0.099130000919103539 0.017899000085890255 -0.00082604698608946961 -0.047990500926971387 -0.017496000044047794 -0.011817999649792849 0.034711500629782656 -0.096774080339056059 0.043399000540375661 0.043815998360514551 -0.060809999704360893
decision_type=2 2 2 2 2 2 2 2 2 2 2 2 2 2 2 2 2 2 2 2 2 2 2 2 2 2
left_child=1 17 6 4 5 -4 7 8 -3 -9 16 -6 13 -2 -12 -5 -8 -1 -14 -17 -19 23 -22 25 -24 -20
right_child=12 2 3 15 11 -7 10 9 -10 -11 14 -13 18 -15 -16 19 -18 20 21 -21 22 -23 24 -25 -26 -27
leaf_value=0.052332753539956561 -0.18520578237207166 0.00023021756748112427 -0.18099395521094566 0.10461300814794619 0.082770696518029915 0.024252418435629235 0.18857039636381662 -0.043350549065326378 -0.081567788487697052 0.03171834006224699 0.09689761953149062 -0.18152829389884009 -0.055670539411824621 0.17119221329871018 -0.16387106365157569 -0.085181772939785322 -0.081395721277309485 -0.1298743548833553 -0.21149193597234964 -0.22210521608795389 -0.23687120181951249 -0.23275746114714679 -0.20897073166151511 -0.22114654676861642 -0.22198612514504176 -0.2076303434701717
leaf_weight=0.610846617957577 1.6620853291824462 1442.2855415239464 5.8356452644802621 1.0087222792208184 2.1950073440093538 58.029860727809137 3.0111901010386672 49.959455456351861 39.293096538400277 349.53557141206693 1.5248012668453164 11.474991594208403 1.0230824439786372 2.0227482989430428 13.225098540191535 1.1410888398531813 1.8951050131581721 0.47614803630858649 0.88304109941236664 8.0367416406515968 0.60080738458782423 1.9859340509865431 2.390587481088005 1.0059130936861036 0.80788678000681091 1.4793156497180451
leaf_count=20 21 5696 82 10 27 604 28 659 529 3841 19 113 20 22 202 31 27 11 17 122 8 21 78 15 11 39
internal_value=0 0.000132463 0.000560804 -0.0379253 -0.0199935 0.00549824 0.002337 0.00321514 -0.00193916 0.0223305 -0.0816991 -0.13909 -0.118972 0.0104349 -0.136914 -0.174414 0.0842933 -0.174179 -0.193743 -0.205081 -0.206542 -0.220126 -0.21615 -0.212679 -0.212258 -0.209074
internal_weight=0 1993.34 1988.45 87.7221 77.5355 63.8655 1900.73 1881.07 1481.58 399.495 19.6562 13.67 10.0621 3.68483 14.7499 10.1866 4.9063 4.88628 6.37729 9.17783 4.27543 5.3542 3.79928 3.36827 3.19847 2.36236
internal_count=12273 12118 11990 989 826 686 11001 10725 6225 4500 276 140 155 43 221 163 55 128 112 153 108 92 97 71 89 56
is_linear=0
shrinkage=0.3


Tree=134
num_leaves=28
num_cat=0
split_feature=111 120 53 297 237 44 2 66 278 90 201 223 132 28 274 295 182 275 192 73 177 41 141 39 277 243 103
split_gain=1.15428 1.48985 1.30932 1.8659 1.79183 2.08782 2.0518 1.86612 1.75414 2.02345 1.9779 1.74162 2.10822 1.75394 1.58294 1.59701 1.50743 1.48055 1.30082 1.50067 0.701355 0.691284 0.598639 0.359658 0.23121 0.00283439 0.00163446
threshold=-0.062587570550019775 -0.049691982476089629 -0.0067884998861699993 0.10669450089335442 -0.043645000085234593 -0.044739000499248491 -0.086437575461222493 0.019579830375068736 0.094630987328650037 -0.060544000938534695 -0.06286250054836269 0.022546499967575004 -0.016511983358249518 -0.13327600061893458 0.017804999835789204 0.0036855000071227503 0.039641000330448102 -0.0047930592166990993 -0.0023794851986639527 0.052650016226780047 0.023927999660372703 0.022573672545877055 0.029723025996602353 -0.069741498678922584 0.072592419685130305 -0.06320902092039532 0.049250999465584706
decision_type=2 2 2 2 2 2 2 2 2 2 2 2 2 2 2 2 2 2 2 2 2 2 2 2 2 2 2
left_child=1 21 4 8 7 14 -7 18 11 -10 -11 13 -13 -4 17 -16 -8 -6 19 -2 24 -1 -5 -20 25 -3 -27
right_child=2 20 3 22 5 6 16 -9 9 10 -12 12 -14 -15 15 -17 -18 -19 23 -21 -22 -23 -24 -25 -26 26 -28
leaf_value=0.21199344623308194 -0.112480765147507 -0.23165751596219833 0.060226327697659357 -0.22683712003858159 0.1165498496163565 -0.12740651056335106 0.068182590714727764 0.13481297427579669 0.23883436481499001 -0.10688598203280238 0.084503021968417691 0.007264283710235517 -0.061647211159875662 -0.00026697070531856343 -0.12520572876009345 0.074058715852326262 0.18628294408472809 -0.074334186854558087 -0.073997945257633785 0.14969374527171142 -0.0059669424251999788 -0.05055289318909071 -0.028951904373285004 -0.2170757983961237 -0.085725738883735539 -0.21165672115837708 -0.22338628236667427
leaf_weight=1.7495904709212475 5.0837463719071856 1.5863008853048075 44.128785219974816 4.3011386431753627 11.224521248601379 4.1717414110898963 53.699563928879797 3.9419941334053865 5.3275566138327148 6.5286971074529019 19.010478340089321 71.465950635145418 90.619091798085719 1918.1140594137833 13.776131245307626 4.9100266806781283 11.878578975796698 5.4242893382906905 2.1400687014684081 3.2028903737664223 2.3335549763869494 1.864388510584831 2.0230182120576501 6.0548712387681007 1.4123841365799306 2.4209056445397428 1.9148966411594299
leaf_count=12 53 12 310 37 86 34 454 35 29 70 161 585 869 8935 146 47 89 47 25 28 26 29 16 52 23 46 17
internal_value=0 -0.0877872 0.000908571 -0.000821107 0.0306973 0.0464999 0.0765972 -0.0506114 -0.00034364 0.0706593 0.0355774 -0.00137532 -0.031263 0.00109346 -0.0129111 -0.0728465 0.0895748 0.0543586 -0.0949604 -0.011147 -0.149218 0.0765504 -0.163536 -0.179712 -0.194795 -0.220807 -0.216837
internal_weight=0 13.282 2287.03 2161.52 125.508 105.085 69.7499 20.4236 2155.19 30.8667 25.5392 2124.33 162.085 1962.24 35.335 18.6862 65.5781 16.6488 16.4816 8.28664 9.66804 3.61398 6.32416 8.19494 7.33449 5.9221 4.3358
internal_count=12273 165 12108 11012 1096 903 577 193 10959 260 231 10699 1454 9245 326 193 543 133 158 81 124 41 53 77 98 75 63
is_linear=0
shrinkage=0.3


Tree=135
num_leaves=31
num_cat=0
split_feature=49 9 81 153 131 147 240 197 260 28 134 211 32 207 117 288 72 256 299 270 68 44 24 280 76 254 171 177 223 150
split_gain=1.29663 2.03725 2.28334 2.54497 2.32698 2.26938 2.24841 2.11938 2.03364 2.01376 2.64186 1.98899 2.73512 1.95399 1.88573 1.88318 1.81851 3.25206 1.78425 1.77884 1.7617 2.9738 1.72549 1.69756 1.66296 1.62658 1.57091 1.53384 1.43484 1.39277
threshold=0.074392372317169497 -0.0014405910298949298 0.063964501023292514 -0.041981025894923384 0.053205028601742595 -0.022946840287491378 0.069373998790979371 -0.029502912178065287 0.10300799831748002 -0.12693549692630762 -0.054902000352740239 -0.0061277847797026703 -0.00053321578029376859 -0.0092189996503292976 -0.037742501718627371 0.063395644250615876 0.047434000298380803 -0.0003975494996729427 0.10524700209498401 -0.062667496502399389 -0.074430000036954838 -0.0056339998263864989 0.035182999446988057 -0.020393200318692694 -0.078132998198270784 0.014616000000387401 -0.046529499813914244 -0.090776499360799748 -0.011236499994993149 -0.059689000248908948
decision_type=2 2 2 2 2 2 2 2 2 2 2 2 2 2 2 2 2 2 2 2 2 2 2 2 2 2 2 2 2 2
left_child=1 2 3 4 8 6 -5 -7 -1 10 -3 12 15 -4 -13 20 18 28 22 -20 21 -2 -11 -22 -16 -14 -6 -12 -18 -26
right_child=11 9 13 5 26 7 -8 -9 -10 16 27 14 25 -15 24 -17 17 -19 19 -21 23 -23 -24 -25 29 -27 -28 -29 -30 -31
leaf_value=-0.065323419314324185 0.05114807922515064 -0.06395774224527255 -0.04914881855189196 -0.076758730302322442 -0.0020709947905312867 0.041796015046039345 0.030089560729480061 -0.11220953469058599 0.068062312279201426 0.0008079008509149165 -0.081749099304696773 0.14447944005826083 -0.10614051974938202 0.079197312124202418 -0.13347674841508592 0.1268057289425274 -0.12170048143098533 0.14165070639215366 0.20090506118284704 -0.12329268122628818 0.005508625053319601 -0.1416900455578313 -0.084637410827103202 0.11454875445843729 -0.16799262496137385 0.10028493975984051 0.18289930364171947 0.14859812493536295 0.064905650051373179 0.077383884633275127
leaf_weight=32.979291810421273 13.717955837259071 9.3392659639939648 16.568490310804918 34.365780226653442 7.1043116939254132 9.0495724291540665 36.604297762620263 72.250301840947941 14.950821855105458 1644.1448034576024 2.936798930168151 20.523624991066754 24.709496003575627 30.016741384286433 4.8668496571481219 14.677197303622959 8.5002605917397869 21.377178934868425 1.6747445715591336 16.834210142493248 40.14135334698949 15.141359092202036 21.549351822002791 18.899830837268382 2.2713493742048767 3.9902993692085138 9.8777914913371188 22.800497097894553 6.5785116110928348 24.956721260910854
leaf_count=440 119 81 176 548 89 102 323 978 120 6204 21 202 265 283 41 120 117 216 14 184 360 143 330 166 19 45 76 174 71 246
internal_value=0 -0.0021345 -0.0267178 -0.0396451 0.0100936 -0.0608485 -0.0216495 -0.095067 -0.0237165 0.00155869 0.0727184 0.0241783 0.00442562 0.0335498 0.0734591 0.0273305 0.000108065 0.0663976 -0.00132683 -0.0939583 0.0107206 -0.0500266 -0.000297519 0.0404138 0.0280439 -0.07744 0.105519 0.122314 -0.0402886 0.0569147
internal_weight=0 2019.5 263.767 217.182 64.9122 152.27 70.9701 81.2999 47.9301 1755.74 35.0766 183.896 131.277 46.5852 52.6185 102.578 1720.66 36.456 1684.2 18.509 87.9005 28.8593 1665.69 59.0412 32.0949 28.6998 16.9821 25.7373 15.0788 27.2281
internal_count=12273 10547 3135 2676 725 1951 871 1080 560 7412 276 1726 1218 459 508 908 7136 404 6732 198 788 262 6534 526 306 310 165 195 188 265
is_linear=0
shrinkage=0.3


Tree=136
num_leaves=31
num_cat=0
split_feature=49 207 40 279 46 47 241 67 297 40 265 274 239 170 167 246 242 11 99 113 189 236 127 230 134 139 289 173 151 184
split_gain=1.56329 2.48368 2.0493 1.95807 2.59711 2.08793 1.74406 1.97086 1.80597 1.69227 1.60361 1.53497 2.4333 2.66874 2.81935 2.76464 2.1799 2.69697 2.28854 2.15206 2.0558 2.00588 1.87573 1.92995 1.87514 1.87136 1.88372 2.24927 1.7999 1.61302
threshold=0.070705000311136218 0.012112139015734732 0.091964860415897895 0.01460939028898217 0.045400761276269554 -0.033364674364879846 0.0003846621702690839 -0.0036180000752209997 -0.031510500237345647 -0.010824500117450899 -0.083156727109829201 0.002648902787984052 0.072477685365729946 0.02149607615409584 0.047271978996070704 -0.0081035001203417483 -0.021402999758720346 0.029126860829495057 -0.020931085233041515 0.083632998168468461 -0.06305261717882657 0.037199401944521586 0.046707645775168394 0.051743768215751128 -0.010061500128358597 0.039603000506758655 -0.06461549922823899 0.02445300421479785 -0.074957970671753069 -0.030353500507771896
decision_type=2 2 2 2 2 2 2 2 2 2 2 2 2 2 2 2 2 2 2 2 2 2 2 2 2 2 2 2 2 2
left_child=11 2 3 4 10 -6 -3 -8 -9 -5 -2 12 25 19 15 -15 20 22 -19 -14 -13 -20 23 -18 -22 26 -1 -28 -26 -16
right_child=1 6 -4 9 5 -7 7 8 -10 -11 -12 16 13 14 29 -17 17 18 21 -21 24 -23 -24 -25 28 -27 27 -29 -30 -31
leaf_value=-0.09251971219803716 0.17689770008981928 -0.12577131852404097 -0.14353502887192998 -0.14480411877514529 -0.06786863096986552 0.12366446114149784 -0.19114159260598865 0.20644360953425109 -0.041125391399803785 0.10243219230100785 -0.10165454499860356 -0.14143406862092611 -0.13931343040505267 -0.083393366524955742 -0.16976585423229582 0.10876620387809778 0.096051074664465011 -0.19662660570307089 0.05537110767219993 0.08855451225916651 -0.051568232412838998 -0.10465525890444333 -0.16533418155739732 -0.0067335782832899623 -0.13674167300484941 0.078789659945230739 -0.00042010563162406814 0.075443365445678159 0.12139077379444349 -0.0046088729910435033
leaf_weight=19.474286405951716 2.0016323667950955 32.559282399888616 8.2763444090378453 2.769110333640131 7.9855416879290742 14.286494625965132 3.6620783321559438 4.5871165957069016 6.2860165776219192 24.867250831215642 26.299344900995493 11.004334743483922 31.721472788602114 9.7055752074811625 11.159477492328735 22.041261898353696 85.242003084160388 5.7628845036961129 23.770086933625862 4.2272824114188543 23.024076971691102 10.021812040125949 2.9745723933447143 20.370065284660086 2.9146459884941605 27.755054691107944 1481.8166817608289 36.029038241133094 14.654553522472268 10.174651301931588
leaf_count=331 25 553 123 36 110 142 87 46 102 273 422 136 422 119 117 202 1002 66 279 43 309 156 33 209 35 304 5972 368 150 101
internal_value=0 -0.0317626 -0.00157618 0.0134463 -0.021644 0.0549911 -0.0871977 -0.000791834 0.0633181 0.0776596 -0.0819535 0.00184044 -0.00115931 -0.0494027 -0.00665828 0.0500196 0.0266823 0.0451786 -0.0218885 -0.112518 -0.0264222 0.00791138 0.0696092 0.0762264 0.00475604 0.00158503 0.000191162 0.00138066 0.0785678 -0.0909994
internal_weight=0 133.58 86.4857 78.2094 50.573 22.272 47.0945 14.5352 10.8731 27.6364 28.301 1853.84 1654.1 89.0297 53.081 31.7468 199.739 148.141 39.5548 35.9488 51.5976 33.7919 108.587 105.612 40.5933 1565.08 1537.32 1517.85 17.5692 21.3341
internal_count=12273 1919 1131 1008 699 252 788 235 148 309 447 10354 7979 1004 539 321 2375 1745 501 465 630 435 1244 1211 494 6975 6671 6340 185 218
is_linear=0
shrinkage=0.3


Tree=137
num_leaves=22
num_cat=0
split_feature=264 235 200 232 81 177 27 100 151 206 41 29 53 163 123 264 130 170 9 210 163
split_gain=1.14518 1.15094 1.044 1.10497 1.71259 1.56258 1.6546 1.48156 2.11297 1.93769 1.29113 1.74935 1.5603 1.26453 1.2297 1.12499 0.901969 0.783747 0.723774 0.221199 0.149358
threshold=-0.13161344107767006 0.016882500611245552 -0.17413138297104888 -0.0057991515520676691 0.042102698547751942 0.044190499931573861 -0.03213449940085409 -0.084030497819185188 0.0023867707925453409 -0.070216998457908533 -0.061877500265836639 -0.0073810000903903996 0.088995737381315734 -0.15367799997329709 0.06657800078392026 -0.021164319636333768 -0.008251764057498499 0.013214166929725459 0.03407031162386822 -0.030486000701784997 -0.015157999936491197
decision_type=2 2 2 2 2 2 2 2 2 2 2 2 2 2 2 2 2 2 2 2 2
left_child=1 -1 16 4 7 6 -6 8 -4 -9 11 18 -13 15 -15 -12 -2 -7 -5 -18 -3
right_child=2 20 3 10 5 17 -8 9 -10 -11 13 12 -14 14 -16 -17 19 -19 -20 -21 -22
leaf_value=-0.066801455771158966 0.048540012323490998 0.14070728162385326 0.11664763898187236 -0.0014603608705869642 0.093590778834386754 0.23376112146837949 -0.074621326847310473 -0.1245117105665029 -0.082458272727436957 0.041671332090310348 0.0082914178868706313 -0.11280372797379266 0.13412722027654614 -0.00035421083170467479 -0.10275845297979588 0.24371851806140402 -0.2344384411068608 0.012228326074780816 0.23967291635968599 -0.10471734450442889 0.24196205470678198
leaf_weight=2.1506236772984257 2.1343357963487506 2.5041753090918064 37.343814238905907 2.3793677520006922 6.378748391987755 2.8769581560045472 30.08344154804945 7.6549951760098329 5.5039862198755136 36.06572509277612 3.7126249051652849 24.784606332890693 2.5389572698622933 2086.9075997860637 10.607395294122396 3.5961976684629908 3.0702459772583097 2.8721762448549271 2.1170980483293533 1.9246911227237422 2.7519439943134785
leaf_count=24 17 23 296 27 54 17 302 57 64 322 40 277 22 10485 120 19 27 27 13 21 19
internal_value=0 0.118076 -7.88771e-05 0.000281837 0.0272695 -0.0222744 -0.0451941 0.0514273 0.0910716 0.0125746 -0.00134476 -0.0613235 -0.0898584 -0.000438023 -0.000872082 0.12413 -0.114701 0.123087 0.112074 -0.184453 0.193721
internal_weight=0 7.40674 2272.55 2265.42 128.78 42.2113 36.4622 86.5685 42.8478 43.7207 2136.64 31.82 27.3236 2104.82 2097.51 7.30882 7.12927 5.74913 4.49647 4.99494 5.25612
internal_count=12273 66 12207 12142 1139 400 356 739 360 379 11003 339 299 10664 10605 59 65 44 40 48 42
is_linear=0
shrinkage=0.3


Tree=138
num_leaves=30
num_cat=0
split_feature=176 158 1 123 242 131 207 213 22 252 41 118 239 243 264 216 16 8 88 100 136 230 97 164 166 106 29 216 117
split_gain=1.18388 1.96925 1.90438 1.4106 1.42785 1.39356 1.19619 1.13584 1.65646 1.6655 2.75509 2.35474 1.63165 1.75851 1.7206 1.88809 1.84721 1.56772 2.82867 1.67773 1.29937 1.09762 1.0954 1.07455 0.912396 0.777648 0.717531 0.174051 0.089673
threshold=-0.11676950159610154 -0.038873501121997799 -0.014359499793499647 -0.10335750132799144 -0.022211000323295548 -0.032353305663442494 0.12133499979972837 -0.033057313740418183 -0.042903000488877241 0.057647218214758204 0.1147200018167495 0.027048860745945383 0.068102501332759871 -0.052948937777909461 0.013926000334322402 -0.11762849986553188 -0.039059231378621488 0.035847499966621357 0.027185227590340356 -0.053330218128093715 -0.06284099817275994 0.037576315662419459 -0.044452499598264646 0.049393501132726662 -0.017381000332534296 0.045675501227378811 0.037878500297665561 -0.050978500396013197 -0.039416000247001592
decision_type=2 2 2 2 2 2 2 2 2 2 2 2 2 2 2 2 2 2 2 2 2 2 2 2 2 2 2 2 2
left_child=1 2 3 -1 -5 -3 7 12 17 10 -10 -11 14 20 15 -2 -16 19 -19 -9 -14 -15 -4 26 -6 28 -7 -28 -8
right_child=6 5 22 4 24 23 25 8 9 11 -12 -13 13 21 16 -17 -18 18 -20 -21 -22 -23 -24 -25 -26 -27 27 -29 -30
leaf_value=-0.2108008787043322 0.061357813199081304 -0.042710533125803508 0.27332080175508583 0.21021118537494268 -0.23105478535587695 0.071340802709738763 0.26076186839925064 0.1175007707285594 0.000377075586054838 -0.0017237283824212662 0.14576186931794319 -0.069147496209741449 0.12385468766601551 0.12351836521972039 0.17095602927869938 -0.097806501902640175 -0.05221475417833954 -0.1198914979534238 0.050576599556382947 -0.023582750617471494 -0.15999997336737498 -0.092729115544902554 0.0074680901885570417 -0.021757466716628353 0.037860455955026594 -0.015939770579805931 0.2561623571610811 0.17983826521176854 0.16975985183868655
leaf_weight=5.131643272936345 7.703614884754642 4.2293142862617996 2.3869404904544353 2.0040439954027542 2.2242459934204826 3.9145163958892253 1.7908051870763304 31.200794213684276 1745.6493197118398 120.74145975476131 11.810518974438308 75.939010932808742 1.970626547001302 13.821823246777059 5.7112950989976516 51.884835586941335 8.0327880259137583 12.343362716492264 30.183210146147758 10.022899639792739 5.5083542242646244 2.4935910971835247 3.3560642963275304 2.7850799243897191 2.3198483223095527 2.0708788763731718 5.8706852532923248 4.9617096697911576 2.1380708813667288
leaf_count=39 98 34 12 18 21 34 12 290 7534 1143 97 904 16 122 50 888 116 135 293 109 56 32 38 38 23 20 36 37 28
internal_value=0 0.0516811 -0.0234814 -0.0930304 -0.000736041 0.111858 -0.000939867 -0.00131577 0.000194857 -0.00157581 0.00135409 -0.0277563 -0.0330114 0.0352501 -0.0551603 -0.0772297 0.0405229 0.0415097 0.00109813 0.0831985 -0.0852075 0.0904679 0.117963 0.149146 -0.0937683 0.132826 0.181422 0.221203 0.211239
internal_weight=0 39.1841 17.4228 11.6798 6.54814 21.7613 2141.02 2135.02 2037.89 1954.14 1757.46 196.68 97.1269 23.7944 73.3325 59.5885 13.7441 83.7503 42.5266 41.2237 7.47898 16.3154 5.743 17.532 4.54409 5.99975 14.7469 10.8324 3.92888
internal_count=12273 330 151 101 62 179 11943 11883 10505 9678 7631 2047 1378 226 1152 986 166 827 428 399 72 154 50 145 44 60 107 73 40
is_linear=0
shrinkage=0.3


Tree=139
num_leaves=31
num_cat=0
split_feature=31 210 280 98 195 5 9 232 85 3 41 50 247 210 229 212 116 198 154 291 177 205 105 205 166 59 195 101 107 102
split_gain=1.6035 2.00104 2.11222 2.1309 1.85683 1.80332 1.67538 2.77358 3.1557 2.37822 2.32095 2.15128 2.80634 2.09125 2.28128 1.88545 1.56172 1.70427 1.60864 1.50986 1.42396 1.38868 1.33444 1.30191 1.2718 1.43842 1.25627 1.2502 1.02238 1.00374
threshold=-0.082814000546932179 -0.072103494323130304 -0.06830399855971328 -0.017888442544264846 -0.0020643762560370181 -0.092712998390197685 0.047553911688514819 0.023684064596436523 0.026990400804826734 -0.043749302009040404 0.049961108965590202 0.093510001897811862 -0.038511534274201377 -0.099653497338294941 -0.031755771649144601 -0.037150011042324828 -0.0064765261613254806 0.017475345262620807 -0.0022239999379961993 -0.071934502571821143 -0.071714559020414029 -0.0015343038811155986 -0.015391999855637498 -0.055046498775482143 0.02977269109850279 0.0031578505182176986 0.024724668280031819 -0.066829148157964161 0.033248500898480353 -0.045482235374515401
decision_type=2 2 2 2 2 2 2 2 2 2 2 2 2 2 2 2 2 2 2 2 2 2 2 2 2 2 2 2 2 2
left_child=1 4 27 19 -1 16 7 11 9 -9 -10 12 -7 -8 28 -16 17 -2 -18 -4 -20 -13 -21 -6 25 -5 -22 -3 -15 -19
right_child=5 2 3 24 23 6 13 8 10 -11 -12 21 -14 14 15 -17 18 29 20 22 26 -23 -24 -25 -26 -27 -28 -29 -30 -31
leaf_value=0.10984530889640227 -0.12254570835841141 0.085590196596077792 -0.15259129182648487 0.0060487721264695041 0.0024237090230631204 -0.076933151773779504 -0.21369635942209533 -0.010089926365841556 0.0082002266969004763 0.061433834731621895 -0.11760846122503199 0.15456718462840957 0.00018199915140422048 -0.15615709893949153 -0.080082480279798543 0.043651297753560241 -0.20517771232134266 0.17258313686680996 0.13983302015674873 -0.067763249721149055 0.073963786471631238 -0.11597967659416397 0.1298488763029334 -0.22060883688927652 0.10814196393020764 -0.14677968295459923 -0.1652962010000372 -0.17168723309189102 0.085455806453430233 -0.063317912045513292
leaf_weight=2.4083597566932466 4.8100586386863124 2.0369839796330771 2.4156449371948865 10.122077740263199 2.965603099670262 43.789210218645167 5.8822866602858985 53.597460642457008 43.799846623383928 190.73685103654861 18.888743177085416 11.999154784716664 1412.0001128768199 13.610754068009554 16.37106027523987 34.317216701019788 9.7504258159315214 5.5900867101736367 2.9403051291592393 3.6858485392294886 2.7442909390665609 1.9907835731282819 18.572215904714536 11.450357601279389 3.8935530493035904 12.25120853516273 7.0465232091373764 10.27155497507192 1.7826510784216214 2.2876200643368065
leaf_count=25 73 28 35 120 36 589 96 731 671 2006 313 130 5309 221 223 461 121 55 37 47 51 36 196 168 44 165 112 127 19 28
internal_value=0 -0.0420389 -0.0175795 0.00936904 -0.133991 0.00130717 0.00258733 0.00440484 0.0303384 0.0457443 -0.0297073 -0.00101245 -0.00213758 -0.0422871 -0.027029 0.00368835 -0.0659879 0.0181636 -0.11348 0.0726769 -0.043251 0.116068 0.0971251 -0.174727 -0.0500991 -0.0776373 -0.0982334 -0.129109 -0.128177 0.104079
internal_weight=0 80.0734 63.2491 50.9405 16.8243 1883.94 1848.77 1776.8 307.023 244.334 62.6886 1469.78 1455.79 71.964 66.0817 50.6883 35.1693 12.6878 22.4815 24.6737 12.7311 13.9899 22.2581 14.416 26.2668 22.3733 9.79081 12.3085 15.3934 7.87771
internal_count=12273 991 762 607 229 11282 10805 9785 3721 2737 984 6064 5898 1020 924 684 477 156 321 278 200 166 243 204 329 285 163 155 240 83
is_linear=0
shrinkage=0.3


Tree=140
num_leaves=31
num_cat=0
split_feature=233 50 250 96 260 108 23 157 110 43 114 13 296 130 243 48 86 143 6 281 31 31 191 47 31 232 280 131 140 193
split_gain=1.06836 1.75381 2.61355 1.73564 1.44586 1.6524 1.24777 1.13283 1.72307 1.47304 1.25223 2.11703 2.13051 1.95667 1.89788 2.24825 2.88652 1.9582 1.82535 1.66372 1.51228 1.22771 1.04643 0.909731 0.906486 0.872466 0.707452 0.614576 0.461797 0.449531
threshold=0.070872496834045173 0.048868504959392385 -0.0095060002058743997 0.037391999736428254 0.12128694055224255 -0.012724999804049649 0.016033023420321143 0.12889439651576415 0.020090674014278175 -0.050223511244112708 0.013565162646718367 0.051866122126875823 -0.082246500998735386 0.048307999968528706 0.031432082149806098 -0.082209497690200792 0.011206000111997102 0.083136998116970021 -0.062686104183582711 -0.089734997600316932 -0.073260558425353325 -0.052680999040603589 0.057826001197099651 -0.037955000996589591 -0.04872700013220304 -0.0057991515520676691 -0.07228649780154224 0.086072999984025914 -0.027821499854326196 0.019951236186503411
decision_type=2 2 2 2 2 2 2 2 2 2 2 2 2 2 2 2 2 2 2 2 2 2 2 2 2 2 2 2 2 2
left_child=7 2 24 26 5 6 -4 10 9 -9 14 12 20 -14 17 25 -17 19 -19 -1 -12 -11 23 -13 -2 -16 -3 -23 -7 -10
right_child=1 3 4 -5 -6 28 -8 8 29 21 11 22 13 -15 15 16 -18 18 -20 -21 -22 27 -24 -25 -26 -27 -28 -29 -30 -31
leaf_value=-0.11402000100884521 0.048072128976407773 0.01165246106866203 0.1384530665206371 0.15752545525831732 -0.12393122655385874 0.11340359913264988 -0.038710436431515616 0.13610758432020001 -0.22209229695837246 0.11884837069941262 0.11339519850576377 0.075823165926028266 0.033192142742418496 -0.032987886289607499 0.038602673367701935 0.040652826791428433 -0.098843334960215509 0.1607580705930555 0.0075795185711639759 -0.0012100801425952723 -0.17761460740429996 -0.20974765863524883 -0.073750254114270872 0.21714813184810763 -0.21360051697704413 -0.1959613043164464 -0.18218198962933843 0.00057247728928594183 0.24221916400084095 -0.063575840024057292
leaf_weight=11.842304698657243 1.8691860521212218 2.3793244399130336 8.2608853112906235 2.5307728927582493 2.1565995891578487 3.3834840152412644 6.3115062820725134 4.5184908937662831 5.8616371639072877 2.113318749703466 1.9926344528794278 8.5793127715587651 176.9427783167921 52.030566654866561 1.6380561590194709 28.168045840691775 25.378592990804464 12.914403261616828 15.292196644470094 1825.8713921563467 8.3078781208023411 4.2014229055494097 2.274795312434434 7.8505113683640966 3.2862302521243683 11.084099572617557 5.8889919603243461 1.7802596017718313 9.6436892179772276 2.219863411039114
leaf_count=126 20 23 92 14 25 24 78 38 68 19 15 68 1676 506 14 313 328 80 128 8023 93 44 23 62 41 158 63 19 65 27
internal_value=0 0.0457918 0.0784741 -0.0598645 0.11264 0.131126 0.0617211 -0.00054385 -0.0704039 -0.00111421 0.000116261 0.019748 0.0121496 0.0181538 -0.00250489 -0.0523959 -0.0254618 -0.000732994 0.0777124 -0.00193703 -0.121319 -0.0777091 0.116948 0.143351 -0.118727 -0.16576 -0.126403 -0.147152 0.208763 -0.17855
internal_weight=0 45.7107 34.9116 10.7991 29.7562 27.5996 14.5724 2210.86 20.695 12.6135 2190.17 257.978 239.274 228.973 1932.19 66.2688 53.5466 1865.92 28.2066 1837.71 10.3005 8.095 18.7046 16.4298 5.15542 12.7222 8.26832 5.98168 13.0272 8.0815
internal_count=12273 445 345 100 284 259 170 11828 215 120 11613 2443 2290 2182 9170 813 641 8357 208 8149 108 82 153 130 61 172 86 63 89 95
is_linear=0
shrinkage=0.3


Tree=141
num_leaves=31
num_cat=0
split_feature=59 161 10 89 256 76 24 265 119 129 245 81 138 65 238 116 14 12 69 188 244 257 284 174 100 290 203 151 36 1
split_gain=1.24413 1.35115 1.83102 1.34072 1.16655 1.96261 1.11713 1.96123 2.17837 3.03274 1.77553 1.66761 1.82825 1.61403 1.45029 2.28015 2.00264 1.83241 2.16538 1.76364 1.7342 1.36035 1.26477 1.6162 1.42432 0.982348 0.970599 0.798315 0.618691 0.579632
threshold=0.098696641268345708 -0.063335496932268087 0.026175855095695439 0.015566500369459351 -0.018123283526204573 -0.019795500673353599 0.013801186684579194 0.038769817453968354 -0.089624501764774225 0.036150814716266376 -0.1048386869564062 -0.00087173916090180464 0.0053693591596562827 -0.022386499680578698 -0.091568000614643028 0.026228500530123652 -0.016009000129997696 -0.056382499635219491 -0.051793460802333192 -0.033303499221801695 -0.098896499723195988 -0.016759909712588159 0.11855250224471087 0.10003138623786238 -0.089848436997539291 0.0012750393423058752 0.011310009450643137 -0.067810498178005177 -0.07143649831414213 -0.025161500088870446
decision_type=2 2 2 2 2 2 2 2 2 2 2 2 2 2 2 2 2 2 2 2 2 2 2 2 2 2 2 2 2 2
left_child=6 2 25 -4 5 -3 10 8 11 21 28 26 -13 -11 15 20 -17 19 -19 -16 -12 -10 23 24 -9 29 -8 -6 -1 -2
right_child=1 4 3 -5 27 -7 7 22 9 13 14 12 -14 -15 17 16 -18 18 -20 -21 -22 -23 -24 -25 -26 -27 -28 -29 -30 -31
leaf_value=0.010289777030701565 0.045818116723729152 -0.15328154743477193 0.034884478440252775 -0.20394053472797175 -0.038929419455782169 0.15488796049613793 -0.062341254850887408 0.10701037236015561 -0.057780317540854581 -0.19252012198260143 0.10931488728858334 0.071031140585484404 -0.11815448835923485 0.067948154631596078 -0.1749962934284589 0.20972892039461521 0.053141089428069346 0.071437578013761577 -0.0011784738082882805 -0.031092578230193221 -0.035488377760318969 -0.14913519695688904 0.18787797818283505 -0.18024858276153163 -0.017387106529668947 -0.056128700447669704 0.17966844572266796 0.17511173687116921 0.18339094936296843 0.23659578493048866
leaf_weight=2.6112091997638345 2.4555610343813896 3.6374223865568638 3.5654879668727499 5.2022148948162794 1.780144955962897 3.806121580302718 1.8809919683262721 13.601158836623648 27.215821921126917 2.4759399485774365 9.1297494759783131 8.8257680480601284 9.5955791804008168 15.834126907167954 8.7500640056096 9.1236651018261892 37.826494973618537 37.751869403989986 1757.8935854026349 61.806518828379922 40.304193814983591 31.823891654319596 4.0435204929672173 3.5872021634131661 21.188623222988102 2.8978093448095024 7.2024466027505696 13.176754336804148 6.4449168215505761 3.4429632797837275
leaf_count=31 28 28 27 51 14 37 24 148 479 39 91 129 117 194 129 66 364 371 7457 676 402 670 31 46 279 35 58 130 95 27
internal_value=0 0.0524957 -0.00979916 -0.10682 0.101341 0.00429536 -0.000932943 -0.0261367 -0.0481566 -0.0739416 0.000949691 0.0243569 -0.0275146 0.0327269 0.000338147 0.036223 0.0835703 -0.00151521 0.000348215 -0.0489388 -0.00874526 -0.107023 0.0282919 0.0114774 0.0312464 0.0869055 0.129553 0.149637 0.13348 0.157175
internal_weight=0 39.9645 17.564 8.7677 22.4004 7.44354 2118.92 147.275 104.855 77.3498 1971.64 27.5048 18.4213 18.3101 1962.59 96.3841 46.9502 1866.2 1795.65 70.5566 49.4339 59.0397 42.4205 38.377 34.7898 8.79633 9.08344 14.9569 9.05613 5.89852
internal_count=12273 377 168 78 209 65 11896 2214 1710 1382 9682 328 246 233 9556 923 430 8633 7828 805 493 1149 504 473 427 90 82 144 126 55
is_linear=0
shrinkage=0.3


Tree=142
num_leaves=31
num_cat=0
split_feature=154 118 65 99 186 294 127 2 33 101 182 156 43 67 122 141 57 272 299 93 215 35 108 243 42 155 165 14 38 56
split_gain=1.54398 1.55162 1.51453 1.96121 1.47831 2.238 2.04846 1.64417 2.55365 2.39448 2.33269 2.27997 2.32523 2.17611 2.07665 2.02155 1.63991 1.53717 1.87463 1.38167 1.36883 1.35494 1.16446 1.13844 1.60255 1.4028 0.985378 1.13023 0.962303 0.894927
threshold=-0.052957501262426342 -0.093979073862762219 0.0092294998466968016 0.0092414999380707012 0.031526500359177555 -0.064017999917268684 -0.007899728264383581 -0.0017794999876058998 -0.08494200184941289 1.0000000180025095e-35 0.10186650231480597 0.10481650009751316 0.037517988478898125 -0.013972999993711649 -0.05944372770880265 -0.010811687899634001 -0.036954628229476649 0.045758623639508493 0.047644831775643784 -0.052314667415351575 0.01141799986362455 -0.044697498902678441 -0.0056389644047140095 -0.10145549848675724 -0.018992984181112896 0.039494305371214185 -0.037046082149620477 0.050763500854372902 -0.048890499398112248 -0.028287999331951096
decision_type=2 2 2 2 2 2 2 2 2 2 2 2 2 2 2 2 2 2 2 2 2 2 2 2 2 2 2 2 2 2
left_child=1 -1 3 28 7 -6 17 10 -9 15 11 12 -2 -11 -13 -10 21 -7 -19 29 -12 -8 -18 24 -21 -25 27 -5 -3 -4
right_child=4 2 19 26 5 6 16 8 9 13 20 14 -14 -15 -16 -17 22 18 -20 23 -22 -23 -24 25 -26 -27 -28 -29 -30 -31
leaf_value=0.15766246177508969 0.054870751501462998 -0.096487242964628447 -0.10171895569412596 0.128382990808414 -0.15461067960393768 -0.13453669214146183 -0.19113628657870763 -0.17324723983541201 -0.061416452472739774 -0.07129811923525553 0.060448330977330773 -0.086496685419249097 -0.043854826985458395 0.10232318403970646 0.024989523353171905 -8.8243530849705301e-05 0.0014780676717753094 -0.10169649216082911 0.0763081020303404 -0.22125576621710674 -0.23725383954936735 0.043793341499059654 0.18721775660541998 -0.1707247470416613 0.091656887175774998 -0.019995458186774513 -0.13157121384914347 -0.1621081133547975 0.16393613519427255 0.16728855183949079
leaf_weight=3.2344390809303141 184.63501426207949 1.550037322565913 1.8046775539405642 3.6980458777397871 12.823190606257411 14.938094678102059 3.4516120427288115 7.7087853653356424 50.074568556621671 7.9912437050370491 1.9626323804259289 26.113862479629461 24.296154466224834 34.747574314242229 35.450382195180282 1423.8322255338426 4.6845652693882576 10.230984174530024 11.103524484089574 2.0857116805855185 4.7646172903478146 6.139531733584592 8.6416622584220004 22.701001129578803 5.0143978944979599 7.3582640530075869 7.9551307656802219 1.788384875282645 7.2498912247829157 2.9040724034421137
leaf_count=48 2071 22 29 48 261 224 45 144 739 135 27 290 337 423 364 5627 73 149 118 28 37 79 107 386 60 118 142 20 74 48
internal_value=0 -0.0450712 -0.0552995 0.00796478 0.00116274 -0.0409863 -0.0163702 0.00284753 -0.00101738 -0.000141974 0.0240994 0.0284392 0.0433902 0.0698597 -0.0222999 -0.00217181 0.053843 -0.0607315 -0.00905417 -0.0889072 -0.150401 -0.0407519 0.121925 -0.108307 -0.000263606 -0.133827 -0.0641154 0.033693 0.118065 0.0641886
internal_weight=0 67.3441 64.1096 22.2415 1873.59 72.0132 59.19 1801.58 1524.35 1516.65 277.223 270.495 208.931 42.7388 61.5642 1473.91 22.9174 36.2726 21.3345 41.8681 6.72725 9.59114 13.3262 37.1594 7.10011 30.0593 13.4416 5.48643 8.79993 4.70875
internal_count=12273 1023 975 306 11250 1056 795 10194 7068 6924 3126 3062 2408 558 654 6366 304 491 267 669 64 124 180 592 88 504 210 68 96 77
is_linear=0
shrinkage=0.3


Tree=143
num_leaves=31
num_cat=0
split_feature=194 214 268 174 13 62 191 58 162 238 78 227 128 227 215 93 35 192 34 97 24 200 208 239 121 146 34 169 101 206
split_gain=1.00361 1.99321 2.47025 2.34914 2.11243 2.24283 1.89186 1.97228 1.89055 1.99563 2.75836 2.29647 1.94845 1.89509 1.87365 1.85453 1.80451 2.17862 1.87176 1.78566 1.76232 2.62381 2.15847 2.14325 2.69492 2.5851 2.13012 2.03556 1.87462 2.10718
threshold=-0.022544123397736111 -0.00093501620012730318 -0.042550999671220745 0.096856001764535862 -0.095444001257419545 0.032232500612735707 -0.015459857184840638 0.026038000360131205 0.10203000158071511 -0.08030899986624708 -0.011136297063807631 -0.0114004998467862 0.11170899868011472 -0.032003198136046802 -0.027923253398200742 -0.022165999747812696 -0.0031994034085499521 0.018307000398635854 0.0048970000352710008 -0.038847500458359698 -0.017543000169098297 -0.1067394986748695 0.009237879776133719 0.076151108857498831 0.028768025572324663 1.0000000180025095e-35 -0.012192547763316767 -0.076663069654575297 -0.037717340987739705 -0.0062174999620764988
decision_type=2 2 2 2 2 2 2 2 2 2 2 2 2 2 2 2 2 2 2 2 2 2 2 2 2 2 2 2 2 2
left_child=20 2 3 4 -2 -6 7 19 9 10 11 -3 -11 -12 -5 -8 17 -10 -18 -4 23 -22 28 25 -25 -1 -26 -27 -23 -30
right_child=1 8 6 14 5 -7 15 -9 16 12 13 -13 -14 -15 -16 -17 18 -19 -20 -21 21 22 -24 24 26 27 -28 -29 29 -31
leaf_value=0.023229966576937593 0.14628272312446183 -0.1358048700660808 0.028587752983618542 -0.082435893662540935 -0.059037124148814915 0.047245904316725401 -0.023543198915540298 0.068713872586332422 0.21353361457758147 0.00058673254241596844 0.12704760318533975 0.0078999155377429894 0.096245222645580983 -0.070596947822645265 0.16192559565818107 -0.14766168885549563 0.08678906624819728 -0.055991658643549103 -0.14215035576191906 -0.11598198579602167 -0.062243560246813497 0.036959210119002474 -0.011639358841744123 -0.049046885190029615 -0.027376059961587203 0.021093175457348439 0.12199501902044976 -0.079960376577340758 0.17866520239643782 0.050155075293194476
leaf_weight=69.766449499875307 6.5948224607855073 31.908787624910474 12.097051576245574 3.6552257197909084 64.652921255212277 24.694791218731552 16.178379340562969 14.690926331211811 11.379662531428041 1538.1030198622029 10.80962353013456 14.58201958844438 19.405721948947757 7.324773753527551 12.418281009886412 32.7997010438703 8.3246385292150062 3.538414324168115 5.2353314803913227 21.103165154810995 19.364035677863285 46.896887951996177 31.377401678124443 19.53782585542649 11.504523657262324 24.374213812872767 33.944448689930141 67.961524713551626 26.011572274845093 20.560104334261268
leaf_count=622 41 270 87 41 680 194 158 142 88 5942 80 143 143 76 87 312 70 32 43 215 238 465 361 174 96 209 203 647 215 199
internal_value=0 -0.00251363 -0.0301238 0.000214519 -0.0175677 -0.0296616 -0.0652058 -0.0228077 0.000980438 -0.000364815 -0.0520221 -0.0907313 0.00177859 0.0472158 0.106356 -0.106663 0.0776072 0.149605 -0.00160152 -0.0633056 0.0145698 0.0405057 0.0564425 -0.00190054 0.0441295 -0.020354 0.0841846 -0.0532849 0.0792976 0.121932
internal_weight=0 1859.5 208.885 112.016 95.9425 89.3477 96.8692 47.8911 1650.61 1622.13 64.6252 46.4908 1557.51 18.1344 16.0735 48.9781 28.478 14.9181 13.56 33.2002 371.299 144.21 124.846 227.089 64.9868 162.102 45.449 92.3357 93.4686 46.5717
internal_count=12273 8844 1957 1043 915 874 914 444 6887 6654 569 413 6085 156 128 470 233 120 113 302 3429 1478 1240 1951 473 1478 299 856 879 414
is_linear=0
shrinkage=0.3


Tree=144
num_leaves=31
num_cat=0
split_feature=161 281 202 100 10 3 116 293 208 186 18 39 244 19 121 251 133 263 42 109 266 81 160 25 274 106 145 23 131 152
split_gain=1.1199 1.346 1.12857 1.5482 1.34083 1.47124 1.28513 1.6321 1.58459 1.66869 1.51152 2.04489 1.55048 1.45784 1.43592 1.63477 1.3884 1.24946 1.24101 1.205 1.10796 1.06621 1.02122 0.966425 1.37848 1.05901 1.36397 1.01431 0.861169 0.774286
threshold=0.019690500572323754 -0.084954792943504651 -0.10453550145030013 -0.15099452671917019 0.045311499387025757 -0.059819276492706026 -0.0089884996414183981 -0.05413743375113151 0.021950499154627306 0.051591999828815412 -0.015727510300954001 0.0075503201969406219 -0.041671486444308174 0.12827000021934507 0.1020059886912872 -0.060180999338626841 -0.0189364999532699 -0.056432500481605495 0.0085186440582864804 0.029422999359667253 0.023315056567904734 0.0059885134497125727 -0.006291545041277896 -0.022576999850571097 0.0070364207793899248 0.040709510276365345 -0.018895499408245049 0.0024940000148489503 0.036168927325446659 -0.029315000399947097
decision_type=2 2 2 2 2 2 2 2 2 2 2 2 2 2 2 2 2 2 2 2 2 2 2 2 2 2 2 2 2 2
left_child=2 -2 3 -1 5 -5 10 16 9 -9 14 12 -12 -10 15 -4 20 -13 22 -18 -8 -7 -6 25 29 -3 -27 -26 -28 -25
right_child=1 23 6 4 18 21 7 8 13 -11 11 17 -14 -15 -16 -17 19 -19 -20 -21 -22 -23 -24 24 27 26 28 -29 -30 -31
leaf_value=-0.20917572938930587 -0.16957879426155298 0.14488940310955495 -0.16041788182542518 -0.10904832086314196 -0.19107522341474284 -0.017694601710071513 0.18429905407413946 -0.00030656579040102319 -0.064667032494579918 0.076381593450952245 -0.12112858911029362 -0.11492972487327219 -0.014284122862966819 0.13115419859945737 0.16203955072887091 0.0041196012985042245 -0.16667148290531444 0.11361579427176895 0.14817218271606755 0.048809111960306739 -0.015395235798648921 0.19246502812469549 0.067421315309554447 -0.20555075934336375 -0.079481131773834049 -0.17235106510248036 -0.03713105832552601 0.20763791160954656 0.18030032581002989 0.0015238520150228222
leaf_weight=1.8135937582701469 2.3481266133021554 15.818550983094612 5.9656542520970097 2.1272241882979932 3.7547621321864426 2.6134282406419507 10.871704374207185 1820.1695515041938 50.346965970122255 25.899878338910639 37.033904757263372 2.9033098304644218 18.246320350910537 3.671127686277031 4.6401959871873251 61.052523658203427 2.8917025788687161 8.3292527151061204 2.7270432393997908 12.14735692203976 3.2474912027828386 12.881395863834767 2.1706459168344718 3.1336202803067863 1.6639297688379882 2.4974635923281312 2.8621707232668978 3.3105669133365154 3.8374156130012125 3.3759549781680089
leaf_count=23 28 189 69 18 38 31 94 8477 632 246 652 35 244 31 34 685 36 121 19 149 39 98 22 36 27 42 32 32 47 47
internal_value=0 0.0505844 -0.00082188 0.0589083 0.0774128 0.124901 -0.00163338 0.000368306 -0.000712616 0.000769349 -0.0295824 -0.062151 -0.0858625 -0.0513588 0.000647652 -0.0105268 0.0708062 0.054543 -0.0193035 0.00737661 0.138368 0.157019 -0.0963806 0.0647482 -0.00729927 0.0978234 0.0168719 0.111599 0.0874102 -0.098159
internal_weight=0 38.8478 2095.51 28.0881 26.2745 17.622 2067.42 1929.25 1900.09 1846.07 138.171 66.5128 55.2802 54.0181 71.6584 67.0182 29.1583 11.2326 8.65245 15.0391 14.1192 15.4948 5.92541 36.4997 11.4841 25.0156 9.19705 4.9745 6.69959 6.50958
internal_count=12273 480 11793 249 226 147 11544 9704 9386 8723 1840 1052 896 663 788 754 318 156 79 185 133 129 60 452 142 310 121 59 79 83
is_linear=0
shrinkage=0.3


Tree=145
num_leaves=31
num_cat=0
split_feature=108 271 106 3 82 120 131 77 261 86 9 140 56 158 280 283 45 272 90 69 130 11 115 183 262 123 59 283 186 7
split_gain=1.39111 3.72577 1.97324 1.60015 1.53944 1.45872 1.44764 1.59017 2.84199 2.37656 1.82372 1.623 1.28544 1.21568 1.21237 1.13099 1.19887 1.09193 1.55022 1.45177 1.29815 1.076 0.957731 0.91318 0.867792 0.860568 0.826682 0.72274 0.66098 0.567464
threshold=-0.063578501343727042 0.034301999956369351 0.016001008766150834 -0.10061865419001711 -0.00082849999307649995 -0.019011500291526245 0.12420063014032216 -0.033499084037897427 -0.012058878152978895 0.048249499872326802 0.04887899942696091 0.046128538861473362 -0.0080559998750686489 -0.067175058084595188 -0.046147499233484192 0.016377500258386104 -0.038769232724581486 -0.0013360000448300999 0.026196999475359854 -0.011299999896436898 0.012843000236898602 -0.052048498764634098 0.039462000131607007 -0.074115000665187794 -0.060078799491190001 0.057848881449025634 0.024644499644637052 -0.00060678364849510956 -0.14121135667839377 -0.068432502448558738
decision_type=2 2 2 2 2 2 2 2 2 2 2 2 2 2 2 2 2 2 2 2 2 2 2 2 2 2 2 2 2 2
left_child=1 2 21 5 15 12 7 8 -5 -10 11 -9 29 -6 -12 -4 -17 19 22 -3 -20 -1 28 -21 -8 -23 -15 -26 -19 -2
right_child=3 17 4 6 13 -7 24 10 9 -11 14 -13 -14 26 -16 16 -18 18 20 23 -22 25 -24 -25 27 -27 -28 -29 -30 -31
leaf_value=0.080672926753466323 -0.0057039949854915074 0.13549374424059293 -0.18546153125425141 -0.17802377384156831 -0.1273488800737102 -0.18715532478724634 0.07779481697467773 0.0021703108057062413 0.055076145893407064 -0.046418459359336098 -0.13582056760524874 -0.10135096388168095 0.13443910106108564 0.20927219345450196 -0.025812600691831587 0.15328364575079814 -0.1045368667573128 0.12808159075533573 0.13767695627028262 0.18009519331512186 -0.17074481790229729 -0.19459142981457678 0.080028778257207958 -0.21369514278999499 0.10003779630757145 0.11513533727625218 0.01276102890661782 -0.18367455782173797 -0.18850645248505718 -0.22731297197618486
leaf_weight=2.5072786640375853 2.1300732948584482 3.4768695957027376 2.5638269853079692 5.6423774730646974 1.3585672834888072 7.736938674701376 1.7901544044725586 1609.6397680249647 129.13976428040769 24.741825774312019 13.721873811271506 13.746590866066979 3.4152266748715192 10.03755170456134 26.29257569136098 4.000764450058341 2.7314576194621623 0.60980967432261124 3.1099964187014839 0.65378006082028184 2.02989003341645 5.6414961590780859 1.3495623094495375 2.7991060775821088 0.90763848787173529 0.94220681767910708 2.3843289492651811 7.3691367257852098 22.231188610836401 2.0319760888814926
leaf_count=43 47 46 45 101 42 150 24 7585 1612 321 228 226 54 109 389 51 74 9 55 7 44 123 26 80 23 14 54 124 532 35
internal_value=0 -0.0425145 0.0318079 0.00104473 0.0784442 -0.0955265 0.00185156 0.00247808 0.0310898 0.0387574 -0.000265843 0.00129371 -0.00196699 0.142085 -0.0635369 -0.0158968 0.0486784 -0.108448 -0.133753 -0.00134473 0.0158723 -0.0865733 -0.165544 -0.139134 -0.111599 -0.150266 0.171553 -0.152562 -0.180054 -0.113897
internal_weight=0 68.4277 32.1675 1848.31 23.0765 15.3142 1832.99 1822.92 159.524 153.882 1663.4 1623.39 7.57728 13.7804 40.0144 9.29605 6.73222 36.2602 29.3304 6.92976 5.13989 9.09098 24.1906 3.45289 10.0669 6.5837 12.4219 8.27678 22.841 4.16205
internal_count=12273 1354 555 10919 375 286 10633 10462 2034 1933 8428 7811 136 205 617 170 125 799 666 133 99 180 567 87 171 137 163 147 541 82
is_linear=0
shrinkage=0.3


Tree=146
num_leaves=31
num_cat=0
split_feature=279 6 204 137 65 156 24 247 157 205 90 58 268 47 94 291 195 244 71 225 55 261 172 84 2 159 155 239 281 17
split_gain=1.00512 2.28599 2.68119 2.63845 2.26762 2.24631 2.26717 2.6643 2.6112 2.03462 1.96468 1.74792 1.65154 1.6246 1.74052 1.84322 2.91587 1.7794 2.41006 2.21033 1.98194 1.95675 1.85642 1.76943 1.70108 1.73987 2.15323 2.00071 1.91981 1.64808
threshold=-0.040603499859571443 -0.066018998622894245 -0.0083322045409482837 -0.084786500781774438 0.031416499987244557 0.012166927757223557 -0.022077499888837296 0.010180355346449715 0.0050275002140551008 -0.0046581260024178102 0.057601999491453157 -0.054330423926159034 -0.042550999671220745 -0.030493499711155846 -0.072471419831817221 0.0015009999624453001 0.037966175205041475 -0.080148865082869003 -0.082965438761246763 0.036772599278384215 0.013071188362468577 0.1085204800133228 0.0060746894559323512 -0.089099496603012043 0.06999700143933292 -0.061128500849008498 0.033699501305818551 0.08187600225210187 0.009358238470271044 -0.012250999920070149
decision_type=2 2 2 2 2 2 2 2 2 2 2 2 2 2 2 2 2 2 2 2 2 2 2 2 2 2 2 2 2 2
left_child=1 2 3 -1 -4 11 8 -8 -7 -6 -10 -3 -9 24 15 29 -17 18 20 -20 -16 22 -19 -23 25 -2 28 -28 -27 -15
right_child=13 5 4 -5 9 6 7 12 10 -11 -12 -13 -14 14 17 16 -18 21 19 -21 -22 23 -24 -25 -26 26 27 -29 -30 -31
leaf_value=0.2106857047098448 0.078450294112983696 -0.12658623540590799 0.068898735675161249 0.058705943093447205 -0.16822456813194503 0.033068276049303499 0.053062956573069607 -0.19884125053980498 -0.13882833805602518 0.062237390339536909 0.1541201339615971 0.096081402047743431 -0.011195423483943041 0.1359011368861561 -0.030873916280491673 -0.1296633126358262 0.069631351523323823 0.0024717300887453549 -0.078066942034206444 0.11516321967451471 0.1147718492101386 0.22263239611251906 -0.043396729981049355 0.041268964765476188 0.073280241273258023 -0.084093930010056134 -0.017981466302662258 0.13828258754551406 -0.006661403953323688 0.024775559149103503
leaf_weight=14.452381801558657 11.495996706420554 3.6090710638090995 16.443928131135184 35.615781001746655 10.299581547267737 14.562126304022966 44.705638072453439 6.9166136477142599 30.954727593285497 5.1824660440906838 2.2073302669450632 26.2504563187249 10.833066313527523 24.328187884762883 20.185870645102113 11.694107087794693 15.189233342418445 1457.0943210695405 76.412414810620248 5.7271477542817584 14.412873324938117 5.5316821578890076 83.990400980226696 38.802085215225816 14.116875934181733 94.19348716060631 32.901374813518487 9.5042260102927667 41.519735257141292 23.724912843201309
leaf_count=78 106 34 141 361 122 127 423 95 347 61 17 284 141 183 163 96 123 5094 705 50 119 42 816 373 123 992 389 67 406 195
internal_value=0 0.0194742 0.0592559 0.102576 -0.00868051 -0.00381828 -0.0235981 0.01402 -0.072828 -0.0910797 -0.119329 0.0691679 -0.0843164 -0.00181165 0.00109736 0.0458439 -0.0170607 -0.000872577 -0.0366182 -0.064594 0.0297981 0.00175947 -2.81392e-05 0.0638983 -0.0271861 -0.0346659 -0.0419665 0.0170415 -0.0604044 0.0810359
internal_weight=0 222.033 81.9941 50.0682 31.926 140.039 110.18 62.4553 47.7242 15.482 33.1621 29.8595 17.7497 1980.82 1777.09 74.9364 26.8833 1702.16 116.738 82.1396 34.5987 1585.42 1541.08 44.3338 203.732 189.615 178.119 42.4056 135.713 48.0531
internal_count=12273 2231 763 439 324 1468 1150 659 491 183 364 318 236 10042 7959 597 219 7362 1037 755 282 6325 5910 415 2083 1960 1854 456 1398 378
is_linear=0
shrinkage=0.3


Tree=147
num_leaves=31
num_cat=0
split_feature=158 216 12 125 172 7 137 240 114 36 99 199 223 212 20 147 18 129 188 223 111 83 232 296 232 166 39 283 276 13
split_gain=1.0622 1.17568 1.11193 1.06922 1.74741 1.65936 1.64343 1.61124 1.49988 1.82463 2.34768 2.1736 1.74193 1.6444 1.60554 1.51431 1.65863 1.87984 1.7357 1.39178 1.36705 1.34168 1.31237 2.3087 1.34102 1.23289 1.15791 1.01801 1.00227 1.16224
threshold=0.038747001439332907 -0.016459940477243678 -0.026884474360130507 0.014759088939110099 0.033136107194433016 -0.10876049846410749 0.024361000396311252 0.14193319639521429 -0.040915001183748197 -0.023276614217073457 0.015155000146478352 -0.056892900458964744 -0.025059000588953446 1.0000000180025095e-35 -0.025357631085878646 0.06559200212359427 0.0032001979594918884 0.058569243865313619 -0.049400500953197445 0.042734679109890379 -0.034372000023722593 0.14456400275230408 0.040047500282526009 -0.049596327400299879 0.029628999531269053 -0.08869650214910503 0.010489500127732702 0.020365499891340701 -0.011053000111132848 -0.054571738409213914
decision_type=2 2 2 2 2 2 2 2 2 2 2 2 2 2 2 2 2 2 2 2 2 2 2 2 2 2 2 2 2 2
left_child=3 27 -3 8 5 6 19 22 9 10 25 14 -12 -13 -11 16 17 -10 -18 -5 26 -22 24 -24 -6 -1 -7 -2 29 -17
right_child=1 2 -4 4 7 20 -8 -9 15 11 12 13 -14 -15 -16 28 18 -19 -20 -21 21 -23 23 -25 -26 -27 -28 -29 -30 -31
leaf_value=-0.070212471313506289 -0.032234053452432104 -0.18213328697402098 0.070797294229046542 0.089205052466908061 0.047766742743531591 -0.038703985730052216 -0.18695452007052299 -0.17449766957778004 0.00030433234269242119 -0.15899693479717877 -0.077238436481370534 -0.081386292822579767 0.053162123866178489 0.11174354397972273 0.13547454838050846 0.21004140516381281 -0.14086930714814003 0.1073669840024646 -0.022531401291402298 -0.15789855965735142 -0.074996145627012775 0.21906394260890014 0.14058885622443787 -0.0655691829810678 0.2153179387042623 0.1364020962127476 0.17623512131958621 0.13932826153096436 0.18204422290195979 -0.10860866320969959
leaf_weight=2.830769956810399 3.9967416597064647 2.9799335934221745 3.2928561070002607 17.675797252566561 17.744068718282509 5.4396283614914847 2.746674175723455 3.4625437101349226 1625.0183997061104 1.9669042509049166 12.959740238264201 28.689251298550516 31.946776910219342 4.6046467749401918 10.906796603230758 1.5648532602936027 12.260059293825178 14.895299972034989 123.75921948140603 2.3207580060698083 89.163221125898417 1.4186431998386968 6.6708574974909451 18.301684017409571 5.6738320507574818 31.777566151227802 3.8538442368153483 14.074263216461985 6.7586479054298234 3.0149961500428617
leaf_count=38 53 31 40 219 205 93 67 33 6231 23 157 302 278 45 98 12 194 148 1597 47 1378 11 60 273 43 269 37 163 87 41
internal_value=0 0.0625413 -0.0493592 -0.000488774 -0.022971 -0.0424948 0.0306387 0.0231977 0.00156172 0.0332396 0.0607829 -0.0141985 0.0155293 -0.0546759 0.0904838 -0.000665889 -0.00136364 0.00127678 -0.0331978 0.0605267 -0.0591485 -0.0703907 0.0373437 -0.0104987 0.0883621 0.119502 0.0504276 0.101384 0.108621 0.00026841
internal_weight=0 24.3438 6.27279 2087.43 174.472 122.619 22.7432 51.853 1912.95 125.682 79.5149 46.1676 44.9065 33.2939 12.8737 1787.27 1775.93 1639.91 136.019 19.9966 99.8753 90.5819 48.3904 24.9725 23.4179 34.6083 9.29347 18.071 11.3385 4.57985
internal_count=12273 287 71 11986 2466 1852 333 614 9520 1210 742 468 435 347 121 8310 8170 6379 1791 266 1519 1389 581 333 248 307 130 216 140 53
is_linear=0
shrinkage=0.3


Tree=148
num_leaves=31
num_cat=0
split_feature=117 96 17 49 194 241 196 10 147 41 69 129 178 64 272 170 30 179 258 135 260 155 141 278 286 296 211 199 210 189
split_gain=1.2418 1.76385 1.84842 1.7292 1.61494 1.56647 2.17553 2.35962 2.14869 2.02716 2.1237 1.78248 1.69502 2.62389 1.94724 1.66472 2.1149 1.5247 1.55515 1.48022 1.44168 1.98214 1.45429 1.37238 1.34566 1.32309 1.2826 1.27606 1.44002 1.26902
threshold=-0.054923565043207272 0.0062100000213831013 -0.038903472755506083 -0.0011568306645301741 0.014216533782436371 -0.070895412118722065 0.0012211105502601964 -0.0053284999448805492 0.057152999565005254 0.070102217349508139 -0.053908942816925272 -0.041750201418197401 -0.024665500037372095 -0.04581649973988524 0.067431688659727748 0.0023224999895319004 -0.053300667644614053 0.017668000422418104 -0.077475998550653388 0.11677699908614157 0.046971499919891309 -0.0015668196980479739 0.014814225032794214 0.038599999621510457 -0.0039190000388770489 -0.0011289999820291499 0.017947500571608505 -0.0070040000136941489 0.0094438382829683636 0.017809499986469704
decision_type=2 2 2 2 2 2 2 2 2 2 2 2 2 2 2 2 2 2 2 2 2 2 2 2 2 2 2 2 2 2
left_child=1 2 24 -3 17 15 8 11 12 10 -9 -8 14 -14 -7 20 25 26 -19 -11 -2 22 -22 -13 -1 -17 -4 -5 29 -29
right_child=5 3 4 27 -6 6 7 9 -10 19 -12 23 13 -15 -16 16 -18 18 -20 -21 21 -23 -24 -25 -26 -27 -28 28 -30 -31
leaf_value=0.02045118965311106 0.090814726768362775 0.062586674748437085 0.055273792120390665 -0.14423541139159532 0.10490690088149841 0.071081648134204714 -0.16537057689185528 -0.044267055382885369 -0.19013258989746487 -0.0076555926997896855 0.068752897372099955 0.02806203543645832 -0.094844267292210682 -0.00092248400786169209 -0.064655379372861435 -0.15844511392272198 -0.15944419734321436 0.028975064131352733 -0.17348116330595573 -0.22959040459796715 -0.16702358536035322 -0.21211283748532248 0.1399523487690055 -0.11854139394838337 -0.17080029414559494 0.15023470574682937 -0.14378431040979983 -0.15143958064017857 0.20063703303734826 0.16068382245504922
leaf_weight=5.261772843892687 9.8756769699975866 6.2723034552764139 24.399946644087326 24.583329137647524 15.180786484910639 53.315935303427977 7.6662434390746048 16.701821221678983 5.4006207247730336 21.271501730152526 143.7440721168532 25.633393061434617 27.286015606310684 1416.7762963828864 11.577334984205661 1.8482441524975 17.901705525640864 5.8237307813833459 8.2548868246376497 3.0986926807090631 2.0328168320702389 4.8027196329785493 4.385114241624251 7.4075658931396893 8.9311645312700385 3.8592024368699667 3.3082075059646732 5.1556789359310624 2.1746315346099436 1.5173950577154753
leaf_count=113 127 97 337 436 218 612 111 296 98 317 1986 416 372 5318 152 24 272 89 138 37 35 91 53 126 158 46 80 77 21 20
internal_value=0 -0.0312947 -0.00302952 -0.0819545 0.0211042 0.00142729 0.00285203 0.0303412 -0.00124176 0.0447429 0.0569879 -0.0350441 -0.000565708 -0.00269717 0.0468654 -0.0540217 -0.108745 -0.00934064 -0.0897336 -0.0358748 0.00722008 -0.0663544 0.0427207 -0.00480549 -0.0998973 0.0502748 0.0315073 -0.109073 -0.0113749 -0.0804656
internal_weight=0 110.864 71.1605 39.7033 56.9676 1784.58 1739.88 225.523 1514.36 184.816 160.446 40.7072 1508.96 1444.06 64.8933 44.7055 23.6092 41.7868 14.0786 24.3702 21.0963 11.2207 6.41793 33.041 14.1929 5.70745 27.7082 33.431 8.84771 6.67307
internal_count=12273 1784 1133 651 862 10489 9841 3289 6552 2636 2282 653 6454 5690 764 648 342 644 227 354 306 179 88 542 271 70 417 554 118 97
is_linear=0
shrinkage=0.3


Tree=149
num_leaves=31
num_cat=0
split_feature=137 179 111 292 127 256 186 53 246 157 110 97 223 55 9 120 168 233 17 42 174 22 67 161 30 227 275 142 154 16
split_gain=0.932508 1.64944 1.88723 1.53397 1.48593 1.45775 1.62756 1.40091 1.33638 1.3035 1.47648 1.39645 1.33024 1.32445 2.08827 1.25431 1.14284 2.18697 1.42954 1.1114 0.919667 0.882063 0.82063 0.810057 0.802752 0.571397 0.436838 0.29779 0.135991 0.05525
threshold=0.012217989306733795 0.081996393671164611 -0.034372000023722593 0.007355421362016573 1.0000000180025095e-35 -0.043993613369220239 -0.028591000474989348 0.086390581284398124 -0.10917526436780446 0.11408121506627475 0.028302191161644407 0.028180999681353503 0.008410741141737137 -0.080078363480590012 -0.050901999697089091 0.00077349927032278854 -0.034764500334858846 0.024782000109553306 0.033176081973564857 -0.058814797194301695 0.053184499964117955 0.0076576655941258997 -0.053637498989701195 -0.059872999787330593 -0.029858999885618649 -0.075678424118347312 -0.038482629265346534 0.00093085788204917144 -0.039366001263260793 -0.040832231020558427
decision_type=2 2 2 2 2 2 2 2 2 2 2 2 2 2 2 2 2 2 2 2 2 2 2 2 2 2 2 2 2 2
left_child=8 2 20 5 19 6 -4 -7 21 13 11 12 -11 14 -10 27 17 -15 -18 -5 26 -1 -16 -23 -12 -13 29 -3 -26 -2
right_child=1 15 3 4 -6 7 -8 -9 9 10 24 25 -14 16 22 -17 18 -19 -20 -21 -22 23 -24 -25 28 -27 -28 -29 -30 -31
leaf_value=0.21424229109072643 -0.15087468818407765 -0.22728009461635124 -0.014261864977492907 -0.029891809639730278 0.2686053023106702 -0.021503364285035707 0.1638047592839314 0.14134179459832022 0.23364051070244884 -0.033694808898160927 0.0028341343768963677 0.0062684578245546553 0.19557808283396461 0.061857503370794938 0.048507384838323543 0.071536172715605501 -0.00020001614120142934 -0.056396043217050593 -0.042321046681617805 0.10962714743553624 0.062088440312804985 0.16401869928005802 -0.1924665167816095 -0.10341343728695175 -0.12271654568658419 -0.2058431908618609 -0.035884934696312383 -0.084152608923825117 -0.22262738857621697 -0.22253465250210408
leaf_weight=4.249343113973735 1.3613811600953338 3.8756206864491087 7.7038571406155851 6.7371492311358478 4.1550943572074166 45.419684439431876 11.539425292052327 5.3103728909045449 1.4312070701271284 5.6361091705039161 2.1664061015471816 1.7134354789741335 3.8220416647382081 61.510987145185936 1.5080286357551802 2.597780728712678 1856.0688073043711 18.251765025313944 75.465549692744389 21.657379963435233 2.4762840559706092 1.8832047563046215 8.1225981244351697 2.2222707620821893 1.5189213175326584 3.4333929708227506 2.0471553998067957 1.9750046450644729 6.3601113827899081 3.3538819309324026
leaf_count=40 26 41 72 88 37 509 87 56 9 67 21 25 31 623 15 26 8848 224 787 242 28 18 84 28 20 45 28 34 76 38
internal_value=0 0.0258755 0.0355373 0.0472399 0.101044 0.0222119 0.0925176 -0.00445689 -0.00130895 -0.00179766 -0.0703676 -0.00947622 0.0589544 -0.00096186 -0.104484 -0.101939 -0.000392501 0.0347981 -0.0018457 0.0765236 -0.0943278 0.11843 -0.154733 0.0192592 -0.158897 -0.135229 -0.151605 -0.178964 -0.203367 -0.201845
internal_weight=0 120.21 111.762 102.523 32.5496 69.9733 19.2433 50.7301 2055.36 2047.01 24.6504 14.605 9.45815 2022.36 11.0618 8.44841 2011.3 79.7628 1931.53 28.3945 9.2387 8.35482 9.63063 4.10548 10.0454 5.14683 6.76242 5.85063 7.87903 4.71526
internal_count=12273 1312 1211 1091 367 724 159 565 10961 10875 285 168 98 10590 108 101 10482 847 9635 330 120 86 99 46 117 70 92 75 96 64
is_linear=0
shrinkage=0.3


Tree=150
num_leaves=31
num_cat=0
split_feature=212 232 196 3 7 274 46 293 119 130 48 243 238 109 185 36 244 21 224 165 29 51 114 6 80 157 193 85 217 189
split_gain=1.04246 1.63274 1.49902 1.62079 1.38594 1.38191 1.2159 1.19376 1.18435 1.183 1.25333 1.09162 1.19961 1.8746 1.56513 1.49229 1.48998 1.07044 0.955538 1.215 0.954975 0.907663 0.904 0.854998 0.678012 0.591645 0.489758 0.729531 0.429524 0.196581
threshold=0.0097572953186772001 0.11794850230216976 -0.072185008672937853 0.045377025771791292 -0.018718999810516796 0.0088806222979836407 0.028367737089127817 0.0097885001450776516 -0.11502061103528465 0.030581999570131253 0.015469000209122853 -0.14203250408172602 0.0031978011132639509 0.12487181263939622 -0.099809830225423349 -0.037454498931765494 0.018197362767080495 -0.034716231380058672 -0.10044899955391878 -0.026088999584317197 0.023948715814366001 0.044658020482928891 0.0097814998589455509 -0.046656054669759285 0.082621204128541001 0.04257678400699668 0.023594000376760904 0.024862499907612752 0.018168999813497053 0.03367899917066091
decision_type=2 2 2 2 2 2 2 2 2 2 2 2 2 2 2 2 2 2 2 2 2 2 2 2 2 2 2 2 2 2
left_child=1 11 25 4 6 -5 20 -8 -3 10 -6 18 14 15 22 -14 -16 -11 -1 -20 -4 -21 -13 -7 26 -2 29 -28 -15 -10
right_child=2 8 3 5 9 23 7 -9 24 17 -12 12 13 28 16 -17 -18 -19 19 21 -22 -23 -24 -25 -26 -27 27 -29 -30 -31
leaf_value=0.23214340197239039 0.23077310649927327 0.11989757718887591 -0.12228232435946124 0.21827387067851159 -0.17730600842436636 -0.1265083667692542 -0.002886831755899333 0.091523785881165123 -0.21493523744285492 0.15407437939575244 0.064403805932454192 0.17024474760073935 -0.014189797809161997 0.23420620340581957 -0.001273467600192778 -0.10426637292655276 0.091737004946321782 -0.051489218301100814 -0.11751365634061581 -0.024622652212690055 0.0065964470288977003 0.23029577093256742 -0.0066240054901738543 0.14752181209834406 0.084951754720084552 0.055482007599096057 -0.16183467424197573 0.072067302677897807 0.053692257211449497 -0.069448808330880615
leaf_weight=3.1660345140844575 4.2945301304571322 1.9860271615907574 6.7086914125829962 6.3948265695944411 9.0602216478437203 2.2938826009631157 20.015634794253856 30.301748304336797 6.6428153519518656 3.3265640372410417 2.453565150499343 7.6481528636068088 39.687689183978364 2.3545086309313765 1844.4001224052627 28.396094663010444 15.632411294616757 7.2459805745165777 2.9066455438733092 2.1444603614509097 22.627731044980465 3.0379124525934458 3.9409636249765754 1.8521194171626119 1.2316912817768741 2.9052981245331466 3.3129975125193596 1.8817498171702025 2.3911212617531419 0.95618960261344899
leaf_count=18 38 29 96 46 118 20 261 389 141 31 22 83 557 18 9006 437 167 102 30 28 349 21 51 29 22 28 70 26 26 14
internal_value=0 -0.00151878 0.02734 0.0188309 0.00722913 0.130811 0.0256668 0.0539684 -0.0969288 -0.0592658 -0.125798 -0.000737654 -0.00127689 -0.0390514 0.000193009 -0.0517586 -0.000491773 0.0131897 0.0924225 0.0377358 -0.0228757 0.124811 0.110099 -0.00409246 -0.127632 0.160039 -0.148098 -0.0771058 0.143253 -0.196629
internal_weight=0 1971.72 119.481 112.281 101.74 10.5408 79.6538 50.3174 16.0115 22.0863 11.5138 1955.71 1944.45 72.8294 1871.62 68.0838 1860.03 10.5725 11.2551 8.08902 29.3364 5.18237 11.5891 4.146 14.0254 7.19983 12.7938 5.19475 4.74563 7.599
internal_count=12273 10744 1529 1463 1368 95 1095 650 302 273 140 10442 10345 1038 9307 994 9173 133 97 79 445 49 134 49 273 66 251 96 44 155
is_linear=0
shrinkage=0.3


Tree=151
num_leaves=30
num_cat=0
split_feature=120 285 295 130 161 287 65 274 214 11 282 73 153 124 132 251 231 27 19 271 283 171 22 4 259 34 177 154 155
split_gain=1.19714 1.12729 1.18788 1.41583 1.39651 1.80965 1.72672 1.29128 1.27136 1.21212 1.12567 1.16428 1.07765 1.00953 0.901011 0.85994 0.789668 0.709875 0.418902 0.394399 0.197603 0.137269 0.10037 0.0959426 0.00392135 0.00331105 0.00242092 0.000395708 9.79463e-05
threshold=-0.11238997916355883 -0.10289799794554703 -0.097586955795104458 -0.021902999840676746 -0.11153350025415414 0.020710499957203806 0.028489568395156185 0.0099249256343630857 -0.075504500418901388 -0.031816900892646792 -0.056288501247763592 0.014731000177562202 -0.065677497535943943 0.052325500175356809 -0.080796997994184425 -0.039323633718291416 -0.023858627967604282 -0.020620841360684736 -0.018489500507712298 -1.0000000180025095e-35 0.025789000093936903 -0.043609499931335394 0.027344999834895054 -0.067439999431371647 -0.042299204365117686 0.01742032118418849 -0.037812592841901617 -0.026882500387728197 1.0000000180025095e-35
decision_type=2 2 2 2 2 2 2 2 2 2 2 2 2 2 2 2 2 2 2 2 2 2 2 2 2 2 2 2 2
left_child=19 10 3 15 5 7 -7 -4 13 -10 18 21 -5 -6 -13 -3 -16 -14 -2 -1 -17 -12 25 -21 -25 -20 -23 -26 -29
right_child=1 2 4 12 8 6 -8 -9 9 -11 11 14 17 -15 16 20 -18 -19 22 23 -22 26 -24 24 27 -27 -28 28 -30
leaf_value=0.026453701572567968 -0.027950837785173759 0.12027660143576704 -0.17261641182376647 -0.077461881457396561 -0.1454832238629635 0.071381196517454518 -0.069779308183232996 -0.012468256498442869 0.02584653035620792 -0.00070585297354738483 -0.061792108433818604 -0.20879878232558635 -0.10210353979892621 0.15454514335616343 -0.055145825661319918 -0.061189954729101381 0.12299325651856785 0.138430807236708 -0.21715655731296907 -0.096423747471122243 -0.21587065313382917 -0.22403822147701152 -0.10671335318492235 -0.23344922754489308 -0.21630941038637996 -0.1995963990347023 -0.20483983198993636 -0.20485601451248964 -0.20999115082132361
leaf_weight=0.89813161641359318 1.7077992369886486 1.3223697766661642 13.437196769868025 2.7680206365184921 8.2467533550225181 14.687997288652697 16.628039968549274 6.8367069601081303 171.42695350002032 1588.818582994325 0.69567262101918492 1.2738030061591405 1.1790283084847093 1.1500999843701709 3.4808492143638423 1.1058696079999237 6.2804694504011414 17.412500349339091 3.834277891903187 0.72154322348069433 2.2671350727323443 1.0295516472542663 0.9531224991660564 1.0032495490740987 0.70274964859709221 1.2920278017409144 1.3882404002360986 0.6446762330597251 0.69433503074105829
leaf_count=15 28 14 204 37 201 182 217 83 2294 8124 16 21 24 21 65 20 104 292 59 21 38 16 29 10 12 44 41 25 16
internal_value=0 -1.87874e-05 0.000784031 0.0643871 -0.000125888 -0.0487802 -0.00357153 -0.118612 0.00129252 0.00188003 -0.0676268 -0.0172088 0.0971756 -0.108762 0.0285029 -0.0847698 0.0594695 0.123177 -0.159231 -0.152187 -0.165157 -0.179226 -0.196109 -0.194784 -0.218091 -0.212731 -0.213015 -0.210544 -0.207519
internal_weight=0 1869.22 1847.29 26.0549 1821.23 51.5899 31.316 20.2739 1769.64 1760.25 21.9358 14.1486 21.3595 9.39685 11.0351 4.69537 9.76132 18.5915 7.78723 4.66469 3.373 3.11346 6.07943 3.76655 3.04501 5.12631 2.41779 2.04176 1.33901
internal_count=12273 12174 11751 425 11326 686 399 287 10640 10418 423 263 353 222 190 72 169 316 160 99 58 73 132 84 63 103 57 53 41
is_linear=0
shrinkage=0.3


Tree=152
num_leaves=31
num_cat=0
split_feature=278 298 2 275 101 141 63 203 87 267 240 95 72 299 22 129 64 168 90 183 121 96 100 20 73 87 172 160 252 278
split_gain=0.912649 1.94185 2.12967 2.40857 2.03905 1.98386 1.89471 2.10819 1.88075 1.85536 1.65751 1.53837 1.48582 1.34489 2.00221 2.05592 2.03058 1.61827 1.6841 1.47663 1.32794 1.56625 1.266 1.28452 1.23926 1.23127 1.18196 1.17832 1.11919 1.11079
threshold=0.034979000687599154 0.071639038599620522 -0.007077499991282799 0.034563999623060206 -0.071787498891353538 0.04796522200788414 0.022597514788220432 0.048347339039246935 0.081260499801067934 -0.025940000079572149 0.081453160063127791 0.086324213005689696 0.088931400585392381 -0.0028590000001713499 -0.0060659998562186497 -0.015080000273883299 0.01451285792417161 -0.034764500334858846 -0.01833732901074445 0.076973694784488275 -0.010778548601221788 0.026994000793564815 -0.070231001824140479 0.088213000446557957 0.11477150022983547 -0.056007999926805441 0.093944497406482655 -0.046865498647093697 0.047616498544812154 0.040144000202417311
decision_type=2 2 2 2 2 2 2 2 2 2 2 2 2 2 2 2 2 2 2 2 2 2 2 2 2 2 2 2 2 2
left_child=6 2 3 4 29 -6 11 12 26 -5 22 13 20 14 16 -16 -1 18 -15 -19 -8 -22 23 -4 27 -3 -9 -12 -24 -2
right_child=1 25 10 9 5 -7 7 8 -10 -11 24 -13 -14 17 15 -17 -18 19 -20 -21 21 -23 28 -25 -26 -27 -28 -29 -30 -31
leaf_value=-0.019531217681919132 0.057326526091885932 -0.098176250402586013 -0.040099102403087929 -0.11003830327570478 -0.036860082698216667 0.079175297299247008 -0.11495188395999539 -0.1477735523941017 0.19773509361964978 0.14397788854277493 0.17957718255329133 0.090909967250683218 -0.18165368661358477 -0.016616803942794411 0.00447012493800273 -0.11474982519668638 0.12886418458872362 -0.00060659260617107339 0.1157080421566231 0.15190423880080794 -0.017132080336305963 0.10268277436020677 0.0017226520415877279 0.19009918489640129 0.18746080520384523 0.11385896862360902 0.12053516835708657 0.035009518273630386 0.14072994696863936 -0.12963235403333925
leaf_weight=44.158815002068877 3.2536014094948795 2.738786336034539 35.91601436631754 3.2771933963522324 59.529541765339673 17.061533793341368 7.5999139705672851 25.051378100703012 1.6540970560163248 12.303949547000226 6.0871127359569064 16.612258738372475 4.3275867011398068 14.22208543634042 20.24103059549816 36.481789729557931 10.219499198021365 1645.7352046904853 22.118737818906084 5.7335280999541274 31.260722479666583 14.316250620177014 11.347669026348742 2.3226977344602338 8.3012539977207762 24.637661911547184 1.5702861007302988 30.491562255425379 9.6421677749603969 23.648032399010845
leaf_count=433 33 41 409 25 567 166 140 374 13 97 44 145 64 175 190 422 93 6901 202 52 368 160 139 25 51 255 14 285 107 283
internal_value=0 0.0172389 0.00798912 -0.0194129 -0.0359682 -0.0110119 -0.002023 -0.0455916 -0.112661 0.0905505 0.0393301 3.55377e-05 -0.0126125 -0.000803653 -0.0327751 -0.0722073 0.00835723 0.00130089 0.0639223 -7.71093e-05 0.00114423 0.0205031 0.00637924 -0.0261164 0.0828157 0.0926466 -0.131947 0.0590672 0.0655789 -0.107021
internal_weight=0 250.559 223.182 119.074 103.493 76.5911 1901.3 85.7802 28.2758 15.5811 104.108 1815.52 57.5045 1798.91 111.101 56.7228 54.3783 1687.81 36.3408 1651.47 53.1769 45.577 59.2285 38.2387 44.8799 27.3764 26.6217 36.5787 20.9898 26.9016
internal_count=12273 2527 2231 1171 1049 733 9746 1133 401 122 1060 8613 732 8468 1138 612 526 7330 377 6953 668 528 680 434 380 296 388 329 246 316
is_linear=0
shrinkage=0.3


Tree=153
num_leaves=25
num_cat=0
split_feature=46 252 137 134 10 202 119 28 41 265 284 196 112 158 128 171 154 180 254 166 192 81 268 114
split_gain=0.950418 1.03146 0.938512 1.10148 1.05418 1.05785 1.00233 1.92877 1.16357 1.30009 1.11126 1.0362 1.91809 1.78518 1.69862 1.55055 1.31501 1.08753 0.696475 0.671209 0.577146 0.478794 0.355577 0.208137
threshold=0.12704142056763759 0.094954511536979119 0.053225500509142806 -0.1022904511231435 0.0075040574622091492 -0.094447501003742135 -0.1437904597970234 -0.055234499275684294 0.083848997950553866 -0.072450244222354424 0.058913500979542711 0.020695499144494502 -0.050039999186992597 -0.017607499845325895 0.11487449705600737 -0.10678800195455548 -0.08791654989659474 -0.015445000026374998 -0.098199355811343189 -0.045728620353289874 -0.047157499939203193 0.015836500562727406 0.0049487063634557791 0.024521499872207603
decision_type=2 2 2 2 2 2 2 2 2 2 2 2 2 2 2 2 2 2 2 2 2 2 2 2
left_child=2 19 6 -4 18 -6 7 8 9 -1 20 12 17 14 -13 -15 -14 -8 -5 -2 -9 -20 -7 -21
right_child=1 -3 3 4 5 22 11 10 -10 -11 -12 13 16 15 -16 -17 -18 -19 21 23 -22 -23 -24 -25
leaf_value=-0.16956846541065171 0.014438418134659792 -0.10377403960135287 0.14873747128895562 -0.14395667005715332 0.20626775817310328 -0.19259322487996691 -0.034300040568642477 0.068748095177303931 -0.23066735515773851 0.095778296772154756 -0.026452825061921741 -0.045387236089163653 0.10271722674730711 -0.19509906553717554 0.070833140283262694 0.03358243579481162 -0.00017036453136223294 0.089704089914758964 -0.043802463293171313 0.22409585389953188 0.22024296178809349 0.16988075914987252 -0.05438538694492679 0.10192327043856454
leaf_weight=2.3896287274546921 2.9688964961096636 2.061994479969143 1.9257889166474367 1.7157745538279412 0.73311437666416424 8.7442250233143515 7.869489714736118 3.173113956116139 2.2287156097590923 5.4564537741243857 3.0987766031175843 147.83341719990131 11.252191439503802 2.7936280956491819 12.256462011602705 59.578282156027853 1744.2442806548206 33.298019541427493 1.5652986761124368 4.3046122351661316 7.892978085204958 2.3766376618295908 2.0724461764330036 1.7714721793308852
leaf_count=30 28 37 21 34 7 226 92 30 17 62 28 2131 121 43 152 782 7739 476 24 38 71 32 31 21
internal_value=0 0.0877003 -0.000292484 -0.0664262 -0.0905063 -0.142476 0.000326767 0.0609686 -0.0393743 0.0149634 0.132338 -0.000401241 0.00199018 -0.019715 -0.0364894 0.0233398 0.000489113 0.0659997 0.0155865 0.131351 0.176803 0.0850295 -0.166113 0.188477
internal_weight=0 11.107 2062.5 19.1333 17.2075 11.5498 2043.37 24.2397 10.0748 7.84608 14.1649 2019.13 1796.66 222.462 160.09 62.3719 1755.5 41.1675 5.65771 9.04498 11.0661 3.94194 10.8167 6.07608
internal_count=12273 124 12149 375 354 264 11774 238 109 92 129 11536 8428 3108 2283 825 7860 568 90 87 101 56 257 59
is_linear=0
shrinkage=0.3


Tree=154
num_leaves=28
num_cat=0
split_feature=57 203 109 225 229 238 181 173 205 89 94 3 271 260 115 64 218 294 33 31 199 34 155 243 146 278 33
split_gain=1.114 1.0685 1.61141 1.64173 1.42548 1.89589 1.69306 1.40393 1.6589 1.65531 2.006 1.68494 1.64954 1.50601 1.49365 1.44891 2.82458 1.88495 1.35085 1.3237 1.17803 1.00722 0.937643 0.219922 0.145004 0.0606751 0.00234675
threshold=-0.15832872767369596 0.079946000128984465 -0.021689091222056579 -0.072783759808474749 -0.028173499740660097 -0.041303999722003888 0.0099359997548162503 1.0000000180025095e-35 0.022045500576496103 -0.056097500026225995 0.031327499076724059 -0.027546314272026778 0.045662931382057917 -0.0025819043973137074 -0.078891010904456119 -0.00045400000817604993 -0.0073342745190443743 -0.057329168345576893 -0.044217982850956621 -0.062114000320434494 -0.076185068596786712 -0.018648999743163547 0.0063090356188521849 0.0086480001918971018 -0.01616467343207182 0.0065784999169408512 -0.038421001285314497
decision_type=2 2 2 2 2 2 2 2 2 2 2 2 2 2 2 2 2 2 2 2 2 2 2 2 2 2 2
left_child=23 7 22 18 6 -6 -5 8 13 12 11 -11 -9 19 -15 17 -17 -10 -4 -2 -20 -12 -3 26 -24 -14 -1
right_child=1 2 3 4 5 -7 -8 9 15 10 21 -13 25 14 -16 16 -18 -19 20 -21 -22 -23 24 -25 -26 -27 -28
leaf_value=-0.22801511188496953 -0.093999980372539524 -0.091148525826365817 -0.13750750783553348 0.016978500997470523 0.043881562129424942 -0.095502703771888756 -0.15311908406811844 0.090153104822163724 -0.14118963639401069 -0.0018577809142412101 0.077248196355975671 0.079484091034515633 -0.15844138438065897 -0.093029438606283169 0.00075315390630970134 -0.23248639202262211 0.01692835973359778 0.012083070487993213 -0.16980989315255865 0.10336846115357815 0.15516170170864318 -0.1434390668381815 0.25243574959930976 -0.059684881622898492 0.14008352306170535 -0.23569414731239124 -0.20927887380076846
leaf_weight=1.2925127670168879 3.5791281603742418 1.3834784590871994 2.457606107054743 6.9006239360314821 18.270752573327623 16.912516472395513 22.238655842083972 2.4517086585983625 9.195931709604336 33.787306129233912 2.4859221004880965 71.251327391015366 1.2603703500935806 15.436287583783267 1553.164542935323 9.4899150948476763 7.1770454907091326 33.628528498287778 1.1515808840922535 21.015396397764562 7.8308384851552537 7.4074463235447165 1.9915451859124003 1.144788686186075 2.1499301986768842 3.3392488829558715 1.1256109758978703
leaf_count=11 59 28 39 91 284 295 274 34 212 530 42 881 27 276 7617 180 119 531 24 355 89 142 14 23 28 36 32
internal_value=0 -9.96115e-05 -0.0337331 -0.0451395 -0.0637637 -0.0231201 -0.112837 0.00144095 -0.00085145 0.0324994 0.0411556 0.0533192 -0.10859 0.000985211 -0.000169742 -0.0500377 -0.125085 -0.02083 0.0595765 0.0746463 0.113499 -0.0879866 0.122681 -0.16801 0.194111 -0.214526 -0.219294
internal_weight=0 1855.96 81.2875 75.7626 64.3225 35.1833 29.1393 1774.67 1652.69 121.983 114.932 105.039 7.05133 1593.2 1568.6 59.4914 16.667 42.8245 11.44 24.5945 8.98242 9.89337 5.52495 3.56291 4.14148 4.59962 2.41812
internal_count=12273 12207 1166 1096 944 579 365 11041 9349 1692 1595 1411 97 8307 7893 1042 299 743 152 414 113 184 70 66 42 63 43
is_linear=0
shrinkage=0.3


Tree=155
num_leaves=31
num_cat=0
split_feature=272 106 255 112 225 139 42 156 21 38 25 278 179 231 158 218 192 210 226 67 156 228 110 269 262 233 158 146 217 275
split_gain=0.859671 1.14156 0.997021 0.856139 2.17393 2.43363 1.87488 1.78093 1.73018 1.66872 1.81489 1.64882 1.42717 1.33835 1.67666 1.56728 1.59959 1.29691 1.26507 1.25223 1.22263 1.48141 2.28232 1.74273 1.34246 1.20895 0.997893 0.993229 0.825011 0.814218
threshold=0.14805000275373459 0.0044674999080598007 -0.035533001646399442 0.061934821473877182 -0.026207213521561797 -0.011696000117808547 0.021472499705851005 0.052531000226736055 -0.078261498361825874 -0.044425260947758304 -0.094639498740434577 0.03703146804166977 -0.039699500426649992 -0.051986676571234493 -0.11203049868345254 0.068179000169038717 0.047818500548601109 -0.028882500715553695 -0.015074929830788257 -0.022667592819376921 -0.016300351737694462 -0.073179138512920058 0.096574001014232566 0.16229327468834423 -0.099708501249551676 -0.034838998690247494 -0.054609550980968639 0.015724024846650475 0.053116667431360357 0.0054954998195170515
decision_type=2 2 2 2 2 2 2 2 2 2 2 2 2 2 2 2 2 2 2 2 2 2 2 2 2 2 2 2 2 2
left_child=3 -2 -3 13 5 6 17 -8 26 19 -11 12 -10 14 18 16 -16 -5 -1 -7 24 22 -22 -23 -15 -26 -6 -17 -13 -4
right_child=1 2 29 4 8 9 7 -9 11 10 -12 28 -14 20 15 27 -18 -19 -20 -21 21 23 -24 -25 25 -27 -28 -29 -30 -31
leaf_value=-0.080178891843566025 0.1593998668788357 -0.15704994476443912 0.20098394829765295 0.18421251095058119 0.21903540633777335 0.099713629981365015 0.15474082839090741 -0.15791154356677745 0.056246823191446457 0.15184811762067851 -0.01850978424793152 -0.021014660085689422 -0.12783751911533639 0.20030361118027137 -0.061255879800208184 -0.025811765057996861 0.044528944971197984 0.030793995453466193 0.18951620010623729 -0.14846857495677135 -0.055526771441979192 -0.00022148120728567071 0.12450342360621172 0.080423730017147782 -0.081946887852717185 0.052606626100656119 -0.00053350616995595436 0.23166006014866136 0.17571050247380299 -0.081709945437507633
leaf_weight=2.2525269072502851 7.0230300752446038 2.6407165555283427 2.2023549145087604 21.366074355319142 3.4705974394455552 2.3264271840453139 2.8103492176160207 3.936397559940815 4.616645889356735 9.0738445613533241 14.821291797794403 4.5458420105278483 21.178352089598775 4.6538131758570662 99.431035907531623 2.4314799252897492 14.776691990438847 6.4578699488192823 5.1310763913206747 8.5699779111891967 75.126122925314121 1722.9898889809847 6.9215703690424553 24.4589211512357 7.1616009171120814 37.366940493462607 4.0214178110472849 3.0273274499922991 3.3196696043014526 1.5710912644863126
leaf_count=22 75 31 28 156 23 14 21 29 47 56 170 44 218 29 964 25 154 59 49 69 849 8251 54 178 104 445 42 20 25 22
internal_value=0 0.075835 -0.0156622 -0.000286531 0.0254196 0.057829 0.114202 -0.0276766 -0.0292061 0.00181399 0.0461813 -0.0582268 -0.0948911 -0.00170293 -0.0315024 -0.040063 -0.047569 0.148604 0.10724 -0.0954807 0.000312331 -0.000942491 -0.0403394 0.000907304 0.0469895 0.0309662 0.101179 0.116976 0.062014 0.0832831
internal_weight=0 13.4372 6.41416 2116.24 110.515 69.3622 34.5707 6.74675 41.1525 34.7915 23.8951 33.6605 25.795 2005.73 127.05 119.667 114.208 27.8239 7.3836 10.8964 1878.68 1829.5 82.0477 1747.45 49.1824 44.5285 7.49202 5.45881 7.86551 3.77345
internal_count=12273 156 81 12117 973 574 265 50 399 309 226 334 265 11144 1234 1163 1118 215 71 83 9910 9332 903 8429 578 549 65 45 69 50
is_linear=0
shrinkage=0.3


Tree=156
num_leaves=31
num_cat=0
split_feature=56 242 245 243 93 208 255 49 93 110 193 238 260 2 119 145 46 201 31 84 179 68 74 209 194 213 216 18 210 69
split_gain=0.86336 0.889135 1.49097 1.35143 1.22467 1.36394 1.31748 1.19281 1.30024 1.20016 1.12517 1.6511 1.84688 2.03054 1.56958 1.50961 2.47894 1.62075 1.39179 1.37997 1.7928 1.13266 1.05498 1.35935 1.03503 0.992789 0.899017 0.892163 0.838151 0.550694
threshold=0.080558068191859164 -0.052679004071278825 -0.024027100219177654 -0.025774499401450147 0.065168000757694217 -0.03589150123298164 0.036943808075464053 0.073072001338005052 -0.0075820240035397255 -0.0052839999552815988 -0.018914000131189747 -0.092319369338540472 0.11122149974107737 -0.0030926816795923905 -0.12196955060037484 -1.0000000180025095e-35 0.063728866862721459 -0.021997500211000397 -0.054780000820755896 0.037485999986529309 0.0020195000106468003 -0.092370502650737693 -0.016315476406572473 0.030544999986886905 -0.04136398312676922 -0.018000999465584696 -0.073644999414682333 -0.020063843283708156 -0.036745000630617093 0.051693500950932454
decision_type=2 2 2 2 2 2 2 2 2 2 2 2 2 2 2 2 2 2 2 2 2 2 2 2 2 2 2 2 2 2
left_child=1 2 4 7 6 -6 25 9 -9 -4 14 12 18 -14 21 16 -13 -17 -12 20 -16 -3 23 -5 -21 -1 -23 -8 -24 -2
right_child=29 10 3 22 5 -7 27 8 -10 -11 11 15 13 -15 19 17 -18 -19 -20 24 -22 26 28 -25 -26 -27 -28 -29 -30 -31
leaf_value=0.013079001153102954 -0.21183689494627927 -0.10011685243205289 0.014512153792820112 0.137768800083307 -0.16756651276814624 0.12434150758861162 0.11729821049380018 -0.16403475754115435 0.08628493340625662 -0.1397511822244599 0.096329740456736437 -0.055277579607858118 0.21571462077839917 0.022035273770965827 -0.0047202184247040384 0.038906306540938684 0.030322229235075229 -0.00036769383714743096 -0.026990704904273313 -0.13573209516071369 -0.082180971814124676 0.21142231204309331 -0.15878290780707618 -0.038239943255286499 0.081902563462529596 0.14788466615191148 0.045574738297650443 -0.14975885471113254 0.08264263843682236 0.023190136875152527
leaf_weight=6.2603007878642556 2.8123978371731928 3.2947857091203359 6.8653713010717228 13.002831238321965 3.6340051954612136 2.3868023133836678 1.7931514997035263 2.3593468624167153 8.9596975466702098 13.39473768719472 12.108127673389388 102.30536374717485 10.506314349360766 9.0840698052197677 46.204813235090114 100.88276057911571 43.350258112070151 1511.0587319799233 25.7594748045085 2.3340050536207864 64.333210876851808 4.2044736137613663 3.3528938805684447 5.6717658822890362 12.497266380814832 22.910887616337277 9.794098441023376 3.0253117992542675 2.1077739362372077 1.3176288111135361
leaf_count=85 44 37 90 142 48 30 24 43 92 169 142 1441 56 73 630 1140 493 5277 362 44 999 44 72 68 160 266 106 38 40 18
internal_value=0 0.000447368 0.0286784 -0.00304985 0.0728598 -0.0518467 0.0949499 -0.0438969 0.0341082 -0.0874773 -0.00093302 0.00108332 0.0511268 0.125905 -0.0265864 -0.000552657 -0.0298012 0.00209025 0.0124409 -0.0382734 -0.0498024 0.0581391 0.0503954 0.0843122 0.0476533 0.118955 0.0953871 -0.0503758 -0.0655946 -0.136855
internal_weight=0 2053.44 95.7249 55.7144 40.0105 6.02081 33.9897 31.5792 11.319 20.2601 1957.72 1815.06 57.458 19.5904 142.663 1757.6 145.656 1611.94 37.8676 125.369 110.538 17.2934 24.1353 18.6746 14.8313 29.1712 13.9986 4.81846 5.46067 4.13003
internal_count=12273 12211 1207 716 491 78 413 394 135 259 11004 8984 633 129 2020 8351 1934 6417 504 1833 1629 187 322 210 204 351 150 62 112 62
is_linear=0
shrinkage=0.3


Tree=157
num_leaves=24
num_cat=0
split_feature=204 50 33 260 241 236 189 240 205 72 161 185 199 246 66 165 196 249 96 219 50 14 145
split_gain=1.02915 1.00982 1.04065 1.48047 1.72885 1.60664 2.16192 1.65695 1.44167 1.27091 1.61772 1.39411 1.04346 0.971967 0.894037 0.737601 0.52617 0.494639 0.468212 0.398787 0.0019397 0.000642815 0.000107552
threshold=0.089258499443531022 0.1366124972701073 -0.058585001155733993 0.14484850317239764 -0.036355605501448542 -1.0000000180025095e-35 -0.045392422403888674 0.13058073609140894 -0.033971597364513169 0.015403499826788901 -0.034741395145606695 0.053498499095439862 -0.076844094894425993 0.050785999745130504 -0.054911228354412325 -0.05672200024127954 0.04139219146110875 0.025362499989569156 0.025857999920845004 0.021525500342249804 0.10784825338672543 -0.045755000784993095 0.03700983673404757
decision_type=2 2 2 2 2 2 2 2 2 2 2 2 2 2 2 2 2 2 2 2 2 2 2
left_child=1 2 9 5 8 6 -4 -7 -5 10 11 -1 17 -12 -14 -2 -6 -11 -3 20 21 -17 -23
right_child=15 18 3 4 16 7 -8 -9 -10 12 13 -13 14 -15 -16 19 -18 -19 -20 -21 -22 22 -24
leaf_value=-0.0024185160746922232 0.089248724457046902 -0.0021028052079758545 -0.027442334713498457 0.089978285440058675 -0.20166085501269337 -0.00093729382078182105 0.037460381197496895 -0.11244314113524882 -0.17648500262718791 0.058612497017612467 -0.17526391680913597 -0.11951833417019546 0.16689658382091649 0.10700897294984567 0.0069698365464146931 -0.21706493802992058 0.010665895421600149 -0.21352418387917879 0.22813993734450849 0.04314287801473933 -0.22362739088642605 -0.20439911900758354 -0.20830057667829749
leaf_weight=40.630026754224673 1.162984538124874 1.1546520353294902 59.084275220171548 6.1910011386498809 8.1132701851893199 1452.3547898727702 211.67043527858914 12.093647218600379 2.5926893514115381 0.89355447643902097 11.459987936075775 11.80976836523041 5.7898078270955002 1.2142038031015534 6.8894867976778178 0.55834952602162946 1.2066316612763319 1.8367087008664382 2.5512972688302398 0.64066716015804548 0.88646172580774862 1.6728134392033096 1.0259373978478832
leaf_count=579 22 28 792 70 143 6397 2958 227 68 21 250 176 81 21 158 8 35 47 32 27 11 85 37
internal_value=0 -3.87835e-05 -0.000354935 0.0011766 -0.0841697 0.00206703 0.0232973 -0.00185813 0.0113261 -0.0337023 -0.0520371 -0.0287901 0.0437722 -0.148222 0.079998 -0.125038 -0.174171 -0.12446 0.156404 -0.177128 -0.211185 -0.207799 -0.205882
internal_weight=0 1837.54 1833.83 1753.31 18.1036 1735.2 270.755 1464.45 8.78369 80.5235 65.114 52.4398 15.4096 12.6742 12.6793 5.94721 9.3199 2.73026 3.70595 4.78423 4.14356 3.2571 2.69875
internal_count=12273 12083 12023 10690 316 10374 3750 6624 138 1333 1026 755 307 271 239 190 178 68 60 168 141 130 122
is_linear=0
shrinkage=0.3


Tree=158
num_leaves=25
num_cat=0
split_feature=278 292 119 7 4 171 263 65 86 94 271 57 296 188 292 129 280 50 140 126 59 114 136 257
split_gain=0.801405 0.942344 0.850564 0.992031 0.913286 1.58749 1.83016 1.78672 1.53314 1.78776 1.24297 1.13323 1.19159 1.87052 1.32214 1.09379 0.951898 0.800338 0.786828 0.534179 0.351962 0.240376 0.00207733 0.000663153
threshold=-0.094293501228094032 -0.013044500257819848 0.057222999632358502 0.029683144357901804 -0.053944500163197497 -0.016498999670147844 -0.014415000099688749 0.00037919055955504705 0.061523498967289904 0.0027400683160371587 0.041859000921249355 -0.13548579240358424 -0.050759499892592395 0.0020943634600695728 -0.085783938614321778 0.002676423977491058 -0.033390478133986927 -0.025053699256614693 0.0098430002108215522 0.040568999946117353 0.010262367739123611 0.026415990000426565 -0.027583999559283198 -0.0033569999504833993
decision_type=2 2 2 2 2 2 2 2 2 2 2 2 2 2 2 2 2 2 2 2 2 2 2 2
left_child=1 20 4 17 5 8 7 -7 9 -2 -8 15 13 -13 -14 18 -17 -4 -6 -10 -1 22 -19 -22
right_child=2 -3 3 -5 11 6 10 -9 19 -11 -12 12 14 -15 -16 16 -18 21 -20 -21 23 -23 -24 -25
leaf_value=-0.067350023573196707 0.067726146794850992 0.087099104354561543 0.061464303903350156 0.13874047638129336 0.18343586288017 0.060303285439062548 -0.040324112812363734 -0.099185300340043581 0.10004931745826917 -0.036234247028202465 0.082038302453689066 0.0069918031833787362 -0.045899680664801983 -0.072911193135755364 0.0017654094992925944 0.082576481062443544 -0.13828918622440767 -0.22432872852080857 -0.017826314059009335 0.23842534160066126 -0.22030332531788019 -0.074637099482000716 -0.21102616799109805 -0.21196755702683892
leaf_weight=2.4146587196737528 49.263767239404842 1.9131187153980125 1.5058167874813078 1.4207032173871992 7.9103432567790168 8.4146063495427352 11.417155603878198 25.417980952654034 5.7229832438752037 21.334408397320658 21.619308541761711 53.429511932423338 53.973497252212837 52.060834558913484 1767.7572258162545 4.0025665573775768 3.1292223120108238 1.613735795021056 2.2442108821123838 4.4732804801315069 1.8980919700115919 1.4188971412368117 3.0597531301900736 1.568933435715735
leaf_count=30 475 25 16 14 63 76 140 272 53 234 222 542 554 607 8683 41 26 14 32 28 19 23 59 25
internal_value=0 -0.0957966 0.000574996 -0.0913564 0.000971293 0.0237167 -0.0104748 -0.0595184 0.0520151 0.0363098 0.0397508 -0.000755968 -0.00144187 -0.0324413 0.000353208 0.0757138 -0.014333 -0.13438 0.138956 0.160757 -0.155287 -0.182785 -0.215619 -0.216531
internal_weight=0 7.7948 2101.19 9.01891 2092.17 147.663 66.8691 33.8326 80.7944 70.5982 33.0365 1944.51 1927.22 105.49 1821.73 17.2863 7.13179 7.5982 10.1546 10.1963 5.88168 6.09239 4.67349 3.46703
internal_count=12273 99 12174 126 12048 1500 710 348 790 709 362 10548 10386 1149 9237 162 67 112 95 81 74 96 73 44
is_linear=0
shrinkage=0.3


Tree=159
num_leaves=27
num_cat=0
split_feature=85 132 21 56 108 1 44 2 45 40 35 212 278 8 18 223 122 119 165 91 249 50 64 123 10 143
split_gain=0.79097 1.23849 1.03539 0.887332 0.856171 1.09888 1.40084 0.992756 0.925944 1.14336 1.03056 0.895765 1.02951 0.972197 0.858045 0.791217 0.740453 0.637565 1.15027 0.605323 0.593736 0.4527 0.296212 0.214415 0.00946269 0.0029827
threshold=0.086165498942136723 0.020105930991815981 -0.0062895000446587497 0.080558068191859164 0.05066900141537186 -0.045629000291228246 0.039263999089598607 -0.059592434480296316 0.043175736104603381 0.068157501518726307 -0.060809999704360893 0.063169534873881258 0.00086250001913860009 -0.010902157451458993 0.064161002635955769 -0.06251300126314159 -0.039439012244104475 -0.040461743804293099 0.02041137435167702 -0.051580467344608513 0.052084524898148209 0.025848544947075759 -0.070093501359224236 -0.056597287998177419 0.017639500088989703 0.032666449668947752
decision_type=2 2 2 2 2 2 2 2 2 2 2 2 2 2 2 2 2 2 2 2 2 2 2 2 2 2
left_child=3 15 19 4 8 6 16 -7 11 10 -10 12 -1 -13 -9 -2 -6 23 -19 -3 -11 -21 -5 -17 -25 -24
right_child=1 2 -4 22 5 7 -8 14 9 20 -12 13 -14 -15 -16 17 -18 18 -20 21 -22 -23 25 24 -26 -27
leaf_value=0.0024714119286554292 -0.066181021481191538 0.085268717772376518 0.15017314763274325 -0.0087945154415136097 0.17384807825976745 0.07496752147695443 -0.2108815882103233 -0.12357222736699949 -0.12181456998981526 0.19456463330726029 0.052174287166420717 -0.09909349891004704 -0.015987504687991306 0.1414707210120271 0.063171580029264554 0.12144580935511912 -0.032495383493403855 -0.10302441059512624 0.22464204221489872 0.0068727079899417506 0.017909165005376645 -0.19521820488642419 -0.19880821746248892 0.21868096182418814 0.24471253968305418 -0.22011349423077417
leaf_weight=1620.4428985196864 1.8563807448372234 1.3634687997400758 2.1137780314311367 0.89705093391239676 4.5717115695588282 3.270287177758294 1.5658785849809644 19.387340381857943 3.966636527329686 6.2535565439611656 13.462794468272479 1.8979602835606781 326.77025560708717 7.4338375218212587 2.4999656279105684 2.2993599176406843 2.3799524530768386 2.1058823904022606 1.778585013002157 1.3717811880633233 2.3579429321689531 3.657395988702774 1.0502098253928118 2.4509595315903434 2.5794062661007047 1.353684054687619
leaf_count=6743 31 18 28 10 53 32 38 333 46 67 156 31 4229 109 43 22 48 35 17 22 32 38 33 27 17 15
internal_value=0 0.0572508 -0.0318428 -0.000494045 -0.000239607 -0.0476736 0.0454627 -0.0792065 0.00056608 0.0567632 0.0125774 -0.000181884 -0.000626259 0.0925432 -0.102242 0.115234 0.103205 0.145265 0.0470046 -0.0920278 0.146194 -0.140095 -0.155908 0.197339 0.232029 -0.210806
internal_weight=0 21.577 8.50642 2019.56 2016.26 33.6751 8.51754 25.1576 1982.59 26.0409 17.4294 1956.54 1947.21 9.3318 21.8873 13.0706 6.95166 11.2142 3.88447 6.39265 8.6115 5.02918 3.30094 7.32973 5.03037 2.40389
internal_count=12273 255 106 12018 11960 547 139 408 11413 301 202 11112 10972 140 376 149 101 118 52 78 99 60 58 66 44 48
is_linear=0
shrinkage=0.3


Tree=160
num_leaves=31
num_cat=0
split_feature=114 135 110 12 79 45 227 84 24 284 150 263 187 158 79 205 220 276 24 1 157 181 95 46 105 155 128 130 115 112
split_gain=1.07253 1.91045 1.53532 1.53317 1.20866 1.18234 1.83661 1.60344 1.53317 1.55816 1.39071 1.28235 1.98353 2.27792 1.28709 2.59257 1.80881 1.1066 1.02581 0.90691 0.905798 0.899549 0.876775 0.806418 0.796993 0.906999 0.742781 0.650219 0.620329 0.594309
threshold=-0.057927500456571544 0.088177502155303913 0.0025381791672819684 -0.0027916014102329413 -0.040890027606471549 -0.088983997702598489 0.031783500686287859 0.07172749936580651 -0.12472499907016749 0.10324349999427797 -0.028941230700303355 -0.058070216739049212 0.020878500305116152 -0.049226092422962407 0.0038820001063868004 0.018244485152917534 -0.050464499741792644 -0.035256000235676689 0.028381000272929603 -0.034858999773859894 -0.049626356117464694 0.017408999614417501 -0.057358499616384444 0.080210998654365512 0.049747999757528256 -0.0144969997927546 -0.030426643832801879 -0.016675999388098696 -0.080877501517534187 0.0032204999588429503
decision_type=2 2 2 2 2 2 2 2 2 2 2 2 2 2 2 2 2 2 2 2 2 2 2 2 2 2 2 2 2 2
left_child=1 2 24 18 -3 6 8 11 -2 10 -10 12 13 -7 15 -13 -16 -11 20 -9 -4 -14 -5 29 28 -26 -8 -24 -1 -6
right_child=5 4 3 22 23 7 26 19 9 17 -12 14 21 -15 16 -17 -18 -19 -20 -21 -22 -23 27 -25 25 -27 -28 -29 -30 -31
leaf_value=0.084756954594260428 -0.22283477485494399 0.16999136454939173 -0.15115170308980044 0.16294623124755811 -0.059521587154477314 -0.1561710282561124 0.062209865194807076 0.037617139606534393 -0.068226811942466992 0.060625094424556054 0.085781463032670591 0.0003056936318906442 0.17491612944314533 -0.015458441877441591 -0.092598642426760344 -0.095065528827364534 0.036108767702475224 -0.17332763911743496 -0.081542946127425311 -0.21801244452991161 0.12324063435932404 -0.024991558141807306 0.020951897414926705 0.012772355486287636 -0.15624141801387734 0.1476452829538078 -0.19067131598272416 -0.16354090019835765 -0.18753455452665127 -0.21810666368737322
leaf_weight=0.84825264150276769 1.8120528422296036 1.1229437235742814 1.1618808666244174 1.2459835647605348 2.7308227927715008 17.477532962686379 1.3879272416234014 1.6986669446341691 5.8056271296227342 3.1772624626755714 57.959474402712658 1456.5344757315179 4.6536207551835087 25.404505412006987 10.544320623041129 26.112938537276932 144.48360422017868 4.2583031055983147 3.1595162709709248 4.7191343086305997 15.898945699096659 3.5876731043681502 2.4724559192545703 2.2358751203864822 1.57145779626444 2.0204545698361471 4.2354923284146926 5.6437399241840494 6.7058570270310138 9.615751948556861
leaf_count=20 24 10 20 17 49 268 23 38 93 34 752 6230 57 438 257 519 2286 47 61 99 243 87 36 26 24 29 63 119 155 149
internal_value=0 -0.0410261 -0.00674987 0.0290032 -0.129914 0.000984302 0.0369456 -0.000683836 0.0496694 0.0566047 0.0717595 -0.000115063 -0.0469036 -0.072809 0.00134553 -0.00137402 0.0273547 -0.0733582 0.0754755 -0.150352 0.104554 0.0878905 -0.0713671 -0.153009 -0.101642 0.0146952 -0.128257 -0.107338 -0.156959 -0.183031
internal_weight=0 56.4339 40.7285 29.5825 15.7054 1773.85 78.6361 1695.22 73.0127 71.2007 63.7651 1688.8 51.1233 42.882 1637.68 1482.65 155.028 7.43557 20.2203 6.4178 17.0608 8.24129 9.36218 14.5824 11.146 3.59191 5.62342 8.1162 7.55411 12.3466
internal_count=12273 958 724 496 234 11315 1036 10279 950 926 845 10142 850 706 9292 6749 2543 81 324 137 263 144 172 224 228 53 86 155 175 198
is_linear=0
shrinkage=0.3


Tree=161
num_leaves=31
num_cat=0
split_feature=299 58 179 263 288 179 270 84 193 226 40 254 207 187 244 232 158 231 201 24 269 280 281 121 29 12 98 108 174 149
split_gain=0.851172 0.832623 0.985628 1.29803 0.820543 1.56401 1.68926 1.46301 1.48132 1.37256 1.36263 1.3598 1.30277 1.55703 1.28331 1.25082 1.22104 1.79114 1.25146 2.57165 1.96415 1.23626 1.21475 0.92514 0.892543 0.886008 0.881925 0.835216 0.758171 0.684447
threshold=0.12824259876680935 -0.053601499646901994 0.043914999812841353 0.037737999111413907 0.046931501477956751 0.043392951354472777 -0.055356900302327823 0.012473000213503801 -0.0053679998964070988 -0.055372001603245694 0.090713500976562514 -0.069104000926017733 -0.06936400011181823 -0.060066176036906511 -0.13619351201747854 0.052427560513548195 -0.11203049868345254 -0.020584500394761496 -0.020748817428173829 -0.013979500159621199 0.14600650315084829 -0.0038119999226181997 -0.0029870000435038998 0.022288500331342154 0.020569000393152206 0.014531500171869952 -0.039381962573809833 0.013296499848365751 0.07288415879561054 0.07299649715423577
decision_type=2 2 2 2 2 2 2 2 2 2 2 2 2 2 2 2 2 2 2 2 2 2 2 2 2 2 2 2 2 2
left_child=4 -2 3 -3 5 16 23 8 11 -8 -11 26 15 -14 -9 -10 17 28 19 -18 -20 -19 -13 27 25 -16 -6 -7 -1 -26
right_child=1 2 -4 -5 7 6 9 14 12 10 -12 22 13 -15 24 -17 18 21 20 -21 -22 -23 -24 -25 29 -27 -28 -29 -30 -31
leaf_value=0.17604164032479419 -0.14831642892234878 0.18264312639139474 -0.11179013845221535 -0.06208364478090872 -0.038557658652450325 -0.1063115073670995 0.15734586121362346 0.10937890328681958 0.20873077572393045 0.027051878677879664 -0.070953410494800653 -0.081714234985850898 0.044335386611241881 -0.065800189564622316 0.095573779513531854 -0.065481466177840647 -0.051948975422325877 -0.058701026120376004 -0.0010160131107052189 0.017790797854131044 0.059503275830154169 0.19891475617099072 0.05498374769309259 0.19256939550559127 -0.14631410427636349 -0.17023224303731307 0.16829992370557648 0.14928543771525082 -0.017241713642256962 0.052106078126251738
leaf_weight=10.657424581237139 1.3883758857846267 8.8278905819170124 1.7761024106293923 2.503807993605732 2.3139904960989943 2.2201473321765652 6.3334627682343116 2.8357056141831007 3.7848817808553568 93.43341863155365 14.788968121632932 9.430265755392611 14.634752867743371 54.856891581788659 3.4673957694321897 2.4768954748287797 120.26035275409231 10.359399382956324 1535.284553375328 78.748890993651003 49.83131696889177 2.000220311805605 15.413258783752099 8.6486510932445508 19.424417077796537 1.6732715992256997 9.3505700537934882 2.3884562738239765 2.2042824793606988 1.7016963866190042
leaf_count=106 16 115 20 38 21 25 63 31 36 954 165 123 138 654 48 35 1295 143 6185 1007 366 20 141 59 298 24 84 17 23 23
internal_value=0 0.0726011 0.0960006 0.128569 -0.000346737 0.00126347 0.0333359 -0.0224119 -0.00687284 0.0216031 0.0136591 0.0427678 -0.0307963 -0.0426059 -0.0823532 0.100264 -0.00100215 0.064545 -0.00192875 -0.0243526 0.000886533 -0.0170097 0.00309504 0.134719 -0.103052 0.00905473 0.127264 0.0261542 0.142916 -0.130331
internal_weight=0 14.4962 13.1078 11.3317 2078.52 1937.16 127.813 141.364 112.262 114.556 108.222 36.5081 75.7534 69.4916 29.1025 6.26178 1809.35 25.2213 1784.13 199.009 1585.12 12.3596 24.8435 13.2573 26.2668 5.14067 11.6646 4.6086 12.8617 21.1261
internal_count=12273 189 173 153 12084 10428 1283 1656 1232 1182 1119 369 863 792 424 71 9145 292 8853 2302 6551 163 264 101 393 72 105 42 129 321
is_linear=0
shrinkage=0.3


Tree=162
num_leaves=31
num_cat=0
split_feature=184 102 145 218 111 48 295 138 20 126 47 232 70 188 231 44 213 113 165 134 32 55 49 230 137 87 283 182 31 294
split_gain=0.824143 1.7494 1.44439 1.58484 1.24627 1.24035 1.27319 1.19586 1.76921 1.55271 1.52597 1.83261 1.75118 1.56698 1.58929 1.60537 1.50441 1.50053 1.45252 1.44197 1.39805 1.25223 1.21769 1.21545 1.20756 1.58914 1.14852 1.16352 1.14372 1.12675
threshold=-0.078454239175997961 -0.11038599908351894 -0.0089197407531149773 0.0061045000329613503 0.055401500314474057 0.064104303095142909 -0.013815110522974442 0.011852500028908202 0.10852050036191936 0.089639499783515916 -0.028618999756872647 0.020365777722753001 -0.027797999791800945 0.040008989154608973 -0.048640500754117896 0.037744801090686168 0.017580999992787803 1.0000000180025095e-35 -0.052541499957442242 -0.053120683700135715 -0.019299611022000691 0.036358000710606554 0.0041742568715357831 0.022855499759316406 -0.0062559025759359697 -0.0032999999821185498 0.095801498740911414 0.10514839119629975 -0.019225000403821395 -0.057329168345576893
decision_type=2 2 2 2 2 2 2 2 2 2 2 2 2 2 2 2 2 2 2 2 2 2 2 2 2 2 2 2 2 2
left_child=1 -1 3 4 -3 6 -4 8 9 18 11 26 23 14 17 -16 21 -12 28 -20 -14 -11 -18 -13 25 -15 27 -9 -2 -8
right_child=7 2 5 -5 -6 -7 29 10 -10 16 13 12 20 24 15 -17 22 -19 19 -21 -22 -23 -24 -25 -26 -27 -28 -29 -30 -31
leaf_value=-0.079264345180877563 -0.11328830412395889 0.083251597530657251 0.11310973208106602 -0.097579755754687636 -0.069019250087433801 -0.19942253241764127 0.12103826197787751 -0.088698620854898588 0.14978012370209007 0.06198651037548629 0.10122677888250547 0.016096370292901181 -0.069703846840900946 -0.02378335973116763 -0.10220964846499606 0.016212224490722859 -0.031696357225696956 -0.047593760416150654 0.051046214454890819 -0.00059800537445688984 0.076820358087958368 -0.18105457325328697 0.18816880349197956 0.13026888633550121 -0.11303309195039998 0.10794886461960893 0.068612417319883393 0.18750259089489538 -0.0016660451724722816 -0.022849758239759325
leaf_weight=12.561232850421218 18.085552151780576 16.114715730363972 33.773794118780643 11.823805109714156 6.9126235337462267 1.5101563520729531 7.0836472492665079 26.041659443581015 7.2035245373845092 5.7583300683181751 9.0636111806379649 14.207769741304217 17.081963969743814 19.515603219275363 63.209395465499256 12.309066211804746 2.8746537854894987 18.633490777341649 50.213672334619332 1570.6511305320018 8.9215145574416947 2.8533695689402521 10.726446717046199 20.500423762015998 6.1145996378036207 14.267021895269862 6.2200873577967277 1.4490453805774439 15.208968918363096 15.874599563889204
leaf_count=155 256 237 459 184 96 10 80 375 69 77 104 252 298 239 1020 167 31 236 606 6038 135 50 87 174 113 179 74 13 225 234
internal_value=0 0.0258266 0.0400067 -0.0083008 0.0375411 0.068913 0.0760559 -0.00138814 0.00142332 0.000785822 -0.0213149 0.00828777 0.0394312 -0.0408461 -0.0603631 -0.0829076 0.0795753 0.00110633 -0.000272199 0.00100191 -0.019433 -0.0185418 0.141699 0.0835325 0.00964503 0.0318496 -0.0478002 -0.07414 -0.0622991 0.0215461
internal_weight=0 105.655 93.0933 34.8511 23.0273 58.2422 56.732 1921.11 1683.58 1676.37 237.535 94.4225 60.7117 143.113 103.216 75.5185 22.2128 27.6971 1654.16 1620.86 26.0035 8.6117 13.6011 34.7082 39.8972 33.7826 33.7108 27.4907 33.2945 22.9582
internal_count=12273 1455 1300 517 333 783 773 10818 7439 7370 3379 1321 859 2058 1527 1187 245 340 7125 6644 433 127 118 426 531 418 462 388 481 314
is_linear=0
shrinkage=0.3


Tree=163
num_leaves=31
num_cat=0
split_feature=296 28 183 62 112 213 40 190 166 67 207 250 61 191 299 172 114 243 190 66 69 43 285 178 295 207 182 104 268 159
split_gain=0.958244 0.987507 1.23961 1.10008 0.971201 1.04194 1.24645 1.35161 1.35531 1.07305 1.46499 1.37402 1.06764 1.05732 1.07076 0.818026 0.656624 0.614003 0.686525 0.513267 0.509354 0.465482 0.432637 0.924591 0.28791 0.263783 0.136279 0.0707216 0.0114196 0.00163741
threshold=0.060157999396324109 0.050621225895652364 -0.027895499952137397 -0.021346000023186148 -0.10123400017619123 -0.06964421217868301 -0.011885500047355849 -0.052788499742746291 -0.032769675364790092 -0.051752500236034345 -1.0000000180025095e-35 0.0583976602480447 0.085915383366456197 0.015262499917298502 -0.034876373860187986 -0.010110599500617842 -0.0051759998314081989 -0.0037251938681408148 -0.071506212619146844 -0.029908394302552006 -0.035372219538416953 -0.071340144415797238 0.0031059999018907005 -0.044289320508484165 -0.010672385285032624 0.02572991063895096 -0.043733999133109998 -0.069456305130003324 -0.064153940500412107 0.059655695331528251
decision_type=2 2 2 2 2 2 2 2 2 2 2 2 2 2 2 2 2 2 2 2 2 2 2 2 2 2 2 2 2 2
left_child=4 2 3 -2 17 12 7 8 -7 11 -11 -8 13 14 -6 -9 20 26 -19 -20 -5 -15 27 -24 -18 -25 -1 -4 -21 -29
right_child=1 -3 22 16 5 6 9 15 -10 10 -12 -13 -14 21 -16 -17 24 18 19 28 -22 -23 23 25 -26 -27 -28 29 -30 -31
leaf_value=-0.075810823965073063 -0.21565940952980808 0.20445593774803952 -0.09658291772608478 0.10257580941192143 -0.1868158056799426 0.10383473491534118 0.01799817106111715 -0.21396140266132349 -0.079168771601196661 0.028976964973326282 -0.00061795974204803983 -0.098975629037412319 -0.12738621288678276 -0.00074550949847167452 0.059918803375909276 -0.068911695917258334 0.019525465270355515 0.18802506958346532 0.042152073993929451 -0.15997556721704034 -0.16232763383150436 0.17010725992349118 0.19889212237099693 -0.2164626065762123 0.19591227802329805 -0.038249511873701132 -0.21316142908589519 -0.20949913924431568 -0.21188341898555554 -0.22505576100267385
leaf_weight=0.81414389307610679 1.6343538311775772 1.1430444642901409 0.52753316145390527 1.1072435525711628 1.946435386314987 6.6263672986533484 15.698075333260929 5.7259267452172926 8.0874500816571544 166.99309234294924 1527.5553603630688 21.30129227420548 2.4025539034046224 1.6772719414439077 8.4775010219309532 8.99842850587447 1.2247057019267233 1.0514149023219941 1.4595667468383906 0.5426358226686715 1.5932772785890845 9.9425130926538206 0.86695453710854042 2.0146208381047477 2.6029850466875395 1.1884605563245711 3.2275673882686533 5.0182549354794874 1.2840583242359556 0.69302813778631378
leaf_count=24 39 16 16 22 26 100 320 115 158 2456 7479 468 31 28 113 181 34 14 35 21 38 141 9 41 34 28 81 157 36 12
internal_value=0 -0.0661403 -0.0828853 0.00445318 0.000529996 0.00100821 0.000154324 -0.0610585 0.00324685 0.00119501 0.00229854 -0.049346 0.0625178 0.0832155 0.0138467 -0.125318 0.0595589 -0.101365 -0.0229761 -0.0904844 -0.0537143 0.145445 -0.15204 -0.0759496 0.139476 -0.150339 -0.185494 -0.201679 -0.196464 -0.211387
internal_weight=0 19.6145 18.4714 8.16257 1793.81 1785.43 1760.99 29.4382 14.7138 1731.55 1694.55 36.9994 24.4463 22.0437 10.4239 14.7244 6.52821 8.37939 4.33768 3.28626 2.70052 11.6198 10.3089 4.07004 3.82769 3.20308 4.04171 6.23882 1.82669 5.71128
internal_count=12273 446 430 167 11827 11616 11277 554 258 10723 9935 788 339 308 139 296 128 211 106 92 60 169 263 78 68 69 105 185 57 169
is_linear=0
shrinkage=0.3


Tree=164
num_leaves=31
num_cat=0
split_feature=141 10 162 46 228 38 101 232 152 5 180 297 279 256 193 296 226 226 3 20 59 36 30 215 114 86 264 123 22 165
split_gain=0.783096 1.96565 1.75153 1.76167 1.60986 1.56523 1.42624 1.29639 1.29891 1.28303 1.18616 1.10565 2.11609 2.02592 1.7868 1.73485 1.68502 2.22947 1.61952 1.61289 1.59412 1.69869 1.66864 1.58292 1.452 1.44233 1.8611 1.43127 1.37994 1.32765
threshold=0.049972001463174806 0.0057019998785108007 0.044788001105189254 0.026114940625683983 -0.11360950022935863 0.049785999581217703 -0.0096404999494552491 0.012674499768763703 0.052386499941349009 -0.086207997053861576 0.024572079615411857 0.0017560126617348268 -0.037254499271511997 0.055141998454928356 0.048946579184062158 0.0150070004165172 -0.00087349896291885468 -0.0021640476900356372 -0.08379800245165818 -0.039285499602556194 0.058079000562429352 -0.082735501229762934 -0.026122999377548646 0.076396498829126316 0.062366500496864256 0.016649554607290246 -0.048824116898243085 0.031425872118148783 0.0087419999763369022 -0.032450504872705073
decision_type=2 2 2 2 2 2 2 2 2 2 2 2 2 2 2 2 2 2 2 2 2 2 2 2 2 2 2 2 2 2
left_child=11 6 3 -3 -4 9 10 -5 -9 -6 -2 12 20 24 16 18 17 -14 -16 -15 27 -22 -23 -18 25 26 -13 28 -1 -27
right_child=1 2 4 7 5 -7 -8 8 -10 -11 -12 13 14 19 15 -17 23 -19 -20 -21 21 22 -24 -25 -26 29 -28 -29 -30 -31
leaf_value=0.11385388242618126 -0.12647758021789998 0.072964565231366449 -0.22726376377557381 0.065908458027766154 -0.063046038137224522 -0.079030141469550924 0.082658814490402674 -0.11717231274376924 0.087005928610577141 0.11050554097987578 -0.0031740976033784079 0.019404220939202063 0.038319718069339259 0.042695665806533598 0.11580222657623951 0.042603988454690545 -0.00064302718559955039 0.30317415925395469 -0.13118454315245981 -0.12208131830407484 0.10171385144419859 0.06324551442671518 -0.13028451960119444 -0.10026903887691083 0.091810402187973136 0.062889390923947977 -0.066829919392875803 -0.090976265422962235 0.029883092531802005 -0.011740271756776725
leaf_weight=39.041960741189541 15.240280474768953 17.115977264242247 1.5458692992106069 6.7013150919228819 4.1474289325997225 4.9339816574938586 6.8783687702380112 17.99952712375671 3.3216522694565347 50.686818049987778 13.02040347130969 32.638700231793337 46.559075507335365 6.6945980656892052 2.6538202003575888 9.5260167603846622 1472.7282747704303 3.0476595405489197 23.977349477354437 26.54574097180739 7.2807052670978036 5.8565107537433567 12.715040077920998 14.494716047774999 12.044497100054285 30.020057682297193 72.685976040782407 4.9428772153332821 32.091275637387298 75.18366335472092
leaf_count=400 243 215 17 83 48 68 82 236 29 505 170 399 478 76 26 111 5503 23 283 397 72 55 176 189 135 271 802 77 391 713
internal_value=0 0.0216722 0.0419805 -0.00286916 0.0749981 0.0828159 -0.0398509 -0.049188 -0.0853631 0.0973788 -0.0696686 -0.0014419 0.00136376 -0.0198117 -0.00135066 -0.06727 0.000200235 0.0545914 -0.106572 -0.0888953 0.0432535 -0.0211056 -0.0692551 -0.001614 -0.00949438 -0.0152901 -0.0401071 0.065124 0.075971 0.00955543
internal_weight=0 141.592 106.453 45.1385 61.3141 59.7682 35.1391 28.0225 21.3212 54.8342 28.2607 1930.73 1674.92 255.813 1572.99 36.1572 1536.83 49.6067 26.6312 33.2403 101.928 25.8523 18.5716 1487.22 222.573 210.528 105.325 76.0761 71.1332 105.204
internal_count=12273 1696 1201 563 638 621 495 348 265 553 413 10577 7784 2793 6613 420 6193 501 309 473 1171 303 231 5692 2320 2185 1201 868 791 984
is_linear=0
shrinkage=0.3


Tree=165
num_leaves=31
num_cat=0
split_feature=161 274 232 200 26 138 126 274 265 139 195 143 187 158 112 278 51 259 156 56 171 6 106 287 4 49 14 46 199 246
split_gain=0.803036 0.87001 1.71721 1.74612 1.29198 1.26553 1.37504 1.164 1.0943 1.57002 1.53795 1.50396 1.31642 0.995117 1.99883 2.03889 1.74578 1.57212 1.28274 1.25284 0.96413 0.833674 1.14794 0.850382 0.856997 0.825062 0.993699 0.75015 0.873542 0.63735
threshold=0.019690500572323754 0.023300000466406304 0.0035640000132843006 -0.040317202001184708 0.03943831427997118 0.0083420001901686018 0.027829280491299898 0.031063499860465454 0.054423483671076599 -0.096420500427484443 0.010752500034868702 0.010307000018656202 -0.026467500254511795 -0.038474718928553621 -0.031536161411302117 -0.0071112960474615993 0.089383501559495912 -0.05286043030789337 0.070754498243331923 -0.098626002669334384 0.037369498983025502 0.0024907306398799759 0.020970351404116887 0.049508894928107949 -0.016953499987721398 0.060626499354839304 -0.0048510001506655992 0.0047416638194934984 -0.026586166948511469 -0.025746500119566897
decision_type=2 2 2 2 2 2 2 2 2 2 2 2 2 2 2 2 2 2 2 2 2 2 2 2 2 2 2 2 2 2
left_child=1 8 25 4 7 6 -5 -4 13 -10 11 -11 -12 14 18 -16 19 -18 -1 -15 -7 23 -23 27 -25 -3 -27 28 -2 -28
right_child=21 2 3 5 -6 20 -8 -9 9 10 12 -13 -14 16 15 -17 17 -19 -20 -21 -22 22 -24 24 -26 26 29 -29 -30 -31
leaf_value=0.0044462679871818348 0.11688365343514177 -0.15434188426972917 -0.051513599304914559 -0.08644421104159683 -0.14586687591311862 -0.14367245578757631 0.08751981180960916 0.055618280141539654 -0.1836414147587144 0.085818553874365849 0.11331981896834324 -0.080249486959514588 0.026524834734938 0.09287725847560073 0.020006737487782714 -0.057527191116596633 0.19924371832769908 0.037358738497304575 0.13472086227353877 -0.00071739636119053237 0.059724888003004302 0.074523747890059722 -0.15564915506929569 0.10795230950007023 -0.16793984915935253 0.1600251417209928 0.0021386417268872658 0.14038500473201315 -0.17172954356979964 -0.16672678794615589
leaf_weight=20.181987281510377 2.153808254632168 12.020354160660647 11.448698416934347 8.3863275632029417 3.8430655109114005 15.76381608535303 7.9805832188576451 45.022893593006302 2.9069072721758848 7.2289656228385892 27.804950708057731 15.286874367855487 36.205770863452926 12.980345665244384 42.349558765999973 109.32177657418652 6.5317138402024275 31.133850597660057 10.260849151527507 1538.4219835638069 2.4193313014693549 4.1001751557923845 3.7187520313309506 1.8409170567756517 2.2539997068233779 1.8628174178302277 3.9838587911799541 13.826339557417667 1.6800542818382478 4.0632765379268667
leaf_count=347 36 227 158 144 108 334 118 701 45 85 289 186 392 143 553 1332 49 412 136 5857 36 63 81 28 38 23 57 203 31 61
internal_value=0 -0.000733953 -0.02585 -0.00835997 0.0224449 -0.0621366 -0.00161853 0.033899 0.000842637 0.0332201 0.0405057 -0.0269315 0.0642268 -0.000792221 -0.0217974 -0.0358782 0.00161506 0.0654318 0.0483557 6.56958e-05 -0.11661 0.0490692 -0.0349486 0.0792657 -0.0439093 -0.101507 -0.0374209 0.107827 -0.00959084 -0.0831273
internal_weight=0 1977.41 116.795 94.8647 60.3147 34.5501 16.3669 56.4716 1860.62 89.4335 86.5266 22.5158 64.0107 1771.18 182.114 151.671 1589.07 37.6656 30.4428 1551.4 18.1831 29.574 7.81893 21.7551 4.09492 21.9303 9.90995 17.6602 3.83386 8.04714
internal_count=12273 11793 1967 1599 967 632 262 859 9826 997 952 271 681 8829 2368 1885 6461 461 483 6000 370 480 144 336 66 368 141 270 67 118
is_linear=0
shrinkage=0.3


Tree=166
num_leaves=31
num_cat=0
split_feature=136 77 184 133 85 187 205 260 15 286 151 215 97 230 241 235 277 106 51 141 53 195 212 158 278 116 291 152 193 102
split_gain=0.930536 1.9574 1.1206 1.38232 1.11973 1.02164 1.09926 1.46904 1.77875 1.44837 1.39019 1.51718 1.36501 1.23083 1.53064 1.1546 1.0909 1.05791 1.1411 0.838159 0.777999 0.726326 1.01592 0.650402 0.634876 0.625744 0.621766 0.720986 0.512056 0.314396
threshold=-0.074614502489566734 -0.075945942313026427 0.0094314999878406022 -0.024179499596357297 -0.042439167073085933 -0.097568999975919682 -0.06208150088787074 0.14639444323253928 -0.0085935001261531977 0.021326341317352022 0.036627000197768156 -0.0086799999698995971 -0.025988406092071422 -0.048063521898144709 1.0000000180025095e-35 0.074013501405715915 -0.043631000444292946 -0.011204499751329347 0.027056499384343555 0.030647999607026553 0.042088279966833571 -0.0068505001254379498 -0.035116298480207697 -0.047434000298380845 0.11874049901962276 0.011262499727308703 -0.02990826105730288 -0.012043499853461948 -0.098391000181436483 -0.031057416368026468
decision_type=2 2 2 2 2 2 2 2 2 2 2 2 2 2 2 2 2 2 2 2 2 2 2 2 2 2 2 2 2 2
left_child=1 4 21 -4 -1 17 10 13 9 -9 11 12 -7 16 -15 -13 -8 18 -2 -20 -5 22 -3 -6 28 -25 27 29 -23 -19
right_child=5 2 3 20 23 6 7 8 -10 -11 -12 15 -14 14 -16 -17 -18 26 19 -21 -22 24 -24 25 -26 -27 -28 -29 -30 -31
leaf_value=-0.17005436141935143 -0.18764087309452862 0.10795690747880025 -0.14597480027585141 0.15585953155624316 0.19655326957325497 -0.14342650959239861 0.082132415556734797 0.094614056973350166 -0.19893445088155057 -0.2033922281955737 -0.16047656669046459 0.10022613492255468 0.060074653373781907 0.00016484795140496528 0.042402974788995011 -0.11371339928085643 -0.080313255256547811 -0.072227797427696305 0.16196998888714004 -0.12092485825747026 -0.10119823028339751 0.088323868450478391 -0.2132980752540635 -0.18582446515839054 0.13470472990463059 0.16831238258344128 -0.19346788337310086 -0.21421604415481763 -0.14763905558039137 0.18230543317173509
leaf_weight=1.2459949213080106 1.8172570730093891 2.8742853689473122 3.1496761962771416 4.7580982977524382 4.8809500348288566 5.6649942692019977 4.3172949417494264 5.2129306716960855 7.3147968149278295 2.0430916080949828 2.8124732860596842 34.739557273336686 6.2276218435727042 1559.9112681754341 81.237010330281919 2.4290899941697708 26.918180338572711 0.69683399749919761 3.7116574195679277 1.2634310747962443 1.3632435863837598 0.86322059901431458 1.2806686828625959 0.92826142761623376 0.79796984512358804 0.86984546878375113 6.3042424254235785 1.1554685349110521 20.113791419862544 1.1701484252698722
leaf_count=17 25 47 71 80 81 84 79 97 173 42 65 510 87 7748 1424 47 621 20 61 25 34 16 35 25 17 19 124 24 549 26
internal_value=0 -0.0436734 -0.0739994 0.0155176 0.0910268 0.000932291 0.00162921 0.000306496 -0.0945381 0.0107039 0.0446443 0.056403 -0.0368622 0.00113284 0.00225564 0.0862445 -0.0578604 -0.074247 0.0158127 0.0901284 0.0986119 -0.106005 0.00893747 0.139732 -0.127938 -0.0145085 -0.139835 -0.0279661 -0.137929 0.0873032
internal_weight=0 43.126 35.201 9.27102 7.92505 1754.95 1738.83 1686.95 14.5708 7.25602 51.8737 49.0613 11.8926 1672.38 1641.15 37.1686 31.2355 16.119 6.79235 4.97509 6.12134 25.9299 4.15495 6.67906 21.775 1.79811 9.32669 3.02245 20.977 1.86698
internal_count=12273 991 849 185 142 11282 10977 10184 312 139 793 728 171 9872 9172 557 700 305 111 86 114 664 82 125 582 44 194 70 565 46
is_linear=0
shrinkage=0.3


Tree=167
num_leaves=31
num_cat=0
split_feature=131 114 36 198 120 172 254 111 160 292 170 71 296 181 25 299 272 175 278 157 259 226 69 257 113 109 245 93 296 135
split_gain=0.747704 1.03428 1.33652 0.953247 0.874875 0.89534 0.872539 0.792181 0.964435 0.746508 1.73215 1.76763 1.24027 1.15428 1.1352 1.04167 1.45029 1.61447 1.11037 0.880859 1.37197 1.05662 0.703656 0.673072 0.645843 0.509038 0.363502 0.357582 0.281566 0.0488347
threshold=-0.055589901743248189 -0.025284000672399946 0.010260376735307783 -0.013188625168590333 0.0033620169046145701 0.012520499993115603 -0.039168000221252393 -0.066464915383875459 -0.049355000257492045 -0.09253850206732743 0.017327594646106222 -0.054846170807793616 0.027035236098413715 0.06273249909281732 -0.020053479934084632 0.095972999930381761 0.03356749936938281 -0.051959703848888719 -0.0021066247738995751 0.11050727859224037 -0.057647923759023036 -0.042486494243615273 -0.057956499978899893 -0.015528500080108599 0.018838000483810853 0.050834366587214234 -0.024904000572860196 0.040117008339597658 -0.023876000195741594 0.050060548665353491
decision_type=2 2 2 2 2 2 2 2 2 2 2 2 2 2 2 2 2 2 2 2 2 2 2 2 2 2 2 2 2 2
left_child=1 3 4 6 5 -3 -1 8 -2 10 11 13 -13 -9 22 19 18 -18 -17 21 -21 -11 -12 -5 -16 -6 -25 -10 -7 -28
right_child=7 2 -4 23 25 28 -8 9 27 15 14 12 -14 -15 24 16 17 -19 -20 20 -22 -23 -24 26 -26 -27 29 -29 -30 -31
leaf_value=-0.13067122632822195 0.12138543561677903 0.10431570866660426 -0.18420575992737365 0.026207378225449766 0.030118777437389006 -0.21877680149171774 0.12371574253384965 0.1212544108011181 -0.20003904532307729 0.049808163097434577 0.023081294785447293 -0.11727537501413515 0.055394988912728135 -0.045417181062928309 -0.10653294929879141 -0.096167510212736868 -0.012292796692320099 0.13293408285962269 0.037072725669467878 0.10772831973689347 -0.084410104897253382 -0.00071412272953036394 -0.17943843385786371 0.086246013994093568 0.14786285590591103 0.23417627246112874 0.19153379631019893 -0.026146895208468666 -0.043079601248394134 0.24632052345388927
leaf_weight=2.650584464892745 1.4062927425256928 2.2850149534642679 3.1983964140526941 3.2022241232916722 2.0740675814449787 1.8246365003287803 2.2381824087351587 12.164095408748837 4.2271750835934645 38.025225876830518 1.7751795873045928 12.237541358568707 5.394163029966875 5.3997140955179921 1.6090918190311634 9.1478975606150943 10.353473243303599 20.590633335988969 14.634200979955493 3.9423330165445831 22.064511893317103 1841.1355466854293 11.860391378868371 2.3212424339726567 2.032813367433846 2.3433065605349839 2.368107283487916 1.4224104587920008 1.4922811947762955 3.8364450372755527
leaf_count=26 20 32 39 34 23 21 21 107 85 431 18 159 73 47 21 113 162 209 169 36 355 9752 143 28 22 24 25 21 28 29
internal_value=0 0.0472665 -0.0153627 0.0970844 0.0385359 -0.0401847 -0.0142074 -0.000575751 -0.100921 -0.000223914 -0.0355368 0.00265255 -0.0644494 0.0700139 -0.113331 0.000721532 0.041529 0.0843432 -0.0141788 -0.000450667 -0.0552842 0.000308207 -0.153073 0.143476 0.0354639 0.138366 0.187521 -0.156258 -0.139731 0.22541
internal_weight=0 29.8345 13.2177 16.6168 10.0193 5.60193 4.88877 2019.42 7.05588 2012.37 52.473 35.1955 17.6317 17.5638 17.2775 1959.89 54.7262 30.9441 23.7821 1905.17 26.0068 1879.16 13.6356 11.728 3.64191 4.41737 8.52579 5.64959 3.31692 6.20455
internal_count=12273 330 167 163 128 81 47 11943 126 11817 590 386 232 154 204 11227 653 371 282 10574 391 10183 161 116 43 47 82 106 49 54
is_linear=0
shrinkage=0.3


Tree=168
num_leaves=31
num_cat=0
split_feature=109 278 19 18 62 276 195 88 280 164 176 247 253 157 233 66 159 174 184 95 170 53 229 82 142 275 59 224 118 91
split_gain=0.771545 1.55477 1.62861 1.59092 1.60479 1.50989 1.58892 1.48212 1.47043 1.40572 1.40162 1.77473 1.69567 1.50755 1.48514 1.38069 1.43337 1.61023 1.36096 1.64697 1.34736 1.33521 1.29902 1.27949 1.27811 1.23229 1.15763 1.5226 1.5204 1.79021
threshold=0.08134800195693967 0.0025698022627680607 0.13465499877929688 -0.052177131408813991 -0.052679000422358443 -0.05786268893737341 0.077689502388238921 0.12034240013503993 -0.092295501381158732 1.0000000180025095e-35 -0.083859685529878367 -0.064579498022794682 -0.083693500608205726 0.010205162020121493 -0.039969190415818208 0.023169499821960902 1.0000000180025095e-35 0.056572999805212007 -0.059852202508322259 -0.035050500184297541 0.033890999853610958 0.03861307476100833 0.040643000975251156 0.032292185558780995 0.015297499950975152 0.0031489999964832505 0.063119902145377382 -0.086867191113722306 -1.0000000180025095e-35 -0.022785011297306607
decision_type=2 2 2 2 2 2 2 2 2 2 2 2 2 2 2 2 2 2 2 2 2 2 2 2 2 2 2 2 2 2
left_child=1 7 3 20 -5 8 10 26 -2 -10 11 -7 -12 -13 -14 16 17 -8 -11 -20 23 -9 -4 -3 -6 -18 28 -28 29 -1
right_child=5 2 22 4 24 6 15 21 9 18 12 13 14 -15 -16 -17 25 -19 19 -21 -22 -23 -24 -25 -26 -27 27 -29 -30 -31
leaf_value=0.0092581280690454022 -0.09341832802073087 -0.068644455178956579 0.1022285754993964 0.039914712740230597 -0.074796758098811505 -0.065721226592301618 0.1037627675559987 0.0055547580830435988 0.13877505452235567 0.21821688578285489 0.12515220199726673 0.013644444843828558 -0.10309245300100464 0.18357593790572366 -0.015492873647685326 -0.18956176593423543 0.035697087849074285 -0.0614150871004778 0.20589078710260814 -0.083741618923331429 0.11770971730925396 0.14006818623187325 -0.15735636731496519 0.076022691600990788 -0.016701134966922954 0.20236150456075877 -0.057894164575520789 0.11527899854696116 0.00096557212644128457 -0.099966272876216025
leaf_weight=24.855238236603327 4.3922571523580691 14.302107931813227 13.358557844068853 18.031846403609961 98.911030885094078 8.8794713895767945 10.135928135248834 13.526210593525322 21.422453417209908 2.4618758093565694 5.6923830443993202 9.576685842592271 25.995341136935167 9.2242327687563357 52.791497946367599 1.9596174150938157 6.7104774356412262 11.159791375393977 2.1895125471055499 9.1565349346492422 10.219854866852982 13.048131621442733 1.9939730204641808 8.942569387611 51.999617307796143 9.8584717901539971 6.3231310625560608 16.476064605871215 1475.624596041278 29.575546543463133
leaf_count=339 51 172 146 305 1635 88 138 183 203 15 55 93 371 76 748 31 94 114 17 115 121 150 42 131 834 90 90 221 5089 516
internal_value=0 -0.00192501 -0.025689 -0.0328343 -0.0446717 0.018101 0.00450343 0.00135138 0.0702585 0.0906644 -0.0137746 0.0448132 -0.0329714 0.0970174 -0.0443959 0.055981 0.0686886 0.0172031 0.0160227 -0.0278496 0.0269256 0.0716015 0.0685139 -0.0129889 -0.0547786 0.134862 0.000149177 0.0672511 -0.000850703 -0.0500901
internal_weight=0 1797.19 217.76 202.407 168.942 191.607 151.984 1579.43 39.6226 35.2304 112.16 27.6804 84.4792 18.8009 78.7868 39.8243 37.8647 21.2957 13.8079 11.346 33.4645 26.5743 15.3525 23.2447 150.911 16.5689 1552.85 22.7992 1530.06 54.4308
internal_count=12273 9974 3386 3198 2774 2299 1898 6588 401 350 1431 257 1174 169 1119 467 436 252 147 132 424 333 188 303 2469 184 6255 311 5944 855
is_linear=0
shrinkage=0.3


Tree=169
num_leaves=22
num_cat=0
split_feature=289 170 267 37 81 246 210 98 260 242 45 71 260 73 55 233 253 191 277 52 17
split_gain=0.8881 0.85794 0.875296 1.04107 0.930322 0.866868 1.75394 1.68638 0.846279 0.815068 0.780196 0.50873 0.459039 0.44251 0.408425 0.369873 0.346004 0.282996 0.0552567 0.0428109 0.000487141
threshold=-0.13724999874830243 -0.081203637316287908 -0.084764000028371783 -0.054437858703889182 0.12354449927806851 0.00093799998285240018 -0.082966998219489982 -0.045907000079750938 -0.011074791082942828 -0.077035002410411738 -0.078553487839429906 -0.073241833944993048 -0.011074791082942828 -0.021042980403431746 -0.024870946061143415 0.048844499513506855 0.035030417925081908 0.049423280974792844 0.0023934999480843002 -0.027894711154194906 -0.0033260216259042596
decision_type=2 2 2 2 2 2 2 2 2 2 2 2 2 2 2 2 2 2 2 2 2
left_child=18 9 3 11 5 7 -7 -4 -6 15 -5 -3 -12 -11 -10 16 -2 19 -1 -15 -20
right_child=1 2 4 10 8 6 -8 -9 14 13 12 -13 -14 17 -16 -17 -18 -19 20 -21 -22
leaf_value=-0.10806093323834125 -0.20683647657375726 0.20963231055395901 -0.063320474357691961 0.048183811589951615 0.16555368901038856 -0.048000504858891506 0.03299417210542227 0.00077634335095699337 0.029108648067869228 0.078207225840957031 0.096929920767784145 -0.046813874575951861 -0.18566895740390771 -0.14053205584551115 -0.19525814586304707 0.23822603792545549 0.15088341558012433 -0.031788322082613396 -0.2079425071833306 -0.21572104414751389 -0.21805839814942041
leaf_weight=0.61323308572173063 0.51607523701386504 1.4165294845588507 37.85805295285536 1.9035114914877329 0.83739859424531449 28.332982546009589 159.65304122273665 1527.3479295658472 0.87213391205295909 0.71544612967409182 0.55650285695446555 1.3691012505441893 7.3453628565766849 0.82284255325794164 4.4865530258975914 0.78697652253322303 0.46050118806306273 1.0642340215854345 0.85750918276608001 3.9686059217201533 0.85624759981874343
leaf_count=21 30 20 789 34 16 497 2730 7529 19 20 18 29 192 38 105 6 14 30 29 91 16
internal_value=0 0.000112041 0.000563706 -0.0782533 0.00112776 0.00153787 0.0207868 -0.000773983 -0.114914 -0.0959134 -0.124232 0.0835923 -0.165766 -0.144515 -0.158742 0.0851787 -0.0381549 -0.171727 -0.185343 -0.202809 -0.212997
internal_weight=0 1780.31 1771.98 12.591 1759.39 1753.19 187.986 1565.21 6.19609 8.33468 9.80538 2.78563 7.90187 6.57113 5.35869 1.76355 0.976576 5.85568 2.32699 4.79145 1.71376
internal_count=12273 12207 11978 293 11685 11545 3227 8318 140 229 244 49 210 179 124 50 44 159 66 129 45
is_linear=0
shrinkage=0.3


Tree=170
num_leaves=31
num_cat=0
split_feature=223 115 154 101 283 47 143 241 146 24 101 235 101 265 185 100 166 252 261 52 12 204 191 113 137 150 50 229 227 297
split_gain=0.713198 0.749849 1.5033 1.16836 1.16539 1.42217 0.883975 0.861902 0.787341 1.83684 1.60169 1.43575 1.51325 1.38736 1.34566 1.1833 1.64186 1.84981 1.82501 1.48141 1.8205 1.67348 0.897372 0.780377 0.764045 0.436187 0.336128 0.271055 0.24151 0.0267577
threshold=-0.13485949486494056 -0.082637500017881338 -0.033432087964206457 -0.011023326762371331 0.090280999324191105 -0.0018794999923556499 0.020784313145315383 -0.026259066503759834 0.035321999341249403 -0.044075403682827086 -0.0010945479370554729 0.054745499044656705 -0.10343116947390782 -0.053608682294092026 0.051340999081730808 -0.10509750247001638 -0.039711866197904448 0.042081413590173089 0.0083585004322230521 0.0048424243112186374 0.06564649939537047 -0.031933499500155393 -0.037200273746524147 0.050134827141304218 -0.018796999938785947 -0.036442384603204411 0.034930992530877482 -0.015426999889314097 -0.0060322099304160682 -0.010978664973717392
decision_type=2 2 2 2 2 2 2 2 2 2 2 2 2 2 2 2 2 2 2 2 2 2 2 2 2 2 2 2 2 2
left_child=26 2 6 4 5 -4 7 -2 15 10 14 12 -11 -12 -10 16 18 -18 -3 20 -17 -21 -13 25 -6 -5 29 -9 -8 -1
right_child=1 8 3 23 24 -7 28 27 9 11 13 22 -14 -15 -16 19 17 -19 -20 21 -22 -23 -24 -25 -26 -27 -28 -29 -30 -31
leaf_value=0.21989639739873804 -0.098061232791139513 -0.15863397868393006 0.066883031504976348 0.024610893090163968 -0.16944172799596244 -0.087385966981829405 0.23912854985087156 0.056578958107680523 -0.12531255669401126 -0.096197492250479258 -0.19474654919061593 0.027896503555869496 0.027964026644060919 0.086009637690068724 -0.019642889686475817 -0.00039584932840028509 0.046279553085210805 -0.030658566864214268 0.06095653484770127 0.026108010917144743 0.15224326390114082 -0.062197028665068224 -0.11116826072962292 -0.040056348703343098 0.044282540737316571 0.19665724570478715 0.019884554489430571 0.22264323434606087 0.12353030102848385 0.1573868735237314
leaf_weight=1.4354469284880904 2.4400674453936517 3.5448212220799169 15.39584574755281 1.7920499923638997 6.256428801221773 8.2655828027054685 4.3928718063980341 1.9112918684259059 30.545482091954909 9.7894918136298639 1.9086993765085924 5.8503011912107494 90.555670099682175 9.3136938684619945 16.817947336123325 1476.9738753646961 45.570773314218968 73.463984116096981 87.153322935570031 26.628311367705464 7.0660121832042924 70.326188588631339 14.594042595272184 2.6329903248697519 1.9824079568497817 5.1023629610426742 1.6841189470142124 1.6467783562839011 2.5830020606517792 1.0800160490907722
leaf_count=20 31 44 164 23 71 92 31 25 369 138 24 71 1189 95 164 5880 489 804 789 324 67 944 226 26 30 56 23 15 26 23
internal_value=0 -0.000146198 0.0345984 0.0066903 -0.0208427 0.0129927 0.123712 0.0392633 -0.00110562 -0.0200549 -0.0636456 0.00108772 0.0158511 0.0382588 -0.0877911 0.000792503 0.0219657 -0.0012039 0.0523741 -0.00201631 0.000330917 -0.0379443 -0.0713738 0.0988782 -0.118016 0.151938 0.123612 0.133438 0.196325 0.193058
internal_weight=0 2024.5 54.4017 41.4277 31.9003 23.6614 12.974 5.99814 1970.1 179.375 58.5858 120.79 100.345 11.2224 47.3634 1790.73 209.733 119.035 90.6981 1580.99 1484.04 96.9545 20.4443 9.5274 8.23884 6.89441 4.19958 3.55807 6.97587 2.51546
internal_count=12273 12207 590 462 357 256 128 71 11617 2276 652 1624 1327 119 533 9341 2126 1293 833 7215 5947 1268 297 105 101 79 66 40 57 43
is_linear=0
shrinkage=0.3


Tree=171
num_leaves=31
num_cat=0
split_feature=9 264 242 115 149 216 265 244 215 150 171 109 203 180 76 253 72 211 48 35 201 189 184 52 160 278 116 177 247 109
split_gain=0.791389 1.47815 1.0368 1.00336 0.744219 1.34501 1.45142 1.30836 1.30288 1.23338 1.22293 1.24695 1.26047 1.18823 1.17881 1.06184 1.08805 1.06093 0.997719 0.975472 1.19464 0.974907 0.964507 0.99494 0.954677 0.95374 0.913231 0.784649 0.630069 0.517442
threshold=0.091460499912500368 -0.022942914304762866 0.051845500245690311 -0.027935000136494598 -0.021857500076293897 -0.10139850154519074 -0.00056300000869664987 -0.061357500031590399 1.0000000180025095e-35 -0.019738000817596846 -0.059679498896002742 0.048733498901128762 0.013167500030249302 0.026779499836266003 -0.059566735555544349 -0.0025613566653184317 0.0033818881944168203 -0.04880799911916249 -0.063877496868371936 -0.066214214798161433 -0.018538500182330549 0.082973498851060812 0.020045723843203026 0.065567500889301314 -0.055408500134944895 0.027238500304520102 0.05851553405138768 -0.060345498844981145 -0.010737999808043148 0.032752421781878864
decision_type=2 2 2 2 2 2 2 2 2 2 2 2 2 2 2 2 2 2 2 2 2 2 2 2 2 2 2 2 2 2
left_child=4 2 -2 -3 9 6 8 14 26 19 15 17 -13 -10 -8 16 -11 -12 -9 29 27 22 23 -7 -22 -24 -6 -21 -17 -1
right_child=1 3 -4 -5 5 21 7 18 13 10 11 12 -14 -15 -16 28 -18 -19 -20 20 24 -23 25 -25 -26 -27 -28 -29 -30 -31
leaf_value=0.23623944956989976 0.17153919656972347 0.089827010093766785 -0.067788755918451044 -0.13334912249248307 -0.13995632880545372 -0.00069957945719919168 -0.028359428626373247 -0.18178080323749352 0.11340024218342981 -0.091940795719401031 0.026949682411137245 -0.070591813326310857 0.053381068491225446 -0.056639871918861578 0.14267091241075336 -0.21828606977232443 0.10476105489384564 -0.083559575433475988 0.037361448885441961 -0.053053483492166771 0.10424582719985825 0.11933582131197404 -0.018837929904613152 0.076032843337831377 -0.11662578458817176 -0.13079717303351318 0.093091309762105875 0.14444531907765715 -0.074490238178271398 0.05888563248563275
leaf_weight=2.8333464711904552 9.3375327615067381 3.0698143858462572 1.973405320663004 4.4285193514078847 8.3002730791922676 1702.7467374148255 4.3066338384524014 2.1884660050272933 8.7378885959042218 8.8363384649856034 10.506371850613503 10.071083499642553 27.634238178899977 6.4132284644292659 22.981200854643248 7.0233077654265799 3.5467432045843443 30.563632409219281 12.841678062104618 2.5785287339240313 2.2785482946783331 6.0813460258068508 23.233870434574783 15.345391160342841 7.7576530440710423 9.7095668506808561 1.8507667569792818 6.0780054954811966 4.4993340352666547 3.100918535143137
leaf_count=21 93 38 34 54 139 8174 62 36 148 188 165 174 353 142 220 136 67 509 170 31 24 95 397 202 126 217 27 81 105 45
internal_value=0 0.0613097 0.129784 -0.0419809 -0.000522185 0.00102504 0.0425439 0.0765296 -0.0142972 -0.022699 -0.0371601 -0.0191244 0.0202679 0.0414249 0.115678 -0.0965922 -0.0356018 -0.0552895 0.00545321 0.0375959 0.00395481 -0.000572752 -0.000989195 -1.42326e-05 -0.0664807 -0.0518362 -0.0974664 0.0856162 -0.162137 0.143564
internal_weight=0 18.8093 11.3109 7.49833 1952.05 1824.74 67.6201 42.318 25.3022 127.308 102.681 78.7753 37.7053 15.1511 27.2878 23.9057 12.3831 41.07 15.0301 24.627 18.6927 1757.12 1751.04 1718.09 10.0362 32.9434 10.151 8.65653 11.5226 5.93427
internal_count=12273 219 127 92 12054 10029 944 488 456 2025 1697 1201 527 290 282 496 255 674 206 328 262 9085 8990 8376 150 614 166 112 241 66
is_linear=0
shrinkage=0.3


Tree=172
num_leaves=31
num_cat=0
split_feature=258 61 16 87 218 244 189 291 128 122 155 220 198 210 162 13 243 136 17 71 214 85 49 152 50 60 72 150 41 248
split_gain=0.806747 1.24923 1.47967 1.34961 1.33759 1.06224 1.05806 0.941206 1.65233 1.45215 1.44912 1.65566 1.32698 1.14277 1.91273 1.57136 1.07821 1.06816 0.892898 0.840964 0.802571 0.68692 0.654313 0.653571 0.406497 0.454068 0.385623 0.291945 0.287782 0.249728
threshold=-0.13254399597644803 0.050209436330909074 -0.069715754002084879 -0.04280650056898589 -0.065497498959302833 0.027613500133156752 -0.018371036226026576 0.0050009984657980984 0.10591400042176241 -0.12159800332147618 0.066125500947236973 -0.052806646043032313 -0.038837538275011671 -0.099653497338294941 0.033838000148534712 -0.0038704999024047992 0.029872499406337703 0.013565981878926771 -0.07512100040912624 -0.072041001170873586 -0.032853500917553839 -0.03171919305553806 0.011000303672682048 -0.0023250272210068226 0.080821499228477464 -1.0000000180025095e-35 -0.026886498941052325 0.016774999909102854 -0.021435500122606695 -0.038816500455140991
decision_type=2 2 2 2 2 2 2 2 2 2 2 2 2 2 2 2 2 2 2 2 2 2 2 2 2 2 2 2 2 2
left_child=1 2 -1 23 26 7 -6 8 13 20 11 -11 -10 14 -2 -15 -12 -14 -3 -7 29 22 -20 27 -23 -26 -5 -4 -21 -9
right_child=5 18 3 4 6 19 -8 9 12 10 16 -13 17 15 -16 -17 -18 -19 21 28 -22 24 -24 -25 25 -27 -28 -29 -30 -31
leaf_value=-0.18436891770660813 0.02428749832411611 0.1674842206193721 0.21443490682319491 0.25214193083693442 0.012107418289137419 0.067512310843671111 -0.15572300398958677 0.21665462753645953 0.13617823433033019 -0.10675938436221333 -0.13878855538598314 0.044461287018811239 -0.14137741571969148 0.030306395503133222 -0.15195533024586666 -0.001917766745359229 0.074881589066526297 0.046865252709463012 0.14808868364790689 -0.038038668129090618 -0.17955379082274381 -0.20731519762615355 -0.15494943263708086 -0.047239933893627968 0.17827941808116143 -0.20562985144281837 0.040588836804939687 0.067881999176793453 -0.20804341645992738 -0.038480633071454884
leaf_weight=3.6659439016366369 10.667824354488404 0.89365129615180094 4.1876000167394523 1.6101710868388184 7.0818364436272576 1.7328677341574801 6.4688509118277517 0.64516411209478974 2.2133158589713302 6.8472250906925174 7.5239890871453081 134.77073642103642 15.861256973927086 151.21461300380179 11.534299940161871 1371.0034953803988 2.9623456075787544 3.2727187677519387 1.2524813944473856 1.1326366993598638 4.694724391330964 7.8115870285255351 1.3140291532035915 1.5496784588322068 0.55583675461821258 0.55325756012462057 1.4959214124828637 1.7282478896668179 4.2921752194524734 0.74281500407960244
leaf_count=76 176 15 49 13 139 38 144 11 32 196 169 2277 336 2481 188 5186 47 72 21 22 99 167 28 35 18 24 31 33 116 34
internal_value=0 -0.0421044 -0.00679082 0.0201963 -0.02731 0.000901214 -0.0680118 0.00138006 -0.00084798 0.0234336 0.0291817 0.0371498 -0.0837409 0.000297783 -0.067273 0.00128333 -0.0784276 -0.10918 -0.121364 -0.11443 -0.120302 -0.143835 -0.00706397 0.12619 -0.183185 -0.0132288 0.150256 0.171621 -0.172548 0.080112
internal_weight=0 40.1691 27.7883 24.1223 16.6568 1731.11 13.5507 1723.95 1565.77 158.187 152.104 141.618 21.3473 1544.42 22.2021 1522.22 10.4863 19.134 12.3808 7.15768 6.0827 11.4872 2.56651 7.46553 8.92068 1.10909 3.10609 5.91585 5.42481 1.38798
internal_count=12273 793 520 444 327 11480 283 11304 8471 2833 2689 2473 440 8031 364 7667 216 408 273 176 144 258 49 117 209 42 44 82 138 45
is_linear=0
shrinkage=0.3


Tree=173
num_leaves=31
num_cat=0
split_feature=254 144 232 191 250 58 180 112 271 151 137 29 220 51 121 195 34 286 264 285 10 294 158 50 109 175 135 23 220 133
split_gain=0.618582 1.19426 1.46912 1.05736 1.23795 0.954282 0.944819 1.0211 0.912893 1.22124 1.09529 1.05152 0.999204 0.99396 0.905599 0.845783 0.838065 0.743228 0.725257 1.35268 1.64768 1.12839 1.02292 0.947221 0.92021 1.15061 0.91466 0.867373 1.68126 1.55149
threshold=-0.11289279027246042 0.011552999727427902 -0.013090889274586197 -0.045980500057339592 0.15833813399827684 0.012537477013106734 0.023369000293314405 0.029040999710559803 -0.021516144020703499 -0.021079000085592197 -0.11148649826645848 0.054448500275611808 0.068993497639894472 -0.0021314794090562541 0.036652499809861155 0.053450498729944153 0.039527970305453922 0.03276663812276881 0.042019324135610624 -0.011025999672710849 0.011893500108271801 -0.013767499942332449 0.036470999941229758 0.075595002621412263 0.050284501165151561 -0.044362999498844098 0.009573319514112201 0.025261399827614509 0.0012194999726488503 0.0035409999545663001
decision_type=2 2 2 2 2 2 2 2 2 2 2 2 2 2 2 2 2 2 2 2 2 2 2 2 2 2 2 2 2 2
left_child=1 2 -1 6 5 -5 7 -4 9 10 -2 12 -11 -12 -15 -13 -17 -3 22 20 26 -22 27 -21 -24 -26 -20 29 -29 -10
right_child=8 17 3 4 -6 -7 -8 -9 18 11 13 15 -14 14 -16 16 -18 -19 19 23 21 -23 24 -25 25 -27 -28 28 -30 -31
leaf_value=0.1518398059402202 0.16602854617075291 0.19301601916532299 -0.16571438978022812 -0.089824325744071287 0.18552959007962014 0.0086344004058403062 0.19156469698883391 0.13905853020099165 -7.1414349089418306e-05 -0.17012284561925478 -0.18382024068893713 -0.10841471791037682 0.061262971676316516 -0.061537231779855601 0.13585368825285316 -0.04631432222604237 0.18632928897834045 0.037532611060683431 0.039628372654657122 0.13492564250395983 0.13524282296346035 -0.096490108934575144 -0.15400241629918873 -0.067140253940362368 -0.1479335460004729 0.081292556347733261 -0.21488611799008975 0.018981794901375647 -0.041165029552197765 0.041986802523648385
leaf_weight=5.841133391018956 3.5986384609714142 5.7847826811484975 1.9858160892035797 18.513729527126998 2.275907799601554 16.989826034754515 4.1044793594628572 1.9717076607048509 1594.7116789537249 12.51143764331937 2.6733182910829774 4.6030090043786895 1.9401301210746158 4.7179087596014124 3.7580618150532246 2.9052692451514304 2.6783514013513923 5.3037655090447515 1.8024260657839501 13.954880930949004 6.0593665055930614 2.7491783555597049 7.3948050942271939 2.455237057991325 3.2370227882638574 5.0382015975192171 4.3085192597354762 64.923137796053197 117.57187603050261 83.049608398927376
leaf_count=82 25 62 27 253 18 233 33 15 7031 188 33 66 27 67 47 48 27 69 20 119 66 31 127 25 54 59 79 861 1363 1118
internal_value=0 0.0293109 0.0101438 -0.00791118 -0.0289585 -0.042708 0.0907191 -0.0138712 -0.000946525 -0.0461551 0.0221242 -0.0870257 -0.139059 -0.0243236 0.0259816 -0.0132069 0.0652802 0.118647 -1.2937e-05 0.0452553 -0.0201211 0.0629181 -0.000768955 0.104693 -0.0770971 -0.00837391 -0.139817 -0.000125999 -0.0197676 0.00201048
internal_weight=0 62.7711 51.6826 45.8415 37.7795 35.5036 8.062 3.95752 1946.64 39.3861 14.7479 24.6382 14.4516 11.1493 8.47597 10.1866 5.58362 11.0885 1907.26 31.3296 14.9195 8.80854 1875.93 16.4101 15.67 8.27522 6.11095 1860.26 182.495 1677.76
internal_count=12273 792 661 579 504 486 75 42 11481 528 172 356 215 147 114 141 75 131 10953 340 196 97 10613 144 240 113 99 10373 2224 8149
is_linear=0
shrinkage=0.3


Tree=174
num_leaves=28
num_cat=0
split_feature=294 288 266 37 102 195 125 18 287 53 220 299 200 4 104 207 49 79 34 234 142 99 293 206 81 73 298
split_gain=0.739185 0.786026 0.778469 0.75559 0.722739 0.876875 0.761553 1.34133 1.31773 1.19111 1.0401 1.53077 1.51329 1.4977 1.34215 1.22797 1.03249 0.933612 0.920247 0.975255 0.688425 0.674383 0.486859 0.400363 0.287573 0.261863 0.102978
threshold=-0.12234000116586678 0.052519488004551376 -0.056499934342115678 0.043118501082062707 0.068779498338699327 -0.04210232504750238 0.015722000040113902 0.065657169643616314 0.050084000453352907 0.005619999952614251 0.037114500999450656 0.062068601057623067 -0.045506982310017173 0.02590374436185499 -0.062751903583643007 0.07582899928092951 0.067396385273480755 0.071014001724792344 0.043551404166139764 -0.075194999575614888 0.067931000143289511 0.078808002173900563 0.040741483034529451 -0.039736500009894295 0.036934165086952485 0.077785701738031635 0.029353000223636603
decision_type=2 2 2 2 2 2 2 2 2 2 2 2 2 2 2 2 2 2 2 2 2 2 2 2 2 2 2
left_child=1 2 -1 20 6 -6 10 8 9 -8 11 15 13 -12 -13 -2 -14 -10 19 -9 22 25 -4 -20 -3 26 -7
right_child=4 24 3 -5 5 21 7 18 17 -11 12 14 16 -15 -16 -17 -18 -19 23 -21 -22 -23 -24 -25 -26 -27 -28
leaf_value=0.15121763985797498 -0.00036003275706739324 0.064868812463646064 -0.16026602747081553 0.11920851191363384 -0.17726246826145522 0.22139879673760685 0.015720512455551595 0.16479574858727894 0.039463739686111075 -0.071077712808238602 0.062071109631697929 0.054237211736946268 -0.055043738088626559 -0.047269149768340769 -0.065755567607989174 0.089499833226012779 0.056005017113732014 -0.14425620568657554 0.01824324770763255 -0.090998191668375958 0.1197527963124394 -0.054155995581829548 0.05303772947763935 0.20390979430211159 0.22148240958774337 0.040856787071974841 0.12809648645255362
leaf_weight=3.2185454592108735 1593.5690648539312 1.6184634489472944 4.5428179462905973 2.6125536877661943 1.0210322970524428 3.5155165496980754 18.107283451943658 1.9830794613808391 25.991984483203854 66.432759612245718 80.535125941911247 9.9418937293812615 27.312665605917573 13.110136845498344 53.725496829545591 13.805246167583389 10.40627102833241 2.753090758691541 1.3774696332402525 4.1461757343495247 1.3959756549447773 1.6268115950515492 1.2221355270594356 4.3342290995642543 3.0319288824684918 1.2727270792238412 1.5271017248160204
leaf_count=24 6699 22 77 35 24 47 288 23 427 1348 901 119 488 173 820 202 139 58 33 118 19 32 15 51 39 22 30
internal_value=0 0.0611355 0.0232505 -0.0188909 -0.000550709 0.0844403 -0.000945925 -0.0235779 -0.03362 -0.0524868 0.000625227 -0.00139536 0.0263284 0.0467637 -0.0470183 0.000411746 -0.0244065 0.0218678 0.0724967 -0.00823778 -0.0692743 0.118084 -0.115047 0.159133 0.166977 0.162453 0.193143
internal_weight=0 17.6424 12.992 9.77348 1936.5 8.96319 1927.53 125.126 113.285 84.54 1802.41 1671.04 131.364 93.6453 63.6674 1607.37 37.7189 28.7451 11.841 6.12926 7.16093 7.94216 5.76495 5.7117 4.65039 6.31535 5.04262
internal_count=12273 231 170 146 12042 155 11887 2346 2121 1636 9541 7840 1701 1074 939 6901 627 485 225 141 111 131 92 84 61 99 77
is_linear=0
shrinkage=0.3


Tree=175
num_leaves=31
num_cat=0
split_feature=165 293 102 287 260 178 67 87 281 64 237 132 34 218 190 243 170 26 171 11 271 99 198 110 109 62 27 170 199 48
split_gain=0.837669 1.47751 1.28256 1.19544 1.91612 1.36724 1.57093 1.49391 1.44328 1.64184 1.43591 1.33024 1.35115 1.31822 1.94751 1.36689 1.12498 1.12047 1.10729 1.06181 1.12171 1.03386 0.94156 0.925637 0.987186 0.972744 0.868557 0.854693 0.747135 0.723342
threshold=0.034814499318599652 0.017099999822676102 0.018280913312004293 0.071571502834558473 0.072275036960517944 -0.0065764999017118991 -0.024341999553143898 0.030024500563740703 0.022997000254690602 0.0099988537871653245 -0.0051724999211727992 -0.072201501578092533 -0.026899499818682598 -0.055370498448610243 0.012185500003397453 -0.066906874837347793 -0.027257910909658456 0.016522499732673154 -0.022979713386786858 0.029956500045955101 0.087479045114253653 -0.021766616815924112 -0.035689000040292643 0.046407608337155133 0.056492500007152509 -0.006232500076293849 0.012879999820142951 0.032968357957953033 -0.053571499884128494 -0.070773001760244328
decision_type=2 2 2 2 2 2 2 2 2 2 2 2 2 2 2 2 2 2 2 2 2 2 2 2 2 2 2 2 2 2
left_child=3 2 16 5 19 6 7 18 13 10 -10 22 -13 14 -7 -15 -2 -3 -1 20 26 -6 -8 25 -25 -18 -5 -23 -19 -29
right_child=1 17 -4 4 21 8 11 -9 9 -11 -12 12 -14 15 -16 -17 23 28 -20 -21 -22 27 -24 24 -26 -27 -28 29 -30 -31
leaf_value=0.046569231564821949 -0.12320224109346119 -0.14523035122317915 -0.14042601223407891 -0.069857401274824843 0.086249631144758462 0.082282728676561653 0.11431617930789102 -0.1568227007958812 0.064644002059510347 -0.22852681877366227 -0.10337573822094126 -0.011960671796992086 0.067002933089599606 -0.078939980697259479 -0.16537929896655182 0.00019379104222544305 -0.019775635775287691 -0.17173923594862209 -0.062935570903526125 -0.16753870379030072 -0.1661751816034677 -0.19419073473840218 -0.12075737394242456 0.056554599259070304 -0.16279985262658572 0.12480548047318736 0.11549048966746039 0.04780537103280736 0.10283177479414761 -0.18926636191833227
leaf_weight=19.895671876729466 4.1577934586675864 14.419431174901549 5.0971048591600256 2.8952272195601862 1.8999187518493297 30.55147678143112 1.9696837975643573 6.4273711915593585 7.8121337433112847 4.911944311039405 11.056674557970835 24.292670398717746 98.907115079869982 19.921720592305064 3.1524706303607664 1414.5622825486935 6.127049759248627 1.2330634349491445 14.272461459564509 2.4507672837935379 1.9758544146316115 11.025426605840037 6.9247930501587671 3.9664853138965546 3.4547860842430964 13.2344053958368 10.629323421162551 3.0070960347075015 3.2240122187649822 1.8840313369291823
leaf_count=333 121 439 125 68 37 468 43 118 161 132 265 451 1507 339 84 5931 145 45 293 59 38 191 155 70 84 232 206 37 50 46
internal_value=0 -0.0366016 -0.000987058 0.00104427 -0.0532213 0.00221024 0.0274815 -0.0241326 -0.000714814 -0.0740303 -0.0338116 0.0433437 0.0514328 0.000472702 0.0591179 -0.000905197 0.021984 -0.104594 0.000827691 0.0159542 0.0449662 -0.12292 -0.0687003 0.0445229 -0.0455603 0.0790519 0.0758127 -0.147888 0.0268709 -0.0435132
internal_weight=0 54.9141 36.0376 1700.43 35.7676 1664.66 172.69 40.5955 1491.97 23.7808 18.8688 132.094 123.2 1468.19 33.7039 1434.48 30.9405 18.8765 34.1681 17.9512 15.5004 17.8165 8.89448 26.7827 7.42127 19.3615 13.5246 15.9166 4.45708 4.89113
internal_count=12273 1311 777 10962 682 10280 2900 744 7380 558 426 2156 1958 6822 552 6270 652 534 626 371 312 311 198 531 154 377 274 274 95 83
is_linear=0
shrinkage=0.3


Tree=176
num_leaves=31
num_cat=0
split_feature=256 156 73 148 92 128 168 20 258 132 220 131 148 93 9 67 299 200 44 71 130 233 283 172 137 220 17 21 210 88
split_gain=0.661661 2.17154 2.62369 5.84978 1.45775 1.42846 1.39692 1.38924 1.6321 1.3722 1.39675 1.34653 1.31014 1.21092 1.42505 1.11255 1.02387 1.16157 0.996388 1.34371 1.79932 1.49263 1.7769 1.42239 1.29971 1.23111 1.05647 0.964466 0.961101 1.38913
threshold=-0.0003975494996729427 0.030038000084459702 0.0028869999805465007 0.0028905800462083694 0.071152999997138908 -0.021258101626935894 0.033323836418687414 -0.071796499192714636 -0.13896044806925503 0.054184500128030756 0.049041500315070104 -0.047655500471591894 0.037289930734272031 0.0077395001426339002 -0.021611500531434947 0.069272610793463654 0.039304999634623507 -0.0035642491617463514 -0.06878400221467014 -0.069983797606450238 -0.022925999946892196 -0.088447500020265538 -0.024014000780880396 0.045534716713281007 -0.07646748056425097 0.012228500097990003 -0.092766890871080129 0.04020655643094944 -0.078088000416755579 0.081445999443530967
decision_type=2 2 2 2 2 2 2 2 2 2 2 2 2 2 2 2 2 2 2 2 2 2 2 2 2 2 2 2 2 2
left_child=1 2 3 -1 11 28 9 -8 -9 10 -6 -3 -5 27 -15 16 17 -4 24 20 25 22 -21 -22 -7 -20 -23 -13 29 -2
right_child=5 4 15 12 6 18 7 8 -10 -11 -12 13 -14 14 -16 -17 -18 -19 19 21 23 26 -24 -25 -26 -27 -28 -29 -30 -31
leaf_value=0.79388155634218627 0.086432301904881506 0.1348793939474823 0.045069172811280832 -0.11103356461529477 0.0082425372778952705 -0.15442172246572358 -0.14621690613033619 -0.22018589093414725 0.019020626154353102 0.18285225748372239 0.11954981201740333 -0.097107242493907245 0.1856646755319811 -0.096355973969283415 0.015741984224383953 -0.060692222178240912 0.10083021392447612 -0.10562043037810782 0.011506932334092553 0.17320448089175045 0.029620638852009266 0.10856369359124912 -0.10505258418159986 -0.097134416167103277 -0.019588370630879277 0.16386425395411963 -0.0013752047455149968 0.049251257186153467 -0.10891965880385254 -0.19453622195327208
leaf_weight=1.3309395089745502 6.1483559943735617 4.3656913936138144 26.029775015776977 1.8265693644061682 39.085447105579078 8.2725516356294957 6.3256232645362607 2.7373871309682718 41.267016461119056 6.5365989170968524 13.703912490047513 31.846846695058048 5.0228106621652842 13.101072002202271 46.195423983997898 8.8650381286861357 23.761897499673069 5.5930797792971161 7.2266940926201668 2.2922039646655348 56.83956360234879 7.9075311589986077 20.877953066024929 9.2666331175714713 28.953869752120227 14.059522812254725 1525.9188408604241 4.6430075261741868 18.485362556064501 2.1331337750889361
leaf_count=9 74 46 317 25 457 166 65 23 378 58 114 443 71 209 539 162 299 78 100 22 692 99 271 119 454 122 6444 67 321 29
internal_value=0 0.013568 0.0583546 0.218372 -0.0018933 -0.00211154 0.0220049 -0.014757 0.00414028 0.0531925 0.0371375 -0.0280594 0.106542 -0.0354857 -0.00902514 0.0379811 0.053775 0.018417 -0.00101708 8.1661e-05 0.0362792 -0.00195006 -0.0775248 0.0118524 -0.0495514 0.112139 -0.000808423 -0.0784844 -0.0708703 0.0140608
internal_weight=0 282.238 72.4301 8.18032 209.808 1708.38 109.656 50.33 44.0044 59.326 52.7894 100.152 6.84938 95.7864 59.2965 64.2498 55.3848 31.6229 1681.62 1644.39 87.3924 1557 23.1702 66.1062 37.2264 21.2862 1533.83 36.4899 26.7669 8.28149
internal_count=12273 3360 961 105 2399 8913 1095 466 401 629 571 1304 96 1258 748 856 694 395 8489 7869 1033 6836 293 811 620 222 6543 510 424 103
is_linear=0
shrinkage=0.3


Tree=177
num_leaves=31
num_cat=0
split_feature=200 18 37 95 171 118 266 166 39 166 72 255 284 200 3 291 109 114 127 298 124 252 173 157 131 112 103 19 95 156
split_gain=0.721796 1.27761 1.73568 1.5179 1.55243 1.54053 1.3034 1.23593 1.20101 1.28389 1.36335 1.05063 1.01761 1.70422 1.10248 1.12067 1.02267 1.38281 1.46671 1.3191 1.29984 1.32662 1.22685 1.33482 1.16908 1.15048 1.07114 0.993649 1.23799 0.993092
threshold=-0.10266519594909472 0.012334561553027633 -0.030547999776899749 -0.038929000496864243 -0.033895000815391492 -0.076271197163874607 -0.074932999908924033 -0.060279659368099446 -0.040795561272889989 -0.076438002288341481 -0.061544500291347497 -0.028189499862492046 0.018272654605606734 -0.044929893111747395 1.0000000180025095e-35 -0.037993999198079047 0.08134800195693967 -0.040915001183748197 -0.031115495629893384 -0.038748443784921018 -0.035051001235842642 0.082384500652551609 -0.10948299989104268 0.096100434793901804 0.12420063014032216 0.045799000188708257 -0.0064054999966173991 0.053954999893903711 -0.0049073770942461119 -0.013372499961405949
decision_type=2 2 2 2 2 2 2 2 2 2 2 2 2 2 2 2 2 2 2 2 2 2 2 2 2 2 2 2 2 2
left_child=1 2 -1 6 5 -5 -4 -6 -3 -10 -11 -12 13 27 -15 -16 17 18 19 -14 21 -18 -19 -24 -22 -20 -23 28 29 -2
right_child=12 8 3 4 7 -7 -8 -9 9 10 11 -13 16 14 15 -17 20 22 25 -21 24 26 23 -25 -26 -27 -28 -29 -30 -31
leaf_value=0.13491541885869826 -0.11932078260498684 -0.10683256710421683 -0.11051214897075669 0.19010288141806925 -0.049060978446023737 -0.078146356984409776 0.17570586507758032 0.076556333540807139 -0.16774692838655283 0.14089557359168101 0.075808677676133043 -0.077754267079720357 0.15314386204225902 0.00063667665852493356 0.043611241233437577 -0.12978965106757434 0.07375309163576764 0.05434200404678468 -0.093917335538860391 0.015203870833559356 -0.025890175363829929 0.1037560455799658 -0.063375335785779724 0.022820705564254105 0.21853247595721204 0.066205743645164711 -0.20066919970791017 0.097655703603535968 -0.041213087601549472 0.11844467392368732
leaf_weight=15.070286298985591 1.8445187845500193 11.054893199237993 1.7140823584049929 2.1123799458146122 9.553394747432316 21.931117475731298 8.6997208968969044 26.892123452445961 3.208362092729657 7.4465299486182657 6.8752461078111144 9.6207696744240803 8.6826886711642164 1443.1574321563239 4.7689274455769946 11.309196570597122 32.216332734678872 10.544959167134946 14.684240131638946 22.172376381698996 60.978331784979673 1.5718847215175626 120.35675631271442 18.678571844793623 1.8135660560801614 5.5704371214378616 3.0754764142911872 25.161930238537025 15.542723274324088 11.06682765064761
leaf_count=179 34 229 19 21 117 239 124 285 56 84 122 176 79 4722 74 218 370 152 279 317 919 15 2129 369 15 68 40 370 275 177
internal_value=0 0.022172 0.0424572 0.0228053 0.0045925 -0.0545789 0.128595 0.0436285 -0.0234751 0.0104651 0.034346 -0.013752 -0.0014703 0.00169636 -0.000233693 -0.0783573 -0.0174209 -0.0297566 0.0128448 0.0540205 0.00742133 0.0521378 -0.044313 -0.0517954 -0.0188307 -0.0498803 -0.0977029 0.0542256 0.0158204 0.0844774
internal_weight=0 124.179 85.9731 70.9028 60.489 24.0435 10.4138 36.4455 38.2058 27.1509 23.9425 16.496 1813.2 1512.85 1459.24 16.0781 300.346 200.69 51.1097 30.8551 99.6556 36.8637 149.58 139.035 62.7919 20.2547 4.64736 53.616 28.4541 12.9113
internal_count=12273 1651 984 805 662 260 143 402 667 438 382 298 10622 5870 5014 292 4752 3393 743 396 1359 425 2650 2498 934 347 55 856 486 211
is_linear=0
shrinkage=0.3


Tree=178
num_leaves=31
num_cat=0
split_feature=108 271 106 3 299 113 43 241 229 290 22 196 134 83 217 242 241 120 31 82 56 120 98 90 130 272 234 115 251 262
split_gain=0.798108 1.9143 1.04798 0.837924 0.882105 1.88006 1.71852 1.44426 1.4119 1.40188 1.31787 1.06094 1.64564 1.19545 1.01622 0.974616 0.922364 0.773408 0.75924 0.758728 0.738457 0.717795 0.639734 0.625533 0.919196 0.774323 0.655139 0.644896 0.548778 0.544806
threshold=-0.063578501343727042 0.034301999956369351 0.016001008766150834 -0.10061865419001711 -1.0000000180025095e-35 0.072075120382383881 -0.078887000679969746 0.020726675340991992 -0.021701999939978098 0.032503999769687604 0.024365999735891802 0.013327126045743433 0.0024276758768244241 0.081208385226356691 0.031529000028967809 0.043295500800013507 -0.038864496046727703 -0.019011500291526245 -0.067308148362245454 -0.00082849999307649995 -0.033908130428969875 -0.046282147390432453 0.00080700000398785008 0.023530500009655952 0.012843000236898602 -0.0013360000448300999 0.0030552970833564118 0.039462000131607007 0.072156739485292498 -0.019543000496923896
decision_type=2 2 2 2 2 2 2 2 2 2 2 2 2 2 2 2 2 2 2 2 2 2 2 2 2 2 2 2 2 2
left_child=1 2 18 17 5 6 7 -5 -8 11 -11 12 -6 -13 -12 16 -7 20 -1 22 -2 -21 -4 25 -25 26 -3 -27 -20 -22
right_child=3 23 19 4 9 15 8 -9 -10 10 14 13 -14 -15 -16 -17 -18 -19 28 21 29 -23 -24 24 -26 27 -28 -29 -30 -31
leaf_value=0.14546312247529095 -0.14559984286448582 -0.14357308613321909 -0.12963825733130774 -0.17949448495810788 -0.0004748162103040561 -0.18987868326342291 -0.0048471934833111989 0.14037773396367667 0.077605303980380499 -0.1806610245890638 0.099794605403495593 0.037373817389185285 -0.075516691393228627 -0.095666143839007012 -0.20436869324832274 0.10442529243883321 -0.039180651789799938 -0.17135212406678477 -0.17473540818483346 -0.087724434381685132 0.17248981542997729 0.1569569681615858 0.070088873644774327 0.11727301967445829 -0.15874126530446128 -0.17085831504152155 0.11536051475475098 0.080430851936238751 0.09878762291937157 -0.1025954229208323
leaf_weight=1.0950375248212365 2.0013676439411938 1.5720933651318838 2.5265387063846019 5.1903632180765262 1418.9927201794053 5.0242622356163382 26.053540962340776 1.6820873732212929 66.14389840100921 7.4608144967351091 3.6776669675018638 99.434981724160025 26.797495797160082 6.4745113895623936 1.3520376564702017 2.9891653987579039 13.416161657311022 4.8720084474189189 4.1139855941291925 1.2534743120777418 2.1288324578781617 7.7543795275269023 3.3665405868086964 2.5769094132119781 1.8767412421293554 13.941638278221941 1.9959601768932769 0.98402097495272833 0.78634636697825033 0.93148091551847745
leaf_count=27 57 75 90 93 5753 99 489 23 1077 188 57 1906 497 137 39 35 240 150 130 52 39 153 80 63 55 537 43 26 23 40
internal_value=0 -0.0401516 0.0255392 0.000844724 0.00135697 0.0260898 0.0435179 -0.101203 0.0543055 -0.000548352 -0.100651 0.00025743 -0.00186571 0.0292408 0.0180323 -0.0544812 -0.0802397 -0.0860296 -0.080377 0.0681544 -0.00390435 0.122909 -0.0155401 -0.0999709 0.000962282 -0.124278 0.00127372 -0.154291 -0.130844 0.0887609
internal_weight=0 43.8437 20.8963 1694.62 1684.69 120.499 99.0699 6.87245 92.1974 1564.19 12.4905 1551.7 1445.79 105.909 5.0297 21.4296 18.4404 9.93369 5.99537 14.9009 5.06168 9.00785 5.89308 22.9474 4.45365 18.4937 3.56805 14.9257 4.90033 3.06031
internal_count=12273 1354 555 10919 10633 2056 1682 116 1566 8577 284 8293 6250 2043 96 374 339 286 180 375 136 205 170 799 118 681 118 563 153 79
is_linear=0
shrinkage=0.3


Tree=179
num_leaves=30
num_cat=0
split_feature=267 71 202 205 180 62 104 129 13 251 295 70 103 238 24 261 110 18 221 53 272 288 198 231 185 141 197 13 208
split_gain=0.593445 0.726758 1.19362 1.14757 1.03323 1.42582 1.06607 0.866123 0.840454 0.878228 0.781968 1.18574 1.05904 0.830068 1.41069 1.07186 0.692511 0.77287 1.0282 0.771823 0.734484 0.657192 1.08646 0.641423 0.488581 0.485628 0.383315 0.225216 0.0588824
threshold=-0.084764000028371783 0.0025430000387132003 0.071007804953480511 0.031754751221105902 0.0070625213296718501 -0.0047623028197702017 0.012596824170273772 -0.10123719550002912 -0.09419199824333184 0.0029555000364780005 0.045567000284790958 -0.082054449559960899 -0.073498003184795282 -0.075820501893758732 -0.082727263422679123 0.12668449431657794 0.04909149929881091 0.020926500670611803 -0.07881750166416164 0.045595999807119363 0.046924930910112579 -0.011222499888390249 0.043354525200541949 -0.019657716477648898 0.0050794124815209977 -0.041759500280022545 0.029211793676403201 0.0026269999798387007 -0.0022454999852924997
decision_type=2 2 2 2 2 2 2 2 2 2 2 2 2 2 2 2 2 2 2 2 2 2 2 2 2 2 2 2 2
left_child=16 7 3 4 6 -6 -3 21 -5 -10 13 -12 -13 14 -9 -15 17 18 -1 -19 27 -2 -23 -22 -18 -4 -27 -20 -26
right_child=1 2 25 8 5 -7 -8 10 9 -11 11 12 -14 15 -16 -17 24 19 20 -21 23 22 -24 -25 28 26 -28 -29 -30
leaf_value=0.15302367975860873 0.21101033941979996 -0.058590972788364309 0.22008726948282423 0.19265009148824463 -0.091219990192512548 0.035426698690152067 -0.18459562331190901 0.040392797924360069 0.074534418238832237 -0.094452791010476822 -0.15409278025816173 -0.11670981795706609 0.093243342634046281 0.00013227484734042774 -0.039948351019235676 0.046150248060273992 0.0024078363649813754 -0.044248654678140875 -0.21163567773555347 0.19696194766094824 -0.16091620343866361 -0.1324703664752169 0.21364210629143168 0.1141357432259469 0.22932096419101144 -0.064770351332259751 0.14652987681443266 -0.052261150101896157 0.15690093507531477
leaf_weight=2.0753740100190043 3.0726172039285302 19.135087941540409 2.1350549813359976 2.6133688716217867 14.178050194284873 18.36219023750164 8.8323763683438283 24.525916133541614 6.6310899397358281 4.7508891943725757 2.2901652855798629 2.4063116107136073 21.320439060451459 1666.5702269585454 99.340418294246774 46.83415183564648 1.6599863450974215 1.867350686341523 3.0633265320211667 3.3104447536170483 1.1694001285359266 1.8716167584061616 1.4475414603948591 2.1959813716821373 2.1692071538418531 1.6497220778837793 1.4534073714166877 1.0791127076372502 1.8915406856685875
leaf_count=31 29 256 22 25 271 241 171 229 90 98 29 27 280 8250 1353 515 29 23 55 38 19 31 13 39 18 26 19 20 26
internal_value=0 -0.000411106 -0.0284593 -0.0381917 -0.0560982 -0.0197543 -0.0983844 0.000785142 0.0392256 0.0039984 0.000406963 0.0520527 0.0719504 -0.000324374 -0.0240406 0.00139013 0.050922 0.0165805 -0.0338779 0.10997 -0.0855428 0.11103 0.0184752 0.0185609 0.139532 0.109964 0.034196 -0.170118 0.195587
internal_weight=0 1949.42 79.7412 74.5031 60.5077 32.5402 27.9675 1869.68 13.9953 11.382 1863.29 26.0169 23.7268 1837.27 123.866 1713.4 20.4817 14.761 9.58319 5.1778 7.50782 6.39178 3.31916 3.36538 5.72073 5.23818 3.10313 4.14244 4.06075
internal_count=12273 11975 1219 1152 939 512 427 10756 213 188 10683 336 307 10347 1582 8765 298 225 164 61 133 73 44 58 73 67 45 75 44
is_linear=0
shrinkage=0.3


Tree=180
num_leaves=31
num_cat=0
split_feature=184 102 145 71 217 97 189 32 234 255 244 296 287 239 263 7 213 172 119 149 53 106 35 7 255 161 116 296 297 261
split_gain=0.648248 1.19145 1.00941 1.03165 0.947105 0.881689 0.857542 1.08602 1.00659 0.901753 0.819253 0.803905 0.78917 0.780663 0.749374 0.728717 1.25508 1.20209 1.18247 0.927122 0.880584 0.916032 0.925829 0.770385 0.696806 0.695545 0.906876 0.644023 0.63709 0.531313
threshold=-0.078454239175997961 -0.13581643327850099 -0.0089197407531149773 -0.056481499224901144 0.026771936389139179 -0.032947578931998754 -0.020161499269306594 -0.10294900089502329 0.029633829457471849 -0.0017024129607021803 -0.15126623847809875 0.0079669998958706526 0.004468000028282351 -0.05230600014328949 -0.08455995891689598 0.016596999950706903 0.033989500254392603 0.038244141854861337 -0.12739549577236167 -0.01344455064635155 0.12884612974576556 0.039270459078442004 -0.014575500041246399 0.059988999739289256 0.019148429023063882 0.016086500138044305 -0.0080915451186414512 -0.071203999221324879 -0.00073757469681792222 0.062150500714778852
decision_type=2 2 2 2 2 2 2 2 2 2 2 2 2 2 2 2 2 2 2 2 2 2 2 2 2 2 2 2 2 2
left_child=1 -1 6 4 27 -6 9 -8 -9 12 -5 -11 -3 -2 -12 20 17 18 -17 29 25 22 -22 -19 -21 26 -15 -4 -27 -18
right_child=13 2 3 10 5 -7 7 8 -10 11 14 -13 -14 15 -16 16 19 23 -20 24 21 -23 -24 -25 -26 28 -28 -29 -30 -31
leaf_value=-0.13917680086349007 -0.14020233990856598 -0.014314533116096548 -0.090546590389293677 -0.083542631649962784 0.074121712814161772 -0.11653718108328691 0.18007849177233315 -0.10601098203138941 0.12742303015746501 -0.14470017416097283 -0.07348607221689106 0.096596773275249626 0.16784752684681947 -0.033125221558905668 0.1145582230181086 0.16103525425532619 -0.20861272853125487 -0.043808901971632681 -0.16267083114806263 0.15282356886866869 -0.063514017443271453 0.17874526602452082 0.14713711612390479 0.19763168997773808 -0.06652293301942018 0.10570082312215497 0.00017657654726891119 0.13261387548712697 -0.0091503483884214226 0.04129646369546728
leaf_weight=3.7858021343126884 3.6271887504262841 3.3690870795398933 1.4789456017315386 2.2897469026502213 3.1425796165131041 7.1486859667347717 1.6184578048996652 13.85182671662187 1.8892706513870496 3.3013547111768302 2.0398982129991081 1.992684759898111 5.8691027956083417 76.943864274493535 29.34363396896515 1.1007739938795591 1.7247362192720177 4.2959200592013067 13.128934565582314 5.325803979765622 5.0394699887838206 4.9796029012650243 2.9930362994782618 1.6447976583149282 1.7258287547156212 10.496207274554765 1691.5195346375986 5.4634307089727399 7.4194798329262985 1.3768653925508259
leaf_count=61 124 62 22 47 42 129 19 261 36 74 25 35 72 1451 488 13 27 72 269 70 96 44 52 16 25 188 8198 82 153 20
internal_value=0 0.025401 0.0329259 0.0591436 -0.000553632 -0.0583169 -0.00892368 -0.0539334 -0.0779939 0.0448429 0.089696 -0.0538756 0.101415 -0.00116295 0.102336 -0.000887324 -0.0470065 -0.0903088 -0.13763 0.039018 -0.000110117 0.07765 0.0149779 0.0230384 0.0991403 -0.000676527 -0.00127235 0.0850736 0.0581371 -0.0976728
internal_weight=0 86.5845 82.7987 50.9069 17.2336 10.2913 31.8918 17.3596 15.7411 14.5322 33.6733 5.29404 9.23819 1833.34 31.3835 1829.71 30.3237 20.1704 14.2297 10.1532 1799.39 13.0121 8.03251 5.94072 7.05163 1786.38 1768.46 6.94238 17.9157 3.1016
internal_count=12273 1455 1394 835 275 171 559 316 297 243 560 109 134 10818 513 10694 512 370 282 142 10182 192 148 88 95 9990 9649 104 341 47
is_linear=0
shrinkage=0.3


Tree=181
num_leaves=31
num_cat=0
split_feature=240 275 265 118 187 229 201 111 83 283 29 234 83 112 271 159 124 145 122 125 161 243 122 263 260 37 89 154 106 158
split_gain=0.838497 1.93841 1.71581 1.58097 1.36358 1.12986 1.08709 1.14224 0.798495 0.812463 0.761301 0.877501 1.71175 1.45416 1.29211 1.83632 1.2257 1.24972 1.20589 0.994635 0.83463 0.677464 0.676629 0.623829 0.972198 0.6001 0.596261 0.587334 0.53419 0.45603
threshold=0.13442799448966977 0.018693000078201256 0.036837000399827909 0.014863048355642604 -0.060066176036906511 -0.0016405000351368498 -0.042212998494505848 0.03778667405047989 -0.023580499924719247 0.039310225602801584 0.14371700584888458 -0.0053825001232325493 0.078245827027074596 -0.065469000488519641 -1.0000000180025095e-35 -0.0016717903815573266 -0.011009938821118568 0.037404339260885593 0.029715999960899304 -0.01533049996942275 -0.099881500005721977 0.056781415726148886 -0.027974499389529148 -0.0085499999113380475 0.12287399917840951 0.027631000615656352 0.019509892125180794 0.034865999594330753 0.060378501191735205 -0.041004499420523595
decision_type=2 2 2 2 2 2 2 2 2 2 2 2 2 2 2 2 2 2 2 2 2 2 2 2 2 2 2 2 2 2
left_child=10 2 4 5 -2 25 -6 -8 9 -3 11 13 14 20 19 -16 17 -15 -18 -13 -1 -22 26 -10 -25 -4 -12 -28 -14 -5
right_child=1 8 3 29 6 -7 7 -9 23 -11 22 12 28 16 15 -17 18 -19 -20 -21 21 -23 -24 24 -26 -27 27 -29 -30 -31
leaf_value=0.091968031155238425 -0.1796929678686417 0.14703901706680803 0.17101631019403682 -0.21447464808909983 -0.19515882566052678 -0.13701097411920565 -0.054740618155458512 0.11428898496563654 -0.2090681701854844 -0.17103500029369662 -0.21480852665176389 -0.01563049499673588 -0.19806151359941157 -0.013300058740881124 -0.078449281961749495 -0.00010827285851588507 0.055489582956904461 0.057663617637775333 -0.13523455282485258 0.13237402668940795 -0.11430401457590547 0.11619599882092438 0.067213190508537884 -0.18805291813523536 0.16286298621285783 0.0053524985841593795 -0.18905538512886425 0.18108208389602154 0.016721791955338617 0.024084269749450802
leaf_weight=2.5514678402105373 5.9916960366535923 1.6536578744417068 10.317964122397823 1.9466708048712464 2.530149970669302 1.4858315661549575 8.390132111351706 6.2997952695004633 8.4265418005816155 1.2838962655332578 3.7621417315676808 6.3477746883872923 5.1933805289445436 89.208494842081564 27.467070706974482 1373.5299201801245 96.405032300535822 29.794222753727809 3.0788771054940289 11.471848895307629 13.150131124712059 1.2573138372972597 1.6984757728641842 1.7957564944517774 1.1757748019881544 2.4317396648693839 0.73072523297741987 0.81747666979208589 1.3038042294792829 1.1455867185723025
leaf_count=54 88 26 115 38 63 29 172 84 146 25 60 182 139 1701 664 5331 1913 536 51 186 382 33 43 61 19 38 26 15 32 21
internal_value=0 -0.0366293 -0.00309995 0.068333 -0.0564253 0.110567 -0.0135345 0.017748 -0.131446 0.00802063 0.00105966 0.00147605 -0.00132668 0.0184429 -0.000623147 -0.00164418 0.0250115 0.00446683 0.049587 0.0796513 -0.0661814 -0.0941887 -0.0976052 -0.16739 -0.0492026 0.139419 -0.150321 0.00638343 -0.15496 -0.126096
internal_weight=0 54.8752 40.5396 17.3278 23.2118 14.2355 17.2201 14.6899 14.3356 2.93755 1667.77 1660.76 1425.31 235.446 1418.82 1401 218.487 119.003 99.4839 17.8196 16.9589 14.4074 7.00882 11.3981 2.97153 12.7497 5.31034 1.5482 6.49718 3.09226
internal_count=12273 925 648 241 407 182 319 256 277 51 11348 11204 6534 4670 6363 5995 4201 2237 1964 368 469 415 144 226 80 153 101 41 171 59
is_linear=0
shrinkage=0.3


Tree=182
num_leaves=31
num_cat=0
split_feature=217 180 36 56 140 183 199 62 87 38 242 240 8 172 31 149 223 2 240 298 68 112 97 12 150 147 90 76 91 265
split_gain=0.567329 1.07834 1.05329 0.955052 1.02688 0.991056 0.931251 0.928641 0.894635 0.872159 0.953561 0.977759 0.88366 0.773455 0.70288 0.702532 1.06048 0.713405 1.40253 1.65227 1.46151 1.27803 1.3028 1.08307 0.693515 0.693457 0.672119 0.712124 0.600554 0.682653
threshold=0.093936000019311863 0.0420220740323815 0.032751500606536803 -0.057327000424265792 -0.10097719203225777 -0.017040500417351698 -0.0042062692661962086 -0.017977358321337771 0.0091708164365463564 0.071520499885082203 -0.089281586775787777 0.045050499960780109 0.090532500296831117 -0.008239336938898523 -0.050233500078320441 -0.075646810991978994 -0.038150001317262587 -0.024437500163912749 0.045050499960780109 -0.027670931803104416 -0.087687499821186024 0.087415996938943821 0.036236500367522205 -0.073129497468471485 0.017218999564647654 -0.033510507669871854 -0.03420850075781344 -0.066577997058629934 0.037197500467300353 -0.024694999679922999
decision_type=2 2 2 2 2 2 2 2 2 2 2 2 2 2 2 2 2 2 2 2 2 2 2 2 2 2 2 2 2 2
left_child=9 2 3 4 -2 6 -5 14 -6 15 -11 12 24 -7 -3 16 25 18 19 -17 -20 23 -23 -19 -12 -1 -13 -28 -18 -30
right_child=1 7 -4 5 8 13 -8 -9 -10 10 11 26 -14 -15 -16 17 28 21 20 -21 -22 22 -24 -25 -26 -27 27 -29 29 -31
leaf_value=0.072824785586069696 0.14946645365127981 0.1380550337896686 -0.17214067628055787 0.12608363677976619 -0.093219248728079462 0.067420313667642132 -0.069330834032019548 0.11908627204430952 0.043982645633494813 0.1181337899611036 0.054724241201996579 -0.2105238451337281 0.129691296089819 -0.088044608673816804 -0.07399676859484626 -0.099599036963615911 0.13436089691497194 0.053736525331382547 0.019716636999740678 0.048937241272056335 -0.054754070157117071 0.14322737819622758 -0.11622226103578248 -0.00064758067002080178 -0.13621953658245792 -0.1773040213855481 -0.21373088826713568 -0.02678111281640148 -0.14689329085036004 0.13700464462367606
leaf_weight=1.7004345841705797 2.4942820728756514 1.9779282542876897 2.9466467797756186 14.193113536108287 15.015680233016612 5.2384068584069619 2.5962900714948765 16.118506602477282 5.981004894245415 2.6231160940951694 2.8468677368946391 5.0493886861950186 3.1961305539589375 6.3976125144399711 4.872318651527169 8.0850296704738849 10.439364448189734 33.647400438087061 31.800488692242652 40.513757545268163 93.313844004645944 10.030381793156264 2.1079194946214548 1607.4320241100213 4.2942187101580203 2.4132945770397809 2.4748253640718776 7.0795731949619878 1.6607604790478947 1.409027266781776
leaf_count=30 22 28 49 157 175 102 37 239 67 33 41 101 45 109 101 165 115 455 331 604 1140 104 30 7673 80 33 41 120 19 27
internal_value=0 0.0251866 0.00233855 0.0122416 -0.032518 0.0492311 0.095865 0.0797614 -0.0541366 -0.000953365 -0.0539229 -0.0720186 -0.00141755 -0.018056 -0.0127693 -0.000161814 0.0594499 -0.000736839 -0.0190253 0.0242263 -0.0358257 0.00118484 0.0981717 0.000467468 -0.0600978 -0.0739118 -0.121993 -0.0752057 0.10006 -0.0165846
internal_weight=0 77.8318 54.863 51.9164 23.491 28.4254 16.7894 22.9688 20.9967 1872.12 27.5641 24.941 10.3372 11.636 6.85025 1844.55 17.6229 1826.93 173.713 48.5988 125.114 1653.22 12.1383 1641.08 7.14109 4.11373 14.6038 9.5544 13.5092 3.06979
internal_count=12273 1086 718 669 264 405 194 368 242 11187 461 428 166 211 129 10726 224 10502 2240 769 1471 8262 134 8128 121 63 262 161 161 46
is_linear=0
shrinkage=0.3


Tree=183
num_leaves=29
num_cat=0
split_feature=216 56 39 115 152 160 245 10 133 84 148 245 59 240 127 68 259 29 107 190 90 68 89 27 50 279 59 262
split_gain=0.627587 0.871015 0.856231 0.964701 0.715147 0.65414 0.741629 0.745745 0.740027 0.785533 1.08419 0.699703 0.750438 0.612873 0.808748 0.606183 0.596415 0.563927 0.521954 0.489001 0.472526 0.476753 0.441485 0.331209 0.297155 0.274154 0.0494656 0.00020212
threshold=-0.13325149565935127 0.0067910000216215511 -0.071094501763582132 0.035286588797034425 -0.00034458219583753793 0.074705000966787311 -0.1048386869564062 -0.077316999435424735 -0.076742000877857194 -0.015794500708579944 0.055725000798702205 0.05924498157890843 0.089507263339432819 0.17028449475765228 0.026686499826610002 -0.063156994963451521 0.041755499318242011 -0.0030888122832358291 0.015430499799549552 0.006087384360323236 -0.016627999953925599 -0.043863499537110238 -0.047729000449180541 0.033755499869585003 0.028845500200986803 -0.012500500306487047 0.0072756047692247982 -0.0081858538464600703
decision_type=2 2 2 2 2 2 2 2 2 2 2 2 2 2 2 2 2 2 2 2 2 2 2 2 2 2 2 2
left_child=1 2 4 13 -1 6 20 17 -7 18 15 12 -9 14 -4 -11 -13 -8 22 -12 26 -22 -10 -3 -20 -19 -2 -28
right_child=5 23 3 -5 -6 8 7 11 9 10 19 16 -14 -15 -16 -17 -18 25 24 -21 21 -23 -24 -25 -26 -27 27 -29
leaf_value=-0.19178162755451372 0.12610350930429565 0.015139495062676925 0.16190884015222159 -0.10565914220566906 0.10175309584495006 0.11003296226386081 -0.091052120509976811 -0.0009921589141877068 0.12499611736355289 -0.07943358105302939 -0.15062068257335329 -0.10490546859763093 0.047432352799570456 -0.04517893788761209 -0.053225408873401936 0.16590540620072333 0.049649997517536133 0.06732030607860176 -0.1156506211790946 0.055223821157010022 0.14481705800278066 -0.066766114890146402 -0.1778340727185799 -0.19628274226893572 0.14872743911167388 0.21616576960284226 0.21271445751057802 0.20685728647115051
leaf_weight=1.9153848087298686 0.91157693183049593 1.1186069725081318 13.047537215054041 1.9867089260369528 1.2245813237968892 2.2804989886935827 1.0363811841234563 1802.3628148724238 0.45881466427818107 1.2557522469433022 4.2202094272070099 10.027255506953223 29.27002688345965 1.8954923003911961 1.7882041307166208 3.2578952743206138 2.8961177258752278 1.9122123676352201 0.69898589857621185 1.3777445042505858 1.7325101774185898 2.1452626914251587 7.7826147545129061 1.6513440207345409 0.84539720637258142 2.6669694455340496 0.89889359660446722 1.2929103951901191
leaf_count=35 26 23 196 25 18 37 18 10439 15 31 129 197 430 13 52 44 42 42 34 24 34 39 200 34 15 30 14 37
internal_value=0 0.0475826 0.0676667 0.0919857 -0.0773036 -0.000620172 -8.53858e-06 -0.000376793 -0.0518377 -0.0703901 -0.0117502 -0.000709117 -0.000218321 0.115455 0.135978 0.0976491 -0.0702697 0.108782 -0.130982 -0.0999591 0.0975877 0.027765 -0.160975 -0.110903 0.0290703 0.15401 0.184833 0.209259
internal_weight=0 24.6279 21.8579 18.7179 3.13997 1879.33 1857.15 1850.17 22.1779 19.8974 10.1116 1844.56 1831.63 16.7312 14.8357 4.51365 12.9234 5.61556 9.78581 5.59795 6.98115 3.87777 8.24143 2.76995 1.54438 4.57918 3.10338 2.1918
internal_count=12273 396 339 286 53 11877 11348 11198 529 492 228 11108 10869 261 248 75 239 90 264 153 150 73 215 57 49 72 77 51
is_linear=0
shrinkage=0.3


Tree=184
num_leaves=31
num_cat=0
split_feature=31 54 204 7 72 97 142 229 216 36 5 1 244 246 110 94 173 59 240 27 246 112 269 133 132 295 40 169 108 162
split_gain=0.741827 0.987474 1.03201 1.12373 1.05587 0.916333 1.01969 1.48331 1.90978 1.48778 1.41996 1.3944 1.2939 0.986743 1.0083 0.94072 0.926472 0.852398 1.12772 0.971666 0.847379 0.789797 0.788142 0.898044 0.787036 0.76914 0.738925 0.511801 0.511023 0.493555
threshold=-0.082814000546932179 -0.068670500069856588 0.018380999565124453 -0.089305501431226689 -0.041631499305367442 -0.069194505158165776 -0.00036399999225974995 -0.025894999504089296 -0.096661496907472541 -0.042604468114135395 -0.033237226248318132 -0.067685499787330586 -0.060572961402787825 -0.0020045000128447493 0.04909149929881091 0.049149001017212854 -0.011229829873786724 -0.026688929367669482 0.13058073609140894 0.035478353921325624 0.0096932297348642695 -0.076156001538038184 0.15947599709033963 -0.0084639997221528981 -0.045834999531507443 -0.092257998883724185 0.056439498439431156 -0.09726550057530399 0.019377499818801856 0.11636349931359287
decision_type=2 2 2 2 2 2 2 2 2 2 2 2 2 2 2 2 2 2 2 2 2 2 2 2 2 2 2 2 2 2
left_child=1 -1 3 4 -3 13 7 8 28 11 -11 -9 -10 21 16 17 26 19 -19 -8 -16 -2 23 -5 -6 -4 -15 -23 -7 -17
right_child=5 2 25 22 24 6 15 9 12 10 -12 -13 -14 14 20 29 -18 18 -20 -21 -22 27 -24 -25 -26 -27 -28 -29 -30 -31
leaf_value=-0.17924980124250225 0.20184937019406535 -0.19115197215110491 0.14142776951428163 0.084824895153825311 0.14754754173393905 -0.17877075871618597 -0.024926139080225944 -0.13022527436383788 0.042732384087796352 0.015870696349454896 0.099975955354993526 0.020059880842958171 -0.054457896934062146 -0.16497690290273453 0.065759621236794963 -0.16522429301415356 0.14460381224163979 -0.00062723369362468106 -0.10292032788260605 0.10800731375973695 -0.17939389841727155 0.018347999461770167 -0.16016998952922945 -0.057616159646853002 -0.065682130724762658 -0.17684459114382714 0.10321463674426151 -0.18174733178822619 0.042076400324557846 0.10787013082821212
leaf_weight=4.0386986559606148 0.60379946592729439 4.5949617730220771 0.78152354713529337 16.367390139435884 2.0866639968589871 7.1997306303528585 7.8246011163573739 6.360399088531266 31.953951317234893 29.415532336774049 46.8258793681307 43.960393991095771 20.072139892086856 2.2161867219838309 1.8446733277523879 4.4679623524716581 4.8607510454021385 1414.2038651195617 9.7665506156918109 13.464144147932528 4.0658170060778502 1.3484948794357468 1.7318209835793812 5.2649428147124224 6.1480755968950644 5.440582397452089 1.5864811512292361 7.8337238688836832 1.085091140354052 0.68720414553536091
leaf_count=92 6 84 11 306 31 171 152 157 522 524 792 948 444 67 36 163 71 6277 256 264 88 22 42 111 142 172 43 238 22 19
internal_value=0 -0.0375029 -0.0240063 -0.00460415 -0.0759388 0.000933702 0.00179302 0.0226507 -0.0160678 0.0411012 0.0675264 0.00106428 0.00523549 -0.0568231 -0.00734643 -0.000894304 0.0578307 -0.000438 -0.00132883 0.0591481 -0.102881 -0.130507 0.0345671 0.0501572 -0.0116502 -0.136868 -0.0530868 -0.152361 -0.149846 -0.12882
internal_weight=0 46.4547 42.416 36.1939 12.8297 1661.65 1637.29 186.873 60.3109 126.562 76.2414 50.3208 52.0261 24.3599 14.5739 1450.41 8.66342 1445.26 1423.97 21.2887 5.91049 9.78602 23.3642 21.6323 8.23474 6.22211 3.80267 9.18222 8.28482 5.15517
internal_count=12273 991 899 716 257 11282 10711 3580 1159 2421 1316 1105 966 571 305 7131 181 6949 6533 416 124 266 459 417 173 183 110 260 193 182
is_linear=0
shrinkage=0.3


Tree=185
num_leaves=31
num_cat=0
split_feature=233 227 154 246 108 265 195 77 292 150 4 171 257 97 278 22 12 127 169 273 267 263 267 269 292 43 185 157 241 237
split_gain=0.525306 0.982387 0.79849 0.748514 1.02029 0.738098 0.728751 0.703557 1.05845 0.956339 0.798621 1.08041 1.17758 0.979424 0.904305 1.20812 0.77545 0.772753 0.912299 0.700265 0.830184 0.722426 0.69007 0.866452 0.645296 0.637073 0.634431 0.627375 0.605204 0.515149
threshold=0.070872496834045173 -0.022618892256006776 -0.026882500387728197 -0.018450940069051989 0.032123236171799845 -0.021753000095486596 0.086474350840095041 -0.096891999244689886 0.032059070070418243 0.081568498164415318 -0.08194799721240989 -0.005315999966114749 -0.023226999677717595 -0.023480980695800836 0.054771499708294862 -0.028791134532698773 -0.013972500339150399 -0.012923263393609776 0.05494249984622001 0.082735501229762962 0.0094625535700073055 0.0037839999422430502 -0.084764000028371783 -0.023435213947936573 -0.082380998879671027 -0.042262207926502739 -0.030052922234106844 0.0050275002140551008 0.028428931415359914 -0.0064002141556996003
decision_type=2 2 2 2 2 2 2 2 2 2 2 2 2 2 2 2 2 2 2 2 2 2 2 2 2 2 2 2 2 2
left_child=7 2 5 6 -5 -2 -4 8 9 17 11 12 -9 -14 15 -13 -10 18 -1 22 24 -22 27 -24 -21 -19 -7 -12 -3 -11
right_child=1 28 3 4 -6 26 -8 10 16 29 19 14 13 -15 -16 -17 -18 25 -20 20 21 -23 23 -25 -26 -27 -28 -29 -30 -31
leaf_value=-0.14514965222216633 0.17220462435837344 0.15160647781200307 0.13340712048791176 -0.1776789370440047 0.1198012706744369 -0.17539779175420367 -0.11379984876273447 0.17490742685342694 0.16996528810617259 -0.071870008857523038 0.16262009617746476 -0.13802249697935698 0.12617311612257354 -0.026057325185258128 -0.17860409391953394 0.071278346505310675 -0.073369205711534186 0.15391532183732973 0.12561598806158392 0.021073558517673018 0.076563069614606058 -0.1332571982239121 -0.047787098375870592 0.00033431733582288284 -0.14323882127183638 -0.091216354691099955 0.10360238718059946 0.023856144616651562 -0.078623545939721581 0.18072369784699485
leaf_weight=15.387519809883097 3.6806850368157029 7.9366460279561561 2.9206406353041556 5.025926503702066 1.3076219633221624 1.4016332109458747 1.696755821816623 8.1452395669184625 3.1149570187553763 1.1891015674918892 4.2581901280209413 3.4221316091716281 6.3224757352145362 9.5480359959183279 2.6702430685982099 9.0353776235133392 1.8961358433589328 1.8010979164391758 1.2078431826084841 2.7928123716264972 5.5765540590509763 2.0088905487209558 34.328883897920605 1768.4579488597519 9.3618862485163845 2.0292352258693453 1.5388961900025631 9.4178406950086337 1.180425005033612 1.8684901404194523
leaf_count=290 54 126 40 99 22 28 26 72 40 24 61 54 64 144 38 123 36 16 17 32 61 37 607 9724 143 57 21 160 29 28
internal_value=0 0.0418916 0.000433534 -0.0492928 -0.116261 0.0826768 0.0425659 -0.000490443 -0.0472765 -0.0739859 0.000220434 0.0426219 0.0821791 0.0345881 -0.0201762 0.0137825 0.0778905 -0.0974092 -0.125443 -0.000683466 -0.0568827 0.0209953 -7.27298e-05 -0.000582016 -0.105484 0.0240494 -0.0293859 0.0670619 0.121798 0.0824897
internal_weight=0 26.6892 17.5722 10.9509 6.33355 6.62121 4.6174 1903.84 28.4944 23.4833 1875.35 39.1435 24.0158 15.8705 15.1278 12.4575 5.01109 20.4257 16.5954 1836.2 19.7401 7.58544 1816.46 1802.79 12.1547 3.83033 2.94053 13.676 9.11707 3.05759
internal_count=12273 445 290 187 121 103 66 11828 508 432 11320 495 280 208 215 177 76 380 307 10825 273 98 10552 10331 175 73 49 221 155 52
is_linear=0
shrinkage=0.3


Tree=186
num_leaves=31
num_cat=0
split_feature=242 6 24 202 106 255 119 107 31 121 181 134 214 37 198 253 95 147 275 23 262 142 86 137 58 237 223 291 173 172
split_gain=0.579125 1.07492 0.979134 1.05682 1.10534 1.01173 1.15549 1.00688 0.96964 1.28744 1.37971 0.977549 0.900137 0.897211 0.892602 0.916098 0.863762 0.859418 1.12925 1.67268 1.63939 0.84746 1.04188 0.840324 0.807587 0.921992 0.774684 0.969591 0.748327 0.722303
threshold=-0.035831582699346991 -0.12000755825170054 1.0000000180025095e-35 0.018683805936076828 0.045244500041007961 -0.009322024777036966 -0.081337500363588291 0.024621999822556907 -0.065187901680273816 0.024814500473439655 0.079742997884750366 0.020199500024318653 0.011440499685704651 -0.023583999834954697 0.093127001076936708 -0.06746800243854513 0.027236929049857861 -0.1032369993627071 -0.00039262693654089782 0.022413500584661902 -0.038631605613199498 0.023245500400662353 0.061523498967289904 -0.11795099824666969 -0.044728731557290687 -0.058128999546170193 0.012695414399145882 0.019588744625327326 -0.036489499732851947 0.02046768330150216
decision_type=2 2 2 2 2 2 2 2 2 2 2 2 2 2 2 2 2 2 2 2 2 2 2 2 2 2 2 2 2 2
left_child=1 -1 14 5 7 6 -4 16 9 13 11 -11 21 28 17 -16 -5 -2 20 -20 -19 22 -10 -8 -7 -26 27 -14 -3 -28
right_child=2 8 3 4 -6 24 23 -9 12 10 -12 -13 26 -15 15 -17 -18 18 19 -21 -22 -23 -24 -25 25 -27 29 -29 -30 -31
leaf_value=-0.088182924457240561 0.10700248233138909 0.075785037229705407 0.060275524935876859 0.093826123179336099 -0.12422402141805254 0.026701277615111398 0.11637553165388105 -0.13940831487141669 0.072057971577517088 -0.049464028766684182 -0.18071103750686213 0.14916999171040951 0.019627799702806242 0.12414324958086959 -0.11239346530364451 0.11008412756031689 -0.021907843068392611 -0.065336850363274496 -0.0002314611296494084 0.059411902149305168 0.0026415220128553733 0.14578856196622345 -0.081055428073740471 -0.082376630598543402 0.0026616537142986579 -0.15939200645873475 0.010832036463870084 -0.11420115509085207 -0.18732798812594179 0.17312639866394283
leaf_weight=7.6481579596875227 6.6816607692744574 1.9873475283384325 10.270142696448604 16.070755434135215 4.6879887405084437 3.5897962970193502 2.1288050492876236 2.7422128996113306 27.913357605939382 11.1811148946872 6.1162497776094815 2.785311678890138 15.761372685257813 7.5864271186292189 1.9511791891418386 11.387379992054774 9.0847132083144952 57.74147974542575 1494.2041149288561 43.552063234208617 71.423178445489611 11.196749266266123 4.66872971470002 19.022275197436102 3.9259197700303075 16.190726086613722 5.9843170729000104 7.0523337457561857 1.9057921204948796 4.2003844543360174
leaf_count=172 90 26 172 322 128 76 48 94 429 183 57 43 296 99 29 162 264 992 5148 526 1231 197 77 488 93 482 105 143 34 67
internal_value=0 0.0205145 -0.00136562 -0.0322688 0.0105624 -0.057586 -0.0222847 0.0332122 0.0281879 -0.0160776 -0.0618868 -0.00985063 0.0463849 0.0640622 0.000241208 0.0775399 0.0520296 -0.000374859 -0.000805269 0.00145775 -0.0277474 0.0745865 0.0501182 -0.0623727 -0.104375 -0.127766 0.00897001 -0.0217424 -0.0530156 0.0777656
internal_weight=0 115.988 1774.65 87.7133 32.5857 55.1277 31.4212 27.8977 108.339 31.5622 20.0827 13.9664 76.7772 11.4796 1686.94 13.3386 25.1555 1673.6 1666.92 1537.76 129.165 43.7788 32.5821 21.1511 23.7064 20.1166 32.9984 22.8137 3.89314 10.1847
internal_count=12273 1928 10345 2167 808 1359 708 680 1756 442 283 226 1314 159 8178 191 586 7987 7897 5674 2223 703 506 536 651 575 611 439 60 172
is_linear=0
shrinkage=0.3


Tree=187
num_leaves=31
num_cat=0
split_feature=141 260 53 193 166 27 229 237 178 1 8 20 98 67 173 176 147 182 188 264 160 20 123 197 56 200 284 215 93 283
split_gain=0.701715 1.08761 0.67922 1.26496 1.36827 1.3526 1.11378 1.57867 1.07947 1.10112 0.917686 0.90053 1.13679 1.01352 1.16036 1.01112 1.10045 1.0705 0.947606 0.920307 0.869023 0.825363 0.81287 1.0909 0.754619 0.749976 0.740158 0.59132 0.589737 0.456025
threshold=0.076883371963321137 0.043605970859644717 0.10179900005459781 0.017399514193785787 0.057756498456001261 0.030463071409506024 -0.02629094635550908 -0.0079482676518155392 -0.017559001000970263 -0.032327000051736741 0.087799999862909262 0.038246998563408803 -0.0068547154857187898 -0.0014795695384890656 -0.075270000845193835 -0.10967478215566551 -0.10679500177502624 -0.049084503141541135 0.0041339998133480002 0.0031744999578222004 -0.050142999738454742 0.0026731707740729085 -0.11296200007200234 0.021105499938130306 0.0049737893247827564 -0.062258661705023553 0.11855250224471087 0.019996644669317162 -0.035554999485611839 -0.011994495560233074
decision_type=2 2 2 2 2 2 2 2 2 2 2 2 2 2 2 2 2 2 2 2 2 2 2 2 2 2 2 2 2 2
left_child=2 27 11 5 22 8 7 -7 9 -4 -8 15 13 25 -15 16 -1 21 26 -20 -19 -17 23 -5 -18 -13 -14 28 -2 -24
right_child=1 -3 3 4 -6 6 10 -9 -10 -11 -12 12 18 14 -16 17 24 20 19 -21 -22 -23 29 -25 -26 -27 -28 -29 -30 -31
leaf_value=0.17351405524061184 0.11275851568330172 -0.13320498433776692 0.13270328244036558 0.14576590507817636 0.19223831746772063 0.086297059581622551 0.11248859214718544 -0.142182990084604 -0.20970265924630108 -0.19391505284433183 -0.14250404587744575 -0.16528443476833674 0.12743668464922522 -0.20887892685138079 0.056618648919847685 0.10015529228314031 -0.15006321709246453 -0.0532333280580937 0.046882281094948186 -0.14952515136525366 0.00084204311376456136 -0.065229262387430986 0.0018782247434881475 -0.15972425044084618 0.07977550211166208 0.0022787311453373628 -0.10260311374330337 0.071981654000622577 -0.15281915599004275 -0.19819593550494197
leaf_weight=1.3061925282236178 1.0354077668453103 8.9804550753105996 2.4197426061145966 1.9422250729985524 1.2884061325457867 4.9620905686169863 13.05392275923805 6.0280156829394382 4.3450011435779725 1.5078170038759706 1.4071510356152419 5.2233414594957139 19.578120546822905 1.6303455308661821 16.232025348523166 15.70365834538825 9.2477241587475856 27.231556945742341 13.663290612981656 2.5474582554015788 1503.0484744655405 3.2836825088015749 1.1546134464442719 2.2953887735493481 1.4932505830656726 4.4538150728622004 1.3453121483325947 5.8261943517427426 2.7543121102207824 9.1544396306126128
leaf_count=23 24 361 40 26 22 93 240 91 102 44 44 148 335 78 397 366 219 621 294 75 7846 115 16 36 34 123 18 161 91 190
internal_value=0 -0.0581309 0.00046736 -0.0341303 -0.104075 -0.00128733 0.0329661 -0.0390231 -0.106671 0.00731227 0.0876762 0.00152187 0.036211 -0.00997466 0.032386 8.49552e-05 -0.0864913 0.000758176 0.0704632 0.0160176 -0.000120236 0.0715536 -0.13032 -0.019709 -0.11811 -0.0881652 0.112646 0.0119821 -0.0802594 -0.175788
internal_weight=0 18.5964 1675.55 49.5588 15.8351 33.7237 25.4512 10.9901 8.27256 3.92756 14.4611 1625.99 64.6737 27.5395 17.8624 1561.31 12.0472 1549.27 37.1342 16.2107 1530.28 18.9873 14.5467 4.23761 10.741 9.67716 20.9234 9.61591 3.78972 10.3091
internal_count=12273 637 11636 944 290 654 468 184 186 84 284 10692 1468 746 475 9224 276 8948 722 369 8467 481 268 62 253 271 353 276 115 206
is_linear=0
shrinkage=0.3


Tree=188
num_leaves=31
num_cat=0
split_feature=50 52 77 80 277 206 46 80 260 275 188 267 275 3 218 164 108 37 95 76 68 160 186 137 190 29 188 129 168 95
split_gain=0.542957 1.12753 1.2934 0.894081 0.855003 1.09035 0.953135 1.29281 0.888811 0.819719 0.814759 1.08552 1.23416 0.809614 0.802196 1.13628 0.78162 0.802776 0.70684 0.698939 1.55737 1.34074 1.21592 1.48218 1.0283 1.36216 1.12813 0.953812 0.933692 1.32721
threshold=-0.016369000077247547 0.035107500851154307 -0.093345500528812339 0.05268649943172931 -0.010851066381304 -0.0070344055253100798 0.058372999210970063 0.0091113897767799764 0.14339250326156619 -0.079621212336537586 0.030825324114190773 0.0034243043014105887 -0.0026400000788270998 0.021101499907672353 -0.024454000405967145 -0.015526000410318298 0.0024992527926328959 -0.021103309972403537 0.033591501414775807 -0.025665805574374641 -0.065454501658677985 0.056979005695634244 0.04461999982595441 -0.04435252862759085 -0.062637966815922472 0.031165395482795604 0.056110000237822505 0.025531500577926605 0.030596999451518003 -0.010410499759018399
decision_type=2 2 2 2 2 2 2 2 2 2 2 2 2 2 2 2 2 2 2 2 2 2 2 2 2 2 2 2 2 2
left_child=1 2 18 19 5 -4 8 -8 -6 -5 11 12 -11 -12 16 -16 -3 -18 -1 21 22 28 27 -24 25 -22 -26 -21 29 -2
right_child=3 14 4 9 6 -7 7 -9 -10 10 13 -13 -14 -15 15 -17 17 -19 -20 20 24 -23 23 -25 26 -27 -28 -29 -30 -31
leaf_value=-0.13730297786718945 -0.068196330115622372 -0.20817554901028598 0.053032751664235669 -0.18215355185928903 0.088446329147454095 -0.12787271570691436 -0.074384558105089024 0.072525887611277984 -0.10547733529630586 0.086123579640102421 -0.14364264413084146 -0.10259198762471501 -0.063375720776441075 0.069405108297710336 0.10600249611964728 -0.085221900687238242 -0.18327114306532485 0.10763048507793997 0.079293621316487151 0.030246928896389049 0.036557155711259455 0.08025409032957144 -0.14454873090024345 0.16491276315581385 -0.00028922522462244082 -0.079871403589731174 0.073512505753961913 0.10121110223357009 -0.05631261642751819 0.020833052417792399
leaf_weight=5.6678369615692636 21.433502201922238 4.1903496191371259 6.6230876729823649 3.5424661536235353 48.252139580086805 5.4790735361166281 10.014064256101848 11.677742688334545 2.2252066941000512 13.142498641507702 8.4618053371086699 7.6029933965764931 7.991779292002323 1.9812034119386215 5.2950560431927451 5.927238825708625 1.4849931113421919 2.0085865007713437 1.782443664036691 73.481354672694579 12.758015064522622 11.04639859695453 6.2023285659961402 1.7963681295514096 1452.0836769718444 31.065055949555244 18.883364769688342 22.194963780464604 59.687269866815768 50.759542706917273
leaf_count=131 373 74 114 80 664 129 134 158 26 178 151 135 128 31 60 82 22 26 31 915 169 181 92 19 5598 424 272 271 830 775
internal_value=0 0.0205795 0.03433 -0.00107236 0.0449225 -0.0288695 0.0572968 0.0047044 0.0798975 -0.0439545 -0.0314593 -0.00538019 0.0295915 -0.103224 -0.0461298 0.0050042 -0.120811 -0.0160212 -0.0854833 -3.22466e-05 0.00174365 -0.0201421 0.0373153 -0.0750491 -0.00069094 -0.0459761 0.000658196 0.0467092 -0.0285513 -0.00559902
internal_weight=0 110.628 91.7216 1804.11 84.2713 12.1022 72.1692 21.6918 50.4773 42.7227 39.1803 28.7373 21.1343 10.443 18.9062 11.2223 7.68393 3.49358 7.45028 1761.39 1618.47 142.927 103.675 7.9987 1514.79 43.8231 1470.97 95.6763 131.88 72.193
internal_count=12273 1651 1387 10622 1225 243 982 292 690 703 623 441 306 182 264 142 122 48 162 9919 7760 2159 1297 111 6463 593 5870 1186 1978 1148
is_linear=0
shrinkage=0.3


Tree=189
num_leaves=26
num_cat=0
split_feature=154 97 139 137 257 136 281 118 102 34 131 258 128 174 10 56 152 2 0 69 196 8 15 184 126
split_gain=0.5288 0.645626 0.583241 0.559487 0.715487 0.756112 0.704211 0.610163 0.601548 0.68448 0.562033 0.537817 1.03496 0.725106 0.532692 0.471604 0.396601 0.310486 0.288024 0.239278 0.235964 0.179906 0.0287041 0.0156094 0.000393248
threshold=-0.09710989617172773 -0.036619499325752196 0.016290999948978351 0.049613500013947452 0.019723500125110104 -0.027583999559283198 -0.013311000075191199 -0.11680100113153448 0.068779498338699327 -0.052761533919160268 0.011792092674737258 0.0016888706634894085 0.070749998092651367 -0.030928499996662095 -0.012137079918804283 -0.016856623754199329 -0.013539213934388583 -0.023389532584008964 -0.023292500525712898 0.06625899672508237 0.0043264999985694512 0.076019051846758529 0.0028225531137433817 -0.090199999511241843 -0.058085885769997049
decision_type=2 2 2 2 2 2 2 2 2 2 2 2 2 2 2 2 2 2 2 2 2 2 2 2 2
left_child=1 -1 20 7 5 14 18 10 11 -10 -2 13 -13 -9 -5 -12 -8 -11 -7 23 22 -16 -3 -6 -25
right_child=3 2 -4 4 19 6 16 8 9 17 15 12 -14 -15 21 -17 -18 -19 -20 -21 -22 -23 -24 24 -26
leaf_value=-0.099104197737126726 0.19030364084162577 0.2348576581063877 -0.055885168551767193 0.12932790128067259 -0.14139915204307113 0.042500348584271326 0.16719804091742563 0.05883983776007292 -0.11736999206073172 0.050098195525957241 -0.14638232697453946 -0.073561761682627513 0.033359406843143508 -0.0004126903793270116 -0.20637156332584805 0.13440611955862194 -0.007928205151362255 0.18736872380771638 -0.20652704718378656 -0.015929490759980278 0.066711028944966569 -0.045563065522962534 0.18073399930746747 -0.21610368128928742 -0.20685247749144908
leaf_weight=1.5083803916350005 2.9035708049777886 1.8103194418363266 1.3515318760182706 0.64672204852104176 0.35008182533783871 0.65353487757965911 3.1089484109543255 18.78374698018888 1.2367335439193992 2.625798458000645 1.1236839657067323 23.681959099543747 12.421364051842827 1782.8168368754268 2.5949678297911301 1.0334734874777494 1.8602150625083602 3.4072857215069225 1.1598176093539212 0.77521576127037395 1.507705374562647 0.82526682037860144 1.7195511516183613 0.4983883295208219 2.428907223569694
leaf_count=25 36 15 26 11 26 16 50 339 38 47 20 586 230 10309 94 26 48 66 45 16 38 31 28 7 100
internal_value=0 0.0774312 0.119109 -0.000361735 -0.0582581 -0.0180826 0.0432441 0.000104621 -0.000180721 0.0859459 0.104131 -0.000521431 -0.0367755 0.000205085 -0.120358 -0.0118593 0.101639 0.127624 -0.116777 -0.165815 0.166058 -0.16757 0.208492 -0.201268 -0.208428
internal_weight=0 7.89749 6.38911 1864.94 14.9021 10.8495 6.78252 1850.03 1844.97 7.26982 5.06073 1837.7 36.1033 1801.6 4.06696 2.15716 4.96916 6.03308 1.81335 4.05259 5.03758 3.42023 3.52987 3.27738 2.9273
internal_count=12273 132 107 12141 444 295 159 11697 11615 151 82 11464 816 10648 136 46 98 113 61 149 81 125 43 133 107
is_linear=0
shrinkage=0.3


Tree=190
num_leaves=31
num_cat=0
split_feature=125 238 9 53 180 174 204 68 167 240 205 3 2 215 197 124 39 83 95 165 193 128 106 121 47 217 148 290 240 204
split_gain=0.619027 0.760358 0.669018 0.584339 0.587443 0.656618 1.79677 1.52423 1.4846 1.75562 1.28836 0.776459 0.53223 0.501043 0.485051 0.476662 0.468812 0.409757 0.36016 0.290313 0.255764 0.242577 0.239191 0.116964 0.245165 0.115518 0.0570416 0.0165919 0.0142507 0.00840499
threshold=-0.08133799955248823 -0.01678000809140746 0.0018890000064857003 -0.053476000204682288 -0.07166949659585943 0.0038609999464824505 0.0006974999851081001 -0.0018869999912566999 0.057456414480307277 0.13058073609140894 0.023195000365376455 -0.061393998563289594 0.0036309999413788002 -0.013113500084727949 0.051502184157761227 -0.038630999624729094 -0.036036500707268639 0.055143998935818658 0.017463472580847298 -0.068238001316785785 -0.064529500901699038 0.036612690444416209 0.067255740029304692 0.059586590733205658 0.020949694599100784 -0.05441600084304804 0.1174348448845466 -0.068453712008203937 -0.0083384998142718488 -0.026421000249683798
decision_type=2 2 2 2 2 2 2 2 2 2 2 2 2 2 2 2 2 2 2 2 2 2 2 2 2 2 2 2 2 2
left_child=1 17 15 14 12 6 11 -8 10 -10 -7 -6 13 21 28 -3 -15 20 -19 -4 22 -5 -1 24 -17 -22 -27 -21 -2 -14
right_child=3 2 19 4 5 8 7 -9 9 -11 -12 -13 29 16 -16 23 -18 18 -20 27 25 -23 -24 -25 -26 26 -28 -29 -30 -31
leaf_value=-0.15769718593084348 -0.13828402355591504 -0.20510512919127041 0.17967487414844724 0.021040731221031721 -0.11636586776321153 0.042492634013568592 -0.046455973684789389 -0.24212194039437016 0.0016984440276912776 -0.10894370074148484 -0.022495590383774886 0.00010368342233961142 -0.17234531609226325 0.10432942751458434 0.054735443367075566 -0.072455165699814958 -0.13190652175757703 -0.20350888270439249 0.1087868805623677 -0.11037690028632832 0.089600850734672527 -0.21196639375706258 0.1914598615026176 0.2107289372958302 0.21046581816992879 -0.2048573576106987 -0.083166008449240214 -0.20497931399220343 -0.20741293433216404 -0.21335486214138641
leaf_weight=0.38144603406544764 0.30872615473345 0.37613848535693284 0.22447002306580532 0.54828093340620432 5.1712900507009172 147.48075671396509 17.041523245236025 4.5370879886904723 84.889804113074206 15.221542427258099 33.73420776380226 1348.322784215532 0.61377393733710084 2.5858232469763611 0.95753858028911043 0.50369852775474855 1.068441673705818 0.48684469156432886 1.0473776510916648 0.19743864820338775 0.13117615110240866 1.5084235951071603 0.32878581248223782 1.5011872287141157 0.60887436848133802 4.5730105712354998 0.37510495621245343 1.077090612016036 2.0539236916520158 1.6835110883112063
leaf_count=36 14 30 3 15 177 2953 490 123 1680 299 818 4817 19 43 22 37 35 39 26 14 7 46 7 24 8 263 23 77 82 46
internal_value=0 -0.0685699 0.0286496 0.000348426 0.000599234 0.000991121 -0.00171058 -0.0875964 0.0141966 -0.0151243 0.0303947 -0.000341311 -0.0804573 -0.0314055 -0.125382 0.110655 0.0352583 -0.128158 0.00968812 -0.134918 -0.164687 -0.149851 0.00393719 0.156095 0.0823781 -0.188266 -0.195632 -0.190324 -0.19838 -0.202398
internal_weight=0 11.8126 4.4889 1667.73 1664.41 1656.4 1375.07 21.5786 281.326 100.111 181.215 1353.49 8.00825 5.71097 3.32019 2.9899 3.65426 7.32375 1.53422 1.499 5.78952 2.0567 0.710232 2.61376 1.11257 5.07929 4.94812 1.27453 2.36265 2.29729
internal_count=12273 594 193 11679 11561 11357 5607 613 5750 1979 3771 4994 204 139 118 99 78 401 65 94 336 61 43 69 45 293 286 91 96 65
is_linear=0
shrinkage=0.3


Tree=191
num_leaves=25
num_cat=0
split_feature=16 20 258 256 29 256 203 236 27 211 223 216 138 161 97 216 250 147 5 4 81 90 65 112
split_gain=0.505147 0.94093 0.630131 0.602411 1.25717 1.84705 2.19193 1.11114 1.24916 1.0213 0.978877 0.897071 1.05681 1.26062 1.24857 0.890654 0.948127 0.811239 0.588041 0.493506 0.467445 0.265589 0.256782 0.0063551
threshold=-0.11617549881339069 0.0050015275719310949 0.070187408875737822 -0.0003975494996729427 0.031165395482795604 -0.0020114804538264434 0.0021089999936520503 0.032985215238166464 0.078683000057935673 -0.070969499647617285 -0.054742000997066442 -0.075290501117706229 0.020838879535694573 -0.093489180559224741 -0.058419499546289395 -0.067673677934773913 0.010409499984234552 0.032181501388549756 0.02885823267203488 0.029504500329494452 0.033397328411171413 -0.022947759124362904 -0.016904018782342045 -0.0020624614566703676
decision_type=2 2 2 2 2 2 2 2 2 2 2 2 2 2 2 2 2 2 2 2 2 2 2 2
left_child=1 18 3 4 5 10 -7 8 -6 -9 -2 12 14 -14 -5 16 -13 -17 19 21 -4 -1 -3 -24
right_child=2 22 20 11 7 6 -8 9 -10 -11 -12 15 13 -15 -16 17 -18 -19 -20 -21 -22 -23 23 -25
leaf_value=-0.0047011624384180701 0.10421798209535947 -0.035337338965791609 0.015895222674125579 0.022195083795181255 -0.026724901554907768 0.48223423330686649 0.038848511270322773 0.17168500694102914 0.052924318482999728 0.025219676794981102 0.018458902305205263 -0.1196905841365614 0.098217667007134316 -0.021289415485058184 -0.076013707245756318 0.00046547631083376914 0.086806450372257163 -0.06289880883350181 0.22804741462670047 0.16971346506623577 -0.20969990361334903 -0.20970830785376218 -0.18717215404425031 -0.21604977572804926
leaf_weight=1.1549999574199321 14.748799982480703 1.0028355084359644 1.3147441237233572 15.342613723594694 104.23193738145346 1.8563333908095945 2.1841619345359504 5.291959255468103 21.351546683348715 22.512131018098444 63.778640545962844 2.2560758441686657 10.62380861234851 31.49360311269993 48.418057665723609 1502.2878384367796 17.71069862274453 18.407361261546612 1.021700197830796 0.78882287861779321 2.2265731114894152 1.1204904373735174 0.95058030821383033 2.4629794154316187
leaf_count=34 240 12 30 173 1528 12 30 54 254 328 821 63 121 567 795 6500 210 351 10 17 31 25 31 36
internal_value=0 -0.0728055 0.000483042 0.000720878 0.0148975 0.0447439 0.242554 -0.00116876 -0.013183 0.0530965 0.0345659 -0.00131068 -0.0280222 0.00885537 -0.0523819 0.000525002 0.063474 -0.000301521 0.0309505 -0.0347654 -0.125946 -0.10565 -0.1688 -0.208008
internal_weight=0 8.50241 1886.04 1882.5 235.956 82.5679 4.0405 153.388 125.583 27.8041 78.5274 1646.54 105.878 42.1174 63.7607 1540.66 19.9668 1520.7 4.08601 3.06431 3.54132 2.27549 4.4164 3.41356
internal_count=12273 165 12108 12047 3267 1103 42 2164 1782 382 1061 8780 1656 688 968 7124 273 6851 86 76 61 59 79 67
is_linear=0
shrinkage=0.3


Tree=192
num_leaves=31
num_cat=0
split_feature=291 154 170 45 63 88 278 32 171 277 262 161 138 19 244 37 62 206 10 110 284 104 157 26 187 60 26 101 200 174
split_gain=0.561385 1.00343 0.93354 0.939774 0.855043 0.780574 0.748431 0.853185 0.96965 0.789938 0.976981 0.787616 0.755243 0.969435 1.40358 1.30232 1.03907 1.05515 0.952538 1.1177 1.14042 1.04323 0.981296 1.21494 0.937633 0.874695 0.716165 0.712073 0.711772 0.702604
threshold=0.043460499495267806 0.013479187359267312 0.03588264766694186 -0.068549886580946406 0.023249000310897803 0.029329418843997909 -0.029934398242974909 -0.10701100155711168 0.046676669859464351 0.053337702575534239 -0.022313999943435098 -0.078925538282119609 0.020838879535694573 0.095495000481605516 -0.052419498562812743 0.065643109991668697 0.064367499202489811 0.0030089999781921007 1.0000000180025095e-35 0.079068001359701115 0.10688199847936632 0.026366500183939854 0.014369279692497792 0.0012279664776986816 0.0079335905101596219 -0.057270999997854198 -0.025526000186800898 -0.087551500648260075 -0.051463000476360293 0.034432500600814812
decision_type=2 2 2 2 2 2 2 2 2 2 2 2 2 2 2 2 2 2 2 2 2 2 2 2 2 2 2 2 2 2
left_child=6 2 3 29 -5 -3 7 -1 9 10 -9 -11 13 16 15 -15 25 -18 22 21 -21 -20 27 -24 -16 -8 -6 -14 -7 -2
right_child=1 5 -4 4 26 28 12 8 -10 11 -12 -13 18 14 24 -17 17 -19 19 20 -22 -23 23 -25 -26 -27 -28 -29 -30 -31
leaf_value=0.15517407959069027 0.10348012060295553 -0.081000214699327888 0.038187709111536003 -0.16168296505055563 0.099293692078435622 0.10239643494449018 0.049079991338530658 -0.069423732249424136 0.14128866568205553 -0.035257807368630441 0.031424423200982127 0.097641953081352331 0.062132903560890136 0.022443528896205784 0.16155578118601596 -0.21139845830152479 -0.088054612171941909 0.078691021730229807 -0.079444759912187676 -0.00064321115563167224 0.22738696008709788 -0.0030155945740923946 0.097350877791459164 -0.094227128412719519 0.013224632713915911 -7.7032817767516874e-05 -0.12971649676878683 -0.07649116671624645 -0.031028689120951934 -0.11716590332723731
leaf_weight=4.7263946416787794 3.3323811272857773 5.1731834234669831 6.2084110393188885 13.972715219832027 2.4365592366084456 9.833598678233102 33.297606817213818 16.541345192876179 5.6266209145542225 5.6668187419418272 18.112067166308407 13.754851383855565 4.7002267253119525 31.272735099308193 11.432993528433146 2.3011752511374644 20.853888361540161 4.084380581509321 50.752783560252283 17.675367749412548 2.2220421491656444 23.523069862509146 16.574221633258279 3.6321306753670788 5.7715780555736265 1508.0152189457222 2.4797568168723947 11.481240045279263 5.6750452028354603 2.1284648263826966
leaf_count=86 82 132 136 266 41 179 496 324 87 98 357 224 85 448 133 30 347 86 1158 220 14 531 273 93 89 5830 52 210 122 44
internal_value=0 -0.0311189 -0.0656563 -0.0921331 -0.123822 0.0199116 0.000723201 0.0324772 0.0227636 0.0104309 -0.0167141 0.0588647 -0.000447466 0.00132465 0.0421202 0.00641586 2.04477e-06 -0.0607451 -0.0223956 -0.0383239 0.024822 -0.0552397 0.0188276 0.0629144 0.111795 0.000984926 -0.0162175 -0.0362251 0.0535725 0.0174793
internal_weight=0 51.2401 30.5583 24.3499 18.889 20.6818 1812.02 64.4281 59.7017 54.0751 34.6534 19.4217 1747.59 1617.03 50.7785 33.5739 1566.25 24.9383 130.561 94.1733 19.8974 74.2759 36.3878 20.2064 17.2046 1541.31 4.91632 16.1815 15.5086 5.46085
internal_count=12273 1054 621 485 359 433 11219 1176 1090 1003 681 322 10043 7459 700 478 6759 433 2584 1923 234 1689 661 366 222 6326 93 295 301 126
is_linear=0
shrinkage=0.3


Tree=193
num_leaves=29
num_cat=0
split_feature=89 248 272 63 242 45 227 68 241 210 77 41 139 249 70 13 9 156 16 226 128 24 84 109 184 17 164 277
split_gain=0.604886 0.817441 0.855349 0.99905 0.606344 0.605979 1.139 1.11219 1.6805 0.894849 0.865986 0.74824 0.670922 1.32608 0.845599 0.670209 0.512926 0.361496 0.320288 0.316451 0.16896 0.154255 0.0946286 0.0180131 0.0061217 0.00383367 0.000281292 6.21676e-05
threshold=-0.078674104890388993 -0.092074502259492791 0.032376000657677602 -0.042813500389456693 -0.11012400314211838 -0.088267376265471639 0.023326895802003197 -0.096671601780904212 -0.015175939971386535 -0.033965500071644748 0.085301000624895054 -0.022137500345706895 -0.061951425483173013 0.03927649930119511 -0.06551249697804444 -0.12293399870395659 -0.011625050780363879 -0.026431499980390048 0.01790799945592875 0.031783500686287859 -0.035462500527501044 0.037767000496387461 0.011971499770879702 0.055994158736314463 -0.052742185067087215 0.033681804704079686 0.043018456479318269 0.0041894998867064515
decision_type=2 2 2 2 2 2 2 2 2 2 2 2 2 2 2 2 2 2 2 2 2 2 2 2 2 2 2 2
left_child=1 -1 3 -3 20 6 7 8 -6 -9 12 19 13 -7 -14 -12 -5 -17 -13 -8 -2 24 26 -18 -4 -26 27 -22
right_child=4 2 21 16 5 10 11 9 -10 -11 15 18 14 -15 -16 17 23 -19 -20 -21 22 -23 -24 -25 25 -27 -28 -29
leaf_value=0.119087991531275 0.12946070253584305 0.19065592530657752 -0.18517888379281516 0.086390448446201154 -0.14445259476835043 0.005320147372167682 -0.052126126799935321 0.10689569104302805 0.086517537052559046 0.016715034465530618 0.1693824649604628 -0.20310846989688733 0.043176439954615654 -0.10016181061544363 -0.00012880606670639456 0.053253281536363627 -0.15519063896493901 -0.19137018789741836 -0.00091264195907782178 0.19262955675482343 -0.20866319879977802 -0.072999759515545631 -0.041309122777098022 -0.21492279379930621 -0.21319790823181231 -0.23692214645826515 -0.2131657144846186 -0.20363125913894717
leaf_weight=1.7351521991658945 0.17452087951824102 1.4961403085617346 0.57889497186988448 0.82770860521122847 6.1231689276173711 27.291755240788916 0.99125637579709269 23.289129997705455 5.2796553605003265 17.229111255728643 0.63336539641022671 3.3751921228249548 41.703418023040285 17.672070507862372 1508.2095277069093 0.62619176879525174 0.69476177508476977 4.1265033042873247 0.89126549428328861 0.91361455409787595 0.29201881273183905 0.84305438585579384 0.37591432363842603 1.3132385356584562 2.7727176419575716 0.78701870306394983 0.52778719301568333 0.90823563342564739
leaf_count=31 8 22 27 24 95 786 22 454 103 367 7 74 878 531 8380 13 24 133 20 18 10 21 21 25 80 10 15 74
internal_value=0 -0.0699646 -0.105186 -0.00768985 0.000462974 0.000675458 0.0307741 0.0452565 -0.0375104 0.0685492 -0.000417178 -0.0910703 -1.16196e-05 -0.0361373 0.00103641 -0.120508 -0.112339 -0.15914 -0.16087 0.0652636 -0.154191 -0.189964 -0.177719 -0.194256 -0.21379 -0.218443 -0.207394 -0.204856
internal_weight=0 11.0487 9.31353 4.33185 1660.63 1658.36 58.0924 51.9211 11.4028 40.5182 1600.26 6.17133 1594.88 44.9638 1549.91 5.38606 2.83571 4.7527 4.26646 1.90487 2.27848 4.98169 2.10396 2.008 4.13863 3.55974 1.72804 1.20025
internal_count=12273 264 233 95 12009 11881 1153 1019 198 821 10728 134 10575 1317 9258 153 73 146 94 40 128 138 120 49 117 90 99 84
is_linear=0
shrinkage=0.3


Tree=194
num_leaves=31
num_cat=0
split_feature=245 14 229 142 190 206 46 177 139 298 78 250 49 0 93 283 202 69 238 271 289 226 62 260 207 249 25 165 243 233
split_gain=0.53579 0.674645 0.839253 0.812938 0.747488 0.741209 0.736897 0.824912 0.6525 0.595806 0.939337 0.859434 0.818522 0.933018 0.882426 0.792626 1.21645 0.974838 0.791123 0.856654 0.755826 0.750964 1.15475 1.13721 0.615616 0.595547 0.592614 0.563383 0.535762 0.510909
threshold=0.044968999922275509 0.054386999458074556 0.055384766503937304 -0.021375499665737097 -0.010103306444973757 -0.039736500009894295 0.04807700030505651 0.0060505000874400009 -0.038977041696333682 -0.020789000205695598 0.018665986196141616 0.17387250065803528 -0.017499999143183197 -0.055127998813986744 -0.025390152337284377 0.039670777549918802 -0.053907999768853139 1.0000000180025095e-35 -0.045606841656428705 0.096419502049684455 0.08372963115264058 -1.0000000180025095e-35 -0.0011629999498835998 0.16526700556278226 0.039591001346707309 0.021740499883890103 -0.032518089696158471 -0.010380757085206662 -0.049052890868438316 0.043936500325798954
decision_type=2 2 2 2 2 2 2 2 2 2 2 2 2 2 2 2 2 2 2 2 2 2 2 2 2 2 2 2 2 2
left_child=9 3 -3 4 -2 8 7 -7 -5 11 20 12 13 -1 -15 16 -14 -17 19 24 21 22 -11 -23 -12 26 -20 -27 -10 -22
right_child=1 2 -4 5 -6 6 -8 -9 28 10 18 -13 15 14 -16 17 -18 -19 25 -21 29 23 -24 -25 -26 27 -28 -29 -30 -31
leaf_value=-0.13799649514109341 0.15377586950192459 0.10342862923572695 -0.12885446580648105 0.20272673613001096 -0.085841456871671398 -0.080859499796780546 -0.17660991909709231 0.15816524482370181 -0.15238500305319277 -0.0096909493126096802 0.1464654875217464 0.11684480417506583 0.01069143589602565 -0.058522751853194728 0.16505133767178862 0.023533719137515882 -0.084140573431425517 -0.042570125935805121 0.033751857050306734 -0.10890499209982811 -0.15402134841830509 -0.0016877532104067159 0.054621478233783917 0.15335680498450982 0.035777343378038784 -0.03787409837454736 -0.17958382940818959 0.10740458785103392 0.10389842891253866 0.085300099886026978
leaf_weight=1.7356571103446174 4.6107195261865854 14.790439541917296 1.546264458913355 1.8421855233609674 1.5708770211786056 4.8116790433414245 4.24153244914487 1.7802473953925071 1.4773875586688516 46.061437630909495 12.052813381189486 4.1028549382463089 17.515117717208341 2.1786770406179121 5.8685689494013777 40.710540358821163 39.920087278122082 39.616557121393271 2.0062085650861263 1.8475198820233334 4.4963999753817907 1548.2367522105342 55.286340670543723 4.2693911669775835 7.2378313594963393 4.5836977497674516 2.8179427161812773 5.0482475496828547 1.4592497777193796 0.97732993960380543
leaf_count=43 70 209 25 27 23 77 70 27 20 718 161 31 212 36 71 526 678 624 41 24 110 7269 742 42 112 97 53 86 26 23
internal_value=0 0.035353 0.0814431 0.000803893 0.0928839 -0.0356547 -0.0790692 -0.0163073 0.0627649 -0.000573908 0.00103798 -0.0185894 -0.0223555 0.0614949 0.104522 -0.02831 -0.0552211 -0.00906807 0.0492587 0.0862453 3.59543e-06 0.000371944 0.0253922 -0.00126138 0.104935 -0.00482441 -0.0908644 0.0382686 -0.0250347 -0.111291
internal_weight=0 38.1306 16.3367 21.7939 6.1816 15.6123 10.8335 6.59193 4.77882 1846.57 1694.92 151.648 147.545 9.7829 8.04725 137.762 57.4352 80.3271 35.5943 21.1382 1659.33 1653.85 101.348 1552.51 19.2906 14.4561 4.82415 9.63195 2.93664 5.47373
internal_count=12273 574 234 340 93 247 174 104 73 11699 9478 2221 2190 150 107 2040 890 1150 574 297 8904 8771 1460 7311 273 277 94 183 46 133
is_linear=0
shrinkage=0.3


Tree=195
num_leaves=30
num_cat=0
split_feature=293 26 178 60 93 114 207 185 216 296 93 110 19 212 178 250 74 59 103 53 158 179 211 229 126 99 219 25 196
split_gain=0.51234 0.580345 0.642229 0.78399 0.772141 0.581387 0.91096 0.93761 0.907624 0.887531 1.03508 0.987864 0.854502 1.24824 1.12533 1.30025 1.09362 0.964668 0.910399 0.52503 0.517013 0.489502 0.428185 0.270554 0.362089 0.262166 0.236208 0.231121 0.177957
threshold=-0.078979998826980535 0.055970501154661158 0.011079116014826014 -0.023976367149308463 -0.093783501535653985 -0.037855999544262844 -1.0000000180025095e-35 -0.096845500171184498 -0.073644999414682333 -0.041600499302148791 -0.0018720000516622497 0.043050000444054555 0.096880000084638568 -0.025489499792456547 -0.012014499865472249 0.11606149605313591 -0.002441499964334 -0.021278499625623146 -0.058854499831795644 0.036915499716997112 -0.070214125217421569 0.070760499686002717 -0.055847501382231643 0.026448000222444503 0.0090292282926218454 0.029456132571619949 -0.039805516528238931 -0.039304844365017015 -0.030003999359905695
decision_type=2 2 2 2 2 2 2 2 2 2 2 2 2 2 2 2 2 2 2 2 2 2 2 2 2 2 2 2 2
left_child=19 5 4 27 -3 12 7 20 -9 11 -11 -8 13 18 15 -14 -16 -15 -2 22 -7 28 -1 24 -5 -24 -21 -4 -6
right_child=1 2 3 23 21 6 9 8 -10 10 -12 -13 14 17 16 -17 -18 -19 -20 26 -22 -23 25 -25 -26 -27 -28 -29 -30
leaf_value=0.12518103781449802 0.086483249484012023 0.17787712111940898 -0.21245651160840689 0.18593176019221835 -0.055808880748327176 -0.1399996287627695 0.0060118310608807861 -0.0010901711473099492 -0.053626207702752615 -0.043901952829268759 0.00077890858989102722 0.09206641948147716 -0.075698324413353418 -0.09091058896252284 0.13640699338491369 0.11211266666046081 -0.050832734617146484 0.075848609746420409 -0.039274177568168346 0.050541516629202803 0.14426217246723186 0.087750454421089447 0.032769998754827785 0.21132194728745479 -0.13302726984776178 -0.19811547574911656 0.213720411643157 -0.0088745231782147039 -0.19579421659348387
leaf_weight=1.2754979373421522 5.8646708754822603 0.72101573686813925 1.1094216626370328 0.62973278341814898 0.96372174681164313 0.66967218741774548 30.508650037430925 51.916039199160878 68.840120674911304 48.16797986603342 1493.7758791531087 19.795953895954881 8.7845916370861215 3.5810892431763959 16.98875122750178 5.330943349748849 3.3632563475985107 24.356436549685895 44.437773561221547 1.1881484650075438 4.1100747332675374 0.71233494114130724 0.76092461275402357 1.502350292750634 0.65194294138927944 1.0580788750667123 2.4337302671046928 0.91648718854412425 5.3803164436831121
leaf_count=26 79 22 27 14 32 25 606 986 1625 1005 5454 271 145 86 195 44 61 418 739 27 71 20 19 20 31 31 29 20 145
internal_value=0 -0.000349318 -0.0645455 0.0216226 -0.117836 9.21252e-05 -0.00127738 -0.0258815 -0.0310397 0.000662461 -0.000616854 0.0398762 0.0209648 0.00362707 0.0603208 -0.00476869 0.105465 0.0544731 -0.0246123 0.0826592 0.104435 -0.148052 -0.00808471 0.124942 0.0236886 -0.101532 0.16019 -0.120359 -0.174529
internal_weight=0 1843.08 12.5873 4.80993 7.77739 1830.49 1717.78 125.536 120.756 1592.25 1541.94 50.3046 112.708 78.24 34.4675 14.1155 20.352 27.9375 50.3024 6.71638 4.77975 7.05637 3.0945 2.78403 1.28168 1.819 3.62188 2.02591 6.34404
internal_count=12273 12141 331 112 219 11810 10043 2707 2611 7336 6459 877 1767 1322 445 189 256 504 818 132 96 197 76 65 45 50 56 47 177
is_linear=0
shrinkage=0.3


Tree=196
num_leaves=31
num_cat=0
split_feature=287 275 124 154 283 75 139 154 99 215 179 139 149 31 20 146 272 20 290 165 52 298 165 133 42 233 45 170 284 190
split_gain=0.55845 0.995661 0.790694 0.703496 1.22742 1.24854 1.18151 1.09723 0.98051 1.09034 0.996612 0.945969 1.14701 0.90356 1.12172 0.952564 1.15623 0.890397 0.852829 0.837669 1.09502 0.906102 0.820272 0.734126 0.71006 0.686349 0.656138 0.640769 0.628771 0.607816
threshold=-0.044541999697685193 -0.08299950137734409 0.029788999818265351 0.0003409474016410528 0.031350714927356749 0.054642999544739702 -0.061951425483173013 0.012056605833582883 -0.035793150446197984 0.069814369951334804 0.032788500189781106 0.015789000317454303 0.058340501040220254 -0.023493000306188994 -0.042666488618177623 -0.039285499602556194 0.080887500196695314 0.075663499534130069 0.0043586253322661075 -0.063962500542402226 -0.011254499666392748 -0.027101183591455563 0.025128000415861555 -0.042772000655531793 0.042052156464218608 0.047239447176962684 -0.11659550294280044 0.023028999567031801 0.0082732642022045801 -0.069018863141261308
decision_type=2 2 2 2 2 2 2 2 2 2 2 2 2 2 2 2 2 2 2 2 2 2 2 2 2 2 2 2 2 2
left_child=1 -1 26 6 5 7 13 -5 29 10 -10 12 17 14 25 -15 -17 -8 23 20 -13 -21 -9 -7 -14 -2 -3 -11 -4 -6
right_child=3 2 28 4 8 18 11 22 9 27 -12 19 24 15 -16 16 -18 -19 -20 21 -22 -23 -24 -25 -26 -27 -28 -29 -30 -31
leaf_value=0.11043528696027498 -0.095864553929857294 0.11019065227978289 -0.2094808326889821 0.16091512151527054 0.083877997257078646 -0.093986676557371404 -0.00035290942593747338 0.080087289997298097 0.013420070885654696 0.11770424556752211 -0.070617073791609794 -0.22796509670830387 -0.14846858741130314 -0.13405692129035188 -0.19000578636892282 0.10112737368204698 -0.15780071227345346 -0.12089564979029564 -0.1394181396787427 -0.0055326739789808852 0.060562659894504399 0.10279358922750398 -0.07094808173115616 0.056019884855865246 0.1290092452561353 0.15048084663269043 -0.13993364091405877 -0.036584111515207039 0.077740462930765461 -0.17540398978848812
leaf_weight=2.9548262893222299 2.6113647663732982 1.0314208474010254 0.83508663112297554 12.995997830963459 1.0028225522255523 3.6782630058005497 1430.8803615620545 15.436345271591565 45.478952238110651 10.731846314651191 17.621793498459738 2.1468805692857131 6.9640217450069022 3.8976432261406435 8.0301802803005575 6.9806272465502825 1.9959153492818584 5.5363183340377864 3.3264519921794991 10.525478137351458 2.639072065241634 20.454816460522125 4.0947223043767726 14.555346881534206 0.94231528788804997 1.6680897436453959 11.123651663816416 3.1288817313034079 3.8414172239135951 4.3149542827450196
leaf_count=90 63 24 20 223 26 89 6391 389 1154 241 475 36 202 138 257 197 77 143 86 250 59 392 98 334 20 32 416 102 110 139
internal_value=0 -0.0501811 -0.0783778 0.000521627 0.0211549 0.0562594 -0.00134759 0.0933682 -0.00192148 0.00668708 -0.0100485 -0.000251237 -0.00144473 -0.0657816 -0.123895 -0.0102166 0.0435553 -0.000817512 0.000274275 0.0479448 -0.068865 0.06599 0.0484225 0.0257591 -0.115397 0.000158487 -0.118709 0.0828756 0.0264512 -0.126509
internal_weight=0 19.7864 16.8316 1641.64 136.366 54.0871 1505.27 32.5271 82.2793 76.9615 63.1007 1480.09 1444.32 25.1838 12.3096 12.8742 8.97654 1436.42 21.5601 35.7662 4.78595 30.9803 19.5311 18.2336 7.90634 4.27945 12.1551 13.8607 4.6765 5.31778
internal_count=12273 660 570 11613 3356 1219 8257 710 2137 1972 1629 7493 6756 764 352 412 274 6534 509 737 95 642 487 423 222 95 440 343 130 165
is_linear=0
shrinkage=0.3


Tree=197
num_leaves=31
num_cat=0
split_feature=182 32 237 283 242 147 165 291 195 91 185 134 74 254 217 296 49 253 114 95 186 287 112 236 167 42 207 201 196 259
split_gain=0.497443 0.988594 0.957064 0.8388 0.877918 0.89844 0.831087 0.822338 0.66513 0.618135 1.1352 1.62823 1.36931 1.33906 1.16397 1.29872 1.15109 1.13789 1.07869 0.969335 1.46894 1.04011 1.0087 0.924753 0.919766 0.885229 0.850554 0.836755 0.833936 0.955291
threshold=0.076350091913254051 -0.097214582139519709 0.035681033042342179 0.038776000961661304 -0.045859999954700394 -0.089249998331069877 -0.05180102422334304 -0.035438999533653197 0.082371998578310013 -0.025523500517010644 0.072420503679723455 -0.052518999204039497 -0.11016849800944324 -0.06374161818999434 0.049158752137236757 -0.041600499302148791 0.11041299998760222 0.016094000078737652 0.055264752240777197 -0.010772500187158548 0.0089642170324166857 0.025351843685276102 0.061934821473877182 -0.019317684151338447 -0.0031209470414669074 -0.087780501693487126 0.056307784503648629 -0.058480477679660942 0.081613000482320716 -0.037363869658884753
decision_type=2 2 2 2 2 2 2 2 2 2 2 2 2 2 2 2 2 2 2 2 2 2 2 2 2 2 2 2 2 2
left_child=9 -2 3 6 5 -5 -3 -8 -6 10 12 17 13 27 16 -16 -14 -12 19 28 22 -22 -21 -15 -20 -26 -13 -1 29 -11
right_child=1 2 -4 4 8 -7 7 -9 -10 18 11 26 14 23 15 -17 -18 -19 24 20 21 -23 -24 -25 25 -27 -28 -29 -30 -31
leaf_value=-0.050377879101178719 -0.13092976959871408 0.085758009193266746 0.13843120157700722 0.16941938214051921 0.15169852053083532 -0.11419953743666995 0.097382322460875873 -0.12124154534664644 0.0041277270744653023 0.021605572691918463 -0.16433567823360429 0.10477658065089465 -0.0071027472059868738 -0.084723101045324947 -0.15694144098314691 -0.047439011051331879 -0.18610458136050811 0.12924610103143544 -0.070869734938209791 -0.00073246393352943391 0.093480072783692331 0.0050234664931416055 0.065296715957392615 0.042611843864076619 -0.11262195113715408 0.097343841087248167 -0.096912668232978658 0.15602880600903213 0.052544779605299095 -0.063870191653613295
leaf_weight=2.2079841857776037 3.1059513639193019 3.7791570303961626 7.8791706133633843 1.362037483602762 8.9060881673358363 3.8371168198063996 1.915165539307053 8.0868231593049149 3.9760151226073495 15.239284991286693 4.7555944891646531 17.862855620682243 76.062564114894485 9.2842938358662686 12.33003301953431 46.546457333141007 3.3767653552931725 1.5839264970272777 4.2166568952961851 1454.5830654629972 26.398207805701531 21.878997452091426 21.124941509915516 11.479968834726602 1.9627421624027253 22.801273343764475 2.1034147434402248 8.8632911574095505 9.0688420191872847 51.657294676406309
leaf_count=47 76 60 104 11 112 52 44 152 61 233 69 184 1141 122 223 684 75 15 77 5992 350 293 270 160 40 341 41 90 168 986
internal_value=0 0.0320721 0.0448113 0.0216603 0.0641554 -0.0398991 -0.0340946 -0.0793798 0.106151 -0.000629444 -0.016526 0.0414724 -0.0254927 0.0306036 -0.0384041 -0.0703712 -0.0147117 -0.0909844 0.00128776 0.00024875 0.00189738 0.053392 0.000212752 -0.0143232 0.0586488 0.0807024 0.0835289 0.114864 -0.0328253 -0.0443985
internal_weight=0 42.8475 39.7416 31.8624 18.0813 5.19915 13.7811 10.002 12.8821 1825.39 196.457 26.3058 170.151 31.8355 138.316 58.8765 79.4393 6.33952 1628.93 1599.95 1523.99 48.2772 1475.71 20.7643 28.9807 24.764 19.9663 11.0713 75.9654 66.8966
internal_count=12273 672 596 492 236 63 256 196 173 11601 2851 309 2542 419 2123 907 1216 84 8750 8292 6905 643 6262 282 458 381 225 137 1387 1219
is_linear=0
shrinkage=0.3


Tree=198
num_leaves=31
num_cat=0
split_feature=49 166 186 218 211 47 179 9 164 253 107 195 95 176 267 231 73 218 159 0 141 18 149 71 213 231 22 69 159 270
split_gain=0.510303 1.21054 1.15283 1.00219 1.01158 0.811755 0.903937 0.722112 0.988427 0.933386 1.07873 1.1492 0.930771 0.98216 0.949789 0.908551 1.00763 0.897809 0.811336 0.945418 1.00378 0.996093 0.781956 0.741819 0.738263 0.705647 0.704262 0.788804 0.64797 0.633036
threshold=0.074392372317169497 -0.056856999173760393 -0.030384581798405027 -0.094382752707523623 0.0082645869681871546 -0.035109998658299398 -0.0042050001211463989 -0.0014405910298949298 -0.072127498686313532 -0.062263000756502089 -0.0012763255218521689 0.021197499707341156 -0.038929000496864243 -0.03622380903443289 0.022791999392211406 -0.03426065642954939 0.09485549852252001 -0.10472900047898288 0.06222049664796906 1.0000000180025095e-35 -0.021981500089168497 -0.040576730116223356 0.063156001269817366 -0.085629992983346767 0.047857999801635707 -0.026484499685466248 0.032370549318047198 0.077495999634265858 -0.010809000115841549 -0.047983000054955441
decision_type=2 2 2 2 2 2 2 2 2 2 2 2 2 2 2 2 2 2 2 2 2 2 2 2 2 2 2 2 2 2
left_child=7 2 25 -3 5 28 -7 9 23 10 11 24 15 14 -14 -11 -17 -15 19 21 -21 -10 -20 -9 -1 -2 27 -6 -5 -25
right_child=1 3 -4 4 26 6 -8 8 18 12 -12 -13 13 17 -16 16 -18 -19 22 20 -22 -23 -24 29 -26 -27 -28 -29 -30 -31
leaf_value=-0.15223803087562912 0.110020332691767 -0.12802833762666885 0.13051700979353767 0.10433410883088759 0.14843248453683894 0.032128845466246135 -0.070293307420508419 -0.12184139014049505 0.06244756352509425 0.10945035942413732 -0.082627164368450398 0.15948866607530057 -0.037291140862520292 0.0936163065676439 0.059971304377476428 -0.067501845595661608 0.10135141074923844 -0.091795311920296288 0.075573915509205364 0.054641725595292269 -0.056611197959263247 -0.00037520341249214293 -0.15373844836143927 -0.12880281610200936 0.09954973784065986 -0.091441450310995348 -0.037858512225965299 -0.062166442030058507 -0.00073382954064372507 0.13823037085353057
leaf_weight=2.2480297716101649 2.447848082985729 4.8920192464720449 14.838106852723284 8.3451494035543892 10.065587889752349 11.795249819522718 22.64190157130361 1.3413189761340607 23.066913199611008 7.4698571835178909 4.3607189347967497 7.8298111346084625 48.64306182746077 2.5088835712522259 11.097572966013102 10.870390436379237 4.4963402305729678 37.222800633157021 18.960307421686597 8.6455528002697957 46.859021972748451 1487.9063853741973 1.4399949074722815 0.87356612784787913 1.9634235920384524 4.3372968832845826 3.5110821495763949 1.9033341741887841 14.395406299794557 9.3589918145444226
leaf_count=61 34 82 196 148 181 198 412 27 325 151 123 103 935 44 216 237 76 1160 300 164 887 5516 29 21 29 94 63 33 285 143
internal_value=0 0.0209063 0.0836752 0.00340438 0.0122537 -0.00616475 -0.0352122 -0.00121928 0.000582526 -0.0219827 0.0452186 0.0915177 -0.0309945 -0.043534 -0.0192234 0.0236251 -0.018095 -0.0800874 -5.45791e-05 -0.000828695 -0.0392821 0.000583865 0.0593875 0.0879352 -0.0348519 -0.0187609 0.080285 0.114942 0.0378232 0.115433
internal_weight=0 99.173 21.6233 77.5497 72.6577 57.1777 34.4372 1737.16 1598.45 138.711 16.402 12.0413 122.309 99.4723 59.7406 22.8366 15.3667 39.7317 1586.88 1566.48 55.5046 1510.97 20.4003 11.5739 4.21145 6.78514 15.48 11.9689 22.7406 10.2326
internal_count=12273 1726 324 1402 1320 1043 610 10547 7412 3135 316 193 2819 2355 1151 464 313 1204 7221 6892 1051 5841 329 191 90 128 277 214 433 164
is_linear=0
shrinkage=0.3


Tree=199
num_leaves=26
num_cat=0
split_feature=120 295 44 71 69 129 151 232 272 287 170 192 268 32 171 241 13 264 217 273 12 280 48 148 203
split_gain=0.505943 0.50623 0.70426 0.669327 0.624066 0.611031 0.591103 0.579646 0.566488 0.527201 0.517903 0.511955 0.499193 0.489924 0.427321 0.419936 0.391519 0.332173 0.288298 0.178 0.151084 0.112405 0.0826258 0.0210895 8.77685e-05
threshold=-0.11238997916355883 -0.09552450105547898 0.027517500333487901 -0.12736050039529798 0.1163228150811214 -0.096019502729177378 0.029692718241908344 0.0068151701146156587 0.051773998886346755 0.011976999696344052 -0.058646500110626144 -0.060474500060081447 -0.013734842275906798 0.012044500093907102 -0.042793499305844244 -0.033867664524379663 0.003253685106852049 -0.036558499559760045 -0.037011500447988448 -0.012185000348836099 -0.010781389378160604 -0.0044992475221899047 -0.082209497690200792 0.037783000618219355 0.043693082697896353
decision_type=2 2 2 2 2 2 2 2 2 2 2 2 2 2 2 2 2 2 2 2 2 2 2 2 2
left_child=19 2 6 8 5 16 10 -7 9 17 -2 -12 20 21 -11 -14 -5 -3 -10 -1 -4 -6 -20 -21 -25
right_child=1 3 12 4 13 7 -8 -9 18 14 11 -13 15 -15 -16 -17 -18 -19 22 23 -22 -23 -24 24 -26
leaf_value=-0.011702047233637766 -0.14655869765843665 0.15948500609077637 -0.036901053232770237 -0.15743693073994977 -0.20617759154131554 -0.0016909472952758465 -0.16110492712268165 0.014490649875807941 0.042791386616035786 0.014106738906344837 -0.12631001781438367 0.13398541249427526 -0.12451168163430683 0.094294809165787433 -0.21136142889402404 0.17345779650547233 0.073589003677596257 -0.071637175360218353 -0.087666661274388283 -0.13658521021642075 -0.21413834368983911 -0.059967102624187391 -0.21076973487590953 -0.20589153605621532 -0.21096292810573211
leaf_weight=0.74302898615133051 0.71025256410939697 1.7271684899460527 0.61741078179329689 3.4423421572428188 2.3854493293329151 1377.2053946674132 0.82033223652979437 232.9303451754713 0.54307164577767242 1.4888452345039698 0.72616894310340185 10.707925724505911 0.70423293125350017 0.7489034323953091 1.5380776801612226 1.0761884368839663 0.81686106696724881 0.82793840765952875 0.58275183034129474 0.52729474229272355 1.4481679452292155 0.59034431667532672 3.1066689456201857 0.65515572245931231 0.57818093243986368
leaf_count=33 29 40 20 86 74 5686 36 5494 10 44 31 289 20 17 34 33 22 28 18 22 34 25 104 32 12
internal_value=0 0.000127877 0.051921 -0.000406958 6.67941e-05 0.000349785 0.085365 0.000649964 -0.0785145 -0.0157543 0.102014 0.117454 -0.0608173 -0.12259 -0.100461 0.0555981 -0.113129 0.0845938 -0.161286 -0.134835 -0.161161 -0.177172 -0.191325 -0.1868 -0.208269
internal_weight=0 1644.74 16.8107 1627.93 1618.12 1614.39 12.9647 1610.14 9.81452 5.58203 12.1443 11.4341 3.846 3.7247 3.02692 1.78042 4.2592 2.55511 4.23249 2.50366 2.06558 2.97579 3.68942 1.76063 1.23334
internal_count=12273 12174 492 11682 11404 11288 385 11180 278 146 349 320 107 116 78 53 108 68 132 99 54 99 122 66 44
is_linear=0
shrinkage=0.3


Tree=200
num_leaves=31
num_cat=0
split_feature=237 260 299 12 141 208 239 16 211 126 266 228 182 123 143 155 223 228 114 14 23 112 229 117 223 197 121 6 161 197
split_gain=0.494802 0.629011 0.780785 0.557336 0.555518 0.62965 1.01503 0.700913 0.593765 0.593354 0.684102 0.814332 0.663461 0.751091 0.878632 0.699732 0.690359 0.909433 0.724702 0.6232 0.576207 0.570557 0.530491 0.477749 0.412094 0.378375 0.353784 0.333768 0.283496 0.232308
threshold=-0.091868001967668492 0.099353734637355043 0.040384501218795756 0.019395500421524003 0.084873002022504765 -0.015651000663638046 0.037744527709965156 0.021951499395072405 -0.039124143461426349 -0.030870386359378905 -0.060501776346842291 -0.039628999307751649 0.076350091913254051 -0.10966816482687171 0.011973499786108703 0.049506001174449907 0.056301184205002221 0.018834134781405651 0.087830502539873068 0.12230349704623215 0.046442498534434322 0.055332001298665952 0.037224613716001172 0.019132323468283714 -0.049123657036190933 0.065639998763799626 -0.00049482003958033389 -0.016647499985992846 -0.034284653379580192 0.0078559997491538022
decision_type=2 2 2 2 2 2 2 2 2 2 2 2 2 2 2 2 2 2 2 2 2 2 2 2 2 2 2 2 2 2
left_child=1 2 23 -3 9 6 22 21 28 10 11 29 16 15 -15 -14 18 -18 -11 20 -12 -8 26 25 -13 -1 -6 -10 -7 -2
right_child=4 3 -4 -5 5 8 7 -9 27 12 19 24 13 14 -16 -17 17 -19 -20 -21 -22 -23 -24 -25 -26 -27 -28 -29 -30 -31
leaf_value=-0.20005117215250753 -0.21621208412731413 -0.045922446455257317 0.065453109087087916 0.19450641463121532 0.016396326891057796 -0.17525583886366156 -0.14219959284172248 0.16980484087907263 0.18388194025813445 0.00023679817694359002 -0.038697878523504842 -0.020667400715255108 0.18821092522498076 0.076739448774181485 -0.034253037488916602 -0.004911530606674301 -0.079134384747803724 0.078010590877294131 0.103018955030309 0.16085286405682822 -0.13128472098358895 0.090090951927051272 -0.04148923154983112 0.021860110604980693 0.16275590288138359 -0.0026026685288882572 0.18931683824228285 0.027135913287605909 0.059127087594080877 -0.015916339734487726
leaf_weight=5.7040393872885016 1.0149585828185084 2.1341528672492127 2.1844211607240132 1.4622947685420511 1.494232704862952 0.80393864307552565 5.5500211878679693 0.97557505127042521 5.4845523519907147 1710.5933556705277 21.457376987556934 1.5704417200759051 5.1587870059302068 12.138995598070325 13.622076078085227 2.5101194055750966 18.990618975803958 4.0152390431612721 6.1963604755001134 1.1436547776684154 8.4247652492485923 1.1486002169549463 2.0212695002555847 1.416455954313278 3.6986603299155822 1.0314363769721238 3.7056000891607273 1.5733637418597917 1.0998491118662057 1.0711549803381784
leaf_count=124 18 32 39 16 28 26 114 15 81 9705 434 36 69 197 239 40 414 54 96 25 166 21 27 34 57 19 62 35 19 31
internal_value=0 -0.0562287 -0.0938284 0.0518345 0.000520527 0.0460006 0.00819699 -0.0677693 0.108834 -7.83995e-05 -0.0369821 0.0452776 0.000720372 0.0425832 0.0180483 0.125 -8.40167e-05 -0.0517077 0.000607767 -0.0564832 -0.0648012 -0.102369 0.0889298 -0.13651 0.108087 -0.169815 0.139626 0.14894 -0.039849 -0.113366
internal_weight=0 13.9328 10.3364 3.59645 1835.46 23.857 14.8953 7.6742 8.9617 1811.61 38.381 7.35522 1773.23 33.43 25.7611 7.66891 1739.8 23.0059 1716.79 31.0258 29.8821 6.69862 7.2211 8.15193 5.2691 6.73548 5.19983 7.05792 1.90379 2.08611
internal_count=12273 264 216 48 12009 428 267 150 161 11581 767 142 10814 545 436 109 10269 468 9801 625 600 135 117 177 93 143 90 116 45 49
is_linear=0
shrinkage=0.3


Tree=201
num_leaves=31
num_cat=0
split_feature=65 199 1 111 257 272 243 242 268 109 40 181 123 188 184 112 224 67 143 72 26 262 105 179 265 27 216 279 212 8
split_gain=0.498952 0.724395 0.91413 0.72506 0.720546 0.480805 0.478143 0.570993 1.14076 1.29198 1.21698 1.15172 1.05461 1.07049 0.772034 0.750646 0.758381 0.72009 0.973289 0.802758 0.556754 0.539003 0.512617 0.887324 0.455649 0.412081 0.380768 0.35257 0.350399 0.258636
threshold=0.090048000216484056 -0.081823498010635334 -0.056319943887460616 0.083444997668266269 0.027219725413820069 0.10057400166988371 -0.14992249757051462 1.0000000180025095e-35 -0.07543449848890299 0.10035568834323748 0.07565191628502195 0.10258800163865087 -0.12928249686956397 -0.015076499897986598 -0.0052999327352920428 -0.07473655468940138 -0.14683400094509116 -0.04494499973952764 -0.021788000129163196 -0.041190501302480649 -0.0030393223459200262 -0.032607499510049792 -0.017699499614536696 0.017460499890148602 0.034826902191798806 -0.0093614999204873484 -0.024510999210178797 -0.026938259057956108 -0.030700500123202749 -1.0000000180025095e-35
decision_type=2 2 2 2 2 2 2 2 2 2 2 2 2 2 2 2 2 2 2 2 2 2 2 2 2 2 2 2 2 2
left_child=6 3 28 25 5 29 22 12 17 11 -11 -10 13 21 -15 20 -17 18 -9 -19 -14 -8 -1 -24 26 -2 -6 -7 -3 -4
right_child=1 2 4 -5 24 27 7 8 9 10 -12 -13 15 14 -16 16 -18 19 -20 -21 -22 -23 23 -25 -26 -27 -28 -29 -30 -31
leaf_value=0.20384010191541166 0.13391486053068505 -0.18432521415857164 0.041304164737637254 0.18431933264774958 0.035439711315900166 0.12557213604440812 -0.15438386743509339 0.11217295790591213 -0.027027184702406566 0.0085798756656682035 0.1549593674182001 0.091583633925676908 0.12243610350216109 0.13752817451858781 -0.067110480322126867 -0.098194767017177276 -4.9797965000038561e-05 -0.16955524473374914 -0.078420083972840879 -0.056501188050313025 -0.030956627252574809 0.089988953828056967 0.14116367577206784 -0.16789123309738013 0.17575853027134561 -0.15158892157272341 -0.18994469405598041 -0.14735245505291489 0.016126767415528799 0.18274232625314171
leaf_weight=2.1070877257734537 0.52401567576453123 1.4462375789880755 1.3474763184785867 0.89909264189191151 1.3552379568573092 0.86325545969884843 2.4134764126501982 4.4547173099126667 94.330595527630066 13.905170896614438 8.0831536940531787 7.9921209897147483 7.6354765201103874 12.390120350988582 1.915768190752712 7.1175015717744818 1595.15340802235 7.5567363543086712 5.257217677892184 22.434199368304689 2.9532872866257076 1.2244399511255348 2.0689190556295212 1.4031191471731288 0.84439833601936687 3.4540612477576387 1.3432731463108221 0.84100820962339529 1.7161897523328704 8.5263634710572571
leaf_count=24 20 31 24 18 36 21 61 89 2041 255 111 130 184 129 35 117 7435 177 137 667 102 29 38 35 20 92 30 30 33 122
internal_value=0 0.0437358 0.0711382 -0.0589899 0.101815 0.138042 -0.000579315 -0.000851891 -0.0177247 -0.00358518 0.0623906 -0.0177628 0.000845046 0.0731733 0.110124 4.03615e-05 -0.000485771 -0.0619959 0.00900205 -0.0849871 0.0796537 -0.0721335 0.0871093 0.0162685 -0.0165706 -0.113981 -0.0767528 -0.0091088 -0.0755437 0.16344
internal_weight=0 23.1606 18.2834 4.87717 15.121 11.5781 1800.4 1794.82 164.014 124.311 21.9883 102.323 1630.8 17.9438 14.3059 1612.86 1602.27 39.7029 9.71193 29.9909 10.5888 3.63792 5.57913 3.47204 3.54291 3.97808 2.69851 1.70426 3.16243 9.87384
internal_count=12273 477 347 130 283 197 11796 11699 3607 2537 366 2171 8092 254 164 7838 7552 1070 226 844 286 90 97 73 86 112 66 51 64 146
is_linear=0
shrinkage=0.3


Tree=202
num_leaves=31
num_cat=0
split_feature=125 150 16 33 140 39 29 29 62 124 107 197 50 160 48 123 193 276 93 157 165 253 284 71 118 130 1 244 258 125
split_gain=0.52414 0.695227 0.663847 0.627877 0.6113 0.558467 0.531717 0.525644 0.524088 0.879752 0.88885 0.714178 0.580963 1.25093 1.19801 1.4758 1.13301 1.06169 0.716685 0.454909 0.416143 0.405183 0.573777 0.348012 0.334617 0.267837 0.287078 0.174353 0.103971 0.0872133
threshold=-0.06195900030434124 -0.0095077352393747889 -0.063042374156052919 0.047417786630895999 -0.12620899826288218 -0.098471158109697435 0.076214000582694966 0.063446629372923932 -0.067196499556302983 -0.036373000591993242 0.020653112243201689 0.013768000062555052 1.0000000180025095e-35 -0.053865000605583142 0.0026957826232774712 -0.024460554822663481 0.01694278119065799 0.016973395880200453 0.055241500958800253 0.025845368753419581 -0.081158500164747183 0.013119742320892342 0.046794427445595095 -0.064936593966766126 -0.022182000800967147 -0.022925999946892196 -0.047350705663620173 -0.11027200147509568 -0.037120999768376295 -0.091087002307176534
decision_type=2 2 2 2 2 2 2 2 2 2 2 2 2 2 2 2 2 2 2 2 2 2 2 2 2 2 2 2 2 2
left_child=1 21 19 5 6 24 -2 28 9 -6 11 -11 14 17 18 -16 -15 -14 -10 27 -7 -1 -23 -21 -4 -24 -27 -3 -5 -25
right_child=4 2 3 7 8 20 -8 -9 12 10 -12 -13 13 16 15 -17 -18 -19 -20 23 -22 22 25 29 -26 26 -28 -29 -30 -31
leaf_value=-0.19510802647651881 -0.20167032938822418 0.08654118585755595 0.1959310255147019 0.049393149068129825 -0.21309325254907438 0.094461942514851169 0.09765592684508953 -0.17347809708236692 0.00046318906813686315 -0.15757688566970257 0.1753967809382912 0.02143405871586547 -0.07962679690579845 0.044162093649130804 -0.0019501627784035856 -0.18849869849101153 -0.0054088362781475963 0.054497093793942117 -0.091962668215168616 -0.10806969358045733 -0.14280780509485597 -0.1908276838866339 0.17285916714122759 0.061173855990305906 -0.058696112997876443 0.19873293223689883 -0.17646560877542519 -0.2038157096856244 0.20219505209513991 0.19143574889257961
leaf_weight=3.5748548713891095 2.355298023554496 0.27425199747085571 0.89315179880941287 0.5631357235251927 2.6723531150782938 0.73659101180965336 0.69075628835707892 0.5517021926207234 1373.0982627571793 3.7129972341353987 1.7421894127764961 4.3624750968883745 19.881254332183747 109.6546643460897 8.6847727214335446 6.809013166523072 66.762882970346254 7.2480654661048893 7.5923887532262588 0.47036952678172417 6.8711899573099693 1.4255040050484242 0.95474792149616405 0.56190936345228726 0.96782338572666293 0.26764852833002806 0.58401249184680615 0.57923702491098517 1.3900332861230718 2.6169511246553157
leaf_count=216 71 7 17 39 81 27 11 42 5519 119 48 120 514 2393 254 144 1481 207 189 34 356 92 29 31 24 5 52 49 26 76
internal_value=0 -0.0448595 -0.0115396 -0.0484671 0.000475307 -0.083801 -0.133792 0.0851 0.000728985 -0.0604854 -0.0189457 -0.0608728 0.00120692 0.01618 -0.000975974 -0.0839322 0.0254026 -0.0437933 -4.50588e-05 0.0866579 -0.119835 -0.125513 -0.0485336 0.132773 0.063509 0.063756 -0.0585533 -0.110515 0.158139 0.16841
internal_weight=0 23.2831 16.4763 11.9736 1615.27 9.46876 3.04605 2.50487 1612.22 12.49 9.81766 8.07547 1599.73 203.547 1396.18 15.4938 176.418 27.1293 1380.69 4.50272 7.60778 6.80677 3.23191 3.64923 1.86098 1.80641 0.851661 0.853489 1.95317 3.17886
internal_count=12273 1122 728 531 11151 424 82 107 11069 368 287 239 10701 4595 6106 398 3874 721 5708 197 383 394 178 141 41 86 57 56 65 107
is_linear=0
shrinkage=0.3


Tree=203
num_leaves=31
num_cat=0
split_feature=217 241 143 188 261 298 75 70 28 172 39 293 101 18 71 73 129 160 158 288 249 36 291 242 53 84 169 4 45 69
split_gain=0.441536 0.865253 1.10829 1.06888 0.709435 0.815618 0.830232 0.683136 0.925225 1.18046 0.786465 0.948877 0.687886 0.667993 0.705199 0.60803 1.37009 0.945306 1.0983 0.783044 0.631598 0.601377 0.667336 0.589461 1.21762 0.983181 1.15193 1.0748 0.836959 0.819759
threshold=0.093936000019311863 -0.030004999600350798 0.038259732935958281 -0.019600031741081343 0.043027998879551853 0.040018999949097613 0.093623500317335115 -0.076893001794814994 -0.12368037094030462 -0.040314000099897343 -0.10210749879479404 0.0079149999655782517 -0.060033500194549498 0.057215500622987706 -0.089915998280048329 0.12444249913096427 0.0076014259434860516 0.016290717348704315 -0.11203049868345254 0.047678999602794606 0.03893925324361875 0.029779117429297144 -0.063941623938712791 -0.012336499989032699 -0.012974907865189659 -0.049026500433683347 -0.041209213833694879 -0.032654499635100344 -0.071406997740268693 0.02279095625936196
decision_type=2 2 2 2 2 2 2 2 2 2 2 2 2 2 2 2 2 2 2 2 2 2 2 2 2 2 2 2 2 2
left_child=7 2 4 -4 13 6 -6 8 12 -10 -11 -12 -1 14 -2 23 17 18 -17 -18 -19 22 -3 24 29 27 -27 -25 -26 -9
right_child=1 21 3 -5 5 -7 -8 15 9 10 11 -13 -14 -15 -16 16 19 20 -20 -21 -22 -23 -24 25 28 26 -28 -29 -30 -31
leaf_value=-0.079705665993801064 0.094221733054340284 -0.074863031019835755 0.08186341905786565 -0.17626881725082616 0.12412152200806753 -0.08148613166661875 -0.049794926253167296 -0.010670732963673121 0.074530612670380303 0.09534065505033458 -0.13870167375728309 -0.036070879241174927 0.18722585895829982 0.13993563331359432 -0.17485586666435685 0.21373859354471517 0.13393484840922662 -0.040260229208798279 -0.043433504642595606 -0.055200687623342036 0.18706848957614089 -0.11280583026606929 0.086218115946091856 0.095266676166022482 -0.072534730015410914 -0.040449143446126046 0.0013313498312568636 0.0091271578078407148 -0.015556982142299584 0.11905458069883214
leaf_weight=1.2839783167000862 1.1365593420341604 2.5422026729211273 1.943892069160938 5.6111797848716369 10.878048615064474 3.280320198275148 3.1962074572220436 8.5928471246734279 5.8047084177960633 2.3690285696648052 15.123708411585538 17.476885525858961 2.6875971201807252 1.1553766317665575 3.8324503388721562 1.5962959267199064 13.407435383298433 1.6113771921955038 23.453145459294323 2.3094179229810825 3.465700744651258 1.6821446469984938 25.867116930428892 20.236328907310963 30.117096301109996 61.989007828407921 1417.0801870953583 36.642381385201588 101.06184758307063 8.9508105053100717
leaf_count=25 23 51 29 84 137 65 47 142 89 33 268 304 29 26 83 16 135 34 285 35 39 39 502 286 523 1043 5440 601 1730 130
internal_value=0 0.0252363 -0.00991033 -0.109852 0.0222491 0.0532277 0.0846258 -0.000696132 -0.0372939 -0.0507574 -0.0715543 -0.0836822 0.100929 -0.0655346 -0.11331 0.000250177 0.0343393 -0.00312061 -0.027045 0.106143 0.114918 0.0614839 0.0718038 -0.000677458 -0.0187114 0.00106873 -0.000419705 0.0397739 -0.0286384 0.0555154
internal_weight=0 61.1255 31.034 7.55507 23.479 17.3546 14.0743 1775.26 44.7459 40.7743 34.9696 32.6006 3.97158 6.12439 4.96901 1730.51 45.8434 30.1265 25.0494 15.7169 5.07708 30.0915 28.4093 1684.67 148.723 1535.95 1479.07 56.8787 131.179 17.5437
internal_count=12273 1086 494 113 381 249 184 11187 748 694 605 572 54 132 106 10439 544 374 301 170 73 592 553 9895 2525 7370 6483 887 2253 272
is_linear=0
shrinkage=0.3


Tree=204
num_leaves=31
num_cat=0
split_feature=122 95 118 167 290 18 152 217 161 175 185 242 213 235 230 68 154 243 10 145 151 195 3 20 178 11 239 6 51 2
split_gain=0.465934 1.02659 1.14693 0.902209 0.787613 0.740753 0.667454 0.543189 0.530155 0.639828 0.468107 0.719961 0.572104 0.852543 0.818639 0.684104 0.655622 0.871759 0.612646 0.560175 0.614556 0.589557 0.539376 0.509848 0.612695 0.456682 0.417491 0.400529 0.387631 0.376959
threshold=-0.10997999832034108 0.042828413148788561 0.025655040410969516 0.015889000147581055 -0.00078760990396532088 -0.014405500143766349 0.021156873265654821 0.009249499998986702 -0.098769541030293714 -0.060133031266522217 -0.070578999817371341 0.074741190404756699 -0.029873999767005398 0.053403498604893657 -0.014684155770880971 -0.083811499178409479 -0.075206000357866246 -0.0027275401875851112 0.056655151190617044 0.08501499891281121 0.016453499905765005 0.080784141573055759 -0.014350028614802413 0.023702499456703652 -0.023961754566312516 0.066020082085031032 0.070417285923037851 -0.067955534824173852 0.1000428990999125 -0.007077499991282799
decision_type=2 2 2 2 2 2 2 2 2 2 2 2 2 2 2 2 2 2 2 2 2 2 2 2 2 2 2 2 2 2
left_child=1 2 4 -3 8 29 -7 -6 9 -1 19 12 13 14 -12 -15 17 -14 -18 20 21 22 -2 25 -25 -13 -9 -23 -5 -4
right_child=10 3 5 28 7 6 -8 26 -10 -11 11 23 16 15 -16 -17 18 -19 -20 -21 -22 27 -24 24 -26 -27 -28 -29 -30 -31
leaf_value=-0.16673162734305147 -0.012241884239183664 0.1325345483876155 -0.049208130649120899 -0.15921974171369971 0.20102374115501856 -0.16981562609509504 0.082813104860574152 -0.15254961450005311 0.15322471464048348 0.15892445120377105 0.0011004006647012635 -0.15185056229188346 0.10744661657581238 0.15404969968871854 -0.1024501113252602 -0.013151025044356498 0.00078177841590613072 -0.070208272115825324 -0.028803134871800709 0.19648526878088399 0.13936450550002746 0.071571593542825593 0.11638498654511636 -0.20295105453548964 0.093606749800266342 0.024509578911697149 0.07707232848526975 -0.15839692289861337 0.08872947947023388 0.16808126553043692
leaf_weight=1.1046366889495405 8.196855049056472 1.5374147544498544 1.1854534880258145 4.6128062195784878 0.80637011397630276 3.7249455385026513 1.2594891288317738 2.1009076164627918 13.255636288988169 1.0679224312771136 11.138290880131537 6.5383026045674324 10.500861399108542 3.1456743442395236 17.935479146253783 7.3442155161756073 1623.4097930046119 3.2569315853179424 65.538991279696347 1.9466314746532578 3.6472041235538191 0.90164782770443741 4.569861886091533 0.827474630554207 2.5880081620998672 1.6561998244142158 1.0784325334243474 2.7931224909843868 0.64706155052408565 1.8244086692575363
leaf_count=20 220 50 31 150 19 112 28 56 251 24 338 230 167 58 488 203 7904 91 1292 29 87 29 106 39 61 46 34 60 18 32
internal_value=0 0.0347355 0.0606176 -0.0696272 0.0999982 -0.0350171 -0.10598 -0.0188864 0.130711 -0.00665523 -0.000613605 -0.00115979 -0.000663612 -0.036327 -0.0627794 0.0369886 0.000165053 0.0653897 -0.000366252 0.0428198 0.0279441 0.00325783 0.0338003 -0.0756189 0.0217592 -0.116206 -0.0746618 -0.102277 -0.128717 0.0825004
internal_weight=0 34.2055 27.4082 6.79728 19.4139 7.9943 4.98443 3.98571 15.4282 2.17256 1775.94 1753.88 1742.27 39.5637 29.0738 10.4899 1702.71 13.7578 1688.95 22.0553 20.1087 16.4615 12.7667 11.61 3.41548 8.1945 3.17934 3.69477 5.25987 3.00986
internal_count=12273 825 607 218 404 203 140 109 295 44 11448 10917 10541 1087 826 261 9454 258 9196 531 502 415 326 376 100 276 90 89 168 63
is_linear=0
shrinkage=0.3


Tree=205
num_leaves=31
num_cat=0
split_feature=122 240 93 244 290 159 9 295 115 223 59 205 137 43 87 233 291 30 229 249 4 22 227 103 151 255 119 277 112 266
split_gain=0.563565 0.94983 0.950526 0.927167 0.811175 0.713763 0.687666 0.866223 0.725356 1.05159 0.989237 0.900412 0.731991 0.694435 0.606819 0.605609 0.601164 0.656991 0.581671 0.567935 0.567623 0.512417 0.830136 0.508235 0.454331 0.444952 0.436447 0.434314 0.405829 0.394631
threshold=-0.093301497399806879 0.083913410503288197 -0.048070501536130843 -0.069311998784542042 0.013869999907910753 0.058754152658272808 -0.085620851781540872 0.042328852983818027 -0.078891010904456119 0.00098331515957989705 0.013949699272079299 -0.072023499757051426 -0.099123500287532737 -0.037201499566435745 0.059660277254186232 -0.085318502038717187 -0.036711499094963039 -0.0010555732982896041 -0.04556450061500069 0.076557997614145265 0.015600814989190562 0.045696999877691262 -0.05388849973678584 -0.026810499839484647 0.0078056057662235058 -0.011265499982982799 -0.032785499468445743 0.04472049407238677 0.050069585159725795 -0.035866500809788641
decision_type=2 2 2 2 2 2 2 2 2 2 2 2 2 2 2 2 2 2 2 2 2 2 2 2 2 2 2 2 2 2
left_child=1 3 -3 4 5 20 21 8 12 11 -11 -10 19 -14 23 29 17 -5 27 -8 -1 22 -2 -4 -17 -19 -24 -18 -16 -9
right_child=6 2 14 16 -6 -7 7 15 9 10 -12 -13 13 -15 28 24 18 25 -20 -21 -22 -23 26 -25 -26 -27 -28 -29 -30 -31
leaf_value=0.10619394629702629 -0.1509353875176119 0.1342420895134917 0.033947724369622685 -0.11712462085258751 -0.19617805134283325 -0.21117804760657138 -0.20968749883705604 -0.087796640686044605 0.080117889924932878 0.061042854097760696 -0.0057889798845961208 -0.00099447370373316859 -0.12316801559017705 0.029161803350919262 -0.11340931597473276 -0.14643099638833773 -0.15589209118705491 0.17547591497424644 -0.14726471412056533 -0.00041000239695224649 -0.084828140882087996 0.17483189653250819 -0.014934301191938629 -0.16408242453618607 0.011988956279789291 -0.084032885523087686 0.1600958671706082 0.16569238213763396 0.18143778234422339 0.15382604721754703
leaf_weight=11.95262568321777 1.6959307970246298 1.4788365199638072 1.308601847020326 1.8687228446360675 1.1309691196656775 0.78074604712310325 3.9898872487538055 1.0469846464693549 12.422884868530671 49.972659842460416 33.160094436476356 1446.8614332673897 3.9143616589717576 8.6351519092859199 0.76272836842690661 7.6984287266386655 0.58635703893378277 2.2919096464756876 6.7644344653672333 1.6495821212884036 1.5857669711112983 3.3249920943635516 2.1388795765524264 10.733055803430029 2.0666584833525121 0.80296683940105085 3.2011369497631659 1.0635209979373028 0.93537408858537674 1.4521230335813005
leaf_count=348 42 31 59 72 56 24 129 21 312 1068 930 7244 140 232 31 277 34 59 272 44 60 96 65 343 96 25 86 25 13 39
internal_value=0 -0.0336563 -0.0942891 -0.00164759 0.0484159 0.0677347 0.000746671 0.000239224 0.000863336 0.00156569 0.0343849 -0.000303964 -0.0586956 -0.0183519 -0.118886 -0.0791784 -0.0594658 0.0233351 -0.10831 -0.148472 0.0838193 0.0777811 0.0319175 -0.142562 -0.112903 0.108146 0.0899896 0.0514031 0.0490028 0.0525998
internal_weight=0 44.0466 15.2186 28.828 15.4501 14.3191 1583.23 1572.87 1560.61 1542.42 83.1328 1459.28 18.189 12.5495 13.7398 12.2642 13.3779 4.9636 8.41431 5.63947 13.5384 10.3609 7.03595 12.0417 9.76509 3.09488 5.34002 1.64988 1.6981 2.49911
internal_count=12273 1452 477 975 488 432 10821 10532 10099 9554 1998 7556 545 372 446 433 487 156 331 173 408 289 193 402 373 84 151 59 44 60
is_linear=0
shrinkage=0.3


Tree=206
num_leaves=31
num_cat=0
split_feature=136 290 85 260 137 229 211 181 295 45 140 22 154 229 254 261 87 252 125 255 255 295 23 156 148 237 183 298 285 89
split_gain=0.426243 0.659822 1.08924 1.13032 1.18774 0.983296 0.901838 0.857964 0.973618 0.737725 0.677752 0.645363 1.08284 1.13252 0.944659 1.05901 0.965412 0.936463 0.903419 0.891881 1.15448 1.88414 1.0469 1.41893 1.263 1.03681 0.962534 0.961627 0.942252 1.12775
threshold=0.02075945132716223 -0.063668500632047584 0.037546500563621507 0.11276570161305909 -0.099123500287532737 -0.015980425864108961 -0.11538949981331818 0.011537500191479852 -0.012698621696196009 0.0040005000773816511 -0.029878499917685947 0.02647220176620594 0.025544000789523052 -0.031755771649144601 -0.029373499564826447 0.083155002444982459 -0.011749000288546049 0.045975870745042814 0.04358761229962986 1.0000000180025095e-35 0.0023140000412240004 -0.0013458207039084332 0.024155000224709452 -0.016300351737694462 0.10977600142359732 0.032699000090360607 -0.1124784983694553 0.020384425667538546 -0.10639853939597724 0.0048819999210536003
decision_type=2 2 2 2 2 2 2 2 2 2 2 2 2 2 2 2 2 2 2 2 2 2 2 2 2 2 2 2 2 2
left_child=11 5 3 4 -3 7 -6 -2 10 -7 -9 19 13 18 16 -16 -15 -14 -13 22 21 27 23 -1 -25 26 -24 -21 -22 -30
right_child=1 2 -4 -5 6 9 -8 8 -10 -11 -12 12 17 14 15 -17 -18 -19 -20 20 28 -23 25 24 -26 -27 -28 -29 29 -31
leaf_value=0.11266474196685591 -0.14787064194494434 -0.091929633452722398 -0.062240239801007027 0.16208863033815499 -0.16894140399280635 -0.15240633891683994 0.077517093269708112 -0.19966670872058559 0.20525097310053245 0.077798395384486657 0.094665660899227844 -0.068042887127723772 -0.12325168415535213 0.03381527811640031 -0.0013266318281356163 0.12033378263130803 -0.058190652600816122 -0.019343152937656673 0.088795713464583773 -0.095898395824470392 0.13146331018996729 0.28094867208627267 0.17990922708610699 -0.0014846558298130296 0.069458564372053971 0.047787780615565593 -0.066021505764771171 0.17621863508422184 0.038791465835567439 -0.021712243970328653
leaf_weight=10.069134499877689 1.6351177794858811 5.3547588451765433 7.4717519936384624 8.1562881134450418 1.4158461331389833 6.1067913366132398 23.765081376419413 1.2382446220144627 3.382675260072574 1.5762651805998755 1.6322593903169038 29.892644682753598 15.150681964471007 20.860865585738793 12.410076262662189 13.384151273057794 20.206243084277958 16.102452151710168 3.7163537461310616 3.1404502093791962 6.1473412493942297 4.0336381089873594 1.4772042986005534 1409.2766770380258 22.95304236933589 9.9413126438448653 47.115111964085372 1.8616505130194125 59.968779354821891 51.568977278075181
leaf_count=160 32 126 168 87 26 152 416 24 36 30 22 542 382 299 231 207 377 323 61 62 90 32 16 5225 291 184 790 28 915 939
internal_value=0 0.0246125 0.0426253 0.0628757 0.0363753 -0.0287893 0.0636595 0.0456111 0.0962039 -0.105177 -0.0323 -0.00074892 -0.0209462 -0.00577566 0.0168065 0.0618007 -0.0114544 -0.0697152 -0.0507003 0.000885712 0.0250542 0.128394 -0.00115492 0.000441262 -0.000347713 -0.0404857 -0.0585452 0.00537642 0.0171198 0.0108178
internal_weight=0 61.7351 46.1637 38.692 30.5357 15.5714 25.1809 7.8883 6.25318 7.68306 2.8705 1759.28 131.723 100.47 66.8613 25.7942 41.0671 31.2531 33.609 1627.55 126.721 9.03574 1500.83 1442.3 1432.23 58.5336 48.5923 5.0021 117.685 111.538
internal_count=12273 1119 823 655 568 296 442 114 82 182 46 11154 2422 1717 1114 438 676 705 603 8732 2066 122 6666 5676 5516 990 806 90 1944 1854
is_linear=0
shrinkage=0.3


Tree=207
num_leaves=31
num_cat=0
split_feature=133 6 89 52 175 120 291 212 242 265 160 123 148 68 128 49 124 109 156 108 35 79 2 26 70 174 41 152 88 268
split_gain=0.450229 0.816886 0.636926 0.630079 0.624916 0.921268 0.773248 0.687722 0.687478 0.569154 0.548779 1.03934 0.655744 0.668261 0.611652 0.550186 0.54683 0.636804 0.605775 0.534563 0.42312 0.381736 0.338729 0.323658 0.314458 0.42108 0.262878 0.222329 0.208003 0.199295
threshold=-0.08018999919295304 -0.09073400124907488 -0.10888599976897238 -0.0090406187766312335 -0.059617346674036668 0.037443000823259361 -0.0070860170922382735 -0.0028257056180436236 -0.010515319040334804 0.034227499738335561 0.052534676373964403 0.02659140898100577 0.10505000129342076 -0.053849310130567936 0.15347500145435328 0.010432570961862344 -0.10415599946855993 0.14320449531078336 0.045908000320196103 -0.021442356543997072 0.054247001186013208 0.038193606037003301 -0.018991034274219293 0.0021414596984251307 0.011373000219464252 0.024015999399125503 0.033381900625567638 0.0069846201113696682 0.076684501022100407 -0.012656763382052809
decision_type=2 2 2 2 2 2 2 2 2 2 2 2 2 2 2 2 2 2 2 2 2 2 2 2 2 2 2 2 2 2
left_child=1 3 21 -1 6 20 9 26 -7 19 14 12 13 -12 16 -16 18 -18 -4 -3 23 -2 -9 -6 25 -13 -8 -5 -17 -14
right_child=2 4 10 27 5 8 7 22 -10 -11 11 24 29 -15 15 28 17 -19 -20 -21 -22 -23 -24 -25 -26 -27 -28 -29 -30 -31
leaf_value=0.067865121639850687 0.011281114249382978 0.13391450053151036 -0.031606114719132605 -0.21765410621029843 0.19162560801200032 0.083006679463023939 -0.058540502905601692 0.20754194078930682 -0.20223545216696501 0.1706344951769822 -0.08936071336114125 0.16241947004996546 -0.20044017094307709 0.0080066680469331776 -0.070592385630755872 0.06428785973787049 -0.00036043986508115379 -0.070346535199430169 0.1291819622578686 -0.11528103574421961 -0.02930895679580273 0.21124745426896532 -0.047541080516434027 0.061333535427737597 0.18878558929796149 -0.15478003872986401 -0.22440046864927701 -0.063789247587251768 0.21328982630700402 -0.040017017883558409
leaf_weight=1.8842284926213322 1.4870007713325315 1.337611692491919 3.2609303388744575 1.8739063972607284 7.5381350178213271 1.7044294392690065 1.4866865093354138 0.86856536474078883 1.3730723147746182 3.0734791873255745 12.352821740263609 0.77849320782115616 3.3440220621996559 13.041781411768172 1.2108066016808141 1.2846194198355081 1704.0580877028769 11.781957429833708 5.9690570635721087 1.8411446288228033 1.1650925213471044 2.0350617071380839 1.0172526643727939 2.221608396852389 2.0847198134870268 0.7296987698355224 2.0403406294062734 1.5396277168765662 2.4538530799327418 0.88045897515257721
leaf_count=37 32 30 66 22 122 30 36 13 29 47 399 22 133 363 30 24 10207 184 103 38 29 21 29 51 30 40 22 26 29 29
internal_value=0 0.0358642 -0.000625844 -0.071389 0.0580012 0.100726 0.00671541 -0.0762967 -0.0442583 0.0785828 -0.000880422 -0.0390787 -0.0575624 -0.0393562 -0.000147113 0.105166 -0.000449258 -0.000841005 0.072376 -0.0104203 0.141568 0.126822 0.0699444 0.161967 0.113297 0.00895088 -0.154488 -0.148255 0.16209 -0.167005
internal_weight=0 30.9652 1766.75 5.29776 25.6674 14.0023 11.6651 5.41285 3.0775 6.25224 1763.23 33.212 29.6191 25.3946 1730.02 4.94928 1725.07 1715.84 9.22999 3.17876 10.9248 3.52206 1.88582 9.75974 3.59291 1.50819 3.52703 3.41353 3.73847 4.22448
internal_count=12273 561 11712 85 476 261 215 100 59 115 11659 1016 924 762 10643 83 10560 10391 169 68 202 53 42 173 92 62 58 48 53 162
is_linear=0
shrinkage=0.3


Tree=208
num_leaves=31
num_cat=0
split_feature=202 40 191 266 199 255 25 172 202 97 26 202 258 150 165 184 175 28 19 246 200 273 5 7 54 53 107 98 290 208
split_gain=0.511055 1.08352 0.839761 0.912198 0.782514 1.47199 0.826011 0.847804 0.767412 0.725228 0.687669 0.675761 1.0337 1.1562 0.994882 0.87485 0.825213 1.23513 1.0142 0.806237 0.758089 0.957208 0.752512 1.07493 0.915791 0.740256 0.732551 1.04045 0.996684 0.722164
threshold=-0.055826500058174092 0.019848783385186374 0.0004776623322185804 -0.0094484998844563493 -0.049495477194581278 0.035341000184416708 -0.10834049805998798 0.026464999653398952 -0.080490000545978477 -0.0090576799365301459 0.02077962889981624 -0.0022514293303440981 -0.051124500110745395 -0.024031999520957397 0.019715542412772194 -0.066657553724494348 0.00064123939877757188 -0.014822738219663798 0.0018094572570068245 -0.063136000186204841 -0.055446499958634342 0.013176999986171651 -1.0000000180025095e-35 -0.094755153493289848 -0.03952549956738944 0.092117390456866052 -0.009747000411152798 -0.045907000079750938 -0.080686956764916176 -0.053186500445008243
decision_type=2 2 2 2 2 2 2 2 2 2 2 2 2 2 2 2 2 2 2 2 2 2 2 2 2 2 2 2 2 2
left_child=1 -1 4 -4 5 10 7 -6 -8 -5 -3 12 15 -14 25 -2 19 20 -19 -13 -18 -22 23 -21 -24 -15 28 -28 -17 -16
right_child=11 2 3 9 6 -7 8 -9 -10 -11 -12 16 13 14 29 26 17 18 -20 22 21 -23 24 -25 -26 -27 27 -29 -30 -31
leaf_value=-0.1302819855536147 -0.069530160725602794 -0.16500837866205534 -0.14464236681451173 0.11507275837388314 0.12796181550246527 0.18706350400526911 -0.087189172717989302 -0.054465912597685844 0.045818029971611267 -0.098810783967283086 0.11400900523488655 -0.089481256300418296 -0.077609022446293183 0.11084705087647094 -0.16272374009229823 -0.14996579822456513 -0.069811848604409338 -0.33153039160091352 -0.081936173008666346 -0.022938291771673763 0.16315589445023096 -0.066355327776965914 -0.10788768421811695 0.061586790276773294 -0.00030007003278708174 -0.036823870850273971 -0.10595778471353415 0.086605410667107752 0.0074178139900660592 0.033814853956662769
leaf_weight=7.9779207922983906 13.321489820020359 6.0651744497590645 7.576399934667279 3.0202158571919426 10.669068037706888 1.644462135795038 6.9049438425208747 2.920313199982048 8.9833404325327244 2.7043952586973301 0.91490645680460136 8.9986247077176795 5.1456055426097 30.61082465396612 2.2759703006086056 4.0585895875701672 8.9524389612779487 2.2469119360321193 4.2114547038218006 20.367365423269803 3.7792996983043858 2.8831054961701739 7.1587061598256687 40.401447549731529 1336.5038488166028 3.3938962878601151 2.9284280188439906 18.345798760303296 33.621945274608152 6.4539859254728054
leaf_count=308 482 198 261 76 174 29 198 52 232 91 33 284 170 696 92 92 253 34 122 614 110 63 205 1007 4779 103 83 430 796 206
internal_value=0 -0.0274172 -0.0114523 -0.0763511 0.011203 -0.0682793 0.0344579 0.0887587 -0.011986 0.0140308 -0.128436 0.000940109 0.0225518 0.0567391 0.0729157 -9.59918e-05 -0.000868864 -0.058427 -0.168772 3.00076e-05 -0.0127879 0.0638366 0.000603534 0.0332572 -0.000873271 0.0961085 0.0155934 0.0600988 -0.00953405 -0.0174243
internal_weight=0 59.3811 51.4032 13.301 38.1022 8.62454 29.4777 13.5894 15.8883 5.72461 6.98008 1555.66 120.157 47.8803 42.7347 72.2763 1435.5 22.0732 6.45837 1413.43 15.6148 6.66241 1404.43 60.7688 1343.66 34.0047 58.9548 21.2742 37.6805 8.72996
internal_count=12273 1652 1344 428 916 260 656 226 430 167 231 10621 3150 1267 1097 1883 7471 582 156 6889 426 173 6605 1621 4984 799 1401 513 888 298
is_linear=0
shrinkage=0.3


Tree=209
num_leaves=31
num_cat=0
split_feature=216 32 251 275 263 203 196 189 171 86 278 11 54 271 46 217 269 126 119 226 42 177 153 18 272 243 54 102 24 181
split_gain=0.423882 0.69072 0.526146 0.699063 0.435493 0.904226 1.07208 0.995903 0.617507 0.60225 0.546895 0.47656 0.432786 0.926778 0.919845 1.22362 1.05298 0.889625 0.416037 0.395468 0.383393 0.382061 0.529075 0.261077 0.260161 0.199009 0.165851 0.0158166 0.00241884 0.000369455
threshold=-0.15153799951076502 0.033651500940322807 0.037298431313144732 -0.019521127954416687 -0.082680238182002749 0.072654999792575822 0.031880231260278967 -0.049659000709652845 0.0063719998579472008 -0.037328264759962308 -0.085813499987125341 -0.049315501004457397 -0.031832499429583494 0.14729184168387291 0.012174556940377215 0.013904500287026103 0.16338399797677991 -0.0019099999917670497 -0.021243176514365466 -0.0044878917493207174 -0.032610500231385141 -0.026577706636179827 0.0077080000191926514 -0.036656500771641697 0.068546000868082005 -0.039436999708414043 -0.044071000069379744 -0.047406999394297544 -0.059563425853204989 0.041874285753068945
decision_type=2 2 2 2 2 2 2 2 2 2 2 2 2 2 2 2 2 2 2 2 2 2 2 2 2 2 2 2 2 2
left_child=1 2 18 -4 5 6 7 8 -2 -9 21 -8 14 17 15 -12 -16 -14 28 -15 -7 22 24 -13 -6 -22 -23 -28 -1 -30
right_child=4 -3 3 -5 10 20 11 9 -10 -11 12 23 13 19 16 -17 -18 -19 -20 -21 25 26 -24 -25 -26 -27 27 -29 29 -31
leaf_value=-0.22841848893860614 0.18113737985488348 0.1466070087886136 0.13341967647564645 -0.20682521057359265 -0.20431149603078494 0.0061646442987893409 -0.047940400293869048 0.10653202169733884 -0.02918585637448437 -0.10139971439260233 -0.027125932677543194 0.03368242282541719 -0.03677638778967416 0.24983318962319931 -0.016452712355624538 0.092593129689726536 0.11751915570551262 2.0063592873943997e-05 -0.014594613995080769 0.046542841826983046 0.22794394509832766 -0.031830647654417989 0.15422595098367789 0.19971191137353206 0.011393368529916405 0.10353157884607182 -0.1577362745991259 -0.20962974765844747 -0.20675806079058481 -0.21465858090226955
leaf_weight=1.1566482083871958 2.6730089979246321 1.1559967388166112 1.5157510228455069 0.84724950903910201 1.0798937529325492 1.5350901093333957 1.2375907301902769 1.4229146726429522 2.3705265526659787 10.539028902887361 10.936897400068117 1.111619330011308 61.406133869895712 1.8298911894671621 53.897665162454359 25.829844460007735 5.8534522457048288 1598.1812780272157 1.2482238172087803 1.6269499636255194 2.8996247146278615 0.721387283294462 1.1066505932249127 3.6552956830710164 0.94236838072538365 1.9255902604199939 0.7438517557457095 1.8267511776648448 0.88784732052590731 1.3317918858956543
leaf_count=11 26 20 31 25 28 28 19 24 35 163 250 21 1359 15 1000 480 69 8343 25 27 24 13 21 51 18 25 29 40 33 20
internal_value=0 -0.0682005 -0.103738 0.0114255 0.000398887 0.0366295 0.00895459 -0.0295242 0.0822828 -0.0766655 -0.00020367 0.117931 0.000115246 -0.00101822 0.0196453 0.0569806 -0.00332831 -0.00134144 -0.162583 0.154155 0.13675 -0.0875982 -0.0125359 0.160995 -0.103794 0.178295 -0.158942 -0.194613 -0.217295 -0.211498
internal_weight=0 8.14351 6.98751 2.363 1795.35 29.3703 23.01 17.0055 5.04354 11.9619 1765.98 6.00451 1759.56 1663.04 96.5179 36.7667 59.7511 1659.59 4.62451 3.45684 6.36031 6.4209 3.12891 4.76692 2.02226 4.82521 3.29199 2.5706 3.37629 2.21964
internal_count=12273 165 145 56 12108 416 339 248 61 187 11692 91 11543 9744 1799 730 1069 9702 89 42 77 149 67 72 46 49 82 69 64 53
is_linear=0
shrinkage=0.3


Tree=210
num_leaves=31
num_cat=0
split_feature=158 36 36 272 290 292 262 80 49 223 207 188 106 240 185 98 122 89 108 138 123 183 66 24 99 153 172 56 139 138
split_gain=0.442993 0.637035 0.520484 0.628269 0.747346 0.604757 0.556921 0.63898 0.53456 0.519079 0.936293 0.949351 0.788144 1.07022 0.882825 0.711931 0.686287 0.800362 0.997477 0.75011 1.11177 0.894678 0.647858 0.489072 0.488356 0.398253 0.451844 0.431542 0.428913 0.298809
threshold=0.034889890942282738 -0.10598649829626079 -0.11189749836921684 0.063182107115738628 0.0019406453956712151 0.019454961933824625 -0.029464143283411879 -0.040514069389568384 0.065432000905275317 -0.031602999195456442 0.012618187726344517 -0.032591988423200893 0.016393398115647509 0.12116458011246282 -0.000419850521710929 0.0038070285838984323 -0.077467603167322402 -0.032523998990654897 0.004278499865904401 0.019934209713263932 -0.13190696915358882 -0.026450761887537724 -0.048175500705838196 0.039729999378323562 -0.042125498875975546 0.03273175105703139 0.078442623854323851 -0.094933222587989044 0.0024215338357908064 -0.037529103875001767
decision_type=2 2 2 2 2 2 2 2 2 2 2 2 2 2 2 2 2 2 2 2 2 2 2 2 2 2 2 2 2 2
left_child=2 -2 3 4 6 23 -1 -8 -7 10 12 24 13 -4 -14 -13 17 22 -19 20 -18 -21 -11 -5 -12 26 27 -3 -29 -25
right_child=1 25 9 5 -6 8 7 -9 -10 16 11 15 14 -15 -16 -17 19 18 -20 21 -22 -23 -24 29 -26 -27 -28 28 -30 -31
leaf_value=-0.19964832033354199 -0.16571719554825101 0.16105179265944167 -0.039642638236661136 0.17804410758223096 0.12922509531269902 -0.2050264870411645 -0.14989612034214528 0.079818006999256189 0.16330784384722727 0.131114490576698 0.19902621866570841 0.065494684224248242 -0.012068096276657753 0.11645015066772163 -0.12675564356716645 -0.025157685758984333 0.096571291028289832 0.036738061346194305 -0.060971444905309792 -0.067061471250911275 -0.00028880335161467668 0.0034103750915697698 -0.010662850983671701 0.11202748237197867 -0.12120584882174644 0.15278073701028685 0.21226881081815382 0.048141297680150755 -0.089022936809632872 -0.20494205389950282
leaf_weight=1.821883730124682 1.146470010280608 1.5872314590960712 23.462545365684495 6.0677389709744585 2.6843987341271713 0.92859455512370892 1.7187945659970862 2.9781359281914792 0.57369725964963436 10.606284710345788 0.4640816599712706 21.236254730378278 9.425741091428792 4.7542463210411361 16.820215006824583 12.320318584752384 10.740608435822649 38.054925831354922 12.48907559586223 33.100818048988003 1517.7993330558238 31.780236484308261 3.9927177813369772 0.55156804108992219 5.6053914265939957 3.6280250183772287 1.2014279467985023 4.8841544813476503 3.5380783495493233 0.52004305180162169
leaf_count=57 24 26 789 113 65 42 43 77 9 143 7 435 292 69 455 336 163 784 293 646 6029 764 98 12 173 72 19 111 99 28
internal_value=0 0.0497401 -0.000425997 0.0505504 -0.00399601 0.108641 -0.0588555 -0.00424357 -0.0643665 -0.000945019 -0.0226214 0.0124632 -0.0481484 -0.0133426 -0.0855678 0.0322116 0.000284664 0.0304661 0.0125947 -0.000949227 0.000391805 -0.0325427 0.0923395 0.145046 -0.0967204 0.0663865 0.0384279 0.017562 -0.00947974 -0.0417949
internal_weight=0 15.9854 1770.5 17.8449 9.20321 8.64164 6.51881 4.69693 1.50229 1752.65 94.0888 39.626 54.4627 28.2168 26.246 33.5566 1658.56 65.143 50.544 1593.42 1528.54 64.8811 14.599 7.13935 6.06947 14.8389 11.2109 10.0095 8.42223 1.07161
internal_count=12273 351 11922 446 242 204 177 120 51 11476 2556 951 1605 858 747 771 8920 1318 1077 7602 6192 1410 241 153 180 327 255 236 210 40
is_linear=0
shrinkage=0.3


Tree=211
num_leaves=31
num_cat=0
split_feature=129 230 166 171 34 284 260 158 73 233 66 107 113 141 5 240 50 272 281 80 201 186 219 153 156 278 86 216 290 251
split_gain=0.485329 0.650048 0.595265 0.500892 0.562301 0.495661 0.469538 0.923228 0.825308 0.809878 0.52674 0.439908 0.578581 1.08393 1.06417 0.958461 0.794015 0.647947 0.564681 0.486096 0.421645 0.407749 0.388633 0.341738 0.290788 0.290347 0.270152 0.261719 0.369858 0.255006
threshold=0.053997999057173708 0.01938420499918558 -0.083650998771190574 -0.026581000536680197 0.032083500176668105 -0.0079085002653300485 0.14639444323253928 -0.031595070936469787 0.11563588553548629 -0.084388997405767385 -0.079150497913360526 -0.12378843718568626 1.0000000180025095e-35 0.045040394987707351 -0.032347776552654493 0.14857250452041623 0.085462499409914003 0.054548500105738605 0.021251000463962503 0.025994000025093503 -0.042212998494505848 -0.010760500095784598 0.0047403787250311557 -0.053766495817116636 0.0070221896355309186 0.027687500230967953 -0.0069059999659656993 -0.043778909590074418 -0.022871121633768275 0.071112003177404418
decision_type=2 2 2 2 2 2 2 2 2 2 2 2 2 2 2 2 2 2 2 2 2 2 2 2 2 2 2 2 2 2
left_child=6 3 -3 4 23 -5 11 9 22 10 -8 18 15 14 -14 16 -13 -15 19 24 21 -4 25 -2 -1 -9 -17 -7 -29 -20
right_child=1 2 20 5 -6 27 7 8 -10 -11 -12 12 13 17 -16 26 -18 -19 29 -21 -22 -23 -24 -25 -26 -27 -28 28 -30 -31
leaf_value=0.041481828911010384 -0.054378630297981977 0.12910982818933847 -0.20737261923586298 0.1194201251513789 -0.12751317139848534 -0.19420713072310239 -0.13680368827536724 -0.19378654275047499 -0.20817307347469979 -0.20815128124571666 0.17899231853556027 -0.00093997493717034274 -0.0061896744059263091 0.00044784667136321731 0.045796982864485698 0.0080342878829781968 0.10593376886735742 -0.090600217902049002 -0.029735331158188019 0.069827773737549975 -0.18856343036188375 0.061257108006046723 0.17019322026161821 0.14989362750799229 -0.20025432435790833 0.09091391329192143 -0.18379458398804691 -0.19412897728812012 0.092913573744653741 0.20449565216485341
leaf_weight=0.51141916250344266 0.92579649406252418 0.82422068931919046 0.77887880016351152 0.96502924151718605 1.1386657576222203 2.0301499660272384 0.92010752367787063 0.56434184897807271 0.97678435430861998 4.3647416503081331 0.98345492745283969 1373.9134341609024 55.301432215041132 17.684573182516036 98.662978835971444 0.82642227812902991 6.2850866418593787 11.68119233031757 0.94234439881984122 0.93111896701157082 4.9879331844713288 1.4651843589963389 2.5045377932256088 3.6160164086031727 3.6032490480283741 0.75196830998174846 3.2954462395136934 0.72008159168763086 0.92038926668465337 0.75224558776244521
leaf_count=13 30 22 31 26 47 106 27 24 45 180 23 5898 1372 574 2341 36 172 482 37 28 197 53 57 103 133 20 99 48 36 13
internal_value=0 -0.0485899 -0.112446 0.00127777 0.0609948 -0.0718988 0.000451042 -0.0611292 0.0379182 -0.136938 0.0263489 0.000883872 0.0012127 0.0170499 0.0271242 -0.000884684 -0.000453298 -0.0357695 -0.0755927 -0.125914 -0.139976 -0.03198 0.10083 0.108255 -0.170209 -0.0311458 -0.145333 -0.122198 -0.0330832 0.0742422
internal_weight=0 18.3723 8.05622 10.3161 5.68048 4.63565 1585.46 11.0659 4.79763 6.2683 1.90356 1574.39 1567.65 183.33 153.964 1384.32 1380.2 29.3658 6.74038 5.04579 7.232 2.24406 3.82085 4.54181 4.11467 1.31631 4.12187 3.67062 1.64047 1.69459
internal_count=12273 699 303 396 180 216 11574 376 146 230 50 11198 10974 4769 3713 6205 6070 1056 224 174 281 84 101 133 146 44 135 190 84 50
is_linear=0
shrinkage=0.3


Tree=212
num_leaves=31
num_cat=0
split_feature=272 277 238 146 21 0 172 178 206 61 170 214 214 234 279 249 132 17 139 166 211 99 72 232 278 284 209 240 168 296
split_gain=0.405179 0.529608 0.426116 0.859975 0.838034 1.14236 0.805249 0.73879 0.847923 0.788917 0.67327 0.621712 1.00807 2.40763 1.27583 1.64813 1.20548 0.897951 0.973493 1.04219 0.719753 1.38018 0.954011 0.629535 0.608144 0.606295 0.594614 0.563097 0.532685 0.466341
threshold=0.14805000275373459 0.044029999524354907 -0.079583499580621678 0.024973499588668301 -0.066398633503762267 -0.045552499592304195 0.02046768330150216 -0.011496238297033718 -0.11203350126743308 0.038515498861670459 -0.061435500159859595 0.0011995000531896502 0.0025875433718185068 -0.0039474999066441991 -0.016599000431597195 -0.0088039411289856581 0.052104914262952398 0.020339499227702552 -0.026626360311525207 -0.085733499377965885 -0.065953406270498713 0.014692632015781098 -0.051110500469803741 0.018102862616450281 0.026528194643193496 -0.0096939997747539971 0.079184507033060861 0.011390500236302552 0.033323836418687414 0.045693999156355809
decision_type=2 2 2 2 2 2 2 2 2 2 2 2 2 2 2 2 2 2 2 2 2 2 2 2 2 2 2 2 2 2
left_child=2 -2 3 4 5 28 -7 9 -9 24 -6 17 13 23 15 -14 -16 20 25 -20 21 -4 -22 -13 -5 -19 -12 -10 -1 -11
right_child=1 -3 11 7 10 6 -8 8 27 29 26 12 14 -15 16 -17 -18 18 19 -21 22 -23 -24 -25 -26 -27 -28 -29 -30 -31
leaf_value=-0.21406464647609594 0.11645749695725435 -0.076609016871812027 -0.14708409255010038 0.096248650763477314 0.14006079092662549 0.18452766933953241 -0.03496492090735312 0.1917676494796117 0.094212296010667593 -0.14954072145839209 -0.038196895290289301 -0.17652276585100174 -0.051563917654617861 0.31317307378763554 -0.025788700252493756 0.054831417953149546 0.083311195715480624 0.078681424371861139 0.15357066492872209 -0.036716685375186756 0.049590753842693604 0.0058598323134096356 -0.00041732608261732448 0.05546901417687302 -0.05793189642653937 -0.13531594345110348 0.037373327629690353 -0.14514136589161802 0.036455039460611176 0.10958032875551904
leaf_weight=1.4592143800109618 5.476342965848743 1.6682962209451941 8.6709965062909777 5.8006570250727254 2.395667783683165 6.2506157793104631 1.9810659494251011 0.7873172857798626 0.95097660773899306 4.2825928232632569 44.594281354540726 1.4946433845907448 15.765265494701451 3.4067715574055892 79.285715183010325 77.610952946357429 10.298915387887972 1.3261565500870354 3.0264940699562421 17.978682936882254 35.196048936457373 13.700869420776142 1400.6095420962083 3.5605627670884132 3.8178664557635784 11.738518354948607 11.863772181211969 12.673177466960622 1.6030965505633501 0.73191756568849076
leaf_count=30 112 44 171 84 42 63 36 7 23 134 913 21 395 28 1432 1328 184 27 31 330 478 235 5280 53 71 230 164 282 26 19
internal_value=0 0.0713758 -0.000209336 -0.0193174 -0.00134312 0.0735097 0.131704 -0.0627284 -0.110941 -0.0152456 -0.0157073 0.0009164 0.0170121 0.118243 0.0123302 0.0368681 -0.0132463 -0.00114833 -0.0492929 -0.00929947 -2.34492e-05 -0.0534189 0.000808527 -0.0131226 0.03505 -0.113594 -0.022317 -0.128434 -0.0829195 -0.111719
internal_weight=0 7.14464 1782.86 99.1922 70.1477 11.294 8.23168 29.0445 14.4115 14.633 58.8537 1683.67 191.423 8.46198 182.961 93.3762 89.5846 1492.25 34.0699 21.0052 1458.18 22.3719 1435.81 5.05521 9.61852 13.0647 56.4581 13.6242 3.06231 5.01451
internal_count=12273 156 12117 1894 1274 155 99 620 312 308 1119 10223 3441 102 3339 1723 1616 6782 618 361 6164 406 5758 74 155 257 1077 305 56 153
is_linear=0
shrinkage=0.3


Tree=213
num_leaves=26
num_cat=0
split_feature=119 28 142 110 245 138 154 163 289 229 252 196 37 113 131 154 71 4 194 127 97 280 143 291 229
split_gain=0.428954 0.701206 0.70639 0.545316 0.524089 0.469014 0.607327 0.745757 0.484321 1.22751 0.611147 0.596193 0.854604 0.725879 0.457715 0.39127 0.35672 0.352093 0.285154 0.228181 0.194223 0.104728 0.100625 0.0512071 0.00185874
threshold=-0.14942399412393562 -0.021022000350057995 0.015761975880886892 0.020090674014278175 -0.11017800122499463 0.090440500527620302 0.061618000268936157 -0.088697500526905046 -0.06461549922823899 0.037841999903321259 0.035361500456929158 0.027276546123179351 0.035960499197244609 -0.034530501812696443 0.015648231344642386 -0.09710989617172773 -0.044415500015020343 -0.065175187913811661 0.022292500361800156 -0.047614499926566987 0.024532620042256204 -0.029986499808728646 -0.0032133374840895854 0.033450501039624152 -0.0088266715692772238
decision_type=2 2 2 2 2 2 2 2 2 2 2 2 2 2 2 2 2 2 2 2 2 2 2 2 2
left_child=1 2 3 19 17 8 7 -7 9 10 -6 13 -13 -10 -11 -9 -4 -2 -8 -1 23 -3 -5 24 -19
right_child=4 21 16 22 5 6 18 15 11 14 -12 12 -14 -15 -16 -17 -18 20 -20 -21 -22 -23 -24 -25 -26
leaf_value=0.17821089564813009 -0.073945421401122161 0.10489584732252753 6.0737561523208409e-05 -0.086456002516226538 0.041094736686410914 0.1393989588685052 -0.065383789762979802 0.14204352096498893 0.060801485522924414 0.023249045021472538 -0.038381611105531503 -0.041677278286628816 0.030200470707950559 -0.00039561989894159417 0.16178959897001377 -0.11703255535719044 0.20686732354137177 0.19079129103703865 0.18751074970092413 -0.043907466200232247 0.032694888307952773 0.21721908844656118 -0.21015146002663046 0.10060684653344301 0.21048480294036351
leaf_weight=0.78424278181046247 0.8432913334108888 1.1702119633555415 1.3181143207475545 0.9767879555001856 18.423181221529376 1.2617104834062036 0.59251294936984678 0.5522766783833476 17.636670088104438 3.0373912919894774 16.512810691114282 66.023226311139297 19.221624407990021 1596.4061220133008 7.3155653946450911 10.485473139371607 1.7436608448624609 0.60114319532294835 1.2432848444441331 0.88707714062184073 1.0682621572050264 2.0660845898091775 1.5021055727265775 0.5287532447837292 1.5269899334525683
leaf_count=22 21 31 23 20 422 37 21 10 381 79 397 1790 414 7806 136 391 29 32 32 19 39 26 29 25 41
internal_value=0 0.0605862 0.00852455 -0.0721186 -0.000379663 -0.000643266 -0.0550697 -0.079094 -0.000202281 0.0304159 0.00352953 -0.00101831 -0.0254698 0.000273082 0.121144 -0.10407 0.117836 0.101099 0.105888 0.0603184 0.140726 0.176604 -0.16141 0.184162 0.204922
internal_weight=0 10.4483 7.21199 4.15021 1763.28 1758.71 14.1353 12.2995 1744.58 45.2889 34.936 1699.29 85.2449 1614.04 10.353 11.0377 3.06178 4.56844 1.8358 1.67132 3.72515 3.2363 2.47889 2.65689 2.12813
internal_count=12273 199 142 90 12074 11916 491 438 11425 1034 819 10391 2204 8187 215 401 52 158 53 41 137 57 49 98 73
is_linear=0
shrinkage=0.3


Tree=214
num_leaves=31
num_cat=0
split_feature=296 83 82 89 38 59 214 105 173 211 207 107 18 189 0 207 88 34 139 201 296 289 90 187 160 91 80 96 212 133
split_gain=0.477203 0.498658 0.531336 0.486329 0.826168 0.581815 0.860285 0.579762 0.605841 1.09398 0.851762 0.723511 0.719157 0.659995 0.566366 0.51157 0.493477 0.481375 0.4706 0.433858 0.421355 0.413325 0.40383 0.384129 0.360828 0.324437 0.285197 0.234542 0.145302 0.1021
threshold=0.060157999396324109 0.043640499934554051 0.062774887003868504 -0.054949409145038451 -0.03744917607619893 0.0031578505182176986 -0.035326011368175383 0.10496699810028072 1.0000000180025095e-35 -0.0012094999547115498 0.0016851158130478281 -0.035462500527501044 -0.067445497959852177 0.011864000000059551 -0.075812620093925032 0.028686500154435603 0.03653502242559966 0.0081692752341893 0.022121670257663331 -0.069529499858617741 -0.048268498852848944 0.04323220496879996 0.025534566053964414 -0.038690752851779343 0.058271499350666951 -0.037513468009419952 -0.041121419884599539 0.031836500391364056 -0.10748599842190738 0.011994999833405002
decision_type=2 2 2 2 2 2 2 2 2 2 2 2 2 2 2 2 2 2 2 2 2 2 2 2 2 2 2 2 2 2
left_child=3 2 19 4 16 15 27 8 12 11 -11 -10 14 -14 -5 21 23 -8 22 -2 -17 -6 -9 -1 25 -21 -18 -7 -3 -28
right_child=1 28 -4 7 5 6 17 18 9 10 -12 -13 13 -15 -16 20 26 -19 -20 24 -22 -23 -24 -25 -26 -27 29 -29 -30 -31
leaf_value=0.18567566015071468 -0.1760475413058748 0.050448461979941635 -0.20677417270823809 0.068690339961819266 0.12983079023014465 -0.025092940238778744 -0.17550327185189726 -0.20330749323759673 0.0074453268919525131 0.013394117156988487 -0.14993359912655263 0.074735452248924042 -0.00056357442276664164 0.037020433428340917 -0.12107796418467588 0.090505924517889288 0.0034356519641035926 -0.015405735140000392 0.10074541532226622 -0.13516302348408493 -0.17121188630791148 -0.085958639575848331 -0.014984996728441622 -0.097466577366138299 -0.16486383990227937 0.096936016219321242 -0.20685544668745351 0.1990960387631793 -0.20330254982527135 -0.089782969920062974
leaf_weight=0.71850277297198761 0.99145960379973974 0.2229017787612978 1.2455525435671004 1.7560534049989653 5.2138089681393485 0.63915320658998354 3.9745701851497826 2.9075619890354565 25.523672846276895 6.8919225136123696 4.9288689188106218 32.940698366452125 1429.9052502998638 43.325155733065913 7.2974601136156689 0.91136490623466704 0.79890017979778338 2.9409968858526554 0.90004367032088328 0.62028155027655785 1.4104613028466699 0.94341744179837395 1.5825929603306574 1.0785621546674544 0.68422729050507758 4.2968146858038372 4.414341649695416 1.2247986244037745 2.2854879534861539 0.79049203544855107
leaf_count=17 58 11 68 56 118 37 125 112 615 227 180 826 7351 1415 286 22 32 98 19 31 48 21 32 37 37 124 121 16 117 16
internal_value=0 -0.0643315 -0.0270746 0.000306267 -0.0411544 -0.0045328 -0.0586643 0.000973151 0.00131414 0.0285292 -0.054708 0.0453587 2.36934e-05 0.000541706 -0.0842698 0.0515169 -0.122176 -0.107418 -0.0972448 0.00687549 -0.0684822 0.0967673 -0.136932 0.0157394 0.0392537 0.0676572 -0.163458 0.122221 -0.180754 -0.189075
internal_weight=0 10.3467 7.83834 1583.02 25.0594 17.2586 8.77952 1557.96 1552.57 70.2852 11.8208 58.4644 1482.28 1473.23 9.05351 8.47905 7.8008 6.91557 5.3902 6.59278 2.32183 6.15723 4.49015 1.79706 5.60132 4.9171 6.00373 1.86395 2.50839 5.20483
internal_count=12273 446 318 11827 708 485 276 11119 10956 1848 407 1441 9108 8766 342 209 223 223 163 250 70 139 144 54 192 155 169 53 128 137
is_linear=0
shrinkage=0.3


Tree=215
num_leaves=31
num_cat=0
split_feature=160 167 148 88 229 68 201 143 201 110 201 137 281 284 213 172 172 20 147 260 66 218 126 94 34 83 10 10 49 98
split_gain=0.403724 0.796405 0.749863 0.718141 0.807871 0.687498 0.724745 0.652294 0.565437 0.552844 0.533065 0.898613 1.04059 0.801835 1.11003 0.997694 0.80156 0.778303 0.773327 0.813312 0.742867 0.935751 0.690532 0.678535 0.808724 1.11486 0.843819 0.579275 0.675593 0.553512
threshold=0.040692143190505743 0.00799860257196385 0.056788799305507301 0.022194200379451464 -0.070532001554965876 -0.077452000230550738 0.039122499525547007 0.013994500041007952 -0.01670104660125438 -0.023713077829560576 -0.020748817428173829 -0.027402999810874445 0.028264500200748405 0.05349199846386906 0.085930500179529162 0.034845681856754976 0.028289981898875206 -0.087967000901699038 0.053175998851656851 0.082023497670888859 -0.0016168109064809476 0.017319000326096953 0.053227637751260132 0.07183450087904926 0.005789499962702351 0.0020875828391431869 0.095045901322935847 0.097871500998735358 0.052528500556945752 -0.054300500079989392
decision_type=2 2 2 2 2 2 2 2 2 2 2 2 2 2 2 2 2 2 2 2 2 2 2 2 2 2 2 2 2 2
left_child=10 7 5 -4 -5 -3 9 -2 -9 -7 11 12 18 14 27 16 17 -15 22 -20 21 -17 -1 24 26 -26 -13 28 -12 -14
right_child=1 2 3 4 -6 6 -8 8 -10 -11 13 23 29 15 -16 20 -18 -19 19 -21 -22 -23 -24 -25 25 -27 -28 -29 -30 -31
leaf_value=-0.030334059265784977 -0.10596127922749059 0.073420373406617778 0.15185613410701074 -0.10679561236116097 0.064866449813486396 -0.20401439883502051 0.14769651282340551 0.10996834508464859 -0.097681380452719097 -0.033971027240946083 0.00038015080402905763 -0.029557771278149968 0.12461460204834637 -0.13123221903673643 -0.13323232403368451 -0.10148816477120942 0.14044114697535262 0.038983104053653517 -0.10632324471760339 0.17405756913572432 0.14190828451969828 0.079979492506237274 -0.084274708937405421 -0.17992872759170944 0.12465038700721259 0.0051752124490299532 0.15875229058401327 0.095831201178036549 -0.044886807793873766 0.0027388351972659586
leaf_weight=57.78639674349688 7.0098336921073479 7.6643759469734531 7.3071097192587358 2.8105352362617877 20.208474464481696 1.9872707813046915 1.7437316044233728 3.2664710734970868 1.8478927316609768 12.832261006580662 1399.1815365797956 29.238290796754885 4.6460149246268001 2.5080315768718711 5.6674039489007546 11.467010608990678 6.8447710843756786 67.089532106649131 1.3915284392423917 2.814149106387049 1.8243175789248187 3.2915281794266766 33.88434553584375 1.6077421810477961 11.808334161993118 17.36781105195405 2.3108999086543909 5.630946233868598 30.316186384414323 12.057980287470853
leaf_count=1098 203 167 127 113 394 52 28 74 51 260 5184 665 72 45 134 231 84 1004 50 30 31 56 579 48 217 370 33 93 543 237
internal_value=0 0.0230236 0.0384801 0.0699176 0.0439072 -0.000870597 -0.0352475 -0.0465241 0.0349415 -0.0567735 -0.000771299 -0.0164623 -0.0324624 0.00101806 -0.000724848 0.0280127 0.0424831 0.0328492 -0.0445012 0.0812882 -0.0386921 -0.0610163 -0.0502722 0.0124357 0.0175287 0.0535299 -0.0157645 -0.000201568 -0.000579852 0.0366371
internal_weight=0 66.678 54.5538 30.3261 23.019 24.2276 16.5633 12.1242 5.11436 14.8195 1708.73 174.913 112.58 1533.82 1440.8 93.0252 76.4423 69.5976 95.8764 4.20568 16.5829 14.7585 91.6707 62.3331 60.7253 29.1761 31.5492 1435.13 1429.5 16.704
internal_count=12273 1469 1141 634 507 507 340 328 125 312 10804 3399 2066 7405 5954 1451 1133 1049 1757 80 318 287 1677 1333 1285 587 698 5820 5727 309
is_linear=0
shrinkage=0.3


Tree=216
num_leaves=26
num_cat=0
split_feature=137 6 132 208 260 148 147 224 267 5 252 271 257 157 298 31 161 126 299 286 138 52 196 114 102
split_gain=0.439628 0.418179 0.601084 0.493321 0.732994 0.731822 0.60682 0.632666 0.499545 0.768444 0.621558 0.781771 0.780177 0.614331 0.498793 0.470493 0.678853 0.424573 0.421539 0.293905 0.286812 0.227295 0.189577 0.123562 0.039109
threshold=-0.19442749768495551 -0.13573750108480448 -0.025775999762117797 -0.074854999780654838 0.029628500342369055 0.015552000142633903 -0.069739002734422642 -0.044265501201152739 0.067481499165296513 -0.044111000373959493 0.057196473748948366 0.090934297835762554 -0.052322350788219792 -0.0061960471676704449 -0.0065983619803877012 -0.0039714998565613989 -0.075074996799230478 -0.033189000561833291 -0.013117533139546793 0.038223501294851255 0.046596501022577209 0.018938099551561508 0.034024118946239704 -0.024826000444590997 -0.070827618447560234
decision_type=2 2 2 2 2 2 2 2 2 2 2 2 2 2 2 2 2 2 2 2 2 2 2 2 2
left_child=-1 2 21 4 5 22 14 -8 10 18 11 -5 -12 -11 -6 19 -17 -7 -10 23 -21 24 -3 -4 -2
right_child=1 3 15 8 6 17 7 -9 9 13 12 -13 -14 -15 -16 16 -18 -19 -20 20 -22 -23 -24 -25 -26
leaf_value=0.1287474020177857 0.21886182384590822 0.012716918638784047 -0.062332132197409469 -0.00052163775801761247 -0.14411628141408447 0.14461465421563827 0.031743072994970228 0.13184778769851935 0.095292136597392718 -0.016456462555054147 0.035157202062573861 0.050311830588170126 -0.034675983376166772 0.13576033522161735 0.044276343330097827 -0.21667979724737885 0.17803398602890627 -0.12347826528211606 -0.13436391914668941 -0.13424146802201761 0.15666131560452204 -0.069446289110085699 0.20451062088697256 -0.20589834631612294 0.11241891518131179
leaf_weight=2.3813606613548464 0.56793191711767566 0.84705633483827014 0.63501949608325858 1567.4219177988125 2.1826490832027048 0.58962875418364991 12.112556871492417 10.702894960122647 1.0067800367251041 3.3726692204363635 17.182937424862757 27.709785206476226 88.846990363264922 8.159071065078022 3.0079218022874583 0.61597117711789895 1.0792315363069045 5.4065869793412276 2.519343359861522 0.77812741725938372 0.50170269317459315 0.55859102949034412 1.0252236092928795 3.588393283294864 0.68578762884135347
leaf_count=33 6 37 24 7802 49 13 244 229 21 71 379 552 2033 169 72 31 30 164 57 38 15 22 18 125 39
internal_value=0 -0.000239211 -0.0647018 9.2311e-05 0.0349101 -0.0459918 0.05764 0.0787029 -0.000635492 0.0537663 -0.00111703 0.000361414 -0.023359 0.0912417 -0.0349433 -0.10358 0.0346102 -0.0971158 -0.0687924 -0.146148 -0.0202055 0.0897208 0.117739 -0.184312 0.160637
internal_weight=0 1761.1 9.01076 1752.09 35.8745 7.8685 28.006 22.8155 1716.22 15.0579 1701.16 1595.13 106.03 11.5317 5.19057 7.19845 1.6952 5.99622 3.52612 5.50324 1.27983 1.81231 1.87228 4.22341 1.25372
internal_count=12273 12240 330 11910 826 232 594 473 11084 318 10766 8354 2412 240 121 263 61 177 78 202 53 67 55 149 45
is_linear=0
shrinkage=0.3


Tree=217
num_leaves=31
num_cat=0
split_feature=33 162 62 167 140 263 22 177 53 291 249 158 158 49 6 186 89 173 62 71 48 32 15 70 94 171 270 290 297 22
split_gain=0.481879 0.610491 0.713346 0.786366 0.66893 0.883133 1.08982 1.18422 0.908246 1.12378 0.861643 0.731433 1.10209 0.701006 0.621155 0.601048 0.593182 0.907907 0.736322 0.58605 0.625452 0.725996 0.700046 0.739112 0.644853 0.593929 0.557209 0.55689 0.519087 0.45858
threshold=-0.058585001155733993 0.10203000158071511 -0.0011629999498835998 0.054287999582874842 -1.0000000180025095e-35 -0.023172229422739877 -0.034631500020623145 0.01811855436949536 0.083278499543666812 -0.015293172293690998 0.083423125623910924 1.0000000180025095e-35 0.00088999999570655013 -0.0053595329962504738 -0.028861500322818697 0.0029629999771713504 0.04867899434767186 -0.08292799815535544 -0.017977358321337771 -0.086799866729176306 -0.09245250001549718 -0.06007076225170712 0.062962997704744311 -0.0057779999915509991 -0.058702999725937795 -0.048642000183463048 -0.021302999928593597 -0.04467600025236599 0.053666371295805863 0.024718999862670853
decision_type=2 2 2 2 2 2 2 2 2 2 2 2 2 2 2 2 2 2 2 2 2 2 2 2 2 2 2 2 2 2
left_child=19 4 -3 15 5 8 13 -8 10 -10 -2 16 -13 -7 -14 26 18 -18 -6 25 21 -21 23 24 -22 27 -4 -1 -25 -24
right_child=1 2 3 -5 11 6 7 -9 9 -11 -12 12 14 -15 -16 -17 17 -19 -20 20 22 -23 29 28 -26 -27 -28 -29 -30 -31
leaf_value=0.095353858671234484 0.037170946865484382 -0.14117947755878743 -0.10605122076299626 -0.098349219530730489 -0.076160255816335051 0.092550410152994519 0.073003227260810127 -0.03076025974959197 -0.15095271725332621 -0.0053998081965967179 -0.072254064597230064 -0.34084952819473002 -0.10798899413614162 -0.091467269342686536 0.038103824671188759 -0.094122950607628222 -0.20681535627599415 0.092090084232824665 0.00016956357076655201 0.14027620253987705 -0.20813989288242207 -0.086779672152954554 0.13435492482648981 -0.037439950203344327 -0.057030427430947037 -0.16366867901066104 0.10884084254044481 -0.15350351902257656 0.11317886564251023 -0.087543423642992987
leaf_weight=2.0486463473644112 38.527320307432092 5.5798531999971628 1.2970503745600614 6.6564307989901854 11.471797693084225 2.4289782697451301 58.187387187372224 11.92807787422498 7.3563160587218617 13.599763491365591 7.7851203410100416 1.2524159984022833 5.9146535213076268 7.9978723770109337 4.7012253879729533 2.523662125779083 0.99868264916585658 10.858587048162006 1337.2129617623723 4.2875858943443745 3.8711055717722047 1.7992412002058653 3.217691988014848 8.1476247083701363 7.4009903938276711 5.321873506793052 6.6732906052784511 1.3377837284933773 2.7558719606604418 1.1334695371333507
leaf_count=66 1003 280 50 246 434 70 1518 390 164 299 209 19 228 269 177 128 60 319 4887 86 140 56 76 297 319 178 169 43 61 32
internal_value=0 0.000796358 -0.0480054 -0.0176915 0.00152604 0.0207016 0.0418937 0.0553509 -0.00467234 -0.056494 0.0187766 -0.000539194 -0.0746921 -0.0485996 -0.043292 0.0334704 0.000107658 0.0669147 -0.000479691 -0.0320313 -0.0135698 0.0731594 -0.0334707 -0.0550584 -0.108925 -0.101172 0.0738705 -0.00295538 0.000629138 0.0765508
internal_weight=0 1542.95 22.7303 17.1504 1520.22 147.811 80.5423 70.1155 67.2685 20.9561 46.3124 1372.41 11.8683 10.4269 10.6159 10.494 1360.54 11.8573 1348.68 41.3219 32.6136 6.08683 26.5268 22.1756 11.2721 8.7083 7.97034 3.38643 10.9035 4.35116
internal_count=12273 10919 873 593 10046 3922 2247 1908 1675 463 1212 6124 424 339 405 347 5700 379 5321 1354 1067 142 925 817 459 287 219 109 358 108
is_linear=0
shrinkage=0.3


Tree=218
num_leaves=31
num_cat=0
split_feature=266 229 180 228 18 86 260 99 79 243 7 20 281 288 40 18 221 82 108 116 239 206 59 264 71 13 21 254 79 11
split_gain=0.408242 0.577191 0.788744 0.776986 0.656718 0.78233 0.835417 0.82022 0.746972 0.527624 0.531399 0.586796 0.52731 0.498867 0.653538 0.781898 0.727089 0.809128 0.591269 0.720775 0.783306 0.613501 0.583595 0.547252 0.526899 0.769053 0.713399 0.81916 0.606793 0.589898
threshold=-0.079330999404191888 0.010326000396162252 0.051914500072598409 -0.095303703864168143 0.0098484996706247017 0.03539350070059296 0.079443499445915153 0.045971627567754449 -0.0056235445697309172 -0.10145549848675724 -0.1165009176500675 0.017097499221563301 0.02683349978178735 0.046931501477956751 0.057669999077916111 -0.074452594408692327 -0.022208999842405246 0.016238137379494224 0.0047410000115632508 0.043610500171780558 0.061140893966264313 -0.086171138247396153 -0.030740500427782497 -0.040924498811364139 -0.084195997565984643 -0.11754449829459183 -0.10243299975991244 -0.08287350088357924 0.0038820001063868004 -0.047497499734163243
decision_type=2 2 2 2 2 2 2 2 2 2 2 2 2 2 2 2 2 2 2 2 2 2 2 2 2 2 2 2 2 2
left_child=1 4 3 -3 5 6 -1 -8 -7 -6 11 -11 -5 24 18 -16 23 -18 19 20 -15 -21 -20 -17 25 28 -27 -28 -2 -26
right_child=13 2 -4 12 9 8 7 -9 -10 10 -12 -13 -14 14 15 16 17 -19 22 21 -22 -23 -24 -25 29 26 27 -29 -30 -31
leaf_value=0.065472977959114304 0.21981802167653003 0.16479044610951629 0.094134825405868414 -0.12525433064592514 -0.0995470550014219 -0.06184620349239528 -0.1139738331301495 0.097699519995301826 0.14045791621068829 0.1480249406438412 0.13975646720495721 -0.13970441310316722 0.096432341849961675 0.03968056433975696 -0.21296774666621815 -0.048412521288561626 -0.098749233297383165 0.030764783152944949 0.053428013158508939 0.14726477063377025 -0.093778731119628103 -0.13167958859366366 -0.1254745146430081 0.14095969895333957 -0.031612176322218515 -0.10030892936022422 0.090475653233584738 0.004862320523084167 0.00027887700310513856 0.00040601576958703046
leaf_weight=6.1181432032026413 3.1684070378541938 1.1338884159922589 3.5820892651099703 8.0148680540733022 1.1629465706646431 2.2118973121978343 8.6337818317115289 2.0361007358878842 6.3823289806023222 1.1507642222568386 10.996908384957349 1.4313825848512349 1.0979593952652056 15.161161138326866 1.3601659875712382 1.7796818083152173 6.3519058304373202 13.715647185919805 1.9070337866432971 0.79116732999682415 5.356341454316861 6.8841506892349562 11.765823820605871 6.0160778637655339 53.610494739958085 4.2571391568053505 13.662591565516776 38.12864408196765 1.763862360268831 1523.0887611590588
leaf_count=124 28 20 64 157 10 34 117 24 70 23 201 24 24 328 35 64 156 255 48 13 106 190 265 93 1115 83 267 708 27 7600
internal_value=0 0.0258123 -0.0270425 -0.0694041 0.0440287 0.014779 -0.0229048 -0.0735809 0.0883909 0.0943897 0.110999 -0.0114744 -0.0985444 -0.000692369 -0.0252952 0.00913332 0.0199753 -0.0102298 -0.0493273 -0.0244991 0.00483941 -0.102926 -0.100522 0.0977282 0.000375601 0.0277377 0.0177435 0.0274472 0.141307 -0.000682658
internal_weight=0 53.9531 13.8288 10.2467 40.1243 25.3823 16.788 10.6699 8.59423 14.742 13.5791 2.58215 9.11283 1708.77 71.0892 29.2235 27.8633 20.0676 41.8657 28.1928 20.5175 7.67532 13.6729 7.79576 1637.68 60.9806 56.0484 51.7912 4.93227 1576.7
internal_count=12273 892 265 201 627 369 265 141 104 258 248 47 181 11381 1553 603 568 411 950 637 434 203 313 157 9828 1113 1058 975 55 8715
is_linear=0
shrinkage=0.3


Tree=219
num_leaves=31
num_cat=0
split_feature=161 294 235 274 139 117 30 125 264 14 205 66 34 233 287 124 216 188 222 179 71 81 274 6 274 93 262 190 25 297
split_gain=0.386055 0.467055 0.549593 0.407142 0.447351 0.391311 0.703782 0.633174 0.612756 0.905582 0.870471 0.565148 0.556491 0.551784 0.577518 0.560391 0.537337 0.503651 0.372927 0.421773 0.419145 0.314167 0.313208 0.289922 0.208171 0.409712 0.197512 0.187023 0.133265 0.093622
threshold=0.019690500572323754 -0.0031953021675857223 0.07062274975145226 0.094092000275850268 -0.013032000046223348 -0.085072778677249813 0.018780235531853814 0.017084999941289352 0.015408500097692001 0.0084586146983120138 -0.06136099994182579 -0.048175500705838196 0.04408250004053111 -0.061707999557256643 0.050084000453352907 -0.070407502353191279 -0.060598500072956044 -0.015076499897986598 -0.0023207608702439449 -0.025005208204722094 -0.044854000210761989 -0.026962385799648037 0.032795954411507768 -0.035577349433335161 -0.04466650076210494 -0.0075820240035397255 0.037819499149918508 -0.046457499265670693 -0.015672117473806872 0.033402999863028505
decision_type=2 2 2 2 2 2 2 2 2 2 2 2 2 2 2 2 2 2 2 2 2 2 2 2 2 2 2 2 2 2
left_child=3 18 22 5 29 6 11 8 10 -10 -7 17 16 15 -15 -9 -8 -1 24 27 -21 -13 26 -22 25 -2 -3 -20 -26 -5
right_child=1 2 -4 4 -6 7 12 13 9 -11 -12 21 -14 14 -16 -17 -18 -19 19 20 23 -23 -24 -25 28 -27 -28 -29 -30 -31
leaf_value=-0.20607902633778527 -0.13074548030221841 -0.19631116665827567 0.19060743573527089 -0.2008913467681053 0.077402511069595753 -0.060244023854751846 0.022671718433759005 0.049103852063089551 0.10046683015420611 0.005151039498055991 0.00022209051358897092 -0.050702644033742104 0.14036622339994309 -0.036035314504254498 0.032948092302420816 -0.12707081566622969 -0.12932107661137784 0.040172554205596643 -0.18796324582723031 0.16775409567274366 0.099756116672960804 0.13457851899779008 0.057803122055401251 -0.14591286159086223 0.19066495618609114 0.17416750710805445 -0.0024287949194926571 0.011659504378002493 0.069350051507209826 -0.049458936753740509
leaf_weight=0.91757368971593667 0.72620730940252542 1.8454519882216116 0.76309187756851304 1.9632780881365768 0.87894074944779177 21.722095171862748 4.0632751302327952 2.0150145874358705 13.42755893152207 27.029443589155562 1580.2855805845757 0.90396337979473074 1.5439016732852895 41.238038444003905 14.857655209081711 8.3948898467060626 4.3178809741293653 4.033012301195412 0.98144006263464689 2.0768831020686767 0.80670345015823841 9.2702033122186567 0.92628348362632085 0.93162552837748192 3.4240302670514207 0.87388501083478309 0.63581495545804489 0.7415398436714884 1.0694969117757858 0.45203801101888519
leaf_count=41 23 67 19 65 23 573 103 34 243 545 7689 29 29 1235 395 346 112 74 29 57 25 228 34 26 88 21 21 36 34 29
internal_value=0 0.0466096 -0.0395225 -0.000493481 -0.10586 -0.000293307 0.0369304 -0.000838927 0.000323047 0.0367861 -0.000597787 0.0776648 -0.0251444 -0.0295358 -0.0177642 -0.0929692 -0.0556333 -0.00546931 0.0774927 0.0211467 0.0767829 0.118116 -0.0910581 -0.0319057 0.128703 0.0357817 -0.14663 -0.102049 0.161791 -0.17255
internal_weight=0 15.8025 4.17064 1737.31 3.29426 1734.02 25.0498 1708.97 1642.46 40.457 1602.01 15.1248 9.92506 66.5056 56.0957 10.4099 8.38116 4.95059 11.6318 5.53819 3.81521 10.1742 3.40755 1.73833 6.09362 1.60009 2.48127 1.72298 4.49353 2.41532
internal_count=12273 480 141 11793 117 11676 616 11060 9050 788 8262 372 244 2010 1630 380 215 115 339 173 108 257 122 51 166 44 88 65 122 94
is_linear=0
shrinkage=0.3


Tree=220
num_leaves=31
num_cat=0
split_feature=49 158 57 4 8 24 165 21 194 226 17 107 274 168 297 48 209 235 182 291 59 139 67 273 95 179 205 258 101 100
split_gain=0.448483 0.7366 0.732021 0.659004 0.677056 0.769755 0.753622 0.633194 0.566951 0.523011 0.501902 0.492272 0.632052 0.729042 0.763278 0.787272 0.726374 0.675384 0.862539 0.626611 0.619352 1.03172 0.949979 0.51259 0.525441 0.481662 0.480514 0.435338 0.415374 0.325342
threshold=0.070705000311136218 -0.068119999021291691 -0.10751649737358084 -0.056171000003814649 0.024596818198348917 0.0073255000170320004 -0.050437752100983481 -0.048648500815033843 -0.086550999432802131 0.039790457611809875 0.032471001148223856 -0.12378843718568626 1.0000000180025095e-35 0.08432700112462041 -0.098423000425100285 0.016460999846458404 -0.030388999730348549 0.014703025257932127 0.020342499949038004 -0.034760501235723447 -0.019289268704732718 0.0015603043114084901 -0.029610499739646846 -0.089334499090909944 -0.03761399909853929 -0.041415018108181184 -0.012446499895304398 -0.037842693803035399 -0.077939998358487986 -0.075682502239942481
decision_type=2 2 2 2 2 2 2 2 2 2 2 2 2 2 2 2 2 2 2 2 2 2 2 2 2 2 2 2 2 2
left_child=11 7 -3 28 5 -5 -6 -2 -9 10 -10 19 16 14 27 -16 17 18 -13 -1 21 -18 -22 -15 -25 -19 -11 -14 29 -4
right_child=1 2 3 4 6 -7 -8 8 9 26 -12 12 13 23 15 -17 20 25 -20 -21 22 -23 -24 24 -26 -27 -28 -29 -30 -31
leaf_value=0.065579907996308501 -0.19714731716715087 -0.17610411093346962 -0.1419949905205368 -0.1131261537781505 -0.084623391713061116 0.051503773867123334 0.074229060888103077 0.13314287340607339 -0.19459428506143139 0.097575736589306225 0.029915598943848008 -0.11641531570044439 -0.17346547502981144 0.19803464207533669 0.051340941106551428 -0.070479059830748009 -0.00837552807380656 0.098549427828696676 0.10863328509201849 -0.19046881862457035 -0.067645190856962162 0.10661641844009147 0.00033183521216507533 0.10780324861494983 -0.13598250527834313 -0.19330024904922533 -0.14169035315948472 0.051972205165776317 -0.16768360824139056 0.16888376586847106
leaf_weight=1.285468459594995 3.5539321689575436 2.1587267301074453 0.52175678210915066 6.035980730899615 3.1695421452750479 4.4336452143616043 17.686997925338801 1.327033782377838 3.7181302729004511 2.1564329136017482 1.1807659092009997 3.2533282229851448 2.3869835546938707 0.58513639890588809 65.012955132640855 5.1529548100079401 15.342515664844543 0.57605092070298258 2.8981403254583711 2.600073966983472 18.753903914170223 12.94858336728066 1380.6598495759245 0.94972180866170663 4.906461858750844 4.3685180310858414 1.1627286362636367 1.1387029107427213 2.9961751521623183 0.72251815901836358
leaf_count=47 121 133 28 246 101 179 572 29 163 66 39 106 54 7 1987 178 445 22 90 101 652 328 5969 27 141 163 61 37 153 28
internal_value=0 -0.0277611 -0.0064795 0.00381592 0.0188403 -0.0434092 0.0500885 -0.0890523 -0.0488052 -0.0781858 -0.140481 0.000886454 0.00115926 0.0270905 0.0355505 0.0423945 -0.000284959 -0.0767453 -0.0103882 -0.105759 0.000309287 0.0442553 -0.000579142 -0.0696957 -0.0964467 -0.159299 0.0137589 -0.100655 -0.107176 0.0385242
internal_weight=0 50.8244 37.7253 35.5666 31.3262 10.4696 20.8565 13.099 9.54509 8.21806 4.8989 1522.82 1518.93 80.1329 73.6916 70.1659 1438.8 11.096 6.15147 3.88554 1427.7 28.2911 1399.41 6.44132 5.85618 4.94457 3.31916 3.52569 4.24045 1.24427
internal_count=12273 1919 1440 1307 1098 425 673 479 358 329 202 10354 10206 2431 2256 2165 7775 381 196 148 7394 773 6621 175 168 185 127 91 209 56
is_linear=0
shrinkage=0.3


Tree=221
num_leaves=31
num_cat=0
split_feature=199 184 180 196 134 228 156 261 20 245 201 57 140 46 93 34 184 228 200 175 182 119 145 41 135 4 110 293 283 250
split_gain=0.389187 0.654281 0.478178 0.855591 0.44245 0.428334 0.729072 0.474844 0.427613 0.414716 0.482574 0.873876 0.761129 0.702618 0.614678 0.975165 0.762749 0.472067 0.470961 0.600632 0.441211 0.390281 0.31795 0.317316 0.314139 0.374554 0.0974249 0.0714795 0.0412176 0.000976926
threshold=0.042695499956607805 -0.11078200116753574 0.0018639999907463002 -0.039011999964713995 -0.053120683700135715 -0.13173300027847282 -0.026431499980390048 0.02773819430230123 -0.055291000753641094 0.047785999253392206 -0.020748817428173829 -0.074382683497951074 -0.026330000720918147 0.073904397205444242 0.071854403575733902 0.014757500030100302 -0.0031244999263434999 -0.073671001940965583 -0.065372500568628283 -0.021524999290704696 0.042365592624209206 -0.054894000291824292 -0.0097540002316235976 0.052659999579191159 -0.014884499832987699 0.014106000307947352 0.020686806094215346 -0.0025829999940469492 0.040080011521307822 0.083592999726533862
decision_type=2 2 2 2 2 2 2 2 2 2 2 2 2 2 2 2 2 2 2 2 2 2 2 2 2 2 2 2 2 2
left_child=5 -2 3 26 23 6 -1 -8 -4 10 14 12 -12 -13 16 -16 -7 22 19 -19 -20 -6 -11 -5 -10 -26 -3 -9 -24 -29
right_child=1 2 8 4 21 9 7 27 24 17 11 13 -14 -15 15 -17 -18 18 20 -21 -22 -23 28 -25 25 -27 -28 29 -30 -31
leaf_value=0.21128871873729163 -0.21061504434191511 -0.080481001133391863 -0.051091072326542093 -0.17860161414828077 -0.05538069388582998 -0.033860223321595773 0.1036920530578556 -0.10073128683171423 -0.037085060502127891 0.043511198592810434 0.062106979309452408 0.0003358010209629769 -0.0053097359030534188 -0.052322695257687818 -0.037536162395347239 0.11609789902208251 0.013852336134422622 -0.068386881576646963 0.12269362036953058 0.091507741135731541 -0.026706344963326387 0.14566523977068069 -0.11097356050815688 0.077235209951022399 0.16371902002898861 0.01682884556199769 -0.21568873049500201 -0.20664704896459768 -0.20939676729470777 -0.21856362117857353
leaf_weight=0.60660638660192479 0.89722901512868958 0.73667567921802435 1.6585333850234771 1.0832796385511754 1.1371754137799142 115.21421819503303 0.5921839596703643 0.65779050556011531 1.1165933245793009 1.1170460958965125 38.263323836261407 1443.6963269065309 24.866742869082373 23.170726438518614 7.145805723150259 7.7521052721422166 40.845417029981036 4.7929518995806575 9.499936294276262 3.7834034304833075 2.188975529745222 3.6852465828415024 0.68148560170084482 0.73059070599265385 7.121769666671744 2.0013704104349017 1.3746163810137657 1.4494423978030684 0.87413000920787454 1.0808755806647239
leaf_count=7 25 27 35 30 40 2448 13 13 29 24 552 6027 507 465 170 135 885 119 174 83 43 62 17 18 132 52 29 77 23 12
internal_value=0 0.0401773 0.0510763 -0.00217101 0.0507492 -0.000395612 -0.0940184 -0.14301 0.0902236 -0.000157364 -0.000697711 0.00099139 0.0355517 -0.000495996 -0.0158144 0.0424071 -0.0213724 0.0399118 0.0555412 0.00214959 0.0947156 0.0982566 -0.0785969 -0.0755557 0.113112 0.131495 -0.168512 -0.188834 -0.166279 -0.211737
internal_weight=0 21.5431 20.6459 8.74758 6.63629 1728.28 4.3869 3.78029 11.8983 1723.89 1700.95 1530 63.1301 1466.87 170.958 14.8979 156.06 22.9379 20.2653 8.57636 11.6889 4.82242 2.67266 1.81387 10.2397 9.12314 2.11129 3.18811 1.55562 2.53032
internal_count=12273 479 454 206 150 11794 122 115 248 11672 11189 7551 1059 6492 3638 305 3333 483 419 202 217 102 64 48 213 184 56 102 40 89
is_linear=0
shrinkage=0.3


Tree=222
num_leaves=31
num_cat=0
split_feature=65 127 7 131 106 251 289 213 184 72 133 135 22 63 141 49 51 227 268 226 147 162 218 69 103 290 94 52 204 24
split_gain=0.353545 0.519778 0.521591 0.514367 0.510303 0.51792 0.404021 0.354027 0.538355 0.584184 0.558002 1.04369 0.697284 0.531496 0.640947 0.632797 0.605395 0.492109 0.487919 0.455931 0.495833 0.455801 0.564762 0.547857 0.423351 0.391393 0.386205 0.371361 0.333832 0.319853
threshold=0.090048000216484056 -0.071629380860174938 -0.11359399929642673 0.081306119324167717 0.039547968001919419 -0.035311000421643195 -0.048305001109838444 -0.033057313740418183 -0.11825850233435624 0.088931400585392381 0.007805706922171151 0.14628150314092633 -0.042903000488877241 -0.010918315409934249 -0.030971763938675404 0.060146499425172757 0.027725245719709246 -0.0054917075157320137 -0.058489852079683761 0.015592679109980105 -0.067132043501270902 0.024788000620901553 0.0066462398197798889 -0.029286500066518697 0.076310500502586323 0.040681999176740605 -0.064792498946189839 -0.044531499966978944 -0.0075814154553008059 0.035182999446988057
decision_type=2 2 2 2 2 2 2 2 2 2 2 2 2 2 2 2 2 2 2 2 2 2 2 2 2 2 2 2 2 2
left_child=7 3 -3 -2 5 -4 -7 13 21 10 12 -12 -10 14 -1 16 -16 -17 24 25 -21 28 -23 -24 26 -20 -15 -11 -9 -29
right_child=1 2 4 -5 -6 6 -8 8 9 27 11 -13 -14 18 15 17 -18 -19 19 20 -22 22 23 -25 -26 -27 -28 29 -30 -31
leaf_value=-0.16545642377420264 -0.15069288557485996 0.15477053065786606 0.14138629483603146 0.094864961613057353 0.12942370405124876 0.070399610073305349 -0.1130666410639002 0.057771414921936971 0.050013003118726369 -0.083984873613660346 -0.044659743008433721 0.12878268258596792 -0.00044816275607361571 -0.20609039300839443 -0.0028299881435824609 0.076052569876752546 -0.14923085774425859 -0.10742617875011322 -0.16473745659602981 -0.16853656861726427 0.060422690057338566 0.15781594685596023 -0.17234360241678195 0.11967064394537473 0.18505204030720113 0.11212913799847543 0.058599212792472849 0.14781867253986331 -0.17859592310191286 -0.020652483570195064
leaf_weight=4.166166059527316 2.1696148232440495 4.2938976885634483 1.4575825536157934 1.1881677519995717 3.1416717680986039 1.5131248009856788 3.7763547447975689 1.162873019842664 25.031355078637716 1.0036328312708063 44.580131589733355 3.3576803586911401 1598.8567989541152 0.5787264450918882 4.6621639190416335 5.5895296922244597 5.5902978092344711 1.7206106767989684 2.7911993888264974 1.0347722852020513 4.7999649197736298 5.3654184236365836 1.103889884776436 1.2142956871539352 2.1678942195139825 0.55009568296372879 3.475728666788199 4.8802754825446746 1.0004056075122187 1.2803244289243592
leaf_count=167 85 83 31 40 76 42 120 37 543 52 1399 40 8008 23 173 130 251 49 109 50 169 134 29 32 43 17 155 124 23 39
internal_value=0 0.0423349 0.0674629 -0.063801 0.0295521 -0.0169517 -0.0605837 -0.000472555 0.000164499 -0.000245694 -0.000612014 -0.0325114 0.000329669 -0.0294508 -0.0596674 -0.0345723 -0.0826571 0.0328666 0.0131881 -0.0307871 0.0198175 0.0701063 0.104354 -0.0193828 0.0780378 -0.119155 0.0208178 0.0852379 -0.0515364 0.112806
internal_weight=0 17.5404 14.1826 3.35778 9.88873 6.74706 5.28948 1725.96 1688.84 1678.99 1671.83 47.9378 1623.89 37.1271 21.7288 17.5626 10.2525 7.31014 15.3984 9.17603 5.83474 9.84688 7.6836 2.31819 6.22235 3.3413 4.05446 7.16423 2.16328 6.1606
internal_count=12273 477 352 125 269 193 162 11796 10460 10205 9990 1439 8551 1336 770 603 424 179 566 345 219 255 195 61 221 126 178 215 60 163
is_linear=0
shrinkage=0.3


Tree=223
num_leaves=31
num_cat=0
split_feature=281 119 173 195 276 139 193 227 137 101 280 277 240 153 105 283 48 105 54 197 139 153 24 217 41 200 193 84 248 146
split_gain=0.462761 0.817277 0.914479 0.721853 0.631899 0.688555 0.569998 0.566202 0.545071 0.534688 0.711719 0.777878 0.754589 0.687174 0.60154 0.571969 0.518098 0.966365 0.706184 0.515347 0.482739 0.472117 0.44958 0.442897 0.480891 0.439782 0.429219 0.416902 0.395694 0.384652
threshold=0.022997000254690602 -0.0019855001010000493 -0.021557016976965711 0.10802650079131122 0.053418500348925556 -0.085685537803909209 -0.067852001637220341 0.059457499533891657 -0.083258502185344627 1.0000000180025095e-35 -0.026271999813616245 0.066523000597953755 0.077684000134468065 -0.082350999116897541 -0.026488567191240393 0.10598750039935111 -0.072604968530524852 -0.020990500226616797 -0.034273499622940996 0.048021499067544861 -0.059702611434917376 -0.092681476617393996 0.058676499873399707 0.08619488368045726 -0.042070123731491264 -0.059640001505613292 0.01784347920954157 0.02873123997820877 -0.066828001290559727 -0.022541600057736925
decision_type=2 2 2 2 2 2 2 2 2 2 2 2 2 2 2 2 2 2 2 2 2 2 2 2 2 2 2 2 2 2
left_child=7 2 4 6 5 -2 -3 9 -4 13 12 20 15 14 25 -11 17 -15 -18 27 -12 -7 -16 24 -10 -1 -14 -6 -13 -8
right_child=1 3 8 -5 19 21 29 -9 23 10 11 28 26 16 22 -17 18 -19 -20 -21 -22 -23 -24 -25 -26 -27 -28 -29 -30 -31
leaf_value=-0.14153516490072529 0.09901905871334736 0.1120671499011531 -0.10070704686843537 0.10605690839338019 0.13467793483547671 0.096234561578860234 -0.018399010144260167 -0.1404225339206939 -0.16216531763008915 0.054165609439215993 -0.097645919821556501 -0.21476290430254433 -0.013394596769689961 -0.075833445934401777 -0.16673012069892304 -0.17859070509521019 -0.058248263359439417 0.050342877342895144 0.00041101715014384534 -0.20803058666590279 0.14797783101318604 -0.13436652557716142 0.082006762954335941 -0.12854466361533168 0.099948428250721602 0.12063813476530594 -0.17107554501643363 -0.11447450898776046 0.02908651135158926 -0.22591142069763873
leaf_weight=0.85148061293875832 1.5077481438347629 0.62118730205111194 1.9994524468347652 1.066415712222806 2.9521241061484029 0.865037578390912 0.96888597778161045 2.5517022951680692 0.6692646563751613 14.944112381155721 0.77787539578275655 0.88605065783485804 3.5055013526725807 6.3681743041961445 5.3057370686947234 1.0147114630672138 18.715160244930303 38.43170310073765 1414.9003009808075 0.63892781913455099 9.7016120083280821 10.473479122247227 0.74593058231403109 0.95104603999061588 10.725441205286184 1.7788400453864595 2.7904455598909408 0.76004441146505985 1.8480632519349445 4.7222594342583752
leaf_count=47 64 19 75 28 103 27 34 184 29 489 30 16 139 182 219 38 726 994 7265 24 234 504 28 51 327 46 96 40 68 147
internal_value=0 -0.0323513 -0.0113253 -0.122233 -0.0579786 -0.0914462 -0.1608 0.000775424 0.0446037 0.00101206 0.0374147 0.092566 0.00466898 0.000143831 -0.0840099 0.0393662 0.000638024 0.0324073 -0.000354752 0.0408319 0.129746 -0.116774 -0.136071 0.0681374 0.0845533 0.0357681 -0.0832808 0.0836655 -0.0499383 -0.190584
internal_weight=0 38.9213 31.5426 7.37875 17.1974 12.8463 6.31233 1525.12 14.3452 1522.57 35.4684 13.2136 22.2548 1487.1 8.68199 15.9588 1478.42 44.7999 1433.62 4.3511 10.4795 11.3385 6.05167 12.3458 11.3947 2.63032 6.29595 3.71217 2.73411 5.69115
internal_count=12273 1472 1244 228 762 595 200 10801 482 10617 1110 348 762 9507 340 527 9167 1176 7991 167 264 531 247 407 356 93 235 143 84 181
is_linear=0
shrinkage=0.3


Tree=224
num_leaves=31
num_cat=0
split_feature=217 241 227 251 143 194 8 169 218 14 226 249 220 143 151 234 12 275 287 48 97 36 148 104 7 261 151 151 215 266
split_gain=0.386202 0.623205 0.781041 0.763815 0.635641 0.700587 0.764885 0.62555 0.584669 0.462516 0.634221 0.834158 0.886448 0.827193 0.778528 0.891529 0.768312 0.733748 0.665791 1.00176 0.642464 0.618257 0.981505 0.811102 0.61513 0.536501 0.480837 0.627687 0.453883 0.439991
threshold=0.093936000019311863 -0.030004999600350798 -0.026898499578237495 -0.017974499613046594 0.038259732935958281 -0.0032305000349878497 0.079876501113176304 -0.004500220950996889 0.020523499697446806 -0.053984999656677198 0.0073259999044239009 0.03326950035989281 0.084552496671676622 0.059163000434637007 -0.056432001292705494 -0.011980500072240748 -0.048463281560557729 0.0221114996820688 -0.0010519999777897997 0.0032044999534263504 -0.038224228165830508 -0.039611499756574596 1.0000000180025095e-35 -0.023440750908465865 -0.053536498919129344 0.10739245004137458 -0.015984499827027248 0.060205999761819805 -1.0000000180025095e-35 0.043608499690890257
decision_type=2 2 2 2 2 2 2 2 2 2 2 2 2 2 2 2 2 2 2 2 2 2 2 2 2 2 2 2 2 2
left_child=9 2 4 -4 5 6 -2 -7 29 25 11 18 16 21 15 -15 -13 -16 24 -20 -14 22 -12 -23 -11 26 -1 -28 -27 -5
right_child=1 -3 3 8 -6 7 -8 -9 -10 10 13 12 20 14 17 -17 -18 -19 19 -21 -22 23 -24 -25 -26 28 27 -29 -30 -31
leaf_value=0.17676334786228798 0.1280794428216239 0.060788942479393357 0.16338006424974036 -0.092596821172196975 -0.16213325919345667 -0.17032659333598957 -0.12602396905407165 0.065039927180198881 0.16863838309752174 -0.0062853886880197335 -0.13060548465808014 0.093942702185105739 0.16288879740280734 0.16692126391497578 0.023389667118311554 -0.022842066267396106 0.02221993386714512 -0.12124767984377266 -0.00038460828215852901 0.10120135326587328 -0.1219248888101481 -0.082588558145351529 0.0018534356303034889 -0.021783662845632414 -0.11973247885996408 0.088048702042519925 -0.10108659543147155 0.22221149070851301 -0.20879797698543884 0.12682592210252816
leaf_weight=3.9251379747875035 3.9032059821765861 24.024686261662282 3.7292251114267856 4.3236200292594713 3.6230342430062583 3.351913851685822 1.4667994389310477 1.4584935065358902 1.373081470839679 9.2626080166664924 5.3720683552091932 18.650362896150909 0.83387146843597282 6.2365144671057351 16.701763080782261 3.4668335262686032 48.134636421076721 3.8923245361074796 1378.5626564220292 8.792236222245263 4.9095205750782034 29.752033007127466 80.166739702690393 58.697507195407525 8.0311980596743506 0.86419316288083803 1.6175143875880151 0.81170328333973873 1.0000114424619819 1.0156888305209575
leaf_count=52 79 592 59 117 68 58 32 32 28 252 145 320 13 93 344 63 814 70 4870 143 105 621 1633 1330 211 14 56 7 31 21
internal_value=0 0.0265451 -0.0073874 0.054522 -0.0542187 -0.0158138 0.0586719 -0.0989645 -0.00595668 -0.000669798 -0.0010168 0.00114991 0.0325231 -0.0166841 0.0290629 0.0991222 0.0422492 -0.00394709 -0.000470036 0.000259184 -0.0805734 -0.0246503 -0.00646534 -0.0422368 -0.0589699 0.0703252 0.111842 0.00694082 -0.0711882 -0.0508564
internal_weight=0 48.2697 24.2451 10.4416 13.8034 10.1804 5.37001 4.81041 6.71239 1689.68 1681.46 1477.18 72.5284 204.286 30.2974 9.70335 66.785 20.5941 1404.65 1387.35 5.74339 173.988 85.5388 88.4495 17.2938 8.21856 6.35436 2.42922 1.8642 5.33931
internal_count=12273 1086 494 225 269 201 111 90 166 11187 11027 6728 1252 4299 570 156 1134 414 5476 5013 118 3729 1778 1951 463 160 115 63 45 138
is_linear=0
shrinkage=0.3


Tree=225
num_leaves=31
num_cat=0
split_feature=245 111 50 146 107 29 145 251 0 172 174 3 266 41 161 85 122 99 283 26 64 169 87 203 275 294 58 168 150 27
split_gain=0.33693 0.671035 0.573328 0.537983 0.45019 0.437484 0.524575 0.476422 0.432927 0.614159 0.68291 0.624506 0.546021 0.53737 0.72029 0.926912 0.770041 0.740408 0.689111 0.677232 0.770071 0.849796 0.617167 0.571649 0.737972 0.658869 0.504955 0.552212 0.489775 0.504478
threshold=-0.071411298070840415 0.013056256227373936 0.075595002621412263 0.040770019659834546 -0.039072500541806193 0.042938999831676462 0.0043718690892434403 -0.034458934529452478 0.035682499408721903 0.033761501312255852 -0.014875999651849199 0.022955499589443155 -0.0071346642017503037 0.061053918116182097 -0.043887499719858093 0.031267499551176955 -0.10127899795770644 -0.014618999790400199 0.086324156704372337 -0.044064000248908948 -0.059189999476075096 -0.083447702920817726 -0.017032503836462074 0.013560000341385553 -0.026808857736202205 -0.016877499409019895 0.0086853716111835125 -0.0069647762938125435 -0.027424369723576914 0.045101555031038403
decision_type=2 2 2 2 2 2 2 2 2 2 2 2 2 2 2 2 2 2 2 2 2 2 2 2 2 2 2 2 2 2
left_child=1 -1 3 5 -4 6 -3 -7 13 10 12 26 -10 14 16 -16 22 -17 -18 20 -15 -22 -2 24 -21 -25 -11 -28 -12 -30
right_child=8 2 4 -5 -6 7 -8 -9 9 11 28 -13 -14 19 15 17 18 -19 -20 23 21 -23 -24 25 -26 -27 27 -29 29 -31
leaf_value=0.085067080558114447 0.13570312017940311 -0.12089297259410534 -0.22351370251215735 -0.082102943006803375 0.015867687143820718 -0.12129669474659627 0.082120594328466953 0.11013016770321837 0.11757531477769542 0.12207363771450523 -0.18707912095638474 -0.083853961748996383 -0.14206063988781795 0.090604225026129886 6.934214320951227e-05 0.16646085230213128 -0.04428045381806682 0.031215789953609706 0.013519131190835686 0.1040604244456504 0.090964679689317776 -0.053997858419427634 -0.0035593588174884024 0.12182041043659159 -0.066516385557162466 0.006835439584798637 0.16937598553912561 -0.088382540799753384 -0.014260037152248807 -0.10717253941301864
leaf_weight=12.414783140236976 4.5379458810784854 2.5161354209412883 1.7411917874123903 3.8013845740933894 1.1904986116860516 0.89361622068099755 2.1028892062604427 7.6899820074613645 3.1491147011547582 5.5141492677794286 3.0630490322364521 3.5500069580739355 0.9485789288883123 6.2013207001000437 1458.8463412078563 4.9837275707395774 83.493585695850925 13.54302683053538 23.872384717629757 3.694327240169514 4.4451673845760551 20.081498705083504 7.7642783999908698 14.692944618407639 5.9737532256403956 6.4554854992020401 1.019532541948138 2.8090498854871839 10.99694657904911 10.080525707977356
leaf_count=334 108 62 23 123 49 21 47 232 60 114 97 87 48 114 5549 105 2129 330 511 103 64 397 230 216 178 174 30 78 326 334
internal_value=0 0.0303151 -0.0037812 0.0173435 -0.126306 0.0459768 -0.0284676 0.0860369 -0.000591029 -0.0309946 -0.0557649 0.0232583 0.0574719 0.000162945 -0.000897103 0.000916161 -0.0232829 0.0675969 -0.031429 0.0276705 -0.00384467 -0.0277251 0.0478107 0.0590952 -0.00133627 0.0867216 0.0639583 -0.0197427 -0.0749862 -0.0586964
internal_weight=0 32.3505 19.9357 17.004 2.93169 13.2026 4.61902 8.5836 1699.72 41.131 28.2382 12.8927 4.09769 1658.59 1597.04 1477.37 119.668 18.5268 107.366 61.5445 30.728 24.5267 12.3022 30.8165 9.66808 21.1484 9.34273 3.82858 24.1405 21.0775
internal_count=12273 891 557 485 72 362 109 253 11382 1174 865 309 108 10208 8962 5984 2978 435 2640 1246 575 461 338 671 281 390 222 108 757 660
is_linear=0
shrinkage=0.3


Tree=226
num_leaves=31
num_cat=0
split_feature=136 28 295 77 41 158 165 36 270 292 10 12 5 96 274 265 268 249 275 139 254 260 119 108 38 274 172 204 166 193
split_gain=0.415938 0.639216 0.620281 0.506584 0.488894 0.479537 0.44769 0.411468 0.548248 0.532765 0.442452 0.431554 0.919631 1.02954 0.802509 0.789603 0.755122 0.748703 1.21993 0.73916 0.695544 0.669384 0.668051 0.664139 0.550904 0.452919 0.356538 0.345513 0.33378 0.321474
threshold=-0.074614502489566734 -0.078052498400211293 -0.076314504137641972 -0.051993792902644796 -0.0079613085201246641 -0.047434000298380845 0.012933801225060571 -0.10598649829626079 0.087043501436710316 0.0078970002941787017 0.077676001936197211 -0.009587000124156449 -0.033237226248318132 0.017383321900251693 -0.03313300013542169 -0.015027743077895088 -0.052108500152826247 0.084699500352144214 1.0000000180025095e-35 0.00043299999379080002 0.012724500149488402 0.085480500012636115 -0.11829099804162974 -0.058404893790802506 -0.022868500091135446 0.020256499759852855 0.024309500120580155 -0.012095000129192998 -0.1029623330484294 -0.026327500119805298
decision_type=2 2 2 2 2 2 2 2 2 2 2 2 2 2 2 2 2 2 2 2 2 2 2 2 2 2 2 2 2 2
left_child=1 -1 29 5 26 6 -4 8 9 10 -2 14 13 16 19 -15 -13 18 -14 23 22 -19 -16 -9 -21 -22 -5 -11 -6 -3
right_child=7 2 3 4 28 -7 -8 11 -10 27 -12 12 17 15 20 -17 -18 21 -20 24 25 -23 -24 -25 -26 -27 -28 -29 -30 -31
leaf_value=-0.15096972890259977 -0.16400703638386305 -0.18603149991864287 0.16396019377040275 -0.065379883726571844 0.13110078302313655 -0.10304926423774888 -0.11238179876994971 0.054162585603552901 0.17424628022446062 -0.13269664571516052 0.040129696474376718 -0.090556872669604313 -0.00028938003834226464 -0.0098422594153308972 -0.057131548445063157 -0.16236536692502204 0.069505084498743541 -0.0007436502293606495 0.064348642757545038 -0.02095203930231045 0.0037170133240758065 -0.18123437915000176 0.056359192167434499 -0.069090249597972803 0.084584573389195256 -0.14414247343890732 0.15561959958561034 0.081441772707611507 -0.13958301956760216 0.16522302535224415
leaf_weight=3.9509797598766481 5.3738285947474616 0.26409533119294826 2.5176156823872593 1.5442136233032244 0.43795644131023692 1.4304584755445873 0.66752106876083406 4.8324434169771875 0.84153735381551165 0.95121663797181133 1.1622510786401106 4.2364457572402898 1345.855524104787 4.5490288864966724 5.0550759114048551 9.2998494188650476 7.0956423237294093 3.554473257972858 26.801832664114045 8.6876497812918405 5.9225496308499697 3.8549178393295733 60.963029779570206 21.179011932239519 9.1295563827152346 2.7211746317479992 1.1435234970413146 2.3621487821219489 6.4217258730259204 2.0926576498313851
leaf_count=218 249 20 81 97 16 66 28 233 14 59 40 158 5139 138 200 271 258 132 731 243 215 115 1916 669 307 103 34 92 331 100
internal_value=0 -0.0425701 -0.0166446 -0.0403579 -0.0798073 0.0412436 0.106046 0.000477222 -0.058172 -0.0780298 -0.127707 0.000888721 -0.00057733 -0.0573926 0.0182755 -0.112265 0.0096667 0.000459334 0.00097271 -0.0139482 0.0371917 -0.0946484 0.0476691 -0.0461922 0.033125 -0.0428314 0.0286465 0.0199659 -0.122301 0.125862
internal_weight=0 20.4707 16.5198 14.163 9.54742 4.6156 3.18514 1534.43 10.691 9.84945 6.53608 1523.74 1405.25 25.181 118.49 13.8489 11.3321 1380.07 1372.66 43.8287 74.6618 7.40939 66.0181 26.0115 17.8172 8.64372 2.68774 3.31337 6.85968 2.35675
internal_count=12273 991 773 653 478 175 109 11282 454 440 289 10828 6942 825 3886 409 416 6117 5870 1452 2434 247 2116 902 550 318 131 151 347 120
is_linear=0
shrinkage=0.3


Tree=227
num_leaves=31
num_cat=0
split_feature=246 260 277 290 131 279 229 156 226 273 246 204 156 230 113 140 152 89 145 166 39 18 47 41 38 37 218 29 101 84
split_gain=0.347133 1.01163 0.920887 0.841133 1.2379 0.840807 0.871844 0.800095 0.787786 0.73911 0.847658 0.733813 0.690577 0.710441 0.672211 0.675867 0.658496 0.657698 0.636204 0.68554 0.621883 0.599697 0.984902 0.93518 0.816667 0.728982 0.694308 0.680902 0.584844 0.723578
threshold=-0.0050035000313072989 0.11336368696050415 0.067440431498907397 -0.023323669332684902 -0.0016379999578929997 -0.046183999627828543 0.039982499554753255 0.050984000787138904 -0.053147595412571295 -0.063515998423099476 0.0061013346222856439 0.0017112382989413132 0.058047499507665606 0.092815499752759864 0.072075120382383881 -0.10837800055742258 -0.067776501178741386 0.0150999999605119 -0.035943757874703115 0.0055014083460302576 -0.021670781776996651 -0.03489457341083383 0.00094286621121884146 0.059727000072598457 0.025423999875783854 0.029314167165868221 -0.029596500098705247 0.002238603196211619 -0.079570002853870336 -0.067900742168461523
decision_type=2 2 2 2 2 2 2 2 2 2 2 2 2 2 2 2 2 2 2 2 2 2 2 2 2 2 2 2 2 2
left_child=1 3 21 12 17 -3 14 11 -9 -10 -11 20 18 16 15 -7 -14 -5 -1 -20 -4 23 -23 25 27 26 -2 -24 -6 -30
right_child=2 5 7 4 28 6 -8 8 9 10 -12 -13 13 -15 -16 -17 -18 -19 19 -21 -22 22 24 -25 -26 -27 -28 -29 29 -31
leaf_value=0.077328199351215932 -0.071642667486349579 0.13257806286498902 0.12772229345663566 0.047063175014126074 -0.072641719631501123 0.15912207208502202 -0.1505588843851681 0.1526066263930512 0.07993443241396074 -0.010502514910264901 -0.1259902599436612 -0.092661963254698498 0.04334291279729352 0.097694082039072191 0.17260779926484685 0.015187151015660493 -0.081908857468186366 0.16418229728020392 -0.043182929587448446 0.053728784185676497 -0.062036193029948547 -0.00060149418701723498 0.18793771522366648 -0.14079233661754309 -0.043245811910978621 -0.10106027846558172 0.050895800346930135 0.051619394461563814 0.098732897811292006 -0.0031393326131493684
leaf_weight=8.4855142318992858 5.9543164120987102 8.995180441066621 5.6124336622888222 12.007404303411024 8.4599326779134554 3.2541971169412092 2.2479954916052511 1.380670200567695 2.4206605813233208 8.0206086800899374 19.940912344332901 3.3594560768688098 4.3602359527721992 2.6026424495503298 3.2296607915777704 30.037166467169303 28.276127272925805 6.7362554990686467 22.665236729197208 9.2505604695179482 2.1497066625161079 1409.7787069926271 3.7123479135334483 6.6398216358502387 7.4178760261274865 6.6129345931112757 13.82118825300131 29.528997492161579 7.4605964291840783 39.487953508039936
leaf_count=223 171 133 97 234 220 41 43 30 45 140 445 98 88 39 47 415 643 134 583 221 82 5624 58 140 204 137 282 536 158 962
internal_value=0 0.0119275 -0.00143697 -0.000194941 0.0225102 0.0499446 0.0307721 -0.0447767 -0.0690241 -0.0790958 -0.0928632 0.0244731 -0.0224533 -0.0531461 0.0419336 0.0292566 -0.0651752 0.0891544 0.00431767 -0.0150938 0.0751691 -0.000184089 0.000726121 -0.040156 0.0467586 -0.0148341 0.014 0.0668432 -3.43553e-05 0.0130492
internal_weight=0 197.557 1526.35 149.792 74.1521 47.7642 38.769 42.8844 31.7629 30.3822 27.9615 11.1216 75.6403 35.239 36.521 33.2914 32.6364 18.7437 40.4013 31.9158 7.76214 1483.47 1450.44 33.0283 40.6592 26.3884 19.7755 33.2413 55.4085 46.9485
internal_count=12273 4184 8089 3505 1708 679 546 937 660 630 585 277 1797 770 503 456 731 368 1027 804 179 7152 6422 730 798 590 453 594 1340 1120
is_linear=0
shrinkage=0.3


Tree=228
num_leaves=31
num_cat=0
split_feature=158 36 223 29 78 140 222 21 82 137 0 216 264 156 216 111 39 223 107 172 200 100 196 183 199 180 253 123 87 38
split_gain=0.326144 0.402721 0.362438 0.493447 0.441573 0.400019 0.552592 0.397371 0.395029 0.649366 0.604633 0.651424 0.56572 0.562549 0.483717 0.48197 0.444797 0.480254 0.813044 0.669531 0.407212 0.517908 0.308621 0.426731 0.306085 0.37315 0.439628 0.436509 0.317611 0.304423
threshold=0.034889890942282738 -0.10598649829626079 -0.061055999249219846 0.039646500721573809 -0.0042425000574439495 -0.027351969597511998 -0.065825714149962702 -0.10648652438186336 0.05490233251784566 -0.064305499196052482 -0.0095859998837112496 0.024413670697641617 -0.028085500001907297 0.079986061105508502 -0.12278199940919869 0.050365500152111005 -0.12222899869084354 -1.0000000180025095e-35 -0.0067245000973343494 0.043474499136209453 -0.04587299935519689 -0.12814435117054873 -0.0081885000690817486 -0.033423500135540941 -0.098087001591920783 0.022926873137890519 0.010638873376752548 -0.090995148337369519 -0.012248000130057248 -0.098404001444578088
decision_type=2 2 2 2 2 2 2 2 2 2 2 2 2 2 2 2 2 2 2 2 2 2 2 2 2 2 2 2 2 2
left_child=2 -2 3 29 5 7 -7 -5 16 12 11 -11 13 -10 -12 -14 20 18 -18 -19 -4 -22 -6 -24 -3 27 28 -26 -27 -1
right_child=1 24 8 4 22 6 -8 -9 9 10 14 -13 15 -15 -16 -17 17 19 -20 -21 21 -23 23 -25 25 26 -28 -29 -30 -31
leaf_value=0.15300960802338492 -0.15003238638311819 0.18002657889794912 0.13502935185326098 0.10430685067460881 0.20203204111259157 0.11679616802694542 -0.032999943535398327 -0.11528450181186432 0.072247137818657339 0.055921546114674252 0.093107106827148595 -0.12778715993260981 0.17824625553610213 -0.12929770466674753 -0.073147856912818304 0.02523135478732828 -0.0059412767101741535 -0.00011933276476723729 -0.066635643830294716 0.058883096781655278 0.17957456465607799 -0.19735707362421587 0.18837940652079888 -0.12592737166191259 -0.10076912988389206 0.17740659090883268 -0.14035265504705993 0.126293561494211 -0.03328478369531869 -0.099392872167911248
leaf_weight=0.45057534333318372 0.86598301073536177 1.6929552610963572 3.9497847000602633 0.8599239271134137 1.4136773007921877 3.1169474900234544 7.6712219903019943 5.3931238941368127 3.9005914132576427 17.031876516528431 1.8536984489182931 1.9345002849586297 5.8341181311989185 1.8317174734547732 10.476458085002379 2.7147348884027451 87.807040444051381 1495.0756509587809 25.670953704131534 17.511807289090939 0.53006463823840022 0.86092506325803586 0.68218674836680293 0.90386259532533475 0.8988352327141883 1.0924087937455624 1.750922347186133 5.0045726104290233 1.5685448234435171 9.4468268447963073
leaf_count=8 24 44 65 29 17 92 355 302 106 469 42 58 99 50 360 54 1936 6092 806 400 8 48 14 55 33 24 53 131 42 457
internal_value=0 0.0475498 -0.000378992 -0.0330966 -0.00603031 -0.0247136 0.0102796 -0.0850861 0.000205099 0.0277522 0.00356291 0.0371839 0.080762 0.00784495 -0.0481533 0.129656 -0.000564504 -0.000848397 -0.0196715 0.000563761 0.0858702 -0.0537197 0.100108 0.00926131 0.0617986 0.0423949 -0.0236078 0.0917217 0.0532109 -0.0879023
internal_weight=0 12.8742 1706.92 29.9383 20.0409 17.0412 10.7882 6.25305 1676.98 45.5777 31.2965 18.9664 14.2812 5.73231 12.3302 8.54885 1631.41 1626.07 113.478 1512.59 5.34077 1.39099 2.99973 1.58605 12.0082 10.3153 4.41188 5.90341 2.66095 9.8974
internal_count=12273 351 11922 1329 864 778 447 331 10593 1238 929 527 309 156 402 153 9355 9234 2742 6492 121 56 86 69 327 283 119 164 66 465
is_linear=0
shrinkage=0.3


Tree=229
num_leaves=31
num_cat=0
split_feature=124 105 77 268 106 4 3 132 171 4 135 83 76 125 27 51 187 154 123 139 283 10 195 170 215 113 63 24 295 49
split_gain=0.378322 0.530078 0.533261 0.471584 0.390167 0.644611 0.588004 0.518001 0.470936 0.642099 0.931984 0.659013 0.722061 0.573102 0.527231 0.619012 0.498292 0.708025 0.579422 0.449081 0.447939 0.442771 0.426023 0.421064 0.281339 0.280266 0.339277 0.268109 0.282589 0.248913
threshold=-0.089374240183954498 -0.012356500141322549 0.027014561031724938 -0.020723000168800295 -0.035265501588582944 -0.035972500219941091 -0.062972691382957816 -0.051217999309301342 -0.053532977337071637 -0.03069123288660092 0.057260502430898357 0.084445383345000291 0.041691001504659604 0.0038264733026586086 0.0965704798838284 0.12327900156378746 -0.097568999975919682 0.0003409474016410528 0.017349000088870453 -0.059702611434917376 0.058281998037648129 0.059942001476883854 0.026485430721462744 -0.010028907868004857 -0.042083000764250693 -0.0063145000021903987 0.0025599999353289001 0.053684312036708079 -0.017429485362405208 -0.0083624999970196984
decision_type=2 2 2 2 2 2 2 2 2 2 2 2 2 2 2 2 2 2 2 2 2 2 2 2 2 2 2 2 2 2
left_child=1 2 3 24 5 27 19 -8 9 10 13 12 -11 -6 16 20 18 -18 -10 -7 -16 -13 -9 -12 -1 26 -3 29 -29 -2
right_child=4 25 -4 -5 8 6 7 22 14 11 23 21 -14 -15 15 -17 17 -19 -20 -21 -22 -23 -24 -25 -26 -27 -28 28 -30 -31
leaf_value=0.15245730267491764 0.021359843769940132 -0.20330486049625965 -0.14462525715076199 0.16536449003197443 -0.048680489932377252 0.084273608138186989 -0.10751074226430635 0.12006137713479155 -0.15763338299420279 0.075396129071922224 0.0014450156754968798 -0.16046111440399663 -0.091698015905839508 0.12114095055187631 -0.031338796452778046 0.17338752013541273 -0.00055478203022775495 0.035489924442867776 0.089390358753464266 -0.18052934973424697 -0.1551669182693744 0.106917197613508 -1.0625422205235786e-06 -0.13585371760083581 -0.17874570071885987 -0.19152755436089575 0.14223434614835853 -0.11715402117941222 0.16385602428679105 -0.1809653318714344
leaf_weight=0.32921122096013278 0.62950109236408014 0.45689140298054576 1.425459126170608 1.9686183459998574 2.8883780397882246 0.74230796741903793 2.3845413340859567 4.3393335952423424 3.5201589518110259 30.899946777528385 3.1171844999989844 2.0599097452941346 2.5171239907213012 4.6967760034603998 6.2191936974413657 0.914543706923724 1393.5065172127979 50.835717537604069 1.1285815746741716 2.5788796443812361 4.5547358488329337 0.7641900287271709 6.8725218264444266 5.6612331415235513 0.77237022737972438 2.9038752882042882 0.58089572392054833 0.78963285352801904 0.54392853997705948 4.1886646366765516
leaf_count=8 26 34 66 56 141 42 121 150 169 1057 126 87 107 173 193 20 6578 1918 57 102 132 32 267 156 43 156 33 44 16 163
internal_value=0 -0.0633995 0.00701009 0.0774127 0.000300391 -0.0384203 -0.00818032 0.0194622 0.00089067 0.028778 -0.0205475 0.0510494 0.0628098 0.056474 -0.000113661 -0.0635734 0.000398245 0.000713864 -0.0976631 -0.121344 -0.0836878 -0.0881096 0.0464668 -0.0870994 -0.0797646 -0.143705 -0.00989116 -0.121582 -0.00253659 -0.154531
internal_weight=0 8.43732 4.49566 3.0702 1536.35 23.0693 16.9176 13.5964 1513.28 52.6047 16.3636 36.2412 33.4171 7.58515 1460.68 11.6885 1448.99 1444.34 4.64874 3.32119 10.7739 2.8241 11.2119 8.77842 1.10158 3.94166 1.03779 6.15173 1.33356 4.81817
internal_count=12273 396 173 107 11877 931 682 538 10946 1879 596 1283 1164 314 9067 345 8722 8496 226 144 325 119 417 282 51 223 67 249 60 189
is_linear=0
shrinkage=0.3


Tree=230
num_leaves=31
num_cat=0
split_feature=223 188 121 17 142 221 6 11 16 106 47 106 266 247 146 101 123 252 246 55 65 38 260 224 149 144 280 202 75 109
split_gain=0.310855 0.439012 0.481322 0.348698 0.324431 0.687391 0.543912 0.501951 0.375631 0.469795 0.336751 0.656077 0.692945 0.603781 0.472984 0.670997 0.62921 0.286235 0.28442 0.279575 0.273388 0.235447 0.217091 0.209861 0.182176 0.0564066 0.0509816 0.0254349 0.00177439 0.000256766
threshold=-0.10889479815506141 0.024368500337004603 0.054715499281883205 -0.064454499632120091 -0.085123383250636078 0.053253000602126059 -0.042745441502000339 0.0052665829909979388 -0.11617549881339069 0.01022974276763214 0.033277500420808757 0.038367593779072659 -0.089601501822471549 0.016784499399363956 0.035321999341249403 -0.0084010687414967661 -0.10966816482687171 0.018474999815225553 -0.040131000801920842 0.047298616179910317 0.020642363770603269 1.0000000180025095e-35 0.075348500162363011 -0.023113968702747286 -0.015107055818504659 -0.051803819867292523 -0.082418283578794757 -0.0096828779647373207 0.046623833924231285 0.083484175713229428
decision_type=2 2 2 2 2 2 2 2 2 2 2 2 2 2 2 2 2 2 2 2 2 2 2 2 2 2 2 2 2 2
left_child=1 2 19 -3 5 6 17 20 9 22 14 13 -13 -12 16 -16 -10 -2 -11 24 -8 -4 -6 -19 -1 -23 -20 -5 -26 -29
right_child=4 3 21 27 8 -7 7 -9 10 18 11 12 -14 -15 15 -17 -18 23 26 -21 -22 25 -24 -25 28 -27 -28 29 -30 -31
leaf_value=0.0024355705566030854 -0.033557877933145332 -0.050389772596861823 -0.046635569651892431 0.13978108763429908 -0.060904260033614703 -0.21061877354096317 0.047109986563347035 0.12682589897836707 0.039977022070620948 0.045395328452959384 0.076350774277303676 0.13275525656651979 -0.037478070526012139 -0.049123697008255938 -0.03779513381887141 0.02513409100541442 -0.00074141118180878816 0.19386500105823129 -0.090548096973575326 0.088752159874716921 -0.17487731636758647 0.096083974269436753 0.19666676082328674 0.050676186272082493 -0.18763604919628216 0.20791319467609454 -0.19855107199687608 0.20589948680365047 -0.21002018652788912 0.212946829049426
leaf_weight=0.54476324148708988 0.80442471452988584 0.6709308592253368 0.70371519308537278 0.64000447886064726 0.54811058985069283 0.82022320409305471 0.74277821741998007 1.3910122071392832 34.939890197114437 0.60610791854560409 21.80700631567743 2.4597174096852568 17.205066806636751 4.1005403847666448 64.385134341428056 19.982419592677616 1520.7351553855842 3.8051382752601044 0.47068181354552541 0.60583190899342287 1.5232514720410106 0.70574172527994972 0.63649913761764765 1.2154648173600446 0.49249439872801104 0.95559467934071984 2.3943249844014645 1.2607954330742353 0.90329710533842444 0.73745278362184752
leaf_count=18 28 32 23 20 31 22 20 35 582 18 421 44 328 123 1556 477 8077 69 18 22 49 25 9 22 23 22 80 42 26 11
internal_value=0 0.0582603 0.00135366 0.14272 -0.00021803 0.0528577 0.0756491 -0.0150322 -0.000541529 -0.0856375 -0.000306491 0.0251309 -0.0161849 0.0564912 -0.00101333 -0.0228904 0.00017311 0.13258 -0.141309 -0.0891556 -0.102112 0.0988025 0.0774905 0.1592 -0.144698 0.160408 -0.180808 0.19183 -0.202122 0.2085
internal_weight=0 8.22062 4.91144 3.30918 1700.57 10.3023 9.48207 3.65704 1690.27 4.65572 1685.61 45.5723 19.6648 25.9075 1640.04 84.3676 1555.68 5.82503 3.47111 2.54639 2.26603 2.36505 1.18461 5.0206 1.94055 1.66134 2.86501 2.63825 1.39579 1.99825
internal_count=12273 264 159 105 12009 245 223 104 11764 156 11608 916 372 544 10692 2033 8659 119 116 89 69 70 40 91 67 47 98 73 49 53
is_linear=0
shrinkage=0.3


Tree=231
num_leaves=31
num_cat=0
split_feature=9 264 196 242 176 87 164 88 299 103 237 130 118 117 176 131 17 114 290 36 118 282 156 117 197 63 241 200 90 197
split_gain=0.323308 0.746541 0.441229 0.424247 0.451513 0.340011 0.81498 0.731431 0.807275 0.696421 0.681249 0.612443 0.631363 0.818455 0.794772 0.683478 0.587607 0.547961 0.900781 0.742994 0.551162 0.596896 0.556744 0.530351 0.516931 0.514826 0.571135 0.45953 0.302956 0.281643
threshold=0.081810500472784015 -0.012658999767154398 0.054492000490426955 0.048477179497998991 -0.014033001207124212 -0.051252667708027728 -0.083316072023477225 0.094969999045133563 0.060801500454545007 0.014500272711965767 0.040882499888539252 -1.0000000180025095e-35 -0.0059810001403092991 0.083736374593145854 -0.036660499870777095 0.050046064152453974 0.033681804704079686 -0.029007095795152951 -0.07346949726343148 -0.03470172002936215 0.038240499794483108 -0.11821554656445835 0.074066384642283975 -0.006733183763854898 0.057620000094175304 -0.0017820000066421499 -0.069481998682022039 -0.050883682947755922 0.0094049996696412511 -0.0095271760118277957
decision_type=2 2 2 2 2 2 2 2 2 2 2 2 2 2 2 2 2 2 2 2 2 2 2 2 2 2 2 2 2 2
left_child=5 3 29 28 -5 6 -1 25 9 -9 -10 12 13 15 16 -7 -14 18 24 -20 21 -19 -22 -16 -13 26 -8 -27 -2 -3
right_child=1 2 -4 4 -6 11 7 8 10 -11 -12 17 14 -15 23 -17 -18 20 19 -21 22 -23 -24 -25 -26 27 -28 -29 -30 -31
leaf_value=0.15687509855718362 0.14945717978082201 0.0037841622463440326 0.12417400903201814 -0.17656026735940369 0.13180639492323765 -0.093887413385808333 0.064751468329275058 0.14690217019874866 -0.078910788136998228 -0.0042090240906854327 0.15559925434449168 0.17865616037194218 0.0019687360513874672 0.13793225651162061 -0.021653305756157756 0.014894233874081019 0.09859153753332231 0.099721227542282284 0.053397607989272837 -0.033755843671573312 -0.088086713359698379 -0.00024570046010336064 0.0052571812513146918 -0.11832437327112137 -0.045334316778914238 0.099610346075687847 -0.072497464516667581 -0.043025359107505302 -0.023167638572856013 -0.17434663663568423
leaf_weight=3.8341745410580179 6.4605232275789586 1.284129291540012 0.95072937686927605 0.96285230363719165 0.76837129466002785 23.771135975082874 3.33629643643508 8.9727713444735873 5.1694512959220438 3.9546282014343879 1.421426309039816 5.1824942055391139 36.504800198308658 1.8029419311205845 16.844083951695215 6.6531279114424242 6.7050729723705436 5.3952555112628025 20.340500264734146 15.521372067101764 12.881060736646761 1477.1577104096068 10.388942537130786 7.3302883510477832 1.1293659206712616 5.0354301812476479 14.984671069832983 3.4090831890061981 1.0659580294741315 2.1138583810534319
leaf_count=62 129 36 27 48 22 708 85 154 117 88 27 92 893 44 568 220 172 154 476 405 482 5904 271 291 28 161 414 109 34 52
internal_value=0 0.046046 -0.0564831 0.0942081 -0.0396975 -0.000383136 0.0239593 0.0129485 0.0571117 0.100676 -0.028335 -0.0011236 -0.0239248 -0.058461 -0.00740752 -0.0700992 0.0169621 0.000343626 0.0340706 0.0156767 -0.000600967 0.000118096 -0.0464131 -0.0509664 0.138578 -0.0192568 -0.0475041 0.0420278 0.125009 -0.107029
internal_weight=0 13.6064 4.34872 9.2577 1.73122 1697.73 50.1179 46.2838 19.5183 12.9274 6.59088 1647.61 99.6115 32.2272 67.3842 30.4243 43.2099 1548 42.1737 35.8619 1505.82 1482.55 23.27 24.1744 6.31186 26.7655 18.321 8.44451 7.52648 3.39799
internal_count=12273 348 115 233 70 11925 1217 1155 386 242 144 10708 2896 972 1924 928 1065 7812 1001 881 6811 6058 753 859 120 769 499 270 163 88
is_linear=0
shrinkage=0.3


Tree=232
num_leaves=31
num_cat=0
split_feature=58 108 271 84 295 35 280 117 45 17 239 179 44 200 99 181 162 232 31 288 86 70 297 75 276 93 70 166 109 82
split_gain=0.386708 0.361902 0.770214 0.409019 0.395084 0.418612 0.562001 0.441368 0.755904 0.613953 0.440083 0.415101 0.405819 0.387658 0.354197 0.352933 0.340653 0.340571 0.323257 0.271364 0.259849 0.258658 0.258126 0.257044 0.238123 0.235772 0.198444 0.169423 0.146946 0.25738
threshold=0.11581958030500565 -0.07542049838821506 0.010076029969866063 -0.044625573099276818 -0.097586955795104458 -0.084880501031875596 -0.017038595897968235 0.011993160681366773 0.032836001366376856 -0.030901890139595888 0.028577298082283837 0.045038567948187024 0.027517500333487901 -0.075091000646352726 0.0092414999380707012 0.048793999478220863 0.035217000171542105 0.088698502629995304 -0.025882095699826687 0.044069083383437825 -0.020183000713586748 0.048797013786449205 -0.023165499791502894 -0.01215450000017875 -0.08915400132536884 -0.029376485236073679 -1.0000000180025095e-35 -0.045275500044226598 0.053929999470710706 0.044208500534296008
decision_type=2 2 2 2 2 2 2 2 2 2 2 2 2 2 2 2 2 2 2 2 2 2 2 2 2 2 2 2 2 2
left_child=1 2 13 14 12 6 10 9 -9 -7 -6 -8 16 26 20 -2 17 -3 -17 27 -4 24 -18 -23 -5 -16 -1 -14 -15 -30
right_child=15 4 3 21 5 7 11 8 -10 -11 -12 -13 19 28 25 18 22 -19 -20 -21 -22 23 -24 -25 -26 -27 -28 -29 29 -31
leaf_value=-0.20454488619531921 -0.17391957560771787 -0.056185551675838233 -0.2035954878609112 0.14838238121363992 0.0084534601450543118 -0.045401186224715381 0.10428266934546081 0.032608759306170049 -0.13091403794992235 0.00049318283831455308 -0.1348633216970839 -0.13871931736954832 0.044684549027903094 0.17651404379080765 0.0021163331544045809 -0.16258967307489294 0.18221406359200562 0.14688235751824893 0.094732559609826295 0.12690629595013317 0.10611369452221377 0.20091017156115873 0.012035398738292966 -0.15328896118858612 -0.18347906035712233 -0.19427634952057179 0.10451519106278533 -0.1810222685565035 -0.16031795547341676 0.16147898302456126
leaf_weight=0.58080279891146347 2.1984466834910554 2.0663288743235158 0.28090379320201497 0.20301565139379718 2.735150441847507 26.73179681421243 2.7229096923547327 59.00711312344356 2.6588473264055201 1407.7872644729214 6.537171017145738 0.82416393165476609 0.40660304529592406 1.7924378878306009 0.9991756842209728 0.68533691274933506 3.5701303702080622 1.1609124387905465 1.2242591235553844 0.53279042552458111 1.8464428959996428 0.36270012341265101 1.0346342645934781 0.37509916056296777 4.6913678874116158 1.2242153079132547 0.27575378573965315 1.134333714377135 0.37974661163752887 0.54434397079967312
leaf_count=49 112 108 26 11 115 1260 80 1740 120 7207 233 29 15 76 54 32 106 62 42 28 80 11 58 30 351 105 26 49 35 23
internal_value=0 0.000200235 -0.0485999 -0.0913812 0.000635768 0.000243758 -0.0537372 0.000706269 0.0255582 -0.000362044 -0.0925877 0.0478211 0.0603533 0.0709277 -0.0222903 -0.091967 0.0915985 0.0168626 0.00238192 -0.0576529 0.0652184 -0.144752 0.143977 0.0208344 -0.169714 -0.106019 -0.105048 -0.121466 0.126415 0.0292395
internal_weight=0 1532.47 13.556 9.98292 1518.91 1509 12.8194 1496.19 61.666 1434.52 9.27232 3.54707 9.90573 3.57309 4.35074 4.10804 7.83201 3.22724 1.9096 2.07373 2.12735 5.63218 4.60476 0.737799 4.89438 2.22339 0.856557 1.54094 2.71653 0.924091
internal_count=12273 12087 877 668 11210 10784 457 10327 1860 8467 348 109 426 209 265 186 334 170 74 92 106 403 164 41 362 159 75 64 134 58
is_linear=0
shrinkage=0.3


Tree=233
num_leaves=19
num_cat=0
split_feature=246 82 111 160 210 194 169 138 193 73 52 137 61 150 41 79 119 270
split_gain=0.280662 0.403639 0.302704 0.491143 0.347117 0.331097 0.633171 0.675251 0.525645 0.494207 0.677564 0.508941 0.258959 0.191671 0.179471 0.0574453 0.0479358 7.88163e-05
threshold=-0.10917526436780446 0.032292185558780995 -0.066464915383875459 -0.049355000257492045 -0.15217500180006019 0.022292500361800156 -0.012091678569093683 0.024823499843478151 0.036092287248719539 0.12444249913096427 -0.035597321375938219 0.012217989306733795 0.019271000288426803 -0.016479000449180544 -0.03946386135592634 -0.043202874214920112 -0.079194175051417764 -0.013430737516758875
decision_type=2 2 2 2 2 2 2 2 2 2 2 2 2 2 2 2 2 2
left_child=1 13 3 -2 12 9 7 -7 -8 11 -11 -6 -4 -1 -5 -16 -15 -17
right_child=2 -3 4 14 5 6 8 -9 -10 10 -12 -13 -14 16 15 17 -18 -19
leaf_value=-0.0070776965044234696 0.11336293160870871 -0.10779160282371626 0.1936984959465034 0.024127085860508032 -0.00072656170900815625 -0.079911293085524179 0.039806476006975219 -0.0075398517156818421 -0.067391168405161836 -0.077705747983662837 0.053794653510861885 0.038639975335989445 0.015602776093272347 0.11533382597122849 -0.091594867845323502 -0.20871799859794435 0.21028228472922933 -0.20457604757765077
leaf_weight=0.64471301401499737 0.84749292272317722 0.77591098239645351 1.4437205858994269 0.45841053558979261 1553.6000010252901 21.432417483621975 20.300504040555101 25.299962655291893 5.1640987305436274 4.026964441407471 28.373143909266219 30.12988401617622 1.4964095028117297 0.71156507031992156 0.50405343365855615 0.63362968864385116 1.4613559587742186 1.1900237558002087
leaf_count=17 23 26 25 17 8852 534 513 588 141 80 470 806 34 22 24 15 34 52
internal_value=0 0.0838072 -0.000121704 -0.0866176 6.41284e-05 -0.000115224 -0.0199922 -0.0407309 0.0180673 0.000772733 0.0374507 2.23723e-05 0.103055 0.136569 -0.147449 -0.181238 0.17919 -0.206015
internal_weight=0 3.59355 1694.9 3.63361 1691.27 1688.33 72.197 46.7324 25.4646 1616.13 32.4001 1583.73 2.94013 2.81763 2.78612 2.32771 2.17292 1.82365
internal_count=12273 99 12174 131 12043 11984 1776 1122 654 10208 550 9658 59 73 108 91 56 67
is_linear=0
shrinkage=0.3


Tree=234
num_leaves=31
num_cat=0
split_feature=160 88 43 107 232 194 96 186 40 103 20 172 142 198 214 52 198 268 191 184 288 105 261 248 35 228 205 107 107 231
split_gain=0.316103 0.595184 0.778305 0.651633 0.590688 0.57968 0.719063 0.546825 0.594682 0.529579 0.539867 0.508223 0.500243 0.806853 1.00451 0.796122 0.656189 0.856208 0.94153 0.930196 0.659718 0.631018 0.62027 0.58768 0.539717 0.589055 0.526605 0.527247 0.521922 0.519367
threshold=-0.045276001095771741 0.060285116621923242 -0.0072067564283411619 0.016344499774277207 0.047726498916745151 0.01155646174703113 0.059816500172018956 0.022881499491631953 0.071223497390747015 0.019460000097751552 0.062059000134468058 0.0053159999661147013 -1.0000000180025095e-35 0.090197000652551609 0.047919639543859825 0.037443000823259361 0.029897499829530706 -0.035599000751972143 -0.027687500230967946 -0.072826497256755787 -0.041791001334786346 -0.022198056001599773 0.047526138471980964 -0.10634920097200938 0.028862363146628389 0.024159180463231771 -0.048759000375866841 -0.0067245000973343494 -0.039072500541806193 -0.072779678851825055
decision_type=2 2 2 2 2 2 2 2 2 2 2 2 2 2 2 2 2 2 2 2 2 2 2 2 2 2 2 2 2 2
left_child=1 9 3 7 5 6 -4 8 -3 10 -1 -11 15 24 21 16 17 18 -2 -19 28 -15 -22 -17 25 29 -25 -28 -18 -14
right_child=12 2 4 -5 -6 -7 -8 -9 -10 11 -12 -13 13 14 -16 23 20 19 -20 -21 22 -23 -24 26 -26 -27 27 -29 -30 -31
leaf_value=-0.10527753451499643 0.10496670718979793 -0.010194637300620795 0.054846294813410405 0.1206827976105356 0.13269255871998881 0.14291992585448862 -0.11558595763248625 0.068469465191157347 -0.14955383733636521 -0.055049658135447994 0.09080193413248154 0.066861363149701009 0.086947523281284342 -0.15173856345010622 -0.16663640967474255 -0.18278896083865762 -0.12679020605557767 0.077166388725245741 -0.012541502810235318 -0.070707355486716944 -0.0033973811663431169 0.14678305699505412 -0.095453559355255874 -0.04715156232776177 0.051096236465265607 -0.069487499675620609 0.10340213697681284 -0.018565506216895736 0.12358573893815844 -0.00035788452842927244
leaf_weight=7.8350603728613368 9.3191595725365932 7.5742279953938141 7.1168206418515201 3.1394744108256409 10.032897097291423 3.4859406596515319 3.2432759003713727 3.9049683046760029 4.3320584393804893 5.0004020158958147 1.5068033856805412 8.0034680853714217 6.158052500919438 0.69319301738869299 1.2350504288915534 1.0829286837833958 1.0190619203494864 4.5640974265988943 17.970656539910124 23.75649480469292 8.6708487049763772 7.9013239877967854 27.416216823039576 4.4550485319923654 18.464824878901709 11.059931629628407 11.490878624725157 4.4155754721723435 2.8307487081619902 1475.2733771499916
leaf_count=259 215 191 129 82 190 75 78 86 96 191 36 203 146 22 33 48 34 124 535 802 289 164 796 155 565 381 240 143 77 5888
internal_value=0 0.0205282 0.0412358 -0.00416031 0.0772629 0.0370983 0.00149169 -0.0289491 -0.0609 -0.0191617 -0.0736507 0.0199827 -0.000776143 0.000678069 0.0863509 -0.0196796 -0.0314037 -0.0103351 0.0275862 -0.0468763 -0.0607409 0.122706 -0.0733347 0.0325583 0.000120722 -0.000509937 0.0440116 0.0695444 0.0573101 5.02885e-06
internal_weight=0 65.1754 42.8297 18.9507 23.8789 13.846 10.3601 15.8113 11.9063 22.3457 9.34186 13.0039 1637.78 1520.79 9.82957 116.992 95.5473 55.6104 27.2898 28.3206 39.9369 8.59452 36.0871 21.4444 1510.96 1492.49 20.3615 15.9065 3.84981 1481.43
internal_count=12273 1616 927 455 472 282 207 373 287 689 295 394 10657 7199 219 3458 2872 1676 750 926 1196 186 1085 586 6980 6415 538 383 111 6034
is_linear=0
shrinkage=0.3


Tree=235
num_leaves=31
num_cat=0
split_feature=199 43 140 254 164 204 159 29 299 134 165 72 250 124 224 80 283 185 44 146 77 249 128 266 146 175 297 90 191 233
split_gain=0.371292 0.477231 0.370527 0.704221 0.474565 0.367328 0.412784 0.894013 0.617605 0.588377 0.544003 0.447029 0.396185 0.365304 0.36175 0.33767 0.335533 0.267609 0.239886 0.224587 0.216599 0.250421 0.199278 0.144049 0.179735 0.0773168 0.0549958 0.0336572 0.0264567 0.000260182
threshold=-0.11995400115847583 -0.038955498486757244 -0.10439600050449364 -0.030865999870002245 -0.037895498797297443 0.081550497561693164 1.0000000180025095e-35 0.087965000420808764 -0.0011935355458265076 0.040690044195334514 -0.024927999824285448 -0.0087546973169033374 0.074305350161852579 -0.035929000005125944 -0.15113999694585792 -0.0079715000465511495 0.0090446045794185873 -0.025836761497931938 -0.033830607698434823 -0.011093999724835149 -0.042790331532454658 0.024481499567627855 0.034851500764489105 0.0022763769445216611 0.044146465528785712 0.025412000715732502 0.0072908409971019113 0.026196999475359854 -0.052693000063300091 -0.05868238507809951
decision_type=2 2 2 2 2 2 2 2 2 2 2 2 2 2 2 2 2 2 2 2 2 2 2 2 2 2 2 2 2 2
left_child=1 15 3 14 -5 6 7 8 -4 10 -8 -11 -9 22 -2 -1 -3 -17 19 -16 21 -7 -6 29 -25 28 -19 -20 -22 -18
right_child=2 16 5 4 13 20 9 12 -10 11 -12 -13 -14 -15 18 17 23 26 27 -21 25 -23 -24 24 -26 -27 -28 -29 -30 -31
leaf_value=-0.20514584095362315 0.14354738900124034 0.068883284990720189 0.044142754227817042 0.16531660063596484 0.20970983439224833 0.16770128318042515 -0.0039732909332631725 -0.040948648577437921 -0.00076666512140080416 -0.16192078581438935 0.040353963947303846 0.013149245708675076 -0.1473138632585323 -0.20529163029307285 -0.17696884441745228 -0.12524506158522941 -0.2130597120030871 0.063748999462906908 -0.20630024314733655 0.14086536185994422 -0.074780788444011578 -0.16973821367390116 -0.062572798476206046 -0.20340984920317837 0.096326606489737621 -0.0065018382296351158 0.19042977491284682 -0.12108699198043295 -0.20380205797176934 -0.20470542888642684
leaf_weight=0.42418751589139025 0.37921169027686108 0.60799519039574024 28.129896685873973 1.525143655628199 0.45212877681478858 0.44907514847000163 40.492464976428892 9.9959142806546861 1360.2811325795192 2.7859413994883653 64.780574782929762 2.4822345385946383 4.6029827339807516 0.84907789714634219 0.38871239760192111 0.4012384257075613 0.3948527001775809 0.44486348115606178 3.1159924152307217 0.41234425269067276 0.15866766398539756 0.35393483377993107 0.52031010972859804 0.36246288922848169 0.35777167312335223 0.23386471058620362 1.0056415845756417 0.48164441692642856 1.4522016336268269 2.2322795091895387
leaf_count=39 4 36 994 36 12 25 1380 483 5832 122 2257 120 167 45 18 29 9 25 133 23 18 26 31 40 12 26 29 18 139 145
internal_value=0 -0.07316 0.000219637 -0.0636759 0.0418571 0.000562022 0.000757326 -0.000633318 0.000143222 0.0184076 0.0233038 -0.0794321 -0.0744852 -0.0615147 -0.137596 0.0362886 -0.136137 0.0915951 -0.161833 -0.0133636 -0.111081 0.0189714 0.0640231 -0.173376 -0.0545178 -0.167692 0.151577 -0.194892 -0.191094 -0.205961
internal_weight=0 6.23129 1524.32 8.12457 3.34666 1516.2 1513.55 1403.01 1388.41 110.541 105.273 5.26818 14.5989 1.82152 4.77791 2.27593 3.95536 1.85174 4.39869 0.801057 2.64774 0.80301 0.972439 3.34737 0.720235 1.84473 1.45051 3.59764 1.61087 2.62713
internal_count=12273 364 11909 320 124 11589 11355 7476 6826 3879 3637 242 650 88 196 122 242 83 192 41 234 51 43 206 52 183 54 151 157 154
is_linear=0
shrinkage=0.3


Tree=236
num_leaves=31
num_cat=0
split_feature=231 57 248 254 273 290 252 31 266 219 81 11 170 164 42 241 54 186 127 10 281 2 278 2 55 149 227 245 184 53
split_gain=0.310666 0.742067 0.76643 0.639624 0.686008 0.617723 0.604794 0.57088 0.637273 0.76355 0.677782 0.773533 0.682222 0.611452 0.581401 0.529097 0.515842 0.506133 0.492514 0.482588 0.50161 0.445902 0.867809 1.29807 1.16775 0.665495 0.68642 0.642351 0.629394 0.569551
threshold=-0.056580999866127892 -0.099736992125660465 -0.066310829037772315 -0.11044425650519349 -0.063515998423099476 -0.047059842098645603 0.13210800290107724 -0.065187901680273816 -0.099371999502181993 0.016326500102877603 0.08054149895906447 0.0076113657782638624 -0.00056321932006320478 0.039711499586701358 0.015223919580220907 -0.030004999600350798 0.0064284999389200509 0.016026768961637749 -0.038104498758911996 0.068703939108256742 -0.036479147025929144 -1.0000000180025095e-35 0.0012379999971017001 0.0090817463988993301 0.0068650938355070421 0.067674998193979222 -0.078059501945972387 0.061725991389021281 -0.029864999465644297 0.057789675928522417
decision_type=2 2 2 2 2 2 2 2 2 2 2 2 2 2 2 2 2 2 2 2 2 2 2 2 2 2 2 2 2 2
left_child=1 2 -1 19 18 16 17 8 -2 13 11 -11 -12 14 -10 -15 -4 -6 -5 20 -3 25 -23 24 -24 27 -27 28 -9 -25
right_child=7 3 5 4 6 -7 -8 21 9 10 12 -13 -14 15 -16 -17 -18 -19 -20 -21 -22 22 23 29 -26 26 -28 -29 -30 -31
leaf_value=0.14918429540669101 0.14428364455195133 0.082736739351082098 -0.11487075281004747 0.15004576574906889 -0.090386793756461636 -0.16646161388325809 0.18374830175904458 -0.0070841350367338443 0.079384221962982657 -0.083547819515639804 -0.082945803461010978 0.0502188425356161 0.14124991336661219 -0.1232286357203095 -0.051336907647818071 0.03931755210382875 0.13251352838981731 -0.014327014676146962 -0.084069982381683686 0.18623146690057804 -0.10128047925299924 -0.00037817778664760187 0.20206263386226089 -0.015709319245990838 0.027288784676793913 -0.113150610592958 0.095512950000857327 0.10485921281332525 -0.052799626921339458 0.055462521395887948
leaf_weight=4.2959802555851638 3.9746282063424578 3.0854710056446493 1.1257427311502399 2.4767677392810588 26.460616774857044 1.7622934943065027 0.88065258180722494 58.554446743975859 28.008139871206371 14.140246694281819 1.7786959479562936 5.3675657706335178 3.8998884335160247 3.1786678610369563 3.4380342806689432 4.1622810345143071 2.3260778775438666 11.209798344061708 1.2008193351794023 1.7034543431363998 2.3475235709920517 1384.2306441056135 7.1215495273936522 26.249315504508559 6.656665597576648 1.7301657060161231 7.8856468253870826 3.3637716243974856 50.463262443023268 16.468234786239918
leaf_count=70 70 74 21 36 599 52 20 1388 587 287 34 136 51 71 79 102 35 228 30 33 57 5266 101 730 159 41 172 68 1259 417
internal_value=0 -0.0213771 0.0553581 -0.0361599 -0.0501981 -0.0219467 -0.062008 0.000805116 0.0277243 0.0204826 -0.0201899 -0.046742 0.0710254 0.0468932 0.0650924 -0.0310658 0.0518341 -0.0677533 0.0736014 0.0469085 0.00322538 -0.000365348 0.00110929 0.0375544 0.117624 -0.01778 0.0579683 -0.0242614 -0.0282454 0.0117285
internal_weight=0 58.8752 9.51009 49.3651 42.2287 5.21411 38.5511 1630.67 67.9481 63.9735 25.1864 19.5078 5.67858 38.7871 31.4462 7.34095 3.45182 37.6704 3.67759 7.13645 5.43299 1562.72 1440.73 56.4958 13.7782 121.997 9.61581 112.381 109.018 42.7176
internal_count=12273 1255 178 1077 913 108 847 11018 1417 1347 508 423 85 839 666 173 56 827 66 164 131 9601 6673 1407 260 2928 213 2715 2647 1147
is_linear=0
shrinkage=0.3


Tree=237
num_leaves=30
num_cat=0
split_feature=216 173 114 45 41 5 285 76 93 215 133 48 238 19 153 276 60 273 145 207 209 145 141 152 215 191 147 18 257
split_gain=0.297542 0.411763 0.548762 0.392709 0.371314 0.361838 0.360135 0.696683 0.709883 0.720988 0.65382 0.652569 0.574968 0.432982 0.673326 0.585401 0.573368 0.416356 0.414774 0.613964 0.563121 0.34998 0.31677 0.269437 0.37078 0.208279 0.18568 0.0816052 0.00277559
threshold=-0.13325149565935127 -0.11347920465627483 0.0018879999988712002 0.0063839999493211013 0.059727000072598457 -0.12655249983072278 0.030348956126706312 0.037553647078997769 -0.00034230580642422877 -0.035946998745202997 -1.0000000180025095e-35 0.0046341054358863187 -0.023594576508946693 0.097753229842592729 -0.0069505001883953489 -0.052585501223802546 -0.0072530000470577985 -0.016315831019574928 -0.014864270089135675 0.092239998281002003 0.057573358122829682 0.0065274999942630009 0.010895499959588002 -0.017938499338924847 0.0048334999009966512 0.016188999637961353 -0.047968164604589761 -0.024432522582415954 -0.0081578869983214997
decision_type=2 2 2 2 2 2 2 2 2 2 2 2 2 2 2 2 2 2 2 2 2 2 2 2 2 2 2 2 2
left_child=1 28 4 25 21 23 13 8 11 -10 12 -8 -9 18 16 -16 -15 -12 20 -20 -7 22 -3 24 -2 27 -23 -4 -1
right_child=5 2 3 -5 -6 6 7 10 9 -11 17 -13 -14 14 15 -17 -18 -19 19 -21 -22 26 -24 -25 -26 -27 -28 -29 -30
leaf_value=0.2138973127717185 0.16423947422997062 -0.14727205592570142 -0.068950836872697777 0.10733772995257376 0.2020482678263999 -0.0087218926266467364 -0.11600741143092388 0.12780803964684037 0.11072954907862295 -0.041079505644225231 -0.19822995301055377 0.089125799082738238 -0.075459181245445928 0.12325948762395486 -0.068043558976355265 0.031534399163757561 0.024742448811053936 0.024137515530364178 -0.00010095042922869238 0.10207834816669435 -0.082952709824326717 -0.00031718182811081791 0.043910812657007164 0.19386219389372839 -0.14825907437081803 0.025821653781167114 0.14345380162426338 -0.20862095370380696 0.18580290128554405
leaf_weight=0.81196384510258213 0.69135303422808669 1.3151684690965324 0.49626442370936374 0.8259846294968155 1.5254966015927491 35.035863754499587 14.093479348317485 6.0117610094603151 3.6841993255075076 11.942982364096677 1.4138191374950113 1.54913138516713 1.5820009838789699 9.3501459794933925 8.6557256133819482 13.760015533276599 12.325675704661988 1.6332551734521965 1536.9881271054819 5.3107698509120373 12.471707384131149 1.1575490299146602 1.9167770607746204 1.5017688407097001 0.67568414029665291 0.6012445794767699 2.6809289986267708 1.5599166721804059 0.51864790194667765
leaf_count=21 19 41 18 29 26 1322 474 104 83 316 33 48 27 200 209 439 290 40 7744 144 315 33 48 36 34 37 59 57 27
internal_value=0 0.0445568 0.0271092 -0.0733375 0.0678143 -0.000308383 -0.000490619 -0.0279501 -0.0505134 -0.00528963 0.0383557 -0.0956925 0.0854616 0.000213736 0.0295387 -0.00691713 0.067239 -0.0790393 -0.000599561 0.000250895 -0.028209 0.0388523 -0.0338868 0.106144 0.00978112 -0.129495 0.100098 -0.174911 0.202947
internal_weight=0 13.4099 12.0793 3.48341 8.59592 1678.68 1675.81 41.9106 31.2698 15.6272 10.6408 15.6426 7.59376 1633.9 44.0916 22.4157 21.6758 3.04707 1589.81 1542.3 47.5076 7.07042 3.23195 2.86881 1.36704 2.65743 3.83848 2.05618 1.33061
internal_count=12273 396 348 141 207 11877 11788 1125 921 399 204 522 131 10663 1138 648 490 73 9525 7888 1637 181 89 89 53 112 92 75 48
is_linear=0
shrinkage=0.3


Tree=238
num_leaves=31
num_cat=0
split_feature=294 176 111 278 179 19 241 57 295 65 232 199 263 172 293 5 31 159 166 153 69 293 153 151 28 276 213 220 224 75
split_gain=0.374105 0.624404 0.558398 0.48585 0.628473 0.511655 0.470986 0.662599 0.536905 0.493493 0.499059 0.753425 0.63496 0.460584 0.460045 0.44192 0.43032 0.383765 0.340883 0.33157 0.315676 0.294957 0.268098 0.262031 0.261897 0.24837 0.244855 0.232148 0.229444 0.176867
threshold=-0.064017999917268684 -0.0090416284873932346 0.071948709568010652 0.019840004035440683 0.031947895400314577 0.014825500082224602 0.060876999050378751 -0.11804449930787084 0.0061660001520066508 0.09822050109505652 0.0091960849772640754 -0.0042062692661962086 -0.023172229422739877 -0.043606000021099996 0.026775656545408043 0.0061490000225603008 -0.039520467566290407 0.073914816645751266 -0.0029425000539048994 0.079750999808311462 0.099969998002052321 -0.0055410366769338727 0.067782502621412208 -0.050392900636948526 0.034119499847292852 -0.0067729431321691541 -0.06800046271600188 -1.0000000180025095e-35 -0.097696498036384541 -0.016069830851752478
decision_type=2 2 2 2 2 2 2 2 2 2 2 2 2 2 2 2 2 2 2 2 2 2 2 2 2 2 2 2 2 2
left_child=1 2 3 5 15 14 7 8 19 10 11 -9 -12 -3 -1 -5 18 -7 23 26 24 -8 29 -15 -18 -6 -2 -20 -10 -11
right_child=6 13 -4 4 25 17 21 9 28 22 12 -13 -14 16 -16 -17 20 -19 27 -21 -22 -23 -24 -25 -26 -27 -28 -29 -30 -31
leaf_value=0.087661436933120271 0.055113132481842943 -0.16483011981871684 -0.18290130641353039 0.061277694719336126 -0.20741498134348105 -0.16589375078349997 -0.066832406287120047 -0.057320222653430189 0.16965993667714133 0.026595346213733967 -0.0048405581653806649 0.00022034540771180634 0.038423755372578514 0.046802706867351704 -0.15900280099403682 -0.1057370179208684 0.12702400200240269 0.073639655272682861 -0.13198041512599304 0.0930182868238877 -0.14129891723874141 0.13364875696790601 0.088880832418209293 -0.17352980927398234 -0.09943841408214428 -0.024201475191787669 -0.16760001057729124 0.13698567478592119 -0.081525578061620571 -0.19053007776316358
leaf_weight=2.0992243235814443 0.48643022100441147 1.0270551209250687 2.8071010498788374 8.2480789305518538 1.5771152049128434 5.7241674739925656 0.80494238337269042 20.801389485604886 0.90224015642888844 0.39891420336789529 54.847319307438738 1326.4106517866312 68.860801441871445 0.6940571925370026 1.0069147639733271 1.7238693499821227 5.8065836586320065 0.67271566251292814 0.37904126031207863 0.56388864270411421 0.48821305978344742 3.6799115219619116 0.47072237916290749 1.6187717542052271 0.49910571344662447 1.1526105948432803 5.1276672980238791 1.2132275839248892 0.51359356436296344 2.1985840178167555
leaf_count=79 20 59 169 302 60 357 39 839 32 24 1834 4491 2638 29 56 87 235 25 34 14 24 163 17 73 26 58 269 44 34 142
internal_value=0 -0.0300512 -0.0568306 -0.0408928 -0.00250878 -0.0921966 0.000594162 0.000300317 -0.0880892 0.00075569 0.0010064 -0.0006681 0.0192421 0.0270695 0.00770048 0.0324055 0.045491 -0.140704 -0.0338667 -0.126277 0.0911054 0.0976664 -0.119434 -0.10741 0.109099 -0.130054 -0.148303 0.072958 0.0785424 -0.157185
internal_weight=0 36.7379 25.0118 22.2047 12.7017 9.50302 1486.07 1481.58 7.59382 1473.99 1470.92 1347.21 123.708 11.7261 3.10614 9.97195 10.699 6.39688 3.9051 6.17799 6.7939 4.48485 3.06822 2.31283 6.30569 2.72973 5.6141 1.59227 1.41583 2.5975
internal_count=12273 1717 1193 1024 507 517 10556 10354 369 9985 9802 5330 4472 524 135 389 465 382 180 303 285 202 183 102 261 118 289 78 66 166
is_linear=0
shrinkage=0.3


Tree=239
num_leaves=31
num_cat=0
split_feature=112 101 255 195 288 223 246 98 186 168 237 298 279 15 1 81 109 284 70 268 94 57 44 192 266 23 237 4 261 53
split_gain=0.288654 0.656499 0.599887 0.71197 0.612866 0.58916 0.52363 0.467581 0.465743 0.666757 0.546369 0.541799 0.531581 0.455783 0.433299 0.416181 0.39169 0.739221 0.60626 0.728492 0.922221 0.712045 0.645003 0.526236 0.523015 0.492443 0.534686 0.622198 0.513593 0.597189
threshold=0.061934821473877182 -0.047457499429583494 -0.035533001646399442 0.073458492845952086 -0.038055500015616341 -0.039096498861908843 -0.0062764999456702995 0.0024395080781538111 -0.010760500095784598 0.009037381061707022 -0.044660000130534096 0.060802999883890103 0.020414000377058903 0.019872498160663797 -0.051047001034021343 0.011404500342905502 0.08134800195693967 0.085673499852418858 -0.034118501469492891 -0.062525503337383229 -0.041767500340938492 -0.066721217041868355 -0.064509000629186589 1.0000000180025095e-35 -0.10662500187754624 0.033346194661241411 0.030456500127911502 -0.083676498383283546 0.13702881911190243 0.09122900292277332
decision_type=2 2 2 2 2 2 2 2 2 2 2 2 2 2 2 2 2 2 2 2 2 2 2 2 2 2 2 2 2 2
left_child=16 2 6 4 -4 7 13 14 10 -10 -7 -11 -12 -2 -3 -5 -1 18 19 20 -18 23 -21 -20 -23 28 27 -27 29 -19
right_child=1 5 3 15 -6 8 -8 -9 9 11 12 -13 -14 -15 -16 -17 17 25 21 22 -22 24 -24 -25 -26 26 -28 -29 -30 -31
leaf_value=0.0005046219234075205 0.1152869310157771 -0.11467722976623314 -0.095273193325134689 0.074539466494161807 0.14078530788536964 -0.16410804303998519 -0.16667169905537507 0.15544877035480203 0.024659704980912956 -0.1548384184463249 0.11184632501421843 0.10212725784837527 -0.074758560741242791 -0.12287798225550475 0.079131526085348111 -0.20226548354131554 0.099742824798520938 0.020098304581553757 -0.00076955250161542677 0.055790961086427802 -0.090090705773858137 0.1442024616013054 -0.11668319376559418 0.11976653487377574 -0.063585634358015702 0.17323262260188663 0.12562773710925282 -0.13944316234036599 -0.084269410547856791 0.14418706182358626
leaf_weight=1546.6289866046718 2.3385196770541374 1.7290039442013947 1.0809181109070767 0.91678468673489888 11.748696256894616 1.2000693990848956 1.5990617841016526 3.0242369510233402 4.0686372192576474 6.6418854377698153 4.5961572880623924 0.83084136154502619 1.9597703733015803 1.0469408284407107 2.5985278526786741 1.0472934044664723 4.4938919893465936 8.0696872447151744 9.4608532703714463 2.1778552756877643 4.7246852493844944 1.1694018431007887 18.770947179960785 4.9733971423920584 16.101742469647434 0.66864797775633622 1.2602161875693125 3.9946324336342505 2.1274776989594093 6.1511838661972424
leaf_count=9344 47 50 27 21 193 37 50 58 96 149 85 16 42 31 61 23 69 170 216 58 102 15 458 101 500 12 25 97 41 79
internal_value=0 0.0234095 0.0648189 0.0951464 0.120897 -0.00732337 -0.0251907 0.0649452 -0.0348557 -0.0730621 0.0219975 -0.126268 0.0560643 0.0416353 0.00169799 -0.0730596 -0.000579844 -0.020513 -0.0373833 -0.0678271 0.00244975 -0.00841633 -0.0987526 0.0407618 -0.0495166 0.026354 -0.0477546 -0.0946099 0.0532058 0.0737724
internal_weight=0 46.4273 19.7782 14.7937 12.8296 26.6491 4.98452 7.35177 19.2974 11.5414 7.756 7.47273 6.55593 3.38546 4.32753 1.96408 1630.77 84.1446 61.8728 30.1674 9.21858 31.7054 20.9488 14.4343 17.2711 22.2718 5.9235 4.66328 16.3483 14.2209
internal_count=12273 986 392 264 220 594 128 169 425 261 164 165 127 78 111 44 11287 1943 1519 687 171 832 516 317 515 424 134 109 290 249
is_linear=0
shrinkage=0.3


Tree=240
num_leaves=31
num_cat=0
split_feature=46 7 288 85 53 3 178 165 149 96 262 178 99 172 260 194 119 140 148 91 138 109 86 77 116 255 216 246 206 270
split_gain=0.293673 0.412028 0.428179 0.329423 0.677397 0.565677 0.617064 0.61103 0.550749 0.550245 0.539388 0.538124 0.528398 0.523261 0.515467 0.542539 0.467839 0.462811 0.437589 0.438087 0.434043 0.393011 0.372248 0.354153 0.351984 0.348795 0.335547 0.268079 0.226795 0.192244
threshold=0.12704142056763759 -0.063445001840591389 -0.00088852037144704062 -0.014042322949513448 0.069788996210350104 -0.040213499218225444 -0.052463846581058772 -0.032920500263571691 -0.04683599993586534 0.063381999731063815 0.046021903558059719 0.0063029997982084508 -0.0033801699051769353 -0.051601000130176496 0.085480500012636115 -0.088234998285770333 0.022404580273367076 1.0000000180025095e-35 0.017973500303924052 -0.012510499916970648 0.048231000080704654 0.047091498970985357 0.054430064524881243 -0.051993792902644796 0.043100500479340505 0.034507000818848554 -0.077174000442027976 0.0068797059602793411 0.046054740892018588 -0.03803726227765529
decision_type=2 2 2 2 2 2 2 2 2 2 2 2 2 2 2 2 2 2 2 2 2 2 2 2 2 2 2 2 2 2
left_child=3 2 -2 10 8 7 -7 28 17 -8 12 -9 22 26 16 -16 -14 27 -12 23 -15 -19 25 -20 -21 -1 -10 -5 -6 -4
right_child=1 -3 29 4 5 6 9 11 13 -11 18 -13 14 20 15 -17 -18 21 19 24 -22 -23 -24 -25 -26 -27 -28 -29 -30 -31
leaf_value=-0.034675056221674015 0.18789555116332265 0.17162719394008152 0.022292869080083728 -0.17144304405014707 0.19053345190961671 -0.14030759635561482 0.042730044531872735 -0.063230650059769883 -0.015520603307657843 -0.032298791462685716 0.18388320546820502 0.099178816206157136 -0.052976255581060949 0.00026151121914168871 -0.14651486853678941 0.025978087919147561 0.077151371315593062 -0.078186996093192865 -0.062602819799726733 -0.12854697208292598 -0.042992271508230928 0.083657325631668333 -0.18235139721324106 0.12195011510213506 0.070316291125659916 -0.16071868247409593 0.13242049063196934 -0.052475229952856403 0.023756619581597901 -0.1815931942599463
leaf_weight=11.825878495073995 0.69900012481957707 2.1460797506151712 0.74679626291617762 3.6357518211589177 4.569136583537329 2.1531956621911368 35.127289459764143 3.1327326503815112 2.0165202418138506 11.736366923898457 1.7242833108175535 4.4362651177216321 27.315151832013729 1490.5370593788102 1.7493343600071991 26.520105517207412 2.7355952577490816 2.7326329743373208 1.2481428447645155 2.3820701873628418 21.176469029109285 2.6695793516701087 2.4504148798005181 3.7398199739400289 1.2069013043073935 2.3723011685651718 4.3699638549442161 3.2095671693095937 0.87426169496029604 0.94025354064069655
leaf_count=469 20 52 21 142 118 72 731 102 86 234 54 135 1244 6334 62 622 118 99 47 109 697 81 100 93 32 110 129 104 25 31
internal_value=0 0.0762488 -0.00953727 -0.000220639 0.000752159 0.031486 0.0167251 0.0870894 -0.000493568 0.0239401 -0.0183872 0.0319592 -0.0272318 1.7616e-05 -0.013775 0.0153041 -0.0411304 -0.0638556 0.0459808 0.0182572 -0.000344399 0.00179066 -0.074371 0.0757693 -0.0616731 -0.055735 0.0857084 -0.115663 0.163748 -0.0913402
internal_weight=0 4.53213 2.38605 1677.65 1592.38 62.0292 49.0169 13.0124 1530.35 46.8637 85.27 7.569 74.9688 1518.1 58.3202 28.2694 30.0507 12.2475 10.3012 8.57693 1511.71 5.40221 16.6486 4.98796 3.58897 14.1982 6.38648 6.84532 5.4434 1.68705
internal_count=12273 124 72 12149 9089 1417 1037 380 7672 965 3060 237 2725 7246 2046 684 1362 426 335 281 7031 180 679 140 141 579 215 246 143 52
is_linear=0
shrinkage=0.3


Tree=241
num_leaves=31
num_cat=0
split_feature=281 119 173 276 286 139 85 117 239 290 287 200 10 93 113 113 104 283 199 192 188 162 154 53 58 254 98 4 180 184
split_gain=0.354856 0.634174 0.540333 0.488876 0.46612 0.430337 0.424714 0.824136 0.614724 0.624387 0.621499 0.577711 0.604288 0.653925 0.564064 0.5306 0.513177 0.486985 0.680536 0.698796 0.535135 0.479411 0.566712 0.453843 0.421528 0.396603 0.395385 0.45012 0.367318 0.443416
threshold=0.022997000254690602 -0.0019855001010000493 -0.029903705466518542 0.031956501305103253 0.00090886794988867287 -0.090477580475512867 -0.0073488978027684516 -0.036464135399756986 0.026151500642299604 0.031139000318944402 0.071571502834558473 -0.1004691757220736 0.057802999392151805 0.025888111714365683 -0.012171329937565209 0.066417769533121992 -0.053335499018430689 -0.019554500468075196 1.0000000180025095e-35 -0.030886000022292096 0.053485440304691441 0.080626329458711635 -0.054856000468134845 0.071404627086082278 0.059834999963641104 -0.041648501530289588 0.014999728454390094 -0.037673244603881599 0.010997999925166301 -0.054515998810529646
decision_type=2 2 2 2 2 2 2 2 2 2 2 2 2 2 2 2 2 2 2 2 2 2 2 2 2 2 2 2 2 2
left_child=6 2 3 5 -3 -2 7 15 9 16 14 12 28 23 -10 21 -9 -13 20 -20 -19 22 -1 -14 -5 -23 27 -4 -8 -30
right_child=1 4 26 24 -6 -7 11 8 10 -11 -12 17 13 -15 -16 -17 -18 18 19 -21 -22 25 -24 -25 -26 -27 -28 -29 29 -31
leaf_value=-0.15716516020469293 0.10225870499201428 0.037841930480402776 -0.031971961117128904 0.064881747765122982 -0.17149261168713109 -0.13791500176563096 -0.13456039312896687 -0.037450137855963572 -0.072433043602691483 -0.10419512352780537 -0.12871121797087542 -0.10982612370881124 0.15480783897020414 -0.19125359892591762 0.042283484935988262 -0.13126816408575859 0.10779032380884679 -5.6971572082972646e-06 -0.086033967896160524 0.087297630718332186 -0.086724520768186278 -0.17693560829511601 0.041970913717554396 -0.079124275841494299 -0.14981911502424167 0.0084755409178254252 -0.069175388342407648 0.10286095880239166 -0.12739593052354745 0.050970371111078175
leaf_weight=1.4393137799343119 0.75639022127143363 1.2343843868056854 3.331343592828488 3.581118532569235 4.2651434287108714 5.9776005052044647 7.1641410012962314 2.469695723266347 4.48014359694207 1.576736447692382 2.5074984048842444 3.6224884661351089 2.7432808443409153 0.91756568249547843 27.76191611019749 3.7255097664892665 19.29451631858683 1362.7869632882357 2.4650318880158038 13.882433906335789 6.434652918149367 2.3530804261099547 12.089823006201188 1.0253820564830674 1.0685796790348829 1.8582906783849455 2.8036651835718667 6.7300269616534925 2.2749013193497376 2.7961911937672994
leaf_count=58 42 63 159 194 165 383 326 98 178 63 87 167 83 50 875 148 803 5928 126 475 408 98 430 42 60 87 128 278 140 131
internal_value=0 -0.0325304 -0.0116705 -0.0592776 -0.124507 -0.110938 0.00056144 0.021886 0.0404472 0.0781024 0.0151546 -0.000645085 -0.0557422 0.0358627 0.0263432 -0.0283436 0.0913092 2.60418e-05 0.000313244 0.061161 -0.000413232 -0.00672939 0.0207856 0.0911593 0.0155398 -0.0951219 0.0304549 0.0582175 -0.0908278 -0.0290451
internal_weight=0 29.7483 24.2487 11.3837 5.49953 6.73399 1485.67 79.5565 58.0905 23.3409 34.7496 1406.11 16.9215 4.68623 32.2421 21.466 21.7642 1389.19 1385.57 16.3475 1369.22 17.7405 13.5291 3.76866 4.6497 4.21137 12.865 10.0614 12.2352 5.07109
internal_count=12273 1472 1244 679 228 425 10801 2925 2104 964 1140 7876 772 175 1053 821 901 7104 6937 601 6336 673 488 125 254 185 565 437 597 271
is_linear=0
shrinkage=0.3


Tree=242
num_leaves=31
num_cat=0
split_feature=263 283 22 28 253 249 248 113 100 4 214 252 222 172 166 221 239 194 206 270 28 119 87 297 255 266 272 280 261 284
split_gain=0.28369 0.544714 0.570554 0.745379 0.530823 0.454866 0.593599 0.403138 0.378384 0.356204 0.294335 0.608429 0.685048 0.584512 0.825544 0.770643 0.745525 0.709263 0.617447 0.522095 0.778327 0.884978 0.812997 0.618223 0.534725 0.698422 0.641709 0.752438 0.574839 0.552871
threshold=-0.082680238182002749 0.099772261908992743 0.027344999834895054 -0.13031511928292103 -0.022339499555528098 0.048230034213866561 -0.061092499643564141 0.045855998992919859 -0.097457502037286689 -0.056891315869568075 -1.0000000180025095e-35 0.011737999971955952 0.012496500276029053 0.0028900000033899504 -0.05974632229182409 -0.026176000013947449 0.053650018831072378 -0.02215652392877911 0.076082501560449614 0.00037616500995176985 -0.0029097828093308238 -0.0052015001419931 0.0029830000130459003 -0.0012913840540523696 -1.0000000180025095e-35 -0.013910471756947868 0.080887500196695314 -0.075941998511552741 0.039103047445938489 0.11855250224471087
decision_type=2 2 2 2 2 2 2 2 2 2 2 2 2 2 2 2 2 2 2 2 2 2 2 2 2 2 2 2 2 2
left_child=1 2 5 -4 -5 6 -1 -7 -6 -8 11 12 -2 15 16 -13 -15 -16 -17 24 22 -22 23 -21 25 28 -26 -28 -12 -27
right_child=10 -3 3 4 8 7 9 -9 -10 -11 19 13 -14 14 17 18 -18 -19 -20 20 21 -23 -24 -25 26 29 27 -29 -30 -31
leaf_value=-0.12839324675101907 -0.092264920454947469 -0.14147653612237804 0.12932554761354484 -0.17155692521414106 0.132039567837096 0.17889156182727003 -0.10003385317777927 -0.0089923005536522924 -0.10755538534693503 0.14339763930491484 0.071555752799807498 0.033221357523751181 0.02562191102204113 0.00049851670027426735 0.041290174367969133 -0.056386916551181575 0.14186155701418951 -0.037136778841157202 0.19348713890584876 0.065565246758398046 0.036561374942553966 0.17628932121440874 -0.039876274915746572 -0.011763299394725816 2.0601980541807439e-05 -0.095406880909068084 -0.08718500962194381 0.099393709025120694 -0.024531638495922107 0.098811080247909466
leaf_weight=1.5994028605055097 15.928601640160197 1.4542496682843182 2.1958638993091881 2.6810584701597691 1.3017279002815487 5.291877347510308 0.67914140550420032 1.2755691884085534 1.0899302517063905 2.6594176236540066 6.9267525098985052 13.558985923431463 6.1490508859278625 5.9340945573057962 17.873786919837585 36.427063426206587 7.733282970264554 24.747163081818144 0.91231100633740325 22.245001273753587 14.917101101134906 5.6151389604201531 21.334705825021956 15.995570875529664 1369.6826945567154 15.935581594821999 2.3659895970486096 10.940887863282112 29.331228952098172 1.4381795307854179
leaf_count=38 475 46 27 52 31 91 16 30 31 67 170 441 175 156 400 885 128 631 17 528 384 113 669 406 4813 492 58 218 650 35
internal_value=0 0.0354061 0.0491076 -0.0166912 -0.0798985 0.0906762 0.0218844 0.1424 0.022851 0.0938779 -0.000339025 -0.0140808 -0.0594312 -0.00473982 0.0163266 -0.0280371 0.0804846 -0.00424716 -0.0502818 0.000832128 0.0244031 0.0747741 0.00704302 0.0332196 -0.000482212 -0.0298732 0.000657557 0.0662196 -0.00617503 -0.0793297
internal_weight=0 20.2282 18.774 7.26858 5.07272 11.5054 4.93796 6.56745 2.39166 3.33856 1645.99 129.264 22.0777 107.187 56.2883 50.8984 13.6674 42.621 37.3394 1516.73 80.1075 20.5322 59.5753 38.2406 1436.62 53.6317 1382.99 13.3069 36.258 17.3738
internal_count=12273 429 383 141 114 242 121 121 62 83 11844 3308 650 2658 1315 1343 284 1031 902 8536 2100 497 1603 934 6436 1347 5089 276 820 527
is_linear=0
shrinkage=0.3


Tree=243
num_leaves=28
num_cat=0
split_feature=119 28 142 110 245 24 243 199 156 21 168 46 88 25 51 222 198 201 0 10 214 129 243 191 266 137 262
split_gain=0.281149 0.3644 0.376904 0.374312 0.320095 0.323207 0.521573 0.504262 0.616691 0.530576 0.484861 0.447066 0.430244 0.429325 0.365583 0.590728 0.368689 0.242101 0.209806 0.207954 0.149081 0.155341 0.0921225 0.0566017 0.0539392 0.00534998 0.000182418
threshold=-0.14942399412393562 -0.021022000350057995 0.027012492887835738 0.036566696472570638 -0.11017800122499463 1.0000000180025095e-35 -0.12811479763101438 -0.078876502811908639 0.066802331340690482 -0.041724998992433572 0.0654643218883178 0.085403609389219287 0.12423149868845935 -0.092243500053882529 0.13219200074672696 -0.054903234330249101 0.094798541218452728 -0.00089703648177454499 0.03464900143444536 0.074422293977777193 0.010244499891996351 0.022240461581907987 -0.051576849880512164 -0.0092409998178481483 -0.0033043218295651742 -0.098487500101327841 -0.054501321505172111
decision_type=2 2 2 2 2 2 2 2 2 2 2 2 2 2 2 2 2 2 2 2 2 2 2 2 2 2 2
left_child=1 2 3 17 19 6 10 11 9 -9 18 13 -10 -7 16 -16 -8 -1 -6 20 25 -22 -3 -13 -5 -2 -27
right_child=4 22 -4 24 5 7 14 8 12 -11 -12 23 -14 -15 15 -17 -18 -19 -20 -21 21 -23 -24 -25 -26 26 -28
leaf_value=0.14380710258571239 0.16188555309267691 0.072508626763358994 0.13871068715189802 -0.20795022538445518 0.17623264211031303 -0.095281769587464135 -0.00058833363319999506 -0.0057361446269717283 -0.011155841304370051 -0.096224832104344182 -0.078952935204943231 0.1001037300755758 0.14601761912700134 0.037121166553970207 -0.17007268415389254 0.11200447199299317 0.060841877880343107 -0.083640561254456389 0.02868581497047732 -0.05746762340787924 -0.056808271198468895 0.17313916608009289 0.20627640639314843 0.20411240092388308 -0.092834688141040275 0.2112670134561663 0.20320187984395957
leaf_weight=1.0261557148769496 0.31836448515241533 0.68072700593620572 1.4911869585048405 0.79601506516337395 3.2615184877649872 2.8569711568998164 1578.9709724718759 8.6300553807523119 20.382908908868561 17.985661950850044 1.1854193080216644 0.79857553052715946 1.6980489261331957 9.6453999687801097 0.7693980165204265 5.0791959801572366 8.8422710214799718 0.71442548930645022 1.1815933804027734 0.64133435953408469 0.57698832258756716 0.4880634848959744 1.4509633881971229 1.1476560113951553 0.67866446916013934 0.37803556036669783 0.75945481780217872
leaf_count=35 31 21 39 21 57 95 8559 388 778 1100 32 23 44 393 26 129 246 25 28 18 33 19 36 18 22 12 45
internal_value=0 0.0606569 0.0140492 -0.0437668 -0.0002983 -0.000479685 0.000351497 -0.0215312 -0.0361342 -0.0668842 0.0915139 0.0276859 0.000930963 0.0068652 2.9528e-05 0.0748965 -0.000246239 0.0504507 0.136994 0.0950582 0.133862 0.0485659 0.163559 0.161436 -0.154973 0.196261 0.205882
internal_weight=0 6.83814 4.70645 3.21526 1665.6 1662.44 1599.29 63.1453 48.6967 26.6157 5.62853 14.4486 22.081 12.5024 1593.66 5.84859 1587.81 1.74058 4.44311 3.16224 2.52091 1.06505 2.13169 1.94623 1.47468 1.45585 1.13749
internal_count=12273 199 142 103 12074 11916 9077 2839 2310 1488 117 529 822 488 8960 155 8805 60 85 158 140 52 57 41 43 88 57
is_linear=0
shrinkage=0.3


Tree=244
num_leaves=31
num_cat=0
split_feature=287 275 46 124 248 119 283 171 210 167 114 71 189 119 100 87 259 260 69 155 45 54 206 185 49 37 248 46 55 164
split_gain=0.308094 0.433587 0.438376 0.381613 0.345223 0.576749 0.537532 0.401203 0.511955 0.520004 0.511446 0.487753 0.441038 0.398256 0.815635 0.762547 0.395053 0.429404 0.378346 0.375977 0.329605 0.323656 0.322862 0.28628 0.272601 0.253326 0.251669 0.223264 0.204586 0.195187
threshold=-0.041836999356746639 -0.09214100241661069 -0.032747451261507618 0.031787939600919655 -0.10488500073552129 0.0095444996841251521 0.055624353046941084 -0.074978999793529441 -0.10035400092601769 0.0042909998446702515 0.046127500012516913 -0.017017299243467381 -0.050767499953508294 -1.0000000180025095e-35 -0.039266930059679517 -0.047206498682498842 -0.0017211725468786643 0.095759000629186561 -0.085442238111309091 0.0012033892893803654 -0.11659550294280044 0.020709000527858703 0.11528859269544817 0.04555349983274936 -0.021083443580052218 -0.092271000146865775 -0.11531149968504904 -0.029892000369727546 0.0045490934261277326 -0.0026145000010727999
decision_type=2 2 2 2 2 2 2 2 2 2 2 2 2 2 2 2 2 2 2 2 2 2 2 2 2 2 2 2 2 2
left_child=1 -1 29 20 5 6 16 8 9 -6 13 18 25 14 -9 -15 17 -2 -10 -14 -4 28 -22 -13 -8 -12 -7 -11 -5 -3
right_child=4 2 3 21 7 26 24 10 11 27 12 23 19 15 -16 -17 -18 -19 -20 -21 22 -23 -24 -25 -26 -27 -28 -29 -30 -31
leaf_value=0.11281125784161662 0.1020123674022491 -0.082115417041289052 0.10768858384303098 -0.08637871024859077 0.14456134697968165 0.13871141737915774 0.20759803892740733 0.0058237275707995265 -0.15683236642244197 0.06040844608516735 0.12100972011390772 -0.085491728830905264 -0.093313331560249874 -0.13748440055504571 0.071530217953614833 -0.00039879734679898194 -0.13279623111012215 -0.090482374286923475 0.092119940760631153 0.024259428654195149 -0.15375327283489931 -0.15384521211034682 0.14802867092684507 0.10248244137066082 -0.16654892101945448 -0.18907365652345651 -0.04991578396038631 -0.1812078493117128 0.15785489784782422 0.17749657375720079
leaf_weight=1.353539693634956 2.7679397915489963 0.37105494167190045 0.5241716309101293 0.41970766521990333 0.76443421325530225 1.8685767973511249 0.18211949057877053 95.181363300147495 0.57056992081925706 0.41611934220418412 0.26017331425100598 2.827078216254447 4.4862254975305387 3.662045311953988 20.70075674977852 1325.3015998157462 1.939872596762142 1.6735732195083981 14.817653979640452 5.3875859054533066 6.5614722813152193 0.68227001279592503 0.33536778902634967 0.98263412590313226 4.6537936901295325 2.6759038617819888 0.9655422754585733 1.9914519039448344 1.166862494574161 0.87591395014896878
leaf_count=74 95 34 29 22 27 61 5 3779 18 20 12 161 254 121 742 4610 93 47 683 290 431 41 9 45 216 159 29 80 55 31
internal_value=0 -0.0473609 -0.0671838 -0.0887299 0.000332653 -0.0464688 -0.0770194 0.000776987 0.0406486 -0.071003 0.000165097 0.0590964 -0.0595153 0.000694219 0.0175613 -0.000776546 -0.0198503 0.0294799 0.0828892 -0.0291605 -0.121649 0.0189424 -0.139079 -0.0370078 -0.152459 -0.161596 0.0744489 -0.139447 0.0932459 0.100245
internal_weight=0 12.2904 10.9368 9.68985 1494.08 14.0514 11.2173 1480.03 22.3699 3.17201 1457.66 19.1979 12.8099 1444.85 115.882 1328.96 6.38139 4.44151 15.3882 9.87381 7.42101 2.26884 6.89684 3.80971 4.83591 2.93608 2.83412 2.40757 1.58657 1.24697
internal_count=12273 726 652 587 11547 546 456 11001 1034 127 9967 907 715 9252 4521 4731 235 142 701 544 469 118 440 206 221 171 90 100 77 65
is_linear=0
shrinkage=0.3


Tree=245
num_leaves=31
num_cat=0
split_feature=199 291 70 244 205 165 119 182 11 296 108 256 77 83 14 34 31 173 52 163 256 15 297 243 24 71 1 54 4 242
split_gain=0.255669 0.368018 0.325924 0.389594 0.378291 0.364201 0.284142 0.328229 0.372227 0.274519 0.343915 0.353238 0.313341 0.503278 0.659625 0.554892 0.416545 0.51468 0.452058 0.304835 0.262998 0.252523 0.258729 0.256985 0.244376 0.115095 0.106476 0.0691362 0.0612169 0.000939705
threshold=0.042695499956607805 0.04612600058317181 -0.012530757519942749 -0.033440934889868906 0.031148499809205501 -0.049720973369677533 0.051574001088738407 0.019679499790072403 -0.017213903754569573 0.06689849868416782 0.021966499276459151 0.0048753299328885757 -0.037305001169443096 0.029315232821591566 0.10184150189161296 0.0081692752341893 -0.065187901680273816 0.012642000336199952 -0.065684257831725781 -0.041111500933766289 -0.028809499926865045 0.089411626672576058 0.0013573939018002199 -0.034173366136636553 0.00056803753344271304 -0.0018170000403187998 -0.021975654125404559 -0.035552140548231623 -0.0024035000242292495 -0.018406302030514788
decision_type=2 2 2 2 2 2 2 2 2 2 2 2 2 2 2 2 2 2 2 2 2 2 2 2 2 2 2 2 2 2
left_child=6 2 3 4 5 -2 9 8 -8 12 11 20 13 14 -1 -15 17 -14 -18 -13 -11 22 25 -24 -3 -4 -5 -9 -12 -29
right_child=1 24 21 26 -6 -7 7 27 -10 10 28 19 16 15 -16 -17 18 -19 -20 -21 -22 -23 23 -25 -26 -27 -28 29 -30 -31
leaf_value=-0.013892008295461835 0.079422318333769948 -0.18500259974062438 0.19694044265122329 0.036545758355018325 0.1078510752487917 -0.12495044126517001 0.11646237169499293 -0.065012370730516425 -0.16677276655211082 0.0047517124483008322 0.20952999403242176 0.076316957924718834 0.041560961964169328 -0.013919294118544395 0.084850287802619551 -0.094978371955257671 -0.068185690645332905 -0.047324505739285691 0.00010400886090273728 -0.10003913660020958 0.15527846692962524 -0.05254085208882351 0.16091197410717736 -0.1078642248453958 0.031057867213300207 0.086425787121538658 0.1875565309936556 -0.19336768385344835 0.10219530336073299 -0.20974024523680587
leaf_weight=43.270572587440256 1.0548762953840176 1.0215263590216626 2.97760082129389 0.65701487998012442 1.4008039992768315 3.0647348386701205 1.0903204012429339 0.4134212597273289 0.67682097852230017 2.0075366678938735 1.0941355978138743 1.3180372330825769 39.824873506760923 17.78794494463364 7.0859145786380386 13.271273198828565 8.7756775896850723 6.8751329089864148 1487.6038536273845 2.6671431090217093 2.1779704346554336 0.78902649553492654 0.57772566005587578 0.71813249541446544 0.87444228981621552 1.1859057396650308 1.1659646225161848 0.47091497713699926 0.84954921749886025 0.95598887943197031
leaf_count=1245 37 35 66 23 39 126 32 13 32 62 23 49 849 488 164 444 295 180 7670 111 60 23 12 28 29 29 32 23 22 32
internal_value=0 0.038465 0.0557368 0.0128843 -0.0268243 -0.0726183 -0.000261609 -0.0843641 0.00798238 -7.60007e-05 0.0491949 0.0222137 -0.000382769 -0.0185216 2.51682e-06 -0.048555 0.000574271 0.0284753 -0.000296483 -0.0417121 0.0830798 0.106099 0.129027 0.0119629 -0.0853531 0.165462 0.133131 -0.173038 0.162616 -0.204337
internal_weight=0 15.4878 13.5918 7.34339 5.52042 4.11961 1638.22 3.60747 1.76714 1634.61 10.1144 8.17069 1624.5 81.4157 50.3565 31.0592 1543.08 46.7 1496.38 3.98518 4.18551 6.24839 5.45936 1.29586 1.89597 4.16351 1.82298 1.84033 1.94368 1.4269
internal_count=12273 479 415 257 202 163 11794 132 64 11662 327 282 11335 2341 1409 932 8994 1029 7965 160 122 158 135 40 64 95 55 68 45 55
is_linear=0
shrinkage=0.3


Tree=246
num_leaves=31
num_cat=0
split_feature=60 48 57 117 230 140 145 285 95 12 31 240 56 281 161 69 13 75 184 45 168 287 239 136 160 208 151 174 77 72
split_gain=0.270603 0.650567 0.402903 0.386483 0.359766 0.338839 0.309004 0.29924 0.267026 0.630494 0.596683 0.364431 0.323317 0.313418 0.312579 0.287628 0.319813 0.309324 0.280493 0.375087 0.371706 0.242196 0.220128 0.378609 0.213271 0.174278 0.169448 0.284371 0.146756 0.127621
threshold=-0.09899200126528733 -0.047767550082473971 -0.032995998859405497 0.026678000576794102 -0.011331999674439397 -0.054421499371528591 0.020003000274300551 -0.077671585186065775 0.086324213005689696 0.049579000100493355 -0.012921500019729049 0.14857250452041623 0.066244002431631061 -0.037328500300645794 0.019690500572323754 -0.052507985637233003 -0.064650997519493034 0.032692998647689812 0.020045723843203026 -0.037577500566840144 0.083120498806238105 0.024143000133335504 0.044576000422239255 0.0094174146864030254 -0.059593499379458452 -0.0071796022480532526 -0.030098499730229347 0.012781266894512365 0.054763921533511332 -0.038157214747443192
decision_type=2 2 2 2 2 2 2 2 2 2 2 2 2 2 2 2 2 2 2 2 2 2 2 2 2 2 2 2 2 2
left_child=1 3 22 6 -4 -6 -1 -8 12 11 26 24 14 -14 18 17 -17 -16 20 -20 -2 -9 23 25 -10 -3 27 -11 -26 -15
right_child=8 2 4 -5 5 -7 7 21 9 10 -12 -13 13 29 15 16 -18 -19 19 -21 -22 -23 -24 -25 28 -27 -28 -29 -30 -31
leaf_value=-0.18282980125761802 -0.00025210361648371038 0.039408900707333716 0.15302399550166562 0.12767972916720025 0.10183081037295151 -0.17031849573130425 -0.17879179138465137 0.1673580806954035 0.06007038472368461 0.20589534119562972 -0.20623148367666547 0.12712726348917763 0.055326630709848341 -0.01076932846563401 0.14352188737713853 -0.036140258046163908 0.11766472119054433 -0.14091839655967969 -0.08454201896639052 0.00085570907981730052 0.044777350783633332 -0.081648300458085396 0.1733747783080683 -0.15943928634601243 -0.19147215624659678 0.20688470843636 0.16823169312693828 -0.20266752330923632 -0.032849857837573687 -0.19284870695187051
leaf_weight=1.7612688757653807 1596.6906493905626 1.1973662821401372 0.84281371967517804 0.90549336804542679 0.60713187884539377 1.2793662609765293 0.66819448117166791 0.8462837948463855 0.40716290054842819 0.28463356569409426 0.6325305540813132 0.48318151896819461 0.86926301452331278 0.43036711070453826 0.49041659200156562 1.5659962226054629 5.4556293191853893 1.1532464324263854 8.253968502196587 10.53985978233686 16.670913482317701 0.60135878715664148 3.860461013391614 0.55317493062466372 3.4839276899147062 1.049272021104116 1.781859827315202 0.33235285105183721 0.61806587735190976 1.7768386682146213
leaf_count=76 9638 45 36 22 22 48 18 29 16 4 21 11 29 22 29 74 240 56 415 420 451 28 86 30 196 23 38 37 22 91
internal_value=0 0.0412735 0.0871465 -0.0487882 -0.00993081 -0.0827327 -0.0900021 -0.0127303 -0.000358226 -0.0549533 0.0529677 -0.120484 -9.17522e-05 -0.0972551 9.0425e-05 0.0569181 0.0833624 -0.0560505 -0.000211279 -0.0366497 0.000213187 0.0639194 0.126928 0.0628854 -0.147016 0.117627 0.121314 -0.0141857 -0.167572 -0.157346
internal_weight=0 14.1722 9.38959 4.7826 2.72931 1.8865 3.87711 2.11584 1651.92 8.02371 3.03138 4.99234 1643.9 3.07647 1640.82 8.66529 7.02163 1.64366 1632.16 18.7938 1613.36 1.44764 6.66027 2.79981 4.50916 2.24664 2.39885 0.616986 4.10199 2.20721
internal_count=12273 463 290 173 106 70 151 75 11810 345 100 245 11465 142 11323 399 314 85 10924 835 10089 57 184 98 234 68 79 41 218 113
is_linear=0
shrinkage=0.3


Tree=247
num_leaves=31
num_cat=0
split_feature=112 246 65 205 269 47 149 178 272 260 283 178 83 39 60 119 100 66 26 194 188 39 63 161 102 24 79 76 244 4
split_gain=0.300882 0.325279 0.371592 0.3371 0.538154 0.374009 0.309739 0.457506 0.456451 0.372696 0.53434 0.452848 0.291291 0.290906 0.253116 0.315741 0.240886 0.235892 0.231549 0.227445 0.176884 0.100036 0.0998076 0.092048 0.0316399 0.0201917 0.0161772 1.80462e-05 1.47591e-05 9.00414e-07
threshold=-0.10123400017619123 -0.084160499274730585 -0.012789441805975585 -0.086542498320341096 0.10790850222110747 -0.069799176687225378 0.060043999925255755 0.037324323723124005 0.017266499809920753 0.14484850317239764 0.018126210407623626 -1.0000000180025095e-35 -0.033295499160885741 -0.019086246397538 0.0023754999274387505 0.01264990190514116 -0.10079750046133988 -0.029908394302552006 -0.028174999170005249 0.0080400002188980024 0.036338860025198309 -0.060288733059352069 0.040755499154329251 -0.10133799910545344 0.0092831819550426038 0.049375136167117244 0.034750399894097429 0.0090189999900758006 -0.11230599880218504 -0.020143499597906997
decision_type=2 2 2 2 2 2 2 2 2 2 2 2 2 2 2 2 2 2 2 2 2 2 2 2 2 2 2 2 2 2
left_child=17 2 13 4 5 -3 9 8 -8 11 -11 -5 -7 -2 22 20 -9 19 -6 21 -16 -1 26 -19 27 -15 -4 28 -25 -29
right_child=1 3 14 6 18 12 7 16 -10 10 -12 -13 -14 25 15 -17 -18 23 -20 -21 -22 -23 -24 24 -26 -27 -28 29 -30 -31
leaf_value=0.032774429772268659 -0.17599597168654615 -0.20543661175714331 -0.20692956325906214 0.022126406928815127 -0.20680664861870635 -0.081523650625264316 0.016700935070781252 -0.094528812661912959 -0.10876287297679736 0.049436112135499241 -0.12464195149483071 -0.00048601568965937492 0.1535160770992807 0.11650627774216588 -0.16230864836215153 0.2039310832192256 0.1151260251778107 0.028091978964626622 0.053582064813508593 0.13520497880293542 0.1033311641882497 -0.20386217393802877 -0.033942575780900881 -0.20553715566782715 -0.09168421861367991 0.20699121441233134 -0.1369911124512545 -0.20217873013681883 -0.20326537594776084 -0.20117891718383804
leaf_weight=0.25782717601396143 0.30818042706232518 0.31990412005688984 1.8951553204678928 84.602150337421335 0.79465578985400498 0.52981742098927487 3.8390991252381346 0.64168953596890821 8.1499499901947257 2.3607114319020175 4.8420162834954681 1377.7757079511248 4.5497801712044739 0.43861065234523244 0.93263066178769782 0.41731461558083527 2.1317790407010753 0.20491314260289062 0.50121321855112888 0.62764166085980833 0.2975895939162001 0.42715114262045994 0.40372696192935098 0.45241486292798039 0.27220277180458641 0.44933349511120468 0.35311542928684492 0.16394317823869642 0.59702274201845207 0.16036659802193742
leaf_count=15 27 12 96 3262 30 32 179 49 469 103 261 7008 187 26 76 13 105 13 20 32 17 34 28 15 26 14 27 18 50 29
internal_value=0 8.697e-05 -0.0727649 0.000355487 0.0675194 0.109186 5.25328e-05 -0.0431857 -0.0685872 0.000486878 -0.0675874 0.000822168 0.129001 0.0751347 -0.11391 -0.0215597 0.0666188 -0.092531 -0.106094 0.00474658 -0.0980505 -0.114792 -0.171283 -0.16152 -0.185125 0.162295 -0.195945 -0.20364 -0.204245 -0.201684
internal_weight=0 1496.53 5.49566 1491.04 6.69537 5.3995 1484.34 14.7625 11.989 1469.58 7.20273 1462.38 5.0796 1.19612 4.29953 1.64753 2.77347 3.16348 1.29587 1.31262 1.23022 0.684978 2.652 1.85086 1.64595 0.887944 2.24827 1.37375 1.04944 0.32431
internal_count=12273 12041 324 11717 281 231 11436 802 648 10634 364 10270 219 67 257 106 154 232 50 81 93 49 151 151 138 40 123 112 65 47
is_linear=0
shrinkage=0.3


Tree=248
num_leaves=31
num_cat=0
split_feature=95 153 56 201 245 99 298 41 26 236 128 161 71 216 273 115 24 257 54 190 57 265 238 155 46 286 36 62 165 275
split_gain=0.247298 0.481363 0.459174 0.429353 0.417289 0.330539 0.329544 0.328274 0.315094 0.303179 0.294565 0.500853 0.291324 0.627382 0.745017 0.473978 0.446912 0.634783 0.666839 0.364664 0.371999 0.346445 0.453035 0.423221 0.325248 0.22829 0.186121 0.182518 0.182467 0.0957882
threshold=0.072412198086945934 0.040883748706409588 -0.019035209242969628 -0.035420333082132459 -0.039199000224471044 -0.024982499890029399 0.032598896441677287 0.005349499871954301 0.036499001085758202 -0.096157516526498829 0.15347500145435328 -0.078925538282119609 0.0025430000387132003 -0.025336534080555074 0.026027855368830906 0.030610500834882204 -0.092374499887227943 -0.082019001245498588 -0.034897500649094491 0.016260999254882304 -0.025430721675518315 -0.099957000464200932 -0.079583499580621678 0.015076499897986602 0.071610112945937804 0.072245571936015565 -0.026480000466108246 -0.010286545911494374 -0.010380757085206662 0.0026725901146484291
decision_type=2 2 2 2 2 2 2 2 2 2 2 2 2 2 2 2 2 2 2 2 2 2 2 2 2 2 2 2 2 2
left_child=10 2 3 5 28 -2 -3 -6 9 -4 12 -12 16 14 15 -14 17 -1 -19 20 -15 23 -23 -18 -16 -7 -21 -13 -5 -11
right_child=1 6 8 4 7 25 -8 -9 -10 29 11 27 13 19 24 -17 21 18 -20 26 -22 22 -24 -25 -26 -27 -28 -29 -30 -31
leaf_value=-0.21168122438250347 0.1238394078818498 -0.15490144496754304 -0.046351543993041526 -0.1820346255389852 0.0053483767962445227 -0.15480171999837039 0.055951244296654684 0.12940067269973057 -0.064056558668412394 0.18425403507748972 0.11266989940128114 -0.039077264516415723 -0.109131305246545 0.093413089261212043 0.053031199735761862 0.047778050783734927 0.015450566702916616 -0.090357826730531984 0.062073494451562579 -0.004855698278228503 -0.028651427094697507 -0.030545001107094086 0.0003337797821043499 0.16423898514713164 -0.11610572407166765 0.052727980885556781 -0.20658759128861148 -0.21042427295255972 0.02732976376292821 0.07898390590569497
leaf_weight=0.88854682538658636 0.64108387101441655 1.9229238037951284 0.70331505686044682 0.88516320800408721 3.298793603549707 2.3983022563625176 1.0214920984581111 4.592827491927892 0.79004082619212557 4.0429005492478618 0.83705092011950943 0.82867484120652157 14.497738898789981 6.5662417422281569 6.0940894672239656 1.9677886888384808 5.4933228694135314 2.8879756801761749 24.454791752737943 0.86750415479764342 3.4159797718748441 44.012812217828468 1504.1341132057714 2.5052291343454272 1.2297273607691748 0.59551031328737725 0.78325022011995205 1.7224126458168014 0.64958035666495806 0.96329396357759822
leaf_count=17 16 62 16 32 87 82 34 95 35 109 21 23 523 177 193 71 154 69 451 28 122 1235 8379 58 49 20 28 40 18 29
internal_value=0 0.0313349 0.0483574 0.0159334 0.0497096 -0.0716581 -0.0817513 0.0775453 0.113515 0.138086 -0.000330097 -0.0886945 -0.000145265 -0.0270525 -0.0549717 -0.0903791 0.000456308 0.0378641 0.0459735 0.030042 0.0516418 -0.000222338 -0.000544084 0.0620526 0.0246318 -0.113521 -0.100573 -0.154765 -0.0934211 0.163998
internal_weight=0 22.5052 19.5608 13.0613 9.42636 3.6349 2.94442 7.89162 6.49955 5.70951 1623.19 3.38814 1619.8 35.4223 23.7893 16.4655 1584.38 28.2313 27.3428 11.633 9.98222 1556.15 1548.15 7.99855 7.32382 2.99381 1.65075 2.55109 1.53474 5.00619
internal_count=12273 635 539 350 232 118 96 182 189 154 11638 84 11554 1191 836 594 10363 537 520 355 299 9826 9614 212 242 102 56 63 50 138
is_linear=0
shrinkage=0.3


Tree=249
num_leaves=31
num_cat=0
split_feature=6 132 262 242 174 167 212 285 202 9 90 267 264 196 24 12 285 273 256 165 18 210 129 235 270 234 42 184 173 292
split_gain=0.275631 0.34342 0.355758 0.332854 0.705575 0.550441 0.396637 0.467917 0.600231 0.663101 0.447245 0.385423 0.420097 0.412874 0.382951 0.382786 0.375616 0.448355 0.407514 0.372192 0.352401 0.306608 0.443974 0.316466 0.28393 0.281132 0.260783 0.247849 0.173006 0.165267
threshold=-0.13573750108480448 -0.0024459999985992496 0.016957999207079352 -0.052679004071278825 0.028237393624561891 -0.028368792700836868 0.048815999180078458 0.030348956126706312 -0.080490000545978477 0.022086093844416819 0.0080127255172492019 -0.011219999752938699 -0.038062485941758602 0.063235498964786516 0.05994677138869979 -0.049468999728560392 0.025587999261915653 -0.033175999298691743 -0.029833500273525698 0.04564449936151501 0.045735500752925852 -0.034471010897795258 0.041657885261700202 -0.011364994262206706 0.031465498730540206 -0.03904500044882294 -0.075379776173963534 0.010481831602207399 -0.038049500435590695 -0.083986502140760338
decision_type=2 2 2 2 2 2 2 2 2 2 2 2 2 2 2 2 2 2 2 2 2 2 2 2 2 2 2 2 2 2
left_child=1 2 25 4 5 -2 7 16 10 -10 -9 12 13 -6 20 -14 18 -18 -5 24 -13 23 -23 -7 27 28 -3 -8 -1 -28
right_child=3 26 -4 6 11 21 19 8 9 -11 -12 14 15 -15 -16 -17 17 -19 -20 -21 -22 22 -24 -25 -26 -27 29 -29 -30 -31
leaf_value=0.12301983541876503 0.16328693558712468 0.030589321625307087 -0.19669759761798219 -0.033759543199777038 0.16048304383746539 0.03635514420695319 0.15989045244927286 -0.015906005028584098 -0.095389254751318223 0.010956855021587593 0.13232067817271415 0.13137236262779048 0.11392466127373213 -0.11628730279920353 -0.11409598549322006 -0.075294814763856188 -0.057195604503642111 0.12590049707372097 0.00040491728146615699 -0.08843816484678084 -0.055414724734676783 -0.025418466025762955 0.18887187791036161 -0.10942258419033467 -0.039307420878514375 0.1833972347970135 0.056467551005129769 -0.032222879403761402 -0.20310706784050173 -0.18221305428011861
leaf_weight=0.24696322972886264 1.3377120704681154 0.83076520837494205 0.48502259820816096 32.076422172191087 2.4650385477289096 1.7191615365445603 4.122707529924809 5.5359094314044324 16.117384267097808 7.8455850795144206 2.7382196280523203 10.034366277832302 1.2432177246082572 0.60393442353233684 0.70180404558777887 4.2568201103058527 1.667714465758763 4.3257871514651915 1540.5334817748881 1.1117276576114816 0.99960246705450195 4.7800355352810557 1.0638047726824877 6.0809062575863209 1.0663779240567235 1.1173679556231946 0.28882845025509629 0.70820901737897646 0.3595062927925029 2.7188484340022105
leaf_count=21 43 33 30 1105 89 65 125 108 605 218 62 293 43 23 42 127 46 110 8290 47 31 137 34 236 33 30 12 31 28 176
internal_value=0 -0.0639633 0.0302792 0.00020161 0.0290259 -0.0203607 -0.000427068 -0.000736918 -0.0365167 -0.0605711 0.0331478 0.0654652 0.0170946 0.106018 0.100784 -0.032524 -6.24851e-06 0.0749533 -0.000291933 0.0707838 0.114451 -0.0383663 0.0135907 -0.0772927 0.1008 0.0941419 -0.118196 0.131727 -0.0703034 -0.159292
internal_weight=0 6.0473 2.20886 1653.14 35.2864 14.9816 1617.85 1610.84 32.2371 23.963 8.27413 20.3048 8.56901 3.06897 11.7358 5.50004 1578.6 5.9935 1572.61 7.00902 11.034 13.6439 5.84384 7.80007 5.89729 1.72384 3.83844 4.83092 0.60647 3.00768
internal_count=12273 330 109 11943 1163 515 10780 10544 993 823 170 648 282 112 366 170 9551 156 9395 236 324 472 171 301 189 79 221 156 49 188
is_linear=0
shrinkage=0.3


Tree=250
num_leaves=29
num_cat=0
split_feature=208 275 69 95 40 191 291 231 274 57 193 242 244 182 124 190 248 108 194 295 37 140 247 7 271 143 143 20
split_gain=0.297035 0.336454 0.318244 0.31588 0.345275 0.368574 0.330802 0.594629 0.48937 0.45621 0.548283 0.522068 0.324416 0.315457 0.299019 0.290835 0.280989 0.24057 0.233521 0.202078 0.193711 0.124605 0.117009 0.0970941 0.0777957 0.0723091 0.0524823 0.0376458
threshold=-0.10382999852299683 0.035284500569105107 0.10303299874067307 -0.066254999488592078 0.054729498922824811 0.013096407519570199 0.020494500175118401 0.016219500452280006 0.053262500092387158 -0.085005499422550132 0.019567499868571703 0.011289705602516515 -0.037142999470233896 -0.060931217322854794 0.012901654496967568 -0.076733499765396077 -0.063999000936746528 0.049392194043191708 0.0052994999568909008 -0.10602459036969816 -0.056320000439882188 0.024230700725620842 0.046099457882831693 -0.066573175092522738 0.010076029969866063 -0.082199499011039692 0.059921539443731499 0.0070396699046006437
decision_type=2 2 2 2 2 2 2 2 2 2 2 2 2 2 2 2 2 2 2 2 2 2 2 2 2 2 2 2
left_child=1 13 3 4 5 12 9 8 -8 10 -5 -11 -2 -1 25 18 -9 24 -4 -17 -16 -7 26 -3 -15 -6 -21 -26
right_child=2 23 15 6 14 21 7 16 -10 11 -12 -13 -14 17 20 19 -18 -19 -20 22 -22 -23 -24 -25 27 -27 -28 -29
leaf_value=0.1335406217165277 0.092566087524159943 -0.027501138122712147 0.18229788569109995 -0.010339479142910158 -0.020867601974713264 -0.20416439249423662 0.052882561289484042 0.060518742378343884 -0.086202417782389212 -0.0002146899639922128 -0.10121300128884365 0.036833033096800541 -0.16708030479336167 -0.044495344818988432 0.20669462138834663 0.11374162482879496 -0.079712587925582404 0.081702177912411078 -0.12538437490842241 -0.20451217511124667 -0.080042701803044194 0.033331067293249111 0.01273215931718627 0.17290935289571752 -0.20659957507606774 -0.20075838716411856 -0.063947517378479063 -0.11929330329594115
leaf_weight=0.4171136329241566 2.6331590370682534 0.36893326680001337 0.54931228444911573 19.849645412468821 0.22049438999965865 0.87083319117664337 32.680294082383625 1.6406044385512357 2.4472701412742017 1371.8886544292091 8.5490480851658486 35.109238942844968 0.5183472304779565 0.38622168428264547 0.30962161399656907 0.26239928026916493 5.9498724441291406 0.38285281602293242 0.37258825381286442 1.922521837033855 0.67284893825126335 0.25764718381105922 0.29993834166089062 0.53029162774328131 2.1380053261236758 2.2866218351628049 0.27300490636844177 0.56116390455281351
leaf_count=24 151 24 28 907 8 67 1337 84 105 6474 458 1510 49 26 8 22 373 18 22 133 44 22 17 22 104 170 20 46
internal_value=0 -0.0746797 0.000188823 0.00040704 -0.0599247 -0.00282007 0.000724168 0.0267396 0.0431928 -5.00634e-05 -0.0376957 0.000709773 0.0498605 -0.112952 -0.129964 -0.087927 -0.049403 -0.142596 0.0579474 -0.13669 0.0103214 -0.149941 -0.163023 0.0906851 -0.170429 -0.184937 -0.187034 -0.188448
internal_weight=0 4.78458 1489.56 1485.88 7.76957 4.27999 1478.11 42.718 35.1276 1435.4 28.3987 1407 3.15151 3.88536 3.48959 3.67976 7.59048 3.46824 0.921901 2.75786 0.982471 1.12848 2.49547 0.899225 3.08539 2.50712 2.19553 2.69917
internal_count=12273 264 12009 11767 519 289 11248 1899 1442 9349 1365 7984 200 218 230 242 457 194 50 192 52 89 170 46 176 178 153 150
is_linear=0
shrinkage=0.3


Tree=251
num_leaves=31
num_cat=0
split_feature=256 230 247 102 156 72 149 46 219 218 144 294 296 263 75 298 59 12 109 84 175 156 24 17 161 154 147 273 168 287
split_gain=0.266904 0.611981 0.600432 0.746673 0.799806 0.532897 0.46665 0.578944 0.463929 0.521 0.58934 0.391758 0.38391 0.412187 0.459437 0.510109 0.444045 0.408184 0.466263 0.441148 0.456127 0.433191 0.383104 0.37277 0.47505 0.499064 0.356114 0.350869 0.348478 0.41064
threshold=-0.028035999275743895 0.025112127438176222 -0.075042981287593902 -0.11676509188311991 0.077454070037220893 0.03967200033366676 0.019366350142297369 0.068674497306346866 0.0033195000141858504 -0.058099087072011051 -0.04263131812251756 -0.01872496411899437 -0.052152010495803418 -0.082680238182002749 0.053537318331671142 -0.0020084999268873993 -0.030740500427782497 0.063514500856399522 0.11917099729180332 -0.069237500429153387 -0.0080630001612006976 0.040554124174666986 0.049375136167117244 -0.092766890871080129 0.0044232831157104855 -0.04694299958646294 0.031504999846219954 0.0085764997638761512 -0.018257999792694997 0.020710499957203806
decision_type=2 2 2 2 2 2 2 2 2 2 2 2 2 2 2 2 2 2 2 2 2 2 2 2 2 2 2 2 2 2
left_child=1 6 -3 -4 22 -6 8 11 28 -10 -11 -8 17 14 15 -14 -16 18 19 21 -21 -2 -5 -15 26 -26 -25 -13 29 -1
right_child=12 2 3 4 5 -7 7 -9 9 10 -12 27 13 23 16 -17 -18 -19 -20 20 -22 -23 -24 24 25 -27 -28 -29 -30 -31
leaf_value=-0.11393171766960969 -0.092600139154314712 0.094967922103507532 0.099811828230269406 0.028833854818728327 -0.12623273581235228 0.11102487095567916 -0.024971898920405945 -0.12901928795572415 -0.13764597512923349 0.11132635150857488 -0.025755321987931633 -0.030269688837316719 -0.14527789987069128 0.082328879483749326 -0.080160431367005472 0.060771982418899563 0.12680665387787327 0.090182775689500422 -0.15995397667543287 -0.069726039302461226 0.014573443612898231 0.086043165420737547 -0.14992184410264262 0.00027522528037648742 0.083530591566918361 -0.086338392479834006 -0.045534499568766033 0.17991918172637353 0.13007875810275066 0.096818240834419034
leaf_weight=1.2863442474044853 1.6255954022053618 3.9414910561172318 3.4014808000065413 9.3216373290633801 10.37167397671146 0.92826698673889119 4.5500042547646444 2.7130961512448266 1.5807853622682149 5.9426174212712786 5.3761332090944043 1.060684247349853 1.8049641429679466 4.8859008707804596 1.0817601508460937 2.6972097163088602 6.782940435805358 2.3904020744375876 2.610750099644064 19.637314085295657 8.1842276622774097 4.9163420712575316 1.2203024686314154 1486.9619435321656 1.8394282874651242 10.122610735881606 15.431226319575215 2.1917366324923933 10.503745234687814 2.3562613450922072
leaf_count=62 57 74 59 222 263 26 129 79 58 151 145 46 65 157 30 79 137 58 76 644 198 102 39 7924 59 450 518 38 259 69
internal_value=0 0.0186593 -0.0139296 -0.0309328 -0.0512939 -0.106743 0.0439805 -0.00964623 0.0648307 0.0236844 0.0462159 0.0318627 -0.000710307 4.15424e-05 0.0545895 -0.0218354 0.0983391 -0.0299634 -0.0377309 -0.0284451 -0.0449278 0.0416524 0.00814165 -0.000402487 -0.00066941 -0.0602173 -0.000195291 0.111372 0.102351 0.0223943
internal_weight=0 66.7463 29.1849 25.2434 21.8419 11.2999 37.5614 10.5155 27.0459 12.8995 11.3188 7.80243 1570.97 1531.61 12.3669 4.50217 7.8647 39.3646 36.9742 34.3635 27.8215 6.54194 10.5419 1519.24 1514.36 11.962 1502.39 3.25242 14.1464 3.64261
internal_count=12273 1719 683 609 550 289 1036 292 744 354 296 213 10554 9419 311 144 167 1135 1077 1001 842 159 261 9108 8951 509 8442 84 390 131
is_linear=0
shrinkage=0.3


Tree=252
num_leaves=31
num_cat=0
split_feature=278 219 259 81 92 103 211 211 205 12 97 45 43 172 71 86 78 81 184 212 26 294 290 93 51 296 143 98 43 180
split_gain=0.274307 0.382663 0.338973 0.452476 0.64215 0.484527 0.393702 0.379969 0.426319 0.428457 0.398822 0.371337 0.332181 0.640811 0.497931 0.495038 0.48953 0.480553 0.462861 0.541644 0.51714 0.429937 0.417906 0.414938 0.487274 0.467318 0.433244 0.40227 0.391945 0.374223
threshold=-0.029934398242974909 -0.10182199999690049 0.011795999947935303 0.029971401162457511 0.005581999896094151 0.05643711693581771 0.011076499707996802 -0.0071736489160000487 -0.029862000606954046 -0.074315075013437759 -0.09083399921655648 -0.056655000895261695 -0.0076936286472743427 0.039393000304698909 0.0072035000193863509 0.051592782627395882 -0.084296327442815913 0.042622879934018094 -0.069676499813795034 0.016117782194323544 -0.030797264290449527 -0.096055999398231492 0.031139000318944402 -0.045839960107012009 0.092562500387430163 -0.052152010495803418 0.020204717550871262 -0.027165999636053994 0.071240499615669209 0.070688615500593341
decision_type=2 2 2 2 2 2 2 2 2 2 2 2 2 2 2 2 2 2 2 2 2 2 2 2 2 2 2 2 2 2
left_child=1 -1 3 4 -3 6 -5 8 -4 -10 -9 -6 13 14 18 16 29 -18 20 -20 -2 22 -14 25 27 -23 -26 -25 -27 -15
right_child=12 2 7 5 11 -7 -8 10 9 -11 -12 -13 21 15 -16 -17 17 -19 19 -21 -22 23 -24 24 26 28 -28 -29 -30 -31
leaf_value=-0.13392553965081938 -0.038379193327993569 0.099906394964603337 -0.066950921076793277 0.11416932374590338 -0.16007543365688234 -0.063545721667622262 -0.082494564155681918 -0.20013854735218359 -0.099300876480348688 0.093895416615456348 0.13041699643298368 -0.031181964538736794 0.10647924280883216 -0.11359964315854668 0.035395641290168242 -0.083893899859713919 0.020661126739518507 0.12724811851707282 -0.066523291962622091 0.026158122763060038 0.076278386926216066 0.15286294993551411 -0.11860647635753901 -0.043346975488448028 0.1026848927064065 -0.11906715652800756 0.0051140623717633527 0.00049935798435000512 0.06930188212485798 0.13407135743511522
leaf_weight=1.3348966476041813 9.1592678046799829 2.4889659772161421 3.210645273560659 6.7383887548348849 2.9292495781846792 2.5349618981417734 1.0602926266728898 0.3454116592183708 1.2287684925831861 6.4886030069901608 6.7086068368516854 6.4216039257880766 5.6978042740374795 2.5421635976526935 8.8810201211890654 3.0846244658168862 8.5469319965050072 6.8644713451503785 43.064845763714402 6.5364424968984158 5.7710246826900393 0.79016756532655552 0.85359511314891268 19.077224962355103 7.871483794689996 6.3624878882546891 8.5387125389534031 1464.1672885794687 1.1782448727171866 0.70032046164851625
leaf_count=61 334 87 123 169 149 107 46 6 36 207 229 236 166 115 394 106 292 187 1661 292 185 23 29 637 276 262 209 5598 28 23
internal_value=0 0.0240917 0.0293447 0.00452286 -0.0355137 0.0503949 0.0874313 0.0599522 0.0249155 0.0631345 0.114231 -0.0715591 -0.00061373 -0.0178075 -0.0312045 0.0274353 0.0458448 0.0681366 -0.0403702 -0.0543098 0.00593954 0.000466471 0.0771524 0.000133312 0.000504218 -0.066634 0.0519159 -6.45857e-05 -0.0896344 -0.060107
internal_weight=0 41.4904 40.1555 22.1735 11.8398 10.3336 7.79868 17.982 10.928 7.71737 7.05402 9.35085 1609.69 95.1511 73.4126 21.7385 18.6539 15.4114 64.5316 49.6013 14.9303 1514.54 6.5514 1507.99 1499.65 8.3309 16.4102 1483.24 7.54073 3.24248
internal_count=12273 1456 1395 794 472 322 215 601 366 243 235 385 10817 3589 2866 723 617 479 2472 1953 519 7228 195 7033 6720 313 485 6235 290 138
is_linear=0
shrinkage=0.3


Tree=253
num_leaves=31
num_cat=0
split_feature=258 42 110 186 273 71 199 175 92 79 231 205 156 262 71 256 200 117 41 47 97 282 79 43 139 56 81 145 235 167
split_gain=0.323214 0.429196 0.478323 0.45752 0.453532 0.449466 0.313238 0.512249 0.490914 0.410823 0.428392 0.408974 0.758617 0.680435 0.642148 0.625186 0.576785 0.634565 0.557901 0.628851 0.60172 0.473636 0.708856 0.645086 0.42223 0.355912 0.338142 0.258612 0.26006 0.207596
threshold=-0.13254399597644803 0.0025973613531353554 0.078330997377634021 0.038153000175952856 -0.061215000227093648 -0.082388497889041831 -0.08023549988865844 -0.004855999955907399 0.13473549485206601 0.042163999751210206 -0.03426065642954939 -0.0015343038811155986 0.10043801797072553 1.0000000180025095e-35 -0.0024969999212770999 -0.0003975494996729427 -0.12273549661040303 -0.054923565043207272 0.040738791050786136 -0.043221003499482026 -0.023040533244820836 -0.0006350000039673998 -0.0015605000080540499 -0.04347050003707404 0.018980147764184309 -0.02789636862156122 0.046455999836325604 0.025851190623548095 0.038785127238992072 0.034168999642133657
decision_type=2 2 2 2 2 2 2 2 2 2 2 2 2 2 2 2 2 2 2 2 2 2 2 2 2 2 2 2 2 2
left_child=1 2 3 4 -1 -6 7 8 9 10 -2 12 16 21 26 -16 24 -18 19 -14 -20 22 -13 -23 -8 -11 -15 -3 29 -29
right_child=6 27 -4 -5 5 -7 11 -9 -10 25 -12 13 18 14 15 -17 17 -19 20 -21 -22 23 -24 -25 -26 -27 -28 28 -30 -31
leaf_value=-0.15834209862239473 0.089499950629343669 -0.17929353880567939 -0.17938485455061173 -0.18462007586808851 -0.12556486313868742 0.087772017627944302 -0.12693616044411107 -0.13041029697991058 -0.16213619893689452 -0.18990711342024011 -0.017526899994378679 -0.025370303311911851 -0.12976402215802657 0.0075001208695805151 -0.26338973194536069 -0.0099499486506292641 -0.019275981140662476 0.057543241656171043 0.0085496932799647724 0.051272934272156498 -0.13788952487423184 -0.14122156949374354 0.081342582658832846 -0.00011785022774890832 0.1027286181917564 0.0016761711342998993 -0.12158152259992804 0.16379008065153489 -0.19365707439032276 -0.10825626092047139
leaf_weight=0.97696942300535461 5.5417506833400756 2.737556817548465 1.3404252735781472 0.9576094047151863 1.0282974436850016 6.5520924846496227 3.1044735170507911 4.0921922051638822 1.8159342102444487 1.6798261788026141 8.5725677127738908 8.8701591809231122 2.1189250315946984 7.0088351953818329 2.4316805442831542 1.3692631323938247 11.896879193096536 51.885945160298434 4.2687865132029401 9.3327069484803378 6.1833205597722536 2.9224286620446938 15.206718554349207 1319.623604883498 0.93816762544156507 1.8163420276687237 2.4701901125336008 0.65413443744182564 0.5604438375448807 0.41111022862605751
leaf_count=44 246 161 68 58 72 304 189 302 97 93 524 379 95 428 71 102 596 2060 140 365 223 116 613 4450 32 128 231 26 30 30
internal_value=0 -0.0435449 -0.0116043 0.0120319 0.0340382 0.0588324 0.000400232 -0.0339443 -0.0136237 0.00169044 0.0244954 0.000957433 0.0205742 -0.00033692 -0.0679118 -0.17209 0.0362499 0.0432148 -0.0279662 0.0177752 -0.0780817 0.000329481 0.0420285 -0.000429647 -0.0736383 -0.0903751 -0.026138 -0.12301 -0.0282332 0.0587991
internal_weight=0 15.2186 10.8554 9.51497 8.55736 7.58039 1473.15 23.5186 19.4264 17.6105 14.1143 1449.63 89.7292 1359.9 13.28 3.80094 67.8255 63.7828 21.9037 11.4516 10.4521 1346.62 24.0769 1322.55 4.04264 3.49617 9.47903 4.36325 1.62569 1.06524
internal_count=12273 793 546 478 420 376 11480 1390 1088 991 770 10090 3700 6390 832 173 2877 2656 823 460 363 5558 992 4566 221 221 659 247 86 56
is_linear=0
shrinkage=0.3


Tree=254
num_leaves=31
num_cat=0
split_feature=217 265 221 203 235 200 59 118 158 137 82 38 38 130 223 214 115 216 227 275 163 124 207 74 296 154 126 162 195 286
split_gain=0.270599 0.418985 0.49292 0.411319 0.530847 0.440442 0.397608 0.381807 0.378324 0.458138 0.341855 0.330508 0.293296 0.433293 0.376253 0.36133 0.321267 0.476865 0.458021 0.459401 0.411577 0.358235 0.589958 0.570587 0.415172 0.471263 0.442175 0.36024 0.344779 0.302385
threshold=0.093936000019311863 0.039468636951740486 0.018659999594092303 0.053824000060558257 0.0058045000769197507 -0.061641501262783942 -0.027331500314175996 0.01881556414247736 0.0054908593798289294 -0.11252750083804124 0.016640805121349654 -0.030697612422676605 0.071520499885082203 -0.038680000230669899 0.010497067093806217 0.039641103739704767 -0.076967999339103629 -0.046066500246524741 -0.068630533130391747 -0.0044474462676917887 0.036820519795934072 -0.058145500719547195 -0.023613154349537049 -0.0068599835192703048 0.035732500255107859 -0.014045000076293848 -0.0019099999917670497 0.022622748587370376 0.073891997337341267 0.071293273753170544
decision_type=2 2 2 2 2 2 2 2 2 2 2 2 2 2 2 2 2 2 2 2 2 2 2 2 2 2 2 2 2 2
left_child=12 2 7 5 -5 -3 -4 10 9 -9 -2 -12 16 14 -14 29 17 18 -1 -20 -19 22 27 -24 26 -26 -23 -18 -22 -15
right_child=1 3 6 4 -6 -7 -8 8 -10 -11 11 -13 13 15 -16 -17 21 20 19 -21 28 24 23 -25 25 -27 -28 -29 -30 -31
leaf_value=0.12402276159136336 0.13706101562361842 -0.16957195379547152 0.14769521584987105 -0.17053076899123285 0.11762025692816086 0.046565277525160369 -0.071848241629471385 -0.12351521988099443 -0.11485134635220429 0.075343051732921107 -0.095747394747235759 0.082432110555761565 0.1112155994640855 -0.15025042703770666 -0.12490710961578583 0.0019482241241131624 -0.029595233603533708 0.10908894264566761 0.035929829691933708 -0.075794401568151787 -0.12839476385551032 -0.037590978067391333 -0.062114816013704027 0.061574583074510053 0.095635381046281151 0.0032429580842605493 0.00012191236305915396 0.11670807604278217 0.12641488841013351 0.044052493539643557
leaf_weight=2.2493589457590124 7.6520261263940537 2.7446220259880652 0.88267975859343994 0.77268544537946615 2.2536415024660528 1.2282796908402804 4.6726635937811798 1.2322185254306521 1.6042867680080224 6.7786925090476862 1.278390225023031 3.5078333170386031 2.3223843788728114 5.1471651520696451 0.82245215761940915 3.1917763755191118 2.6317960193846366 8.8160393254365754 6.3475653007044448 6.9272651472128954 1.3592331251129501 28.523897271719761 27.085679824624094 3.8314053465146598 8.6511300122365373 11.672375969836137 1469.1133070714204 3.5685201225569472 0.73707875004038204 0.83824354782700528
leaf_count=45 207 106 26 37 42 46 150 30 57 229 41 115 64 240 21 110 71 209 171 166 39 1036 734 117 243 411 7372 89 23 26
internal_value=0 0.0262818 0.0429019 -0.039277 0.0440492 -0.10275 -0.0369653 0.0630208 0.018125 0.0447552 0.0977268 0.0348407 -0.000532131 -0.0466371 0.0494637 -0.0795689 -0.000172915 0.0326209 -0.00116008 -0.0223717 0.0806785 -0.000730413 -0.029849 -0.0467866 -1.84003e-05 0.0425717 -0.000596365 0.0546079 -0.0388018 -0.123039
internal_weight=0 34.608 27.6088 6.99923 3.02633 3.9729 5.55534 22.0534 9.6152 8.01091 12.4382 4.78622 1593.84 12.322 3.14484 9.17719 1581.51 26.4365 15.5242 13.2748 10.9124 1555.08 37.1174 30.9171 1517.96 20.3235 1497.64 6.20032 2.09631 5.98541
internal_count=12273 1086 855 231 79 152 176 679 316 259 363 156 11187 461 85 376 10726 653 382 337 271 10073 1011 851 9062 654 8408 160 62 266
is_linear=0
shrinkage=0.3


Tree=255
num_leaves=31
num_cat=0
split_feature=18 131 279 231 258 250 235 49 95 207 226 114 23 166 220 123 90 148 197 298 135 214 69 136 280 141 112 91 143 222
split_gain=0.288574 0.414979 0.362443 0.404007 0.356629 0.453359 0.296186 0.255296 0.54382 0.551855 0.548681 0.525552 0.503615 0.477899 0.526931 0.479921 0.445017 0.485276 0.464787 0.442857 0.436465 0.432233 0.43045 0.414259 0.429916 0.401708 0.38283 0.365885 0.344389 0.340809
threshold=-0.077206999063491738 0.021273233337261891 0.027099000290036153 -0.017388113029563428 0.0034405000042170004 0.085200499743223163 0.036445999518036752 0.074392372317169497 1.0000000180025095e-35 0.069557499140500953 0.013702183378836563 -0.054596500471234294 -0.039249935616343525 -0.064782999455928733 0.047061695918880493 -0.0064115000423043489 -0.020624499768018646 0.11291409753465369 0.073673497885465608 -0.046695999801158843 0.059230500832200002 -0.028033286957196299 0.02279095625936196 -0.014462685724564489 -0.011215120819989021 0.0122795002534985 0.058054499328136409 0.0091160000301897023 0.048461624737908826 0.014121499843895352
decision_type=2 2 2 2 2 2 2 2 2 2 2 2 2 2 2 2 2 2 2 2 2 2 2 2 2 2 2 2 2 2
left_child=1 4 -3 -4 5 6 -1 8 9 29 19 25 -13 23 16 26 18 -18 -15 27 -17 -21 -11 24 -9 -12 -16 -10 -25 -2
right_child=7 2 3 -5 -6 -7 -8 13 10 22 11 12 -14 14 15 20 17 -19 -20 21 -22 -23 -24 28 -26 -27 -28 -29 -30 -31
leaf_value=0.15123397502165667 0.00038682144432426767 0.14234629426148421 0.13215236333208968 -0.14550273717931192 -0.20298682207590057 -0.10418300084203727 -0.023575089630547597 0.17703966187704681 0.05529547452690281 0.024671301511297625 0.10482814834062233 0.073916728585504091 -0.031810598574385923 0.042215880021937477 0.13317125695203633 -0.12932932575710701 -0.020818383054279643 -0.15331426036571727 -0.15168813979967941 -0.010117784648813681 0.10588666566483707 -0.092747420846289091 0.17353777417324159 0.064931565470223329 -0.02533384120818143 -0.025904237063332364 -0.071458367737837813 -0.15044714169804682 -0.17586690168970873 -0.042745055961965324
leaf_weight=2.0950662647082923 1473.1978516538802 4.6744967132108286 0.90027217241004109 0.99064981844276168 0.76141870516585175 1.8556786030530927 1.4946635569212956 4.3556345170363784 4.8057619644823708 4.525357149221235 6.1184600323031173 4.5898149571439708 34.783580520554096 13.563070156786123 6.4869148826110177 1.7817368255928143 13.401254530690499 3.0550096977676722 1.2119741756469 7.9312064564292113 1.1803594194352625 20.230878527177993 2.8484632644685917 1.5882942592143074 1.2064357309136537 3.2332016085274518 0.94236692413687695 0.9281721566512714 0.80571038855123323 16.674182384333108
leaf_count=66 5988 168 20 37 41 48 49 106 128 189 157 189 1451 458 181 66 481 76 58 227 31 963 102 52 43 107 20 61 32 678
internal_value=0 0.0449372 0.0975152 -0.0133105 -0.0106785 0.0162115 0.0784483 -0.000332981 -0.000998194 0.000309293 -0.0246923 -0.00430147 -0.0194858 0.0208646 0.00798723 0.0665055 -0.0114832 -0.0454155 0.0263102 -0.0540037 -0.0355986 -0.0694767 0.0821775 0.0882331 0.133144 0.0596293 0.107215 0.0219912 -0.01611 -9.58971e-05
internal_weight=0 12.7722 6.56542 1.89092 6.20683 5.44541 3.58973 1629.45 1579.87 1497.25 82.6211 48.7251 39.3734 49.5788 41.6227 10.3914 31.2313 16.4563 14.775 33.896 2.9621 28.1621 7.37382 7.95607 5.56207 9.35166 7.42928 5.73393 2.394 1489.87
internal_count=12273 429 225 57 204 163 115 11844 10240 6957 3283 1904 1640 1604 1371 298 1073 557 516 1379 97 1190 291 233 149 264 201 189 84 6666
is_linear=0
shrinkage=0.3


Tree=256
num_leaves=31
num_cat=0
split_feature=109 4 182 208 23 103 201 2 99 180 9 98 150 107 43 142 42 156 81 162 74 187 125 170 31 155 200 89 63 256
split_gain=0.291964 0.406643 0.427969 0.58479 0.571497 0.397524 0.410278 0.406818 0.40626 0.297035 0.344832 0.491027 0.426737 0.36398 0.363917 0.482178 0.473715 0.323682 0.310443 0.298712 0.297233 0.283549 0.281041 0.351132 0.265248 0.260382 0.244179 0.237615 0.231915 0.221826
threshold=0.10583134612806754 -0.051779501140117597 0.027621000073850155 -0.0018256189376465572 0.0036690713363332606 0.016857999376952603 0.0061965000350027504 -0.048974563889916549 0.040059000253677361 -0.07166949659585943 -0.056990197175021108 0.004704999970272101 -0.059689000248908948 0.00093376936735365898 0.042548299586787505 -1.0000000180025095e-35 -0.0060990001074968997 0.074066384642283975 0.061841500923037508 0.063598498702049214 0.016376500017940953 -0.056808561489254734 0.013893382188666472 0.011708499863743702 -0.086594499647617285 0.01824952225648576 -0.030405499972402997 0.037963800209504732 0.0080360829698599475 -0.023924499750137249
decision_type=2 2 2 2 2 2 2 2 2 2 2 2 2 2 2 2 2 2 2 2 2 2 2 2 2 2 2 2 2 2
left_child=9 26 3 4 27 7 -7 -4 -9 19 11 13 22 20 15 -14 -16 -15 24 25 -11 -6 -12 -24 -13 -1 -2 -3 -5 -28
right_child=1 2 5 28 21 6 -8 8 -10 10 12 18 14 17 16 -17 -18 -19 -20 -21 -22 -23 23 -25 -26 -27 29 -29 -30 -31
leaf_value=-0.13409084514878961 -0.18096419918091569 -0.10815735829636385 -0.16112261851325996 -0.19318743114484374 -0.04223352988743112 -0.17541417262932471 0.043401984977132595 0.088840159055093473 -0.14154703339646157 -0.11960377948357036 -0.15629814674246167 -0.1322357836455352 0.02573679042985573 0.1244274240628214 -0.0037006624406995779 -0.00028698026539253823 -0.13225313604696204 -0.14612491160612051 -0.15186415283349264 -0.17307809588819789 0.099693116355600089 0.15276155473656719 -0.13340018624878944 0.14335596083559932 0.12191922528940566 0.080873295906054146 0.1654237476648569 0.087857623754201711 0.023232532501807471 -0.10793197626884289
leaf_weight=0.85107567566592468 2.4125139431844222 1.838737569436492 1.1696753498399628 1.2859961461508636 0.79287076996479555 3.4717825697152875 0.99141521030105639 3.2162971793550224 0.87660880497423921 2.9313728984707264 2.5945630410205913 0.38916958851041172 67.253562656243957 2.0076084023457956 6.5522575962968403 1357.1342672545798 4.2553813679405703 0.49637690448435012 0.43319594003696682 1.7746024307780315 0.68653117772191752 4.3720229696627912 0.84313705668318994 0.80796986180939712 7.3385730438458259 1.2548778927593955 0.40500092075672001 0.79821549437474448 0.68194628865603579 0.78510727343382558
leaf_count=70 168 131 42 77 33 134 38 111 42 175 225 19 2954 89 377 6330 236 31 29 115 40 145 37 24 385 56 16 44 52 48
internal_value=0 -0.033511 -0.0163998 0.0279487 0.0648113 -0.060949 -0.126808 -0.00509373 0.0394964 0.000483673 0.000704937 0.0470895 0.000244687 -0.017134 0.000525632 0.000941752 -0.0543167 0.0707945 0.0952665 -0.0824058 -0.0779901 0.122828 -0.0947254 0.00203055 0.10912 -0.00599982 -0.126108 -0.0488229 -0.118192 -0.0149074
internal_weight=0 23.0982 19.4956 9.76979 7.80185 9.72578 4.4632 5.26258 4.09291 1457.6 1453.72 14.2828 1439.44 6.12189 1435.2 1424.39 10.8076 2.50399 8.16094 3.88056 3.6179 5.16489 4.24567 1.65111 7.72774 2.10595 3.60262 2.63695 1.96794 1.19011
internal_count=12273 1081 849 482 353 367 172 195 153 11192 10951 768 10183 335 9897 9284 613 120 433 241 215 178 286 61 404 126 232 175 129 64
is_linear=0
shrinkage=0.3


Tree=257
num_leaves=31
num_cat=0
split_feature=142 224 252 95 47 106 232 32 145 166 270 295 254 42 146 70 41 289 259 272 81 132 240 185 117 41 268 241 38 242
split_gain=0.268111 0.382401 0.301604 0.264075 0.536722 0.661 0.53637 0.557469 0.507438 0.631956 0.746437 0.560877 0.510474 0.509427 0.478142 0.451676 0.447309 0.436372 0.424579 0.420161 0.400689 0.393069 0.401331 0.381119 0.379906 0.379289 0.4351 0.35239 0.327888 0.32605
threshold=-0.085123383250636078 -0.014562924629589148 0.018474999815225553 -0.0028704999713226498 0.033277500420808757 0.064984500408172621 -0.012300500180572198 0.0018990000244229501 0.048545580182255708 -0.057484155054846893 0.025266000069677753 0.0077304998412727503 -0.0021780000533907994 0.044445000588893856 -1.0000000180025095e-35 -0.0019850000971927996 0.0022869639653858771 0.05256884606607911 -0.05286043030789337 -0.0057857169252857324 0.0076915000099688508 -0.0032811444456528906 0.059372000396251658 0.088582665716491024 -0.087939500808715779 0.018935330455885736 0.011930345870395827 0.030353609088485872 -0.06399999931454653 0.056404880568383532
decision_type=2 2 2 2 2 2 2 2 2 2 2 2 2 2 2 2 2 2 2 2 2 2 2 2 2 2 2 2 2 2
left_child=1 2 -1 8 6 21 25 14 9 12 13 18 15 -11 -8 -2 -7 -12 20 -13 -10 22 -6 -9 -23 28 -27 -14 -5 -20
right_child=3 -3 -4 4 5 16 7 23 11 10 17 19 27 -15 -16 -17 -18 -19 29 -21 -22 24 -24 -25 -26 26 -28 -29 -30 -31
leaf_value=-0.030540508518063194 0.094487147314639253 -0.054103876391500175 0.13467558034700627 -0.093995745534944303 -0.056549744024465359 0.1029299497387023 0.035370016000881327 -0.062356427692483951 0.13802768838805377 -0.041020184192006433 0.045578470256496494 -0.18411818335502561 -0.11408255470895763 0.07645872008169699 -0.00061983214193437458 -0.031556104487050408 -0.10038582945632822 -0.13575281518322602 -0.15777383795897867 0.061356850965865808 -0.12729590661544207 -0.1528145351712222 0.075966101766590646 0.094048906409652952 0.13691793599740282 -0.028654556600554614 0.15111362560016972 0.13195526750554087 0.12822127513455034 0.058666824360830427
leaf_weight=1.2919800149975342 11.767542851506732 2.0751960515044621 4.317914858344011 0.65920908283442248 3.0821457281708753 1.3093597777187813 34.026767627881782 18.329939805065809 1.0989442942664021 57.53639942278096 17.963646045565842 0.75251582823693741 2.5835929493186991 3.5256003713875534 1406.499233516457 3.2697484945529149 3.8010838907212019 1.2794835295062501 7.1368287602817864 3.778688139980658 0.959568217745982 0.4296320667490362 6.1834178296849132 1.5183147287461896 7.8393457710044459 5.6854159529320896 1.5399345136247573 0.65718463691882778 6.3946243786485848 0.68666468351148058
leaf_count=61 267 74 129 19 113 33 935 671 32 1675 569 40 79 104 5923 93 85 62 302 132 36 14 155 43 200 172 33 17 180 25
internal_value=0 0.0559244 0.0966257 -0.000243507 0.000811877 0.0466472 0.000108023 -0.000457732 -0.0142282 -0.00654119 -0.0180005 -0.066806 0.0438053 -0.0342372 0.000230287 0.06708 -0.0482938 0.0335217 -0.10688 0.0205898 0.014348 0.0743178 0.0318853 -0.050392 0.121864 0.0579694 0.00965933 -0.0641895 0.107454 -0.138777
internal_weight=0 7.68509 5.60989 1610.29 1497.3 22.645 1474.65 1460.37 112.996 98.5832 80.3051 14.4132 18.2781 61.062 1440.53 15.0373 5.11044 19.2431 9.88201 4.5312 2.05851 17.5345 9.26556 19.8483 8.26898 14.2792 7.22535 3.24078 7.05383 7.82349
internal_count=12273 264 190 12009 8576 600 7976 7572 3433 2866 2410 567 456 1779 6858 360 118 631 395 172 68 482 268 714 214 404 205 96 199 327
is_linear=0
shrinkage=0.3


Tree=258
num_leaves=27
num_cat=0
split_feature=155 220 245 32 178 188 202 160 190 148 270 137 106 171 37 192 43 166 75 131 155 2 170 190 145 92
split_gain=0.271697 0.460783 0.420605 0.414733 0.354936 0.303883 0.553218 0.337216 0.291656 0.261384 0.387342 0.261748 0.324524 0.58224 0.555469 0.637396 0.450754 0.382631 0.314428 0.203282 0.199109 0.186481 0.119379 0.112889 0.0116076 0.00962099
threshold=0.067251000553369508 0.078841000795364366 0.0062455001752823513 -0.040940500795841141 -0.067623970394910943 -0.025278500281274246 -0.06993349641561504 -0.0096457645949418538 -0.055651500821113538 -0.033187000080943045 0.006943724768571957 -0.19442749768495551 0.02020555193636062 0.023350258414220396 0.037602001801133163 -0.0023794851986639527 -0.0072067564283411619 -0.086813965775458274 0.12721750140190122 0.0070256691909426549 0.005383555523563655 -0.03362550027668474 -1.0000000180025095e-35 -0.065435446143251835 0.0099399686104445582 0.057032060881485311
decision_type=2 2 2 2 2 2 2 2 2 2 2 2 2 2 2 2 2 2 2 2 2 2 2 2 2 2
left_child=9 2 4 8 -2 6 -6 -7 -4 10 23 -11 13 17 16 -16 -14 -13 -15 -10 -12 -5 -3 -1 -25 -23
right_child=1 22 3 21 5 7 -8 -9 19 11 20 12 14 18 15 -17 -18 -19 -20 -21 -22 25 -24 24 -26 -27
leaf_value=0.021738377811733194 -0.13280890790047212 -0.013358462872486675 -0.12231882632600928 0.014117095146690956 0.21866178144875129 0.16263113536770313 -0.12797446790560069 0.036476815985815154 0.19914287036747885 0.12231208814353517 0.053361728858178394 0.0703328944200316 -0.051735910445508619 0.08226111531356492 -0.020865264044598004 0.075629077851813289 -0.0080571052432568662 -0.00039305808268433356 -0.15191929176478561 0.010401332318057543 -0.17712495790912874 -0.14104408019441453 -0.1931876920010562 0.15782073351110659 0.20723425578453139 -0.20497668458401244
leaf_weight=0.45489478670060668 0.64107431657612224 0.52994004590436816 0.65931965457275543 0.55791247379966069 0.62106080260127772 5.7667000180226724 1.2451166838873167 2.8491691857343584 1.0518838427960875 1.5577578168013122 0.78176137269474544 6.9164890819083658 38.858325156528736 10.112193742257656 13.519279954725791 11.319398451363666 46.962047884488129 1482.9723197225303 0.54376279795542437 1.0035644493764264 0.59333765774499625 0.26393525477033009 0.89057011506520101 0.68345089280046467 1.1440372292418031 1.0733839545282533
leaf_count=19 18 20 29 23 8 156 56 103 19 30 31 239 1460 401 445 284 1458 7239 21 31 19 17 33 26 30 58
internal_value=0 0.0375351 0.0523094 -0.0238835 0.0838876 0.0971406 -0.0126145 0.120913 0.0512995 -0.000420666 0.0796877 -0.000602339 -0.000721176 0.000435038 -0.0163995 0.0231088 -0.0278343 -6.4728e-05 0.0703111 0.106991 -0.0460903 -0.131577 -0.1261 0.155467 0.188754 -0.192359
internal_weight=0 17.1536 15.7331 4.61 11.1231 10.482 1.86618 8.61587 2.71477 1616.42 3.65748 1612.76 1611.2 1500.54 110.659 24.8387 85.8204 1489.89 10.656 2.05545 1.3751 1.89523 1.42051 2.28238 1.82749 1.33732
internal_count=12273 571 518 177 341 323 64 259 79 11702 125 11577 11547 7900 3647 729 2918 7478 422 50 50 98 53 75 56 75
is_linear=0
shrinkage=0.3


Tree=259
num_leaves=31
num_cat=0
split_feature=259 77 177 294 266 220 29 26 158 167 196 166 56 192 274 264 199 170 290 133 179 104 223 209 125 95 174 12 234 110
split_gain=0.311635 0.961722 0.486246 0.472471 0.35491 0.310831 0.280779 0.284768 0.278638 0.271736 0.340024 0.483545 0.489018 0.47212 0.421747 0.505991 0.467183 0.418481 0.37791 0.354958 0.436965 0.405179 0.296833 0.289387 0.269976 0.259524 0.254521 0.222712 0.191356 0.175639
threshold=0.037438936985929955 -0.040772501379251445 -0.023250500671565498 -0.040776500478386844 -0.037657000124454443 0.065754499286413109 -0.034084066474174023 0.0091608347880247337 -0.056108464606738621 0.1128027989967708 0.0012211105502601964 0.020781495995224216 -0.024369000457227147 -0.057729000225663143 -0.03313300013542169 0.034045500680804204 -0.07503149658441538 0.011708499863743702 -0.029521855679342398 -0.044625414729029741 -1.0000000180025095e-35 0.031358500942587804 0.042734679109890379 0.00044176995220817072 0.023719199609381691 -0.064639002084731986 0.064334001392126069 -0.097585499286651584 -0.017229227131858333 -0.040546667585737182
decision_type=2 2 2 2 2 2 2 2 2 2 2 2 2 2 2 2 2 2 2 2 2 2 2 2 2 2 2 2 2 2
left_child=9 2 3 -2 -4 6 -3 29 -9 10 11 19 24 17 15 -15 -16 18 -12 21 -21 -1 -19 -14 -13 -6 -7 -11 -29 -8
right_child=1 5 4 -5 25 26 7 8 -10 27 13 12 23 14 16 -17 -18 22 -20 20 -22 -23 -24 -25 -26 -27 -28 28 -30 -31
leaf_value=-0.078183865871711666 0.10022166664175965 0.1501200334099129 -0.12694635618616482 -0.15143588395405674 -0.13217881567970366 -0.0872651927297277 -0.022906323163846609 -0.20382279438059195 0.033415475360229388 0.1759194511177711 0.094710230217957256 -0.19637406705441909 -0.16405197097697555 0.0011677603528783467 -0.029522304953174615 -0.20426691782534004 0.054030019550294912 -0.17838176578998496 -0.097859807755892175 0.051617784713306206 -3.8974216041517622e-06 0.056872944970176323 0.11538726675962921 0.055560683537065232 -0.047177388241723309 0.15375332160751468 0.12798056488099066 -0.14769406113676201 0.012986660212498715 -0.16054764804404456
leaf_weight=9.794510395240648 1.1093391437752873 0.36693730414845127 0.52952169922355086 1.7008831024577373 0.30767299587023433 0.97679579493706015 0.94717532956928963 0.59389370182907475 1.7840297395086961 0.2787625084165487 2.0961941571222273 2.7866683824904612 0.67300139300641548 15.021073630839966 7.0170966573787146 1.1625532444413682 42.514578457485186 2.506939886057808 1.6306633710373706 14.921927253621105 1342.5618276648274 2.5119181016852954 0.35316724359290663 2.7328904180540121 1.7944765400607137 3.9983617682009962 1.0011893206246893 2.4099689893919285 0.92233783295523464 7.006954078737178
leaf_count=495 91 15 50 133 23 77 77 51 106 13 117 134 52 772 408 57 2006 171 142 664 5227 134 25 149 84 178 37 123 63 599
internal_value=0 -0.0368861 0.0471473 -0.0520937 0.104822 -0.0875685 -0.107767 -0.116926 -0.0258355 0.000522259 0.000726942 -0.000325424 -0.0739265 0.0207806 0.0284557 -0.0135897 0.0421933 -0.05579 0.0104524 0.000103733 0.000563546 -0.0506168 -0.142107 0.0121654 -0.137932 0.133323 0.0216849 -0.0816712 -0.10322 -0.144157
internal_weight=0 20.3228 7.64578 2.81022 4.83556 12.677 10.699 10.3321 2.37792 1453.69 1450.08 1377.78 7.98704 72.3023 65.7153 16.1836 49.5317 6.58696 3.72686 1369.79 1357.48 12.3064 2.86011 3.40589 4.58114 4.30603 1.97799 3.61107 3.33231 7.95413
internal_count=12273 1437 475 224 251 962 848 833 157 10836 10637 6939 419 3698 3243 829 2414 455 259 6520 5891 629 196 201 218 201 114 199 186 676
is_linear=0
shrinkage=0.3


Tree=260
num_leaves=31
num_cat=0
split_feature=245 288 223 292 212 247 281 69 59 241 293 21 16 91 87 214 166 277 195 93 20 271 240 24 262 296 223 41 228 139
split_gain=0.239317 0.318981 0.407443 0.350554 0.335553 0.324904 0.302755 0.292964 0.288031 0.260038 0.361 0.299525 0.486488 0.387752 0.325793 0.29149 0.599531 0.569187 0.524635 0.387044 0.486247 0.346907 0.255953 0.335767 0.24739 0.237038 0.215004 0.212372 0.187616 0.180445
threshold=0.040649000555276857 -0.024177732055952719 -0.0098896842760365471 -0.014947138271067471 -0.041428691315961462 -0.047618382118507219 0.036864999681711155 0.035038998350501054 0.02413670995148506 0.070699847039939395 0.0042305361206094096 0.050576930125367715 0.025309875243935829 -0.077982001006603185 -0.048659491188322961 -1.0000000180025095e-35 -0.059201232091068416 0.027460999786853752 0.017718692542870378 0.066897988052081234 -0.078191999346017782 0.092411993015771743 0.064606498926877962 0.036115272516460815 -0.077194467586662277 -0.053535005824393515 -0.035657500848174047 0.016506000421941253 -0.041858853354616907 -0.010799854212998635
decision_type=2 2 2 2 2 2 2 2 2 2 2 2 2 2 2 2 2 2 2 2 2 2 2 2 2 2 2 2 2 2
left_child=9 7 5 6 -5 25 -4 28 24 11 29 15 13 -13 -15 16 17 -1 -18 20 -17 -21 23 -14 -7 27 -10 -3 -2 -11
right_child=1 2 3 4 -6 8 -8 -9 26 10 -12 12 22 14 -16 19 18 -19 -20 21 -22 -23 -24 -25 -26 -27 -28 -29 -30 -31
leaf_value=-0.042798105039432786 0.018715819236556609 -0.15603185311721551 -0.12598227478533877 -0.078106338466781028 0.13338938773732492 -0.051032065309579024 0.084483286770156943 -0.079545891819027617 0.023301715363207343 0.12861698365680388 -0.15109426882751523 -0.19501644640599658 -0.084419779074178816 -0.023948123016401177 0.09625058222770895 -0.077016449791251579 -0.063103074539185691 0.059058187226408168 -0.010747886883816367 0.026229664692512332 0.00035075803507636272 0.14737177125872283 -0.17149818472768147 0.19774233638166164 0.12849703238781401 0.18845585713176763 -0.11714150804800992 0.14890700226048326 0.17739115892145269 -0.081611753405591236
leaf_weight=7.2798810304375392 0.89020634535700116 0.40473122079856727 3.8208966987440363 1.1754622641019525 1.5862372894771368 0.94168285140767727 0.73317248560488213 0.65699501149356354 2.2917330025229639 0.84516040049493313 2.3660475812794175 0.50239616050385016 1.1947361532365897 2.5032840906642386 10.722433590097351 7.3482574553927398 26.776076067384565 15.346822377119677 48.296253667940618 9.3136277481971756 1447.6130187886592 2.7573223295621565 1.2744932771893216 0.55629583366680879 2.5929713346995413 2.1300916830077803 1.7153424394782595 0.41766587132588029 2.7191493089776513 0.65009974129497938
leaf_count=235 30 23 118 41 39 28 19 29 89 24 126 23 49 90 388 245 814 345 1513 290 7278 59 55 19 82 67 46 18 73 18
internal_value=0 0.0310365 0.0133868 -0.0409592 0.0433705 0.0512727 -0.0920988 0.104715 0.0182447 -0.000415454 -0.078173 -0.000225603 0.0396742 0.0636734 0.0735001 -0.000652812 -0.0165196 0.0262871 -0.0294214 0.000403856 -3.99837e-05 0.0539017 -0.0692208 0.00522199 0.0806679 0.135638 -0.036819 -0.00116439 0.138256 0.0372151
internal_weight=0 22.0763 17.81 7.31577 2.7617 10.4942 4.55407 4.26635 7.54173 1585.35 3.86131 1581.48 16.7536 13.7281 13.2257 1564.73 97.699 22.6267 75.0723 1467.03 1454.96 12.071 3.02553 1.75103 3.53465 2.95249 4.00708 0.822397 3.60936 1.49526
internal_count=12273 702 570 217 80 353 137 132 245 11571 168 11403 624 501 478 10779 2907 580 2327 7872 7523 349 123 68 110 108 135 41 103 42
is_linear=0
shrinkage=0.3


Tree=261
num_leaves=28
num_cat=0
split_feature=154 243 72 264 16 272 133 165 130 125 116 54 110 260 2 209 53 6 121 278 97 165 65 54 9 222 279
split_gain=0.230185 0.48893 0.39282 0.317527 0.273201 0.249993 0.287342 0.247807 0.344313 0.297134 0.28163 0.425983 0.409384 0.388727 0.375368 0.580422 0.526705 0.223929 0.214448 0.209331 0.202212 0.160913 0.0936261 0.0636641 0.0307682 0.0123222 0.000392333
threshold=-0.082671497017145143 -0.0041704999748616986 -0.0026545000728218997 -0.0041970479132850619 -0.037736857356365429 0.14805000275373459 -0.053401499986648497 0.077398497611284214 -0.022510747622716883 0.031261499971151303 -0.0080915451186414512 0.021149277924365373 -0.05887700058519834 0.041506499052047709 -0.031006075450191403 0.081137824264722255 0.063377381159859761 -0.076370500028133337 -0.03163484945607422 0.0079289331353145226 0.022013999521732306 -0.021385118619002951 -0.005604499951004949 -0.044788001105189296 0.015712999738752804 -0.052830500528216341 -0.062434500083327245
decision_type=2 2 2 2 2 2 2 2 2 2 2 2 2 2 2 2 2 2 2 2 2 2 2 2 2 2 2
left_child=1 2 4 23 24 7 -7 10 -9 19 11 13 -13 -2 16 -16 -12 -6 -8 -10 -4 -19 -20 -3 -1 -24 -25
right_child=5 3 20 -5 17 6 18 8 9 -11 14 12 -14 -15 15 -17 -18 21 22 -21 -22 -23 25 26 -26 -27 -28
leaf_value=0.1492898149055206 -0.067368857283805733 -0.041053320581195332 -0.17656390810541162 0.15649137837250274 -0.094030130404059303 0.15163063745753466 0.10214241633946121 -0.1112917672286397 0.17936998764669768 -0.067837792909285266 -0.0023608487487225644 0.13198672112860416 -0.081686335635544671 0.013828158694636399 0.0001218711424168582 -0.054097967288849587 0.060136953850638185 -0.017704905875106668 -0.033487005819422294 0.054635624947878457 0.06958007188296772 0.18788075039802729 -0.13004579967204793 -0.19096157880813239 0.21353851860362785 -0.20502214265442908 -0.2045475226492165
leaf_weight=1.0994659468997268 6.8346315572598568 0.28991775820031751 0.6546920873224733 0.35398536897264321 0.69145384262083087 0.38131602411158416 0.31441968237049955 0.93921530252555374 2.334968640934675 0.96191940549761046 26.574876646132907 0.86158545107173345 12.737902686971207 23.733157135211513 1498.5582816260212 17.982524481922155 22.33688667404931 0.53974486235529151 0.40114171709865432 2.5152875167550519 0.55503528818371706 0.93832948268391292 0.22835768561344671 0.25967810201109376 1.7207300189184023 1.4495761670987091 0.72651659592520446
leaf_count=35 500 10 27 15 36 15 12 39 89 29 1006 27 621 756 7626 482 569 26 17 87 27 27 13 31 26 88 37
internal_value=0 0.0512959 0.0897379 -0.0949036 0.126921 -0.000267195 -0.0902369 -0.000112745 0.0572425 0.0844766 -0.000353316 -0.0239782 -0.0681492 -0.00432663 0.00031323 -0.000521046 0.0261805 0.046886 -0.12877 0.114684 -0.0636305 0.112808 -0.163691 -0.164639 0.188491 -0.194818 -0.20097
internal_weight=0 7.82955 6.19945 1.6301 4.98972 1619.15 2.77481 1616.37 6.75139 5.81218 1609.62 44.1673 13.5995 30.5678 1565.45 1516.54 48.9118 2.16953 2.3935 4.85026 1.20973 1.47807 2.07908 1.27611 2.8202 1.67793 0.986195
internal_count=12273 297 204 93 150 11976 145 11831 244 205 11587 1904 648 1256 9683 8108 1575 89 130 176 54 53 118 78 61 101 68
is_linear=0
shrinkage=0.3


Tree=262
num_leaves=31
num_cat=0
split_feature=125 97 111 27 243 124 264 242 274 233 235 15 192 210 292 175 266 180 98 108 57 141 235 205 260 277 90 48 62 74
split_gain=0.307765 0.491658 0.47268 0.498303 0.469165 0.433787 0.401661 0.374032 0.684069 0.462228 0.446361 0.42904 0.412145 0.42737 0.541276 0.671805 0.398694 0.391179 0.451131 0.444302 0.388927 0.385349 0.354754 0.346305 0.340516 0.331993 0.326286 0.321921 0.314493 0.311
threshold=-0.022502500563859894 -0.0732368274563409 0.06749387148004006 0.071891501545906025 -0.072645500302314689 0.017046499997377354 -0.030418132807120895 0.0047184999566525004 -0.027976014659731506 -0.0687317584459088 0.016882500611245552 0.028261918307778477 0.036895500496029861 1.0000000180025095e-35 0.00067760541872665823 -0.0019280000124126497 1.0000000180025095e-35 -0.022116499952971897 0.023241871733252258 -0.062134500592946992 -0.038363000378012595 0.041219929683192054 0.019506500102579555 -0.050085000693797989 0.13725699484348297 0.038209941651096556 0.017720500007271701 -0.035359668285642992 0.0085037619586472712 -0.0061736531151372681
decision_type=2 2 2 2 2 2 2 2 2 2 2 2 2 2 2 2 2 2 2 2 2 2 2 2 2 2 2 2 2 2
left_child=1 -1 3 4 22 -4 -6 12 9 -9 11 -11 13 14 16 -16 -2 18 25 28 21 -15 -3 -5 -21 -10 -12 -7 -19 -25
right_child=7 2 5 23 6 27 -8 8 17 10 26 -13 -14 20 15 -17 -18 19 -20 24 -22 -23 -24 29 -26 -27 -28 -29 -30 -31
leaf_value=-0.12497381333925532 -5.1420914821857088e-05 -0.00060608986278643255 -0.15105183913219505 0.064156862261641218 -0.020326965754114901 0.11553975536667822 0.055920982810475285 0.077101660187114965 -0.069605867636614749 0.056726470863422931 -0.17180952881761608 -0.099281384373325593 -0.061976055750003423 0.063857129131489387 -0.016708720879261788 -0.19861886847024968 0.060349059703859613 -0.14111635657059779 -0.18736953517388844 0.08398180839049886 0.13318663313162862 -0.14438249031305661 -0.15419478669219863 -0.14426073649081303 -0.12077442380035132 0.13248545813642229 0.015601261572582311 -0.13034502344796717 0.067321354902887182 0.055779770133925495
leaf_weight=3.9438323906470023 1337.3581990672392 3.1195108180809212 3.9452659598100572 1.236265296814963 9.6554328086203878 1.2330795699090233 17.465300675987244 3.0194559558294705 1.4836141497362434 3.9907115241803677 3.4955738156131702 2.6334827674727421 9.6228666497336217 2.6075692962549515 5.5529917932290118 2.723159525805384 9.908485549152827 1.5132706523581902 1.2156355778279246 23.924294783122608 4.1494606648775507 1.1536086055421035 2.3907803224719828 4.3931145149690565 0.75401826144661654 1.4433552117116049 1.0989342855755238 0.78383715101517726 1.1439744659437563 0.83192579954629664
leaf_count=277 5211 175 354 53 775 77 958 118 67 199 181 111 463 145 312 85 501 115 56 1036 189 77 138 234 35 66 51 73 91 50
internal_value=0 -0.0234023 -0.0145113 -0.00251097 0.0125609 -0.0931939 0.0287754 0.00078084 0.0274757 -0.0270892 -0.0551316 -0.00529526 -0.000107961 0.000328687 -7.70574e-05 -0.0765639 0.000392795 0.0521564 -0.0337512 0.0651754 0.0698558 -1.30263e-05 -0.0672445 -0.0786272 0.0777257 0.03005 -0.126984 0.0199812 -0.0513815 -0.11241
internal_weight=0 48.9983 45.0545 39.0923 32.631 5.96218 27.1207 1418.79 45.7163 14.2382 11.2187 6.62419 1373.08 1363.45 1355.54 8.27615 1347.27 31.4782 4.1426 27.3356 7.91064 3.76118 5.51029 6.46131 24.6783 2.92697 4.59451 2.01692 2.65725 5.22504
internal_count=12273 3164 2887 2383 2046 504 1733 9109 2126 660 542 310 6983 6520 6109 397 5712 1466 189 1277 411 222 313 337 1071 133 232 150 206 284
is_linear=0
shrinkage=0.3


Tree=263
num_leaves=31
num_cat=0
split_feature=299 169 179 272 123 76 292 11 29 12 88 66 30 45 145 246 85 100 245 103 141 49 99 274 289 136 215 216 81 156
split_gain=0.243536 0.426626 0.391306 0.402365 0.465512 0.353108 0.353949 0.295907 0.267295 0.242407 0.236818 0.586386 0.461291 0.428205 0.401104 0.454506 0.420312 0.564431 0.4146 0.442491 0.568261 0.531279 0.413249 0.406526 0.358121 0.35691 0.440055 0.378355 0.455343 0.362419
threshold=0.10182000324130057 -0.035219499841332394 -0.051898000761866549 0.028815543224615294 -0.10901897084148492 -0.080965999513864434 -0.09253850206732743 -0.038774000480770995 0.090866502374410615 -0.014980055114055571 0.061821626870290809 -0.068195499479770633 0.044366501271724652 -0.088983997702598489 0.024047207259310848 0.021451500244438603 -0.042439167073085933 -0.11756150051951404 0.009649499785155051 0.027035780959952679 -0.023082560623281571 0.056122912797099002 -0.053527500480413388 -0.055304218172077181 0.0352660884945558 -0.074614502489566734 -0.00086699999519614991 -0.094375498592853477 -0.0071574999019502995 -0.016300351737694462
decision_type=2 2 2 2 2 2 2 2 2 2 2 2 2 2 2 2 2 2 2 2 2 2 2 2 2 2 2 2 2 2
left_child=10 2 -2 -4 -5 -3 -7 -6 -8 -10 11 12 13 -1 18 16 24 -18 19 20 -12 -21 -17 -20 -16 26 -13 28 -27 -29
right_child=1 5 3 4 7 6 8 -9 9 -11 14 25 -14 -15 15 22 17 -19 23 21 -22 -23 -24 -25 -26 27 -28 29 -30 -31
leaf_value=-0.036883370648480289 0.15963475134735769 -0.12623816822887463 -0.13095791119253664 0.16498509046608664 0.11567580919218368 -0.18675699120567194 0.12802951777246596 -0.11655551892488825 0.10350502340890827 -0.11401179951455936 -0.11217390738230638 0.16005106539433084 -0.047161527545158871 0.083170822326811694 0.087655082581739083 0.15415882522267399 0.019942293528820002 -0.070341199411456543 0.11968886194649851 -0.01583604956745541 -0.016575455847326542 0.066078123051785273 -0.10438022982551119 0.015080275343985474 -0.10802693888646352 0.038734255821248571 0.011600996390037177 0.077312633796184554 -0.09096587256884657 -0.00020023384275501223
leaf_weight=3.1578671119641575 0.96520929504185904 0.73072153655812222 2.8147206495050368 1.2929133768193426 0.66846346482634578 0.39812743896618563 7.2940281219780392 1.889934263192117 0.97214549360796809 0.8771641314961014 6.4507408198260228 2.7663060612976551 3.9487489465391254 17.445755619759439 4.8744945755461222 0.5890129329636683 10.270751463198392 15.849158769298812 4.1645144840586026 17.628797123674307 42.241217555565527 11.960947869578375 10.055213205225298 16.958576856181026 1.0174128189682958 3.420232721720823 5.1298412277828893 5.4501173493626984 8.4667402024060685 1389.5646732529858
leaf_count=103 27 30 94 23 20 12 243 64 32 28 218 72 162 514 139 12 239 584 122 617 990 309 372 532 33 123 210 161 393 5795
internal_value=0 0.0348365 -0.0188927 -0.0447426 0.0182676 0.0747521 0.0901447 -0.0558776 0.102202 0.000332492 -0.000350235 0.000803111 0.0467684 0.0647704 -0.0120359 -0.0363706 -0.0185138 -0.0348403 -0.00159348 -0.0116577 -0.0292404 0.0172758 -0.0900736 0.0357043 0.0538648 5.42997e-06 0.0636084 -0.000351538 -0.0536473 0.000102598
internal_weight=0 17.9034 7.63124 6.66603 3.85131 10.2722 9.54147 2.5584 9.14334 1.84931 1581.41 1439.35 24.5524 20.6036 142.061 42.656 32.0118 26.1199 99.4048 78.2817 48.692 29.5897 10.6442 21.1231 5.89191 1414.8 7.89615 1406.9 11.887 1395.01
internal_count=12273 573 228 201 107 345 315 84 303 60 11700 7533 779 617 4167 1379 995 823 2788 2134 1208 926 384 654 172 6754 282 6472 516 5956
is_linear=0
shrinkage=0.3


Tree=264
num_leaves=31
num_cat=0
split_feature=234 250 38 76 58 163 258 98 46 146 161 29 91 11 49 60 244 102 47 295 292 181 285 260 132 238 76 229 103 57
split_gain=0.227042 0.352272 0.327789 0.31044 0.295226 0.299353 0.275171 0.264751 0.243635 0.404891 0.367019 0.420885 0.392311 0.394309 0.268494 0.375433 0.37155 0.552383 0.404686 0.272305 0.585301 0.418281 0.241286 0.228769 0.240689 0.217013 0.213854 0.213172 0.280714 0.209905
threshold=0.039974632565064824 0.051448616002425805 0.013371000066399552 -0.010427500121295398 -0.029925818700619503 -0.080529018082713691 -0.11367852740986158 -0.045907000079750938 -0.02146173672415767 -0.024851868246183139 -0.031212316630234004 0.068783499300479861 -0.071860923375801827 0.0064010055822872483 0.099752496927976567 -0.11064150184392924 -0.0031129824378049605 -0.03365096527609631 -0.028270328961055826 0.0036855000071227503 -0.077305834030293827 0.10149511805814442 -0.011512499768286898 0.02162507034909002 -0.002889888471581707 -0.0894740246423925 0.034485001116991008 -0.056524359575374848 0.017266500741243303 -0.015540000051259948
decision_type=2 2 2 2 2 2 2 2 2 2 2 2 2 2 2 2 2 2 2 2 2 2 2 2 2 2 2 2 2 2
left_child=8 4 3 6 5 -2 -3 -4 9 23 12 -12 -11 -14 15 22 17 18 -16 21 -21 -17 29 24 -1 -8 -5 28 -6 -10
right_child=1 2 7 26 27 -7 25 -9 14 10 11 -13 13 -15 16 19 -18 -19 -20 20 -22 -23 -24 -25 -26 -27 -28 -29 -30 -31
leaf_value=-0.19685200401832609 -0.21043928293127251 0.11463170140028318 0.05539233630507253 0.13068475980116417 -0.16218068434090668 0.053119852688491703 0.052819103993865746 -0.15016984878267259 0.13581582400872083 0.13505497178889869 -0.038726963666269792 0.13931244412896729 -0.14530985298505547 0.033303622369878334 0.0755721831109364 -0.00038986279049291309 -0.099631751690799825 0.13787841776834611 -0.050820044532275573 0.044386472223197256 -0.041477330892843577 0.060803343205844525 -0.081688546950214116 -0.19013112315947467 0.15311744118389634 -0.17826550706503577 -0.037796222547119798 0.15581993152895629 0.12781299410028057 -0.042488668748442766
leaf_weight=0.30665509030222893 0.51286718784831498 0.67093258071690831 0.79192337652784806 2.7518034500244526 0.49352463538525693 1.5911987783038064 0.51607089611934509 1.9582931718905454 3.6843806613760535 0.78732221468817343 2.439826681846168 2.3422257928687031 3.7187191417979193 1.5871315295480597 4.5150811804924142 1515.7948867926843 1.5560334698238865 4.7538694563845629 4.6055051496950909 8.9795249694725481 34.972556262400758 10.120312255749011 0.70776150701567431 2.1322789876430761 0.4178701011114766 1.2556815501302476 0.89974070421885688 3.9933561257057599 0.76780016339034773 0.70847315358696494
leaf_count=29 18 20 27 86 30 75 21 79 131 24 145 113 283 88 144 8127 57 198 147 244 1373 276 36 119 34 49 43 177 44 36
internal_value=0 0.0353425 -0.00500589 0.0337919 0.0838371 -0.0111228 -0.0489937 -0.0909783 -0.000348284 -0.0401367 -0.0137343 0.0484759 -0.0625581 -0.0918815 -4.73764e-06 -0.000390562 0.0393758 0.0549657 0.0117495 -0.000654579 -0.0239351 1.59883e-05 0.0808685 -0.140645 0.00499297 -0.110956 0.089171 0.121861 0.0143458 0.107059
internal_weight=0 16.2032 8.84445 6.09423 7.35875 2.10407 2.44269 2.75022 1604.13 13.732 10.8752 4.78205 6.09317 5.30585 1590.4 1574.97 15.4305 13.8745 9.12059 1569.87 43.9521 1525.92 5.10062 2.8568 0.724525 1.77175 3.65154 5.25468 1.26132 4.39285
internal_count=12273 669 325 219 344 93 90 106 11604 835 653 258 395 371 10769 10223 546 489 291 10020 1617 8403 203 182 63 70 129 251 74 167
is_linear=0
shrinkage=0.3


Tree=265
num_leaves=31
num_cat=0
split_feature=227 128 123 245 142 66 122 207 36 92 244 276 153 44 35 23 290 26 59 16 186 73 130 108 37 111 288 240 244 221
split_gain=0.273211 0.321278 0.290329 0.289784 0.291913 0.25528 0.52447 0.372107 0.540933 0.555311 0.407451 0.432302 0.413424 0.378601 0.364729 0.470532 0.424528 0.430602 0.357186 0.354666 0.334874 0.321719 0.311006 0.401958 0.295792 0.26092 0.252954 0.283698 0.242568 0.218268
threshold=0.021559000015258754 -0.031858106149095497 -0.023871283512348431 -0.022195618195617727 0.012281511020144553 0.0065325000323354513 -0.045586999505758237 -1.0000000180025095e-35 -0.02973647740375714 0.11724599823355671 -0.026972545911948937 0.036724849362135902 -0.021104499697685197 -0.0014606034487596642 -0.085919376159441049 0.048411499708890859 0.011450999882072202 0.0085009160060392566 0.027562268782661759 -0.058803794368366392 -0.035781175005884673 0.14051750302314758 0.039514999836683252 -0.0084245504317561216 0.015466000419110002 0.025701054466097162 0.013496879815137535 0.048719794049137718 -0.081175502389669335 -0.067332502454519189
decision_type=2 2 2 2 2 2 2 2 2 2 2 2 2 2 2 2 2 2 2 2 2 2 2 2 2 2 2 2 2 2
left_child=5 29 26 -4 -5 7 19 8 10 13 12 -12 -1 -10 15 -9 17 -16 24 25 -11 -18 -20 -24 28 -7 -3 -28 -8 -2
right_child=1 2 3 4 -6 6 18 14 9 20 11 -13 -14 -15 16 -17 21 -19 22 -21 -22 -23 23 -25 -26 -27 27 -29 -30 -31
leaf_value=-0.057282338843855314 -0.16873238286986936 -0.14547871395894851 -0.11826028412488844 -0.047732422455114207 0.13118274577733399 -0.13645820642846795 0.0030743875699441097 -0.15467983128459883 0.03792224722733805 0.088607741669395598 -0.17552699744844738 0.046709400962822112 0.032994342274477381 0.12206630571891477 3.1224627695294496e-05 0.070384504773845946 -0.0999653546202975 0.061864377851325675 -0.15692665341602799 -0.12620243821235777 -0.17588538174920834 0.13537963036167827 -0.20576705607976986 0.16624669924468 -0.10625180971014235 0.13616600425351136 -0.16333445898166132 0.027924530265094127 0.14143401404873487 0.079298545102200621
leaf_weight=5.9004380137339529 0.36429740721359882 4.3217641394367083 1.3809472725006342 1.5750695292081194 1.7137016750857581 0.48404010820377041 1.8866433076327664 2.8985256826417745 10.111720096931098 0.63934674719348539 2.2331800322135673 1.2171141952567266 20.179250210541795 9.1832690556839225 1358.7703447041931 1.1749010337516663 5.6334085741582376 10.212402584787922 1.6527608136748315 6.1125726281607058 1.3208948037354264 0.57624304875207588 0.38875525117327925 0.79793113505002089 0.84106565153342661 0.90983680700264813 1.0327262163264097 2.1535294830100611 2.8831325390347029 2.5861076095607141
leaf_count=351 21 327 147 127 101 45 77 177 481 23 141 60 962 397 6370 47 397 595 143 466 51 25 33 29 63 79 94 159 141 144
internal_value=0 -0.0401469 -0.0616661 -0.00293059 0.0454961 0.000379514 -0.0373558 0.000800571 0.02602 0.0625141 -0.000247969 -0.0971316 0.0125696 0.0779698 -0.000128019 -0.0897644 0.000137491 0.000492491 0.0139056 -0.0950628 -0.0896191 -0.0781258 -0.0727965 0.044376 0.0577825 0.041494 -0.0981974 -0.0340662 0.0867071 0.0486733
internal_weight=0 15.1281 12.1777 4.66972 3.28877 1446.01 15.9567 1430.05 50.7852 21.2552 29.53 3.45029 26.0797 19.295 1379.27 4.07343 1375.19 1368.98 8.45029 7.50645 1.96024 6.20965 2.83945 1.18669 5.61084 1.39388 7.50802 3.18626 4.76978 2.95041
internal_count=12273 1120 955 375 228 11153 1076 10077 2466 952 1514 201 1313 878 7611 224 7387 6965 486 590 74 422 205 62 281 124 580 253 218 165
is_linear=0
shrinkage=0.3


Tree=266
num_leaves=31
num_cat=0
split_feature=140 159 216 72 216 170 261 114 194 296 47 115 85 128 227 226 267 259 71 213 100 265 108 275 179 177 71 209 183 226
split_gain=0.22487 0.588647 0.397589 0.524731 0.509048 0.502189 0.389683 0.235227 0.45671 0.304444 0.312034 0.231457 0.335088 0.394759 0.366658 0.32039 0.418291 0.573356 0.563354 0.364835 0.598307 0.318121 0.302978 0.289859 0.27945 0.219806 0.161755 0.158073 0.145284 0.126579
threshold=-0.10439600050449364 0.063034517242611152 -0.073391497135162284 -0.031910499557852696 -0.058527499437332091 0.022575000301003404 0.045112054665779132 -0.09209349751472469 0.038294524408041423 0.0021130000241100506 -0.039463414435123405 -0.082637500017881338 -0.012648500036448199 0.10869349911808966 -0.091184496879577581 0.0034534999867900508 -0.030944098558942586 0.024945999495685055 -0.12503674009336394 0.071676000952720614 -0.054158499464392641 0.073267497122287709 -0.025508581993620192 -0.0012705000117420498 0.028674504850655244 -0.018842040992873222 -0.037680743403972421 -0.0086185000836848484 -0.052153000608086544 0.029611499980092004
decision_type=2 2 2 2 2 2 2 2 2 2 2 2 2 2 2 2 2 2 2 2 2 2 2 2 2 2 2 2 2 2
left_child=1 2 3 -1 -4 -5 -6 8 9 29 -11 12 23 14 -14 19 17 -17 -18 21 -21 -13 -15 27 -25 -3 -12 -9 -8 -2
right_child=7 25 4 5 6 -7 28 11 -10 10 26 15 13 22 -16 16 18 -19 -20 20 -22 -23 -24 24 -26 -27 -28 -29 -30 -31
leaf_value=0.18940412753071842 0.18213227513878988 -0.21130980795238302 -0.16031845069653999 0.13530159590343291 -0.089549669010218338 -0.13447887515016935 0.029094506293827746 0.0087646332948652546 -0.12807562271990894 0.1689116853826709 0.060621629017840462 0.00027773602845095909 0.19428026484342298 -0.023361674851006424 -0.045480254698204603 0.030020294207620313 0.082074936525779837 -0.056607378273881272 -0.030395775085407001 0.086451052877211165 -0.12202196116593343 -0.0751972935194479 0.19031302838331726 -0.050072005831368581 0.17744223757841229 -0.0053620795324329888 -0.18485887050827943 0.15878948110745908 0.1742737949519112 0.056247203370585391
leaf_weight=3.6338170959934359 2.4447983775753523 1.0110271642915902 1.2818964351899906 1.3457520614610978 1.1271261239890016 1.1530882432125507 0.98165887454524536 0.76763355714501802 0.99083514057565469 0.57129617454484094 0.35915385268162925 1400.9583414617664 0.61727785691618819 0.98416761215776238 8.1968199060938769 31.253214880751329 4.1902595488354555 8.8159591329167579 92.231137082970235 8.7560388456186029 1.4432021861430246 5.0441573527641586 1.519092759117483 1.9734828773653164 0.64457985013723362 0.86584213189780612 0.73797944397665549 3.5794880276080221 1.6856057842960592 1.0183064665179697
leaf_count=66 53 22 29 43 34 30 32 33 30 18 17 6061 12 29 271 1014 150 344 3207 219 64 148 23 69 16 26 34 102 48 29
internal_value=0 0.0391925 0.065229 0.116634 0.00312677 0.0108116 0.0583451 -0.000296917 0.0583926 0.0943972 -0.0108791 -0.00052564 0.0330323 0.00117013 -0.0286891 -0.000920777 -0.014802 0.0109606 -0.025508 0.000417071 0.0569519 6.96274e-06 0.106306 0.0848036 0.00594311 -0.116301 -0.104499 0.132297 0.120842 0.145116
internal_weight=0 13.0858 11.2089 6.13266 5.07629 2.49884 3.79439 1577.1 6.12237 5.13153 1.66843 1570.97 18.2825 11.3174 8.8141 1552.69 136.491 40.0692 96.4214 1416.2 10.1992 1406 2.50326 6.96518 2.61806 1.87687 1.09713 4.34712 2.66726 3.4631
internal_count=12273 330 282 139 143 73 114 11943 181 151 69 11762 555 335 283 11207 4715 1358 3357 6492 283 6209 52 220 85 48 51 135 80 82
is_linear=0
shrinkage=0.3


Tree=267
num_leaves=31
num_cat=0
split_feature=108 278 76 166 78 200 246 232 191 145 260 113 38 217 133 264 281 240 26 257 29 223 16 111 59 24 40 237 85 7
split_gain=0.210581 0.300317 0.299971 0.35153 0.260431 0.25367 0.364035 0.294162 0.279825 0.276823 0.305763 0.275739 0.244321 0.335145 0.300927 0.618208 0.366417 0.342815 0.342388 0.331075 0.322348 0.285368 0.2506 0.239709 0.271348 0.226501 0.224932 0.204575 0.208723 0.200608
threshold=0.05066900141537186 -0.029934398242974909 -0.015697499737143499 0.0034529999829828505 -0.080574214803774344 -0.05798500031232829 -0.037268999963998746 0.0055450000800191506 -0.016764000058174095 -0.074674228364391373 0.14064899832010266 -0.027019581703049855 0.071520499885082203 0.10368699952960012 0.0035409999545663001 0.012422909740811857 0.043565500527620253 0.10795560643045353 -0.11134199798107143 -0.047075999900698592 0.057950265216319845 0.010057154991150955 -0.0019746909413284569 0.057665999978780705 0.047287499532103504 -0.04286581543994996 0.006399000063538501 -0.049640116108504273 0.010381000116467453 0.008180150149431074
decision_type=2 2 2 2 2 2 2 2 2 2 2 2 2 2 2 2 2 2 2 2 2 2 2 2 2 2 2 2 2 2
left_child=1 5 3 4 -2 6 7 -1 23 -8 -11 -9 14 21 16 17 18 -16 -3 -18 -17 22 -14 24 -7 -5 -4 -10 -29 -6
right_child=2 12 26 25 29 8 9 11 27 10 -12 -13 13 -15 15 20 19 -19 -20 -21 -22 -23 -24 -25 -26 -27 -28 28 -30 -31
leaf_value=-0.1387307187895892 -0.16278366674846967 0.092319385766137185 0.037831730114202204 0.090819825551077274 0.10919572911504843 -0.052954858472931417 -0.12472597672386933 -0.17665280160957605 0.13270877396952421 0.097976767182019323 -0.060397111940192046 0.059252250267905079 -0.0086848347498807953 -0.12765862885582904 -0.07684325649328895 0.10082577298059858 0.041563812087604755 0.0026857191116789131 0.00016032133508532955 -0.097834208691339311 -0.020516497995653964 0.17186033349596863 0.13202674952139831 -0.15791471156896084 0.15031837755987057 -0.13777425044665526 -0.13604128550769337 -0.05854488228819299 0.064015081408387894 -0.098774679433625945
leaf_weight=1.3473173425882148 0.44384853861993212 3.6368323777933247 0.82774779706960355 0.48983302288979791 3.0723053861875091 3.3093744801008143 0.59691610094160097 0.52060071041341904 1.5421044741524381 12.42951527671539 1.2033545453450631 3.1089676387491636 3.5325063804921224 0.83573768980568264 16.818871720970499 4.143993284815223 2.0408183108083904 6.8709314517327575 1519.32745732278 6.1673262812546437 3.7564090688429133 1.9245327503886072 1.6812417588662349 1.4776123872434253 0.71953151279012662 1.9161018339946165 3.5052732407639269 2.3091625005181395 2.7280327643020428 0.48306754563236598
leaf_count=55 31 128 43 28 121 141 27 26 60 455 27 153 229 44 1049 158 74 226 7937 243 163 64 56 77 33 136 186 145 128 30
internal_value=0 0.000288758 -0.0418631 -0.000622382 0.0538896 0.0293897 0.050816 -0.0190212 -0.00466075 0.0752417 0.0839973 0.0254156 -0.000290997 0.0520881 -0.000558262 -0.0295411 3.96947e-05 -0.0537769 0.000380397 -0.0631752 0.0431311 0.0731325 0.0366895 -0.0545581 -0.0166518 -0.091234 -0.102826 0.0371007 0.00783086 0.0809388
internal_weight=0 1602.03 10.7382 6.40516 3.99922 31.2925 19.2067 4.97689 12.0858 14.2298 13.6329 3.62957 1570.74 7.97402 1562.76 31.5902 1531.17 23.6898 1522.96 8.20814 7.9004 7.13828 5.21375 5.50652 4.02891 2.40593 4.33302 6.5793 5.0372 3.55537
internal_count=12273 11698 575 346 182 1327 743 234 584 509 482 179 10371 393 9978 1596 8382 1275 8065 317 321 349 285 251 174 164 229 333 273 151
is_linear=0
shrinkage=0.3


Tree=268
num_leaves=31
num_cat=0
split_feature=263 19 57 7 175 277 195 278 224 167 87 258 256 288 140 40 166 173 220 51 84 251 211 73 14 79 208 224 103 150
split_gain=0.247456 0.421126 0.522812 0.470455 0.443268 0.349749 0.347632 0.434049 0.337304 0.321805 0.282565 0.255707 0.354405 0.333275 0.298223 0.453169 0.409465 0.431749 0.49529 0.355242 0.343471 0.392795 0.255755 0.254865 0.287297 0.2396 0.237324 0.238657 0.229168 0.212737
threshold=-0.058070216739049212 0.12147200107574462 -0.067185494547603378 -0.087695501744747134 0.024297500029206252 0.031387500464916153 0.020119000226259204 -0.0049870569615599065 -0.081987500190734794 0.030060349034583957 0.0029830000130459003 -0.13254399597644803 0.032220501452684354 -0.03736549988389009 -1.0000000180025095e-35 -0.0024650000268592498 -0.09359649941325178 -0.012200499884784149 0.033754737977081152 -0.023203507975215174 -0.077100001275539329 -1.0000000180025095e-35 -0.026022999547421898 0.077785701738031635 0.034261001273989657 0.036088498309254612 0.0098508150519247776 -0.13923599570989603 0.0099593884756078842 0.029197500087320801
decision_type=2 2 2 2 2 2 2 2 2 2 2 2 2 2 2 2 2 2 2 2 2 2 2 2 2 2 2 2 2 2
left_child=1 3 -3 26 8 9 7 -7 -4 10 -5 12 -2 -14 16 28 23 19 -19 -18 -17 -22 -15 24 -13 -11 -1 -28 -16 -10
right_child=11 2 4 5 -6 6 -8 -9 29 25 -12 14 13 22 15 20 17 18 -20 -21 21 -23 -24 -25 -26 -27 27 -29 -30 -31
leaf_value=-0.17343840884717079 -0.11023398111767141 -0.18694990345256235 0.18238640908295203 -0.1559971519638283 -0.15011352256457738 -0.18069215612935313 -0.12785129855255623 0.083238755739023201 -0.18868732716777656 0.12364386103328219 0.086591191264221573 0.061525606919731822 -0.1709550589357289 0.11179125849344755 0.010853754273814374 -0.11692240553685385 -0.098751241107956675 0.077506987672923064 -0.0038528531356331972 0.011887144691571035 0.058107401877820687 -0.00031062822147277016 -0.054005129594783381 -0.19008897267932381 -0.11138395795552336 -0.078527149021417192 0.19048464508901927 -0.098503714550780233 -0.15852695661072722 0.11006710119286407
leaf_weight=3.535726635200267 4.4362167869003297 0.73280302169587219 2.6326502081064973 1.1758455018461971 0.59948577808245307 0.77134839856444193 3.7873020132356032 2.0543748656491516 0.41457522078417186 2.9203541801398392 0.68323246032014129 1.676430660838377 0.75152001241804089 2.2081694364824216 1.0183847429507289 2.2593815852087564 2.7758989456633563 20.741036832601825 9.9717301359123649 44.207213693968697 10.44045973865286 1326.5364556244022 1.3488839312194616 1.1611572027904911 1.7864176704315466 0.6439123983727767 0.34239467792212952 1.0335431577695997 2.4446074743900681 0.44452814603573643
leaf_count=226 347 47 70 76 34 55 281 97 24 146 38 92 49 123 78 191 198 1047 437 2341 551 5110 106 62 96 51 9 76 190 25
internal_value=0 -0.0317965 0.046408 -0.0540564 0.0882059 -0.0221273 -0.0684383 0.0111925 0.129122 0.0343428 -0.0668432 0.000428546 -0.0507148 0.0105676 0.000742393 -0.000332202 0.0182698 0.0234315 0.0510913 0.00535031 -5.1943e-05 0.000145558 0.048919 -0.0684597 -0.0276752 0.0871201 -0.132301 -0.0265905 -0.108716 -0.034102
internal_weight=0 21.7721 4.82404 16.948 4.09124 12.0364 6.61303 2.82572 3.49175 5.42334 1.85908 1433.76 8.74479 4.30857 1425.02 1342.7 82.3199 77.6959 30.7128 46.9831 1339.24 1336.98 3.55705 4.62401 3.46285 3.56427 4.91166 1.37594 3.46299 0.859103
internal_count=12273 1255 200 1055 153 744 433 152 119 311 114 11018 625 278 10393 6120 4273 4023 1484 2539 5852 5661 229 250 188 197 311 85 268 49
is_linear=0
shrinkage=0.3


Tree=269
num_leaves=31
num_cat=0
split_feature=223 202 21 250 64 22 120 124 236 131 23 256 149 74 53 232 40 217 118 78 53 247 83 163 227 92 105 248 192 176
split_gain=0.214369 0.279382 0.252821 0.196308 0.521058 0.324427 0.351201 0.386398 0.311 0.631017 0.630053 0.392352 0.37298 0.350772 0.406561 0.360194 0.310916 0.335454 0.296705 0.438154 0.612306 0.546276 0.358323 0.52651 0.337267 0.296197 0.263888 0.225659 0.215347 0.203527
threshold=-0.10889479815506141 0.022454002449351817 -0.082463336817652486 -0.003253982064612704 -0.049840500578284243 -0.0068330001085995995 -0.046282147390432453 -0.033425999805331195 0.00069650000659740011 0.0029309383840235691 0.0024940000148489503 1.0000000180025095e-35 -0.016276211449676416 -0.11504385912420227 0.034233499318361206 0.0035640000132843006 0.01747823077750019 0.019906642562194859 -0.040701499208807897 -0.039409064492976133 -0.0083119780576916599 0.0059699998237192015 0.077098499983549076 -0.011430326645605228 -0.098285000771284034 0.051061999052762951 -0.011091493280170801 -0.080462999641895239 -0.016254999674856597 -0.051129000261425944
decision_type=2 2 2 2 2 2 2 2 2 2 2 2 2 2 2 2 2 2 2 2 2 2 2 2 2 2 2 2 2 2
left_child=1 2 -1 4 25 16 7 -7 18 10 11 -10 -12 14 -11 -15 29 -18 19 20 -5 -21 24 -24 -20 26 -2 -28 -8 -6
right_child=3 -3 -4 8 5 6 28 -9 9 13 12 -13 -14 15 -16 -17 17 -19 22 21 -22 -23 23 -25 -26 -27 27 -29 -30 -31
leaf_value=-0.14707198897759657 0.084029386277897397 0.14594067951743525 0.053959233839183239 0.067103455906179776 -0.098088049911210687 0.090685949651642561 -0.050789718065941909 -0.10865988974609055 0.22940785105688394 0.00403749739648805 0.13000933131261269 0.070331125271317865 -0.026196639642485434 0.048739463311791617 0.11219280060177354 -0.022789179250576216 -0.13480070567157285 0.013724828275851621 -0.086151521765442995 0.033117444888636952 -0.11605668240490655 -0.14086618690722816 0.087147667652332256 -0.027460032464207942 -0.00031984306803198233 0.11706791238728156 0.084904571168044812 -0.1182279480860858 -0.1580922826837759 0.12801815284153167
leaf_weight=0.7566382018849257 1.7307875698897985 2.0838300621544477 2.2003210433758786 2.0456130281090728 0.44089968921616707 1.7896817610599103 2.5435064975463346 1.7124619458336408 3.0218317385297251 7.4994095314759743 1.9440642556874079 2.5926519172498956 4.7058513087686151 7.9831604324281207 5.3663962195860222 30.709592173843703 2.2319880205759546 3.5379759825300425 4.1320204071234903 9.8711196786025521 8.339223537725049 1.9440723584266368 9.8611214818956778 5.6888558434438883 1444.2883794718509 2.8957945286529139 0.65805303538218129 1.9527935030928376 4.9772764187073228 1.9123781311791441
leaf_count=34 67 103 127 64 20 67 146 92 51 249 59 83 165 267 175 1247 109 161 143 343 309 76 256 189 7079 96 29 104 292 71
internal_value=0 0.0618084 0.00251858 -0.000156537 -0.0258166 -0.0517374 -0.0852614 -0.00678925 0.000280242 0.0207863 0.0819482 0.15595 0.0194693 0.00623754 0.0491497 -0.00803126 -0.00624668 -0.0437291 -0.000600382 -0.0350226 -0.0799777 0.00449017 -7.8395e-05 0.0452192 -0.000564702 0.0427553 -0.00680989 -0.0670292 -0.121803 0.0856559
internal_weight=0 5.04079 2.95696 1576.38 26.3836 19.1462 11.0229 3.50214 1549.99 63.823 12.2644 5.61448 6.64992 51.5586 12.8658 38.6928 8.12324 5.76996 1486.17 22.2 10.3848 11.8152 1463.97 15.55 1448.42 7.23743 4.34163 2.61085 7.52078 2.35328
internal_count=12273 264 161 12009 1254 958 597 159 10755 2296 358 134 224 1938 424 1514 361 270 8459 792 373 419 7667 445 7222 296 200 133 438 91
is_linear=0
shrinkage=0.3


Tree=270
num_leaves=31
num_cat=0
split_feature=245 252 229 284 159 123 15 50 114 98 259 24 128 19 71 209 84 268 136 77 278 88 217 70 225 75 220 105 151 162
split_gain=0.207604 0.405988 0.570899 0.529651 0.480735 0.480605 0.453543 0.603125 0.41089 0.412962 0.406443 0.400793 0.380369 0.387105 0.37288 0.354483 0.547164 0.450838 0.407361 0.452292 0.430098 0.369282 0.367263 0.34004 0.326803 0.314566 0.349741 0.445645 0.417373 0.384041
threshold=-0.035054400925466515 0.027579000219702655 -0.032294999808072995 0.064922927447590401 0.049448719889016626 -0.12639299780130378 0.025141857152364812 0.070914000272750813 0.054172500967979355 0.014542397497851122 -0.030168126122264105 -0.0056141588353001521 0.066142499446868855 0.058303499594330753 -0.015181044582135558 0.059989056962563479 -0.094747502356767585 -0.071574260844012846 -0.011107000056654199 0.0052545000798999509 0.056206999346613856 0.054274501278996405 0.0060217636778800241 -0.060964535912029556 -0.067930001765489481 -0.035695515172952975 0.037502814961051019 -0.0084993441400215454 0.020587197876820059 -0.014445499982684797
decision_type=2 2 2 2 2 2 2 2 2 2 2 2 2 2 2 2 2 2 2 2 2 2 2 2 2 2 2 2 2 2
left_child=1 11 4 8 5 -3 14 -8 9 -4 -7 24 13 -13 -5 25 21 22 20 -20 -19 -17 -18 -15 -1 -2 27 28 -27 -28
right_child=15 2 3 6 -6 10 7 -9 -10 -11 -12 12 -14 23 -16 16 17 18 19 -21 -22 -23 -24 -25 -26 26 29 -29 -30 -31
leaf_value=-0.019591391329303671 -0.087010976317186323 0.17964673115584964 -0.0012821622240897 -0.11220951097296263 0.14434339276989011 -0.12885254833691848 -0.049110710967976909 0.18883710994063863 -0.091529395473794004 0.1000696535997728 0.026772603279605608 -0.13810066018375497 0.085446374729051922 -0.14317927209310824 0.029647013598144929 -0.13243277526501854 0.07120954349099376 0.016846253793175982 -0.0028823394734236395 -0.12940207694585709 -0.11410461563064496 0.1418468320899943 -0.15798402050682658 0.097000002623637907 0.087849420079728874 -0.086709592229918878 -0.077380341350694631 6.7054982644350599e-05 0.031777927748870921 0.045510398567135298
leaf_weight=3.05979483792908 3.7328913069595719 1.4060678095556784 11.001357182205544 10.271767317681224 3.693041081831324 1.9755938036832938 3.241745388833805 1.3612951257964594 2.8410884062177493 5.391285928344586 6.4137819431489334 2.6512043558759606 2.4530336383904796 0.75431744335219297 1.9909183406853124 0.53740202961489503 0.73948084429139171 16.908976698076007 4.5063452759059164 5.8367588147521019 2.6050950997450846 2.4830907213035971 4.2207604831783101 1.7881247350305782 15.231474226617138 9.8744114180153684 2.5247560517455012 1448.4214471615851 3.670054913556668 24.474612944002729
leaf_count=119 216 24 491 343 98 85 108 26 116 216 189 185 121 36 93 22 29 501 165 231 96 67 190 97 482 629 155 5924 194 1025
internal_value=0 0.0153525 -0.0005553 -0.0202316 0.0521048 0.0173294 -0.0590373 0.0212596 0.0137964 0.0320509 -0.00987519 0.0457648 -0.0119117 -0.0578953 -0.0891783 -0.000759576 -0.0294357 -0.0400613 -0.0261471 -0.0742792 -0.000635463 0.0930474 -0.123815 0.0257412 0.0698765 -3.26759e-05 0.000185382 -0.000439446 -0.0546038 0.0340187
internal_weight=0 75.5259 49.5879 36.0995 13.4885 9.79544 16.8657 4.60304 19.2337 16.3926 8.38938 25.9379 7.64668 5.19365 12.2627 1530.54 37.8379 34.8174 29.8572 10.3431 19.5141 3.02049 4.96024 2.54244 18.2913 1492.7 1488.97 1461.97 13.5445 26.9994
internal_count=12273 2829 1789 1393 396 298 570 134 823 707 274 1040 439 318 436 9444 1301 1212 993 396 597 89 219 133 601 8143 7927 6747 823 1180
is_linear=0
shrinkage=0.3


Tree=271
num_leaves=31
num_cat=0
split_feature=229 260 157 89 212 199 215 140 291 207 160 262 281 50 232 49 87 82 101 201 243 42 117 242 95 36 200 255 203 275
split_gain=0.237543 0.450624 0.456749 0.366959 0.373955 0.444716 0.360574 0.417079 0.357989 0.350651 0.330114 0.519157 0.631175 0.488242 0.461262 0.449516 0.550913 0.525128 0.34633 0.323344 0.351353 0.317829 0.352201 0.314309 0.308784 0.307129 0.302864 0.335645 0.290305 0.290102
threshold=-0.025023396648881164 0.10736699774861332 0.042043318409692304 -0.038171499967574997 -0.093120115075992896 -0.04734400101006029 -0.011012999806553099 -0.0098712920983270048 0.022153317801186082 -0.020271499641239598 0.040692143190505743 -1.0000000180025095e-35 0.014540999662131002 -1.0000000180025095e-35 0.0098871992613426985 0.030181000009179053 -0.029748000204563096 -0.020614999346434997 -0.0089524998329579483 -0.040583999827504144 -0.08969349786639208 -0.050956956876547964 0.038670999929308857 -0.0057153421489527919 0.035847629812693793 -0.056649549875741688 -0.10722149908542629 -1.0000000180025095e-35 0.094814497977495166 -0.059791343856535097
decision_type=2 2 2 2 2 2 2 2 2 2 2 2 2 2 2 2 2 2 2 2 2 2 2 2 2 2 2 2 2 2
left_child=1 6 3 24 -5 -6 8 25 -1 -9 11 12 15 14 -13 16 -2 -17 -14 -12 -21 -22 -23 -10 -3 29 -15 -28 -27 -8
right_child=10 2 -4 4 5 -7 7 9 23 -11 19 13 18 26 -16 17 -18 -19 -20 20 21 22 -24 -25 -26 28 27 -29 -30 -31
leaf_value=-0.11039822775848758 0.0028879929836166528 -0.20632446982457134 -0.1815218142229458 -0.15184525194695006 -0.10406836610006932 0.077361866439449076 0.11296079189968782 0.048017132347934401 0.10105021333376379 -0.080862508885846743 -0.11518674406505477 -0.20311210084646603 -0.006410061276707831 -0.18507356870792266 -0.024178525595661336 0.10024091806249126 0.10104705246747825 -0.0055717664532669705 -0.12766842368271453 0.14420993120633474 0.06900428058352602 -0.11062690419808165 0.063320357048983936 -0.095681024171701518 0.017926590777408574 0.088852903676717776 0.061896522860725091 -5.4702992697122345e-05 -0.092562291568371091 -0.094680799826830073
leaf_weight=4.6394729183812187 7.3598952926986412 1.7967881551594467 2.6146242862087083 1.2987659439822881 1.6990940490286437 4.2758326742332438 0.84838288853643495 2.9394501261122059 1.8197608375776329 5.3728346336565647 4.210313336156104 2.0196877366470281 9.0990295875217253 0.79356437415117298 3.6215953107675887 5.2545136147273324 17.10679575852555 21.464294530687766 2.7637694362347238 1.1022432263707731 1.9349402112893574 4.593916734753293 1.3570772256352936 1.2214908822934374 0.79808039328781877 9.7073135859536688 7.9182056334102517 1316.8926382838254 0.86457496973162129 2.1158429872011775
leaf_count=324 356 89 177 50 97 178 67 195 90 471 293 109 551 103 295 272 831 1043 150 46 129 327 83 80 35 561 592 4469 49 161
internal_value=0 -0.0222498 -0.070036 -0.0404985 -0.00594567 0.0257684 -0.00204857 0.0176069 -0.0579601 -0.0352872 0.000642586 0.00108959 0.0276899 -0.000170205 -0.0882402 0.0421403 0.0715195 0.0152373 -0.0346606 -0.0465795 -0.0144419 -0.0366172 -0.0709596 0.0220349 -0.137354 0.0500882 0.000204589 0.000315571 0.0740167 -0.0352523
internal_weight=0 42.0123 12.4832 9.86856 7.27369 5.97493 29.5291 21.8484 7.68072 8.31228 1407.49 1394.29 63.0483 1331.25 5.64128 51.1855 24.4667 26.7188 11.8628 13.1985 8.98818 7.88593 5.95099 3.04125 2.59487 13.5361 1325.6 1324.81 10.5719 2.96423
internal_count=12273 2624 626 449 325 275 1998 1504 494 666 9649 8771 3203 5568 404 2502 1187 1315 701 878 585 539 410 170 124 838 5164 5061 610 228
is_linear=0
shrinkage=0.3


Tree=272
num_leaves=31
num_cat=0
split_feature=298 45 253 51 230 200 251 252 136 221 273 169 30 46 95 90 97 180 82 58 218 273 35 144 5 63 68 229 260 233
split_gain=0.198812 0.391131 0.37404 0.358711 0.3976 0.409185 0.359906 0.501098 0.360708 0.348837 0.393972 0.416485 0.37467 0.329303 0.319124 0.29192 0.300349 0.289005 0.35878 0.278127 0.270022 0.268623 0.38901 0.314215 0.573939 0.276935 0.254682 0.237334 0.232597 0.229071
threshold=0.051983405856180213 0.046026499941945007 0.048897000029683058 0.05210400000214576 0.062349956572084066 -0.097582999616861274 0.063310500234365408 0.10916300117969512 0.02075945132716223 -0.037681000307202291 0.055679355349390038 0.062606022535333747 -0.014890846689164081 0.034854998812079353 -0.073564467868443506 -0.01833732901074445 0.023479736206290073 0.099423501640558215 -0.0099569996818899484 -0.031169000081717895 0.028403999283909753 -0.074778500944375936 0.0086870392392023339 -0.10296550020575519 -0.0099194226906738538 -0.023793499916791847 -0.065454501658677985 0.040643000975251156 0.019483927166651687 0.025343500077724405
decision_type=2 2 2 2 2 2 2 2 2 2 2 2 2 2 2 2 2 2 2 2 2 2 2 2 2 2 2 2 2 2
left_child=2 3 17 4 5 20 7 8 -5 15 11 12 -11 -6 -7 -4 -17 21 28 -20 -2 22 25 24 -23 -1 -25 -8 -19 -12
right_child=1 -3 9 6 13 14 27 -9 -10 10 29 -13 -14 -15 -16 16 -18 18 19 -21 -22 23 -24 26 -26 -27 -28 -29 -30 -31
leaf_value=0.14950453058047972 -0.050672832287537474 -0.10800445702193906 -0.067247645867523062 -0.07793555904154513 0.05403021945572304 -0.14225199511477776 0.11664872424186036 0.14475644095816265 0.10173545990201266 -0.017786304675726824 -0.046152004002040031 0.10417668999938147 -0.13409410832123828 -0.18485976574801558 0.099573804802989538 0.15266946035857348 -0.079382702854737849 0.090279368516871655 -0.081543373876750272 0.12054417918571608 0.13276851973399151 -0.12848579926006795 -0.10578474506894657 0.018076100067127204 0.028238246671587624 -0.0040044909123822846 -0.0010439519741046344 -0.085227121044944357 -0.11495857816281375 0.15698926228419322
leaf_weight=3.2455377415753901 3.5079437542008263 1.9855612836545322 1.6204602806828914 8.6172878150828165 0.99307754728943054 0.50872535305097777 2.729823080822825 1.2503167433897022 1.1385031795361999 3.5708498430903992 0.95851720867358325 0.98376111756078977 8.2560817235789692 1.0886214489582924 14.200396513479063 1.9932623832719429 0.67097450653091062 0.75052496965508941 0.69684341107495118 5.0894766131968918 0.90940295858308662 4.6794181103541632 1.0043046623468397 65.577940972390934 3.8195357210643106 1.5689880538266141 1428.3524238429382 0.64866699208505441 1.4710377648007122 1.0434556170075664
leaf_count=69 150 88 72 365 31 19 84 43 38 165 53 34 394 35 553 64 29 42 25 203 36 183 49 2069 152 79 7030 25 64 30
internal_value=0 0.0215799 -0.000506436 0.0288089 0.0536122 0.0671636 -0.00776033 -0.0340516 -0.0569679 -0.0422294 -0.0640361 -0.0833772 -0.0989778 -0.0708969 0.0912101 0.0331586 0.0942283 1.90681e-05 0.0568605 0.0962069 -0.0129076 -0.000282725 0.0640506 -0.000531885 -0.0580521 0.099478 -0.000204653 0.0778887 -0.0456217 0.059728
internal_weight=0 37.5783 1535.35 35.5928 21.2082 19.1265 14.3846 11.0061 9.75579 19.0974 14.8127 12.8107 11.8269 2.0817 14.7091 4.2847 2.66424 1516.26 8.00788 5.78632 4.41735 1508.25 5.81883 1502.43 8.49895 4.81453 1493.93 3.37849 2.22156 2.00197
internal_count=12273 1467 10806 1379 824 758 555 446 403 841 676 593 559 66 572 165 93 9965 334 228 186 9631 197 9434 335 148 9099 109 106 83
is_linear=0
shrinkage=0.3


Tree=273
num_leaves=31
num_cat=0
split_feature=108 109 56 278 61 187 63 147 251 160 123 124 66 119 281 257 166 56 68 154 20 122 224 106 251 259 70 21 39 169
split_gain=0.212117 0.317813 0.291693 0.247946 0.340225 0.215809 0.253594 0.189573 0.25231 0.233203 0.302686 0.244486 0.503054 0.429481 0.372323 0.383909 0.327502 0.326749 0.23298 0.242054 0.195926 0.190978 0.182444 0.181447 0.156548 0.139176 0.134514 0.136727 0.11933 0.0867617
threshold=-0.09240099787712093 0.021915999241173201 -0.043095499277114847 0.011685397099172526 -0.019659000448882549 -0.047088999301195096 0.0541265127840116 0.06559200212359427 -0.043233999982476193 0.053774001076817457 0.02659140898100577 -0.033055000007152495 -0.088370286992746003 -0.03873549960553644 -0.073632501065730979 -0.036050001159310244 -0.046741361651330866 -0.079101502895355183 0.035213001072406706 0.034865999594330753 -0.025357631085878646 -0.074595941598613935 -0.045282118657265315 0.050221955398103417 -0.028537272784468923 0.0035345000214874003 -0.0057779999915509991 -0.018793999217450546 -0.089021070756274925 -0.060993500053882543
decision_type=2 2 2 2 2 2 2 2 2 2 2 2 2 2 2 2 2 2 2 2 2 2 2 2 2 2 2 2 2 2
left_child=1 2 -1 29 -5 24 -7 9 21 11 18 14 13 -13 16 -16 -2 -14 19 -11 -10 -9 28 -4 -6 -24 27 -12 -22 -3
right_child=7 3 23 4 5 6 -8 8 20 10 26 12 17 -15 15 -17 -18 -19 -20 -21 22 -23 25 -25 -26 -27 -28 -29 -30 -31
leaf_value=-0.14442932079041876 -0.18107615381753295 0.052473280042999108 0.11444767136589834 0.17591232879138627 -0.073863333026117597 -0.14321247984500146 0.11726284824274827 0.063884313871442902 -0.069368739586566974 -0.085646904738908652 0.13933776600017928 -0.015859329807545165 0.044304829715787537 -0.10883622504301455 0.06793402302120978 0.011253086837291891 -0.0098498202357195381 -0.00073400404727656939 0.14451598015880962 0.015895820516790574 -0.014046529158765223 -0.18190395966560008 0.13963748408190405 -0.13215753292593205 0.17513163719159727 -0.11760119648164505 0.14943335483174869 -0.20250704235870226 0.17945709129557777 0.18198366001401609
leaf_weight=1.2920132394065151 1.4881390591617671 0.60466017224825952 1.066846027795689 1.0920099519717044 0.34408299293136224 1.419375220313668 0.44088347279466678 0.53234919160604477 0.5794873895792988 9.2741821989184192 0.18913552636513475 12.658118814521005 14.641971891766842 6.9133909401716656 13.571556639275512 51.815195294257137 3.0988226839835979 1465.6046909688739 0.5099824337812614 2.7361294996808292 0.32637487433385137 0.6111380972433833 0.32742617884650771 0.35884946823352937 0.66929846862331055 0.44869031160487793 1.026247596455504 0.23757108610516298 2.3668732754304074 2.023472365050111
leaf_count=54 64 33 72 46 19 77 23 18 35 666 13 391 560 300 467 1942 131 6813 23 138 17 24 16 26 34 26 40 31 96 78
internal_value=0 0.0451444 -0.0411859 0.0807264 0.0333679 -0.0208004 -0.0814795 -0.000267416 0.0569617 -0.00045504 -0.0390397 -0.000111584 -0.000920262 -0.0487023 0.0172216 0.0230177 -0.0654004 -0.000288499 -0.0540811 -0.0625139 0.0921061 -0.0674775 0.119077 0.0523768 0.090588 -0.00907795 0.0905738 -0.0509861 0.156008 0.152187
internal_weight=0 9.31149 2.71771 6.59378 3.96565 2.87364 1.86026 1588.96 5.19234 1583.77 13.9732 1569.79 1499.82 19.5715 69.9737 65.3868 4.58696 1480.25 12.5203 12.0103 4.04885 1.14349 3.46936 1.4257 1.01338 0.776116 1.45295 0.426707 2.69325 2.62813
internal_count=12273 462 152 310 199 153 100 11811 232 11579 911 10668 8064 691 2604 2409 195 7373 827 804 190 42 155 98 53 42 84 44 113 111
is_linear=0
shrinkage=0.3


Tree=274
num_leaves=31
num_cat=0
split_feature=141 154 144 253 3 113 41 36 240 213 51 156 37 83 176 121 294 61 258 142 282 120 59 122 155 283 272 208 296 290
split_gain=0.225739 0.31118 0.266376 0.248354 0.230658 0.213934 0.451301 0.41726 0.5414 0.420246 0.418401 0.38321 0.358396 0.326696 0.279875 0.271969 0.268929 0.267078 0.233385 0.198256 0.184927 0.191634 0.184389 0.182683 0.165222 0.16061 0.149798 0.136518 0.135005 0.124743
threshold=0.073860259842769574 0.042968464074230571 -0.087730341292665784 0.025446499697864004 -0.098865406766463049 1.0000000180025095e-35 0.058452500030398355 -0.050841500982642139 0.058803287600199698 0.04950249940156936 0.072193000465631471 0.12592495328730088 -0.051216999068856142 -0.030693162483474448 -0.086052000522613428 -0.00049482003958033389 0.0096800001338124015 0.097161501646041856 -0.046131851913945331 -0.056663735544329373 -0.017767999321222246 -0.013009238476837857 -0.026151999831199594 -0.0061968309247573553 0.003481374059504667 0.069773054035380574 0.080287141098410245 0.011603499762713852 -0.039817500859498943 0.013869999907910753
decision_type=2 2 2 2 2 2 2 2 2 2 2 2 2 2 2 2 2 2 2 2 2 2 2 2 2 2 2 2 2 2
left_child=4 2 3 28 20 6 14 9 13 11 -10 -7 18 -9 22 -14 -16 -11 -8 25 27 -22 -6 24 -3 26 -4 -1 -2 -21
right_child=1 23 19 -5 5 7 12 8 10 17 -12 -13 15 -15 16 -17 -18 -19 -20 29 21 -23 -24 -25 -26 -27 -28 -29 -30 -31
leaf_value=-0.15441925568317577 0.074252543114088812 -0.15865178447311742 0.17125657065791991 0.15635558892505122 0.036812478734956175 0.011440559059159515 0.16885884663402054 -0.042583918133481793 0.030405837944818364 -0.12679084311024469 -0.036431204448413884 -0.12365197997894554 0.009846316376585066 0.080583884030697828 -0.00021487362476541448 -0.17104582026167411 0.061392828347844403 0.14233288331143534 -0.094248709882522541 -0.18421440643861195 0.11644739041786192 -0.17346729762769617 -0.13818621742146264 0.17651879278519686 0.083355187146264068 -0.16207339610358987 -0.14136348976712942 0.01579150412540415 -0.20128732572524247 -0.028721959092584848
leaf_weight=2.0233083395032745 0.25513269676594064 0.44720644692642941 0.4743327658507035 0.69113502207619604 0.72594986367039416 22.543571930349579 0.70136204134905711 2.1602003600455673 24.955321452554927 3.7794467473795512 12.729180464169074 2.0627188631915478 0.97571306923055079 18.856904876109184 1330.0292796063313 3.2057259467546819 6.4076329958770648 0.36382461911125563 0.53477966669015564 2.7532434723616461 0.71497305152297486 0.28779726475477108 2.1371955662434621 0.70799419168906741 0.58736206367029808 0.38907151890452951 0.19451801838295069 0.53655426665500261 0.42936830940743653 0.55854663643549418
leaf_count=205 30 49 48 50 46 1385 32 168 1268 339 596 135 69 1042 5189 231 423 29 31 289 47 35 212 45 59 32 29 58 33 69
internal_value=0 -0.0519489 -0.0856297 0.0294996 0.000275625 0.000465277 -0.000469766 0.0148432 0.0293454 -0.0147676 0.00782943 0.000115897 -0.0868819 0.0679243 -0.000120221 -0.128836 8.05085e-05 -0.103159 0.0550332 -0.121874 -0.0759639 0.0332412 -0.0938153 0.0590991 -0.0212556 -0.00881283 0.0803391 -0.118743 -0.0985859 -0.15799
internal_weight=0 7.48791 5.74535 1.37564 1435.73 1432.17 1344.72 87.4512 58.7016 28.7496 37.6845 24.6063 5.41758 21.0171 1339.3 4.18144 1336.44 4.14327 1.23614 4.36971 3.56263 1.00277 2.86315 1.74256 1.03457 1.05792 0.668851 2.55986 0.684501 3.31179
internal_count=12273 733 580 113 11540 11195 6233 4962 3074 1888 1864 1520 363 1210 5870 300 5612 368 63 467 345 82 258 153 108 109 77 263 63 358
is_linear=0
shrinkage=0.3


Tree=275
num_leaves=31
num_cat=0
split_feature=199 291 53 270 207 123 201 131 251 255 277 2 224 143 226 129 129 262 226 223 133 194 94 234 232 91 251 187 48 122
split_gain=0.188669 0.224901 0.229945 0.248463 0.205505 0.222822 0.20317 0.396076 0.318914 0.402081 0.409939 0.386149 0.413483 0.355932 0.318133 0.372743 0.317984 0.313322 0.308984 0.299966 0.374174 0.292517 0.456037 0.479389 0.426497 0.397454 0.297999 0.28953 0.244782 0.241767
threshold=0.042695499956607805 0.04612600058317181 -0.022319500334560847 -0.054456727802732745 0.039591001346707309 -0.0023140000412239996 -0.029537499882280795 0.085285238276410283 -0.077316999435424735 -0.019672890899672332 0.055862000212073305 0.0063535000663250503 -0.15113999694585792 0.061408501118421506 0.022747311695619388 -0.026190152321854981 -0.079975001513957936 0.029731500893831257 0.0030411685014107297 0.023217000067234001 -0.044625414729029741 0.01155646174703113 -0.053815498948097139 0.02712305054925231 -0.017762000672519148 -0.088819999247789341 -0.033120442840799909 0.017296499572694257 -0.057190999091550898 -0.064017961320232644
decision_type=2 2 2 2 2 2 2 2 2 2 2 2 2 2 2 2 2 2 2 2 2 2 2 2 2 2 2 2 2 2
left_child=6 2 -2 -4 -5 -6 8 21 19 10 18 12 -11 -13 17 28 -12 -9 -10 20 -1 22 23 -8 -23 -26 -24 -17 -16 -19
right_child=1 -3 3 4 5 -7 7 14 9 11 16 13 -14 -15 15 27 -18 29 -20 -21 -22 24 26 -25 25 -27 -28 -29 -30 -31
leaf_value=-0.041739185060774356 0.1679394563821168 -0.081525160567534435 -0.10838300046978271 0.085062605220243212 -0.11594252682583833 0.14142221341517727 0.054023012818259365 0.11357736838819292 0.029553791043110417 0.13408823003004172 0.14574111836631948 0.049120726399273208 -0.028408685885549588 -0.069365547080261533 -0.07394467726006286 -0.090551226333200854 -0.12495289408413454 0.093009641501794305 -0.054725122184975189 -0.095466740257481975 0.17561358180359776 0.07381190644852173 -0.058901131220675543 -0.067214105091139634 0.12180727311203482 -0.049681343774803731 0.00025292520095162793 0.12182110778373767 0.14314788208155935 -0.18513854874632804
leaf_weight=1.0409543754067274 1.4166728917043645 1.1947990277549241 0.93670673249289205 5.1368566586170354 1.0523667704546822 0.42504837876185764 23.886629807275316 6.9207320694113132 6.0096643564902541 1.4669942834880192 0.41372161032631982 15.32195882627275 35.847319411521312 2.6810439109103745 0.61526970472186837 3.4267902519204645 6.9771039499828467 0.52253627195023 11.232893940534266 0.82161255553364743 2.2613967719953498 3.2306057387031641 7.707097308302763 3.3465985708171493 1.2769236091408007 25.641415431018682 1388.9370971388489 0.69491201930213709 1.9456100288662126 0.60906702803913482
leaf_count=34 56 64 47 231 67 14 654 214 229 30 12 594 1377 81 20 159 318 22 539 31 61 116 267 157 31 976 5743 27 66 36
internal_value=0 0.0407419 0.0570321 0.0362243 0.0567034 -0.0418994 -0.00026804 0.000552964 -0.0146108 -0.0188071 -0.0506884 -0.00461004 -0.0220202 0.0314755 0.0494911 0.00110271 -0.1098 0.0896482 -0.0253508 0.0667432 0.1071 5.70315e-05 0.000676203 0.0391246 -0.0291852 -0.0415464 -7.35044e-05 -0.0547456 0.0909898 -0.0566991
internal_weight=0 10.1625 8.96765 7.55098 6.61427 1.47742 1552.84 1468.76 84.0747 79.9507 24.6334 55.3173 37.3143 18.003 14.7349 6.68258 7.39083 8.05234 17.2426 4.12396 3.30235 1454.03 1423.88 27.2332 30.1489 26.9183 1396.64 4.1217 2.56088 1.1316
internal_count=12273 479 415 359 312 81 11794 8488 3306 3180 1098 2082 1407 675 544 272 330 272 768 126 95 7944 6821 811 1123 1007 6010 186 86 58
is_linear=0
shrinkage=0.3


Tree=276
num_leaves=31
num_cat=0
split_feature=262 61 36 79 294 241 140 178 28 297 85 22 56 208 135 268 215 133 178 227 116 242 244 3 192 145 231 115 239 262
split_gain=0.173766 0.239883 0.259525 0.217752 0.314567 0.357615 0.269842 0.260529 0.221638 0.219186 0.24919 0.272503 0.228841 0.315683 0.312299 0.285402 0.270578 0.246788 0.204323 0.175549 0.142722 0.135843 0.131955 0.152004 0.196782 0.128265 0.0885689 0.0826804 0.0787809 0.0716308
threshold=0.081668093500266978 0.028947133097071902 -0.016754619162749732 0.068850971042649617 -0.046086998656392049 -0.054044499993324245 -0.0030844999710096994 -0.0061435000970958996 0.0082429996691644018 0.094616502523422213 0.012205500155687252 0.018530000001192055 0.013305000029504252 -0.075817499309778144 0.11294100061058997 0.024852949806361387 0.095516022074788987 -0.081415001302957493 -0.033864000812172841 -0.05388849973678584 -0.0035325824888442011 0.0009384999866597001 -0.099884498864412238 -0.013921883158874554 -0.0033580000745132496 0.035591000691056203 -0.045336908691580059 -0.04612150043249124 0.062384014493517791 0.0040252637730394522
decision_type=2 2 2 2 2 2 2 2 2 2 2 2 2 2 2 2 2 2 2 2 2 2 2 2 2 2 2 2 2 2
left_child=3 22 20 9 5 28 19 18 21 12 11 -11 13 16 15 -14 -1 -15 -8 -6 -3 -7 -2 -24 -25 -10 -9 -4 -5 -16
right_child=1 2 27 4 6 8 7 26 25 10 -12 -13 14 17 29 -17 -18 -19 -20 -21 -22 -23 23 24 -26 -27 -28 -29 -30 -31
leaf_value=0.055290543206878449 -0.081452387055780173 -0.080849900074180039 -0.20852120399325538 0.1971133801156344 0.021597507222516403 0.00077390469993362404 -0.061389510088253267 0.060989399203616471 -0.032797670044027019 -0.1393579813846626 0.16569489692121772 0.10287077511291551 -0.039874271072920749 0.051101905871755109 -0.19256825753425227 0.074734526361278919 -0.11610291390460502 -0.00045641994644080378 0.15809443075713153 -0.18167508988449335 0.1500348802884782 -0.17103904113933258 0.18377554808392232 0.13788766801329225 -0.063427759619087781 0.188093751755046 -0.16659066735851505 -0.049990289772921977 0.053363392349113144 -0.044622328880135044
leaf_weight=13.375351090944601 0.33607157020014744 0.34956971311476082 0.54598968010395765 0.85814640310127266 0.44872818142175708 0.65466081316117231 0.69391617181827314 0.18350140482652932 0.50085825670976181 0.73128257202915781 1.5343528022058306 0.97564424009760842 12.1997890504681 8.4011942567012721 1.2839598612627003 2.3288205088902023 0.88375800999347198 1534.0455766002697 0.84848622689605713 2.585686348080344 0.77552989777177594 1.1273726028739472 1.5761568814050413 1.0797268367605286 0.73409899463876893 0.44839338230667636 0.95426770314224796 0.64688629197189562 0.57171657565049827 0.38221247582987405
leaf_count=607 30 19 13 27 32 34 46 14 25 34 44 28 853 323 61 116 43 9266 35 164 47 63 84 57 30 17 70 38 26 27
internal_value=0 0.0507128 -0.0250626 -0.000251576 -0.0446596 0.0180853 -0.0903481 -0.0209832 -0.0455482 2.66738e-05 0.0779598 -0.000905009 -0.000133923 0.000235158 -0.0356114 -0.0215034 0.0446678 -0.000175599 0.0593501 -0.151615 0.0782987 -0.107921 0.0978526 0.115628 0.0564105 0.0715437 -0.129886 -0.122551 0.139636 -0.15863
internal_weight=0 6.04403 2.31798 1586.02 9.87573 4.16115 5.71459 2.68017 2.73129 1576.14 3.24128 1.70693 1572.9 1556.71 16.1948 14.5286 14.2591 1542.45 1.5424 3.03441 1.1251 1.78203 3.72605 3.38998 1.81383 0.949252 1.13777 1.19288 1.42986 1.66617
internal_count=12273 318 117 11955 553 192 361 165 139 11402 106 62 11296 10239 1057 969 650 9589 81 196 66 97 201 171 87 42 84 51 53 88
is_linear=0
shrinkage=0.3


Tree=277
num_leaves=31
num_cat=0
split_feature=154 112 23 218 247 148 128 218 124 277 113 71 50 230 96 220 189 49 176 26 225 294 293 285 296 33 252 234 196 105
split_gain=0.213089 0.306953 0.280361 0.265926 0.252509 0.274445 0.236104 0.291718 0.219739 0.325232 0.226367 0.454535 0.376704 0.45239 0.431837 0.346116 0.476645 0.423132 0.255649 0.246454 0.245939 0.244887 0.192241 0.190152 0.169885 0.165273 0.140441 0.132944 0.146009 0.124505
threshold=-0.054856000468134845 0.044460638691702657 -0.063848052339826475 -0.036778615641285449 -0.012495037445207566 0.096084497869014726 0.062249500304460463 -0.0092216142292101174 -0.089374240183954498 0.067992047927502797 1.0000000180025095e-35 -0.079714628158972831 0.027294999919831753 -0.08551287132182557 0.081945996731519657 0.04770898771880986 -0.026391000486910298 0.0023822602328765984 -0.088631499558687141 -0.067088920415885586 -0.082235001027583979 -0.02212383013383434 0.058017000555992106 -0.067890502512454889 -0.023608407090668682 0.061896499246358858 0.088272999972104957 -0.09982049837708469 -0.070228166882462834 -0.012356500141322549
decision_type=2 2 2 2 2 2 2 2 2 2 2 2 2 2 2 2 2 2 2 2 2 2 2 2 2 2 2 2 2 2
left_child=1 2 24 -3 5 -5 7 23 9 27 11 19 13 -12 -15 17 -17 -14 22 21 -20 -10 -13 -4 -1 -21 -9 -2 -29 -11
right_child=8 3 6 4 -6 -7 -8 26 10 29 12 18 15 14 -16 16 -18 -19 20 25 -22 -23 -24 -25 -26 -27 -28 28 -30 -31
leaf_value=0.18177772763705344 0.1574728768188742 0.13175449055837368 -0.15172163446447556 0.11542057505513786 -0.17711728259614387 -0.17567257718530979 -0.15739178038299592 -0.16951408771016807 -0.16458158214423552 0.12218761961619626 -0.14470846185193761 -0.16324944097196528 0.083242127256383872 0.048714521154762408 -0.11006359403780258 -0.14194599585733239 0.0044083143466254193 -0.0067977525615367596 -0.16387634960527378 -0.15688943264374214 0.00018080406171738943 0.11911260859189078 0.046610669263984335 0.056047588336977254 -0.0918453894692568 0.091545332684075456 0.0096400802854428157 0.04934673529186321 -0.17438414048392284 -0.086675931253880664
leaf_weight=0.59445201931521297 0.13594942260533605 1.476717434183229 0.48449612532567732 1.0982168321206702 0.72974616661667724 0.39682547410484392 2.8444857736867561 1.72616844066215 0.4191055962437531 0.82849268609425053 1.2020925132092077 1.4688457548327272 5.7382633522356654 37.297440268392165 1.6081015219097015 3.5706982915689878 4.5608609492919623 25.893582122589578 0.8229009391652643 3.0656056253064885 1335.0168782650708 0.79010856199602109 0.53628530915011641 2.1813657877883079 0.31108759716153045 0.26156471512513224 0.51020181225612748 0.29873597383266393 2.1658046062511849 0.37228666353621498
leaf_count=48 12 77 46 78 54 25 244 168 40 55 82 178 379 2139 109 196 242 1585 73 229 5594 46 43 144 39 21 34 19 232 42
internal_value=0 -0.0392426 -0.0701727 0.0330565 -0.0324549 0.0381564 -0.088636 -0.048741 0.000328296 -0.0717047 0.000520819 -0.000402382 0.0160369 0.0365512 0.0421517 -0.00465487 -0.0598582 0.00953618 -8.0928e-05 -0.0952038 7.9742e-05 0.0207861 -0.107121 0.0182874 0.0877777 -0.137359 -0.128642 -0.131334 -0.147265 0.0574321
internal_weight=0 12.3538 8.65226 3.70151 2.22479 1.49504 7.74672 4.90223 1426.05 3.80127 1422.25 1342.38 79.871 40.1076 38.9055 39.7634 8.13156 31.6318 1337.84 4.53638 1335.84 1.20921 2.00513 2.66586 0.90554 3.32717 2.23637 2.60049 2.46454 1.20078
internal_count=12273 957 723 234 157 103 636 392 11316 360 10956 6224 4732 2330 2248 2402 438 1964 5888 336 5667 86 221 190 87 250 202 263 251 97
is_linear=0
shrinkage=0.3


Tree=278
num_leaves=31
num_cat=0
split_feature=246 15 296 193 18 13 64 249 16 101 140 77 3 8 5 13 284 41 62 65 154 41 149 204 138 129 147 207 237 54
split_gain=0.184335 0.248636 0.205845 0.388559 0.229196 0.266235 0.226496 0.202943 0.379204 0.313237 0.332629 0.213654 0.490223 0.403256 0.296636 0.280092 0.302836 0.2901 0.201591 0.189606 0.183423 0.208879 0.17701 0.135617 0.0963899 0.0833943 0.0790118 0.0549486 0.0449586 0.0330769
threshold=-0.095532499253749834 0.028261918307778477 0.060157999396324109 -1.0000000180025095e-35 0.019208269676754017 -0.09419199824333184 -0.070093501359224236 -0.040904455526374187 -0.073373001068830435 -0.098457999527454335 -0.065218497067689826 -0.071625500917434623 -0.0074746991713971105 0.099511500447988524 -0.050711499527096693 0.047046000137925106 0.021805685112178976 -0.055687999352812691 -0.037994347181459089 0.040092499926686252 0.020367319432003414 0.032844966498461671 0.045211499556899057 0.0056572106493481744 -0.01463214567708687 -0.029337000101804647 -0.071552999317645929 0.0067974999547004509 -0.04142700135707849 -0.024513499811291646
decision_type=2 2 2 2 2 2 2 2 2 2 2 2 2 2 2 2 2 2 2 2 2 2 2 2 2 2 2 2 2 2
left_child=1 22 7 4 5 -4 -7 8 -2 27 -11 12 13 -9 -14 17 -17 -13 -3 -6 26 24 25 -20 -22 -1 -5 -10 -28 -27
right_child=2 18 3 20 19 6 -8 11 9 10 -12 15 14 -15 -16 16 -18 -19 23 -21 21 -23 -24 -25 -26 29 28 -29 -30 -31
leaf_value=0.049326046032786758 -0.19296178253450372 0.14703436946285386 0.19082475855844161 0.057587658081029398 0.18378726694432854 0.10186099504308611 -0.11995605689096335 0.024496075566477479 -0.20735799708541869 -0.20545300963934332 0.026984660084085867 -0.061190778738257255 0.0026100024498830602 -0.10563920480340522 -0.13000789663955717 0.12625619578333977 0.0091182389891353768 0.00030571501299296784 -0.18893047179284808 -0.060551130338368481 0.20396219474521657 -0.16313468133435352 -0.031262731576870373 0.020755571484074826 0.0014921394105731286 0.11783612399691905 0.096325287220972847 -0.065375337025699282 0.19586685103980758 0.20577127970294173
leaf_weight=0.59295695804758031 1.3316124395933 0.39354207273572672 0.35419480316340957 0.66457226942293335 0.79007619904587023 0.49453346047084812 2.5535385671537369 12.423885927943049 0.80077676242217399 0.61050865612923999 5.9971671204839359 6.9358265582559389 2.124900333408732 2.5897765043773679 5.3144709559855974 3.274868452223016 5.0484233085298911 1495.5961101947978 0.66885416163131572 0.44785654009319842 0.40447204781230539 0.40826493129134178 0.63313656160607923 0.47455676179379225 0.44382550311274804 0.55425621173344586 0.52063232933869619 0.353661766363075 1.8937309346511013 1.2605642046546552
leaf_count=32 83 21 8 35 34 22 129 592 36 27 247 332 109 132 233 126 248 9462 28 29 10 23 28 19 35 28 33 23 67 42
internal_value=0 0.0601811 -0.000107248 0.0451926 -0.015142 -0.05536 -0.0839674 -0.000370862 -0.045055 -0.0196812 0.00550885 -0.00010585 -0.0291552 0.00204844 -0.0921284 0.000325857 0.0552071 2.18415e-05 -0.0381619 0.0953911 0.109768 0.0131765 0.109886 -0.101903 0.0980308 0.147002 0.149188 -0.163862 0.174402 0.178915
internal_weight=0 4.57787 1551.38 8.9757 4.6402 3.40227 3.04807 1542.4 9.09373 7.76211 6.60768 1533.31 22.453 15.0137 7.43937 1510.86 8.32329 1502.53 1.53695 1.23793 4.3355 1.25656 3.04091 1.14341 0.848298 2.40778 3.07894 1.15444 2.41436 1.81482
internal_count=12273 198 12075 425 222 159 151 11650 416 333 274 11234 1066 724 342 10168 374 9794 68 63 203 68 130 47 45 102 135 59 100 70
is_linear=0
shrinkage=0.3


Tree=279
num_leaves=31
num_cat=0
split_feature=195 5 275 57 107 242 174 210 60 243 0 85 201 58 168 223 230 239 124 261 276 250 90 64 18 146 47 299 126 59
split_gain=0.187514 0.359752 0.256294 0.215683 0.211248 0.183857 0.34597 0.349243 0.297472 0.282566 0.281023 0.363034 0.344689 0.345018 0.330864 0.377205 0.284382 0.322889 0.316232 0.365129 0.359827 0.263453 0.245065 0.261381 0.37833 0.23091 0.222442 0.19776 0.183646 0.162888
threshold=-0.047381499782204593 0.02390256423075483 -0.0095110000111162472 -0.034213500097393941 -0.075014501810073783 -0.051721999421715688 0.028237393624561891 -0.034471010897795258 -0.10546800121664994 -0.051576849880512164 0.024044195365857141 0.011206698696960763 -0.089460000395774786 -0.07525550201535218 0.046488190713087831 -0.017513499595224798 0.10826100036501882 0.054067499935626956 -0.058145500719547195 0.11836200207471841 -0.028820499777793846 0.032566500827670056 -0.031882999464869444 -0.0073325000703334487 -0.011702987219730966 0.073336231489518608 -0.024132396205883897 0.015943287302793086 -0.024845000356435696 0.0036783986650698584
decision_type=2 2 2 2 2 2 2 2 2 2 2 2 2 2 2 2 2 2 2 2 2 2 2 2 2 2 2 2 2 2
left_child=1 2 4 -4 -1 6 7 8 -2 21 16 12 -12 -14 25 -16 18 26 20 -20 -7 -9 -8 24 -24 -13 -18 -25 -10 -11
right_child=5 -3 3 -5 -6 10 22 9 28 29 11 14 13 -15 15 -17 17 -19 19 -21 -22 -23 23 27 -26 -27 -28 -29 -30 -31
leaf_value=0.15666527002776462 0.20084517167948751 -0.16429678851987506 0.12843782534763806 -0.084364953557313591 -0.13621009382172755 0.070747692552414643 0.12032893661474031 -0.19855570779140327 0.03622003685914757 0.0067224741355307923 0.097874985439715026 0.075077293447467455 0.10302926140530265 -0.078116480375972755 0.044233139956027685 -0.16334306016556344 0.12566937834642716 -0.17259841763812117 0.00042617788812062833 -0.045481107385175329 -0.0043647825986766657 0.060883378630036324 0.064855665357843234 0.16132948221346083 -0.076494875693615585 -0.1231204482385606 -0.1156816803290962 0.019184785015376349 -0.10601188470375296 0.15568062096069293
leaf_weight=0.26330390712246288 0.35996003936452314 1.8227018128673078 1.5019510407000782 0.59984310134313901 1.4011546323308723 12.18422296876088 3.8895000417542169 0.6641844716214107 0.9950556547846644 1.0248958765296285 1.2243450752866945 5.7182183069744479 1.0076555035848347 15.54076767603692 1.5353485016967172 1.6183968875557182 0.78113485197536647 1.809475300251506 1487.5283288385062 15.758050237651331 10.852736273111075 0.75011129450285807 3.587325969565426 1.9744210560820641 3.2464473811996868 0.58297579105419561 0.61370165157131784 1.5904731673654167 4.5662027879516245 1.859281371856923
leaf_count=8 19 91 57 34 107 348 177 26 56 49 56 265 54 832 63 73 28 42 7714 700 534 32 140 77 204 29 32 80 257 89
internal_value=0 -0.0548874 -0.00193806 0.0677048 -0.0898796 0.000160183 0.0259422 -0.0162039 -0.0634556 0.0488861 -0.000245701 -0.030456 -0.0557223 -0.0670863 0.0170378 -0.062288 0.000292085 -0.0889869 0.000479514 -5.50407e-05 0.0353621 -0.0609549 0.0560874 0.0320586 -0.00229422 0.0567404 0.0194795 0.0979118 -0.0805628 0.102748
internal_weight=0 5.58895 3.76625 2.10179 1.66446 1581.26 24.5079 10.2197 5.92122 4.29847 1556.76 27.2277 17.7728 16.5484 9.45494 3.15375 1529.53 3.20431 1526.32 1503.29 23.037 1.4143 14.2882 10.3987 6.83377 6.30119 1.39484 3.56489 5.56126 2.88418
internal_count=12273 297 206 91 115 11976 1206 528 332 196 10770 1372 942 886 430 136 9398 102 9296 8414 882 58 678 501 344 294 60 157 313 138
is_linear=0
shrinkage=0.3


Tree=280
num_leaves=31
num_cat=0
split_feature=162 175 16 124 210 205 151 289 239 275 151 46 94 89 71 241 114 128 114 179 190 272 206 147 70 2 297 111 114 299
split_gain=0.200543 0.298731 0.377661 0.425209 0.314294 0.232312 0.331336 0.294316 0.337387 0.261777 0.241503 0.273798 0.291455 0.240962 0.409911 0.318677 0.36817 0.347977 0.252574 0.226212 0.220865 0.236695 0.219322 0.204801 0.204401 0.248412 0.203437 0.192593 0.210952 0.188668
threshold=0.10203000158071511 -0.0037055000429972495 -0.017478608327224806 -0.040521798956576212 -0.013985999859869449 -0.06208150088787074 0.016453499905765005 -0.068934500217437689 0.020663500763475853 -0.0047930592166990993 -0.054039500653743695 0.0060620000585913008 -0.082256000488996492 -0.057388499379157992 -0.049088671658520398 0.019121999852359253 0.05714249983429906 0.081828001886606175 0.019924082420018942 -0.011154842997460482 -0.035608999431133243 0.043374607511814156 -0.055212499573826741 0.0096114999614655503 -0.06551249697804444 0.026814999990165154 -0.037967083127560523 -0.021586343677583424 0.00077037500491433056 0.03669658776700515
decision_type=2 2 2 2 2 2 2 2 2 2 2 2 2 2 2 2 2 2 2 2 2 2 2 2 2 2 2 2 2 2
left_child=5 2 3 23 -5 6 10 8 9 -7 11 -1 -13 14 26 16 -15 -17 -16 -6 -3 -22 29 -2 25 -10 -9 -4 -29 -12
right_child=1 20 27 4 19 7 -8 13 24 -11 22 12 -14 15 18 17 -18 -19 -20 -21 21 -23 -24 -25 -26 -27 -28 28 -30 -31
leaf_value=0.1256562095728084 0.16551348095248325 -0.17068370823862025 0.15997743496517489 -0.10924365046768673 -0.1461410317852711 0.07749240325718397 -0.095399921686376468 0.007621941890714661 0.095423746293221617 -0.11083432842805441 0.11665934607856043 0.12174027960796538 -0.10975554672652268 0.00044344775128727905 0.046076428143426586 0.080807294248784176 -0.082125569150320502 -0.063666291757468116 -0.14415581449435141 0.12091418982297832 0.087296698737574216 -0.202578720778086 0.10226212305401891 -0.072904032428535076 -0.13460715548331945 -0.17574428380688376 -0.18259605432011822 -0.17887042490456692 0.00066663700603126423 -0.19211115781424351
leaf_weight=1.0329297481803217 2.0882481750304573 2.1866301921327254 0.23825528670568052 2.0937088230930381 0.36243203790218115 2.2498661076388093 1.448863812991475 0.64966071443632278 0.8696115489292422 0.94257529746027824 0.29629771923646231 0.63875961792655322 2.094298190480913 1378.1237214398316 3.1202519383768954 8.1019531303681998 4.8774314071033578 1.8414547127940739 0.78647951847233333 1.3442843027296481 0.76974891067948081 0.37802001050295075 7.2164741188971675 0.38387150583002938 4.0638160691305529 0.46749687020201236 2.2886747744341847 1.839141743286745 0.86651078304566898 0.44647228384565096
leaf_count=55 93 217 17 189 34 187 133 29 54 102 21 31 137 7975 198 566 423 164 61 78 58 55 454 42 391 55 159 184 82 29
internal_value=0 -0.0377966 -0.00995774 0.0316458 -0.0313511 0.000292205 0.0399451 -7.87099e-05 -0.0554287 0.0218885 0.0566694 -0.00592249 -0.0556512 0.000261086 -0.055888 0.000537008 0.000152252 0.0540517 0.00778003 0.0642033 -0.114745 -0.00817436 0.0862853 0.128492 -0.10113 0.000614527 -0.140539 -0.0986019 -0.121372 -0.0689398
internal_weight=0 12.5509 9.21645 6.27254 3.80043 1421.56 13.1741 1408.38 8.59337 3.19244 11.7252 3.76599 2.73306 1399.79 6.84507 1392.94 1383 9.94341 3.90673 1.70672 3.3344 1.14777 7.95924 2.47212 5.40092 1.33711 2.93834 2.94391 2.70565 0.74277
internal_count=12273 1049 719 436 301 11224 860 10364 789 289 727 223 168 9575 447 9128 8398 730 259 112 330 113 504 135 500 109 188 283 266 50
is_linear=0
shrinkage=0.3


Tree=281
num_leaves=31
num_cat=0
split_feature=195 5 2 113 140 190 193 174 103 36 71 120 143 233 107 258 203 33 6 237 226 131 150 61 187 266 61 183 197 240
split_gain=0.203936 0.387599 0.299589 0.236773 0.198113 0.325768 0.338878 0.21618 0.205977 0.405103 0.343674 0.374958 0.306374 0.487142 0.257457 0.256964 0.220016 0.374027 0.38082 0.199033 0.28881 0.287004 0.185336 0.212661 0.179876 0.138614 0.225016 0.117663 0.0956436 0.0810528
threshold=-0.047381499782204593 0.020344709908797626 -0.0067280000075697491 -0.011499499902129147 -0.11717250198125834 -0.068411499261855982 0.0024364340701011644 0.035445131687792432 -0.049295301395496649 -0.01617448104693308 -0.047216905247078375 0.031513457688060638 0.044307958351692787 -0.075905227065791156 -0.014045985603033342 -0.048057655175700952 0.11902949959039687 -0.024941058152784069 -0.089858498424291541 -0.050289498642086893 -0.011274927172899006 -0.030186999589204747 0.020724245061903367 -0.0041290000081061996 -0.035376999527215895 -0.021392500028014096 0.028068999759852855 -0.015160060375500746 0.065639998763799626 0.090846996754407813
decision_type=2 2 2 2 2 2 2 2 2 2 2 2 2 2 2 2 2 2 2 2 2 2 2 2 2 2 2 2 2 2
left_child=1 2 3 -1 5 6 -2 -7 9 10 11 -6 13 -11 -14 -12 19 24 -19 20 -10 -21 -3 -24 -18 27 -27 -4 -5 -9
right_child=4 22 25 28 8 7 -8 29 16 12 15 -13 14 -15 -16 -17 17 18 -20 21 -22 -23 23 -25 -26 26 -28 -29 -30 -31
leaf_value=0.080723032714620876 0.087072015924780644 0.19322157770747272 0.019575675976293196 -0.17740709024122198 0.058608500279609337 -0.015755415348677478 -0.17613697593958796 0.081814976115338112 0.032933743009302137 -0.1890276386245692 -0.15232991034297994 -0.13860168984962093 0.18910026052720985 0.029017505883774844 0.011132273854198354 0.01744792779072768 -0.031222102793084169 0.18193825370436312 -0.098562270885895309 0.045519040100333946 -0.049737133809185395 -0.00019068448540167577 -0.1390112418754243 0.15865428171579293 0.15170454106403111 -0.18023182928747364 0.13576036599463343 0.18650907546126461 -0.006665854240076108 0.20483395972789423
leaf_weight=0.6026902869343761 0.8972126730950547 1.8555778461741286 0.61839214991778146 1.2956145715434102 2.6256841520080356 0.78427164210006539 0.86434179206844419 0.69603311130777035 5.0349033444363185 1.2574953818693755 4.5781853037187838 1.2959598614834247 1.3730915337800982 3.4580450312932944 1.5658867761958388 0.97281496366485942 0.58118510991334948 0.56956360721960697 1.8521328062633973 12.466720144439021 15.546726116961507 1481.6687278990212 0.3904566562268883 0.48348482896108169 2.887142650783062 0.42627792269922693 0.38689564564265311 0.9858007635921241 0.38242700463160861 1.5676815896295009
leaf_count=21 25 52 30 70 87 38 25 24 203 48 161 36 31 118 43 38 14 15 86 441 761 9669 21 23 80 23 18 25 14 33
internal_value=0 0.0496633 -0.00257273 -0.080566 -0.000166228 0.060626 -0.0420767 0.119982 -0.000356367 -0.033072 -0.0745468 -0.00656225 0.0182541 -0.0291287 0.094279 -0.122576 1.21217e-05 0.0578812 -0.0325908 -0.000212904 -0.0295133 0.000190707 0.139573 0.0256643 0.121052 0.0710122 -0.0298875 0.122159 -0.138495 0.167009
internal_weight=0 7.42762 4.6981 2.28073 1542.54 4.80954 1.76155 3.04799 1537.73 17.1272 9.47264 3.92164 7.65452 4.71554 2.93898 5.551 1520.61 5.89002 2.4217 1514.72 20.5816 1494.14 2.72952 0.873941 3.46833 2.41737 0.813174 1.60419 1.67804 2.26371
internal_count=12273 297 201 105 11976 145 50 95 11831 562 322 123 240 166 74 199 11269 195 101 11074 964 10110 96 44 94 96 41 55 84 57
is_linear=0
shrinkage=0.3


Tree=282
num_leaves=31
num_cat=0
split_feature=109 24 122 96 137 190 30 16 260 112 192 33 194 192 99 115 238 157 192 289 252 298 18 110 125 192 299 37 155 65
split_gain=0.173327 0.377555 0.365907 0.396702 0.363096 0.347975 0.372352 0.365774 0.334182 0.319101 0.317908 0.297179 0.28396 0.251938 0.262689 0.250839 0.242113 0.320337 0.327366 0.365379 0.322264 0.30889 0.460915 0.331099 0.382598 0.31989 0.310127 0.303414 0.345949 0.268585
threshold=0.10714200139045711 -0.080108501017093589 -0.053480842449809461 0.045666321215604121 -0.071638878041225387 -0.0063710000831633494 -0.0079692472298783165 -0.041307000443339292 0.065451499074697453 0.065771501511335304 -0.060474500060081447 -0.049701500684022841 0.028256000019609904 0.0065309999044984007 0.025458499789237903 -0.075155500322580296 0.0054497954694404443 0.093593351260504123 0.007263500010594651 -0.026169500313699197 0.015335999894887152 0.0017605808608902142 -0.044680988364159284 -0.035685510676916422 0.019248500466346703 -0.038307742066681909 0.059489499777555403 -0.038242450848103494 0.067251000553369508 0.022698000073432853
decision_type=2 2 2 2 2 2 2 2 2 2 2 2 2 2 2 2 2 2 2 2 2 2 2 2 2 2 2 2 2 2
left_child=16 5 4 13 8 6 -2 -8 -3 -10 -6 -5 -13 14 -4 -12 17 21 -19 -20 -21 22 25 -23 -25 -1 -24 28 -18 -29
right_child=1 2 3 11 10 -7 7 -9 9 -11 15 12 -14 -15 -16 -17 27 18 19 20 -22 23 26 24 -26 -27 -28 29 -30 -31
leaf_value=-0.049471311167084316 -0.17884525185790384 0.0056261211840501939 0.16496607473660493 0.077844048228057405 -0.16690663778787396 0.13573536085515187 -0.12240927792499998 0.15157780651358863 0.16861266274372971 -0.018748784890266244 -0.17816652948883963 -0.16304109799718514 0.072565833349633777 -0.048553440399053398 0.010404401728710296 0.058303924023777036 -0.11955577883709867 0.092172393435486055 0.12965361968810418 0.082902784550414721 -0.15449692853508865 0.04866481024043097 0.00039375622398511441 -0.018047512410264997 -0.087591049679463309 0.079304758124323749 -0.042805232498302155 -0.054141230747937065 0.1527931432567308 0.023952289156142229
leaf_weight=2.0837065833620718 2.063704644213431 2.1958045186765975 1.9332032053789556 0.8534274831181391 0.78870957251638341 0.71399168297648685 0.91383162711281329 0.84311798238195457 5.5465616785222664 0.9596552540315314 0.44210206926800477 2.6155140154296537 0.55873850849457074 1.8378264773346016 2.0276452643447556 4.6505816612625468 4.725335290553633 6.6518424058012879 1.0197333848191195 0.73248803487513248 1.7302807728701735 5.1516511915706351 1442.5786219178699 36.56606723245568 8.8413817083892337 10.406646133051252 15.113369820901424 7.3174646764491618 0.46068531158380199 8.6480062208829604
leaf_count=99 66 99 78 30 31 23 20 26 124 22 20 92 26 95 84 213 352 340 73 43 134 299 5564 1820 581 357 620 423 18 501
internal_value=0 0.0229891 0.037757 -0.00698938 0.0679073 -0.0565057 -0.0924311 0.00907055 0.106824 0.140977 0.0103272 -0.0793153 -0.121569 0.0432472 0.0858426 0.0377756 -0.000441487 -1.05291e-06 0.0531589 -0.0213598 -0.0838884 -0.000355315 0.000437569 -0.0234112 -0.0315885 0.0578217 -5.41315e-05 -0.0323187 -0.0953624 -0.0118404
internal_weight=0 28.9444 24.4098 9.82635 14.5834 4.53465 3.82065 1.75695 8.70202 6.50622 5.88139 4.02768 3.17425 5.79867 3.96085 5.09268 1552.03 1530.88 10.1343 3.4825 2.46277 1520.74 1470.18 50.5591 45.4074 12.4904 1457.69 21.1515 5.18602 15.9655
internal_count=12273 1049 914 405 509 135 112 46 245 146 264 148 118 257 162 233 11224 9930 590 250 177 9340 6640 2700 2401 456 6184 1294 370 924
is_linear=0
shrinkage=0.3


Tree=283
num_leaves=31
num_cat=0
split_feature=220 95 55 104 129 99 117 139 17 170 125 187 275 119 42 223 17 130 22 75 98 194 275 231 168 30 253 1 242 210
split_gain=0.185501 0.382594 0.239564 0.221491 0.190409 0.19351 0.189222 0.385247 0.368131 0.367417 0.424109 0.338028 0.313248 0.307472 0.275821 0.273493 0.238303 0.419765 0.246654 0.230918 0.167627 0.138254 0.124717 0.0960282 0.112906 0.088735 0.0833176 0.0575329 0.0270359 0.0241297
threshold=-0.051669664005775502 0.004505966534371895 -0.00042566431139655028 0.047757500782608958 -0.092480210085601713 -0.027522499673068447 0.0087341342753738133 -0.058025000616907997 -0.010221263884325022 0.038323499262332909 -0.0089795002713798974 -0.011623990737993559 0.020512999966740605 -0.086501931251703898 0.00087074992831799841 -0.048381499946117346 -0.042829999700188588 1.0000000180025095e-35 -0.0017238019507521249 0.066599998623132664 0.056727603192119148 -0.029591017617442185 -0.063235998153686482 -0.056065025877320047 -0.026068000122904698 -0.019552889538121961 -0.037529500201344441 -0.013359999749809448 -0.078755332538382822 -0.02276214779852483
decision_type=2 2 2 2 2 2 2 2 2 2 2 2 2 2 2 2 2 2 2 2 2 2 2 2 2 2 2 2 2 2
left_child=1 23 3 21 5 -2 9 8 19 16 14 12 -9 -13 -11 -12 18 -18 -6 -8 22 -3 -4 24 -1 -7 -10 -23 -25 -24
right_child=4 2 20 -5 6 25 7 11 26 10 15 13 -14 -15 -16 -17 17 -19 -20 -21 -22 27 29 28 -26 -27 -28 -29 -30 -31
leaf_value=0.17669671142370189 0.090210034687917065 -0.067203463495605187 0.065170712155105295 -0.18549107329105569 -0.11965389398903478 -0.041223317341394429 0.066480291346004278 0.075952244019827669 -0.03066366201543411 -0.15007653361048359 -0.12677296916227632 -0.11767880724249685 -0.0082836811232661831 0.012963732026442281 -0.0088077087338361854 0.035247001105254264 -0.0002701710045910034 0.036517570286145822 -0.010571483003661883 -0.10323139517155457 0.10783005128341673 0.18935317908897142 -0.19240292210813842 -0.03100065990840057 -0.16770864855962553 -0.18727171882427127 -0.17948307339427308 0.056853511153600565 -0.20525724495578621 -0.08123023697158821
leaf_weight=0.14848446038377006 0.42452275755931657 0.32164099083092912 0.24632789916358877 0.26173516613926029 2.989746928196837 0.57200355843815498 2.1544840953720272 16.269563916870542 0.42081426538061384 4.2567169470275985 1.1626494139200074 1.8720545107935311 5.2569413246765171 12.107323646243456 1.7574216307730237 4.8458091989596124 1332.5997675664585 28.51262284673976 4.9617753043876283 1.0849221452081108 0.33847305359086011 1.0073698689157025 0.8984831518246208 0.084755480653256998 0.20250384985411063 1.0838361686328413 1.7325830014306109 0.41703685265383672 1.4688731741134677 0.21842738139093898
leaf_count=12 37 32 27 30 323 36 196 842 29 390 79 147 274 714 171 289 5552 1774 497 92 22 60 106 16 35 76 128 45 211 31
internal_value=0 -0.0544375 0.00167975 0.0718672 0.000202246 -0.0904917 0.000334931 0.0204451 -0.054265 -0.0002606 -0.0524766 0.0317924 0.0553812 -0.00453132 -0.108796 0.0038958 0.000197941 0.00050046 -0.0515861 0.00964149 -0.0811317 0.110446 -0.128048 -0.163733 -0.0220091 -0.13682 -0.150401 0.15056 -0.195751 -0.170662
internal_weight=0 5.61411 3.70949 2.00778 1424.07 2.08036 1421.99 40.8987 5.3928 1381.09 12.0226 35.5059 21.5265 13.9794 6.01414 6.00846 1369.06 1361.11 7.95152 3.23941 1.70171 1.74605 1.36324 1.90462 0.350988 1.65584 2.1534 1.42441 1.55363 1.11691
internal_count=12273 627 353 167 11646 149 11497 2422 445 9075 929 1977 1116 861 561 368 8146 7326 820 288 186 137 164 274 47 112 157 105 227 137
is_linear=0
shrinkage=0.3


Tree=284
num_leaves=31
num_cat=0
split_feature=238 111 130 254 236 137 29 216 140 227 242 177 19 104 123 198 5 24 93 298 12 227 99 163 249 177 159 199 38 119
split_gain=0.179323 0.282668 0.340231 0.43212 0.307857 0.332985 0.303565 0.303088 0.297528 0.29455 0.289994 0.288635 0.27746 0.38658 0.342821 0.381647 0.481384 0.380842 0.313061 0.335664 0.380654 0.312917 0.304017 0.293279 0.274788 0.319938 0.318797 0.271068 0.25599 0.247927
threshold=-0.079583499580621678 0.055029965551513786 0.024856469161810436 -0.0029454261956041194 -0.025405500084161699 -0.063609000295400536 0.048258500173687907 -0.087154321890119735 -0.078902002424001624 -0.0021501715504830357 -0.027579595614078033 -0.014705500099807898 0.12347633652299439 0.0079806996372762205 -0.10087450221180914 0.028245017907517971 -0.079394500702619539 -0.082727263422679123 0.090858500450849464 -0.0065983619803877012 -0.086446793625017573 0.0097584999166428505 0.0092414999380707012 -0.0086616867574950528 -0.020689145901078416 0.051535999402403811 -0.025275999680161445 -0.0008715000003575999 -0.079406000673770835 -0.12196955060037484
decision_type=2 2 2 2 2 2 2 2 2 2 2 2 2 2 2 2 2 2 2 2 2 2 2 2 2 2 2 2 2 2
left_child=12 24 6 4 5 -4 11 9 -9 -8 -6 28 14 27 15 17 -17 -1 19 21 -21 -16 -19 -18 26 -26 -2 -14 -3 -28
right_child=1 2 3 -5 10 -7 7 8 -10 -11 -12 -13 13 -15 18 16 23 22 -20 20 -22 -23 -24 -25 25 -27 29 -29 -30 -31
leaf_value=0.15869884310727014 0.029094795296920953 -0.029441845663759784 -0.12096804260778692 -0.11708872134883759 -0.043496722574166168 0.028519436727603192 -0.17058539223186844 0.17885287468625818 0.013220015098145745 0.09825557558623231 0.10114290538492859 0.01272179282337884 -0.17615627316745677 0.096859961052279966 -0.11756552329040203 0.19318216831322377 -0.15640478328974874 -0.11154827882029271 0.11442520430587097 0.11577670804763718 -0.025122088208212823 0.0095966754890350735 0.069126718470403553 0.082485314904240423 6.3708090963236259e-05 0.080280600203664648 0.090356196619368598 0.050789937442053283 0.13222444311950157 -0.093919166310041866
leaf_weight=2.9232944659888744 3.5942227446939787 1.0011751274578262 2.3658271247404628 2.7125903609994557 1.7222781602176827 3.0961874495260409 1.3572413953370412 1.1340772719122441 7.0052156526362532 0.5026103516574939 4.5259963354910724 3.7460431600338806 2.7636637633549981 0.7839520580600946 6.3190602889808378 0.60636666064965572 2.0682044071727441 1.1800648853532019 1.3573129150609009 1.8908926211297536 19.749461683939447 2.4042845293588471 2.8932717756833881 0.59574499932932612 1443.5485163283447 4.4887480806792146 0.71965436975005914 0.5716450866311783 7.3750021724845274 7.5596381361829108
leaf_count=55 152 32 100 147 72 130 84 34 340 22 197 166 107 37 305 9 83 54 44 69 889 121 99 25 7950 191 26 17 253 463
internal_value=0 0.000592014 0.0266524 -0.00919669 0.0157956 -0.0362298 0.0500257 0.011331 0.0362982 -0.0979332 0.0612744 0.0819434 -0.0184032 -0.0927034 -0.0111139 0.0365341 -0.048068 0.0760783 -0.0265359 -0.0328371 -0.0128106 -0.0825177 0.0167843 -0.102981 -6.03266e-05 0.000312371 -0.0455128 -0.13726 0.112901 -0.0779015
internal_weight=0 1496.46 36.5442 14.4229 11.7103 5.46201 22.1214 9.99914 8.13929 1.85985 6.24827 12.1222 46.1072 4.11926 41.988 10.2669 3.27032 6.99663 31.721 30.3637 21.6404 8.72334 4.07334 2.66395 1459.91 1448.04 11.8735 3.33531 8.37618 8.27929
internal_count=12273 10359 1577 646 499 230 931 480 374 106 269 451 1914 161 1753 325 117 208 1428 1384 958 426 153 108 8782 8141 641 124 285 489
is_linear=0
shrinkage=0.3


Tree=285
num_leaves=31
num_cat=0
split_feature=184 169 112 24 12 141 156 21 199 17 222 42 251 285 79 108 154 278 158 25 95 219 6 207 207 223 73 217 62 180
split_gain=0.187558 0.221351 0.257815 0.178216 0.311509 0.271401 0.532675 0.294736 0.263198 0.275808 0.295608 0.255862 0.252757 0.250397 0.246136 0.241984 0.235456 0.229911 0.360263 0.450011 0.411088 0.280122 0.301774 0.280152 0.218865 0.214208 0.19863 0.176851 0.167876 0.16186
threshold=-0.11825850233435624 0.07690099999308582 0.015439751776599253 0.0018040972391099876 0.0089203953713120517 -0.03527569683153637 0.038502269498351442 -0.023405499756336146 -0.10943799838423723 -0.052313501015305443 0.021642499603331054 -0.030729999765753694 -0.060180999338626841 -0.083975002169609028 0.032611500471830306 -0.0056389644047140095 -0.028552461115517548 -0.018289483850597098 -0.037434000521898249 -0.078020501881837775 -0.0085115122530239305 -0.024588000029325447 -0.12573000043630592 0.00083249999443065013 -0.058025499805808047 -0.083521500229835482 0.028600930716406712 0.061292000114917762 0.028771341690331121 0.072202000766992513
decision_type=2 2 2 2 2 2 2 2 2 2 2 2 2 2 2 2 2 2 2 2 2 2 2 2 2 2 2 2 2 2
left_child=1 2 29 5 8 6 7 -2 16 10 -10 24 -8 27 -14 -11 -5 21 20 -20 -19 22 -7 -23 -6 -26 -15 -13 -9 -1
right_child=3 -3 -4 4 11 17 12 28 9 15 -12 13 14 26 -16 -17 -18 18 19 -21 -22 23 -24 -25 25 -27 -28 -29 -30 -31
leaf_value=0.1267232663543203 -0.1441723558172795 -0.17240608805539462 -0.040535173196760407 -0.091840163603051084 -0.14618844058516337 0.20606119271724746 -0.0761414769772841 0.067692483120375568 0.051683740777515759 -0.045726807929677878 -0.13786793448045306 0.13061091603096148 0.13161353120548006 0.028028805295063412 0.012896910263097963 -0.12477300972446428 0.10981580603562753 0.0070483322481616553 0.046177362821970463 -0.00026886166523784909 -0.04801969301293578 0.0028932606762334429 -0.023228393489908516 0.092706949745699194 -0.17678295512656042 0.084560232930807375 -0.085590233387029813 -0.10653352933987799 -0.086831697383546583 -0.10020422907716441
leaf_weight=3.6323232528520744 1.6171343985770361 0.36303327325731505 1.4075207373098235 0.7475930927175799 0.4444768298708367 0.54884748952463169 0.7985070840222751 1.8987110179987206 3.4420524777233394 9.5424736684581166 0.94341119282762509 1.3288230889447721 6.0374281797558051 2.0229268999391925 2.125015439465642 5.4912950035832173 1.7201267257914867 20.673863709365833 19.024641658936162 1426.8903729367739 29.76766443973429 5.0825011375127351 8.7929326345656609 8.1187517339130846 0.29668502576532763 5.8072321092477059 4.3898803410920664 0.35962067838408973 0.94902841362636525 0.30677506866049942
leaf_count=197 100 13 80 37 55 11 53 109 222 741 99 79 221 142 91 590 105 768 653 4860 1319 224 395 328 41 304 295 36 64 41
internal_value=0 0.0542794 0.0696712 -0.000192513 -0.0208993 0.000301218 0.0427676 -0.0418877 -0.0435621 -0.0552895 0.0109069 0.0129594 0.0849479 -0.0226858 0.100707 -0.0745995 0.0487243 -7.41497e-05 -0.000527178 0.000342255 -0.0254496 0.0299969 -0.00975719 0.0581286 0.0570575 0.0718575 -0.049749 0.0801017 0.0161963 0.10905
internal_weight=0 5.70965 5.34662 1568.86 36.5366 1532.33 13.4258 4.46487 21.887 19.4192 4.38546 14.6496 8.96095 8.10125 8.16244 15.0338 2.46772 1518.9 1496.36 1445.92 50.4415 22.543 9.34178 13.2013 6.54839 6.10392 6.41281 1.68844 2.84774 3.9391
internal_count=12273 331 318 11942 2746 9196 638 273 1794 1652 321 952 365 552 312 1331 142 8558 7600 5513 2087 958 406 552 400 345 437 115 173 238
is_linear=0
shrinkage=0.3


Tree=286
num_leaves=31
num_cat=0
split_feature=97 88 63 62 278 4 55 269 216 27 182 202 210 226 5 121 151 210 107 8 222 66 183 190 5 129 106 257 34 14
split_gain=0.185183 0.26968 0.263506 0.202612 0.268129 0.248475 0.268735 0.239209 0.235358 0.245956 0.226097 0.219094 0.308372 0.27561 0.209836 0.197918 0.214985 0.193507 0.176113 0.171023 0.168432 0.22315 0.167617 0.159926 0.148839 0.14188 0.1317 0.119894 0.0871358 0.0767468
threshold=-0.069194505158165776 0.022923290841027674 -0.027843999676406297 0.086698927551194974 0.034585999324917759 -0.056171000003814649 0.082008000463247258 0.18350199488799185 -0.068342000246047932 0.075781825674588341 0.091016996651887866 -0.0022514293303440981 -0.093463499099016134 -0.00044449999404599997 0.01836649980396025 0.059586590733205658 -0.015452999621629647 -0.086664504250070232 -0.051778990476783603 0.073164001107215867 -0.061277807412712153 -0.10782499983906739 -1.0000000180025095e-35 -0.037189500406384392 -0.0039311899023497217 -0.020195499993860697 0.0059695352676361587 0.005651525857384254 0.015241499990224802 0.033849969752556337
decision_type=2 2 2 2 2 2 2 2 2 2 2 2 2 2 2 2 2 2 2 2 2 2 2 2 2 2 2 2 2 2
left_child=1 24 20 7 5 -5 18 10 25 17 11 12 -2 -13 19 16 -4 -10 -7 -12 21 -3 -22 -24 29 -9 -16 -6 -26 -1
right_child=3 2 15 4 27 6 -8 8 9 -11 14 13 -14 -15 26 -17 -18 -19 -20 -21 22 -23 23 -25 28 -27 -28 -29 -30 -31
leaf_value=0.18800802429420788 -0.038667223348066236 0.16608194533451609 0.11471213759027658 -0.17388783943304467 -0.18344880274402189 -0.097336481644581793 -0.15240124073905062 -0.024338475638645669 0.13955233035369216 0.1629652591688833 -0.15273829456407667 -0.042049361480513921 0.028817580130587647 0.00013682903340109595 -0.093416901147288942 -0.142191825608177 -0.1563684291219001 -0.12256079557583995 0.12941150215363953 0.0040566394656241182 -0.18608271300716878 -0.16565408002105175 0.1223048878141333 -0.20281344434101248 -0.15695491020348651 -0.20584757649582353 0.16675310112489983 0.037421975361166766 0.062176416736467011 0.020741782495782443
leaf_weight=0.68379190948780866 7.0579878389144133 0.37953898019623011 1.3084225867933128 0.32961171478746099 0.55850980969262298 0.33116832346422587 0.36765891261165951 0.55248148250393581 0.32063740116427686 0.57146967755397771 2.177745406224858 14.084661356151626 44.620112645106019 1337.248102349984 0.27950405667070288 0.59232305841578625 0.32963590930739894 1.2104717454058107 4.46066830336349 0.87870881789422117 2.5619810109383256 0.35152002870017884 0.34457962679152843 0.22513787915522732 0.34728324040770431 1.2985980352968909 0.46884363187564304 0.36622866871766746 0.30830108044028748 0.3863815496006282
leaf_count=41 510 17 99 24 43 36 49 21 13 21 141 919 3159 6041 29 76 58 78 317 81 193 37 31 30 25 59 33 38 17 37
internal_value=0 -0.046029 -0.0756802 0.000266974 0.0534667 0.078643 0.0947758 2.51095e-05 -0.0736636 -0.00498482 0.000232201 0.000430256 0.0196008 -0.000302869 -0.0728001 0.00642213 0.060161 -0.0676703 0.113741 -0.107661 -0.123087 0.00657108 -0.153354 -0.00617361 0.0586605 -0.151674 0.0695809 -0.0959763 -0.0539042 0.127617
internal_weight=0 7.8189 6.09314 1417.18 6.41385 5.48911 5.1595 1410.77 3.95366 2.10258 1406.82 1403.01 51.6781 1351.33 3.8048 2.23038 1.63806 1.53111 4.79184 3.05645 3.86276 0.731059 3.1317 0.569718 1.72576 1.85108 0.748348 0.924738 0.655584 1.07017
internal_count=12273 661 541 11612 507 426 402 11105 192 112 10913 10629 3669 6960 284 233 157 91 353 222 308 54 254 61 120 80 62 81 42 78
is_linear=0
shrinkage=0.3


Tree=287
num_leaves=31
num_cat=0
split_feature=266 278 20 223 22 50 289 288 255 292 227 298 255 271 174 69 40 202 35 278 99 263 229 100 180 283 208 2 169 45
split_gain=0.153566 0.302996 0.299036 0.251832 0.24972 0.346851 0.429328 0.328748 0.313818 0.313655 0.292901 0.421969 0.288392 0.400319 0.338118 0.371375 0.282773 0.303776 0.32326 0.26754 0.261341 0.245444 0.243305 0.300283 0.275567 0.2627 0.28091 0.290045 0.248664 0.236697
threshold=-0.079330999404191888 -0.0031022180678259227 0.036871999502181958 -0.028605507272945162 0.024365999735891802 0.079903997480869265 0.068784002214670167 0.057223500683903659 1.0000000180025095e-35 0.037966700037737965 0.010785971938628005 -0.041695000603794989 0.0031635001068934508 0.00097300001652905006 0.10321700200438497 0.062291175188877369 0.10315735571515154 0.007589322136611348 0.017887194027436711 0.056206999346613856 0.013238999992608953 -0.064054500311612986 0.010326000396162252 -0.087480500340461634 0.038894769101963329 0.021488021284653772 -0.012761000078171448 -0.0057230000384151493 -0.06610236244181493 -0.027673999778926296
decision_type=2 2 2 2 2 2 2 2 2 2 2 2 2 2 2 2 2 2 2 2 2 2 2 2 2 2 2 2 2 2
left_child=1 2 3 -1 8 7 9 10 16 -7 11 -6 13 -10 15 -14 -2 19 -19 -18 -15 -5 25 24 -24 28 27 -27 -3 -23
right_child=4 22 -4 21 5 6 -8 -9 12 -11 -12 -13 14 20 -16 -17 17 18 -20 -21 -22 29 23 -25 -26 26 -28 -29 -30 -31
leaf_value=0.11998050130280517 -0.00018942155075952132 0.10973439317195799 -0.10684574788126101 0.14751706989832233 -0.09652371139123879 -0.12795127778492651 0.12990367580912138 -0.087163101625344047 -0.10895034166020857 0.086259834579681685 0.051568857127387506 -0.0013092891388143256 -0.0013384198938991957 0.17952876605210019 0.12171506982122893 0.079267760251659714 -0.13164467902565591 0.10859445370255304 -0.15110232070766272 0.094955780740384091 0.024537259441037389 -0.1342171684141929 -0.14766400481869082 0.1141203074736061 0.049843637981603454 -0.018494462344523739 0.1591456704023044 0.12268035430397629 -0.044517635466614594 0.059334277610592803
leaf_weight=1.4993762092199174 1396.8383311356083 1.3782504110131411 2.6927497105207294 0.5750374188646673 4.8275124943465881 5.9023914593853979 0.77887458470650006 4.6006222468276965 0.7656848703045388 0.68677253718487907 7.396081516169942 31.674998044407406 37.589837263250956 2.8518545088591054 2.5679252536501727 5.9598125799675463 4.0465230633417368 1.4768648890312763 0.60937602911144484 0.53039656025066495 1.4910205566557122 1.6988002022262665 1.7086263340897865 1.0588911708910007 1.0125316760968415 2.6882831451948759 3.5975316567346409 2.5542149182874709 2.961914214189167 0.85476651081990285
leaf_count=69 6414 52 91 19 255 317 19 287 33 35 335 1340 1596 58 78 255 192 45 29 23 70 70 61 51 41 94 96 93 116 39
internal_value=0 0.0236514 -0.0273574 0.0188922 -0.000397623 -0.0200804 -0.0807269 -0.0108669 0.000358273 -0.105625 -0.00287102 -0.0139015 0.023422 0.0910538 0.0159303 0.00969262 -0.000483526 -0.0621384 0.0327389 -0.105385 0.126316 -0.0295542 0.0456689 -0.0214265 -0.0741722 0.0649117 0.0945885 0.0502878 0.0044662 -0.0694288
internal_weight=0 24.281 7.32073 4.62798 1510.59 55.8673 7.36804 48.4992 1454.73 6.58916 43.8986 36.5025 51.2261 5.10856 46.1176 43.5496 1403.5 6.66316 2.08624 4.57692 4.34288 3.1286 16.9602 3.78005 2.72116 13.1802 8.84003 5.2425 4.34016 2.55357
internal_count=12273 892 288 197 11381 2588 371 2217 8793 352 1930 1595 2090 161 1929 1851 6703 289 74 215 128 128 604 153 102 451 283 187 168 109
is_linear=0
shrinkage=0.3


Tree=288
num_leaves=31
num_cat=0
split_feature=49 166 186 259 219 168 174 205 193 238 144 278 126 9 200 31 263 201 59 240 35 73 72 126 214 32 229 237 79 276
split_gain=0.1889 0.290584 0.294558 0.260484 0.42448 0.276459 0.246258 0.281819 0.24161 0.39916 0.413492 0.384052 0.398894 0.373028 0.372664 0.357081 0.342317 0.339389 0.312319 0.291955 0.369038 0.278533 0.309942 0.292407 0.3119 0.249373 0.326685 0.306098 0.284372 0.243471
threshold=0.074392372317169497 -0.056856999173760393 -0.0063465000130235498 -0.05286043030789337 -0.044447500258684144 0.032479053819183423 0.074432000517845112 -0.023349500447304224 -0.018914000131189747 -0.081122998148202827 -0.0044077708457760977 0.0003983168196867311 0.083801500499248463 0.085945501923561055 -0.049128999933600391 -0.035410713705030926 -0.038765000179409946 -0.0005198425396544835 -0.030740500427782497 0.10739254065236582 -0.085919376159441049 0.085090000182390213 -0.064708501100540147 0.040153499692678403 -0.0013514636296131758 -0.019299611022000691 -0.070532001554965876 0.025887000374495903 -0.016097888090752292 -0.053149058169598917
decision_type=2 2 2 2 2 2 2 2 2 2 2 2 2 2 2 2 2 2 2 2 2 2 2 2 2 2 2 2 2 2
left_child=8 2 -2 4 -3 6 7 -5 21 10 14 19 13 -13 18 -14 -12 -16 -10 29 -21 25 -23 24 -24 26 -1 -28 -27 -11
right_child=1 3 -4 5 -6 -7 -8 -9 9 11 16 12 15 -15 17 -17 -18 -19 -20 20 -22 22 23 -25 -26 28 27 -29 -30 -31
leaf_value=0.09785977065950717 0.023287422051176603 0.080277576963103739 0.14421960824944199 -0.043078686650781697 -0.1181531086471244 0.060586414807800262 -0.083318736236440774 0.055089279808504227 -0.067966413111919921 -0.06919109973124607 -0.14365166603416599 -0.048197658825529746 0.097223550185422655 0.087236239008647479 0.028801009475413343 -0.04637508727231901 0.025126511431072182 -0.18665518639014697 0.099539461338099544 -0.1542721774336521 0.072492968396392493 -0.1743258144507806 0.098699198184637585 -0.090715324118209151 -0.070840829569431107 0.097428866485918766 -0.085683817275918617 0.023321371994706758 -0.013456084795039144 0.00016138828564881731
leaf_weight=1.4951482639880875 4.2860129613836762 1.3949628432164898 3.1412757341167881 4.4865133784915097 3.1867267426496282 9.2874035076820274 2.9439659967902108 6.3669929593816059 1.0918766146496679 4.5704188507952486 1.7467444661306215 34.167028974840832 3.8984077158966102 1.933927584090269 2.7243301162670837 2.5965614386004736 2.8399149752513031 0.86752418754622418 12.143492298520867 0.70138672890607168 8.1634690518694679 1.9376460814091832 2.0833730495360219 4.8946322455594782 1.8383136428565174 3.5896311422839062 7.4479542808112438 3.3664677365304669 4.954568490735257 1424.6201750825167
leaf_count=83 203 67 121 237 180 388 153 377 70 229 75 1880 129 84 162 127 140 47 413 23 288 102 106 236 103 169 506 227 404 4944
internal_value=0 0.0217471 0.0744341 0.00760288 -0.057738 0.0205712 -0.00636403 0.0145096 -0.000513376 3.28409e-05 0.0406986 -0.000555287 -0.0286286 -0.0409425 0.0624631 0.0398156 -0.0391495 -0.0232371 0.0857207 0.000276258 0.0545513 -0.0264707 -0.0656874 -0.0418109 0.0192263 -0.00624727 -0.033579 -0.0517511 0.0331294 -6.03945e-05
internal_weight=0 35.0939 7.42729 27.6666 4.58169 23.0849 13.7975 10.8535 1533.67 1502.07 21.4139 1480.65 42.5959 36.101 16.8272 6.49497 4.58666 3.59185 13.2354 1438.06 8.86486 31.6077 10.754 8.81632 3.92169 20.8538 12.3096 10.8144 8.5442 1429.19
internal_count=12273 1726 324 1402 247 1155 767 614 10547 8611 907 7704 2220 1964 692 256 215 209 483 5484 311 1936 547 445 209 1389 816 733 573 5173
is_linear=0
shrinkage=0.3


Tree=289
num_leaves=31
num_cat=0
split_feature=76 297 115 228 102 155 20 144 97 285 171 291 120 5 239 244 56 244 165 4 297 59 276 47 20 247 146 67 155 252
split_gain=0.17486 0.310921 0.343474 0.284215 0.248686 0.239158 0.228352 0.227306 0.22069 0.198844 0.310159 0.284675 0.261618 0.280738 0.25825 0.306932 0.325097 0.313632 0.293287 0.251088 0.25033 0.563778 0.355963 0.253336 0.410539 0.235062 0.219751 0.238001 0.2164 0.20945
threshold=0.029657999984919952 -0.027351999655365899 -0.061666000634431742 -0.082678749875201782 -0.09560149908065789 -0.0072171322126122735 0.044800499454140601 -0.050718000158667495 -0.056523500010371146 0.029601999558508351 -0.024917141072826266 0.042491586475213498 0.036754000931978156 0.027284000068902903 0.072477685365729946 -0.087558999657630837 -0.030656999908387595 -0.10273043666758387 -0.032450504872705073 -0.05123149976134294 1.0000000180025095e-35 0.073446501046419116 -0.010571499820798599 -0.041254364673774427 -0.0027925800173320896 -0.036470999941229792 -0.055322459288820867 -0.049678717640264276 -0.039913000538945143 0.087612628903723969
decision_type=2 2 2 2 2 2 2 2 2 2 2 2 2 2 2 2 2 2 2 2 2 2 2 2 2 2 2 2 2 2
left_child=9 3 -3 7 8 -6 -7 -2 -4 14 19 12 28 -14 20 16 17 -16 -17 -11 23 22 -22 29 -25 -20 -21 -28 -12 -1
right_child=1 2 4 -5 5 6 -8 -9 -10 10 11 -13 13 -15 15 18 -18 -19 25 26 21 -23 -24 24 -26 -27 27 -29 -30 -31
leaf_value=-0.076169513425199856 -0.20605495845045177 -0.15633401395551019 -0.12664271220859122 -0.14417751091722947 0.06431580205633379 -0.11231875606544206 0.074046579580088576 0.079228115630868234 0.12928943387720371 -0.10634076189500503 0.080228068870532632 0.14460668027434043 0.10871205152858661 -0.20697934078078464 -0.11060021089263879 -0.1507312261903167 0.099050819451065003 0.052449135599649727 -0.098462580750410034 -0.19505982565963714 0.0091930042688237925 -0.13343249344256558 0.082519232567611678 0.048087734204870038 -0.00036387487672859725 0.0034969734911000105 -0.096822187541641444 0.10347187053323323 -0.13434954404816588 0.035486410673003191
leaf_weight=6.7488886597548099 0.32398401622776862 1.1210123774399097 0.34894790186081115 3.3091594906272794 2.0154159192861689 2.4527639643492898 0.77985869181429723 1.1213971598626811 2.3145857858617074 0.68942691854317573 0.50401516546116898 0.79672033142924181 1.3216982242010997 0.31369552062824357 2.3259669523540651 2.7818970589778482 2.5557859465770916 1.9534832659701349 3.4522720331697201 0.2507291745278043 13.465749251303354 1.777284885472908 10.687400081551459 15.92851221141609 1323.6913667494628 4.9571209847454121 0.57266449613962045 7.894256815801783 2.6312369755469258 1.9485865880269555
leaf_count=598 17 139 31 384 235 237 77 78 145 52 29 55 81 12 142 209 152 93 299 15 906 216 868 1087 4870 425 40 468 191 122
internal_value=0 -0.0336063 -0.000920559 -0.0957019 0.0211004 -0.0167915 -0.0673588 0.0152816 0.0957599 0.000344271 0.0347301 -0.0213929 -0.0491156 0.0481572 -2.55615e-05 -0.0356999 0.01439 -0.0361715 -0.0662929 0.0679452 0.000442392 0.0296393 0.0416387 -0.000119114 0.00021223 -0.03836 0.0817284 0.0899249 -0.0998546 -0.0511541
internal_weight=0 13.7871 9.03258 4.75454 7.91157 5.24804 3.23262 1.44538 2.66353 1407.25 14.9744 5.56737 4.77065 1.63539 1392.27 18.0265 6.83524 4.27945 11.1913 9.40708 1374.25 25.9304 24.1531 1348.32 1339.62 8.40939 8.71765 8.46692 3.13525 8.69748
internal_count=12273 1343 864 479 725 549 314 95 176 10930 943 368 313 93 9987 1320 387 235 933 575 8667 1990 1774 6677 5957 724 523 508 220 720
is_linear=0
shrinkage=0.3


Tree=290
num_leaves=31
num_cat=0
split_feature=130 226 221 37 210 194 255 199 180 43 280 292 29 113 37 146 18 296 276 159 3 95 148 44 54 16 85 76 278 265
split_gain=0.144025 0.24917 0.216062 0.285673 0.169585 0.187011 0.228215 0.166423 0.191486 0.198834 0.198017 0.186641 0.320895 0.521976 0.264158 0.190083 0.288454 0.244671 0.164177 0.161598 0.156714 0.139326 0.1325 0.122693 0.17809 0.0775849 0.0619019 0.0399335 0.0260081 0.019558
threshold=0.099480773833629896 0.10104550048708912 -0.014032767279116469 -0.035850803404455775 -0.14175972177030802 0.014640458644534065 0.012821580280428804 0.042695499956607805 0.024572079615411857 0.043496999889612156 0.00058150000404565009 -0.091545000672340338 0.029765278597626423 0.027414499782025755 0.037162000313401201 -0.038771532930780721 -0.032978000119328443 -0.052152010495803418 0.039641739986755173 -0.024026480461377939 0.012691500131040801 0.018556999973952753 0.051598180140140289 -0.024585500359535144 -0.0058309999294578491 -0.043269999325275345 -0.012648500036448199 -0.036794999614357893 0.010290499776601751 -0.04473249986767764
decision_type=2 2 2 2 2 2 2 2 2 2 2 2 2 2 2 2 2 2 2 2 2 2 2 2 2 2 2 2 2 2
left_child=4 2 3 28 5 6 22 11 9 10 -9 12 14 -14 -6 16 -13 -17 19 -5 29 -22 -1 24 -10 -25 -7 -11 -2 -4
right_child=1 -3 20 18 7 26 -8 8 23 27 -12 15 13 -15 -16 17 -18 -19 -20 -21 21 -23 -24 25 -26 -27 -28 -29 -30 -31
leaf_value=0.067202447429444784 -0.090199844731683257 0.14532939898912958 -0.1166874114513272 0.12207640594084818 0.07047876016756284 0.21102011896102538 0.13697854869004125 -0.058429267925320404 0.1898886463264598 0.2038518107610581 0.10077605985897897 -0.043138463642584932 -0.13519515104357779 0.0035735093473532016 -0.093461965583673992 -0.031358693511243561 0.037636878691133309 0.00014932102577931892 0.16071101734761672 -0.13230756299990618 -0.15786234335157601 0.088270617252413544 -0.18831268924612785 0.04045777303272876 -0.068916745061449014 0.17877508005584711 0.086691848134974728 0.072672732517614247 -0.2049653507473275 -0.204447868387231
leaf_weight=0.27039052511099659 0.28639559377916191 0.53608372778398905 0.27684780582785617 0.38686535682063561 3.5739981825026907 0.72552534565329552 0.60234335064888 3.0586777420830908 0.36380874319002032 0.42358292103745043 0.91300023178337131 4.7678479334572357 4.8348971122541098 4.9241333210957237 1.1755103177856652 22.526653878885554 24.045345312537393 1446.1449781615265 0.78817067318595946 0.53633559506852146 0.39312931988388289 0.43713532504625618 0.56289228671084857 0.47960186656564507 0.69918426487129204 1.5271138644311575 0.71620675548911072 0.41200792673043896 0.46832664282192127 1.3098478799220166
leaf_count=17 22 23 15 18 132 14 24 206 21 16 39 218 221 198 46 1025 1165 8407 31 29 27 19 35 27 54 65 32 25 26 76
internal_value=0 -0.0488188 -0.0701332 -0.00765988 0.00017572 0.0729381 -0.00370621 3.79691e-05 0.0435311 0.00615363 -0.0218315 -0.000188615 -0.0340512 -0.0651764 0.0299032 0.000139466 0.0242706 -0.000333953 0.0601468 -0.0257085 -0.133877 -0.028273 -0.105401 0.102065 0.0196593 0.145717 0.149258 0.139171 -0.161415 -0.189135
internal_weight=0 5.41914 4.88305 2.46609 1522.75 2.87736 1.43563 1519.87 7.87698 4.80727 3.97168 1511.99 14.5085 9.75903 4.74951 1497.48 28.8132 1468.67 1.71137 0.923201 2.41696 0.830265 0.833283 3.06971 1.06299 2.00672 1.44173 0.835591 0.754722 1.5867
internal_count=12273 286 263 126 11987 122 76 11865 453 286 245 11412 597 419 178 10815 1383 9432 78 47 137 46 52 167 75 92 46 41 48 91
is_linear=0
shrinkage=0.3


Tree=291
num_leaves=29
num_cat=0
split_feature=102 187 165 130 192 291 18 101 46 276 288 189 155 121 258 124 125 267 198 294 175 161 52 1 100 84 241 165
split_gain=0.180331 0.193347 0.170784 0.194247 0.204976 0.174648 0.268155 0.286739 0.32412 0.22472 0.24202 0.200728 0.18922 0.18736 0.182095 0.171746 0.316395 0.214976 0.149147 0.139796 0.127118 0.121006 0.141081 0.080245 0.0694973 0.141791 0.0256601 0.00131798
threshold=0.068779498338699327 -0.008360140491321057 0.077398497611284214 -0.026928500272333598 0.039160523217377383 0.043460499495267806 -0.077206999063491738 -0.033407519373981766 0.036349242661596427 -0.015777500346302896 -0.043444114118014937 -0.0062662332496855782 0.057415999472141259 0.0228059999644756 -0.0021422531625955449 0.036226028555173463 -0.079901497811078984 0.054543498903512906 0.020842500030994405 -0.035353261834036122 -0.017672499641776047 -0.07986499741673464 -0.0094871785196986753 -0.00087758592673244226 -0.10572800040245053 -0.030995999462902497 -0.048495477785063544 0.011464499868452502
decision_type=2 2 2 2 2 2 2 2 2 2 2 2 2 2 2 2 2 2 2 2 2 2 2 2 2 2 2 2
left_child=2 24 5 -4 21 6 7 14 -9 12 20 -12 13 -7 -1 17 -17 -8 -3 -14 -11 22 -5 -23 27 -26 -20 -2
right_child=1 18 3 4 -6 9 15 8 -10 10 11 -13 19 -15 -16 16 -18 -19 26 -21 -22 23 -24 -25 25 -27 -28 -29
leaf_value=0.12714181090731666 0.18230230280926538 0.13907290629243649 -0.10501063583926243 -0.11708811519852511 -0.094471273795958946 -0.032809091583002992 -0.00027905161442059925 -0.10731071282202131 0.12549879483480025 0.0224116569658406 -0.072803063392213818 0.019737224546094483 0.17222594821742127 -0.1572751244183582 -0.094540441283059704 0.11115938730506245 -0.057671098580378381 0.049348424023783449 -0.066107470738900095 -0.071511569445497372 0.19444657477855096 0.18035367342436179 0.11407032819784571 0.059749086125887911 -0.087198335026622664 0.16936572584220932 -0.20350908303676699 0.20573467096167131
leaf_weight=3.8140601682971464 0.38159911334514629 0.25849462323821981 0.57154747645836312 0.39931755559518933 0.51313012064201746 1.8433984252042144 1516.0964140184515 1.4946427844261045 0.84106065426021803 0.822563259062008 4.1397320953292347 4.3015292992204177 0.41629900550469756 2.6578532532439567 0.36544042010791589 1.1225933794012224 9.0747822307184816 7.8966907443100345 0.22119989618659019 0.4310969179496168 0.72928452986525261 1.7057370207621723 0.58684275893028859 0.70038882293738325 0.30735414536320615 0.52502793629537337 0.27366479579359293 0.4979144407552667
leaf_count=181 22 20 33 21 24 128 9304 89 38 50 303 306 16 156 36 58 753 380 14 31 36 103 30 37 26 33 26 19
internal_value=0 0.0810297 -0.000172442 0.0583375 0.0822431 -0.000340784 -2.36302e-05 0.0607101 -0.0234786 -0.0321911 -0.00562818 -0.025646 -0.0818198 -0.106303 0.107759 -0.000281546 -0.0390851 -2.19029e-05 -0.0456179 0.048229 0.103259 0.108974 0.0204693 0.145247 0.136764 0.0746304 -0.142092 0.195568
internal_weight=0 2.46525 1560.52 4.47696 3.90542 1556.05 1540.71 6.5152 2.3357 15.3418 9.99311 8.44126 5.34865 4.50125 4.1795 1534.19 10.1974 1523.99 0.753359 0.847396 1.55185 3.39229 0.98616 2.40613 1.7119 0.832382 0.494865 0.879514
internal_count=12273 160 12113 248 215 11865 10839 344 127 1026 695 609 331 284 217 10495 811 9684 60 47 86 191 51 140 100 59 40 41
is_linear=0
shrinkage=0.3


Tree=292
num_leaves=31
num_cat=0
split_feature=165 48 156 86 89 210 171 5 260 236 290 193 299 34 148 245 281 87 247 17 296 234 124 5 94 95 249 228 110 253
split_gain=0.183419 0.240458 0.28554 0.238708 0.283525 0.257251 0.232583 0.291598 0.298844 0.277408 0.249548 0.237783 0.235735 0.409789 0.404087 0.403495 0.257445 0.257801 0.212962 0.311645 0.231361 0.205771 0.20551 0.204695 0.21597 0.225673 0.20319 0.195602 0.194449 0.191858
threshold=0.023026499897241554 0.00073768042130585804 -0.0068938185199271642 0.016649554607290246 -0.044606379569709705 -0.017489500343799546 -0.048642000183463048 0.024530500173568701 0.051503499969840008 0.0083224996924400017 1.0000000180025095e-35 0.039715500548481907 -1.0000000180025095e-35 -0.0012433582481921575 0.0028905800462083694 -0.007040999829769099 0.024350495535658278 -0.013294499833136698 -0.044009000062942442 -0.0033260216259042596 -0.019669000059366195 0.01510550387859695 -0.030626590714091979 -0.03722850047051899 -0.058702999725937795 0.0077769706415730848 0.068163916667824606 -0.07721478747234839 0.038031000643968554 -0.037529500201344441
decision_type=2 2 2 2 2 2 2 2 2 2 2 2 2 2 2 2 2 2 2 2 2 2 2 2 2 2 2 2 2 2
left_child=6 2 -2 5 -5 29 10 12 9 21 11 18 13 14 -8 -15 27 -18 19 -1 -20 -9 -6 -12 25 -25 -13 -14 -7 -4
right_child=1 -3 3 4 22 28 7 8 -10 -11 23 26 16 15 -16 -17 17 -19 20 -21 -22 -23 -24 24 -26 -27 -28 -29 -30 -31
leaf_value=0.056528627691483792 -0.13576407050749129 -0.11213403468702705 -0.16894747689048362 -0.087720087022400417 0.13003937542570909 0.074061230068661804 -0.22486340511184236 0.095577622624844052 -0.10613723317264928 -0.13552663664462522 -0.13384058445399186 0.0097286275484095037 0.044724071224415664 0.010008675246632322 0.008864167177417507 0.14215986803749073 0.0089027009702384186 -0.13612937033020206 0.027907081380887776 -0.10242407344564843 0.10915048232509492 -0.19070461721395485 0.011567198633588453 0.19324129647834332 -0.045192377096000803 -0.071566350170180537 -0.1571003212042196 -0.00024242702318875932 -0.10116397514810017 -0.038116578497228583
leaf_weight=3.3472278221888701 1.5927055646534451 2.7203459098573139 1.568388439096452 1.2601781065168323 2.6299811965036497 2.2275813860978801 0.78975632898800441 2.1227717844540166 4.6679440452680865 0.83941131965912053 1.3066799685766453 3.3373072016865981 8.7634948657287151 3.8957740647219898 4.2390781354170031 4.4599285466465508 1.9763661341930854 2.4963268899900859 5.2717571562680012 1.660975515274919 7.8555695941249679 0.25288180597271992 2.6411710621068778 0.85681538173957938 2.7149039697032995 0.43755452566256281 0.818130409461446 1335.7758794202691 0.76596030213840993 2.8273367050678644
leaf_count=235 162 379 168 96 191 192 33 165 382 76 130 301 477 303 340 221 167 257 369 120 567 17 253 44 254 36 57 5867 101 313
internal_value=0 -0.0298635 -0.0154369 -0.00166981 0.0401157 -0.0386038 0.000421071 -0.00012819 -0.0576609 0.0127217 0.0276839 0.0416127 0.000204702 0.0398223 -0.0278417 0.0805455 -0.000188373 -0.0720435 0.0564444 0.00381181 0.0765242 0.0651037 0.0706775 -0.030723 0.00288455 0.103725 -0.023117 5.06575e-05 0.0292262 -0.0847969
internal_weight=0 18.2336 15.5133 13.9206 6.53133 7.38927 1397.89 1370.28 7.88301 3.21506 27.6069 22.291 1362.4 13.3845 5.02883 8.3557 1349.01 4.47269 18.1355 5.0082 13.1273 2.37565 5.27115 5.31595 4.00927 1.29437 4.15544 1344.54 2.99354 4.39573
internal_count=12273 1855 1476 1314 540 774 10418 8305 640 258 2113 1649 7665 897 373 524 6768 424 1291 355 936 182 444 464 334 80 358 6344 293 481
is_linear=0
shrinkage=0.3


Tree=293
num_leaves=31
num_cat=0
split_feature=299 169 76 34 241 179 226 272 77 242 27 226 140 216 215 29 28 32 16 0 293 218 195 70 147 75 184 172 65 256
split_gain=0.137851 0.277593 0.24376 0.284931 0.284925 0.22541 0.214388 0.233139 0.247665 0.193099 0.168037 0.162129 0.313184 0.19243 0.377083 0.45122 0.311235 0.289418 0.255098 0.273977 0.251386 0.24752 0.260281 0.22968 0.335963 0.265097 0.190229 0.201769 0.158531 0.150573
threshold=0.10057958982920441 -0.035219499841332394 -0.020304686801020096 -0.0134544996544718 -0.075113350390566089 -0.051898000761866549 0.037323500961065258 0.032376000657677602 0.0043768505214669589 -0.028278499841689998 0.046316562848966326 -0.067473497241735389 -0.05862832291814301 -0.10139850154519074 -0.022263000719249196 0.11522772601272772 -0.13150849938392631 0.0087160002440213515 -0.081479580315194935 -0.028081287484369933 0.036207894985006407 -0.084379563724036127 0.082371998578310013 -0.077700499445199883 0.031504999846219954 0.14221357770419987 -0.10536478448257554 -0.04109700024127954 0.034218499436974505 -0.010143000166863149
decision_type=2 2 2 2 2 2 2 2 2 2 2 2 2 2 2 2 2 2 2 2 2 2 2 2 2 2 2 2 2 2
left_child=11 5 3 -3 -4 -2 7 29 -9 -5 -11 12 -1 14 21 17 18 -16 19 -15 -20 -13 -23 24 -18 -25 -14 -28 -17 -7
right_child=1 2 4 9 -6 6 -8 8 -10 10 -12 13 26 16 15 28 23 -19 20 -21 -22 22 -24 25 -26 -27 27 -29 -30 -31
leaf_value=-0.139886474139956 0.15319425616772489 -0.16436218243398648 -0.11919285363213611 -0.1243230074612498 0.14273312438842892 0.058323443026735783 -0.16719415815805022 -0.065843269634329252 0.13971712332648822 0.018182792363934424 0.19175036789042071 0.17192844176170624 -0.15736967817748929 0.09070463077130024 -0.080575648501140434 0.1838314073214404 -0.022055030816761818 0.011932759818654713 0.10188367394607169 -0.17705751154614957 -0.031612954760948504 0.034149775815096449 -0.16713730131098345 -0.00013474984241849101 -0.16947113888277371 0.084456171447264347 -0.082811196194646039 0.13630610446294467 0.0017771239328669224 -0.14682033463606911
leaf_weight=0.61957634310238052 0.59909433918073762 0.68851483659818802 0.4150469759479164 0.45012536155991334 3.7593252917285991 0.43391200667247165 0.97990561695769418 0.89885677886195514 1.2768372104037551 1.1696058905217794 0.87949319113977242 1.0159778212546369 0.25935369753278825 0.59826232818886638 14.161365597181435 0.93073413625825085 12.30213048448786 3.8770131959863638 6.3823318606009689 0.80896705086342968 1.5847629011841489 5.0902439308520142 0.65225274174008507 1451.5010153939002 1.5688072944176372 3.341934169875457 0.43207001406699452 3.034683340083574 0.80092582368524745 1.2486643203301357
leaf_count=28 27 37 14 26 162 21 51 39 44 72 50 28 15 23 662 27 551 221 204 25 87 203 38 9107 102 145 26 132 44 62
internal_value=0 0.0310192 0.0689874 0.0065197 0.116691 -0.0203901 -0.0418844 -0.0100588 0.0547928 0.0535962 0.0926797 -0.000246362 0.057616 -0.000413482 -0.0257378 -0.0466502 4.10353e-05 -0.0606927 0.0545306 -0.0632225 0.0753294 0.0354356 0.0112869 -0.000306754 -0.0387278 5.95648e-05 0.0904567 0.108997 0.0996278 -0.0939167
internal_weight=0 12.7994 7.36211 3.18774 4.17437 5.43727 4.83818 3.85827 2.17569 2.49922 2.0491 1508.96 4.34568 1504.62 26.5285 19.77 1478.09 18.0384 9.37432 1.40723 7.96709 6.75847 5.7425 1468.71 13.8709 1454.84 3.72611 3.46675 1.73166 1.68258
internal_count=12273 605 361 185 176 244 217 166 83 148 122 11668 201 11467 1223 954 10244 883 339 48 291 269 241 9905 653 9252 173 158 71 83
is_linear=0
shrinkage=0.3


Tree=294
num_leaves=31
num_cat=0
split_feature=45 40 228 35 196 269 294 252 256 76 100 142 235 160 157 188 290 41 118 131 213 183 37 234 35 26 54 0 204 130
split_gain=0.175633 0.250446 0.306869 0.240887 0.368223 0.215534 0.176647 0.232676 0.340249 0.430056 0.372433 0.290164 0.376293 0.330196 0.226891 0.21235 0.340548 0.290783 0.271151 0.3284 0.316014 0.198357 0.18294 0.191273 0.176322 0.17333 0.163348 0.17965 0.163196 0.162459
threshold=0.024524999782443001 0.068157501518726307 -0.040804241962037038 -0.025155180974709413 0.037917999550700153 0.028125499375164457 -0.10368401404190673 0.065307002514600712 0.016264500096440253 -0.058196971867592269 -0.16408150643110267 0.002787515226593111 0.027673907194968459 -0.055408500134944895 -0.0025969999842344995 -0.034725999459624242 0.032503999769687604 0.084776498377323109 0.019905384918823096 -0.019211782803320459 -0.018000999465584696 -0.028241246965596965 -0.0074225000571458994 0.0055824997834860507 -0.080425500869750935 -0.057158499956130891 -0.020475262438663634 -0.013435083140026676 -0.058011000975966391 0.043269117519000318
decision_type=2 2 2 2 2 2 2 2 2 2 2 2 2 2 2 2 2 2 2 2 2 2 2 2 2 2 2 2 2 2
left_child=6 2 24 5 25 -4 14 15 11 -10 -11 13 -13 -9 21 16 17 -8 20 -20 -17 -1 23 29 -2 -5 27 -3 -7 -16
right_child=1 26 3 4 -6 28 7 8 9 10 -12 12 -14 -15 22 18 -18 -19 19 -21 -22 -23 -24 -25 -26 -27 -28 -29 -30 -31
leaf_value=-0.077016753665289844 -0.10831081107383733 0.11126276183790801 -0.1779980810746232 0.18370519603938734 -0.11510948797599743 0.1458309528591569 -0.093164703363286083 0.0093519638713895001 0.12866128987823813 0.12797142363644179 -0.0271532403740769 0.038124122228886337 -0.083703581185134379 -0.10820184154886467 -0.15032453714537955 -0.06761844067746034 0.091130728283459903 0.042591733686473697 -0.045660908088391391 0.04946091965687998 0.0001089837895409958 0.069748664592571091 0.1432053730327183 0.16301826144580692 0.11659965454890289 0.025282950017079902 0.13365967184807087 -0.079216963355966549 -0.064734813081103862 0.082078102105564474
leaf_weight=1.8843261163274294 0.35817582637537304 0.91335365455597639 1.3418227226648007 1.0365321018034586 1.1530534570338202 0.40855064918287132 6.9623652521549939 2.8236945262028703 2.2998800243185569 1.5570710268220871 13.213533471011029 5.7878958913424849 3.7668097326532006 9.0203092257870612 0.66383301751920931 6.2268682168942169 1.4579967915778969 1.7838238896511027 3.9565336895902901 18.730037547844404 1458.4636381824748 1.4795248411246573 2.5157788182841605 0.53105986438458774 2.5270741608983363 1.5525639331317518 2.9060744585731291 0.87019867089111336 1.7511709260579662 0.45712644944433123
leaf_count=93 20 40 70 40 66 16 659 129 141 54 763 263 227 541 41 535 78 115 233 1131 6182 83 129 27 144 94 174 55 108 22
internal_value=0 0.032479 0.00594136 -0.0270141 0.0259055 -0.0835701 -0.000337774 -0.000562499 -0.0235999 0.00798899 -0.0108005 -0.0487994 -0.00990475 -0.0801762 0.0454941 2.92749e-05 -0.0431002 -0.0654766 0.000325166 0.0328717 -0.000178947 -0.0124648 0.092273 0.0147106 0.0886792 0.0887065 0.0897966 0.0183273 -0.0249025 -0.0555509
internal_weight=0 14.8186 10.1289 7.24369 3.74215 3.50154 1543.58 1536.05 38.4692 17.0705 14.7706 21.3987 9.55471 11.844 7.53165 1497.58 10.2042 8.74619 1487.38 22.6866 1464.69 3.36385 4.1678 1.65202 2.88525 2.5891 4.68963 1.78355 2.15972 1.12096
internal_count=12273 827 558 394 200 194 11446 11051 2118 958 817 1160 490 670 395 8933 852 774 8081 1364 6717 176 219 90 164 134 269 95 124 63
is_linear=0
shrinkage=0.3


Tree=295
num_leaves=31
num_cat=0
split_feature=240 124 269 184 115 208 171 47 16 232 201 25 200 297 42 83 182 82 162 111 154 278 208 285 139 184 138 211 120 167
split_gain=0.162227 0.30574 0.253046 0.161153 0.202668 0.160107 0.151393 0.28935 0.247596 0.340105 0.249945 0.251196 0.225848 0.318417 0.225923 0.220123 0.214924 0.21083 0.205843 0.310079 0.258725 0.20274 0.191051 0.185006 0.181811 0.176877 0.201874 0.154644 0.14762 0.128794
threshold=0.16242250055074689 -0.040968500077724443 0.13898249715566638 -0.045195499435067142 -0.032172975142390751 -0.025719088512246666 -0.051331287272374813 -0.065930732277303436 -0.02833937207944482 0.083667498081922462 -0.056798877490210044 -0.086627002805471379 -0.11544549837708469 0.04061999917030331 -0.067970788003539825 0.063129499554634066 0.081093501299619661 0.035224224742835659 0.10128071829856632 0.030583813589019338 0.0003409474016410528 0.06591049954295157 -0.0091539998538791491 0.0056951210519112783 -0.027387784730702015 -0.0083575001917778977 -0.0082830286288274289 -0.042021499946713392 0.013286000117659551 0.065432835074250545
decision_type=2 2 2 2 2 2 2 2 2 2 2 2 2 2 2 2 2 2 2 2 2 2 2 2 2 2 2 2 2 2
left_child=6 2 29 -3 -5 -6 8 25 15 10 -10 -12 13 14 -9 16 21 28 20 -20 -14 -1 -15 24 -17 -8 -27 -28 -11 -2
right_child=1 3 -4 4 5 -7 7 12 9 17 11 -13 18 22 -16 23 -18 -19 19 -21 -22 -23 -24 -25 -26 26 27 -29 -30 -31
leaf_value=0.094364885955941044 -0.17162846591829337 -0.18877705008494602 0.15408846786698074 -0.18990273557503345 0.17612333045435657 -0.081351164006573065 -0.11468599820666395 0.069845812530849108 -0.10645647513669486 0.16587679753301418 -0.079565582763123005 0.029472665806441114 -1.6431683558055884e-05 0.11351871917805822 -0.13034365161878933 -0.10390736400589175 -0.084528053004171017 -0.038495582469865196 0.0082304001085471996 -0.13420714915188478 0.033716155229221383 -0.050455048341011895 -0.15740655784209093 -0.17837723733213839 0.11252009074864192 -0.1678686438504865 -0.083532615595536555 0.15134351641805113 -0.0455163320767187 0.084699486344216077
leaf_weight=9.224641302804228 0.4973702990246236 1.4109822534737757 0.89024509803857654 0.53895364282652736 0.42426455119857565 0.4457119994767702 3.1878649676164059 0.59080982585692199 2.7710485642319318 1.8914159737905718 2.7238326462575042 6.2984518443736306 1342.8526132534316 1.1850049196509642 3.5922221326254653 0.60883850310710852 0.76144360662147015 0.91070325546024822 2.9820172942763739 2.5532607907953206 20.780263172734522 0.96061172619374779 0.29197701339944604 0.59883630010153854 0.81958272412884903 0.42613594955764722 0.37599082611268375 0.76683326432976051 0.35275639872997988 0.2733916104916716
leaf_count=691 50 94 31 34 21 38 403 64 285 203 200 585 6124 86 428 69 59 77 304 302 1691 95 44 45 60 40 42 67 24 17
internal_value=0 -0.0569696 0.0451351 -0.117112 -0.045343 0.0442123 0.000203114 -0.000239525 0.0220731 -0.00424529 -0.0276501 -0.00344604 1.60354e-05 -0.0597872 -0.102069 0.0523964 0.0692128 0.0832451 0.000263257 -0.0574718 0.000497616 0.0807063 0.0599609 -0.0384076 0.0202718 -0.0741021 0.00835769 0.0740689 0.132648 -0.0807082
internal_weight=0 4.48092 1.66101 2.81991 1.40893 0.869977 1407.51 1379.58 27.9222 14.9482 11.7933 9.02228 1374.83 5.66001 4.18303 12.974 10.9467 3.15488 1369.17 5.53528 1363.63 10.1853 1.47698 2.02726 1.42842 4.75683 1.56896 1.14282 2.24417 0.770762
internal_count=12273 285 98 187 93 59 11988 9595 2393 1374 1070 785 9043 622 492 1019 845 304 8421 606 7815 786 130 174 129 552 149 109 227 67
is_linear=0
shrinkage=0.3


Tree=296
num_leaves=31
num_cat=0
split_feature=111 19 214 194 188 273 79 214 48 30 107 107 243 215 166 185 30 256 225 170 78 128 63 140 169 276 283 86 33 166
split_gain=0.140414 0.211833 0.21728 0.141436 0.363811 0.316595 0.278825 0.267567 0.302299 0.292906 0.322665 0.270758 0.2631 0.32545 0.261502 0.275078 0.253072 0.251789 0.407079 0.389448 0.420199 0.403314 0.36942 0.36005 0.241178 0.269371 0.22909 0.225612 0.211056 0.204323
threshold=-0.062587570550019775 0.048188000917434658 0.0068099999334663005 -0.022544123397736111 -0.035372499376535339 0.055679355349390038 0.044250000268220853 -1.0000000180025095e-35 -0.011737786274372138 0.024726499803364253 -0.043488500639796243 0.017951804785331791 0.028363394238188532 0.030044000595807953 -0.040051553429982983 -0.033005189856965926 0.060393000021576861 -0.0003975494996729427 -0.046631999313831239 -0.0025042625910829315 -0.011136297063807631 0.06187800131738181 -0.085742998868226991 -0.0010744999744928998 0.0023033913603268713 0.024065000005066353 0.14889200031757352 0.020363323548623611 -0.024941058152784069 0.025413507609291723
decision_type=2 2 2 2 2 2 2 2 2 2 2 2 2 2 2 2 2 2 2 2 2 2 2 2 2 2 2 2 2 2
left_child=1 2 -1 4 5 28 -7 8 9 10 -5 -11 24 27 -10 -16 -15 19 23 21 -21 -9 -20 -19 25 -6 -26 -14 -2 -30
right_child=3 -3 -4 7 12 6 -8 17 14 11 -12 -13 13 16 15 -17 -18 18 22 20 -22 -23 -24 -25 26 -27 -28 -29 29 -31
leaf_value=-0.17528178199603314 0.13516393345562236 -0.16909702859607545 0.11060422432514132 -0.069325091810750611 0.0095750310372849402 -0.1457068207127436 0.13103895524307571 -0.074253733759147039 -0.0044281572769865546 0.060452155379689863 0.0014407266088949028 -0.091125948910644225 0.053914445709015629 -0.1356866546842844 0.0060394474740145289 -0.14440910402351864 0.055845788285910039 -0.092585702523103913 0.13045620038666003 0.028531594258897581 0.13410311489415563 0.046622851951470451 -0.0001364805390156457 0.028842559379871187 -0.046739722178313764 0.068445616073488286 0.16938361597906407 -0.078678064974580394 0.009573184655012397 0.1476784445880982
leaf_weight=0.35452792690921275 4.140078500378876 1.0961124265450051 0.7359199479687959 9.753629912491304 34.300311209924985 1.0795703520998348 0.47042643418535579 5.5417042130720819 3.3630068956699688 7.1271261690999363 14.302122526714813 1.2460210461285894 3.4167389225913194 3.5775129025132628 1.433249255234841 4.6176202260685368 0.75125170099272498 7.7835752932005562 1.9523126232670609 14.704108642865323 4.4110714787384486 4.5028762295260094 1358.1873562092951 3.062331044347955 7.7656460922880779 8.7871812680605199 0.46801597217563529 1.744724377262173 3.8518827380248686 1.2860337000165598
leaf_count=29 170 99 37 394 1332 67 20 308 176 305 619 80 177 304 98 269 42 355 62 541 133 179 5062 154 420 396 12 123 242 68
internal_value=0 -0.0759621 0.0176566 0.000115997 0.0131266 0.0637909 -0.061714 -0.000530382 -0.0241696 -0.0104308 -0.0272519 0.0378956 0.00410539 -0.0417826 -0.0714968 -0.108773 -0.102446 0.000176066 -0.000410651 0.0277614 0.0528936 -0.0200661 5.09691e-05 -0.0583006 0.0125909 0.021581 -0.0344549 0.00909433 0.0847579 0.0441413
internal_weight=0 2.18656 1.09045 1513.63 71.6394 10.828 1.55 1441.99 41.8428 32.4289 24.0558 8.37315 60.8114 9.49023 9.41388 6.05087 4.32876 1400.15 1370.99 29.1598 19.1152 10.0446 1360.14 10.8459 51.3212 43.0875 8.23366 5.16146 9.27799 5.13792
internal_count=12273 165 66 12108 3373 567 87 8735 1941 1398 1013 385 2806 646 543 367 346 6794 5633 1161 674 487 5124 509 2160 1728 432 300 480 310
is_linear=0
shrinkage=0.3


Tree=297
num_leaves=31
num_cat=0
split_feature=119 72 192 41 216 218 118 55 226 10 138 3 100 284 242 94 193 260 110 69 247 49 94 245 46 5 232 284 244 258
split_gain=0.144307 0.281186 0.237206 0.26258 0.256872 0.242333 0.265173 0.225845 0.193799 0.210207 0.191263 0.195023 0.192777 0.189359 0.166983 0.238481 0.23651 0.286482 0.270107 0.257733 0.308774 0.243877 0.208027 0.196699 0.186806 0.157593 0.157134 0.152442 0.147071 0.142331
threshold=-0.12196955060037484 -0.0047400000039487496 -0.051141694791288765 0.047706742231861145 -0.084873002022504793 -0.013210999779403149 -0.014139750501206005 0.018632415364574658 -0.00087349896291885468 0.01624941449641373 0.090440500527620302 -0.037556757285903707 -0.072171775288450521 0.087855000048875767 -0.051721999421715688 0.060264499858021708 -0.018914000131189747 0.11538149788975711 0.015180000104010051 -0.069514915048776146 -0.069113500416278784 0.0086010000668466004 -0.061335902939928598 -0.011750239798466565 -0.022839294520269612 -0.051268739351547167 0.042578368877469623 0.044400323569874535 -0.14713923851260299 -0.050098732323854832
decision_type=2 2 2 2 2 2 2 2 2 2 2 2 2 2 2 2 2 2 2 2 2 2 2 2 2 2 2 2 2 2
left_child=1 2 3 7 29 27 -7 -1 9 -3 14 13 -13 -12 15 23 17 21 -19 22 -21 -16 -18 25 -25 -2 -14 -6 -10 -4
right_child=10 8 4 -5 5 6 -8 -9 28 -11 11 12 26 -15 16 -17 19 18 -20 20 -22 -23 -24 24 -26 -27 -28 -29 -30 -31
leaf_value=-0.096846513991041674 0.11885925613949033 0.12603953731352238 0.19497795978687077 -0.15487544275343171 0.12811635845723854 0.048819601799605171 -0.17002476602630165 0.13676200766786772 -0.061169187539439666 -0.11155399628644617 0.076458885068931282 -0.15865079294308357 0.065966831908469178 -0.20267114789024424 -0.070941276126352329 0.17137477300529791 -0.089639097210085325 0.091477521640759646 -0.12190651954487286 -0.050874110533845621 0.00016468165271652551 0.0055917439259709463 0.091281698126655667 -0.13244375333320563 0.0039730212868595198 0.027453604785935292 -0.14565457760789235 -0.025879249620749192 0.1476899856426396 0.0047483581412454991
leaf_weight=0.73674396215937965 2.2958801165950744 0.60014229232910998 1.1250690334127282 1.5587842783425001 1.3416191964643069 0.85149458074010942 1.2013869830407209 0.75326395407319069 0.33641541271936137 0.75896143971476704 1.2822698651580138 2.0161815840547206 0.85357992088756807 0.26371961782569986 5.0038443303419688 0.99590292165521432 0.65769449455547135 0.61098602262791146 4.231283999979496 10.745669020639978 1475.6849002669474 14.922120149247347 4.389239104682928 1.0369801151173303 7.0152716052398318 6.5144268447002114 0.50121317079901928 1.0171562386676667 3.0949349768343377 0.51649477193131943
leaf_count=28 127 37 40 51 71 33 64 32 18 42 105 177 98 26 425 63 42 40 185 567 7544 986 231 83 435 411 66 44 179 23
internal_value=0 0.0304063 -0.000557044 -0.0687979 0.0338135 -0.00388421 -0.0792525 0.0212528 0.0892377 -0.00663932 -0.000306989 -0.0593806 -0.099842 0.028844 -0.000117652 0.0287222 -0.00045733 -0.0295325 -0.0949822 2.55075e-05 -0.000204287 -0.0136274 0.0677049 0.0202971 -0.0135949 0.051273 -0.0123237 0.06171 0.127213 0.135125
internal_weight=0 13.8925 9.10201 3.04879 6.05322 4.41166 2.05288 1.49001 4.79045 1.3591 1539.02 4.91696 3.37097 1.54599 1534.1 17.8585 1516.25 24.7682 4.84227 1491.48 1486.43 19.926 5.04693 16.8626 8.05225 8.81031 1.35479 2.35878 3.43135 1.64156
internal_count=12273 662 386 111 275 212 97 60 276 79 11611 472 341 131 11139 1119 10020 1636 225 8384 8111 1411 273 1056 518 538 164 115 197 63
is_linear=0
shrinkage=0.3


Tree=298
num_leaves=31
num_cat=0
split_feature=173 291 86 128 119 36 154 202 130 75 194 136 159 125 113 87 255 49 276 27 163 94 284 117 64 204 143 158 245 289
split_gain=0.158026 0.239549 0.242865 0.220522 0.196032 0.183685 0.207499 0.325439 0.347185 0.292336 0.288853 0.258896 0.203978 0.236125 0.189126 0.339875 0.230144 0.188315 0.187991 0.177363 0.172047 0.165065 0.177391 0.161523 0.159703 0.156024 0.150208 0.14998 0.137627 0.11421
threshold=-0.085957501083612387 0.031461499631404856 -0.0020999999251215995 0.041931515345775654 -0.098733998835086781 -0.10598649829626079 0.0003409474016410528 -0.055826500058174092 -0.038680000230669899 0.073012069352867623 -0.019903811057698246 -0.0079278491606125812 0.057899499312043155 0.01325402102162743 -1.0000000180025095e-35 -0.0015840064182803552 -1.0000000180025095e-35 0.036779001355171211 -0.054435366350539589 0.047532457794769153 -0.097025498747825539 -0.029708184639290338 0.055234000086784307 -0.018842813063853193 -0.051940220347983963 -0.0010115000186487497 0.077270935846046482 0.01194219242512087 0.0075745000503956508 0.0063033758007254043
decision_type=2 2 2 2 2 2 2 2 2 2 2 2 2 2 2 2 2 2 2 2 2 2 2 2 2 2 2 2 2 2
left_child=1 3 27 4 -1 18 12 8 17 10 -9 -11 14 20 15 -7 -16 -8 29 24 -14 22 -20 -15 -6 -10 -5 -3 -21 -2
right_child=5 2 -4 26 19 6 7 9 25 11 -12 -13 13 23 16 -17 -18 -19 21 28 -22 -23 -24 -25 -26 -27 -28 -29 -30 -31
leaf_value=-0.1660910655348494 0.16969095315046287 -0.18233189390951518 0.11537494795301233 -0.15071924238960893 -0.10593535248754891 -0.078825402563262967 0.137692003286394 0.012014130998406073 -0.028933023527284864 -0.071038596398259449 0.085145274232979115 0.043623745550081292 0.027574238110059913 -0.11894301049016608 0.032838678012908976 0.026527722348653502 -3.9447309303473239e-05 -0.089365275861021012 -0.11844750848044691 -0.18360916325281829 -0.14352505223165268 -0.14203926863603486 0.080643736475380895 0.16076535670303155 0.11053135486012834 -0.14388334438613537 0.1465462191108155 0.088199291178074748 0.041623348835035455 -0.087739445164246616
leaf_weight=0.67915146898121781 0.45954811041883648 0.53260342572502883 1.4770551859110126 2.630749495820965 0.38446428934548782 7.1143310928473511 1.2141710531432179 8.080568355195286 2.1638236952348961 3.6106398827650992 12.199549072638547 3.4807658295758293 0.67557201575255099 0.27279611577978358 19.442334003086216 4.4985533112890135 1326.2528519224279 0.45080017275904527 0.77403774171398276 0.58222427398140986 2.4366371956566573 2.1307297476396334 0.8397614824862103 0.58270465693203721 1.5173234099829622 2.0883415323478394 0.16242987540317688 0.28213331297592958 0.42051531860306568 0.23412807972636074
leaf_count=123 39 96 142 436 38 497 79 679 220 362 962 285 49 35 1326 397 5224 48 86 61 201 266 84 48 144 240 13 27 43 23
internal_value=0 -0.0403441 0.0428436 -0.070241 -0.0209885 0.000286374 0.000480299 0.0238813 -0.0399159 0.0376729 0.0560063 -0.0147574 -9.19496e-05 -0.0680137 0.000106601 -0.0380141 0.000435569 0.076215 -0.0606483 0.0129401 -0.106384 -0.0872229 -0.0148478 0.0715739 0.0667706 -0.0853879 -0.133433 -0.0886503 -0.0891542 0.0828036
internal_weight=0 8.66865 2.29179 6.37686 3.58368 1399 1394.56 33.2887 5.91714 27.3715 20.2801 7.09141 1361.28 3.96771 1357.31 11.6129 1345.7 1.66497 4.43821 2.90453 3.11221 3.74453 1.6138 0.855501 1.90179 4.25217 2.79318 0.814737 1.00274 0.693676
internal_count=12273 1123 265 858 409 11150 10652 2875 587 2288 1641 647 7777 333 7444 894 6550 127 498 286 250 436 170 83 182 460 449 123 104 62
is_linear=0
shrinkage=0.3


Tree=299
num_leaves=31
num_cat=0
split_feature=245 173 265 65 42 125 167 288 217 63 32 182 66 145 57 186 166 246 295 257 100 87 131 272 290 86 282 85 280 236
split_gain=0.1317 0.182235 0.204641 0.193204 0.21103 0.18086 0.217314 0.184341 0.170711 0.357561 0.351048 0.278922 0.257829 0.25189 0.281683 0.217046 0.194312 0.189055 0.338728 0.267962 0.308476 0.27028 0.233579 0.548922 0.27797 0.248439 0.246295 0.239562 0.239466 0.198682
threshold=0.040649000555276857 -0.038559222943774153 -0.07559305273193638 0.065996014786146182 0.014891500119119851 -0.0116588213066044 0.070995953332981546 -0.020388499833643398 -0.0036369999870657496 -0.0052039998117833991 -0.08397537360559941 0.051971999928355155 -0.11694249883294099 -0.019911999814212298 -0.024324273541447037 -0.048133499920368146 -0.022445000708103097 -0.0062764999456702995 -0.043063018477193508 -0.023776000365614846 -0.11951717554721264 0.064750500023365007 0.029793499968945952 0.048766998574137653 -0.022378246098820144 0.064429491644783274 0.025834499858319704 -0.014449500013142798 -0.029583951661374723 0.00069650000659740011
decision_type=2 2 2 2 2 2 2 2 2 2 2 2 2 2 2 2 2 2 2 2 2 2 2 2 2 2 2 2 2 2
left_child=8 2 -2 4 -4 -3 -7 -8 9 10 -1 12 -12 -11 -15 -13 -16 22 19 20 -19 -21 23 24 -10 -25 27 -24 -28 -20
right_child=1 5 3 -5 -6 6 7 -9 17 13 11 15 -14 14 16 -17 -18 18 29 21 -22 -23 26 25 -26 -27 28 -29 -30 -31
leaf_value=0.1153582330849839 0.13017408530474464 0.12202668594217084 0.03241125190223778 -0.17509701688054979 -0.12180695231026248 0.064937275439207048 0.10453476445256127 -0.14028618346580843 -0.032629020784868963 0.02278691592515359 0.16904238743165356 -0.07785138002958443 -0.044238456818323078 -0.13835799588510178 0.091114603098826047 0.14571122341668616 -0.083704080479760648 0.091151566520837599 -0.0004017037795112895 -0.092493823935719505 -0.044003959203781397 0.050654210069436871 0.026518908734659272 0.06013763946249287 0.044506105615707468 0.17224286926316268 0.12085829886974662 -0.031428316656016482 -0.046926410047539939 0.038787802272445979
leaf_weight=2.1552498826058573 0.78889668872579921 2.7112217703834176 2.9778801706270315 0.74522349005565036 1.0911982313264159 3.5890996665693802 0.37906881351955224 1.0259880034136584 10.739714078081304 2.0006645884859608 0.53598974947817524 0.52942743874155018 10.56778467070035 4.9147037023503799 0.96605847042519633 1.4930353709496547 1.4036372853079209 2.3605298690963537 1377.2610337168298 8.8564965167897736 4.2674266014946651 1.3708354633417901 9.7517529044271232 13.318722936674019 6.9100829232484129 2.0534407251689109 2.5752153401263063 18.798479988341569 1.0894328284193751 11.742173169746819
leaf_count=89 38 139 154 43 55 194 20 59 569 125 17 27 506 333 49 53 96 82 5631 565 244 70 474 554 308 59 131 933 60 596
internal_value=0 0.029711 -0.0114562 -0.0346644 -0.0089452 0.0596469 0.0257822 -0.0742362 -0.000264951 -0.0250668 0.00314522 -0.0152795 -0.0339432 -0.0714985 -0.097394 0.0871884 -0.0124354 0.000149227 -0.000583379 -0.042856 0.00413134 -0.0733068 0.0159369 0.0336673 -0.0024298 0.0751129 -0.00223765 -0.0116356 0.070979 -7.04087e-05
internal_weight=0 13.3086 5.6032 4.8143 4.06908 7.70538 4.99416 1.40506 1495.66 24.5666 15.2815 13.1262 11.1038 9.28506 7.2844 2.02246 2.3697 1471.1 1405.86 16.8553 6.62796 10.2273 65.2368 33.022 17.6498 15.3722 32.2149 28.5502 3.66465 1389
internal_count=12273 702 290 252 209 412 273 79 11571 1295 692 603 523 603 478 80 145 10276 7188 961 326 635 3088 1490 877 613 1598 1407 191 6227
is_linear=0
shrinkage=0.3


Tree=300
num_leaves=30
num_cat=0
split_feature=245 6 59 27 243 127 291 256 31 161 70 138 299 292 60 12 126 119 28 24 36 86 94 36 34 197 274 129 199
split_gain=0.147754 0.137046 0.165744 0.216221 0.264578 0.264433 0.224987 0.207506 0.161478 0.194283 0.177563 0.157126 0.352054 0.301129 0.245366 0.291382 0.226208 0.202869 0.125941 0.132519 0.136723 0.103229 0.0951158 0.0769143 0.0572937 0.0560993 0.0129659 0.00765575 0.00195296
threshold=-0.1048386869564062 -0.13573750108480448 0.066360031444491069 -0.00042950001079579994 0.011183000169694401 -0.094203903014884488 0.067448500543832765 -0.010143000166863149 -0.0039714998565613989 -0.075074996799230478 0.012924500275403202 0.020838879535694573 0.064305000007152516 -0.039125999435782342 -0.057270999997854198 -0.063123551596095909 0.091263998299837071 -0.057741721876231257 -0.057041964884756005 0.028381000272929603 -0.076837418995633941 -0.0018319999799131998 -0.088231161704072358 -0.10759801640558038 -0.00056766779771003843 -0.0076825001742690489 -0.044258000329136793 0.0155769177781149 -0.064349498599767643
decision_type=2 2 2 2 2 2 2 2 2 2 2 2 2 2 2 2 2 2 2 2 2 2 2 2 2 2 2 2 2
left_child=18 8 11 4 5 -4 7 -5 10 -10 22 14 13 -13 15 -3 -16 -14 25 20 -20 -6 -2 -24 -8 -1 -11 -22 -27
right_child=1 2 3 6 21 -7 24 -9 9 26 -12 12 17 -15 16 -17 -18 -19 19 -21 27 -23 23 -25 -26 28 -28 -29 -30
leaf_value=0.052596994274320227 0.10002171986674387 -0.11305849632745431 0.17937874981601246 0.012467609005565069 -0.036048897653379666 -0.074431297144597675 -0.013311107783267649 0.086509365137814376 -0.17539970673870106 0.20939524274983159 0.074808157500882599 0.020555797173184519 -0.019232161795071898 -0.036061511624647546 -0.00043350487630089017 0.056788591903855386 0.060176557685906198 -0.13673339155718436 -0.1270390375822944 -0.16838521998920555 0.11628807582451683 0.13927015481603289 0.048024403891477253 -0.17200180898410511 -0.20296223409941166 0.16946438145971082 0.11536802438502744 0.20230480142431434 0.20445532949052692
leaf_weight=0.36944421188673016 0.14276025607250709 0.99059281719382752 0.40273205524863431 5.9822518049768405 0.41884877439588319 4.4687390744948088 0.23011920647695661 7.9121777129766961 0.22329729226476047 0.24131317343562841 0.43607070727739472 16.987885156500852 2.2125118990952615 16.831494215748535 1465.0076464650483 11.043645950063363 5.5629858803295056 3.2872395745071108 0.20090230531059206 0.29235997699288419 0.13923197239637275 1.0859075110056433 0.15579892590176392 1.7389995424732654 0.38027180079370815 0.19348707853350799 0.29134382153279048 0.28121201884641778 0.55630793602904305
leaf_count=36 8 61 23 329 25 233 18 476 38 5 28 816 173 1295 7066 577 241 315 11 32 17 70 16 195 32 35 35 32 35
internal_value=0 -0.000116515 1.27145e-05 0.0265591 -0.0194844 -0.0534484 0.0467995 0.0546307 -0.061851 0.0594948 -0.0989348 -0.000351506 -0.0190695 -0.00762195 0.000144901 0.0428077 -0.000204225 -0.0894635 0.0808143 -0.00182769 0.0765421 0.0904701 -0.136119 -0.15391 -0.131463 0.14828 0.157966 0.17382 0.195426
internal_weight=0 1546.03 1542.81 20.881 6.37623 4.87147 14.5048 13.8944 3.22958 0.755954 2.47363 1521.92 39.3191 33.8194 1482.6 12.0342 1470.57 5.49975 2.03295 0.913706 0.621346 1.50476 2.03756 1.8948 0.610391 1.11924 0.532657 0.420444 0.749795
internal_count=12273 12075 11750 1206 351 256 855 805 325 78 247 10544 2599 2111 7945 638 7307 488 198 92 60 95 219 211 50 106 40 49 70
is_linear=0
shrinkage=0.3


Tree=301
num_leaves=31
num_cat=0
split_feature=31 204 133 250 17 20 154 177 136 133 232 149 216 36 75 260 249 270 246 248 25 89 10 152 183 295 239 152 190 45
split_gain=0.146942 0.220821 0.218446 0.225255 0.180223 0.226793 0.197048 0.166658 0.150719 0.145741 0.306086 0.282825 0.255623 0.252688 0.300356 0.243766 0.208457 0.420887 0.204695 0.293372 0.290845 0.26412 0.273116 0.202647 0.201713 0.186174 0.182629 0.179501 0.170774 0.161037
threshold=-0.082814000546932179 0.016113951114323406 -0.008015919917477991 0.14065154330087806 -0.016689999960362845 -0.0086087912857107981 0.0012160000042058001 -0.068195677199468022 0.012653000187128701 -0.044625414729029741 0.023684064596436523 0.063156001269817366 -0.088593501597642829 -0.069456998258829089 0.070872999727725969 0.13181910397620375 -0.0093776964690964904 -1.0000000180025095e-35 -0.016079369135521545 -0.092830497771501486 -0.050379115848095395 -0.06027599982917304 0.072347499430179568 -0.018401845116208567 0.01482899999246 -0.029989882571571501 0.037744527709965156 -0.0073605000507086489 -0.014126053389597782 -0.077911541115758279
decision_type=2 2 2 2 2 2 2 2 2 2 2 2 2 2 2 2 2 2 2 2 2 2 2 2 2 2 2 2 2 2
left_child=1 2 3 4 6 -6 -1 -4 -9 18 12 13 23 14 -12 -15 28 -18 20 29 -2 -21 -23 24 -11 -22 -13 -27 -14 -20
right_child=9 -3 7 -5 5 -7 -8 8 -10 10 11 26 16 15 -16 -17 17 -19 19 21 25 22 -24 -25 -26 27 -28 -29 -30 -31
leaf_value=-0.14624475986212473 -0.13265688040361903 -0.13515478765257657 0.10652358291323617 -0.17439151897154559 0.10750685540148897 -0.038295190683161666 0.068775587176147207 -0.15408326944763606 0.062405020684903889 -0.081635226312641154 0.019958911256886615 5.0669131007929959e-06 7.4965113391103484e-05 0.054413545935793776 -0.11030117943924371 -0.034309979062703035 0.064676490882603743 -0.00020980312824575126 0.044066284310756168 -0.16754823342139893 -0.099124255425342728 0.048045489467138047 -0.13067455525926125 -0.14264544772294788 0.12887289588184156 0.10120864453718344 -0.15355366217317382 -0.11010873051446923 -0.16766806844111684 -0.16650542698871282
leaf_weight=0.92930597167287288 3.2450721437035099 1.6707263646039781 0.33447086549131233 0.53193986124824721 2.9822027033078471 1.416094766696917 0.65318745707918424 1.874501589474675 0.3422767248994204 1.1019866718324922 6.1827035309852345 1.642334142525214 0.99450683924806105 27.330689146513581 2.1461713765238528 3.1034795064224445 9.0588987181272369 1318.6337468482434 0.432875444239471 0.64455563406227234 1.1864374743272494 8.1786169333517975 0.8494946872742738 2.026889678675615 0.65209559508366499 1.5208206186052846 1.2110494508751797 0.47469863895458075 1.2118120901286591 1.3346817469537207
leaf_count=103 394 218 26 45 206 140 70 151 32 115 617 182 126 2155 241 226 749 4632 26 83 124 703 78 194 60 147 149 68 93 120
internal_value=0 -0.0349351 -0.016462 0.0126873 0.0293264 0.0605638 -0.0574933 -0.0908733 -0.120657 0.000299205 0.000648942 0.025985 -0.000141648 0.0326949 -0.0136063 0.0453661 7.98081e-05 0.000232919 -0.0266211 -0.00255348 -0.069462 0.0179831 0.0312289 -0.0780355 -0.00337697 -0.00501358 -0.0651692 0.05094 -0.0920572 -0.114936
internal_weight=0 10.7347 9.06398 6.51273 5.98079 4.3983 1.58249 2.55125 2.21678 1393.16 1375.3 41.6164 1333.68 38.763 8.32887 30.4342 1329.9 1327.69 17.8673 11.4402 6.42703 9.67267 9.02811 3.78097 1.75408 3.18196 2.85338 1.99552 2.20632 1.76756
internal_count=12273 991 773 564 519 346 173 209 183 11282 9539 3570 5969 3239 858 2381 5600 5381 1743 1010 733 864 781 369 175 339 331 215 219 146
is_linear=0
shrinkage=0.3


Tree=302
num_leaves=25
num_cat=0
split_feature=16 20 299 146 86 216 79 83 291 24 259 10 158 112 241 122 255 237 3 124 282 152 47 177
split_gain=0.141289 0.199052 0.136516 0.155452 0.12827 0.126385 0.178474 0.144611 0.138221 0.201259 0.193077 0.171148 0.241701 0.168522 0.161304 0.13042 0.124395 0.109521 0.0776814 0.0699415 0.0691703 0.00750056 0.000537384 5.30066e-05
threshold=-0.11617549881339069 0.0050015275719310949 0.12824259876680935 0.034816139033951206 0.020821000449359403 -0.15153799951076502 -0.050694800083441023 0.019184499979019155 0.055764147241153937 -0.057483999058604192 0.0079149999655782517 -0.0092035001143812491 0.025320000015199153 0.061934821473877182 0.0060794998425990005 -0.020023999735712946 0.032875500619411406 -0.0025712495165029431 -0.050695000216364791 -0.060157500207424087 -0.0066325000952928989 -0.0509505471317011 -0.020089500583708196 -0.080742421229983069
decision_type=2 2 2 2 2 2 2 2 2 2 2 2 2 2 2 2 2 2 2 2 2 2 2 2
left_child=1 4 5 16 20 6 -2 21 11 14 -11 12 -7 -13 -10 -9 17 -4 -19 -3 -1 -8 -21 -24
right_child=2 19 3 -5 -6 8 7 15 9 10 -12 13 -14 -15 -16 -17 -18 18 -20 22 -22 -23 23 -25
leaf_value=-0.014736831162262879 0.14941564700500309 -0.032104019153729776 -0.052721141921922426 -0.12911650084453369 -0.13246778244571855 -0.017120743066828047 -0.14966167804528147 -0.098471592269516003 -0.15519506824295601 0.095208298527765953 0.0051831293708350153 -9.9884154271190218e-05 -0.13489605489617743 0.029621566843187681 0.066725106054379424 0.10108243265382361 -0.085518066189565992 0.063326811829865812 0.18928619335200489 -0.18785855931551396 0.18625545355322085 -0.20507144145557668 -0.20725276564224918 -0.20189643635047552
leaf_weight=0.26314765925053518 0.30384506238624487 0.29580849048215896 0.29761963244527678 0.32564301491947834 0.30992251203861088 21.570165760032982 0.34660028183134273 0.87433530573252982 0.8206343447745883 4.46777487604413 4.1225070112850517 1444.611802634563 1.6911971528897982 17.376095632440411 0.46001711359713227 0.4446658339002163 0.31362917460501183 0.69642152852611694 1.1998474609572423 0.23081666918005794 0.37186698231380366 0.60132304712897111 0.34310088492929935 0.32264410710195057
leaf_count=23 13 16 14 21 34 1211 19 65 75 225 290 9131 123 697 26 22 25 45 76 21 29 30 8 34
internal_value=0 -0.0770957 9.24845e-05 0.0658837 0.0257473 -3.19717e-05 -0.0664926 -0.0954316 8.23033e-05 0.035465 0.0520049 -0.00015285 -0.0256835 0.000253363 -0.0754801 -0.0311973 0.0912077 0.116472 0.143026 -0.158597 0.102965 -0.184811 -0.200332 -0.204657
internal_weight=0 2.13731 1500.52 2.83316 0.944937 1497.69 2.57077 2.26692 1495.12 9.87093 8.59028 1485.25 23.2614 1461.99 1.28065 1.319 2.50752 2.19389 1.89627 1.19237 0.635015 0.947923 0.896562 0.665745
internal_count=12273 165 12108 181 86 11927 149 136 11778 616 515 11162 1334 9828 101 87 160 135 121 79 52 49 63 42
is_linear=0
shrinkage=0.3


Tree=303
num_leaves=31
num_cat=0
split_feature=212 231 168 1 84 232 119 219 36 132 165 151 88 99 76 190 130 268 17 277 256 125 79 214 205 188 263 81 124 205
split_gain=0.13259 0.275395 0.226289 0.219856 0.214196 0.200199 0.185292 0.17419 0.186479 0.194094 0.174123 0.233959 0.173539 0.170482 0.527201 0.361893 0.293892 0.445362 0.379009 0.34112 0.333251 0.291558 0.259157 0.256952 0.239873 0.2217 0.262748 0.210077 0.168363 0.135172
threshold=0.0091105001047253019 -0.013584499713033398 -0.00047149999591049996 0.04536600038409231 0.0016078604890146307 0.11794850230216976 -0.11502061103528465 -0.00046843824525545462 -0.11036963774634397 -0.072201501578092533 -0.0088745918412970141 -0.0055784999858587495 0.043039999902248362 0.014692632015781098 0.028634999878704503 -0.029581000097095897 0.009378326515206448 -0.070982001721858881 0.037758620767193836 0.052072252594271652 0.0024841625860936821 0.017084999941289352 0.022219000384211502 0.0019359999569132003 0.010957439625053854 0.033196753173512498 -0.082680238182002749 -0.024031999520957397 0.056963409381926726 0.030495999380946104
decision_type=2 2 2 2 2 2 2 2 2 2 2 2 2 2 2 2 2 2 2 2 2 2 2 2 2 2 2 2 2 2
left_child=5 2 4 7 29 13 -7 8 -3 -10 -9 -12 -6 14 25 21 18 24 19 -15 -19 -16 -20 -17 -18 26 -1 -27 -4 -2
right_child=1 3 28 -5 12 6 -8 10 9 -11 11 -13 -14 16 15 23 17 20 22 -21 -22 -23 -24 -25 -26 27 -28 -29 -30 -31
leaf_value=-0.13349070370297228 -0.08909740344334624 0.14684808271341612 0.11265876280337035 -0.12334452580875196 -0.051793670280876607 0.11941910804847196 -0.11177965385754372 0.10289987787320194 0.14679936991965217 -0.058755656057183553 -0.080502819170307022 0.10910321101651319 0.16773866596204801 -0.084336796680022016 0.13623721946042588 0.06517438886328708 -0.091394962365861906 -0.012628322204683759 0.08122458941366649 -0.014441159302073299 0.05945651759788436 -0.038687168784137825 -0.12598939594907177 -0.095077956454630699 0.037598456797101817 -0.081739698777407901 -0.0002114899944044016 0.061818258925109143 -0.08321863037074477 0.080079872206050978
leaf_weight=1.3324747960432421 1.8545372423686792 0.51078912905359075 5.3979035682859848 1.2966562023357244 0.4840283316443672 0.35912709590047631 2.3764346059033405 2.5815693661279511 0.44909947807900508 5.2049412951128042 1.5392145597725178 0.9454755085753267 0.98065501090604812 13.201297380128386 5.6460434301989153 1.9695151796331614 5.4464493447667364 11.057055169992966 3.3864153588365289 11.993408680129503 12.075828150875166 1.0111430838587692 0.64699128083884705 1.6590661712689323 1.7031695182959081 1.0310439183522238 1439.0614516901624 8.3243648499228566 0.42610526221687894 0.55144497181754548
leaf_count=86 177 30 318 85 39 29 270 155 35 426 115 60 50 935 211 98 308 622 161 605 716 78 71 103 112 132 5723 452 31 40
internal_value=0 0.0229983 0.0609624 -0.00638046 0.00474062 -0.00034313 -0.0814277 0.00712332 -0.0267459 -0.0424285 0.0483367 -0.00835384 0.0951907 -0.000197157 0.000444376 0.0681237 -0.0159366 0.00477547 -0.0373958 -0.0510645 0.0250014 0.109668 0.0479858 -0.00809646 -0.0606664 -3.5799e-05 -0.000334783 0.045997 0.0983277 -0.0503224
internal_weight=0 22.2224 9.69467 12.5277 3.87067 1522.28 2.73556 11.2311 6.16483 5.65404 5.06626 2.48469 1.46468 1519.55 1460.04 10.2858 59.5106 30.2825 29.2281 25.1947 23.1329 6.65719 4.03341 3.62858 7.14962 1449.75 1440.39 9.35541 5.82401 2.40598
internal_count=12273 1561 655 906 306 10712 299 821 491 461 330 175 89 10413 6883 490 3530 1758 1772 1540 1338 289 232 201 420 6393 5809 584 349 217
is_linear=0
shrinkage=0.3


Tree=304
num_leaves=31
num_cat=0
split_feature=86 192 75 25 240 113 107 205 67 105 281 284 222 69 218 59 134 148 84 184 132 286 226 19 140 292 189 292 141 180
split_gain=0.141303 0.180808 0.200031 0.178931 0.173604 0.13056 0.142551 0.148526 0.131789 0.225086 0.162545 0.188596 0.165175 0.145066 0.210618 0.149362 0.343885 0.249333 0.145257 0.129432 0.125761 0.11848 0.10246 0.0828901 0.0713516 0.0653729 0.064055 0.0527172 0.0510585 0.0159551
threshold=-0.057410499081015545 0.046526499092578853 0.077101502567529664 0.0059630000032484011 0.090147998183965669 0.10099221705977929 -0.020660500042140446 -0.048148758517247807 0.071208503097295775 -0.065991498529910986 -0.010701999999582748 0.049812998622655806 -0.088723499327897928 -0.080623046118141403 -0.016083499416708894 -0.019289268704732718 -0.0065472496047640199 0.12531409745784677 -0.0084220003336667477 0.031964499503374058 -0.072201501578092533 -0.037291500717401442 0.02713243840824494 0.051996501162648152 -0.017756383905082943 -0.11559071060727887 0.053982499986886902 -0.10081749781966202 -0.088841501623392036 -0.034764498472213697
decision_type=2 2 2 2 2 2 2 2 2 2 2 2 2 2 2 2 2 2 2 2 2 2 2 2 2 2 2 2 2 2
left_child=1 2 3 4 20 8 7 -7 13 -10 12 -12 -11 14 18 16 -15 -17 -2 -6 -1 -5 23 -8 -16 -4 -9 -3 -27 -30
right_child=5 27 25 21 19 6 22 26 9 10 11 -13 -14 15 24 17 -18 -19 -20 -21 -22 -23 -24 -25 -26 28 -28 -29 29 -31
leaf_value=-0.17152466412824058 0.081872842371068968 0.017461229899293523 0.14944453165312663 0.097496189259808422 -0.1722868466105201 0.10301596492671862 -0.043708538598576575 -0.19564107785892049 -0.16209522915799723 -0.18940009620247841 0.071120501479016662 -0.06983160079930617 0.11270203987530751 0.059309817776826132 -0.20269225048081033 0.00023813056905841457 -0.0493150997612289 -0.051178584550542368 -0.14846473711398697 0.13708742307307464 0.086129090293423485 -0.20356209520791183 -0.13107685052132487 0.18354367537645169 -0.041545992594266751 0.076716831800205845 0.0068808927013395164 -0.19629905807059386 -0.00098640218287202345 -0.19754440834630402
leaf_weight=0.18304545053979415 0.8680019562743837 0.11932226835051551 0.062716439424548298 0.15195698308525607 0.52684463110927016 0.21188294520834472 0.2397675445972699 1.0667146305058848 0.46507871779613186 0.17107386536372393 1.8754656419241649 1.5691471229365559 3.4023716366518784 10.196370770383508 0.91176545902271755 1360.1828706134979 3.5314507091088663 8.5414693823931866 0.3440813048364364 0.15826928433671128 2.4870621550471692 0.52108268079609832 0.26336757073295303 0.36338210557005368 0.33932037609338184 0.071049305144697428 0.16188790253363561 0.79996384605146875 0.03900448133572354 0.78906835081579618
leaf_count=30 79 8 7 17 79 24 26 126 38 20 196 182 348 840 104 8461 305 542 46 13 337 59 39 34 46 4 25 96 11 131
internal_value=0 -0.046292 -0.0237688 0.00558118 0.0338994 0.000196347 -0.0711125 -0.128951 0.000314495 0.0400198 0.0534138 0.00691166 0.0982393 9.99545e-05 -0.0726395 0.000229557 0.0313663 -8.27334e-05 0.0164855 -0.100818 0.068466 -0.13559 0.0250372 0.0932051 -0.158986 -0.146689 -0.168956 -0.168553 -0.167345 -0.188286
internal_weight=0 5.90939 4.9901 4.02826 3.35522 1394.71 2.307 1.44049 1392.4 7.48314 7.01806 3.44461 3.57345 1384.92 2.46317 1382.45 13.7278 1368.72 1.21208 0.685114 2.67011 0.67304 0.866517 0.60315 1.25109 0.961839 1.2286 0.919286 0.899122 0.828073
internal_count=12273 792 688 535 459 11481 274 175 11207 784 746 378 368 10423 275 10148 1145 9003 125 92 367 76 99 60 150 153 151 104 146 142
is_linear=0
shrinkage=0.3


Tree=305
num_leaves=31
num_cat=0
split_feature=140 159 216 72 170 135 261 242 231 57 252 201 74 299 12 158 207 286 79 32 153 277 31 27 175 176 250 25 139 157
split_gain=0.116852 0.303278 0.215555 0.30193 0.237482 0.235734 0.203457 0.174138 0.135057 0.290218 0.250738 0.256873 0.306486 0.229423 0.21813 0.213734 0.180922 0.322201 0.227587 0.222488 0.195426 0.2188 0.225026 0.220294 0.192852 0.183711 0.180822 0.179702 0.238523 0.157233
threshold=-0.10439600050449364 0.063034517242611152 -0.073391497135162284 -0.031910499557852696 0.022575000301003404 0.11752782756044998 0.039821690154084731 -0.022607000544667199 -0.056580999866127892 -0.099736992125660465 0.13210800290107724 -0.018110499717295146 -0.073215000331401728 -0.012011499609798148 -0.043331955801071784 -0.087417002767324378 -0.048246499150991343 -0.0052434999961405489 -0.013265373983553258 -0.013706500176340298 0.041734073542714155 0.049096999689936603 -0.021358098966653381 -0.033946499228477443 -0.083470001816749476 0.035739967536017776 0.074995281158407381 0.018767632248832041 0.030047995533829416 0.051288103977726325
decision_type=2 2 2 2 2 2 2 2 2 2 2 2 2 2 2 2 2 2 2 2 2 2 2 2 2 2 2 2 2 2
left_child=1 2 3 -1 -5 6 -4 -8 9 13 11 15 -13 -2 -15 -11 17 25 19 -19 27 22 -22 -23 -20 -10 -16 29 -29 -18
right_child=8 -3 5 4 -6 -7 7 -9 16 10 -12 12 -14 14 26 -17 20 18 24 -21 21 23 -24 -25 -26 -27 -28 28 -30 -31
leaf_value=0.18013679767724952 -0.1491367084789855 -0.11123652950160416 -0.092354284885469304 0.12146783670481771 -0.11213091162743062 -0.16120001553367788 -0.087912491161245013 0.1459541046839602 0.12163816501626282 0.022153678191289352 0.18482508872701242 -0.085165133644627147 0.022553867740598494 -0.054510374776170531 0.022654477324248353 -0.10080139570314822 0.0004238669246081161 0.12138039154618011 0.072637703060653577 -0.049371365450776007 0.022065635928853165 0.13298929012885685 -0.069113243254083592 -0.10938391735742019 -0.058860226143018793 -0.051759344607800101 0.18544658666040115 0.071453283706099352 -0.12973192279950352 -0.02294757764630841
leaf_weight=2.1831355939357313 0.44675144867505912 1.08286406181287 0.70959945535287294 0.80328626581467621 0.76439838012447581 0.63924083020538081 0.36050938145490397 1.3967353812186041 4.061826291901526 1.5380906999344004 0.44995243937591922 3.4578062165528589 7.6069017989793721 0.82836193172261197 1.0025267330929661 7.3659600949904469 1404.8517015333782 2.16152029769728 1.263257362297735 1.0066135469496647 6.8037030882260288 0.36755513725802291 3.7947628940364657 4.1276566480228203 4.8862978461838775 0.63601781637407828 1.5848728214623404 5.4479558884850112 0.58757523540407408 26.393593944523673
leaf_count=66 25 48 29 43 30 21 24 69 177 61 20 160 371 37 52 391 7201 96 73 67 368 15 298 254 317 33 52 275 43 1557
internal_value=0 0.0363053 0.0596056 0.108009 0.00756578 0.00115444 0.0432258 0.097975 -0.00018601 -0.022377 -0.036642 -0.0416322 -0.0111091 0.0530327 0.0794747 -0.0795621 0.000181441 0.0341031 0.00180515 0.0671273 -0.000145906 -0.0341043 -0.0105808 -0.089566 -0.0318476 0.0981627 0.12237 0.000210709 0.0518674 -7.12588e-06
internal_weight=0 7.93977 6.85691 3.75082 1.56768 3.10609 2.46684 1.75724 1490.67 24.2812 20.4187 19.9688 11.0647 3.86251 3.41576 8.90405 1466.39 14.0155 9.31769 3.16813 1452.37 15.0937 10.5985 4.49521 6.14956 4.69784 2.5874 1437.28 6.03553 1431.25
internal_count=12273 330 282 139 73 143 122 93 11943 1169 1003 983 531 166 141 452 10774 763 553 163 10011 935 666 269 390 210 104 9076 318 8758
is_linear=0
shrinkage=0.3


Tree=306
num_leaves=31
num_cat=0
split_feature=265 252 172 7 222 15 263 233 213 0 85 243 274 236 168 80 183 258 134 225 175 24 240 12 185 54 262 87 139 103
split_gain=0.127326 0.31498 0.258368 0.245128 0.27594 0.222009 0.211416 0.225001 0.195095 0.190735 0.271231 0.214585 0.211095 0.210269 0.20796 0.207938 0.199393 0.175502 0.174033 0.165236 0.153976 0.208141 0.177883 0.154539 0.302871 0.204398 0.142168 0.128258 0.11906 0.107786
threshold=0.073267497122287709 0.058940500020980807 -0.0090710003860294489 0.0010912258880857466 -0.063759498298168141 -0.045909499749541241 -0.063106000423431341 -0.06709270731426327 -0.027751999907195495 0.024044195365857141 0.046807499602437005 -0.11969849839806553 0.021042000502347905 -0.11821349710226053 0.064145002514123903 -0.024364000186324047 -0.05494249984621994 -0.10849500074982639 0.030040953211869881 -0.014621499925851798 -0.1076206165488067 -0.053024454216598127 0.13332845058549345 -0.051428498700261095 0.051340999081730808 -0.052680256220544452 -0.014956949097703598 -0.017404999583959548 0.026584499515593055 -0.014365000184625347
decision_type=2 2 2 2 2 2 2 2 2 2 2 2 2 2 2 2 2 2 2 2 2 2 2 2 2 2 2 2 2 2
left_child=9 2 5 28 -5 -2 -7 -8 -3 11 13 12 19 15 17 -11 -12 -15 -16 -1 21 -13 -23 24 -22 -25 -6 -17 -4 -18
right_child=1 8 3 4 26 6 7 -9 -10 10 16 20 -14 14 18 27 29 -19 -20 -21 23 22 -24 25 -26 -27 -28 -29 -30 -31
leaf_value=0.14765523700291075 0.18164843722251325 0.12162377737782422 0.13151446539668082 0.11974005309624547 -0.16325024287364992 -0.16601574261145052 -0.1338884576482974 0.058159825070658783 -0.12155651857209973 0.17465921843302315 -0.091137174133831433 0.14305322866252071 -0.10964038899822576 -0.10644165646272555 -0.13667820928154861 0.12785321064095514 -0.081937513618744184 -0.01703245166671569 0.059147083745678716 -0.039048436299943166 -0.010593115786112427 -0.0080795592568954668 0.19576062837389949 0.055585447776681556 -0.11231128120424537 -8.1569893723638814e-05 0.046058817565889594 -0.18439196039983116 -0.023881670276895198 0.12959678461405866
leaf_weight=2.1504954035044657 0.46665430720895518 0.3596814465709034 4.7333558940590583 0.97184929536888409 0.85389998723985638 0.88014585478231344 0.76829756030929308 1.923924414673819 1.7014442314393807 0.77010025299387053 0.6034102912526581 1.5520555629918815 0.45855544204823662 2.3933296935574679 3.285284352547023 0.18515853164717555 0.2457416725810625 11.327963446241478 0.46643741120351467 0.53219858586089586 17.092939336740532 3.5976039586676043 0.4315127134323119 5.9604801767709423 3.1145755602192358 1469.4167554884962 0.44387501070741531 0.32835744066688366 0.48964133454137471 1.8402052379933578
leaf_count=79 18 17 230 45 61 34 59 110 94 29 41 87 36 141 212 10 17 916 30 29 1159 355 13 388 212 7624 32 35 35 125
internal_value=0 0.0288998 0.0482068 0.0811766 -0.00113928 -0.0129542 -0.0383749 0.00335371 -0.0791198 -0.000264558 -0.028357 0.000135938 0.0784637 -0.0411321 -0.0497413 0.0760599 0.0607417 -0.0326276 -0.112332 0.110617 -2.79656e-05 0.0497087 0.0137514 -0.000213571 -0.0262709 0.000143323 -0.0916607 -0.0718057 0.116947 0.104676
internal_weight=0 13.5928 11.5316 7.49262 2.26962 4.03902 3.57237 2.69222 2.06113 1525.75 21.446 1504.31 3.14125 18.7566 17.473 1.28362 2.68936 13.7213 3.75172 2.68269 1501.17 5.58117 4.02912 1495.58 20.2075 1475.38 1.29777 0.513516 5.223 2.08595
internal_count=12273 735 624 403 138 221 203 169 111 11538 1556 9982 144 1373 1299 74 183 1057 242 108 9838 455 368 9383 1371 8012 93 45 265 142
is_linear=0
shrinkage=0.3


Tree=307
num_leaves=31
num_cat=0
split_feature=151 136 217 205 76 179 291 107 83 15 108 107 36 272 17 235 215 75 22 179 280 190 40 83 271 99 81 103 21 165
split_gain=0.143237 0.173888 0.199639 0.157032 0.19604 0.186239 0.171239 0.269229 0.199746 0.166799 0.253547 0.269732 0.249307 0.20453 0.180822 0.162443 0.181822 0.176566 0.169117 0.165783 0.156011 0.155411 0.156231 0.150532 0.144556 0.164728 0.135101 0.132763 0.113371 0.108876
threshold=0.037723500281572307 -0.0084563994577524434 0.0080650001764297017 -0.06208150088787074 0.029657999984919952 0.0032149590054891338 -0.025299999862909248 -0.028457500040531096 -0.010704700830869834 -0.04763699881732459 -1.0000000180025095e-35 -0.0660805649347605 -0.041190000250935492 -0.035950500518083538 0.036616999655961956 0.013765458334699594 -0.014400499872863248 -0.00074200000381089988 -0.045892641332426078 0.035750500857830006 -0.047415968015140482 -0.089088358788551578 0.090713500976562514 -0.0054325000382958984 0.045951999723911251 0.024988499470055051 0.066377997398376465 -0.011794500052928848 -0.045866500586271237 -0.08420457600335611
decision_type=2 2 2 2 2 2 2 2 2 2 2 2 2 2 2 2 2 2 2 2 2 2 2 2 2 2 2 2 2 2
left_child=3 20 -3 15 9 27 8 -8 -7 13 11 -11 -12 -5 -15 18 -17 -18 -1 -19 -2 -20 -23 -4 25 -22 29 28 -6 -25
right_child=1 2 23 4 5 6 7 -9 -10 10 12 -13 -14 14 -16 16 17 19 21 -21 24 22 -24 26 -26 -27 -28 -29 -30 -31
leaf_value=-0.087041499918698098 -0.16774690541047269 -0.15385551120608135 -0.11594199755839286 0.11175001409583883 -0.20134941949324472 0.045888682888002234 -0.063228432164393167 0.092517886500638843 -0.16775619528375041 -0.026581188697926743 -0.050147946926094394 0.038425436945223455 6.8501461823010213e-05 -0.10104312962875653 0.070888397258879327 -0.1377806635044872 -0.1401336328809091 0.088219927662092842 -0.082714486813087504 -0.062814726074781682 -0.10178524948787383 0.12282908957775092 -0.076997130307716835 -0.13837062258083857 -0.15942497263387742 0.16035742794648913 -0.12667223731912819 -0.16674208720529948 0.031961626788935715 0.12531654542939932
leaf_weight=0.5412845659375306 1.4763232258828796 0.59633970776121659 0.46120930385950565 0.5899640006100525 0.25070372851769207 0.60016792780515982 1.9088595381217595 2.0954963888070783 1.1457218484283653 7.1924755061227179 8.9580685521941614 28.53697857839461 1323.5106521247508 3.8128923959156955 0.64343633377802678 0.76402126719949581 0.52028026251355219 2.4421416008653982 0.43052351466030803 0.89333998049551144 0.38368588709272422 4.1532533793542807 0.38475284166634072 0.15405135089531619 0.4783250277305342 0.49288318617891491 0.26456888256507216 1.5873605484011912 0.74286642274228176 1.6542858636166773
leaf_count=50 249 87 60 60 56 84 220 164 130 732 774 2392 5004 442 61 75 59 249 38 74 54 338 34 10 97 67 29 286 119 179
internal_value=0 -0.0464074 0.00231787 0.00019337 -7.94968e-05 -0.0459599 -0.0159096 0.0182743 -0.0943135 0.00019885 0.000399646 0.0253394 -0.000269099 -0.054243 -0.0762184 0.0374097 -0.0040793 0.0224137 0.0721968 0.0477684 -0.100283 0.0895446 0.105887 0.0390693 -0.0267719 0.0456141 0.0735584 -0.112911 -0.0269089 0.102853
internal_weight=0 5.96167 3.13046 1391.71 1381.58 8.33118 5.75025 4.00436 1.74589 1373.24 1368.2 35.7295 1332.47 5.04629 4.45633 10.1296 4.61978 3.85576 5.50981 3.33548 2.83122 4.96853 4.53801 2.53412 1.35489 0.876569 2.07291 2.58093 0.99357 1.80834
internal_count=12273 832 365 11441 10524 1059 598 384 214 9465 8902 3124 5778 563 503 917 457 382 460 323 467 410 372 278 218 121 218 461 175 189
is_linear=0
shrinkage=0.3


Tree=308
num_leaves=31
num_cat=0
split_feature=115 154 179 60 174 236 224 118 195 190 184 97 222 166 37 246 87 40 265 187 1 47 52 88 73 150 149 140 284 76
split_gain=0.128733 0.198176 0.205026 0.248488 0.16561 0.172714 0.151557 0.162256 0.13719 0.175404 0.257569 0.266341 0.400879 0.303396 0.259139 0.187909 0.304272 0.314769 0.300414 0.288429 0.259835 0.226064 0.16134 0.160944 0.167402 0.137119 0.130662 0.107356 0.102369 0.0925629
threshold=-0.082637500017881338 -0.033432087964206457 0.064367000013589817 -0.073037501424550941 -0.0031788721815414057 0.022197284356309122 -0.019923999905586198 -0.040701499208807897 -0.047381499782204593 -0.053671323591578106 0.038000293300155988 -0.063250500708818394 -0.050915500149130793 0.0055014083460302576 -0.057226593079231121 -0.0034764999290927494 -0.0011994168331578273 0.072900999337434769 0.031945500522851909 -0.0258339059352867 0.013002499938011102 0.021437993296405337 -0.0010517866854996662 0.12945450097322461 0.049320247905200502 0.033703550784869508 -0.034188499674200942 -0.033616000786423642 0.042007001116871806 -0.041272999718785244
decision_type=2 2 2 2 2 2 2 2 2 2 2 2 2 2 2 2 2 2 2 2 2 2 2 2 2 2 2 2 2 2
left_child=1 6 3 -3 -5 -6 7 -1 22 10 11 12 -10 -13 -12 16 17 -11 21 -20 -18 -17 23 24 -2 -8 28 -28 -24 -16
right_child=8 2 -4 4 5 -7 25 -9 9 15 14 13 -14 -15 29 18 20 -19 19 -21 -22 -23 26 -25 -26 -27 27 -29 -30 -31
leaf_value=-0.031363093382145976 0.10741256144809147 -0.16753125436959013 0.1411024981510472 0.12655160172336113 -0.028027530620965 0.10802685928171979 0.11346377776277614 0.17972961408524799 -0.10426828520839129 0.066022358381562798 -0.19160439216103808 -0.049184727592538398 0.063320368891196105 0.013488049352957216 -0.053591418678383247 -0.00032498743861070732 -0.02549413701896832 -0.0055691517366268104 -0.11554116437020163 -0.0054911330488339955 0.05247375331681596 0.05941699914394763 -0.17880837164875638 0.14712749392076324 -0.12770079020401606 -0.1444718775713289 0.18035997039353979 0.029931626607492511 0.11913074042867407 0.14805483683178511
leaf_weight=0.40378490090370256 0.37352222634945054 0.77720264194067379 0.94955785386264402 0.96682343957945516 5.3616104030661518 0.99568432976957399 0.36576560052344476 1.7395520006539298 1.6315635066130196 16.307010756543608 0.26986901287455145 28.114078742040874 6.0406585745076873 9.23536775661705 0.23415933165233593 1369.3496740959017 16.344703056198345 8.3613668104808294 3.9775458571239142 4.6481444698874821 5.0309699828503645 5.7243554409069466 0.23702702869195524 0.42411742103286076 1.0082570759113876 0.37633912393357605 1.4212119953008371 0.61035261454526235 0.18464269570540637 1.6384956247056821
leaf_count=19 32 67 36 43 260 57 20 71 66 760 14 1534 227 618 21 5664 963 388 259 275 255 279 34 22 59 21 69 42 10 88
internal_value=0 0.0310427 0.00921681 -0.00624154 0.0108738 -0.00671859 0.099505 0.139962 -0.00023776 -0.000392807 -0.0183934 -0.0232297 0.0276812 -0.0336877 0.0832337 0.000200994 0.0190548 0.0417564 -0.000426387 -0.0562383 -0.00714365 -7.62849e-05 0.0535269 -0.0145274 -0.064145 -0.0173416 0.103624 0.135166 -0.0483454 0.122841
internal_weight=0 11.9363 9.05088 8.10132 7.32412 6.35729 2.88544 2.14334 1481.17 1476.91 47.1642 45.0217 7.67222 37.3494 2.14252 1429.74 46.0441 24.6684 1383.7 8.62569 21.3757 1375.07 4.25913 1.8059 1.38178 0.742105 2.45323 2.03156 0.42167 1.87265
internal_count=12273 594 463 427 360 317 131 90 11679 11411 2568 2445 293 2152 123 8843 2366 1148 6477 534 1218 5943 268 113 91 41 155 111 44 109
is_linear=0
shrinkage=0.3


Tree=309
num_leaves=31
num_cat=0
split_feature=45 249 93 31 108 216 211 124 131 62 259 221 222 114 18 239 184 225 1 207 171 35 264 69 219 176 293 137 9 281
split_gain=0.12832 0.175037 0.140044 0.146788 0.143383 0.13954 0.139417 0.246103 0.252392 0.221692 0.216165 0.21247 0.196331 0.247242 0.286657 0.216949 0.187342 0.186488 0.200512 0.176676 0.220106 0.225508 0.20072 0.258048 0.177724 0.168904 0.194727 0.166913 0.135738 0.194415
threshold=0.043175736104603381 0.084140133667746295 -0.0097579190748554867 -0.049751000478863695 0.041599962563990768 -0.030647187405037728 0.021377000026404806 -0.027216484685466349 0.050544999539852108 0.051091297054736258 0.014649489800349597 -0.044516500085592194 0.021642499603331054 -0.025284000672399946 0.020926500670611803 0.039597237926522789 -0.12834149599075312 -0.062345276006732349 0.0088865002617239518 -0.046073500066995544 0.033135071758565678 -0.0051453019306590174 0.021917794857123082 0.014350499957799851 -0.049479000270366592 -0.090521998703479684 0.031717998906970003 -0.074604999274015385 -0.0040620001964270487 0.028264500200748405
decision_type=2 2 2 2 2 2 2 2 2 2 2 2 2 2 2 2 2 2 2 2 2 2 2 2 2 2 2 2 2 2
left_child=6 2 3 -2 -4 -5 12 9 10 28 -9 -12 19 27 15 -15 -16 -10 -19 20 21 -1 24 -24 -21 -11 -27 -14 29 -8
right_child=1 -3 4 5 -6 -7 7 8 17 25 11 -13 13 14 16 -17 -18 18 -20 22 -22 -23 23 -25 -26 26 -28 -29 -30 -31
leaf_value=-0.10544587658595601 0.12690766823996341 -0.13016545243019359 0.11244980255566094 0.040561656788083565 -0.038343409379682003 -0.17407458705177878 0.10008649499393145 -0.15222521121362106 -0.19097171080377126 0.12092812553033964 -0.17805341009601477 0.067081713311420391 0.086393133894246951 0.023864655840760859 0.16926471376960994 -0.074026639229235636 -0.13690312057941159 0.11422391358558882 -0.03796145944778026 -0.033147327892148595 0.1160970449093318 0.0071673596690155841 0.098922416114799946 0.0020922141298776349 0.00021327330658749429 -0.14499044262479982 0.13142197176190273 -0.022728657210475966 0.15456366023903709 -0.15721679061163166
leaf_weight=4.1921538146598323 0.44408441672567267 0.48177734937053163 3.406033067018142 0.49598583018814668 0.68097781093092624 0.60528386046644289 1.1680091413581974 1.505700954861821 0.27952060062671114 0.58031226180173678 0.42741157510317851 1.2456257846497463 2.1550335704523604 4.1989635030186019 0.18893840690725516 3.9583993876876775 3.74770568500844 2.3440644889924447 1.1671419615304328 14.514376668861585 0.68404568353435014 2.5886177593929451 4.219410036588668 5.998146795653156 1466.4538033814606 0.91454363899538271 0.30617080116644502 3.0428843134068329 2.6509542822313961 0.34158065496012557
leaf_count=398 31 39 193 40 39 36 80 143 22 29 24 78 104 361 13 259 455 165 121 1139 41 210 206 315 7156 67 25 302 156 26
internal_value=0 0.0433907 0.0582363 -0.018694 0.0873246 -0.0774075 -0.000157185 0.0308612 -0.00741631 0.07561 -0.0697601 0.00445694 -0.000421772 -0.0322054 -0.0557228 -0.0236376 -0.122209 0.0448624 0.0636368 -5.50427e-05 -0.046093 -0.0624548 0.000175422 0.0420789 -0.000113681 -0.0123188 -0.0756627 0.0225128 0.113673 0.0418655
internal_weight=0 6.11414 5.63236 1.54535 4.08701 1.10127 1528.87 12.931 6.96947 5.96157 3.17874 1.67304 1515.94 17.2919 12.094 8.15736 3.93664 3.79073 3.51121 1498.65 7.46482 6.78077 1491.19 10.2176 1480.97 1.80103 1.22071 5.19792 4.16054 1.50959
internal_count=12273 378 339 107 232 76 11895 936 553 383 245 102 10959 1494 1088 620 468 308 286 9465 649 608 8816 521 8295 121 92 406 262 106
is_linear=0
shrinkage=0.3


Tree=310
num_leaves=31
num_cat=0
split_feature=240 151 281 171 199 140 258 227 180 43 36 93 135 232 83 53 64 247 30 122 47 186 93 20 125 217 99 99 157 283
split_gain=0.129222 0.194954 0.17349 0.1521 0.235201 0.196306 0.193145 0.192543 0.195538 0.187517 0.198827 0.186774 0.220337 0.203381 0.207991 0.197292 0.176789 0.17343 0.167331 0.288993 0.197399 0.159554 0.148952 0.132161 0.135685 0.111773 0.103254 0.0854661 0.0687529 0.0682857
threshold=0.16242250055074689 0.011968999635428152 -0.050875232231965654 -0.051331287272374813 -0.077574998140335041 0.04209550097584721 -0.12462900206446643 -0.10501746082652673 0.080053001642227103 0.022712744634047582 -0.063441979484898742 0.029343999922275505 0.081522040778205337 0.013181999791413502 0.082219999283552156 0.12075127840255799 0.018644000403583005 -0.032812001183628987 -1.0000000180025095e-35 -0.093301497399806879 -0.033848999068140893 -0.025256000459194097 0.043653499335050507 -0.050699521776426164 0.069338500499725314 0.043806999921798657 0.045971627567754449 -0.048883285889552791 0.051288103977726325 0.093811348837766678
decision_type=2 2 2 2 2 2 2 2 2 2 2 2 2 2 2 2 2 2 2 2 2 2 2 2 2 2 2 2 2 2
left_child=3 2 -2 5 7 11 9 25 21 10 -6 13 16 17 -15 -14 -13 -1 19 -8 -20 -9 28 -7 27 -5 -24 -25 -4 -3
right_child=1 29 22 4 6 23 18 8 -10 -11 -12 12 15 14 -16 -17 -18 -19 20 -21 -22 -23 26 24 -26 -27 -28 -29 -30 -31
leaf_value=-0.099201138266722028 0.065206531279332458 -0.0062794940543413709 -0.18984316215272717 -0.11324048426380526 -0.13644942839407131 0.09358706591721884 -0.0796403787125982 0.0036093994768738947 -0.18211533669688812 -0.17409897095710924 0.011207339870658134 0.058027875876032385 -0.12969804527156004 0.084144369896051868 -0.052943423924206957 0.11958373662837975 -0.12533859484099169 0.037853621182984777 -0.066717393322075991 0.033712777712110696 -1.4876554266208312e-05 -0.091569734993721244 -0.12250674361630717 0.099728956573637159 0.064473474790103347 0.17513220839655083 0.17651419083549777 -0.17173637053644999 -0.054992962007038355 0.20344317541420265
leaf_weight=1.2898912460295835 0.53310414853785992 0.26579081981617481 1.500956756746745 0.16009480351931404 1.1351409778380905 0.38218251804573844 2.2123367156455087 3.1168520669270943 1.0943010578048413 1.0083464580638972 2.9633949382337046 3.2351475353161727 1.7770591706503185 10.1964886062633 1.1039051714797086 0.34048805211386923 0.55429258271033166 2.3355062578411951 4.0051053106362806 23.80919323163107 1324.9773141405803 3.2255622772263437 0.19344470561236438 0.11463550582993765 0.34518278058385465 0.49497236947354395 0.22460157763271127 1.1664703328970052 0.44003327802056436 0.29459974406199763
leaf_count=137 35 31 126 17 170 45 277 395 166 119 308 350 172 1017 119 21 63 252 526 1857 5258 453 25 12 30 49 17 175 38 13
internal_value=0 -0.057978 -0.0893581 0.000133056 -0.000272266 0.024412 3.11238e-05 -0.0512676 -0.0650022 -0.0582018 -0.0296881 0.0330475 -0.012106 0.0509173 0.0707526 -0.0896151 0.0312063 -0.0109095 0.000250598 0.0240756 -0.000215895 -0.0447959 -0.124287 -0.0651592 -0.102465 0.104656 0.0381467 -0.147445 -0.159272 0.103973
internal_weight=0 3.45253 2.89214 1391.04 1368.2 22.8412 1360.11 8.09178 7.43672 5.10688 4.09854 20.8328 5.90699 14.9258 11.3004 2.11755 3.78944 3.6254 1355 26.0215 1328.98 6.34241 2.35904 2.00847 1.62629 0.655067 0.418046 1.28111 1.94099 0.560391
internal_count=12273 285 241 11988 9595 2393 8515 1080 1014 597 478 2131 606 1525 1136 193 413 389 7918 2134 5784 848 206 262 217 66 42 187 164 44
is_linear=0
shrinkage=0.3


Tree=311
num_leaves=29
num_cat=0
split_feature=223 188 121 289 21 11 148 57 8 42 270 295 97 202 285 4 171 282 247 40 232 134 68 281 138 185 202 86
split_gain=0.112952 0.15265 0.178943 0.124052 0.228915 0.151617 0.125899 0.125556 0.19672 0.234505 0.177486 0.143102 0.215625 0.170751 0.129201 0.127451 0.235544 0.226865 0.122088 0.120488 0.103959 0.0778985 0.0767053 0.0655794 0.0589245 0.0343739 0.00503962 1.02201e-05
threshold=-0.10889479815506141 0.024368500337004603 0.07446999847888941 0.081142000854015309 0.028634567892289419 -0.058096413801702759 0.0082698506674762657 -0.13548579240358424 0.048683499917387907 -0.022603000514209198 0.025771499611437303 -0.09552450105547898 -0.024598999880254248 -0.0072829779684554881 -0.056474499404430341 -0.051779501140117597 -0.021425685965697935 -0.024253000505268497 -0.037012748631506741 0.055114833632596914 0.090931259488365432 -0.021709999000155567 -0.047540500760078395 0.03511999920010566 0.013290913520640166 -0.0042244999203830498 -0.01047114981469934 0.015870499424636305
decision_type=2 2 2 2 2 2 2 2 2 2 2 2 2 2 2 2 2 2 2 2 2 2 2 2 2 2 2 2
left_child=1 2 20 7 5 -5 -7 8 10 24 22 12 18 -14 -11 16 -13 -17 -9 26 21 25 -2 -8 -10 -1 -3 -28
right_child=3 19 -4 4 -6 6 23 11 9 14 -12 15 13 -15 -16 17 -18 -19 -20 -21 -22 -23 -24 -25 -26 -27 27 -29
leaf_value=-0.062812825741916184 0.19052230377593066 0.14869611468835442 0.16750874559796311 0.064454514609948665 0.1464289656853614 0.033018885546530083 -0.1903190959893494 -0.092395188343287929 -0.19441804746912994 0.156628352989089 -0.070252184967028175 0.050077373051683173 -0.1566403200776588 -0.030622749327557777 -0.055361219492719743 -0.020763825815324363 -0.0071786880114045517 0.00034312987814650984 0.097215239862183125 -0.029640681324123268 0.11449695759827418 0.015811822020395813 0.073697839772616514 -0.033487254248135589 -0.038939296958987617 -0.20314023911607207 0.20180639805485401 0.20409552111466575
leaf_weight=0.24081593141454483 1.2183502059197058 0.19202527683228254 0.44122764683561388 0.43694496748503375 0.40751726459711779 0.35293570603243951 1.4192414461576843 0.41836531495209772 0.54825340234674547 0.66339909727685153 0.42719713179394592 12.686761196615409 1.7247119068051691 2.204768787516513 0.42420511133968808 47.383737753450987 13.189116228757483 1398.5440081300367 1.1341716073075074 0.2889278285583714 0.26689316623378534 0.37216357118450061 0.86491319793276411 0.28878890722990025 0.36571999860461801 0.4519416096736677 0.28455116029363103 0.45816765679046512
leaf_count=23 56 17 33 22 20 25 131 31 32 27 20 626 145 214 21 2702 716 7078 66 39 33 37 41 16 20 33 28 21
internal_value=0 0.0581778 0.00192814 -0.000124108 -0.062053 -0.0960654 -0.130097 -2.68124e-06 0.0499652 -0.0201884 0.105898 -0.000155297 -0.0485354 -0.0859339 0.0739447 2.49039e-05 0.0208936 -0.000348555 0.0461205 0.139681 -0.0529284 -0.094889 0.14202 -0.163802 -0.132204 -0.15436 0.192018 0.203219
internal_weight=0 2.99671 1.77304 1484.7 2.90543 2.49791 2.06097 1481.8 4.51204 2.00158 2.51046 1477.29 5.48202 3.92948 1.0876 1471.8 25.8759 1445.93 1.55254 1.22367 1.33181 1.06492 2.08326 1.70803 0.913973 0.692758 0.934744 0.742719
internal_count=12273 264 159 12009 214 194 172 11795 217 100 117 11578 456 359 48 11122 1342 9780 97 105 126 93 97 147 52 56 66 49
is_linear=0
shrinkage=0.3


Tree=312
num_leaves=31
num_cat=0
split_feature=234 250 38 47 185 104 137 133 39 245 216 45 231 294 44 44 107 142 151 292 159 81 284 130 51 14 260 85 118 192
split_gain=0.129723 0.202051 0.19853 0.162918 0.154349 0.207896 0.191684 0.279869 0.213365 0.211084 0.150301 0.142423 0.292472 0.219892 0.198534 0.194036 0.225319 0.191573 0.133864 0.133263 0.131168 0.129249 0.120681 0.149673 0.140817 0.120016 0.136266 0.139244 0.0905082 0.0887279
threshold=0.039974632565064824 0.051448616002425805 0.013371000066399552 -0.043221003499482026 -0.10478850081562995 0.025129545011164323 1.0000000180025095e-35 0.028655999340116953 0.0082911929727006572 -0.011750239798466565 -0.063775502145290278 -0.092629683411014713 -0.046505626068308013 -0.0031953021675857223 0.025474142342521724 0.038529498502612107 -0.030844500288367199 -0.059112500399351092 0.0023867707925453409 -0.10437700152397154 -0.02719930072340174 0.07882300019264217 0.053198499605059561 0.037362315055730462 0.01005636126980964 0.05130952819667263 0.074745439134033989 0.0078753532670323423 0.023354297949097904 -0.025325500406324798
decision_type=2 2 2 2 2 2 2 2 2 2 2 2 2 2 2 2 2 2 2 2 2 2 2 2 2 2 2 2 2 2
left_child=4 25 3 -3 5 18 11 8 9 -8 -10 12 14 -14 -6 17 -17 -13 -1 -9 -4 -21 24 -24 -5 26 27 29 -22 -2
right_child=1 2 20 22 6 -7 7 19 10 -11 -12 15 13 -15 -16 16 -18 -19 -20 21 28 -23 23 -25 -26 -27 -28 -29 -30 -31
leaf_value=-0.089100577686071658 0.076689612012380573 0.14592285669401375 0.10741599374807932 -0.12180453107673939 0.0852360302811941 0.14682403288148338 0.0041012492909157467 0.18468079502966436 0.12298392260727269 -0.080331897951246942 -0.020288351118665081 -0.05587676191850733 -0.11864575366251648 0.015783709995393642 -0.064985099730202528 0.072396445483812535 -0.0039163917804357013 0.00011686089674857088 0.1372428021377014 -0.17200156944844214 -0.17808982583660907 0.0066668512871630916 -0.16458473750350297 0.096714361026765561 0.091123440082184204 0.15142902337785974 0.13832831988868413 0.079312626889165364 0.012330549561937156 -0.15528370716356318
leaf_weight=0.81200414459453829 0.19806903621793015 0.88498510867066249 0.24071569275110949 0.3552616107190264 2.1839650262554646 1.4781772776768773 5.8153228065480089 0.11992750305216793 1.5013017217497693 4.9189250443268975 1.1745617879787449 5.5197633290663353 3.9229237439067219 1.5192322597358705 1.2421424502390435 7.1952279070974328 6.7476830236118968 1475.2583608546865 0.33103470352943987 1.988173578087298 0.97408829541382125 0.44617267008288752 0.67409009864786629 0.27892914181575179 1.3113287743763065 1.542353375785751 0.90451227949233715 0.82133876613806933 0.2919879703404149 0.59174728479410843
leaf_count=76 19 52 13 24 139 80 476 5 101 576 107 413 326 138 95 337 446 7938 29 276 63 46 52 16 75 128 55 67 30 75
internal_value=0 0.0357789 -0.00451507 0.0346378 -0.000206805 0.0725289 -0.000332274 -0.0330321 -0.0156964 -0.0345899 0.060095 1.49166e-05 -0.037891 -0.0811184 0.030773 0.000239815 0.0354648 -9.18615e-05 -0.0235494 -0.124045 -0.0955793 -0.139255 -0.00295776 -0.0881079 0.0457343 0.0855393 0.0451424 -0.0071727 -0.134174 -0.0971098
internal_weight=0 9.06941 5.01139 3.50459 1522.17 2.62122 1519.55 15.9644 13.4101 10.7342 2.67586 1503.59 8.86826 5.44216 3.42611 1494.72 13.9429 1480.78 1.14304 2.55427 1.50679 2.43435 2.61961 0.953019 1.66659 4.05802 2.51567 1.61116 1.26608 0.789816
internal_count=12273 669 325 219 11604 185 11419 1587 1260 1052 208 9832 698 464 234 9134 783 8351 105 327 106 322 167 68 99 344 216 161 93 94
is_linear=0
shrinkage=0.3


Tree=313
num_leaves=31
num_cat=0
split_feature=77 151 261 173 49 126 152 12 296 27 5 9 280 175 292 92 49 230 119 102 135 140 109 148 297 152 163 231 69 246
split_gain=0.130865 0.20178 0.160334 0.159371 0.225438 0.238074 0.219321 0.213993 0.201522 0.203365 0.183607 0.173446 0.242216 0.277768 0.242091 0.172875 0.172312 0.172303 0.164677 0.164649 0.162351 0.18758 0.155015 0.143468 0.137345 0.134562 0.129981 0.126254 0.121243 0.14995
threshold=0.053250845468548393 -0.037198001518845537 0.14146730597352011 1.0000000180025095e-35 0.043061006607501763 0.092958727919190104 0.017959761619830945 0.030052499845623953 -0.012572928526869708 0.040317204160350735 -0.024014132326226702 -0.048900203710261485 -0.060488281618180907 -0.0013640000252052998 -0.060953692157644672 -0.014167967266646047 0.054763061734609562 -0.070608461963555261 -0.01600647148122827 -0.027317000553011849 0.020429000258445702 0.012897999957203801 0.088870000094175325 0.095481999218463856 0.010253484236958049 0.00094385155019024666 -0.013906997458749586 0.051855500787496504 -0.010328103892154163 -0.021766000427305646
decision_type=2 2 2 2 2 2 2 2 2 2 2 2 2 2 2 2 2 2 2 2 2 2 2 2 2 2 2 2 2 2
left_child=3 2 27 7 5 17 8 11 19 -10 15 16 14 -14 -13 -9 26 -5 -18 -6 -12 -22 -19 24 -8 28 -1 -2 -3 -30
right_child=1 25 -4 4 6 -7 23 10 9 -11 20 12 13 -15 -16 -17 18 22 -20 -21 21 -23 -24 -25 -26 -27 -28 -29 29 -31
leaf_value=0.11828471401881327 -0.16571874348275928 0.096191187388581081 0.08873491328494533 -0.079594384544655755 -0.097024619427280995 -0.1126353992822412 -0.15136482470667303 0.073008865180336613 -0.027507460473848677 0.10954757704895074 -0.14403085876219007 -0.11780936170882085 0.035003811865866451 -0.00029365834717514451 -0.018918211140516065 -0.15837274781851826 -0.11730749374769564 0.089508496245101474 0.14498658055928204 0.037750453212103151 0.039686696283263122 -0.13015108661595101 -0.013308162035754153 -0.19752096390770585 0.11763195273994324 -0.087318733200555124 0.013211233114567152 0.10703822644942652 0.056375161638290539 -0.11505046736867043
leaf_weight=2.8207074294150516 1.8666267079934193 1.3660419482412181 0.30840739300765552 0.7003469594346815 2.0198853706824598 0.72832087977440174 0.32962075370232902 0.34264925017487291 1.5938539419839779 2.5070105400227476 0.77052242816898697 2.8845167368053799 20.37500496276698 1318.3126050911778 9.7881801830435489 1.9136570787268281 0.85800389174801239 8.8319365883071423 0.2876487768080549 1.368518942108494 3.0488949267919456 0.72431971641344706 1.551591348907096 0.82964101361721987 0.35460452904226258 1.2582379726154611 1.6970889468502708 0.16634496764163476 1.0093324292465693 0.8426256563907365
leaf_count=338 236 130 27 89 168 78 54 43 197 199 123 285 1957 4795 1049 217 125 761 43 114 304 132 155 63 35 160 181 16 113 86
internal_value=0 -0.0414621 -0.112824 0.000203968 0.0262562 0.053513 -0.00950491 -0.000193654 0.0115469 0.0562794 -0.0532797 7.23595e-05 -0.000147206 0.000243574 -0.0414275 -0.123234 0.0524631 0.0644306 -0.0514511 -0.0425913 -0.0185419 0.00708403 0.0741448 -0.11365 -0.0119554 -0.00413511 0.0788144 -0.143401 0.0283897 -0.0216221
internal_weight=0 6.81762 2.34138 1384.64 20.8153 11.8122 9.00314 1363.82 7.48927 4.10086 6.80004 1357.02 1351.36 1338.69 12.6727 2.25631 5.66345 11.0839 1.14565 3.3884 4.54374 3.77321 10.3835 1.51387 0.684225 4.47624 4.5178 2.03297 3.218 1.85196
internal_count=12273 768 279 11505 1913 1083 830 9592 678 396 819 8773 8086 6752 1334 260 687 1005 168 282 559 436 916 152 89 489 519 252 329 199
is_linear=0
shrinkage=0.3


Tree=314
num_leaves=31
num_cat=0
split_feature=269 96 99 184 84 286 11 82 244 165 23 230 103 222 272 293 281 168 51 293 106 7 234 144 176 89 83 254 85 17
split_gain=0.110302 0.293665 0.377167 0.363352 0.56129 0.340797 0.332771 0.3073 0.366416 0.306986 0.298183 0.299699 0.28105 0.249348 0.231459 0.226733 0.219028 0.286341 0.229086 0.21851 0.210872 0.21061 0.196771 0.189814 0.184283 0.178011 0.256443 0.24746 0.249216 0.247518
threshold=0.12657999992370603 0.035008998587727505 0.0065446612343012089 -0.030353500507771896 -0.010018796322976054 0.00049799994116136656 -0.018316244408365805 -0.011617999989539348 -0.060572961402787825 0.011464499868452502 0.032810499891638707 0.050680499523878056 0.018501200620471187 0.0070094999391585007 0.066394999623298617 0.050460500642657259 -0.019429647351132746 0.018295846000556445 0.071711610701290993 0.024955428451420535 0.018240385977035336 -0.040065500885248143 0.012940203942476804 -0.063064500689506434 -0.057264658319253439 -0.028119000606238797 0.028812499716877906 -0.095394998788833577 0.014266499783843702 0.015426500234752852
decision_type=2 2 2 2 2 2 2 2 2 2 2 2 2 2 2 2 2 2 2 2 2 2 2 2 2 2 2 2 2 2
left_child=25 10 7 4 14 6 -5 8 -3 -7 16 15 23 -13 -4 22 17 21 19 -18 -20 -2 -12 -9 -6 26 -1 28 -27 -29
right_child=1 2 3 5 24 9 -8 12 -10 -11 11 13 -14 -15 -16 -17 18 -19 20 -21 -22 -23 -24 -25 -26 27 -28 29 -30 -31
leaf_value=-6.3310577016366059e-05 0.079669559461740438 -0.12129759346974672 0.049454509902910414 0.1533654155496362 0.046625864311029587 -0.14603570289335782 -0.07957942023414738 0.038734132182927344 0.1036944497552837 0.07361278397831264 0.095450532521532794 -0.1628548370198864 0.050411616054831389 0.067608390463947649 0.16626738643332203 -0.17226458900486274 -0.12759687296889249 0.14562935979800565 -0.0609983195920955 0.068343857043747902 0.15775396437195088 -0.08816669298734274 -0.071420828050864305 -0.17638746806205233 -0.19704469523377965 0.074752732009797429 -0.069844641369305127 5.6746784925582398e-05 -0.018845509443860643 -0.035200429530656489
leaf_weight=11.486915513145506 2.2908873404376213 1.0866178428987043 3.4206496753031388 1.2841876912862065 0.41492410632781684 2.6055463571101432 0.96793115674517771 0.41873600450344417 1.6266865862999109 0.73399435635656107 2.9974573118961412 1.5671932824188846 0.75780672277323891 0.57847624551504839 2.7571399607695639 0.41983771789818991 1.3386714493390184 4.826492436346598 0.57173565169796337 0.82970887818373729 1.2947535361163316 0.95274706091731776 0.80725065147271369 3.1173831735504818 0.85478018806316025 7.7166674407199007 8.0693009952956327 1395.5814685282949 3.8314731395148556 18.15375566081093
leaf_count=701 98 37 98 29 13 114 31 16 56 36 134 71 27 16 50 20 64 152 40 43 35 52 39 122 45 486 566 7573 287 1222
internal_value=0 0.015837 -0.00930916 0.0208569 0.0642505 -0.0369387 0.0532488 -0.0654426 0.0135902 -0.0977594 0.0431216 -0.00941631 -0.115383 -0.100722 0.101588 0.0369581 0.0707696 0.0993036 0.0136988 -0.0526221 0.0907466 0.0303713 0.0600452 -0.150913 -0.117416 -0.000428777 -0.0288565 -3.87217e-05 0.0436985 -0.00039599
internal_weight=0 38.5216 20.0464 13.0392 7.44749 5.59166 2.25212 7.00723 2.7133 3.33954 18.4752 6.37022 4.29393 2.14567 6.17779 4.22455 12.105 8.07013 4.03487 2.16838 1.86649 3.24363 3.80471 3.53612 1.2697 1444.84 19.5562 1425.28 11.5481 1413.74
internal_count=12273 1438 674 416 206 210 60 258 93 150 764 280 165 87 148 193 484 302 182 107 75 150 173 138 58 10835 1267 9568 773 8795
is_linear=0
shrinkage=0.3


Tree=315
num_leaves=31
num_cat=0
split_feature=184 23 107 220 176 92 234 110 165 216 136 154 244 242 154 11 53 194 44 143 193 291 134 174 125 54 256 47 133 245
split_gain=0.112567 0.311427 0.28405 0.373484 0.215127 0.184738 0.192494 0.185039 0.184198 0.313719 0.17425 0.200651 0.168131 0.186693 0.167757 0.163638 0.179325 0.222582 0.198934 0.159103 0.157204 0.175679 0.156963 0.198528 0.219729 0.177507 0.166736 0.29059 0.27015 0.259914
threshold=-0.073542997241020133 0.0077019324236207373 -0.059015063343807642 -0.017623170215100722 -0.071574497967958381 0.10025034881880418 -0.024980000220239145 0.058089310779325588 -0.052541499957442242 -0.049477498978376291 -0.099211998283862984 0.0037333463381299349 -0.11027200147509568 -1.0000000180025095e-35 -0.026882500387728197 0.051580971500138621 0.074176002293825108 -0.01332840354141897 0.038529498502612107 -0.099268000572919776 0.052923693242571797 -0.056710500270128188 -0.070521999150514533 0.096856001764535862 0.018210500478744503 0.052644875915111432 -1.0000000180025095e-35 -0.035109998658299398 -0.017942670231111301 -0.054872000589966739
decision_type=2 2 2 2 2 2 2 2 2 2 2 2 2 2 2 2 2 2 2 2 2 2 2 2 2 2 2 2 2 2
left_child=1 2 -1 -4 -3 12 -7 -8 9 15 -5 -12 13 -6 -11 16 18 -18 -2 -14 21 -16 23 24 25 -10 27 -24 -29 -28
right_child=8 4 3 10 5 6 7 -9 22 14 11 -13 19 -15 20 -17 17 -19 -20 -21 -22 -23 26 -25 -26 -27 29 28 -30 -31
leaf_value=0.074237975249695692 -0.093295525238034291 0.12481482961474547 0.080517077646450372 0.11916581408061523 0.07177823751412038 -0.18413459680435923 0.15461015916764073 -0.13072934729453489 0.085719154551702634 -0.17675851743007723 -0.14503518149675987 -0.0344828427013621 -0.18124848995561232 -0.12498546916286739 0.14944278633234206 0.11028577295824409 -0.054839998293632945 0.093173532844672169 0.10691557241041806 0.086845300861172967 0.090049156361372687 -0.11540306704991676 0.01994610819309239 -0.11389026720535726 -0.032337773370021299 -0.075043136356065923 0.054413436685584349 -0.017650231700866673 -0.089631822405454059 -0.00010301896748732347
leaf_weight=2.3895756426791186 3.1034539772808771 2.9544672323318073 1.7141218153701618 0.38111576321534713 0.83679573942208663 0.67060016305367753 0.47499869670718886 0.35923354052647483 7.035046853259697 1.6089014911485717 2.9747745507775143 2.935770899632189 0.20701659191399624 0.90158189447538351 0.25068876458681222 1.0376978279382454 1.6097502779884965 2.1167902775923721 0.52174998013651919 5.2947205529781067 0.53877920252853062 2.2355366315459828 10.003982876605734 0.74156663799658495 2.4006229047336092 0.67769034928642202 7.9139732412950243 13.732582489421477 7.1282900449712079 1441.989715583637
leaf_count=181 277 160 131 17 61 56 36 23 426 153 192 261 12 107 16 55 90 95 33 416 39 216 634 62 214 45 515 847 632 6271
internal_value=0 0.0212533 -0.0165315 -0.0436245 0.0548264 0.031181 -0.0644613 0.0317385 -0.000316587 -0.03584 -0.0774461 -0.0901238 0.0510599 -0.0302701 -0.0984903 -0.00123509 -0.0169762 0.0292363 -0.0644806 0.0767576 -0.0568619 -0.0886984 -6.43322e-06 0.0359371 0.0469232 0.0715936 -0.000269921 -0.0220887 -0.0422468 0.000194547
internal_weight=0 22.0948 10.3954 8.00578 11.6994 8.74495 1.50483 0.834232 1504.65 13.0233 6.29166 5.91055 7.24011 1.73838 4.63391 8.38944 7.35174 3.72654 3.6252 5.50174 3.025 2.48623 1491.62 10.8549 10.1134 7.71274 1480.77 30.8649 20.8609 1449.9
internal_count=12273 1653 782 601 871 711 115 59 10620 974 470 453 596 168 424 550 495 185 310 428 271 232 9646 747 685 471 8899 2113 1479 6786
is_linear=0
shrinkage=0.3


Tree=316
num_leaves=31
num_cat=0
split_feature=136 28 151 88 290 45 137 182 205 160 202 276 124 173 3 103 150 139 260 85 291 244 199 180 176 192 194 68 79 149
split_gain=0.127006 0.163909 0.177734 0.162845 0.179025 0.156751 0.190356 0.127585 0.222627 0.149697 0.234439 0.197686 0.17961 0.16704 0.301853 0.22693 0.198405 0.175542 0.19109 0.150928 0.131935 0.163208 0.123181 0.117465 0.103329 0.0953968 0.093603 0.0844665 0.0803784 0.0803718
threshold=0.025869000703096303 -0.08333272936547452 -0.027920000255107796 0.079142000526189762 -0.010519046867179077 -0.044058499857783297 -0.072300671920065604 -0.05778699927031989 -0.016294115431506311 -0.050142999738454742 0.018683805936076828 0.043962490345477563 0.015457499772310201 1.0000000180025095e-35 -0.031706076954155692 -0.0089444997720419996 -0.0027761715046987112 -0.058025000616907997 0.064970515882891475 0.03566749952733516 0.0075713130313449619 -0.048017606608819839 -0.020080500282347147 0.062227001413702958 0.016492499969899602 0.036165681227066634 -0.018966499716043396 -0.11584800109267228 -0.058000499382615041 -0.0099058156833010894
decision_type=2 2 2 2 2 2 2 2 2 2 2 2 2 2 2 2 2 2 2 2 2 2 2 2 2 2 2 2 2 2
left_child=7 3 24 4 -2 23 -7 8 28 10 11 12 -9 17 16 -16 -15 18 -11 -19 21 26 -5 -4 -3 -12 -10 -8 -1 -13
right_child=1 2 5 22 -6 6 27 9 20 13 25 29 -14 14 15 -17 -18 19 -20 -21 -22 -23 -24 -25 -26 -27 -28 -29 -30 -31
leaf_value=-0.080413536610146427 0.11203929306515699 -0.17411005990606016 0.085571376485563663 -0.17893692532989688 -0.10474651447434671 0.0787629235827597 0.030901775878534116 -0.063455174240506895 -0.027425909447808212 -0.0031975414545216806 -0.19444708488145318 0.17907534751777079 0.058853106489573433 -0.16363813250589823 -0.001424254511530983 0.085084608333527517 -0.0038652315781006904 0.00038387294887313187 -0.10667207508923575 -0.054136621997768669 -0.15848517893879421 -0.15623730246243678 0.061764526399971695 -0.11442746017943543 0.035544591383528598 0.022507783942372163 0.15724920503495637 -0.17271391329054483 0.15343787688445679 0.014633893888292435
leaf_weight=0.144301252439618 1.6044016279629436 1.5516383031354051 1.2071727295333401 0.52950579421667499 0.43601492821926524 0.46865952008374723 0.21628156586666558 5.2276835376933359 0.39811232685315168 3.6126872496970455 1.0638618619377664 0.56138173915678635 1.3621521296990975 0.92066853281176042 4.2203431851194173 7.7232844073587321 2.9118698172787836 1340.362180292334 2.8921251203501015 4.5853964781508685 0.44406267366866803 0.32470707667516663 0.29962671099929128 0.33838407864095632 0.2449749681400134 0.22015154315158714 0.65080522219795967 1.2045988227509938 1.5881950138100367 0.51098643733712357
leaf_count=22 178 152 132 52 57 69 17 612 55 507 130 57 144 101 367 707 341 6684 428 670 96 76 27 36 28 30 66 147 189 96
internal_value=0 -0.0374609 -0.0690642 0.0201576 0.0657145 -0.029075 -0.0870341 0.000211911 0.0570102 6.53852e-05 -0.0386151 -0.0187347 -0.0381734 0.000318484 0.0310095 0.0545162 -0.0422466 -3.97867e-05 -0.0492037 0.000197994 -0.0163332 0.0296214 -0.0919537 0.0417836 -0.145523 -0.157249 0.0871565 -0.14172 0.13396 0.100719
internal_weight=0 8.10126 5.23171 2.86955 2.04042 3.4351 1.88954 1379.72 3.55018 1376.17 8.94622 7.6622 6.58984 1367.23 15.7762 11.9436 3.83254 1351.45 6.50481 1344.95 1.81769 1.37362 0.829133 1.54556 1.79661 1.28401 1.04892 1.42088 1.7325 1.07237
internal_count=12273 895 581 314 235 401 233 11378 504 10874 1069 909 756 9805 1516 1074 442 8289 935 7354 293 197 79 168 180 160 121 164 211 153
is_linear=0
shrinkage=0.3


Tree=317
num_leaves=31
num_cat=0
split_feature=68 94 28 215 223 228 106 222 88 30 277 16 170 17 145 18 228 139 198 150 124 124 143 91 277 32 200 190 101 200
split_gain=0.1079 0.336613 0.288112 0.327536 0.322236 0.314513 0.280241 0.313852 0.217638 0.277365 0.262373 0.245942 0.265237 0.335168 0.246784 0.243309 0.238488 0.208154 0.206358 0.210955 0.20613 0.301006 0.25667 0.234112 0.205826 0.202135 0.265346 0.204219 0.202179 0.210135
threshold=-0.064615399435003454 -0.049692963623363638 -0.015937500633299295 0.025607500225305505 0.02192492820910678 0.0098530002869665016 0.069570933845735719 -0.038119500502943944 0.065614454318239535 -0.026661404231304801 0.034144916360349671 -0.016398000530898498 0.012370923746950662 -0.0060835001058875994 0.04591249860823151 -0.071263503283262239 0.028204000554978802 -0.0019081443819725784 -0.019820000045001448 -0.018060000613331746 -0.0089569999836384487 0.0030474999221041508 0.0049440806344377506 -0.071860923375801827 -0.029671164763884091 -0.059077928369500883 -0.059225744695750197 0.032948499545454958 -0.056042593568691623 -0.077657002955675083
decision_type=2 2 2 2 2 2 2 2 2 2 2 2 2 2 2 2 2 2 2 2 2 2 2 2 2 2 2 2 2 2
left_child=1 20 4 -4 6 -6 7 -3 9 18 25 12 13 -12 -13 -11 -14 -8 19 -2 22 -22 -1 -23 -5 26 27 -10 29 -27
right_child=8 2 3 24 5 -7 17 -9 10 15 11 14 16 -15 -16 -17 -18 -19 -20 -21 21 23 -24 -25 -26 28 -28 -29 -30 -31
leaf_value=-0.01315293045464121 0.100894694502975 -0.088125535611381978 0.10295144041912363 -0.147720696605216 -0.11255206717201635 0.055447896818261996 0.13644672608575151 0.0042625297953427033 -0.12540306760664835 -0.11825951853743047 0.034130140726275598 0.035198983814358119 -0.11147537849251325 -0.087833814938095195 -0.12239794040716934 -0.00010256248038938891 0.11039729251418974 -0.020551765750702656 0.073676369404610864 -0.069455549059603147 -0.11383443664386092 0.16439344084244864 0.088778473614569434 0.0069667648255916726 0.018398748437059905 0.043979239725198502 0.039363257560215144 0.098044745488157045 0.049421653049181551 -0.083199994875453834
leaf_weight=2.8461423335829776 0.93893137836130369 4.1935375644825461 4.2877270251628925 0.84152448878739949 4.972766312697785 1.2562816106947137 2.0905493446625774 15.694465787979427 2.9266192435752605 1.5702973993247713 4.2747808494204973 5.1016833355479312 8.058670907732445 3.8580782443823436 1.0843313582154221 1364.9083027203615 0.46095451316796321 1.194207421154714 7.8301107141305675 2.1578750818734989 1.5495151697541576 1.0341471261344848 10.160035269742364 4.7791153182333801 3.3180970616231207 2.0956416689150501 2.068971713131762 0.42108298512175668 9.1031523770652676 2.6450359038135511
leaf_count=165 44 263 230 77 372 59 89 992 185 137 231 290 397 221 93 5696 29 55 463 157 101 26 412 309 228 115 120 25 522 170
internal_value=0 0.0126704 -0.00406416 0.0447674 -0.0180938 -0.0786696 -0.00181049 -0.0152182 -0.00050708 0.00014234 -0.021755 -0.0435043 -0.0624787 -0.0237273 0.00757421 -0.000238343 -0.099471 0.0793683 0.0477491 -0.0178065 0.0437662 0.00365539 0.0664728 0.0349721 -0.0152085 0.00403468 -0.0450979 -0.0972972 0.0232588 -0.0269797
internal_weight=0 58.2181 37.8492 8.44735 29.4018 6.22905 23.1728 19.888 1419.5 1377.41 42.099 22.8385 16.6525 8.13286 6.18601 1366.48 8.51963 3.28476 10.9269 3.09681 20.369 7.36278 13.0062 5.81326 4.15962 19.2605 5.41667 3.3477 13.8438 4.74068
internal_count=12273 3378 2365 535 1830 431 1399 1255 8895 6497 2398 1261 878 452 383 5833 426 144 664 201 1013 436 577 335 305 1137 330 210 807 285
is_linear=0
shrinkage=0.3


Tree=318
num_leaves=31
num_cat=0
split_feature=112 201 118 213 63 202 119 117 41 252 165 171 51 263 168 250 41 168 121 265 174 49 51 197 214 9 187 267 260 109
split_gain=0.110111 0.182952 0.158316 0.144033 0.176041 0.203683 0.18339 0.284917 0.173535 0.231434 0.274308 0.241552 0.212436 0.194562 0.172288 0.171305 0.169922 0.257598 0.233686 0.165186 0.164334 0.162223 0.15746 0.141047 0.20707 0.138206 0.203355 0.194311 0.135887 0.127677
threshold=-0.07473655468940138 0.022941846908771605 0.10311790491879159 -0.01141632545765171 -0.059721499681472744 -0.022834999486803946 -0.047773127128764477 -0.056403500959277091 0.062082000076770706 0.023929500021040353 0.018101000227034054 -0.067275002598762484 0.031616000458598109 -0.038396500051021493 0.063405840467223515 -0.037603000178933095 0.043693475119389619 0.08432700112462041 0.028768025572324663 0.12801299989223477 -0.03219449892640109 0.034581312033394603 -0.032960304259641575 -0.008086999878287298 0.019869349989325675 -0.042969498783349942 -0.065742500126361833 0.030111661180296803 0.10402249917387961 0.047650800274750056
decision_type=2 2 2 2 2 2 2 2 2 2 2 2 2 2 2 2 2 2 2 2 2 2 2 2 2 2 2 2 2 2
left_child=1 2 23 4 19 15 28 -8 16 13 11 -11 -12 29 -15 -6 25 18 -18 20 -2 -17 -22 -1 -25 27 -27 -5 -7 -10
right_child=3 -3 -4 8 5 6 7 -9 9 10 12 -13 -14 14 -16 21 17 -19 -20 -21 22 -23 -24 24 -26 26 -28 -29 -30 -31
leaf_value=0.12875534481463752 0.099493643128252235 -0.12286776926875709 -0.16686572673031663 -0.077618513055058277 0.12058276045791957 0.062160871381923964 0.076256061523669413 -0.083278044623396788 0.02286256450397034 0.080407446794970805 -0.018206208931099598 -0.035800039415072059 0.14696637450802624 0.05763210154408669 -0.11639336182969856 -0.13966121169955636 0.0099219577481326187 0.11072643248519576 -0.076594320239554786 0.15899325089699848 0.11463861562857409 -0.031493963048674897 -0.1280153785666045 0.084620138334712117 -0.061875688461410609 0.053496581404023767 4.5105800487511349e-05 0.048460271463057543 -0.054301916948374065 0.17298615467138231
leaf_weight=2.0166591409670218 0.36520059348549683 0.57578433176968236 0.27820387559768267 4.3776763534333432 0.45215731702046458 5.7178151599000593 1.466301540363929 3.2201131727688246 0.68060543911997262 1.9457929373602372 1.1090178919839666 9.3242097480979265 1.9038896094425579 3.3399118665620366 0.60470091320166819 1.9869373979745493 4.3480479869031097 1.0225355900474813 7.9424489608354634 0.24901887075975526 0.25847396254539523 3.3547050242414116 3.4958989230144679 2.3389651537654568 1.3811520988863319 6.4343494855129384 1447.1371455260887 1.4694470384856684 1.070477313827723 2.0324400057434104
leaf_count=167 24 70 35 514 35 594 121 514 43 108 67 438 91 220 47 199 284 44 427 6 15 262 348 229 160 399 6526 130 81 75
internal_value=0 0.0386831 0.0541476 -0.000177662 -0.024479 -0.0108685 0.0122831 -0.0333625 0.000174363 0.0272922 0.00575974 -0.0157365 0.0861682 0.0734864 0.0309544 -0.0567207 -0.000211221 -0.0339505 -0.0459872 -0.0782793 -0.0926219 -0.0717291 -0.11131 0.0648656 0.0302313 9.65529e-05 0.000281713 -0.0459335 0.0437953 0.135326
internal_weight=0 6.59076 6.01498 1515.31 21.6371 17.2685 11.4747 4.68641 1493.67 20.9406 14.2829 11.27 3.01291 6.65766 3.94461 5.7938 1472.73 13.313 12.2905 4.36859 4.11957 5.34164 3.75437 5.73678 3.72012 1459.42 1453.57 5.84712 6.78829 2.71305
internal_count=12273 661 591 11612 2199 1806 1310 635 9413 1089 704 546 158 385 267 496 8324 755 711 393 387 461 363 556 389 7569 6925 644 675 118
is_linear=0
shrinkage=0.3


Tree=319
num_leaves=31
num_cat=0
split_feature=124 131 277 76 131 295 259 77 17 196 266 30 174 100 167 224 51 184 266 294 282 210 0 75 196 98 110 196 229 283
split_gain=0.105228 0.118175 0.119278 0.109049 0.107171 0.104241 0.128743 0.271897 0.178265 0.152866 0.182256 0.182052 0.180993 0.213326 0.198238 0.174937 0.146043 0.167762 0.126983 0.125362 0.120809 0.122045 0.104867 0.10265 0.119241 0.0806068 0.0535366 0.0502295 0.0418187 0.0388349
threshold=-0.089374240183954498 0.04135499894618986 0.068584501743316609 -0.021652113384056627 0.062348000705242108 -0.09552450105547898 0.029646169778892752 -0.040772501379251445 -0.03169850073754784 0.016256500035524302 -0.064573999494314138 -0.0050837502998671907 0.0061810000333934511 -0.058458998799323994 0.078646998852491365 -0.10706468132127162 0.0543325003236532 -0.04375349916517729 -0.024703168045709874 -0.052326359845557537 -0.1025612644523401 -0.081465497612953144 -0.11374414891144112 0.11141199991106981 -0.014347500167787049 -0.030896384615492201 -0.0076717835940985982 -0.070228166882462834 -0.025023396648881164 0.065421503037214265
decision_type=2 2 2 2 2 2 2 2 2 2 2 2 2 2 2 2 2 2 2 2 2 2 2 2 2 2 2 2 2 2
left_child=1 2 27 -4 29 20 9 8 19 10 15 -12 13 -11 -14 -7 17 -9 -10 -8 26 28 -18 24 -23 -6 -2 -1 -22 -3
right_child=5 4 3 -5 25 6 7 16 18 12 11 -13 14 -15 -16 -17 22 -19 -20 -21 21 23 -24 -25 -26 -27 -28 -29 -30 -31
leaf_value=0.018088646461356012 0.0076748454899820224 0.19843357691099273 0.10862257625142942 -0.16963609366412954 0.10625686967765247 -0.15592572030186802 0.053071534966941773 -0.11275335262648577 -0.030098760064343252 -0.088357143127353904 0.033051910204781522 -0.00030221737369082115 0.052799727937189483 0.052299456784269636 -0.031042886006505663 -0.027027809623533423 0.13943288865786888 0.020594062476552405 0.11081613495194265 -0.1694713648304558 0.021391251294284496 -0.087218498808316725 -0.13920477955715146 -0.16411086633520311 0.10551303361368503 -0.17108109035828625 0.17862587263513452 -0.20038414613286137 -0.1960141438834252 0.023542518465567101
leaf_weight=0.10632437891035817 0.21019415493356064 0.26570600419017854 0.32485934386204462 0.20786034210050275 0.13778121345603722 1.1778433327453965 0.37637315778920311 1.4141066736001451 0.81940479019613199 2.4256512747106171 14.893155493516131 1326.4865788649004 14.63786637555768 1.6175823161156611 3.0704279804303942 4.848021636255452 0.12771241542941458 2.1252484743008591 1.9338595794033602 0.57716208891361054 0.1103356399689801 0.35867148407851424 2.5248789120005313 0.18901207682210941 1.4853794605514834 0.29899651146297401 0.76466705419443348 0.86721963601485108 0.28612796956804265 0.20049351294437656
leaf_count=13 23 24 47 39 25 105 72 322 125 375 1266 5485 1584 197 341 489 16 304 220 84 30 61 412 18 243 49 65 169 40 30
internal_value=0 -0.0626316 -0.114075 4.96366e-05 0.0231818 0.00011998 -9.45262e-06 -0.0340996 0.0301613 0.000237013 -0.000165746 6.81089e-05 0.0251861 -0.0320845 0.0382623 -0.0522228 -0.0725694 -0.0326833 0.0688782 -0.0816307 0.0525506 0.0167523 -0.125789 0.0464448 0.0680264 -0.083595 0.141766 -0.176524 -0.13551 0.12322
internal_weight=0 2.40924 1.50626 0.53272 0.902977 1382.46 1379.06 9.89875 3.7068 1369.16 1347.41 1341.38 21.7515 4.04323 17.7083 6.02586 6.19195 3.53936 2.75326 0.953535 3.40439 2.42953 2.65259 2.03306 1.84405 0.436778 0.974861 0.973544 0.396464 0.4662
internal_count=12273 396 268 86 128 11877 11397 1555 501 9842 7345 6751 2497 572 1925 594 1054 626 345 156 480 392 428 322 304 74 88 182 70 54
is_linear=0
shrinkage=0.3


Tree=320
num_leaves=31
num_cat=0
split_feature=250 86 247 40 16 2 275 190 238 136 98 268 36 260 78 191 229 237 71 177 129 210 22 178 210 288 68 41 146 201
split_gain=0.10705 0.276884 0.196156 0.160187 0.11869 0.114365 0.27232 0.225885 0.196312 0.216602 0.233344 0.188449 0.181274 0.172586 0.200084 0.152836 0.151058 0.150544 0.148697 0.259616 0.156197 0.136279 0.134536 0.162367 0.126309 0.12044 0.0936125 0.097575 0.093107 0.0927233
threshold=0.16535132601556854 0.021950999274849853 -0.062617499381303732 0.058894145212777187 -0.027976999990642046 0.06999700143933292 0.0031489999964832505 -0.072790000587701728 -0.09719349816441529 -0.04291700012981884 -0.009950000327080398 -0.072707500308752046 -0.060041500255465445 0.1395762223144443 0.0030313038859649494 -0.099215999245643588 0.018646724076646196 -0.03428450040519234 0.023426999337971151 -0.0026522458450005922 -0.050084630533555441 -0.091184001415967886 0.0096739996224641505 -0.0056620000395923497 -0.030042000114917696 0.048904728703196308 0.0077804999891668012 -0.0046435978966633583 0.0009138009104162362 -0.040028499439358642
decision_type=2 2 2 2 2 2 2 2 2 2 2 2 2 2 2 2 2 2 2 2 2 2 2 2 2 2 2 2 2 2
left_child=5 4 -3 -4 -2 8 7 12 9 10 11 -1 17 14 -11 22 21 -7 20 -20 -17 -8 -10 -24 -23 -12 27 -9 -5 -18
right_child=1 2 3 28 -6 6 16 26 15 13 25 -13 -14 -15 -16 18 29 -19 19 -21 -22 24 23 -25 -26 -27 -28 -29 -30 -31
leaf_value=0.08706691579489452 -0.16000052753599814 0.20891278728603505 -0.06684588030276252 0.20404807122480587 0.037902855247718747 -0.093733278536281522 -0.13651640991132716 0.051956036347440192 0.13703514855606272 -0.051181130639504094 -0.18172944598167382 -0.088304935052997524 -0.13455346481984298 0.11201112977701418 0.05547917889487592 0.034928364737767809 0.012750850767442416 0.15344769360641278 -0.11312547239066349 0.018595328808396403 -0.00020952537170807988 0.10248544951709751 0.12612705005685954 -0.14200480073813043 -0.051898599847967027 0.010252783472617209 -0.018141251171819261 0.17378016028219492 0.023953438879613678 -0.17432867035067959
leaf_weight=0.89880009146872941 0.64248045440763235 0.97895521484315429 0.72419802285730828 0.53521764022298135 0.47393100475892358 0.3364623486995697 0.44997776509262655 0.8080239613191228 1.3637980188941576 5.994958697658145 2.0417639323786712 1.4270151464152148 0.65321289020357631 0.95139184733852822 2.1507568332744995 11.477404261604532 0.33934291894547641 0.65046388277551159 2.8024332029162906 2.5924752092250847 1426.3608743059431 1.2985957590863115 0.38097143455524929 0.43572385754669074 0.75380820216378186 0.34358978760428716 0.37298733415082086 2.2103922857495477 0.49945413297973573 0.80188639755942837
leaf_count=45 34 24 35 15 22 16 25 65 73 470 153 110 57 31 161 700 25 43 242 223 9264 85 16 35 55 25 22 122 27 53
internal_value=0 0.0499312 0.101278 0.0413698 -0.075988 -0.000131588 0.0342117 0.0794428 -0.00033576 -0.0359366 -0.0881485 -0.0205333 -0.0119609 -0.00889734 -0.023019 4.34042e-06 -0.0282491 0.0691789 -0.000115567 -0.0498282 7.09594e-05 0.0130021 0.0793693 -0.0169268 0.0457832 -0.154076 0.123647 0.141168 0.117113 -0.118701
internal_weight=0 3.85424 2.73783 1.75887 1.11641 1467.9 8.67515 5.03154 1459.22 13.8083 4.71117 2.32582 1.64014 9.09711 8.14572 1445.41 3.64361 0.986926 1443.23 5.39491 1437.84 2.50238 2.18049 0.816695 2.0524 2.38535 3.3914 3.01842 1.03467 1.14123
internal_count=12273 157 101 77 56 12116 568 325 11548 995 333 155 116 662 631 10553 243 59 10429 465 9964 165 124 51 140 178 209 187 42 78
is_linear=0
shrinkage=0.3


Tree=321
num_leaves=31
num_cat=0
split_feature=245 82 104 216 42 279 252 297 172 47 242 7 274 134 188 196 122 241 28 239 207 219 111 177 144 222 179 199 129 48
split_gain=0.111017 0.160703 0.23367 0.165608 0.147683 0.143139 0.16722 0.151121 0.266852 0.264599 0.245039 0.237686 0.222353 0.214896 0.203674 0.202877 0.228001 0.219537 0.202741 0.186983 0.218638 0.161464 0.142408 0.140845 0.139153 0.16364 0.132004 0.148187 0.125264 0.123522
threshold=-0.067896001040935489 -0.016063000075519047 -0.027661499567329845 -0.073391497135162284 -0.055267499759793191 0.074896533149136982 0.090729501098394352 -1.0000000180025095e-35 0.033761501312255852 -0.028982499614357896 -0.0094815739401719508 0.0010912258880857466 0.059828531687364038 -0.069793500006198841 0.040008989154608973 0.011884499806910703 -0.057896500453352893 -0.053120998665690346 -0.017198624975067335 0.032379041530563604 -0.0058965000789611985 -0.03632749989628789 0.029557070303861458 0.019585000351071306 0.013120873280991702 -0.0039134998805819997 0.020414770586841206 -0.063940884458038069 -0.037182001397013643 0.050223269496405869
decision_type=2 2 2 2 2 2 2 2 2 2 2 2 2 2 2 2 2 2 2 2 2 2 2 2 2 2 2 2 2 2
left_child=1 22 4 -4 -3 7 24 8 9 11 12 -2 -10 19 -11 16 -15 -17 -12 20 -9 -21 -1 28 26 -26 -7 -28 -6 -5
right_child=5 2 3 29 23 6 -8 13 10 14 18 -13 -14 15 -16 17 -18 -19 -20 21 -22 -23 -24 -25 25 -27 27 -29 -30 -31
leaf_value=0.12084521349167242 0.014819146953139569 0.0943540359607134 0.1002138255316178 -0.020660188521887189 0.050779979675504565 0.1572029487474334 -0.13307858987122853 -0.19448756865323949 0.074049474459184861 -0.069708516879019092 -0.05361418068189526 -0.12952940675333155 -0.18823872044800982 0.047094421544465075 -0.00015769376838477953 0.037232409383077744 -3.1483853138184145e-05 -0.053915216785009788 0.059197996843120083 0.0025201446871689838 0.037705385851865537 0.12411530219084169 0.0026569661907574335 0.087210618615407451 -0.20361319249376597 0.1303410587476522 0.1394193855614981 -0.15325346968088174 -0.15276787187243565 0.20211341854855536
leaf_weight=2.5313490236294451 11.750671721023535 0.44669052499375572 2.4017363064995143 2.9756763956829677 0.320774020627142 1.7981625235115646 0.3529289684483955 0.50467178162944049 6.0358789364545373 15.470526369543224 4.8565988952832413 1.1249332474690152 0.30561869032680977 9.3000168198395823 5.018737373795374 2.9903499718930098 1425.3551765377015 11.618916995642847 2.0343033944373001 1.4167928706156088 1.3185827123888871 3.2088926354481373 1.4392279997991861 0.33601205781451415 0.29336233920184895 0.24016655928426178 0.31993375840829685 0.30330659924948111 1.7934033986530253 0.24224147497443471
leaf_count=154 953 68 203 264 32 99 39 70 407 1322 416 103 34 570 376 253 4931 1011 150 86 114 198 149 31 31 21 20 45 104 19
internal_value=0 0.0281618 0.00492392 0.040602 -0.064288 -0.000242101 0.0620953 -0.000379358 -0.0171969 -0.0314941 0.0188529 0.00220751 0.0614089 0.000158969 -0.0526724 -8.41774e-05 0.000274005 -0.0352583 -0.0203102 0.054801 -0.026565 0.0868721 0.0780051 -0.0932098 0.0854063 -0.0532846 0.115965 -0.003013 -0.121885 -0.00389003
internal_weight=0 12.4871 8.51653 5.61965 2.89688 1505.62 3.30786 1502.31 46.5973 33.3649 13.2324 12.8756 6.3415 1455.71 20.4893 1449.26 1434.66 14.6093 6.8909 6.44894 1.82325 4.62569 3.97058 2.45019 2.95493 0.533529 2.4214 0.62324 2.11418 3.21792
internal_count=12273 1024 721 486 235 11249 255 10994 3761 2754 1007 1056 441 7233 1698 6765 5501 1264 566 468 184 284 303 167 216 52 164 65 136 283
is_linear=0
shrinkage=0.3


Tree=322
num_leaves=31
num_cat=0
split_feature=40 160 175 254 46 87 162 204 263 230 43 207 275 47 29 194 228 258 265 64 0 269 31 62 159 250 119 92 212 197
split_gain=0.10802 0.221864 0.150881 0.149487 0.141073 0.126428 0.10231 0.160514 0.208957 0.176991 0.168067 0.154044 0.234155 0.260616 0.204161 0.180924 0.160746 0.188162 0.184131 0.20897 0.186634 0.171841 0.140773 0.140213 0.140192 0.133891 0.132216 0.107589 0.0959917 0.0909301
threshold=-0.011885500047355849 0.018943000584840702 -0.021524999290704696 0.07270750030875206 0.078382000327110263 0.038567500188946661 0.09684185180920328 -0.0078710477058387442 0.0010054999729617502 0.065520498901605564 -0.052746907186878418 -1.0000000180025095e-35 -0.034988999366760191 -0.065930732277303436 0.091447286837233896 0.029945000074803805 1.0000000180025095e-35 0.00071163941422883073 -0.011600887280486272 -0.065569002181291539 0.026531481506579059 -0.033701999112963642 0.0012632074814680565 -0.007249499903991749 -0.016502000391483248 0.06799756605598202 -0.079194175051417764 0.0021529230002180909 -0.053941499441862044 -0.010158024635973224
decision_type=2 2 2 2 2 2 2 2 2 2 2 2 2 2 2 2 2 2 2 2 2 2 2 2 2 2 2 2 2 2
left_child=1 3 5 4 -1 -3 11 9 -9 10 -8 12 15 22 -15 25 18 21 20 -20 -13 -18 -14 -10 -12 -2 -17 -19 -25 -4
right_child=6 2 29 -5 -6 -7 7 8 23 -11 24 16 13 14 -16 26 17 27 19 -21 -22 -23 -24 28 -26 -27 -28 -29 -30 -31
leaf_value=-0.14539916064489641 -0.016841367553412433 0.09579448703226541 0.087968397695873793 0.16919764986780336 0.050325739933645405 -0.1641513446293793 -0.14661689150133228 -0.14347898792587208 -0.15369031485343104 -0.16855976900813152 -0.11132525279060385 0.020276981861909734 -0.12138452809044956 0.065200740700215171 -0.028628280953740464 -0.09704535756977857 0.058689096941115709 0.19015142073521898 -0.089060416040049578 -2.5514843183341345e-05 0.12513839979208771 -0.10064841973832576 0.091117501086892566 -0.11237975532728454 0.076818042817734772 -0.1150527074040687 0.11039000386402356 -0.034348503104322289 0.10883811566322162 -0.18633497492065365
leaf_weight=2.2845190935104256 5.0525007792130072 1.5832459101061434 0.14935830803005956 0.17500512581318606 0.38767601797007945 0.18843206792462286 0.43444143682063474 2.0466690133343941 0.36606705127633188 0.46403316289070051 0.40959135410958003 7.1791419747041783 1.2563688303271217 14.836579617254758 2.4287514026655108 0.34707342949695874 0.72433535050004128 0.40978998778155062 2.3767531165585742 1325.3470053755618 1.9404692446150873 3.8311527466166799 0.36123640285859426 0.22420441849681072 2.7468391654256266 1.659691386947088 1.3608295445446854 0.36169492800581793 0.83034549215517439 0.40018326943936688
leaf_count=321 617 188 17 12 40 36 78 384 81 50 68 898 165 1373 243 58 100 28 241 5582 166 505 52 46 278 207 179 61 120 79
internal_value=0 -0.04329 0.0255493 -0.0994123 -0.117004 0.0681472 0.000161808 -0.0347296 -0.0821212 0.00579426 0.0283253 0.000353458 0.0226617 0.0412137 0.0520016 -0.0189431 -0.000100347 -0.0521103 0.0001069 -0.000184896 0.0425894 -0.0753133 -0.0739295 0.00627632 0.0524038 -0.0411256 0.0682358 0.0848992 0.0618057 -0.111783
internal_weight=0 5.16842 2.32122 2.8472 2.6722 1.77168 1377 7.52219 3.46729 4.05491 3.59087 1369.47 27.303 18.8829 17.2653 8.4201 1342.17 5.32697 1336.84 1327.72 9.11961 4.55549 1.61761 1.42062 3.15643 6.71219 1.7079 0.771485 1.05455 0.549542
internal_count=12273 693 320 373 361 224 11580 1105 631 474 424 10475 2894 1833 1616 1061 7581 694 6887 5823 1064 605 217 247 346 824 237 89 166 96
is_linear=0
shrinkage=0.3


Tree=323
num_leaves=31
num_cat=0
split_feature=149 28 95 62 147 95 186 49 189 239 187 10 225 127 125 208 207 269 186 42 118 227 66 232 68 279 6 121 20 115
split_gain=0.0978088 0.138108 0.176106 0.130705 0.144957 0.104626 0.252249 0.262614 0.228407 0.206538 0.258229 0.292013 0.244235 0.243039 0.239534 0.236168 0.22096 0.216212 0.213816 0.203408 0.219085 0.202791 0.200002 0.189217 0.172424 0.175894 0.342475 0.20038 0.172294 0.170327
threshold=-0.075646810991978994 -0.10686643177252249 -0.048808649234665526 -0.020721499808132596 -0.091706000268459292 -0.0028704999713226498 0.010469962290113355 0.05664599873125551 -0.025607999414205499 0.006583499955013351 -0.063687499612569781 0.020995999686419953 -0.031461000442504841 -0.015328000299632499 -0.076564336357940313 0.025060814846128397 0.047547999769449206 0.14924250543117523 -0.043382000178098588 0.017235102854474351 -0.025642889535308567 0.0043042197445858632 0.0040449998341500005 0.0045564733595617893 1.0000000180025095e-35 -0.018743716253438344 -0.058317981601624366 0.048852486298296381 -0.078191999346017782 -0.027935000136494598
decision_type=2 2 2 2 2 2 2 2 2 2 2 2 2 2 2 2 2 2 2 2 2 2 2 2 2 2 2 2 2 2
left_child=1 2 -1 4 -3 9 24 19 21 13 11 12 -11 28 -13 17 -15 -12 -17 20 -8 -9 -21 -10 25 27 -27 -7 -2 -26
right_child=5 3 -4 -5 -6 6 7 8 23 10 15 14 -14 16 -16 18 -18 -19 -20 22 -22 -23 -24 -25 29 26 -28 -29 -30 -31
leaf_value=0.16507567380338076 -0.083747048854377545 0.17653128380691094 -0.11153134516505493 0.12939913492350485 -0.080058658482707157 0.0027232130468366265 0.011586834753357922 -0.13965299966435024 -0.07943475019195026 -0.13557805712548515 -0.051489219500368076 -0.14246146728926157 0.023387613387200062 -0.10315924615855564 0.10246937429988608 -0.11725157208434599 0.11734198706858244 0.012289100190628554 0.080615754344679297 -0.067802986128907922 0.10509852192203885 0.040403875462951259 0.15500642873600221 0.072736084551333027 0.01566045934244165 -0.048029428495207763 0.00018672140320655453 0.066552568617133143 0.079032697574270824 -0.096403721895375785
leaf_weight=0.27602885407395661 0.65615271849674162 0.277632518671453 0.83018727705348305 1.8474850364873405 0.69218633568380084 10.588293179680479 3.2482683232301497 1.7994348055217417 1.0034037464065471 1.3635428313864397 26.825593806092002 0.39550777850672592 2.4024499406223168 1.7888598826139044 3.9311896899016574 0.60193703928962383 0.53024838144483499 5.8221058727940536 2.679277503717457 1.7952749854302958 7.3732432899996656 0.81925610288271844 0.45434778474736948 2.7536915360251442 1.9485498230642404 13.389270706422392 1354.9092487714443 7.6062835976117631 5.4125859359483002 3.2676569796167305
leaf_count=14 49 12 53 118 68 744 203 116 64 102 1899 21 150 182 192 45 41 229 178 117 330 47 23 163 122 835 5064 495 386 211
internal_value=0 0.0473126 -0.0425109 0.0825819 -0.006604 -0.000117433 0.000371459 0.0344807 -0.0153091 -0.0132793 -0.0215 0.0269135 -0.0341687 0.029865 0.08008 -0.0324047 -0.0527431 -0.0401156 0.0443171 0.0591444 0.0765008 -0.0833223 -0.022803 0.032096 -0.000100262 0.000104554 -0.00028509 0.0294072 0.0614329 -0.0545414
internal_weight=0 3.92352 1.10622 2.8173 0.969819 1463.37 1410.96 19.2469 6.37579 52.4095 44.0216 8.09269 3.76599 8.38785 4.3267 35.9289 2.31911 32.6477 3.28121 12.8711 10.6215 2.61869 2.24962 3.7571 1391.71 1386.49 1368.3 18.1946 6.06874 5.21621
internal_count=12273 265 67 198 80 12008 8534 1063 390 3474 2816 465 252 658 213 2351 223 2128 223 673 533 163 140 227 7471 7138 5899 1239 435 333
is_linear=0
shrinkage=0.3


Tree=324
num_leaves=31
num_cat=0
split_feature=65 127 288 92 298 40 179 59 167 82 146 39 196 228 69 261 189 274 132 131 91 69 140 228 251 237 138 15 128 231
split_gain=0.106667 0.195234 0.161681 0.144089 0.129785 0.162702 0.134742 0.128491 0.134678 0.122252 0.15284 0.141779 0.133067 0.233813 0.281571 0.174727 0.162922 0.197321 0.159137 0.120732 0.118514 0.116957 0.110457 0.0892362 0.0852861 0.0683507 0.0678106 0.0543394 0.0418164 0.0401865
threshold=0.090048000216484056 -0.071629380860174938 -0.048695499077439287 0.10025034881880418 0.068702713277921143 -0.025674713426884203 -0.078795000910758931 0.098696641268345708 0.051923498511314357 0.086551498621702166 -0.086649999022483784 -0.079021997749805437 0.037917999550700153 -0.040804241962037038 -0.008369581205500045 0.021313499659299805 0.045250000432133654 0.018966415696973816 -0.072201501578092533 0.081306119324167717 -0.044490724086280221 -0.020234500057995295 -0.049274999648332547 -0.040288337507068277 0.06529349833726876 0.029014500789344252 0.075878500938415458 -1.0000000180025095e-35 0.062249500304460463 -0.021778213093391771
decision_type=2 2 2 2 2 2 2 2 2 2 2 2 2 2 2 2 2 2 2 2 2 2 2 2 2 2 2 2 2 2
left_child=4 19 27 21 9 -6 -7 8 -8 12 -11 24 16 14 -14 -15 18 -18 -1 28 -13 22 -4 -9 -12 -21 -23 -3 -2 -5
right_child=1 2 3 29 5 6 7 23 -10 10 11 20 13 15 -16 -17 17 -19 -20 25 -22 26 -24 -25 -26 -27 -28 -29 -30 -31
leaf_value=0.059763515906705311 -0.18868936991221832 0.018835868754034594 -0.14069373184845257 0.021264116609311788 0.12660714109959176 0.16178759218524741 -0.036350248740562051 0.19983982237240785 -0.12276774429000792 -0.18615203286947765 -0.14640282720505687 -0.016557156717117365 -0.068705835206594748 0.025174221321104664 0.057721733390624266 -0.078650959270150547 0.082787922105721667 -0.051842948526176609 -0.00017197669822915069 0.20184986240947253 0.10415993588313395 0.15806494666040077 0.075905971909043912 -0.018120132404677958 0.096983807313330075 -0.05395220185201919 0.012792030937401083 -0.19078000733286732 -0.017263981945914133 -0.19938954621333796
leaf_weight=3.9978520626573291 0.53086132294265531 0.19445116608403623 0.27571380767039955 0.12502268288517371 0.51576035653124463 0.26863150158896942 4.6788163721212177 0.27863574720686302 2.4851561529758328 0.24249757293728169 0.44378301071992599 0.93945764009549737 2.417328334049671 1.8134301331865552 4.6069551601976881 7.4597912826247921 4.2379547646414713 1.2744046435109337 1468.7063236892045 0.17310931906104088 3.313580559752153 2.2510391525720479 0.91543880754034013 0.42986861080862571 0.18301368970423937 0.20574503266834654 0.33180751971667621 0.26029715442564327 0.16878614557208493 0.18304493421601353
leaf_count=326 55 15 21 19 44 21 429 17 278 29 63 102 232 160 372 867 319 118 8123 16 244 132 87 39 13 24 26 27 30 25
internal_value=0 0.0412577 0.0685316 0.0874342 -0.000166679 -0.0367939 -0.0471458 -0.0542752 -0.0663282 4.47564e-05 0.0463118 0.0578638 -0.00011382 -0.0270735 0.0142131 -0.0583474 0.000183414 0.0516626 -9.2738e-06 -0.0734724 0.0774946 0.103538 0.0257701 0.0675977 -0.0753382 0.062931 0.139402 -0.101148 -0.147334 -0.109842
internal_weight=0 5.61532 4.53682 4.08207 1508.29 8.65687 8.14111 7.87248 7.16397 1499.64 5.12233 4.87983 1494.51 16.2975 7.02428 9.27322 1478.22 5.51236 1472.7 1.0785 4.25304 3.774 1.19115 0.708504 0.626797 0.378854 2.58285 0.454748 0.699647 0.308068
internal_count=12273 477 352 310 11796 828 784 763 707 10968 451 422 10517 1631 604 1027 8886 437 8449 125 346 266 108 56 76 40 158 42 85 44
is_linear=0
shrinkage=0.3


Tree=325
num_leaves=31
num_cat=0
split_feature=49 207 273 161 57 53 146 260 163 216 274 258 246 31 128 10 10 239 252 245 291 91 142 84 62 168 51 171 45 105
split_gain=0.107905 0.179222 0.166669 0.149833 0.148727 0.14774 0.143607 0.268476 0.235661 0.26365 0.242402 0.231202 0.197372 0.192045 0.190858 0.201677 0.1841 0.183535 0.157108 0.151966 0.165667 0.138677 0.137309 0.127179 0.141997 0.12077 0.117534 0.137121 0.136142 0.115566
threshold=0.070705000311136218 0.012112139015734732 0.036779500544071163 -0.11238433956688662 -0.074382683497951074 -0.0093094999901949978 1.0000000180025095e-35 0.10809315599275986 0.017682499252259704 -0.065353205564529213 -0.014337066575675747 -0.038985000923275892 -0.0075971780797318639 -0.06395449861884113 0.099220998585224165 0.076781867876159191 -0.037906998768448739 0.072477685365729946 0.010672000236809202 -0.068500500172376591 0.0029654999962076506 0.04691341461154331 0.016767760463093955 -0.077100001275539329 0.059932749099732542 -0.0087474179540614327 -0.028215000405907596 -0.052908241691533582 -0.086820421904310094 0.0025944999651983003
decision_type=2 2 2 2 2 2 2 2 2 2 2 2 2 2 2 2 2 2 2 2 2 2 2 2 2 2 2 2 2 2
left_child=6 2 3 -2 -5 -4 16 8 10 22 17 -11 19 -12 15 -14 -1 -8 -16 -9 -21 -6 -10 24 -18 29 27 -25 -28 -3
right_child=1 25 5 4 21 -7 7 12 9 11 13 -13 14 -15 18 -17 23 -19 -20 20 -22 -23 -24 26 -26 -27 28 -29 -30 -31
leaf_value=-0.13574332229309694 -0.19147092438526209 0.088686520566935267 -0.1716200211461556 -0.10437358702006688 0.030434312515445316 0.083615479633288178 0.035655264687115114 0.10395174513846127 -0.16296568529720695 -0.060352869182842377 -0.0033908844314704217 0.094628375956599772 0.053372200793741303 0.10451144072316267 0.15535108988866916 -0.20233784329114216 -0.10877972041700727 -0.082494292784530854 -0.14281560783492464 -0.15340174619030736 -0.016762064416976117 -0.17239531534366395 0.0026920227617813629 0.12101630261915285 0.1262762566519233 -0.10702201330670988 0.061480551888923166 -0.17648084870119277 -0.00010739969829211277 -0.11389039724475947
leaf_weight=0.90167897852461365 0.47757904846366628 0.64970519637972735 0.22354719408394919 1.2861421412890184 3.5775655446250316 2.3471120323920331 6.9527057801533392 0.37447645430802401 1.290189145138356 1.4662884231693167 1.8161362268074306 2.1172130310078496 4.5225895655858022 8.1300085060343008 0.18868342146743078 0.29574145167134691 1.6882546965571226 1.4260014622791457 1.0125549471849806 1.9585818495361311 1.3483790016471173 0.33148735496069992 0.69176299405626185 0.17733915064309258 0.2680228276294655 3.1858894800484441 3.238180558950261 0.65243767373249184 1326.0157746994373 0.41555769459955627
leaf_count=155 63 106 48 209 469 279 782 29 170 164 206 224 359 871 16 33 216 165 117 213 117 63 104 29 45 566 383 129 5827 116
internal_value=0 -0.0277501 -0.00194799 -0.0306636 -0.0158811 0.0614199 0.000256235 0.019629 0.0367196 -0.0173464 0.0531401 0.0312135 -0.0224595 0.0848088 0.0110048 0.0376771 -0.000231976 0.015547 -0.0959813 -0.0771775 -0.0976883 0.0132344 -0.105146 -0.000140246 -0.0765755 -0.0777832 -2.78256e-05 -0.1129 4.2634e-05 0.00966152
internal_weight=0 12.4946 8.24343 5.67277 5.1952 2.57066 1366.53 33.5913 23.8903 5.56545 18.3249 3.5835 9.70101 9.94614 6.01957 4.81833 1332.94 8.37871 1.20124 3.68144 3.30696 3.90905 1.98195 1332.04 1.95628 4.25115 1330.08 0.829777 1329.25 1.06526
internal_count=12273 1919 1131 804 741 327 10354 3570 2686 662 2024 388 884 1077 525 392 6784 947 133 359 330 532 274 6629 261 788 6368 158 6210 222
is_linear=0
shrinkage=0.3


Tree=326
num_leaves=31
num_cat=0
split_feature=298 45 12 94 214 40 278 253 197 84 113 251 136 105 191 236 95 254 226 202 286 60 268 196 296 115 43 283 162 248
split_gain=0.0922332 0.188859 0.173725 0.198784 0.189994 0.288633 0.180175 0.164122 0.230599 0.208386 0.223557 0.218029 0.226452 0.194721 0.183133 0.173887 0.160117 0.160675 0.145359 0.278964 0.235982 0.238377 0.221647 0.202979 0.233643 0.197232 0.17809 0.17525 0.153965 0.141278
threshold=0.051983405856180213 0.034165755730800676 -0.05685899965465064 0.023555999621748903 0.043775999918580007 0.04077675919447054 0.021542750241341859 0.018836999312043103 -0.024815499782562197 -0.02614852309696147 -0.031759803309824912 0.027677999809384304 -0.082887999713420826 0.025471026742360191 0.074106550758482534 -0.0032435000175609998 -0.04113024445885774 -0.042191668514799337 -0.00087349896291885468 -0.0041380000766366486 0.093921453591872608 -0.04043596551025546 0.0071175000630318503 -0.050979500636458348 -0.052152010495803418 -0.077988002449273994 0.048470500856637906 0.10073349997401231 -0.0013519249610462224 -0.083280500024557086
decision_type=2 2 2 2 2 2 2 2 2 2 2 2 2 2 2 2 2 2 2 2 2 2 2 2 2 2 2 2 2 2
left_child=7 2 16 4 6 -6 -4 18 14 10 -10 12 -11 -12 -9 -13 17 -2 19 23 21 -21 25 28 -25 26 -20 -27 -1 -24
right_child=1 -3 3 -5 5 -7 -8 8 9 11 13 15 -14 -15 -16 -17 -18 -19 22 20 -22 -23 29 24 -26 27 -28 -29 -30 -31
leaf_value=0.10398534189271133 0.088899573032545476 -0.072718509099695863 -0.071725410414583579 0.077078690919573353 -0.053211917474220917 0.14624201070213408 0.017499611705387805 -0.10067374843663673 -0.11047703476719098 0.1022324734416899 -0.0042489644861956914 -0.058357948710925409 -0.10031722171319717 0.087515165573331652 0.13334448715764202 0.052668836235340709 0.12516469284351461 -0.17462829219136358 0.076541782672615313 0.0037863131148914062 -0.12507655317756355 0.10552702568078844 0.027494404579363682 -0.083096832626184114 0.027755012716686522 -1.7204489369974251e-06 -0.121870703971195 -0.060218202983691578 -0.13503910662734925 -0.075082995810046446
leaf_weight=0.28808662656229 0.48502820212161168 1.7821132558165107 4.1466422727971786 3.5094770060386518 1.1112280277011444 1.5834738597332032 4.0033457023964729 4.3507362253385535 1.0198268961394212 0.55136953952024015 4.4889602600014786 2.2170521656516939 5.0165689554705688 3.8800610040780157 0.32332653997582372 2.9706682913820259 2.686075988458474 0.364870760822669 4.6253513998308327 3.0587782920920281 0.57576856296509582 6.4285885684657815 1.5407430736522654 2.0407485745527074 10.598114207728942 1376.7162575369966 0.44643835903843854 4.3636035512172375 1.5340121495537447 5.6022473199627703
leaf_count=24 25 145 345 223 86 101 320 384 71 53 299 167 466 236 19 234 192 30 222 201 42 319 97 152 588 6347 26 308 95 456
internal_value=0 0.0204143 0.0296916 0.0150189 -0.00506449 0.0639922 -0.0278973 -0.000267095 -0.0244522 -0.0105229 0.0221351 -0.0390307 -0.0802596 0.0382949 -0.0844856 0.00521983 0.0892551 -0.0242358 0.00015626 0.0230521 0.0614079 0.0727253 -0.000246742 -0.00363902 0.00985619 2.48804e-05 0.0590768 -0.000191978 -0.0972477 -0.052957
internal_weight=0 19.6723 17.8901 14.3542 10.8447 2.6947 8.14999 1442.64 24.8186 20.1445 9.38885 10.7557 5.56794 8.36902 4.67406 5.18772 3.53597 0.849899 1417.82 24.5241 10.0631 9.48737 1393.29 14.461 12.6389 1386.15 5.07179 1381.08 1.8221 7.14299
internal_count=12273 1467 1322 1075 852 187 665 10806 1929 1526 606 920 519 535 403 401 247 55 8877 1421 562 520 7456 859 740 6903 248 6655 119 553
is_linear=0
shrinkage=0.3


Tree=327
num_leaves=31
num_cat=0
split_feature=185 48 18 147 108 242 16 284 68 114 207 23 213 30 115 171 275 296 109 262 197 170 17 80 121 54 56 229 233 169
split_gain=0.10079 0.153807 0.129017 0.16779 0.115694 0.109555 0.167047 0.127276 0.109106 0.10334 0.244425 0.186709 0.246014 0.19437 0.217449 0.193055 0.181768 0.179042 0.237032 0.19949 0.175527 0.178668 0.172692 0.120905 0.0950162 0.0926959 0.0887298 0.0829579 0.0759964 0.0738891
threshold=-0.085001997649669578 -0.04204891738278644 -0.055686999112367595 -0.054704228154789668 -0.0027619999600573997 0.071065999567508656 -0.023903500288724847 0.024532000534236403 -0.019923500716686197 -0.037855999544262844 -1.0000000180025095e-35 0.025261399827614509 0.037933498620986904 -0.056046999990940045 -0.029505926015354674 -0.0083544999361037982 0.0012514999834820001 -0.041600499302148791 0.057898298441113681 -0.015672187371622345 -0.006872999947518099 0.023028999567031801 0.034500283011492237 0.033144003901168922 0.028264000080525802 -0.0053934999741612989 -0.12025650218129154 -0.040599645900890442 0.0063384999521076011 -0.011577438293855774
decision_type=2 2 2 2 2 2 2 2 2 2 2 2 2 2 2 2 2 2 2 2 2 2 2 2 2 2 2 2 2 2
left_child=1 -1 -3 4 -4 9 8 27 26 11 20 13 16 15 -15 -2 -13 18 -12 -19 21 -11 -22 -14 -10 28 -7 -8 -9 -5
right_child=5 2 3 29 -6 6 7 25 24 10 17 12 23 14 -16 -17 -18 19 -20 -21 22 -23 -24 -25 -26 -27 -28 -29 -30 -31
leaf_value=0.11302685854247581 -0.14166211454020078 0.16601678212791685 0.18313000160369167 -0.018179947140352325 -0.071315833500678411 0.099512940863248814 -0.074886381995580439 -0.13627605155742642 -0.13915382463535159 -0.023629826685292371 -0.013725632434435173 -0.036292892911573088 0.15109194700419551 0.050242515813878029 -0.026645392377375992 0.0059218807725557911 0.084668482972934486 -0.033354785065197623 0.075874366713397798 0.00026665709731498312 -0.060784161012955758 0.064477490665513587 0.020002479773950744 0.02109818071650672 0.17565724364404922 -0.15347404535828632 -0.15883432286315111 0.1127047141274586 0.11656408673182342 -0.17889110107014328
leaf_weight=1.7820450044964675 1.544787619423005 0.32513755025138413 0.39092040171453846 0.43362986268766712 0.27324230974772978 0.12924990034662198 0.27013018453726545 0.16481086288695224 0.14906041207723308 6.7738384218027949 4.5638682624303311 2.8031919365457707 2.5356000715401028 7.6239858237167963 5.8509925635735263 1.6494771261059238 1.8598849154077468 16.062142111128196 6.3606728589329578 1423.5130608052314 14.130963188901662 2.9838646098578465 2.8640857205609782 0.86313130386406545 0.2048896798514761 0.55164699378178716 1.610516832308349 0.98875852266428343 0.30496183427021606 0.63379558415908654
leaf_count=171 156 30 35 62 33 8 32 26 27 584 397 254 125 429 420 89 117 1139 445 5161 1482 210 275 60 20 73 230 90 28 65
internal_value=0 0.0485145 -0.00738198 -0.0399408 0.0784488 -0.00015829 -0.0475677 0.0086098 -0.108752 -2.02256e-05 -0.000342197 0.019212 0.0566941 0.00108441 0.0168569 -0.0654516 0.011953 0.000181876 0.0384428 -0.000108476 -0.0287568 0.00331302 -0.0471696 0.118079 0.0430796 -0.0700747 -0.139641 0.0724517 0.0278599 -0.113604
internal_weight=0 3.83877 2.05673 1.73159 0.664163 1506.36 4.37403 2.28031 2.09372 1501.98 1477.25 24.7311 8.06181 16.6692 13.475 3.19426 4.66308 1450.5 10.9245 1439.58 26.7528 9.7577 16.995 3.39873 0.35395 1.02142 1.73977 1.25889 0.469773 1.06743
internal_count=12273 396 225 195 68 11877 534 249 285 11343 9693 1650 556 1094 849 245 371 7142 842 6300 2551 794 1757 185 47 127 238 122 54 127
is_linear=0
shrinkage=0.3


Tree=328
num_leaves=31
num_cat=0
split_feature=3 120 92 141 260 171 53 240 59 291 154 121 128 83 4 2 225 187 105 118 142 285 115 55 169 28 49 68 299 257
split_gain=0.0995188 0.116193 0.131174 0.102209 0.113453 0.108857 0.149046 0.138158 0.137558 0.178686 0.131384 0.229988 0.221614 0.131271 0.166467 0.114062 0.0880023 0.0866967 0.0835221 0.0811454 0.0961501 0.0876865 0.0779568 0.0647095 0.0522029 0.0425833 0.0421898 0.0393477 0.0377519 0.0309707
threshold=-0.098865406766463049 -0.012612999882548999 0.016347116599715997 0.073860259842769574 0.012466500047594302 -0.051331287272374813 0.10179900005459781 0.16242250055074689 0.01305643735734296 -0.025757499970495649 0.0003409474016410528 0.017187000252306402 -0.00082604698608946961 0.078245827027074596 -0.032654499635100344 0.0031360512704336862 -0.0058249394770344834 0.0085370977617554265 0.030562999658286506 0.068133406455988962 -0.062214307025859984 0.038181581878408206 -0.013109940933871246 -0.0013384663112905929 -0.066602498292922932 -0.039731500670313794 -1.0000000180025095e-35 -0.041640536899280371 0.010503499768674303 -0.023226999677717595
decision_type=2 2 2 2 2 2 2 2 2 2 2 2 2 2 2 2 2 2 2 2 2 2 2 2 2 2 2 2 2 2
left_child=1 2 27 5 16 7 10 13 9 -8 12 -12 -7 14 -2 -15 25 28 -10 20 23 -22 -9 -6 -3 -5 -18 -1 -4 -19
right_child=3 24 17 4 19 6 8 22 18 -11 11 -13 -14 15 -16 -17 26 29 -20 -21 21 -23 -24 -25 -26 -27 -28 -29 -30 -31
leaf_value=-0.20235057238727169 -0.013262524595485894 -0.0025379035922541006 -0.014320344655468539 0.1750912625395234 0.16150711037494686 -0.078617935723822016 -0.17393454301629174 -0.18571324885727464 -0.17461656644820453 0.011442426756555909 0.075361017355202536 -0.0010993657402080773 8.2363225343630028e-06 0.014428539770399484 0.059035406349906429 -0.14067361843610485 0.051963100091068019 0.027843796739023787 -0.034510529209922765 -0.18454057537992996 -0.12103906338050389 0.086092154950642139 0.042323278919131013 -0.14730651076070325 -0.19211852324690948 -0.019226537689893446 -0.18916251093154712 -0.020962395866789798 0.16702791190597877 -0.20219117045720883
leaf_weight=0.29227256213926012 3.9548067281211869 0.16360998016170925 0.13426246722519863 0.35879137667143368 0.25861520163016394 3.2341488012589243 0.55483547188850968 0.42921748333583309 1.0322133397112336 2.9891986011280087 5.7210168906967729 9.2898123319675943 1330.627643958941 1.0741948424674763 10.413822767289277 0.70796439947844181 0.10936804162338376 0.095881044355337508 0.60879634380034975 0.57924089833250025 1.2019501235517962 0.217180104482395 0.19678138575363746 0.079947002388508159 0.65031616802298131 0.14153679087030469 0.16210836461686939 0.17037546604024123 0.44818378451600438 0.11689501978980843
leaf_count=37 518 32 35 53 42 327 60 48 153 293 724 1226 6183 146 1279 128 19 21 83 98 328 37 27 41 141 31 32 38 74 19
internal_value=0 -0.0656893 -0.00853978 0.000110894 -0.0542243 0.000234114 -6.34587e-05 0.0242512 -0.0508294 -0.0175792 0.000131685 0.0280417 -0.000182405 0.029611 0.0391362 -0.0471859 0.0455015 0.0653541 -0.122639 -0.0871601 -0.0550688 -0.0893402 -0.11403 0.0885848 -0.15401 0.120121 -0.0920217 -0.135552 0.125224 -0.0985329
internal_weight=0 2.0718 1.25787 1373.94 3.10874 1370.83 1354.06 16.7768 5.18504 3.54403 1348.87 15.0108 1333.86 16.1508 14.3686 1.78216 0.771805 0.795222 1.64101 2.33693 1.75769 1.41913 0.625999 0.338562 0.813926 0.500328 0.271476 0.462648 0.582446 0.212776
internal_count=12273 397 224 11876 681 11195 9049 2146 589 353 8460 1950 6510 2071 1797 274 135 149 236 546 448 365 75 83 173 84 51 75 109 40
is_linear=0
shrinkage=0.3


Tree=329
num_leaves=31
num_cat=0
split_feature=54 269 169 210 81 92 46 70 50 167 228 156 141 134 24 55 295 41 141 24 201 58 69 253 11 297 294 166 2 65
split_gain=0.11323 0.230913 0.18669 0.16965 0.152363 0.182625 0.151264 0.134206 0.150956 0.168776 0.170883 0.169966 0.161819 0.142309 0.115305 0.250447 0.29208 0.256407 0.227653 0.17899 0.230472 0.355933 0.266146 0.187349 0.228692 0.18217 0.169099 0.160118 0.133763 0.114125
threshold=-0.038079138304624539 0.13647049665451047 -0.088661499321460682 -0.083718501031398676 -0.046736000105738591 0.099310502409934956 0.015829111730466496 -0.088013999164104392 -0.014766500331461348 0.049812499433755805 -0.068323999643325736 0.035121466695717612 0.065971497446298558 -0.014611500315368149 -0.092374499887227943 0.015498340928872506 -0.0064765000715851489 -0.0046435978966633583 -0.005452499957755149 -0.042192147842418849 -0.020748817428173829 -0.0031970000127329993 0.0017729999963193501 -0.045060449005048138 0.033949143414489451 0.0022795000113546003 0.0028472638407667865 -0.064782999455928733 -0.00049750001926439987 0.043306251782961672
decision_type=2 2 2 2 2 2 2 2 2 2 2 2 2 2 2 2 2 2 2 2 2 2 2 2 2 2 2 2 2 2
left_child=1 2 -1 -3 -4 6 -6 8 -2 12 -11 -12 13 -10 15 17 27 28 -18 20 21 -16 -22 24 -21 -25 -19 -17 -9 -7
right_child=7 3 4 -5 5 29 -8 14 9 10 11 -13 -14 -15 19 16 18 26 -20 23 22 -23 -24 25 -26 -27 -28 -29 -30 -31
leaf_value=-0.08156653185063753 0.063656922894642018 -0.046526269799788939 0.12275161364424444 0.12772327821977336 0.035054787232865266 0.023908828997332245 -0.031942947947863932 -0.16729424157163911 -0.17724735569544206 -0.1621623326690215 -0.1062478754270756 0.13807396695767152 0.032651328042231989 -0.0013313622729647515 -0.1087123399148624 0.056184541512878432 -0.099564154304860125 0.1449145370662123 0.073873517103960687 0.058384780723309687 0.031401262973258563 -0.0085895032398622465 -0.043725935379605743 0.00017278608114919025 -0.085477096093193705 -0.036841862253396196 -0.039810874853258064 -0.13273530101409065 0.048084280710629257 0.15135934735729931
leaf_weight=1.8618230036227092 0.93948392051970575 0.61975833046017248 1.1755470606149252 2.6662144054425871 5.16634737054118 1.3413656643097067 7.3444166123808827 0.47129967753426172 2.0278279992780885 0.39040807234414376 0.36418197024613597 0.86473457247484475 0.59302829818625458 0.51999822334619183 5.796626513103547 0.51517134660389308 0.85093066096305836 3.2068852053489523 3.4133082809275948 8.5719806126799067 9.9647548214416037 7.1213880477662332 7.3922397631540653 1367.2578959542279 1.1250165003875725 12.072321667179493 0.51804273115703825 1.8671083747176451 0.57754674711031817 1.1962402822682632
leaf_count=160 63 39 101 140 434 108 572 39 168 28 30 40 50 38 381 30 40 117 165 596 551 490 415 6091 87 1042 35 113 47 63
internal_value=0 0.0217005 0.00840847 0.0948585 0.0187338 0.0106082 -0.00427609 -0.000297866 -0.0462409 -0.0679306 0.0107417 0.0656707 -0.108492 -0.141344 -0.00011484 0.0299091 -0.00774174 0.0823302 0.039264 -0.000356425 -0.0231762 -0.053517 -0.00059496 0.000140952 0.0416944 -0.000151177 0.119224 -0.0918811 -0.0486962 0.0839896
internal_weight=0 21.3717 18.0857 3.28597 16.2239 15.0484 12.5108 1436.42 5.69966 4.76018 1.61932 1.22892 3.14085 2.54783 1430.72 11.4203 6.64652 4.77377 4.26424 1419.3 30.275 12.918 17.357 1389.03 9.697 1379.33 3.72493 2.38228 1.04885 2.53761
internal_count=12273 1617 1438 179 1278 1177 1006 10656 417 354 98 70 256 206 10239 586 348 238 205 9653 1837 871 966 7816 683 7133 152 143 86 171
is_linear=0
shrinkage=0.3


Tree=330
num_leaves=31
num_cat=0
split_feature=63 219 38 18 208 204 154 260 291 225 88 153 118 18 294 95 261 273 93 191 136 294 135 272 112 64 293 179 252 218
split_gain=0.0969334 0.157287 0.110861 0.125509 0.138379 0.163505 0.110883 0.100749 0.100314 0.170395 0.153635 0.166892 0.139587 0.134468 0.149857 0.143794 0.140609 0.155879 0.13348 0.245317 0.183853 0.159181 0.135488 0.239754 0.130656 0.113016 0.10345 0.10104 0.159017 0.0929705
threshold=0.0541265127840116 0.073636502027511555 -0.074860502034425694 0.028524884630227836 -0.0030174999264999496 -0.024502118904759177 -0.049072100451961261 0.13271350413560865 0.043460499495267806 -0.037887819132166094 0.030051496242328442 0.030421500094234905 -0.035590499639511046 -0.077206999063491738 -0.036631102330205133 0.050950499251484857 0.10005649924278257 -0.057522946641949228 -0.045839960107012009 0.019572853999792288 -0.031395470018919659 -0.063339214941105837 0.14628150314092633 0.021546676501135224 -0.07473655468940138 -0.0013116119290287147 -0.041382499039173043 0.028241361892743493 0.037980883409852305 -0.027030499652028046
decision_type=2 2 2 2 2 2 2 2 2 2 2 2 2 2 2 2 2 2 2 2 2 2 2 2 2 2 2 2 2 2
left_child=8 2 -2 6 5 -5 -4 -8 13 25 27 26 -13 14 16 -16 17 -1 19 21 -21 -15 24 -24 -20 -10 -12 28 -11 -27
right_child=1 -3 3 4 -6 -7 7 -9 9 10 11 12 -14 18 15 -17 -18 -19 22 20 -22 -23 23 -25 -26 29 -28 -29 -30 -31
leaf_value=-0.19007998696756931 -0.15790978504341213 -0.15360177200849254 -0.068092189636827061 -0.13188341539313514 -0.15679618735310108 0.14260098835905077 0.1130136292587019 -0.11149621184593164 -0.13066770521654011 0.082762386372417576 0.17259611459290108 0.17465655128487584 -0.14831516762004465 0.010646308306064289 0.15547632298295905 -0.066432536705066783 -0.12108235977044067 0.088227628532233843 0.056304695387976701 0.12823865354697411 -0.07636269861079642 -0.11348582528957524 0.13523353804407937 -0.0015204610727396017 -0.00025925591430705879 0.077327983236489303 0.03359377563556299 -0.19256726472457333 -0.16668533476593131 -0.093075173825262675
leaf_weight=0.21029477578122202 0.22040952328825358 0.36141013372980513 0.38378107518656124 0.29708053611102514 0.44770209385023896 0.57018354983301833 3.4757460799228284 0.18971136515028764 2.0137528063132781 0.52402241570234565 0.58079774405268825 0.14579413896353799 0.69244810231612053 1.2844098691130055 1.5348444599803759 0.3170999088033567 0.60857066849712271 1.3058489912364168 3.6844787340899066 1.085725767759868 0.62155814171819646 3.3671105226858336 1.8453191500157107 3.0788639253005385 1472.8850194563038 0.54355075710918754 2.8289286125982476 0.51180970956920646 0.40991593635408208 0.61329005078005117
leaf_count=16 18 21 49 23 79 65 367 16 216 52 59 18 78 115 119 36 52 123 423 111 99 371 64 139 9040 43 272 63 48 78
internal_value=0 0.0381994 0.0506119 0.0591799 -0.021346 0.0485766 0.0853301 0.101394 -0.000180416 -0.0319999 -0.000961455 0.0277877 -0.0921412 8.65266e-06 0.0551011 0.11748 0.000730432 0.0496253 -0.000138596 -0.0435108 0.053751 -0.0792096 4.75649e-05 0.0497276 -0.000118112 -0.0877384 0.0572708 -0.0854336 -0.026723 -0.0130099
internal_weight=0 5.94602 5.58461 5.3642 1.31497 0.867264 4.04924 3.66546 1500.69 8.86431 5.69372 4.24797 0.838242 1491.83 3.97666 1.85194 2.12471 1.51614 1487.85 6.3588 1.70728 4.65152 1481.49 4.92418 1476.57 3.17059 3.40973 1.44575 0.933938 1.15684
internal_count=12273 638 617 599 167 88 432 383 11635 927 590 427 96 10708 346 155 191 139 10362 696 210 486 9666 203 9463 337 331 163 100 121
is_linear=0
shrinkage=0.3


Tree=331
num_leaves=31
num_cat=0
split_feature=125 150 16 253 205 7 192 240 191 222 105 153 18 217 234 203 257 284 177 98 112 145 298 284 283 271 236 159 190 169
split_gain=0.0998718 0.190804 0.15255 0.122451 0.121775 0.140808 0.171695 0.163882 0.149483 0.149106 0.165865 0.328835 0.179943 0.127734 0.119813 0.145358 0.12341 0.139808 0.123077 0.117467 0.1142 0.10971 0.0963658 0.0887964 0.0859542 0.0832273 0.0747317 0.116236 0.0735857 0.0703852
threshold=-0.045864999294280943 -0.0095077352393747889 -0.065345355346700884 0.013119742320892342 -0.078104000538587529 -0.12025249749422069 -0.034357499331235795 0.13242826274115158 -0.034110759784577414 -0.091049998998641898 1.0000000180025095e-35 -0.064632833417170021 -0.00080717110848611297 0.04178742371443623 -0.031543498858809443 0.040283499285578651 -0.0018039999995379998 0.020819319395998025 -0.017901999875903098 0.030608276692993017 0.032709499821066808 -0.049469500780105542 0.055321203916463633 0.044885175866570697 0.036385999992489752 -0.011727000121027198 -0.066548878779761914 0.053748499602079357 -0.061173168882998709 -0.096224002540111486
decision_type=2 2 2 2 2 2 2 2 2 2 2 2 2 2 2 2 2 2 2 2 2 2 2 2 2 2 2 2 2 2
left_child=1 3 20 -1 13 6 25 8 -8 29 12 -12 -11 19 16 -16 21 -18 -17 24 22 -4 -3 -5 -2 -6 27 -15 -25 -7
right_child=4 2 14 23 5 9 7 -9 -10 10 11 -13 -14 26 15 18 17 -19 -20 -21 -22 -23 -24 28 -26 -27 -28 -29 -30 -31
leaf_value=-0.159520495852884 -0.086831822034199327 0.14188152715485322 -0.20207212500800359 -0.1195274254076476 0.078261585396236469 0.013873794050215113 -0.12375024325242473 -0.15481943853959229 0.033379691824787852 -0.043165307566941549 -0.097563845494562179 0.032491093128308723 0.00021599489853473103 -0.13194850696164293 -0.15650164058681901 -0.10296808254173245 0.075045947259786333 -0.15971139207446208 0.098057001847249289 -0.19688539381558909 -0.10454331257028242 0.097293174385634423 -0.13025540697162075 -0.20180321551719158 0.095051152473712666 -0.16194232644169507 0.14067903568143436 0.18851830909810202 0.089188993743717818 -0.13599831922697306
leaf_weight=1.419605300247895 0.36081119446316667 1.1626861151507908 0.12033270220854331 0.52383247734178418 0.14463252521818515 0.38442990617477324 0.65777560573769722 0.66591407080341003 3.1753972706792406 8.6619812489461747 1.8789272433678004 25.442358302982711 1318.51345169857 0.25211326194403216 1.1252875972786553 0.55129859381395363 0.37661351805218135 0.57982221581733029 0.54515657271622309 0.25387501367367793 0.2568362413790054 1.305314360720331 0.13022578396339657 0.091353746011009207 0.66452796007797588 1.2677713951816254 1.4646506202334419 0.17092116174171679 0.54368329305543739 1.0586795860235714
leaf_count=345 46 182 19 146 30 56 74 64 388 970 304 2845 5033 35 293 104 71 95 84 27 71 193 36 32 91 174 152 17 112 184
internal_value=0 -0.0319445 -0.0032383 -0.100452 0.000241716 0.000105074 -0.0460948 -0.0174486 0.00641607 0.000306492 0.000409178 0.023547 -6.71388e-05 0.0590014 -0.0306436 -0.080756 0.0160957 -0.0672715 -0.00301858 -0.0141884 0.0781744 0.072025 0.114471 -0.028094 0.0310475 -0.137345 0.108599 -0.00246836 0.0473281 -0.0960739
internal_weight=0 8.73205 6.15357 2.57847 1365.02 1361.85 5.91149 4.49909 3.83317 1355.94 1354.5 27.3213 1327.18 3.1669 4.60383 2.22174 2.38208 0.956436 1.09646 1.27921 1.54975 1.42565 1.29291 1.15887 1.02534 1.4124 1.88769 0.423034 0.635037 1.44311
internal_count=12273 1783 1148 635 10490 10122 730 526 462 9392 9152 3149 6003 368 859 481 378 166 188 164 289 212 218 290 137 204 204 52 144 240
is_linear=0
shrinkage=0.3


Tree=332
num_leaves=31
num_cat=0
split_feature=203 6 295 273 130 266 31 215 35 177 63 13 96 297 93 299 76 231 3 158 44 53 215 78 229 117 77 1 127 43
split_gain=0.0977598 0.152013 0.143924 0.130827 0.128479 0.105985 0.20623 0.187156 0.150111 0.14974 0.121662 0.23815 0.182392 0.191281 0.149396 0.139705 0.193225 0.143155 0.216273 0.190802 0.124323 0.105845 0.097095 0.0890839 0.0884191 0.080874 0.0659611 0.0510563 0.0384478 0.0219444
threshold=0.12151850014924996 -0.069594498723745277 -0.0077350002247839984 -0.043360473531080433 -0.039918673648980392 -0.099371999502181993 -0.065997000783681828 -0.053547000512480694 0.017887194027436711 -0.07320664201250239 0.032357567841328122 0.072899670183197499 0.017896499484777405 -0.048352633611937798 -0.034617500379681546 0.10809526407423774 -0.021652113384056627 -0.056580999866127892 -0.048581499606370843 -0.11203049868345254 0.026006500236690003 0.075348000973463072 -0.029725500382482947 -0.039757501333951888 -0.0039346067366828963 -0.062172001227736438 -0.004054647718197882 -0.066216498613357475 0.018581499345600553 0.023885499686002704
decision_type=2 2 2 2 2 2 2 2 2 2 2 2 2 2 2 2 2 2 2 2 2 2 2 2 2 2 2 2 2 2
left_child=5 4 3 -3 -2 6 23 -8 9 -9 15 12 14 -14 -12 17 20 19 -19 -7 -17 -4 -18 24 -1 -5 -13 -27 -10 -23
right_child=1 2 21 25 -6 10 7 8 28 -11 11 26 13 -15 -16 16 22 18 -20 -21 -22 29 -24 -25 -26 27 -28 -29 -30 -31
leaf_value=0.13326353074781491 -0.022067510902536256 0.11422238081017159 -0.031906868731534165 0.037693224422094655 0.18991879364482886 0.11504410706948837 -0.16584095474206204 0.14330290221994457 0.19401084098962326 -0.040190354563048779 0.019047175847733109 0.0043683294381644663 0.079367933502403246 -0.040324204637335492 -0.099051632291783778 -0.061081821518117065 -0.013472569666450164 0.034998695218403472 -0.00029183069405450465 -0.039107741876099514 0.20393270324395357 0.098656385453830334 0.13494333408620959 0.18387076560662713 -0.076963161540433436 -0.0467011768843704 0.18300921085989938 -0.19765247225009402 0.04598009821135686 0.20420800106507056
leaf_weight=0.44021779531612992 0.35491635289508849 0.32270782557316158 0.42755737784318515 0.28537115978542726 0.93563966616056882 0.764988563983933 0.51675044832518358 0.49336745089385736 0.50623684446327377 2.1208722033770746 1.1950371797138348 0.27728631213540211 1.7917152488153076 3.6489095465658465 4.9871090215146952 1.329884167818818 0.49212783738039467 15.805634035277761 1397.8080065052682 13.057525678537784 0.18099672254174937 0.32226152752991766 2.0462090371875084 1.0155630273511631 0.30467758106533427 0.30734619669965479 0.56520445976639244 0.58644105476560027 0.22949745610821992 0.39400797197595239
leaf_count=27 27 20 32 19 41 47 37 27 48 157 119 22 142 356 549 157 32 1267 7897 859 10 20 144 52 19 29 36 39 20 22
internal_value=0 0.047209 0.0060335 -0.0550302 0.13162 -0.00013331 0.0409584 0.00220645 0.0281286 -0.00556094 -0.000293447 -0.0298032 -0.0409673 -0.000906999 -0.0762226 -3.64783e-05 0.0556086 -0.000194327 0.000102753 -0.0305764 -0.0293343 0.0862112 0.106169 0.126074 0.0472765 -0.101351 0.124214 -0.145745 0.147836 0.156719
internal_weight=0 3.93625 2.64569 1.50187 1.29056 1449.58 5.62718 3.86672 3.34997 2.61424 1443.95 12.4653 11.6228 5.44062 6.18215 1431.49 4.04922 1427.44 1413.61 13.8225 1.51088 1.14383 2.53834 1.76046 0.744895 1.17916 0.842491 0.893787 0.735734 0.716269
internal_count=12273 249 181 107 68 12024 387 289 252 184 11637 1224 1166 498 668 10413 343 10070 9164 906 167 74 176 98 46 87 58 68 68 42
is_linear=0
shrinkage=0.3


Tree=333
num_leaves=31
num_cat=0
split_feature=133 211 129 187 238 171 67 205 145 1 184 137 153 4 71 102 230 95 179 125 172 135 123 257 289 61 228 69 83 170
split_gain=0.0880774 0.145101 0.173577 0.148393 0.124449 0.152403 0.121532 0.109282 0.106402 0.214079 0.196073 0.191973 0.199735 0.183319 0.1627 0.162548 0.236987 0.193147 0.165953 0.186914 0.14544 0.144537 0.167058 0.157077 0.155494 0.144529 0.139363 0.138072 0.134582 0.133578
threshold=-0.08018999919295304 -0.035210000351071295 0.034522480979024529 -0.067428503185510594 -0.018701946987999724 0.010147000197321152 -0.052631712531322587 0.00080536349192641824 -0.015237499959766797 -0.030787162597625036 -0.084072500467300387 -0.057027818177652824 -0.036279501393437344 -0.033598000183701494 -0.056481499224901144 -0.13053699582815168 0.046483661273840619 -0.017599999904632496 1.0000000180025095e-35 -0.053804500028490944 0.029160999692976402 0.17516800016164782 -0.11031599715352054 0.044557999819517101 0.028250499628484204 0.012499745525058236 -0.073671001940965583 0.032196000218391356 -0.02983370431715306 0.028603499755263304
decision_type=2 2 2 2 2 2 2 2 2 2 2 2 2 2 2 2 2 2 2 2 2 2 2 2 2 2 2 2 2 2
left_child=1 2 3 -1 -3 7 -5 -6 9 21 14 12 20 -14 27 16 17 -12 26 -20 -11 22 23 -2 -24 29 -17 28 -10 -13
right_child=8 4 -4 6 5 -7 -8 -9 10 11 15 25 13 -15 -16 18 -18 -19 19 -21 -22 -23 24 -25 -26 -27 -28 -29 -30 -31
leaf_value=0.11062113295146991 -0.17052398035991231 0.11733378784820386 0.11062614774308083 0.1404347995940598 -0.1365983525457018 0.1376582749308069 -0.10505527862168941 0.087236641440185517 0.077148864699282255 -0.088343329339000035 -0.15857761242215532 0.066635254344780279 -0.01833328442437749 0.1180906885876663 0.078675726821662684 0.054299088309626799 0.13303940633186404 0.048975020062318929 0.02389761932374565 -0.034234188717704596 0.078665502298256584 0.16718311590464138 -0.056085836547450398 0.067443321343181553 0.042261089912099335 -0.067162687662905896 4.8317449679205085e-05 0.073586838672504068 -0.13022551419552211 -0.090751693560740324
leaf_weight=0.43237583420705128 1.6438836745801371 2.2987498448928823 0.79617634270107362 0.20023999712430041 0.63933376008935627 0.50104533752892166 1.9388591185270334 0.28329188704356056 0.38456305694853665 1.4052426898815613 0.58341781806666437 1.8597502796310421 1.2329215455683877 3.1548216315495665 5.1169438091164912 4.2744406248530131 2.0027946445043199 1.3087340371857852 6.2761999568938363 24.066618542457036 0.70460735454980739 0.27199540287256319 7.7776729708566563 0.29434250039048482 1.7775721993348268 3.7934322893916033 1425.6958370055836 0.9306889449362642 1.0525431811547605 0.65671332837518992
leaf_count=35 121 177 60 13 53 37 156 30 39 133 46 221 84 213 504 352 59 137 446 2168 63 6 717 30 161 558 5396 74 115 69
internal_value=0 0.0333447 -0.0117764 -0.0496745 0.0741656 0.00446348 -0.0820751 -0.0678699 -0.000171455 -0.0197496 0.000155443 0.00708851 0.0432831 0.0797566 0.0485877 -9.2133e-05 0.0611122 -0.0150208 -0.000255377 -0.02221 -0.0325689 -0.0489647 -0.0540799 -0.134386 -0.0377903 -0.0301828 0.000210483 -0.0164342 -0.0747331 0.0255625
internal_weight=0 7.09007 3.36765 2.57147 3.72242 1.42367 2.1391 0.922626 1496.27 24.573 1471.69 12.8075 6.49759 4.38774 7.48474 1464.21 3.89495 1.89215 1460.31 30.3428 2.10985 11.7655 11.4935 1.93823 9.55525 6.3099 1429.97 2.3678 1.43711 2.51646
internal_count=12273 561 264 204 297 120 169 83 11712 2376 9336 1341 493 297 732 8604 242 183 8362 2614 196 1035 1029 151 878 848 5748 228 154 290
is_linear=0
shrinkage=0.3


Tree=334
num_leaves=31
num_cat=0
split_feature=66 107 5 11 63 31 49 76 114 83 139 280 207 28 290 98 219 277 108 138 200 27 210 235 144 143 122 5 274 11
split_gain=0.089937 0.173169 0.173614 0.142706 0.144506 0.139469 0.128154 0.124156 0.165751 0.151154 0.155331 0.154564 0.142668 0.154227 0.163722 0.148012 0.140455 0.257001 0.253793 0.220875 0.203952 0.139517 0.128499 0.12822 0.122035 0.117863 0.117067 0.117 0.116608 0.112419
threshold=0.0056759999133646011 0.0043912145472278664 -0.022915500216185995 0.0060189999639987503 -0.037938499823212547 -0.027676478772060534 0.096501499414443914 -0.022017441213318781 0.012346499599516352 0.029740499332547101 -0.017746499739587248 -0.009347771589972723 0.063100501894950811 -0.096375498920679037 0.029546500183641852 0.019292048049800756 -1.0000000180025095e-35 -1.0000000180025095e-35 -0.043118499219417537 -0.0201665004715323 -0.075971941555855724 0.10516399890184401 -0.019481499679386546 0.00039035353792779564 -0.025178999640047498 0.062580998986959416 -0.059021344323022369 -0.014768000226467798 0.050277078868209479 0.059116000309586504
decision_type=2 2 2 2 2 2 2 2 2 2 2 2 2 2 2 2 2 2 2 2 2 2 2 2 2 2 2 2 2 2
left_child=7 3 28 4 -2 27 -7 12 16 11 25 -10 13 15 21 29 18 23 20 -20 -9 -15 -17 -18 -16 -11 -12 -6 -3 -1
right_child=1 2 -4 -5 5 6 -8 8 9 10 26 -13 -14 14 24 22 17 -19 19 -21 -22 -23 -24 -25 -26 -27 -28 -29 -30 -31
leaf_value=-0.10024589711606063 -0.13214299578445693 -0.14390484639608875 0.11788505249501861 -0.11417546004201769 0.03908333555487218 0.11376427795915603 -0.20214141760744161 -0.12789820240834246 -0.11455350554477192 -0.13114545742762737 0.11739576788625163 0.022550486893665112 -0.074570135843244942 0.056517869041403976 0.017964623999943308 -0.020373747968769649 -0.0028228803761978041 -0.00011480298095475983 -0.071303921137483017 0.06182250922615809 0.030211326073304467 -0.054059763973061906 0.14713734071660661 -0.17982009794965609 -0.15537524860708335 0.14035182970315183 -0.015217006200945403 -0.13603042975657795 0.14493172293309817 0.12283316025395055
leaf_weight=1.9780350041292032 0.78580520578907487 0.51169146287429601 1.1688487546452959 2.3784779317338689 0.65373926301981566 1.2005015749796246 0.12788576290404297 1.4944636009286116 3.1988139168929592 0.96017035824843355 1.0864106453318529 0.96276305800711171 1.2958031097123228 14.943801464346512 0.87226890329475282 1.1731285020650828 0.56054705657879722 1316.6638485966578 1.2508458901666006 10.860321738310629 1.4434912831547979 1.102692134962125 0.63536897843005125 1.0743337440308094 0.62921749761517165 0.16928028667462058 1.3356819109694695 0.7233445984638821 0.16680405224906281 0.22660476621240366
leaf_count=290 140 85 156 477 98 182 30 301 519 199 173 173 239 1840 123 119 72 4786 187 1018 242 126 72 118 95 26 188 130 34 35
internal_value=0 -0.0322914 0.0478146 -0.0575026 -0.0188934 0.014 0.0833516 0.000186581 -0.000187095 -0.0440383 0.00142241 -0.0828351 0.0221109 0.0279214 0.0400551 -0.0251349 6.65742e-05 -0.000262403 0.0288849 0.0480732 -0.050215 0.0489191 0.038477 -0.119134 -0.0546757 -0.0904539 0.0442654 -0.0528991 -0.0728961 -0.0773166
internal_weight=0 7.7171 1.84734 5.86975 3.49128 2.70547 1.32839 1363.92 1341.06 7.71312 3.55154 4.16158 22.8569 21.5611 17.548 4.01314 1333.35 1318.3 15.0491 12.1112 2.93795 16.0465 1.8085 1.63488 1.50149 1.12945 2.42209 1.37708 0.678496 2.20464
internal_count=12273 1332 275 1057 580 440 212 10941 8002 1278 586 692 2939 2700 2184 516 6724 4976 1748 1205 543 1966 191 190 218 225 361 228 119 325
is_linear=0
shrinkage=0.3


Tree=335
num_leaves=31
num_cat=0
split_feature=246 82 296 193 44 137 114 131 256 57 212 50 43 171 218 206 5 257 249 160 217 38 117 237 57 259 21 176 101 238
split_gain=0.0880331 0.135133 0.100992 0.123896 0.101803 0.205918 0.198451 0.186039 0.161407 0.118187 0.13159 0.203617 0.144291 0.130043 0.129007 0.0992362 0.0977152 0.107859 0.104666 0.0959805 0.0770971 0.0703012 0.088752 0.0698797 0.0898896 0.0690461 0.0621364 0.0334944 0.0123123 0.0107113
threshold=-0.099305499345064135 0.042891214443345697 0.06689849868416782 -1.0000000180025095e-35 -0.06878400221467014 -0.07646748056425097 0.047725498676300007 -0.0016379999578929997 -0.030372299225216184 -0.11804449930787084 0.0022904934241877108 -0.008284463148652341 -0.013518500141799398 0.042584499344229657 -0.0003568254408861046 0.03078043632180423 -0.044111000373959493 0.011825636204146018 0.00053199997637420015 0.042635215029261236 -0.0094809997826813975 0.015651499852538053 -0.015135999768972348 -0.042134499177336644 -0.027343472525224111 -0.05286043030789337 0.037520499899983406 -0.033502378563390993 -0.052658000960946048 -0.05459349974989889
decision_type=2 2 2 2 2 2 2 2 2 2 2 2 2 2 2 2 2 2 2 2 2 2 2 2 2 2 2 2 2 2
left_child=1 20 4 16 5 8 7 -7 -2 13 12 -12 -11 14 -6 -8 19 18 -18 -4 -1 29 -23 24 -5 -25 -10 -19 -27 -22
right_child=2 -3 3 23 9 6 15 -9 26 10 11 -13 -14 -15 -16 -17 17 27 -20 -21 21 22 -24 25 -26 28 -28 -29 -30 -31
leaf_value=-0.045851126846661136 0.07391323193647216 -0.14041883094855634 -0.1726555999441676 0.11559278490863219 0.021162325033080593 0.10545695533092732 0.14512089820592577 -0.044588702105619979 -0.18286212525656653 0.021087438100903289 0.027514715110410651 -0.047760735783484547 -0.00029717330641286808 -0.12595763509386707 0.11421828138246101 -0.058192279133636268 0.12182620333257366 0.055959500832931573 -0.12527638058397292 0.066305592898685331 0.13278700544056465 -0.10302905383354156 0.14676255330099505 -0.026111203845911788 -0.15107391925842434 0.12319046700043811 -0.030732689711567434 0.20353340117411864 0.19546945840386401 0.20314188187765875
leaf_weight=0.28739345546637185 0.33182702164049271 0.25181554921437044 0.45684766105841834 0.29016209120163694 4.1926395208174654 0.8360808149445792 0.98474990943213903 6.7310691950406172 1.3445223411254104 28.993356750948806 4.4623532241748789 11.749352098313464 1381.5512254313799 0.39825803088024248 1.9712144129443903 0.27679522076505236 0.24391790898516796 0.23407258314546198 0.41977409110404551 0.22616729106812272 0.30185321173485113 0.22633970866445452 0.29469222464831546 0.17899792979005713 0.18714042304782186 0.29378295247442998 0.29457752639427792 0.3387221050215885 0.76295644877245561 0.54893616947811008
leaf_count=23 29 26 46 23 261 64 67 635 186 2155 339 1056 6740 30 147 38 17 28 43 18 25 24 29 20 33 32 25 20 56 38
internal_value=0 0.0643566 -7.47167e-05 0.0498844 -0.000200384 -0.0292184 -0.00964567 -0.0280104 -0.116894 1.82578e-05 -0.000166491 -0.0270408 0.000142382 0.0401869 0.0509218 0.100512 -0.00245558 0.0478514 -0.034462 -0.0935282 0.0954349 0.125034 0.0382514 0.108533 0.0110383 0.14619 -0.155522 0.143227 0.175375 0.178181
internal_weight=0 1.91103 1447.75 3.63254 1444.12 10.7996 8.8287 7.56715 1.97093 1433.32 1426.76 16.2117 1410.54 6.56211 6.16385 1.26155 1.9195 1.23649 0.663692 0.683015 1.65921 1.37182 0.521032 1.71304 0.477303 1.23574 1.6391 0.572795 1.05674 0.850789
internal_count=12273 165 12108 336 11772 1044 804 699 240 10728 10290 1395 8895 438 408 105 172 108 60 64 139 116 53 164 56 108 211 48 88 63
is_linear=0
shrinkage=0.3


Tree=336
num_leaves=31
num_cat=0
split_feature=8 128 138 108 132 65 216 76 263 100 154 103 231 116 251 278 181 135 240 141 96 31 270 190 68 294 16 296 235 150
split_gain=0.0874262 0.148385 0.136943 0.105127 0.158672 0.117697 0.110549 0.132244 0.104056 0.123508 0.102012 0.104169 0.0992814 0.0957979 0.167013 0.159481 0.157643 0.153209 0.131475 0.126552 0.0904079 0.088471 0.0836991 0.0764056 0.132283 0.0669104 0.114661 0.0539153 0.0520658 0.0935389
threshold=-0.04823949933052054 -0.035462500527501044 0.039804499596357311 0.05066900141537186 -0.0046144998632370992 0.045492999255657161 -0.1391660049557685 -0.023396881607982891 0.0084890381676126971 -0.087480500340461634 0.0096954996697604014 0.068988845744095362 -0.016952779056844339 -0.0089884996414183981 -0.053396312364708542 -0.029934398242974909 0.027136753116132336 0.14179700613021848 0.14621799439191818 -0.033685816747973836 -0.00090337880235674911 -0.048436503901224379 -0.0025195000926032493 -0.038348499685525846 -0.060104500502347898 -0.024547999724745698 -0.02833937207944482 -0.013001000043004697 -0.022675999440252746 0.028714499436318854
decision_type=2 2 2 2 2 2 2 2 2 2 2 2 2 2 2 2 2 2 2 2 2 2 2 2 2 2 2 2 2 2
left_child=1 -1 23 6 10 12 7 8 9 -2 28 22 21 14 16 18 -8 -16 -15 -17 -14 -6 -12 24 -3 -9 -27 -4 29 -5
right_child=3 2 27 4 5 -7 13 25 -10 -11 11 -13 20 15 17 19 -18 -19 -20 -21 -22 -23 -24 -25 -26 26 -28 -29 -30 -31
leaf_value=-0.18563915728150837 -0.13826243985180267 -0.14276728024424226 -0.20178526227971291 -0.18233326858526344 0.13639246628604726 0.12355496191330537 0.014826887512216903 0.18057008376619013 0.11940240348259143 0.066250281932312763 0.13208737690455244 -0.20209493246183219 0.037715995584247042 0.028540225620801982 -0.020213533730805176 0.043126231410018999 -0.16443579819174897 0.094927102355657211 0.16041113200788545 -0.00025286588304518533 -0.2032908363569346 -0.076202643544486318 -0.073672952705171116 0.1566071245809145 0.11505092735634025 0.13721745424898169 -0.1441128812658779 0.042788864337571543 -0.18315349236884224 0.11503666878200425
leaf_weight=0.21104564281995442 0.63527821900788684 0.25467822908831372 0.1964578197002993 0.22190845428849559 0.39880355096829589 0.62772157762083214 0.66432983272534585 0.81028740735564497 0.4449657848017522 0.45690925337839905 0.37391773684430518 0.21964866052439902 0.21230778893004743 8.9295658116898231 14.021956429749478 6.0779651145203379 1.3163173203356562 1.1234167580842029 0.73656200536061156 1457.529054300845 0.41179339301743223 0.31558008809224691 0.33945265185320739 1.1604636767106047 0.60362623876426369 0.41435313078363833 0.19025024738220853 0.13817685616959341 1.0582731242102457 0.166729199787369
leaf_count=37 52 42 25 29 40 61 74 61 39 48 38 35 27 889 1491 600 143 52 49 7892 59 35 58 86 49 43 29 25 144 21
internal_value=0 0.0553401 0.0769503 -9.9103e-05 -0.0466895 0.0163754 3.649e-05 0.0580336 -0.00288505 -0.0527059 -0.0987913 -0.021445 -0.0338896 -7.83853e-05 -0.0223864 0.000180934 -0.104309 -0.0116729 0.0385888 -7.27242e-05 -0.121305 0.0424782 0.0341777 0.106414 0.0385505 0.124216 0.0486914 -0.100796 -0.148667 -0.0547588
internal_weight=0 2.56445 2.3534 1497.7 4.34614 1.96621 1493.35 2.95204 1.53715 1.09219 2.37993 0.933019 1.33848 1490.4 17.126 1473.27 1.98065 15.1454 9.66613 1463.61 0.624101 0.714384 0.71337 2.01877 0.858304 1.41489 0.604603 0.334635 1.44691 0.388638
internal_count=12273 264 227 12009 547 222 11462 272 139 100 325 131 161 11190 1760 9430 217 1543 938 8492 86 75 96 177 91 133 72 50 194 50
is_linear=0
shrinkage=0.3


Tree=337
num_leaves=31
num_cat=0
split_feature=77 138 69 129 146 150 85 272 33 289 224 178 41 205 181 151 295 227 262 177 53 8 73 212 0 213 149 260 85 102
split_gain=0.0896382 0.162473 0.093284 0.0830703 0.135875 0.105823 0.168366 0.163799 0.186678 0.153396 0.135273 0.127345 0.114981 0.146195 0.140429 0.0917589 0.0914999 0.0914115 0.0825528 0.0786381 0.0891957 0.0726927 0.0640732 0.0625506 0.0617722 0.058051 0.0567533 0.0525752 0.0765238 0.0525028
threshold=0.070983998477458912 0.039121499285101856 -0.063101500272750785 0.053997999057173708 0.041774500161409357 0.081568498164415318 -0.0037219999358057494 0.071049551164148572 -0.0064660001080482496 0.059630556130675083 -0.015361543639030825 0.052231499925255706 0.064749501645565019 -0.046003499999642344 0.0058389999903738004 -0.050831999629735898 -0.073771998286247184 -0.0054917075157320137 -0.056843073611567048 -0.029055450339776752 0.064004499465227113 0.049997499212622608 0.013880912796971635 -0.0016701273790082703 -0.00036499999987419995 -0.046930496122701164 0.025259500369429502 0.045703500509262057 -0.046335674525111219 -0.10304149985313409
decision_type=2 2 2 2 2 2 2 2 2 2 2 2 2 2 2 2 2 2 2 2 2 2 2 2 2 2 2 2 2 2
left_child=3 2 -2 5 15 6 7 9 -9 -1 11 16 13 -8 -14 -5 -7 26 -3 20 -17 24 -20 -19 -6 -21 -12 28 -4 -29
right_child=1 18 27 4 21 10 12 8 -10 -11 17 -13 14 -15 -16 19 -18 23 22 25 -22 -23 -24 -25 -26 -27 -28 29 -30 -31
leaf_value=0.044718887717347673 0.12075535227155892 0.12414627598954189 0.11977081467434263 -0.18681508867845209 0.06351118607234818 -0.011255919076391879 0.048700746085179082 -0.084215968213486439 0.025546598289505958 -0.073083280449460913 0.14138462469150917 0.069740031020882678 0.076328074419812 -0.00014909447265979683 -0.072138916562301536 0.095350362675184416 -0.15111105772397823 -0.19720427341882854 0.12387703420499493 0.044944195975308854 -0.11391749714205787 0.13944654101852641 -0.20150414859485874 0.046166183836926035 -0.1742276729676033 -0.14281326198520206 -0.055760926696202751 -0.012131534327804352 -0.15330284854575271 -0.20037704069987333
leaf_weight=18.020980401724962 0.13865312196139723 0.50940855320368428 0.15600605466170236 0.59588849764804819 0.23307798150381132 0.56459733329211381 5.5367930728189085 2.3651056475646328 3.3981791228607099 1.0529632668258262 0.58345171621476766 0.39291884438716795 0.6799578337904667 1325.1806434477924 3.6579970356506237 0.50548264508506735 1.6556530741345343 0.20296367831178941 0.083245032314152811 0.18225306653766937 0.28760505893842492 0.4406737371282361 0.15755495355915627 0.17875921357153746 0.17018556247239747 0.79326178150813398 0.1696271828841418 0.15703951045361453 0.22638282514890229 0.88375763122803608
leaf_count=2202 19 53 18 127 53 121 720 321 455 143 84 70 121 6088 502 75 294 46 11 32 61 63 42 43 44 194 30 23 56 162
internal_value=0 -0.059022 -0.114139 9.83136e-05 -0.0481173 0.000211757 0.000350499 0.0248239 -0.0194972 0.0382157 -0.0501286 -0.0876868 -0.000104801 5.41579e-05 -0.0488673 -0.0850007 -0.115547 0.0363586 0.055725 -0.0506967 0.0194615 0.0552203 -0.0890192 -0.0832349 -0.0368195 -0.107735 0.0969786 -0.137024 -0.0418949 -0.171974
internal_weight=0 2.31205 1.56184 1366.85 3.20843 1363.64 1359.89 24.8372 5.76328 19.0739 3.74797 2.61317 1335.06 1330.72 4.33795 2.36449 2.22025 1.1348 0.750209 1.7686 0.793088 0.843937 0.2408 0.381723 0.403264 0.975515 0.753079 1.42319 0.382389 1.0408
internal_count=12273 384 278 11889 649 11240 10552 3121 776 2345 688 485 7431 6808 623 489 415 203 106 362 136 160 53 89 97 226 114 259 74 185
is_linear=0
shrinkage=0.3


Tree=338
num_leaves=31
num_cat=0
split_feature=12 290 92 298 48 26 50 29 293 238 146 97 7 158 172 103 112 266 67 151 203 241 136 284 204 59 137 192 275 160
split_gain=0.0852253 0.14992 0.123457 0.146306 0.144824 0.142779 0.14149 0.152737 0.11345 0.103189 0.191269 0.17999 0.188103 0.156888 0.21249 0.207241 0.164981 0.156492 0.155359 0.137646 0.112286 0.127488 0.101224 0.187469 0.220163 0.154387 0.211161 0.158202 0.14612 0.0946823
threshold=-0.080997496843337943 0.057065000757575007 0.091546997427940313 -0.025252364246786382 -0.079372914414009468 -0.049013120122122146 0.042705824477559391 -0.022475325016644319 0.0087930591551132909 -0.079583499580621678 0.024973499588668301 -0.078674643965421093 0.038568902591514083 -0.039810349039150844 0.012520499993115603 0.017266500741243303 -0.076156001538038184 -0.036800500005483537 0.050481500104069654 -0.088888499885797431 0.12151850014924996 0.0026025000261142004 -0.071187958059586443 0.044885175866570697 -0.051754001528024597 0.063119902145377382 0.013179999776184552 0.037725858062316875 -0.074554502964019734 -0.019567287599953548
decision_type=2 2 2 2 2 2 2 2 2 2 2 2 2 2 2 2 2 2 2 2 2 2 2 2 2 2 2 2 2 2
left_child=1 2 3 6 5 -5 7 -1 -6 10 13 -12 18 16 15 -15 -2 -18 -13 -16 22 29 23 24 -11 27 -27 -24 -25 -22
right_child=9 -3 -4 4 8 -7 -8 -9 -10 20 11 12 -14 14 19 -17 17 -19 -20 -21 21 -23 25 28 -26 26 -28 -29 -30 -31
leaf_value=0.18999937577692999 -0.14090189380244361 -0.19459503412635273 0.1157311481104695 0.065057372223018467 -0.0015350212432773541 -0.1809651329388596 0.1253841555953536 -0.14345807052370427 0.11340756780437333 0.10350457438748764 0.11283593848235683 -0.12259272297730892 0.1259627701218122 -0.068266968897796459 0.11876012305368532 0.083429862836893007 0.068056930070604746 -0.017761605981372275 0.0082301662907229792 -0.12076976413117657 0.010357666172402127 -0.069075085533885291 -0.00017447660671440266 -0.07071731091827213 -0.054022284786526355 -0.063333047542378687 0.033638889567755528 0.039721806800868668 0.082138106934209754 0.1449195238798287
leaf_weight=0.13953656656667579 0.51615520153427485 0.25477124948520202 1.5173348938114939 0.40754832443781197 1.1605778502125761 0.44315642301808011 0.29704014702292614 1.0841214877291347 2.3131677263736492 1.0464176681707611 0.46407875459408376 4.1067284908458523 0.36629646457731713 1.5252924442793312 0.23587245796807144 1.7296186681051038 4.8323408775613643 3.1648517610301496 1.0198665735370012 2.5521964809304336 0.73398703732527848 0.5251018875860608 1385.5685442252416 0.63202718168031413 3.3704435386462119 7.428594355373205 2.7762998490070459 9.0033434432407358 5.1422514619189315 1.3115614594425997
leaf_count=9 39 23 92 33 104 61 30 132 177 69 27 386 29 146 15 123 273 277 113 244 43 52 7410 56 299 621 240 687 383 80
internal_value=0 0.0316549 0.039484 0.0196911 0.0478367 -0.0631028 -0.0603473 -0.105433 0.0750053 -0.000161716 -0.0212869 -0.0665702 -0.0817277 -0.0027553 -0.0397223 0.0123428 0.0234848 0.0340946 -0.0965673 -0.100505 0.000143987 0.0627864 3.01812e-05 0.029821 -0.0167019 -0.00018594 -0.0369513 8.30934e-05 0.0654072 0.0966358
internal_weight=0 7.61725 7.36248 5.84515 4.32445 0.850705 1.5207 1.22366 3.47375 1438.05 20.5133 5.95697 5.49289 14.5563 6.04298 3.25491 8.51335 7.99719 5.1266 2.78807 1417.54 2.57065 1414.97 10.1911 4.41686 1404.78 10.2049 1394.57 5.77428 2.04555
internal_count=12273 661 638 546 375 94 171 141 281 11612 1672 555 528 1117 528 269 589 550 499 259 9940 175 9765 807 368 8958 861 8097 439 123
is_linear=0
shrinkage=0.3


Tree=339
num_leaves=31
num_cat=0
split_feature=176 23 158 240 11 188 208 138 141 49 168 19 285 176 8 95 289 67 41 188 150 52 195 159 289 154 292 157 181 89
split_gain=0.0871629 0.144734 0.140431 0.141204 0.125022 0.112558 0.108585 0.0850994 0.118193 0.096603 0.156171 0.214843 0.20007 0.172416 0.154443 0.141292 0.198095 0.221513 0.165027 0.134152 0.127079 0.116507 0.198571 0.154116 0.0946375 0.0924125 0.082317 0.0777446 0.0694033 0.0599304
threshold=-0.11676950159610154 0.040069000795483554 -0.038873501121997799 0.067927529300558828 -1.0000000180025095e-35 -1.0000000180025095e-35 -0.028870499692857248 0.092070340639649847 0.0037994847585073755 0.077362795096337367 0.032963499426841708 0.030319999903440455 -0.0049430854761650456 -0.053332498297095236 0.027594500221312004 1.0000000180025095e-35 -0.065494343083847398 -0.0023100000107660495 0.010295761223976818 0.035147499293088857 -0.0014147918951070029 0.012541079956558482 0.06424150243401526 -0.043909499421715688 -0.022784000262618048 -0.075206000357866246 -0.057025499641895246 -0.038774000480771044 0.017408999614417501 0.057202499359846108
decision_type=2 2 2 2 2 2 2 2 2 2 2 2 2 2 2 2 2 2 2 2 2 2 2 2 2 2 2 2 2 2
left_child=1 2 4 6 26 -5 -4 9 24 15 12 20 19 -13 -14 21 18 -18 -17 -11 -12 23 -23 -2 27 -10 -1 -9 -26 -29
right_child=7 -3 3 5 -6 -7 -8 8 25 10 11 13 14 -15 -16 16 17 -19 -20 -21 -22 22 -24 -25 28 -27 -28 29 -30 -31
leaf_value=-0.018617241500551881 -0.074650290999838997 0.13586645843649309 0.081158350482662553 0.007035899258355377 0.089130690895157391 0.18728465164385383 -0.15592061104148608 -0.16470231977136351 0.11836292183884119 0.0018838403417829738 -0.11755163966146416 0.16080805134784196 0.016641481792398088 0.043379249479041204 -0.11243976354962283 -0.048541480202465993 -0.0048264114142758403 -0.061111593637342226 0.07878694346183418 0.10109132404738404 0.035968818157018204 0.0036914859260749749 0.084953862227936147 1.5937713696652395e-05 0.039405564388002912 -0.14524271185133406 -0.1870389953385799 0.11228830747481901 -0.1558378478173276 -0.087843666503584106
leaf_weight=0.46516720799263556 2.4922843419190022 1.1057007695781065 0.32149278788710944 0.5000443941098639 0.3710807308088987 0.82824130496010151 0.37865850783418853 0.13108639334677707 0.13327679711801454 4.0355788490305704 0.77961054028128307 1.9952920273935886 1.4188445350373506 2.5808712927391753 2.0246400315954816 1.3323675285209926 13.592205035993862 11.718328165041379 2.9322791846407199 1.7625030139461157 1.2853128829738114 8.7716503907431598 3.9138765048955966 1429.006399341637 0.25438781103002783 1.1742347993513247 0.59557421011413669 0.85567946885203106 0.46044539706781507 0.15981750393621041
leaf_count=29 269 78 31 30 23 46 37 30 17 410 65 110 139 199 156 161 1119 1550 296 193 107 730 308 5665 37 178 56 98 74 32
internal_value=0 0.0413786 0.0111857 0.0619621 -0.0607485 0.119428 -0.0470596 -0.000134433 -0.0492441 -2.9962e-05 0.0232417 0.0583341 -0.0019761 0.0945804 -0.0592535 -0.00028076 -0.0208072 -0.0308855 0.0390068 0.032041 -0.0219927 0.000139598 0.0287634 -0.000114059 -0.00068599 -0.118373 -0.113181 0.052725 -0.0863565 0.0807918
internal_weight=0 4.56596 3.46026 2.02844 1.43182 1.32829 0.700151 1492.81 3.16893 1489.64 15.8827 6.64109 9.24157 4.57616 3.44348 1473.76 29.5752 25.3105 4.26465 5.79808 2.06492 1444.18 12.6855 1431.5 1.86142 1.30751 1.06074 1.14658 0.714833 1.0155
internal_count=12273 330 252 144 108 76 68 11943 466 11477 1379 481 898 309 295 10098 3126 2669 457 603 172 6972 1038 5934 271 195 85 160 111 130
is_linear=0
shrinkage=0.3


Tree=340
num_leaves=31
num_cat=0
split_feature=260 233 196 97 178 173 151 41 28 211 251 287 138 126 109 101 142 185 180 260 244 272 107 237 91 209 224 187 27 62
split_gain=0.0882521 0.163403 0.162887 0.0990116 0.095018 0.0820898 0.141597 0.143969 0.142464 0.122913 0.11975 0.117509 0.191277 0.121133 0.114851 0.106115 0.187414 0.228584 0.160398 0.15572 0.112671 0.0916903 0.085481 0.0777643 0.0759677 0.0719567 0.068661 0.065195 0.0515999 0.0407683
threshold=0.14484850317239764 -0.080988947399725217 0.04139219146110875 -0.012143406444576945 0.011670500040054302 0.0014709244645931935 -0.087478999048471381 0.053029499948024708 -0.046528000384569147 -0.00042499999108254997 -0.033120442840799909 -0.03473499976098534 -0.015229499898850899 0.050967000424861859 0.11484950035810472 -0.086178999394178335 -0.00036399999225974995 -0.0025968374570084695 -0.046722998842596945 0.043015999719500507 -0.095993511054392092 0.062679499387741061 -0.0094197739080040463 0.071826802367557271 -0.025523500517010644 0.010451499838381952 -0.049459354752117053 -0.055016456204425399 0.057442499324679354 0.026570252692888489
decision_type=2 2 2 2 2 2 2 2 2 2 2 2 2 2 2 2 2 2 2 2 2 2 2 2 2 2 2 2 2 2
left_child=5 3 25 4 -2 11 -7 9 21 10 -8 12 13 27 -10 19 17 -17 -18 24 -21 -9 -11 26 -13 28 -14 -1 -3 -4
right_child=1 2 29 -5 -6 6 7 8 14 22 -12 15 23 -15 -16 16 18 -19 -20 20 -22 -23 -24 -25 -26 -27 -28 -29 -30 -31
leaf_value=0.1016541482684552 -0.1276244757454863 -0.14838987438754031 0.17647437626743837 0.15185806512228792 0.14861376849231656 -0.12636237462805822 -0.029500756130482485 -0.022732018740651339 0.057451059281348853 -0.10223357856751646 0.075963635079037292 0.11319507292881395 -0.16736120706207766 0.13563776698723695 -0.20224590024885583 -0.021259679996950592 -0.12564918633614805 0.055982697434670457 -0.00016462283806895119 -0.013801943440501115 -0.1288260536926237 -0.15546217808997354 0.041260785424353581 0.098527036605216722 -0.032983686348889055 -0.17754566476881281 -0.048475780843592865 -0.1465659164835762 0.17550521271753117 -0.067310053667748365
leaf_weight=0.1370483865175629 0.36369217146420851 0.082053235060810858 0.19099503760662617 0.42789784733031444 0.16198026348138228 0.55205785055113565 1.1174400981908519 1.1184883647606514 1.8440034835402905 0.7570018409351178 7.2921884832171608 0.65741374746357906 1.2750449261266115 0.5939080428051966 0.16715849842876185 4.9798903350510981 0.91740719500466994 11.209592034896557 1325.3689634114994 1.2948895257941329 1.878032017031501 0.80592123668611737 0.73776731667749007 0.14867884999694059 0.62335289518159587 1.2388345763420145 0.66537256157107449 0.31211174163036071 0.096127412260102574 0.091226564854878234
leaf_count=31 57 35 29 33 16 84 142 146 243 177 944 118 253 74 21 828 161 1385 6059 190 340 100 117 28 132 227 149 110 9 35
internal_value=0 -0.0546791 -0.110455 0.0447122 -0.0425047 9.2115e-05 0.0226294 0.0285725 -0.0199674 0.0478601 0.0619499 -0.000148139 -0.0581884 0.0467304 0.0358662 -1.31715e-05 0.0001402 0.0322229 -0.000251422 -0.0462439 -0.081884 -0.0783179 -0.0314096 -0.110573 0.0420494 -0.151907 -0.126595 -0.0708287 0.0263496 0.0976724
internal_weight=0 2.65281 1.69924 0.95357 0.525672 1364.45 14.392 13.84 3.93557 9.9044 8.40963 1350.06 3.13216 1.04307 2.01116 1346.93 1342.48 16.1895 1326.29 4.45369 3.17292 1.92441 1.49477 2.0891 1.28077 1.41702 1.94042 0.44916 0.178181 0.282222
internal_count=12273 441 335 106 73 11832 1974 1890 510 1380 1086 9858 645 215 264 9213 8433 2213 6220 780 530 246 294 430 250 271 402 141 44 64
is_linear=0
shrinkage=0.3


Tree=341
num_leaves=31
num_cat=0
split_feature=13 77 252 227 183 184 264 89 124 128 254 108 195 27 61 133 239 173 146 84 249 294 94 152 63 146 24 52 66 295
split_gain=0.0813419 0.15539 0.136234 0.12448 0.11771 0.116877 0.119502 0.109154 0.100175 0.194548 0.19357 0.215205 0.213232 0.196165 0.18148 0.150709 0.142908 0.173584 0.245598 0.247887 0.190932 0.210232 0.18368 0.17795 0.14804 0.151055 0.150257 0.124565 0.120381 0.201143
threshold=0.050548998638987507 -0.078159999102354036 0.066975001245737062 -0.043469438073425397 -0.038296959207841798 -0.035396329779150547 -0.04068561099370286 0.012564000207930751 -0.058145500719547195 0.040316085218139834 -0.04253149963915339 0.019377499818801856 -0.024084500037133649 0.056555985143326194 0.067103996872901917 -0.01545514112273713 0.077422138165335927 -0.032687085186821931 0.04003747239739102 -0.067052117164947675 0.059356241230409647 -0.0083659999072550981 -0.007604727397473296 -0.0065380001906304988 0.012092000339180202 -0.041925000026822042 -0.02322349976748225 -0.047014009395439899 0.0056759999133646011 -0.019178619781874091
decision_type=2 2 2 2 2 2 2 2 2 2 2 2 2 2 2 2 2 2 2 2 2 2 2 2 2 2 2 2 2 2
left_child=8 7 3 4 -3 6 -5 -2 9 27 11 12 -11 14 -12 -15 24 20 22 -20 21 -18 -19 -22 28 -26 -27 -1 -10 -30
right_child=1 2 -4 5 -6 -7 -8 -9 16 10 13 -13 -14 15 -16 -17 17 18 19 -21 23 -23 -24 -25 25 26 -28 -29 29 -31
leaf_value=-0.10254716951603701 0.071176640019247783 0.076504779958930721 0.11950192947416839 -0.13723374482145889 -0.15168084634860216 0.12073631041916995 0.094903643236995114 -0.16852581437549813 -9.5806324693905508e-05 0.035128748506188121 0.049266178444603875 0.073140987584629696 -0.13810126342623183 -0.156076178941155 -0.10763844226158652 0.0004462919338055397 0.056445848069691808 0.096920686293796784 0.12646855419808456 -0.082716015292874451 -0.13111461427043244 -0.11073975362954355 -0.005787131221784811 0.005735271536876565 0.044548045897017878 -0.091018393482017776 -0.017955975849786997 0.041355063784987434 0.00061284855910976363 0.1103560479278681
leaf_weight=0.61059229827151273 0.25651000556536008 0.30509209691081196 1.8788259600696617 0.42804020992480218 0.61077011909219425 1.1307105958694585 0.37394705516635429 0.51274510213988833 1379.8684091742271 0.76611734105972562 4.0197776538661829 0.66397349420003582 3.8698753868229696 1.2067233087727802 0.79457740267389443 1.0229851977201176 4.2423234191610391 6.8297749807825303 0.68184175941860337 2.0211424567096392 1.6940448855602883 0.80545328368316571 2.0337468921206883 1.7269408654101424 1.9310664593212994 4.1733140420492409 6.4465206068689431 4.7760315299965468 4.0915707175299758 2.3759660068317308
leaf_count=69 22 30 151 53 82 108 40 57 7133 68 278 41 287 82 71 82 303 329 38 142 111 91 156 117 197 454 739 399 372 171
internal_value=0 0.0364466 0.0567941 0.0154338 -0.0756676 0.0586047 -0.0289938 -0.0885964 -0.000117784 -0.0225278 -0.0432866 -0.0865964 -0.109474 -0.0107001 0.0233701 -0.084264 0.000162248 0.0253195 0.0492134 -0.0299481 -0.00731438 0.0297687 0.0733542 -0.0620317 -0.000198063 -0.0326332 -0.0466676 0.0250433 9.55826e-05 0.040929
internal_weight=0 5.49664 4.72739 2.84856 0.915862 1.9327 0.801987 0.769255 1436.65 17.7307 12.344 5.29997 4.63599 7.04406 4.81436 2.22971 1418.92 20.0353 11.5665 2.70298 8.46876 5.04778 8.86352 3.42099 1398.89 12.5509 10.6198 5.38662 1386.34 6.46754
internal_count=12273 543 464 313 112 201 93 79 11730 1377 909 396 355 513 349 164 10353 1287 665 180 622 394 485 228 9066 1390 1193 468 7676 543
is_linear=0
shrinkage=0.3


Tree=342
num_leaves=31
num_cat=0
split_feature=245 172 166 117 275 61 73 16 122 98 167 200 49 178 138 141 131 158 262 231 144 201 129 2 180 199 10 220 73 240
split_gain=0.0779216 0.121709 0.166831 0.124687 0.115919 0.11432 0.14054 0.104686 0.166764 0.102227 0.0982227 0.106084 0.0979683 0.122367 0.09376 0.112311 0.118917 0.0963343 0.102744 0.233822 0.216454 0.184465 0.18013 0.131474 0.0978133 0.140991 0.108674 0.0963918 0.0864224 0.0859178
threshold=-0.071411298070840415 0.022996500134468054 -0.024499916569472972 -0.041324000805616344 -0.037430001422762843 0.035685291156666347 0.034298613436511388 -0.057377500459551742 -0.073165498673915835 -0.023124999366700597 0.023862999863922551 -0.037532619958587574 0.040927034640394232 0.0035569525386354656 0.085623502731323214 -0.023082560623281571 0.043996667886377787 0.034889890942282738 -0.028314318907503133 -0.040490314102224013 0.041746843378703755 -0.023180999793112247 -0.0061494999099521988 -0.066009850722242247 0.022926873137890519 -0.099259000271558734 -0.0084655000828205984 -0.011223000008612849 0.059995044734740904 0.025160499848425354
decision_type=2 2 2 2 2 2 2 2 2 2 2 2 2 2 2 2 2 2 2 2 2 2 2 2 2 2 2 2 2 2
left_child=1 5 10 9 -5 12 -7 -8 -9 -4 11 -3 13 -1 17 16 -16 18 20 22 21 -2 -20 -21 -19 -26 -27 -22 -15 -14
right_child=14 2 3 4 -6 6 7 8 -10 -11 -12 -13 29 28 15 -17 -18 24 19 23 27 -23 -24 -25 25 26 -28 -29 -30 -31
leaf_value=-0.11921899914544939 0.0047350041494106584 0.14729163701979822 -0.1681510183828758 -0.085045411227826676 0.15594406933742935 0.14560509639192309 -0.12578193863420661 0.18666542735596847 -0.057774209618260144 0.079629467266024434 -0.14977289978840344 -0.13488355032950339 -0.026140972788507955 -0.054699703078545277 -0.081380537356275817 -0.095415941305070875 0.091875346372626038 0.10340851300465502 -0.0097065015198279109 0.067563767761453369 0.17824910055664558 -0.040502098045858838 0.082026819953786911 -0.00019659519231344971 0.20413580314478333 0.090699721152066343 -0.11975942953452695 0.030831544144153226 0.18307907940978665 0.16638285999781108
leaf_weight=0.35125034913653363 13.978800103764113 0.25922156373417238 0.35189690446713939 0.22627461823140027 0.87162072401042667 0.52193880382765234 0.66405107571335986 0.37843342041014694 0.74705254601212756 0.26100498493178736 0.93972458427015226 0.22312153736129425 0.24097981530940149 0.20777605969487922 0.64552127559727546 2.0092244179595573 0.79643897987625678 1.6233641461585642 2.9638107159407809 2.5817454694247308 0.6607461082166991 19.332464207567682 5.5046150771922822 1433.4583601740233 0.23103311820887018 0.31891609460581083 0.71786735620116804 1.0084641563953471 0.40713775067706592 1.5535912392006137
leaf_count=43 1260 44 31 45 108 74 75 36 89 35 63 19 35 29 119 333 86 163 300 240 44 1731 436 6448 16 32 72 102 33 132
internal_value=0 0.0291372 -0.0173538 0.0457637 0.106276 0.0578525 0.00863145 -0.0313185 0.0244162 -0.0626334 -0.0932864 0.0167635 0.0990638 0.0220433 -0.00017879 -0.049569 0.014314 -6.38031e-05 -0.000170712 0.00021833 -0.0162361 -0.0215187 0.0499217 -7.47741e-05 0.0546441 -0.00779581 -0.0550219 0.0891858 0.102735 0.14053
internal_weight=0 8.20508 3.13286 1.7108 1.0979 5.07221 2.31148 1.78954 1.12549 0.612902 1.42207 0.482343 2.76074 0.966164 1485.83 3.45118 1.44196 1482.38 1479.49 1444.51 34.9805 33.3113 8.46843 1436.04 2.89118 1.26782 1.03678 1.66921 0.614914 1.79457
internal_count=12273 891 345 219 153 546 274 200 125 66 126 63 272 105 11382 538 205 10844 10561 7424 3137 2991 736 6688 283 120 104 146 62 167
is_linear=0
shrinkage=0.3


Tree=343
num_leaves=31
num_cat=0
split_feature=249 219 72 120 116 176 25 171 165 58 4 128 283 194 20 285 154 46 30 63 280 193 34 13 153 16 27 5 84 270
split_gain=0.0788354 0.141554 0.174342 0.141538 0.160114 0.135768 0.118238 0.101943 0.15253 0.133877 0.130279 0.151462 0.150037 0.127123 0.139581 0.15052 0.102659 0.119304 0.126964 0.108878 0.21653 0.18233 0.101257 0.100273 0.109171 0.0964809 0.0953585 0.0903912 0.0821532 0.0818703
threshold=0.086547996848821626 -0.04185160987796132 -0.032920001074671697 0.069927223290602761 0.014056887046261955 -0.078137682900299557 -0.11233549937605854 -0.024917141072826266 0.034814499318599652 0.089247997850179658 -0.037182608901242677 0.081828001886606175 0.031350714927356749 -0.059365998953580794 -0.019735500216483997 -0.00093850001576349987 -0.041777499020099591 0.0096623497535661667 -0.011182999704033098 -0.00056821121123420092 -0.011215120819989021 -1.0000000180025095e-35 0.013175500091165302 -0.011591930666362753 0.035451000556349706 0.060740999877452809 0.061128998175263356 0.010989304528367076 0.010214844581388211 -0.04280437210313174
decision_type=2 2 2 2 2 2 2 2 2 2 2 2 2 2 2 2 2 2 2 2 2 2 2 2 2 2 2 2 2 2
left_child=7 5 -3 4 26 -2 -7 8 9 10 11 -1 -12 14 -9 29 17 27 -19 20 -18 -21 -8 24 28 -6 -4 -15 -10 -16
right_child=1 2 3 -5 25 6 22 13 23 -11 12 -13 -14 16 15 -17 19 18 -20 21 -22 -23 -24 -25 -26 -27 -28 -29 -30 -31
leaf_value=0.017372607993206057 -0.14140278754185692 -0.12682763149363852 0.10405409596634076 0.16334738205209828 -0.14186103439565537 0.15423382223580265 0.0764795052350144 -0.15361603388796014 0.054846464017941257 -0.068276203121868564 0.086477412217934049 -0.10852202111763203 0.025078080451570839 0.14461594989456442 -0.20118089999674488 -0.14806206996184007 0.0016081530724524145 -0.009505110131973674 -0.15341402459343625 -0.072103055336573879 0.092982230407274616 -2.0192341455109229e-05 -0.096530218853665598 -0.15364480642929676 -0.1579702252905188 0.14854565133203931 -0.12612513307049061 -0.099750874833381936 -0.1346779432184956 0.067856648346247633
leaf_weight=4.290197721902822 0.36035510614328847 2.080664950096434 0.73242224754358165 0.36559245003445529 1.0484090403042499 0.73466184255084965 0.71143458953747496 1.0054724149449614 1.1913306554479279 1.255443527294118 5.4613247600136683 1.0757206683006186 10.408524107929223 0.39837779708795951 0.1119140009577676 0.5256616927072163 7.5431445511339916 0.99754751520231444 1.2346779883609991 3.1657971760978389 3.379918677677777 1313.2939922187588 0.53222064133296954 0.64201579563586975 0.3837629777008259 0.11417307591909764 0.20798018691129982 0.20703259953279485 0.24883873347607721 1.1263140878945703
leaf_count=624 60 306 105 29 210 63 109 229 229 211 906 180 1357 59 23 101 1097 142 225 412 431 4490 80 161 68 16 38 46 57 209
internal_value=0 -0.0320222 -0.0628579 -0.00894033 -0.0388916 0.02796 0.0588098 0.000154095 0.0191506 0.0269164 0.0325441 -0.00786584 0.0462076 -0.000201571 -0.0644099 -0.0135596 -6.78969e-05 -0.0570681 -0.0891033 5.39564e-05 0.029882 -0.000193536 0.00244022 -0.0516792 -0.0157878 -0.113341 0.0531475 0.0610497 0.0220996 0.0435404
internal_weight=0 6.88791 4.54924 2.46858 2.10298 2.33867 1.97832 1357.95 24.9572 22.4912 21.2358 5.36592 15.8698 1332.99 2.76936 1.76389 1330.22 2.83764 2.23223 1327.38 10.9231 1316.46 1.24366 2.46595 1.82393 1.16258 0.940402 0.60541 1.44017 1.23823
internal_count=12273 1016 704 398 369 312 252 11257 3793 3278 3067 804 2263 7464 562 333 6902 472 367 6430 1528 4902 189 515 354 226 143 105 286 232
is_linear=0
shrinkage=0.3


Tree=344
num_leaves=31
num_cat=0
split_feature=223 188 121 292 170 71 131 296 30 187 61 26 142 299 169 278 268 187 240 106 161 278 206 69 226 220 260 297 189 40
split_gain=0.0813089 0.0908948 0.0951314 0.0747072 0.168867 0.16871 0.173253 0.155021 0.114734 0.110206 0.123437 0.107195 0.130276 0.0953702 0.130967 0.189348 0.217653 0.161603 0.10904 0.104998 0.0952832 0.159335 0.162045 0.122824 0.0915702 0.12545 0.116413 0.080719 0.0652731 0.0648601
threshold=-0.10889479815506141 0.024368500337004603 0.07446999847888941 -0.09253850206732743 0.016848499886691504 -0.053924499079584992 -0.047655500471591894 0.027035236098413715 -0.071818999946117332 -0.014489315098697558 0.034902499988675111 -0.066604498773813178 0.0004894985637681887 0.095972999930381761 -0.035219499841332394 0.0087999999523162512 -0.079102161044672201 -0.049496499821543645 0.05768060425842627 0.038367593779072659 0.005126500036567401 0.0065784999169408512 -0.041388500481843893 0.051014000549912404 -0.042486494243615273 0.082931980099057376 0.034618895860618067 -0.083776468888542246 -0.015765653520025246 0.055114833632596914
decision_type=2 2 2 2 2 2 2 2 2 2 2 2 2 2 2 2 2 2 2 2 2 2 2 2 2 2 2 2 2 2
left_child=1 2 28 4 5 11 -7 -8 -6 -10 -11 -2 -13 20 15 18 -17 19 -15 -16 24 23 -23 -22 26 -26 -5 -19 -1 -3
right_child=3 29 -4 13 8 6 7 -9 9 10 -12 12 -14 14 17 16 -18 27 -20 -21 21 22 -24 -25 25 -27 -28 -29 -30 -31
leaf_value=-0.10823228377162765 0.16035234995109263 0.18729245244117412 0.16239989078510311 -0.026673858301923221 0.12127638639339391 0.17682859774148149 -0.12505347702005756 0.047735381305871738 -0.1673090151491749 -0.13073743093954157 0.067924156518183579 -0.054079740888834257 0.10267389742624047 0.067779835559036342 -0.12033743776546973 -0.15013274339578711 0.12769538639969119 -0.12047278205133766 -0.11886322843118161 0.061778304948633594 -0.14815934826035279 0.099318389329629941 -0.039919538587787136 0.035773254665761894 8.0485291586645318e-05 -0.057434172883006743 0.071074965554949965 0.11659548420030058 0.058356893271940227 -0.022017679658173174
leaf_weight=0.51779080723645154 0.66668994788778979 0.60359329020138819 0.27404799294890836 1.6007697904424265 0.21210294216871295 0.26859290152788196 1.6995774026872816 0.6445210102101554 1.328667958878214 0.61627479846356392 0.5181600355062983 1.0008066118170971 0.91199499880895007 0.35630731604760546 0.55435324087738969 0.32495698041748244 1.1585862648207692 0.13536343467421863 1.3456264328269751 0.58623493000050075 1.52117242857821 1.0205769014428372 2.8612184634384903 0.41612806948432979 1406.8823795806466 3.4214607720787162 3.4810443908500019 2.867808030685409 0.35806462209438805 0.17098623236233834
leaf_count=72 33 66 33 185 15 13 155 69 113 47 51 72 53 36 48 41 82 11 104 62 214 80 320 50 9338 277 266 274 54 39
internal_value=0 0.0616493 0.00813914 -5.62336e-05 -0.02921 0.00233877 -0.051394 -0.0775444 -0.0904415 -0.108673 -0.0399975 0.0567631 0.020658 0.000104325 0.0342379 -0.0115008 0.0668396 0.0693991 -0.0797887 -0.0267343 -7.17034e-05 -0.0383816 -0.00331199 -0.108651 8.58006e-05 -5.90479e-05 0.0402841 0.10591 -0.0401278 0.141088
internal_weight=0 1.92448 1.1499 1436.4 7.86739 5.19218 2.61269 2.3441 2.67521 2.4631 1.13443 2.57949 1.9128 1428.53 7.32924 3.18548 1.48354 4.14376 1.70193 1.14059 1421.2 5.8191 3.8818 1.9373 1415.39 1410.3 5.08181 3.00317 0.875855 0.77458
internal_count=12273 264 159 12009 621 395 237 224 226 211 98 158 125 11388 658 263 123 395 140 110 10730 664 400 264 10066 9615 451 285 126 105
is_linear=0
shrinkage=0.3


Tree=345
num_leaves=31
num_cat=0
split_feature=119 170 41 245 60 170 13 296 149 265 173 14 202 243 242 258 279 24 156 292 106 111 250 278 227 52 141 110 291 121
split_gain=0.0741145 0.0905379 0.115025 0.0793386 0.141874 0.168953 0.158664 0.156717 0.13794 0.130004 0.128274 0.174601 0.154214 0.116899 0.115194 0.162686 0.126337 0.12585 0.127669 0.172577 0.131415 0.121497 0.178775 0.114275 0.112335 0.112162 0.111048 0.110906 0.0924304 0.0857346
threshold=-0.14942399412393562 0.011309999972581851 0.046665178246248377 0.0075745000503956508 -0.056421000510454143 0.012093952804211537 0.003253685106852049 -0.089355502277612589 -0.04683599993586534 0.073267497122287709 -0.028006999753415546 -0.0014130693016788044 0.0081825000233948005 -0.016722999513149244 -0.052679004071278825 -0.041691437043055425 0.013906999956816402 1.0000000180025095e-35 0.067322052011090081 -0.070417501032352378 0.018240385977035336 -0.0076632484124268497 0.069010959760024679 0.034979000687599154 -0.041314301555003985 -0.0041280242298935262 -0.019299000501632645 0.013777500018477402 0.01161671768617723 -0.0021994999842717996
decision_type=2 2 2 2 2 2 2 2 2 2 2 2 2 2 2 2 2 2 2 2 2 2 2 2 2 2 2 2 2 2
left_child=1 2 -1 14 5 6 8 13 -5 29 11 -9 -12 -6 15 16 27 21 19 -19 -20 22 -16 24 -17 -18 -23 -2 -8 -7
right_child=3 -3 -4 4 7 9 28 10 -10 -11 12 -13 -14 -15 17 23 25 18 20 -21 -22 26 -24 -25 -26 -27 -28 -29 -30 -31
leaf_value=0.081405014036561391 0.15651799105730141 0.13123328249420385 -0.10390326232615585 -0.075148721325345003 0.15487972076254863 0.050162175494873618 0.012124778519306512 0.06610281872394061 0.1254433669907537 0.12938096728211418 -0.12456945960622814 -0.047200438486625196 -0.011104304931429753 -0.078792796408602012 -0.010618900977656437 -0.095795651898033546 -0.075688656414555883 0.033832698585972161 0.047298748076637052 -0.086725727319322196 -0.054997581389759687 0.040442574093218699 0.083261590711602898 -0.14013528174452478 0.069602326630149355 0.071972053869366517 -0.00017135778524583647 0.05190977777163186 -0.20260134200142263 -0.12498999501006486
leaf_weight=0.72662903351010688 1.5583030453572067 0.85825126120471384 0.51523811463266611 0.35829851431481108 0.62476080713531701 0.31814038916490961 0.62161342969920941 1.6005927921796681 2.2215161263120566 0.2948098761262371 3.0787828186694206 5.2033541283435625 1.658953841691982 0.27860356301062061 3.4720392645176608 0.5751491589799117 0.9084808261541184 1.3694049849582368 2.7558473634999245 4.8655659336545778 1.916041425494768 6.0846378165751949 3.8497222946316469 0.63118498348740093 1.0339568837007382 0.94411577253777046 1439.0645060055942 2.1997939450811828 0.25420262608167832 1.2010499494426765
leaf_count=73 152 79 47 39 50 31 78 163 191 28 400 674 309 53 381 78 85 124 353 1025 227 476 281 85 108 93 6223 200 30 137
internal_value=0 0.0563051 0.00452249 -9.20014e-05 -0.0200491 0.0212095 0.0601291 -0.0375193 0.0975841 -0.0529315 -0.0469378 -0.0205464 -0.0848388 0.0828136 0.000148297 0.0363902 0.0636787 -4.614e-05 -0.0321512 -0.0602471 0.00534484 0.000194942 0.0387427 -0.0319522 0.0104835 -0.000438164 -3.57396e-07 0.0952858 -0.0501987 -0.0883106
internal_weight=0 2.10012 1.24187 1488.94 17.7147 5.26963 3.45563 12.445 2.57981 1.814 11.5417 6.80395 4.73774 0.903364 1471.23 7.85098 5.61069 1463.38 10.9069 6.23497 4.67189 1452.47 7.32176 2.24029 1.60911 1.8526 1445.15 3.7581 0.875816 1.51919
internal_count=12273 199 120 12074 2183 534 338 1649 230 196 1546 837 709 103 9891 801 530 9090 1729 1149 580 7361 662 271 186 178 6699 352 108 168
is_linear=0
shrinkage=0.3


Tree=346
num_leaves=31
num_cat=0
split_feature=115 242 83 171 213 295 133 283 158 83 203 293 20 195 183 87 56 25 73 210 271 181 44 157 259 125 60 92 139 108
split_gain=0.0710538 0.124893 0.0988703 0.115233 0.0971624 0.0927546 0.131526 0.115831 0.0975947 0.0872361 0.0870529 0.157105 0.0962909 0.0855984 0.0835782 0.0835812 0.0764678 0.0754349 0.0751 0.0739932 0.0891599 0.0717955 0.0709651 0.0681551 0.0619314 0.0599703 0.05653 0.0486797 0.0454087 0.0433724
threshold=-0.078891010904456119 0.030553000047802852 0.029315232821591566 -0.054577499628066996 -0.06964421217868301 -0.097586955795104458 -0.08018999919295304 0.072997432670617063 -0.0086469999514519977 -0.0035960000241174496 0.098902847783249995 0.036683900610557325 0.026464131552668326 0.013428500387817552 0.050136975563361615 0.056166499853134107 -0.07031499966979024 -0.097533001117229581 0.11103999987244606 0.0016150000155903002 -0.022625500336289347 0.043915343397474972 0.027100500650703855 0.036777999252080855 -0.034271411778630745 -0.023026499897241547 -0.074079066596298218 0.021002669847094969 -0.012191500049084399 -0.034166000783443388
decision_type=2 2 2 2 2 2 2 2 2 2 2 2 2 2 2 2 2 2 2 2 2 2 2 2 2 2 2 2 2 2
left_child=1 2 3 9 14 7 18 8 27 29 12 -12 -8 -9 15 17 -3 24 21 20 -5 -7 -19 -17 -2 -18 -4 -6 -11 -1
right_child=4 16 26 19 5 6 10 13 -10 28 11 -13 -14 -15 -16 23 25 22 -20 -21 -22 -23 -24 -25 -26 -27 -28 -29 -30 -31
leaf_value=0.064959431056614322 0.14760213028165337 -0.20124519364198604 0.03089190278189307 0.13375573780203542 0.040555923118086409 -0.13123317218485717 -9.7166546681720344e-05 0.11056274180934837 -0.085466699020387421 0.17739174547024203 -0.085390466375610818 0.097528702654892677 0.029568318889015677 -0.13516769927815292 -0.11822931377594327 0.086843608865127347 -0.10167703153270238 0.15468595437714355 -0.2014079763861146 0.079148044484703084 -0.17468012873589314 0.01279305192487515 -0.03555680630430607 -0.20179648302824865 -0.099182532324992134 0.12230463474789854 -0.18113661567674938 0.17648649950729442 0.00060874486423188163 -0.18602755185623321
leaf_weight=0.098613720503635705 0.13857444457244128 0.093012975044985069 0.13139854431210551 0.095442604506388751 0.32000458671973298 0.5497870089952801 1340.1510703094436 0.194677342318755 0.19826298799307451 0.37210939068245352 2.3381000625931843 0.51581336308663583 9.9203714572522568 0.37018117277148122 0.21693347109248851 0.13426707863618492 0.12824681548727312 1.3406509979067771 0.38169275182735862 0.16899748899595579 0.72572322924861399 0.71870183382816322 0.20322008585208085 0.16301448075955705 0.26952719382825341 0.66779512883294945 0.81579897776100541 0.91538262124231551 0.20162233363589666 0.16674156009685248
leaf_count=12 15 20 29 13 69 170 8195 34 36 28 366 98 1705 99 36 17 50 193 88 44 158 169 32 25 38 94 209 162 36 33
internal_value=0 -0.0417143 -0.0730503 -0.0323129 0.000110372 2.21701e-06 -9.30667e-05 0.0645849 0.109919 0.0494814 1.0175e-05 -0.0523298 0.000120816 -0.0504772 0.059603 0.0767543 0.0561453 0.0993229 -0.0847373 -0.101627 -0.138831 -0.0496306 0.129644 -0.0714323 -0.0153847 0.0862199 -0.151723 0.141276 0.115266 -0.0927535
internal_weight=0 3.6655 2.77645 1.82925 1359.04 1356.57 1354.58 1.99851 1.43365 0.839087 1352.93 2.85391 1350.07 0.564859 2.46619 2.24925 0.889055 1.95197 1.65018 0.990163 0.821166 1.26849 1.54387 0.297282 0.408102 0.796042 0.947198 1.23539 0.573732 0.265355
internal_count=12273 726 562 324 11547 11191 10791 400 267 109 10364 464 9900 133 356 320 164 278 427 215 171 339 225 42 53 144 238 231 64 45
is_linear=0
shrinkage=0.3


Tree=347
num_leaves=31
num_cat=0
split_feature=6 78 245 188 110 275 109 212 285 237 43 112 226 184 273 4 278 234 190 32 202 61 21 230 201 264 208 69 256 94
split_gain=0.0736554 0.1864 0.140136 0.13626 0.108061 0.0916111 0.0945366 0.0973776 0.0784546 0.0762093 0.145264 0.112737 0.085013 0.0792089 0.166045 0.126015 0.0944405 0.0898089 0.0816964 0.153092 0.165525 0.120069 0.113535 0.148946 0.138035 0.0786948 0.0751188 0.067813 0.0617886 0.0581186
threshold=0.029746999964117952 -0.064086999744176837 0.034321999177336658 0.034524500370025607 0.033980159952925727 -0.041231756179394737 0.033345404590528253 -0.079521499574184376 -0.075784500688314396 -0.091868001967668492 -0.022109000012278498 -0.010871904691842231 0.034196998924016904 0.042950501665472908 0.0077154999598860506 -0.03069123288660092 -0.046817999333143144 0.020673892106880792 -0.062637966815922472 -0.0023759999312459993 0.051248643237725246 0.054717494254945022 -0.10930049791932099 -0.068962998688220881 -0.0090050820313478247 -0.0067247137407212996 -0.039842878074790346 0.027657830701795321 0.013723500072956002 -0.049692963623363638
decision_type=2 2 2 2 2 2 2 2 2 2 2 2 2 2 2 2 2 2 2 2 2 2 2 2 2 2 2 2 2 2
left_child=9 2 8 5 -5 -3 -7 -8 -2 10 -1 -12 -13 18 17 25 -17 27 19 20 -11 -21 24 -24 -20 -16 -14 -15 -19 -6
right_child=1 3 -4 4 29 6 7 -9 -10 13 11 12 26 14 15 16 -18 28 22 21 -22 -23 23 -25 -26 -27 -28 -29 -30 -31
leaf_value=-0.14866993767695 0.051571807573720881 0.17065116705531008 0.11218261281698652 -0.11747309296035845 0.19416154982403497 0.13346572272907348 -0.20145034240432905 0.041111345070698448 -0.15182289239069119 -0.012463242965596732 -0.13495839792647518 0.11055516280608542 0.11248027360720829 0.17840676713043377 0.11780492466499481 0.14654905573221008 -0.12706420829956752 0.10089152680866359 -0.10861842722983424 -0.088902665838520925 0.10538149878842966 0.024750200759328048 0.061789589497756946 9.4652664836187542e-05 0.05670540408665746 -0.053765504568809887 -0.20123835065956169 0.062902575826758692 -0.14805649258529235 -0.022120575203172784
leaf_weight=0.90070910931353898 0.21223999594803888 1.017115233291406 0.32658009644364927 0.56343522018869385 0.21155422256560996 0.93822976347291831 0.17311089952272585 1.0675089572760041 0.87162182986503456 17.247536800699898 0.37663245413568813 0.74308315513189749 0.11146704820566811 0.98943269613664531 0.65048510488122702 0.12952289287932217 0.91972666955552973 0.16070424049394194 1.7464961173245686 3.897747736569726 1.1438644733279932 1.0652248528203925 3.5307859843305769 1393.4080109156484 0.61443544991197896 0.38184187962906457 0.17900841055234196 0.85086872488318477 0.20316802922752686 0.23718640540027991
leaf_count=93 22 81 20 77 14 73 25 110 118 1363 37 58 12 70 48 12 112 18 168 427 125 103 368 8449 51 45 33 90 24 27
internal_value=0 0.0342965 -0.0600875 0.0659311 -0.0299943 0.0963111 0.0616082 0.0072653 -0.111994 -0.000119682 -0.0545553 0.00555702 0.0567613 -3.15246e-05 0.0406916 -0.0200725 -0.0932885 0.0980761 -0.000154203 -0.0177514 -0.00513382 -0.0645088 0.000139495 0.000250588 -0.0655927 0.0543437 -0.080852 0.125003 -0.0381086 0.0798434
internal_weight=0 5.61858 1.41044 4.20814 1.01218 3.19596 2.17885 1.24062 1.08386 1429.25 2.3109 1.41019 1.03356 1426.94 4.28575 2.08158 1.04925 2.20417 1422.65 23.3544 18.3914 4.96297 1399.3 1396.94 2.36093 1.03233 0.290475 1.8403 0.363872 0.448741
internal_count=12273 567 160 407 118 289 208 135 140 11706 233 140 103 11473 419 217 124 202 11054 2018 1488 530 9036 8817 219 93 45 160 42 41
is_linear=0
shrinkage=0.3


Tree=348
num_leaves=31
num_cat=0
split_feature=195 154 253 299 163 275 67 79 278 68 143 173 58 88 86 6 166 267 295 180 167 134 135 202 37 84 31 59 198 180
split_gain=0.0642215 0.130633 0.0924583 0.110911 0.126574 0.0900417 0.0841662 0.0828947 0.13605 0.104233 0.109849 0.0806481 0.0761663 0.0730153 0.160657 0.158396 0.156349 0.0963913 0.189645 0.172686 0.0634785 0.0617058 0.0550379 0.0496707 0.0541334 0.0412754 0.0397235 0.0391546 0.0388651 0.0377076
threshold=-0.047381499782204593 0.0040480136538125228 -0.099850997328758143 0.0071390001103281506 -0.010839139539507178 0.0012514999834820001 -0.044299858599665745 0.071014001724792344 -0.027452299758611898 -0.024113069820988289 -0.012637955393014667 -0.01066233932862099 0.07586999982595441 0.13554750382900238 0.021950999274849853 -0.072865501046180683 -0.08869650214910503 -0.027835973409080051 -0.0013458207039084332 -0.039323000237345647 0.023101000115275352 0.0012267481221323101 0.018401579039914472 0.023583590948729291 0.0009430000209249002 -0.087627346494080563 -0.021041009396843554 1.0000000180025095e-35 0.043719999492168357 -0.029676499776542149
decision_type=2 2 2 2 2 2 2 2 2 2 2 2 2 2 2 2 2 2 2 2 2 2 2 2 2 2 2 2 2 2
left_child=1 23 3 21 29 6 -3 13 11 10 -10 27 -11 17 16 -16 -15 18 -4 -19 -8 26 -13 25 -25 -1 -2 -9 -7 -5
right_child=2 5 7 4 -6 28 20 8 9 12 -12 22 -14 14 15 -17 -18 19 -20 -21 -22 -23 -24 24 -26 -27 -28 -29 -30 -31
leaf_value=0.0026805014770559577 0.18631486161190641 0.12464167297553969 0.0033052806501585787 -0.014057073783384968 0.10634443556710393 0.026578700065246732 0.04303349878777981 0.00084052114109220693 0.008552020586370182 0.068243846135997807 -0.14989042911062056 0.095896449014856958 -0.1643286910673247 -0.11791118938947075 -0.086596025887098235 0.036417551274770484 0.088176828730485615 0.048280820232429016 -0.05744427042586641 -2.3024841195836781e-05 -0.19717345163593006 -0.0017963704549411028 -0.18546895169634914 -0.1640076814828795 0.12268006853486252 -0.18767931032169027 0.04385434628284339 0.1668499960166254 0.19233709636447335 -0.2020164559023524
leaf_weight=0.11960517539409921 0.76230948744341742 0.16965964343398809 11.471929880068275 0.14719870733097196 0.35385607318312384 0.24313447657914367 0.14373927231645189 0.18108238698914647 0.52388101612450655 0.59897747189097428 1.5862676653123344 0.10039187359507229 0.16074277948064264 0.36341726197861124 1.6231015807279621 2.2452138037333498 3.7497547698512781 6.6917602470275588 7.7487053038457807 1446.4221021599956 0.31821712637611199 0.30047329573426396 0.166078487822233 0.10728273610584438 0.13247405469883233 0.717402941809268 0.22909817969775681 0.43511216901242733 0.26722983008949086 0.27650331947370432
leaf_count=20 47 20 1295 13 43 31 17 15 58 89 241 13 16 30 123 173 333 526 758 8025 54 25 37 27 24 90 27 49 14 40
internal_value=0 -0.0510269 5.08513e-05 0.0634181 -0.0261032 0.0196577 -0.0560652 -3.75103e-05 -0.0445695 -0.0762489 -0.110554 0.0584316 0.0190358 7.53764e-05 0.0286916 -0.0151976 0.069968 -7.97514e-05 -0.0211856 0.00019942 -0.122432 0.117299 -0.0794654 -0.125993 -0.00560262 -0.160478 0.153395 0.118064 0.113371 -0.136717
internal_weight=0 2.21875 1486.14 2.06944 0.777558 1.14198 0.631616 1484.07 3.75253 2.86987 2.11015 0.882665 0.75972 1480.32 7.98149 3.86832 4.11317 1472.33 19.2206 1453.11 0.461956 1.29188 0.26647 1.07676 0.239757 0.837008 0.991408 0.616195 0.510364 0.423702
internal_count=12273 297 11976 195 96 136 91 11781 518 404 299 114 105 11263 659 296 363 10604 2053 8551 71 99 50 161 51 110 74 64 45 53
is_linear=0
shrinkage=0.3


Tree=349
num_leaves=31
num_cat=0
split_feature=86 230 178 84 60 1 36 258 106 4 250 1 23 262 211 51 297 168 10 98 236 75 64 156 49 144 43 200 67 152
split_gain=0.0693812 0.0972328 0.082003 0.0747459 0.0741587 0.0730367 0.162113 0.159817 0.134776 0.187937 0.162093 0.135185 0.126964 0.123265 0.122988 0.136608 0.118259 0.116811 0.151455 0.108712 0.10519 0.104936 0.0979871 0.0976293 0.0934538 0.0913086 0.0869145 0.0791557 0.0784486 0.068341
threshold=-0.057410499081015545 -0.0051925000734626995 -0.010013186271171095 -0.014802500139921848 -0.057872999459505046 -0.067685499787330586 -0.047559000551700543 -0.0083612084806940542 0.0049240953889836013 -0.053944500163197497 0.064100500196218463 -0.041200625881508766 -0.021534000523388348 0.012184212102119741 0.0057387285201414952 0.10428849980235096 -0.0039890565927203801 0.019134404203759909 -0.0024738077863836849 -0.039381962573809833 -0.033654504695308278 0.057521501556038808 -0.056336322303000494 0.028524000197648954 0.090983998030424104 -0.021683000028133347 0.013439104429362339 0.022262363998467625 0.06734399870038027 -0.07257508465158384
decision_type=2 2 2 2 2 2 2 2 2 2 2 2 2 2 2 2 2 2 2 2 2 2 2 2 2 2 2 2 2 2
left_child=1 2 3 -1 -4 6 7 28 9 22 13 24 -8 21 15 -12 -15 26 -19 -9 -13 -10 23 -7 -11 -16 -14 -24 29 -2
right_child=5 -3 4 -5 -6 8 12 19 10 11 14 20 17 16 25 -17 -18 18 -20 -21 -22 -23 27 -25 -26 -27 -28 -29 -30 -31
leaf_value=-0.059743737565922758 0.051892460670247151 -0.087650159211348402 0.063612685329248603 0.15153453922143104 -0.15708011471967823 -0.19049595948004838 -0.1119594308165117 0.11250314308489448 0.0967308889959302 0.087609717813617358 0.020085396402677973 -0.060901757631098209 0.12204856879157702 -0.074878467300393783 -0.013316408673790086 -0.094947595119009368 0.059394265450570576 0.12069281358376698 -0.06407344745067238 -0.15609002343822995 -5.4331552025009648e-06 0.025682759879027569 -0.14321671847307157 0.10821287433664349 -0.095755313689889973 -0.16410439005989907 -0.0086237037825040892 0.10173274794132349 0.079814389047572529 -0.17254499403651033
leaf_weight=0.2165793999665766 0.132430548317643 1.8861570313511027 0.23370530665488332 0.49545363023571554 0.33128323286473482 0.13488754958962124 0.75630016716240778 0.46881873262827867 4.818599721339071 2.3438144333704254 11.845168331659805 2.5578471052458545 1.2678187245537618 1.203012683416546 0.80798655994021829 1.0082062443034363 1.1591474426807051 0.50986453763562156 1.8409967724564924 0.19082506399718102 1318.3307867502635 3.0584736689561396 1.519530160623616 0.36479527177289128 0.28004207867320463 0.65395112224723451 0.71729111488457409 0.12879708246327926 0.13843261727743073 1.5660362263483878
leaf_count=56 22 438 48 116 134 26 139 78 762 344 1519 381 174 334 197 136 280 80 234 37 5117 570 299 66 62 178 100 18 46 282
internal_value=0 -0.0443713 0.0195515 0.0872699 -0.0657914 0.000110843 -0.0292378 -0.0918602 0.000275795 -0.000132126 0.0222988 1.17757e-05 0.00146355 0.0511195 0.00168438 0.0110623 -0.00898882 0.0212473 -0.0240006 0.0348032 -0.000123356 0.0691446 -0.0887981 0.0275775 0.0680393 -0.0807666 0.074832 -0.124077 -0.137346 -0.155045
internal_weight=0 3.16318 1.27702 0.712033 0.564989 1357.8 7.58881 2.49654 1350.22 1325.66 24.5545 1323.51 5.09227 10.2392 14.3153 12.8534 2.36216 4.33597 2.35086 0.659644 1320.89 7.87707 2.14801 0.499683 2.62386 1.46194 1.98511 1.64833 1.8369 1.69847
internal_count=12273 792 354 172 182 11481 1192 465 10289 6313 3976 5904 727 1946 2030 1655 614 588 314 115 5498 1332 409 92 406 375 274 317 350 304
is_linear=0
shrinkage=0.3


Tree=350
num_leaves=31
num_cat=0
split_feature=194 193 60 218 24 81 130 249 201 175 146 109 3 215 178 68 298 63 269 196 90 67 70 32 29 48 117 222 84 285
split_gain=0.0738998 0.168558 0.145177 0.185959 0.188898 0.212726 0.148135 0.146858 0.139309 0.152284 0.182759 0.148511 0.137645 0.131968 0.172197 0.139684 0.143909 0.133323 0.121988 0.13559 0.141962 0.128396 0.121959 0.124819 0.122353 0.12192 0.119586 0.113767 0.111891 0.109052
threshold=-0.022544123397736111 0.055496002735078064 -0.0087810000404714983 -0.028069694300576258 -0.019012065748926919 0.082657497376203523 -0.010907500050961949 0.063473999500274617 -0.0053788835908390722 0.0035454999888315506 0.015227171897086495 0.066095670131795431 0.048891043006213948 0.0013434999855235002 0.027815000154078003 -0.057327406473726548 0.038995163666520553 0.0044784999918192512 0.15947599709033963 0.019729499705135753 0.038246000185608808 -0.011892938710464747 -0.031025318951803219 -0.078655291740583153 0.082965418371056601 -0.070773001760244328 0.0017685000202618002 -0.018297999165952147 -0.077909499406814534 -0.026803400170555217
decision_type=2 2 2 2 2 2 2 2 2 2 2 2 2 2 2 2 2 2 2 2 2 2 2 2 2 2 2 2 2 2
left_child=2 -2 3 6 5 7 29 -5 9 11 -11 12 -4 14 17 25 -17 -10 19 20 28 -21 23 -8 -24 -15 -7 -13 -3 -1
right_child=1 18 8 4 -6 26 22 -9 13 10 -12 27 -14 15 -16 16 -18 -19 -20 21 -22 -23 24 -25 -26 -27 -28 -29 -30 -31
leaf_value=0.081379133924570843 -8.9707595832613595e-05 0.021963866991494722 0.015426335057148542 -0.069439689142242952 0.06632006128422549 0.12999174379744705 0.019275010186313373 0.030787705444848042 0.1710827203389729 0.030280446157293649 -0.1256246583110936 0.15121130458664611 -0.18411050557864175 -0.086170017761558276 -0.029141311686763559 -0.10981385087896529 0.10630276338373272 0.030337779983583009 0.076881355951820995 -0.090516647478932649 0.036191341017603171 0.055154631049951622 -0.059280388786960729 -0.13916006899818226 0.070213122024164965 0.11490225646307391 -0.079461673473067512 0.027184765935175492 -0.1288801340893963 -0.04849635530872267
leaf_weight=1.3574347226531247 1386.7007311834095 0.50923164882260641 4.0927337592002022 3.9311694139323663 4.8101943159235798 1.2487700283527372 0.55678541757515665 1.977620171732269 2.300220032397192 1.3190340919099983 1.3896413998936621 1.3466215574881064 0.33674185834024672 0.33489703375380475 0.71556286176200945 1.0076869151089338 0.38258481441880565 0.82226878304209083 0.6758947658818214 0.85724655860758536 0.71638023515697558 1.4929347190773112 2.3425826836319197 2.2806575604481623 0.91248802339123347 1.4314614575705493 0.30530715329223301 1.316215092607308 3.3807815934997043 1.0184091174014609
leaf_count=108 8107 39 439 397 459 84 41 135 139 123 118 92 27 36 67 101 41 87 41 115 60 133 252 211 81 111 22 133 349 125
internal_value=0 -0.000334419 0.0131546 -0.00363418 0.0199615 -0.00991887 -0.0378311 -0.0358945 0.0338876 0.0108062 -0.0497041 0.0339161 0.000256953 0.0662293 0.1036 0.0207918 -0.0503414 0.134019 -0.0447946 -0.0566165 -0.0865328 0.00201992 -0.0626088 -0.108071 -0.0229797 0.0767795 0.0888434 0.0899062 -0.109134 0.0257078
internal_weight=0 1394.33 37.5371 20.7414 12.2731 7.46287 8.46836 5.90879 16.7957 9.80099 2.70868 7.09231 4.42948 6.99468 3.83805 3.15663 1.39027 3.12249 7.63247 6.95657 4.60639 2.35018 6.09251 2.83744 3.25507 1.76636 1.55408 2.66284 3.89001 2.37584
internal_count=12273 8844 3429 1915 1097 638 818 532 1514 932 241 691 466 582 293 289 142 226 737 696 448 248 585 252 333 147 106 225 388 233
is_linear=0
shrinkage=0.3


Tree=351
num_leaves=31
num_cat=0
split_feature=223 207 188 212 87 55 22 104 88 93 92 144 235 129 108 86 27 6 230 99 215 266 20 10 138 141 33 265 107 84
split_gain=0.0625575 0.137307 0.179783 0.15132 0.181282 0.142362 0.12564 0.119573 0.117557 0.116936 0.142038 0.196946 0.137358 0.135485 0.107535 0.169707 0.106609 0.108364 0.105799 0.0983027 0.0963095 0.09192 0.0917467 0.0897472 0.135656 0.191638 0.198097 0.182656 0.229529 0.137565
threshold=-0.031602999195456442 0.012618187726344517 -0.032591988423200893 -0.039521346848359847 -0.045928704629105851 -0.048592889443704691 -0.042903000488877241 -0.060610000044107347 0.037784830433758 0.066897988052081234 0.080255497246980612 -0.050171918266132799 0.067526500672101919 0.0042014999780803511 0.020777999423444205 0.045925842611081166 0.066553000360727324 -0.015112999826669648 -0.027962000109255248 -0.042125498875975546 -0.0046078546110827562 0.023315056567904734 0.086418820914817909 -0.011493000201880899 0.010904521337206569 -0.016120499931275796 -0.083451498299837085 0.016611633990258928 -0.035462500527501044 -0.097672998905181843
decision_type=2 2 2 2 2 2 2 2 2 2 2 2 2 2 2 2 2 2 2 2 2 2 2 2 2 2 2 2 2 2
left_child=1 9 19 4 20 -6 7 8 -2 10 16 13 -11 -12 22 -16 18 -18 -1 -3 -4 -13 -9 -8 27 -26 -27 29 -29 -25
right_child=6 2 3 -5 5 -7 23 14 -10 12 11 21 -14 -15 15 -17 17 -19 -20 -21 -22 -23 -24 24 25 26 -28 28 -30 -31
leaf_value=-0.092678487771406304 -0.16036180648691453 0.17721275574111797 -0.071579386578805623 0.069433406273999868 0.15277342121386486 -0.089279998044556316 0.034732586902420107 0.10099308712804621 0.045493353088553533 -0.13853629704984124 -0.080653008482442945 -0.16495098646250025 0.12360686837616955 0.094197609552192613 -0.1042234780018868 0.15127672112059543 0.10249291832909359 -0.11238288277858778 0.0047046716945674423 -0.11619913221403105 0.12988630735616172 0.036552158990372806 -0.096630245931655367 0.12737533682879906 0.02021586715336918 0.083122090996185338 -0.055938187150284945 0.097893183569803782 -0.00058360203234292729 -0.00012489064671036449
leaf_weight=1.3517136241698593 0.46330057052546159 0.11248612531926472 0.28194753755815327 4.0399623247249092 0.24421610526042092 2.0915826109612681 6.6776394131702537 3.4408423851637049 0.54146555427359999 1.5643776764043185 0.83167438533564586 1.6480709857532927 0.20326972845941771 0.76635522350989049 0.70768439219682455 0.3495293841115199 1.3330066618264025 0.25100197065330565 3.9037922833194929 1.1893606769444884 0.880376785353292 0.23248771244016087 0.22526685293996696 0.76201208180645963 5.7677917007495152 0.99771889576368344 12.143081416663332 3.8767894916236401 4.728073666970884 1424.1266467915084
leaf_count=268 41 8 17 500 22 282 775 361 44 202 123 259 21 91 90 21 174 73 546 194 59 44 26 59 595 87 1232 239 400 5420
internal_value=0 -0.0163126 0.0121019 0.0298814 -0.0157969 -0.0639724 0.000207089 0.0445505 -0.0494271 -0.0370959 -0.0248819 -0.0742374 -0.108391 0.00319881 0.0645419 -0.0197516 0.000220294 0.0684437 -0.0203422 -0.0908469 0.0810163 -0.14004 0.08885 3.30047e-05 -0.000126532 -0.0253709 -0.04538 0.000206456 0.0437836 -5.67052e-05
internal_weight=0 20.9257 8.83993 7.53809 3.49812 2.3358 1464.81 5.72809 1.00477 12.0858 10.3181 3.47859 1.76765 1.59803 4.72332 1.05721 6.83951 1.58401 5.25551 1.30185 1.16232 1.88056 3.66611 1459.08 1452.4 18.9086 13.1408 1433.49 8.60486 1424.89
internal_count=12273 2883 1082 880 380 304 9390 583 85 1801 1578 517 223 214 498 111 1061 247 814 202 76 303 387 8807 8032 1914 1319 6118 639 5479
is_linear=0
shrinkage=0.3


Tree=352
num_leaves=31
num_cat=0
split_feature=258 87 267 264 43 160 112 241 59 205 31 79 139 141 139 26 133 14 56 256 282 285 122 160 267 96 50 207 248 164
split_gain=0.0632871 0.101641 0.149662 0.108492 0.0960664 0.0774666 0.101635 0.0891452 0.0751545 0.0743723 0.200432 0.181634 0.173805 0.16322 0.166713 0.157924 0.151505 0.147251 0.140335 0.137065 0.127131 0.17668 0.152758 0.126572 0.123932 0.148268 0.120878 0.114279 0.105498 0.103434
threshold=-0.13254399597644803 -0.022792499512433947 -0.065843942873505604 -0.082302499562501838 0.032732998952269506 -0.036427713279144444 -0.0084268660702699182 0.024101500399410652 -0.027957293628079086 -0.0015343038811155986 -0.037118193467606274 -0.0018980000168084498 0.010797812761653839 0.03347538115478909 -0.067615501582622486 -0.0042220461178044339 -0.030535000376403297 0.054386999458074556 -0.075562499463558128 0.041666089485475198 -0.0035594858127556308 -0.10289799794554703 -0.11732799932360644 -0.053865000605583142 0.00078445372104072751 0.012186980990847212 0.042705824477559391 0.0033253635274427137 -0.012083999812602948 -0.010404999833553998
decision_type=2 2 2 2 2 2 2 2 2 2 2 2 2 2 2 2 2 2 2 2 2 2 2 2 2 2 2 2 2 2
left_child=1 4 -3 -4 5 8 7 -7 -1 10 18 12 24 14 27 16 -15 -16 28 23 21 -13 -23 -20 25 -11 29 -12 -2 -14
right_child=9 2 3 -5 -6 6 -8 -9 -10 11 13 20 26 15 17 -17 -18 -19 19 -21 -22 22 -24 -25 -26 -27 -28 -29 -30 -31
leaf_value=0.11593514580248571 -0.10995690321508905 0.11755342770435015 0.11052212114351619 -0.14813888420358426 -0.20161904976453915 -0.17974191561332933 0.11840375888454091 0.1686878896640322 -0.14500651713993182 0.033876574785899033 0.026384456786157928 -0.17047373416367481 -0.065691181472662966 -0.16610176507422669 0.091414992809616583 0.072859962803309516 -0.0090746269547903689 0.009138041823805931 -0.097670416299909538 -0.068517305180657656 -0.00015744430047137428 -0.13048807134451088 0.067586115116259504 0.031071272693621452 -0.14308367957392887 -0.11951090558297618 -0.11420380144951128 -0.15878599735702628 0.032700992664382915 0.11093684774824594
leaf_weight=0.13881522442534333 1.9204469936858006 0.27343521791772207 0.16211096591177909 1.4631521527253415 0.17588272080683953 0.22461163333173295 0.95997426963549559 0.093636043518927181 0.34929213087525557 1.1909480825652274 0.76730398863946792 0.33057011903019873 0.41009104904514959 0.788660719581458 7.4318339909887055 1.2668832503513829 1.8505844372116373 2.657812501754961 0.75383164452068552 1.945996138006193 1314.6038286042531 0.37431134992493742 5.4907439711923862 7.7862667473618821 1.8929377420272429 1.0828599745395875 0.4511460683243057 0.49249236813921016 0.61625952890972158 1.0955051052296765
leaf_count=20 240 48 41 324 49 65 135 26 85 246 148 94 68 216 993 245 394 423 147 314 4744 104 944 1147 302 212 75 141 116 167
internal_value=0 -0.0384334 -0.0877915 -0.122339 0.00981887 0.0308729 0.0696966 -0.0772256 -0.070796 0.00013006 0.0153538 -0.000194376 -0.0517429 0.0386892 0.0568937 -0.0142049 -0.0559976 0.0697416 -0.0119825 0.00333468 4.46127e-05 0.0429176 0.0549449 0.0197073 -0.0863784 -0.0391714 0.022011 -0.0460043 -0.0753 0.0628273
internal_weight=0 3.84091 1.8987 1.62526 1.94221 1.76633 1.27822 0.318248 0.488107 1355.2 28.2784 1326.92 6.12349 15.2556 11.3494 3.90613 2.63925 10.0896 13.0228 10.4861 1320.8 6.19563 5.86506 8.5401 4.16675 2.27381 1.95674 1.2598 2.53671 1.5056
internal_count=12273 793 413 365 380 331 226 91 105 11480 4524 6956 1070 2560 1705 855 610 1416 1964 1608 5886 1142 1048 1294 760 458 310 289 356 235
is_linear=0
shrinkage=0.3


Tree=353
num_leaves=31
num_cat=0
split_feature=199 131 72 70 47 244 288 146 24 220 184 170 218 269 259 228 9 188 250 96 282 68 55 279 62 237 142 44 213 239
split_gain=0.0698788 0.0997424 0.122342 0.0894497 0.0759629 0.0885219 0.072998 0.069458 0.141761 0.171487 0.146142 0.152939 0.145776 0.141087 0.208073 0.140952 0.132595 0.123165 0.10967 0.159396 0.19183 0.175239 0.148796 0.206449 0.139234 0.121251 0.14828 0.166644 0.154142 0.126947
threshold=0.042695499956607805 0.022768000140786105 -0.023990500718355148 -0.061642499640583943 -0.047445001080632147 -0.023388000205159146 -0.010482500307261899 0.035321999341249403 -0.044075403682827086 -0.00040400000580114993 0.01517158981234777 0.010458500124514053 -0.049024614035651205 0.12657999992370603 -0.05684609317253226 -0.025353097408629344 -0.02526226686022379 0.026949999853968554 0.10657950118184085 0.075158998370170552 -0.0084813703784728627 -0.050917733299928755 0.0093818714341191694 -0.030593000352382597 -0.0016809999942778997 -0.015534000005572949 -0.041652564771137775 0.032049000263214056 -0.081594996176890935 0.074248500168323461
decision_type=2 2 2 2 2 2 2 2 2 2 2 2 2 2 2 2 2 2 2 2 2 2 2 2 2 2 2 2 2 2
left_child=7 3 -3 -2 -4 6 -6 18 9 17 11 -11 15 14 -14 -10 -15 -9 25 22 -21 -22 23 -20 -24 26 27 -1 -28 -27
right_child=1 2 4 -5 5 -7 -8 8 12 10 -12 -13 13 16 -16 -17 -18 -19 19 20 21 -23 24 -25 -26 29 28 -29 -30 -31
leaf_value=0.064699691739002918 -0.095174868326265705 -0.10469749707117852 0.14973192410768865 0.10792661049267223 0.12734538447857766 0.13484090514125666 -0.11550494032880761 0.067734712098756422 -0.10104437165943082 -0.039526918952136204 0.049929319802717212 -0.14271532311863755 0.096178844705931701 -0.058827940495746217 -0.027101098570515705 0.016196705517494928 0.10176922967497049 -0.10934886560932032 0.11979820068398339 -0.18072303944612958 0.086993051136176155 -0.11242829380084235 -0.057174313410832782 0.020942195849120979 0.027752920610842006 -5.8552870174232913e-05 0.12870475873241818 -0.11377353560875482 -0.04927334268290523 0.042974773172649361
leaf_weight=2.51902475998213 0.21856907266192172 0.74468251396319862 0.43602295187884021 1.8223766442097247 0.14221962552983325 0.29561176581773863 0.51401365068159066 1.5380573314796491 2.1271094917101441 2.518817426083845 0.74141990556381632 2.6556065009208396 1.5302200274672939 0.56594258290715549 6.326299849907624 1.6302000030045753 2.53624301525997 0.4589726172707741 3.3221764881745912 0.71282260352745686 0.97224228424602199 0.66978489281609532 2.2917782608492452 4.4454187916708241 7.1819920097768719 1360.9941494092773 0.45553732871849106 0.57909776340238739 11.347562869943429 6.1976446291664606
leaf_count=263 30 95 46 181 15 24 88 126 264 207 74 200 140 62 781 195 154 71 153 69 57 31 180 295 423 6264 38 69 1177 501
internal_value=0 0.0387688 -0.00660213 0.0861761 0.0460325 -0.00147035 -0.0628741 -0.000107039 -0.0165952 -0.0489767 -0.0746366 -0.092485 0.000816444 0.0182999 -0.00308978 -0.0501765 0.0724709 0.027036 0.000159147 0.0224446 -0.0507667 0.00564884 0.032444 0.0632226 0.00720837 -0.000156832 -0.0270722 0.0313397 -0.0424043 0.000136522
internal_weight=0 4.1735 2.13255 2.04095 1.38787 0.951845 0.656233 1424.32 22.6289 7.91287 5.91584 5.17442 14.716 10.9587 7.85652 3.75731 3.10219 1.99703 1401.69 19.5962 2.35485 1.64203 17.2414 7.7676 9.47377 1382.09 14.9012 3.09812 11.8031 1367.19
internal_count=12273 479 268 211 173 127 103 11794 2274 678 481 407 1596 1137 921 459 216 197 9520 1208 157 88 1051 448 603 8312 1547 332 1215 6765
is_linear=0
shrinkage=0.3


Tree=354
num_leaves=31
num_cat=0
split_feature=160 119 277 201 133 92 262 124 161 84 287 274 69 102 281 291 125 220 56 28 56 82 73 148 284 100 57 213 299 176
split_gain=0.060756 0.139073 0.116339 0.0983698 0.091994 0.0872046 0.0829841 0.0807378 0.173769 0.15596 0.13722 0.130185 0.14675 0.124568 0.120948 0.132414 0.125961 0.12359 0.118044 0.134877 0.122037 0.167823 0.120449 0.116124 0.123593 0.114949 0.114774 0.119977 0.11439 0.112475
threshold=0.053774001076817457 -0.091852810303154828 -0.029671164763884091 -0.024364452607214471 -0.076742000877857194 0.071152999997138908 0.081668093500266978 -0.033425999805331195 -0.079270563073398595 -0.03710446934185789 0.062145405654204018 -0.056840000674128442 0.042516499757766654 -0.11100789242148683 -0.074730599247402649 0.014312499668449103 0.046660638341544734 -0.018853292069753527 -0.079665001481771427 -0.12124399840831754 -0.055641500279307289 0.086551498621702166 0.10571499913930892 0.14605168465214746 0.067861858634468988 -0.089848436997539291 -0.00085261497765542539 0.097212500870227772 0.039838999509811353 -0.060393501073121948
decision_type=2 2 2 2 2 2 2 2 2 2 2 2 2 2 2 2 2 2 2 2 2 2 2 2 2 2 2 2 2 2
left_child=7 3 -3 -2 -4 -5 -6 14 9 11 28 12 -9 -13 26 23 25 -18 19 -10 21 -20 -21 24 -16 -17 27 -1 -11 -22
right_child=1 2 4 5 6 -7 -8 8 18 10 -12 13 -14 -15 15 16 17 -19 20 22 29 -23 -24 -25 -26 -27 -28 -29 -30 -31
leaf_value=-0.11271301203975415 0.095411687405409576 0.082346091520521858 0.059817385841812676 0.025151754917543082 -0.105516079170707 -0.19039501540834267 0.063383806288948533 0.10379306529292186 -0.072056623774252648 0.0087677314053898701 0.097095623611427664 0.028033388898264983 -0.18712259876844944 -0.1184946140671746 0.048429382620186298 -0.033673508097349321 0.065153358524727131 -0.1641018822939688 -0.059334228128274623 0.028184395649853665 0.048191017785653961 0.11181214481362937 0.13060788717267718 0.12304988771857008 -0.0049087876002360462 0.043656439969902323 0.18076438971270731 0.1493848753655535 -0.080981388597392387 -4.2252850562862202e-05
leaf_weight=1.433713311289466 1.1161164133809505 0.46758525166296738 0.40220896500977676 0.52991257808025682 3.2019257108750026 0.24797814805060625 0.28511827581678506 0.63127657209406596 0.75933825259562571 3.4512991901539163 0.98602481761918159 0.60964639827216149 0.20730568156432128 3.6387981398519287 10.659266526425208 3.534432264976203 0.2853116481564939 0.81954913448862476 5.3825535774540176 2.905478767148451 4.3645174380653762 0.57028727075976338 1.6037229095018117 1.2668084808101401 6.174740135043975 3.3887170753368978 0.16222792453482071 0.17654127907007922 2.029822214772139 1421.2946491669336
leaf_count=175 125 108 53 72 623 29 43 51 66 407 87 38 43 521 1071 348 26 116 521 333 442 49 101 72 493 450 16 8 275 5511
internal_value=0 -0.0295344 -0.0590382 0.0383341 -0.0760361 -0.0435608 -0.091706 0.000104639 -0.000203275 -0.036847 -0.00593447 -0.076146 0.0318759 -0.097468 0.0160893 0.0212338 -0.0108343 -0.104901 9.13819e-05 0.0449143 -7.35729e-05 -0.0429383 0.0646119 0.0354565 0.0288649 0.00417766 -0.059747 -0.0839777 -0.024469 0.000105409
internal_weight=0 6.25085 4.35684 1.89401 3.88925 0.777891 3.48704 1476.34 1448.43 11.5542 6.46715 5.08703 0.838582 4.24844 27.9013 26.1288 8.02801 1.10486 1436.88 5.26854 1431.61 5.95284 4.5092 18.1008 16.834 6.92315 1.77248 1.61025 5.48112 1425.66
internal_count=12273 1053 827 226 719 101 666 11220 8445 1422 769 653 94 559 2775 2576 940 142 7023 500 6523 570 434 1636 1564 798 199 183 682 5953
is_linear=0
shrinkage=0.3


Tree=355
num_leaves=31
num_cat=0
split_feature=170 274 237 98 140 283 210 41 283 268 252 81 225 266 194 129 165 248 61 253 72 292 157 273 267 124 126 53 191 189
split_gain=0.0640072 0.0970573 0.0882559 0.0994163 0.0866854 0.0728993 0.0700318 0.164197 0.114194 0.117509 0.113952 0.0997464 0.120809 0.108711 0.086888 0.0832279 0.0826505 0.0816194 0.144957 0.131527 0.104479 0.0970596 0.315036 0.0977083 0.0805998 0.0695003 0.0685239 0.0650783 0.0621048 0.0608577
threshold=-0.05118630047060984 0.072924484260291925 0.0034775096713356877 0.021532601101986144 -0.011592995342102083 0.078155817299103578 1.0000000180025095e-35 0.031866500154137556 0.080498997122049318 -0.021286373989964417 0.051613001152873005 0.087268497794866562 -0.059038000181317295 -0.019913801188043753 0.042991226653353642 -0.041033498942851944 -0.017913413889057036 1.0000000180025095e-35 0.037595399346837331 -0.017407578429096682 0.021653000265359802 1.0000000180025095e-35 0.0034874998964368503 0.00132150005083525 0.02765639370946121 -0.044703433617571564 0.027282602178192904 0.086390581284398124 0.0072949458508585648 0.042783001437783207
decision_type=2 2 2 2 2 2 2 2 2 2 2 2 2 2 2 2 2 2 2 2 2 2 2 2 2 2 2 2 2 2
left_child=1 2 3 -1 25 28 11 8 9 15 -9 17 13 -13 26 -8 -10 21 19 -19 -20 23 -23 -2 -12 -4 -14 -11 -5 -6
right_child=6 -3 4 5 29 -7 7 10 16 27 24 12 14 -15 -16 -17 -18 18 20 -21 -22 22 -24 -25 -26 -27 -28 -29 -30 -31
leaf_value=-0.14740137711766996 -0.00015065868620864974 0.13940815531505787 -0.15283275107988425 -0.17233834676060394 -0.13001123563981906 0.17430416692236753 -0.074419230857045451 -0.11006444717911375 0.095264497482498822 0.16117152276943608 0.10299164002395125 -0.099719032656955434 -0.052241506572259462 0.16215808147653252 0.11587305701968748 0.062849231808930317 -0.13163305864745101 -0.01685251541067782 0.019137710037298857 0.1027273853483794 -0.12029085437410081 -0.14260189312788046 0.0073208254818978935 0.028347157346958182 -0.1861097123824231 0.091789888160339797 -0.18091117306686519 -0.051173560906267346 0.083659680389727389 0.13674356865251791
leaf_weight=1.2179235785929448 1321.3411782792778 0.24993427060689999 0.12102166615659371 0.2080803220051165 0.5057357715695614 0.16477244228372001 0.48278995343980557 1.0579090540823015 0.21391409319403465 1.4196138183833675 0.50198321766310972 0.24333197906162241 0.65320127690574625 0.34485899554056265 0.14706359494289234 2.2510442349230289 0.44518268069805333 1.1653059181389833 1.4206396027475423 2.8584960174143808 0.73338979572508822 1.8129865851042257 4.1465325381282128 10.917529778027982 0.10493401328858454 0.76701437970768893 0.86684668222733308 0.14297814069868753 0.14453025757393334 0.090790189497056417
leaf_count=327 5671 68 32 39 154 27 85 220 44 192 112 49 149 58 29 436 115 270 323 607 198 208 792 1588 27 152 198 43 36 24
internal_value=0 -0.0406817 -0.0546607 -0.1006 -0.00096208 0.00957059 0.000116384 0.030896 0.0582804 0.0761173 -0.0506163 -3.49338e-05 -0.0630731 0.0538207 -0.104316 0.0386079 -0.057992 7.08164e-05 0.0344741 0.0680967 -0.028334 -8.8005e-05 -0.0382882 8.28739e-05 0.053007 0.0584527 -0.125619 0.141742 -0.0674083 -0.0894116
internal_weight=0 3.4698 3.21987 1.73531 1.48456 0.517383 1353.27 6.62035 4.95552 4.29643 1.66483 1346.65 2.2553 0.588191 1.66711 2.73383 0.659097 1344.4 6.17783 4.0238 2.15403 1338.22 5.95952 1332.26 0.606917 0.888036 1.52005 1.56259 0.352611 0.596526
internal_count=12273 859 791 429 362 102 11414 1274 915 756 359 10140 483 107 376 521 159 9657 1398 877 521 8259 1000 7259 139 184 347 235 75 178
is_linear=0
shrinkage=0.3


Tree=356
num_leaves=31
num_cat=0
split_feature=180 235 197 217 251 215 264 216 259 93 3 299 280 23 12 183 293 112 176 293 111 194 250 37 168 282 31 246 172 162
split_gain=0.0735804 0.166396 0.155495 0.148141 0.124706 0.119916 0.141575 0.123947 0.119635 0.106103 0.105762 0.101516 0.142497 0.132823 0.130852 0.149888 0.134517 0.12419 0.107176 0.10183 0.1393 0.109435 0.0900891 0.184932 0.148561 0.132994 0.160593 0.152306 0.089201 0.098111
threshold=0.063893959352552834 0.014703025257932127 -0.0024275323428986431 -0.0029391277670694459 0.056451501324772807 0.042164219041767058 0.011823500040918502 -0.061685500666499089 -0.062589846997042412 0.053184999153017956 -0.0091654998250304976 -0.010451704602467703 -0.079080499708652441 -0.04869700036942954 0.05320279428938824 -0.0096247603669839445 -0.011559137161412502 0.078370999544858919 0.025560732779608877 -0.010517203229655879 0.0017585000023245501 -0.024713500402867745 0.14964099973440173 0.029314167165868221 0.045425999909639352 -0.024253000505268497 -0.036676850400065068 -0.023492500185966447 -0.028962189583308182 0.083355994291714919
decision_type=2 2 2 2 2 2 2 2 2 2 2 2 2 2 2 2 2 2 2 2 2 2 2 2 2 2 2 2 2 2
left_child=11 3 9 8 28 -5 7 -7 -2 -3 -6 12 17 -14 16 -16 -15 -1 22 -20 -21 -22 25 24 -24 26 -13 -27 -4 -30
right_child=1 2 4 5 10 6 -8 -9 -10 -11 -12 18 13 14 15 -17 -18 -19 19 20 21 -23 23 -25 -26 27 -28 -29 29 -31
leaf_value=-0.13660342434683845 0.15461019895766095 -0.10742988691771378 0.068820970333519416 0.12177325702115124 0.17070343244833211 -0.046095893209388769 -0.14908086771735388 0.13312768278051273 -0.081071775161002849 0.058371210291261126 -0.015995173202032552 -7.5756738976867225e-06 0.097168201634785512 0.014729948384326357 0.10667077297022129 -0.070151652199640577 -0.063283424236096023 0.063975967285087809 0.13413250537459318 0.12278928921702692 0.052332046619627655 -0.1049756193637455 0.11776208676375492 -0.076389643314435707 -0.028567742068596833 0.041336396990206956 -0.052001962333401867 -8.6989181425180194e-05 -0.057502679842803758 0.053628062954171177
leaf_weight=1.5882567678345356 0.24246661551296711 1.7551928245884476 1.1723460430512194 2.8977328425389706 0.77980023919371888 0.56460377032635722 0.34644694434246037 0.90226510107459024 0.9665791356237603 0.43308231083210547 0.42024540354032047 11.790608011637234 0.90145530700101417 2.9541916719463153 1.2995396566693669 0.64589230115961882 6.0897322825626379 0.33671180717647065 0.99297664202458724 0.79104477795772199 0.75009242672240406 0.84796272474341028 2.3206068663857873 0.88939247373491515 0.85430422026547592 8.035753267373364 9.7818166305114556 1359.8857044245415 2.5700456492695598 0.99054147387505498
leaf_count=202 18 228 158 291 84 81 42 81 114 35 46 1028 76 299 103 67 698 20 95 76 74 102 122 51 59 742 1130 5698 330 123
internal_value=0 0.0216193 -0.00626377 0.0598696 0.0189468 0.0839109 0.0234057 0.0641438 -0.0338072 -0.0746161 0.105323 -0.000205403 -0.025795 -0.0135364 -0.0226175 0.0479649 -0.0378004 -0.101518 4.76793e-05 0.0533875 0.0198277 -0.0311388 -8.17732e-05 0.0445177 0.0783877 -0.000212228 -0.0235839 0.000156349 -0.00295413 -0.0265865
internal_weight=0 14.0413 8.12125 5.92009 5.93298 4.71105 1.81332 1.46687 1.20905 2.18828 1.20005 1410.76 13.8158 11.8908 10.9894 1.94543 9.04392 1.92497 1396.94 3.38208 2.3891 1.59806 1393.56 4.0643 3.17491 1389.49 21.5724 1367.92 4.73293 3.56059
internal_count=12273 1631 1004 627 741 495 204 162 132 263 130 10642 1465 1243 1167 170 997 222 9177 347 252 176 8830 232 181 8598 2158 6440 611 453
is_linear=0
shrinkage=0.3


Tree=357
num_leaves=31
num_cat=0
split_feature=125 102 250 4 7 147 265 63 13 217 264 0 31 117 260 293 108 153 142 264 114 214 173 183 283 285 4 299 230 134
split_gain=0.0658179 0.123498 0.120405 0.109949 0.108917 0.107761 0.1048 0.102755 0.126702 0.0973716 0.102114 0.0971245 0.131499 0.113742 0.095794 0.0956223 0.0961695 0.0981417 0.132016 0.100749 0.156169 0.14238 0.0986729 0.0934237 0.0904066 0.118675 0.114764 0.0943644 0.0885439 0.0864585
threshold=0.02201759218784911 -0.079945494882960988 0.060495384519791022 0.024647999554872454 -0.10525752168486192 -0.010743000078946298 -0.049213999882340397 -0.051466500386595643 -0.052267000079154941 0.013904500287026103 -0.096446000039577442 0.0015915145916897482 -0.074860444371962251 0.04337299987673756 0.12969668134268683 0.061447000131011009 -0.09240099787712093 0.063071079583595133 0.041963176719497529 0.015408500097692001 -0.029618581981375246 0.00046772426077624997 -0.022054816254165773 -0.039582999423146192 0.075004499405622468 -0.079773999750614139 -0.07847949862480158 -0.04358471094837129 -0.043150376665260747 0.019331499934196403
decision_type=2 2 2 2 2 2 2 2 2 2 2 2 2 2 2 2 2 2 2 2 2 2 2 2 2 2 2 2 2 2
left_child=15 6 3 9 -4 23 -2 -8 -9 10 -3 13 -13 -6 -11 16 -1 19 22 21 -21 -18 -19 -5 25 -17 -27 -26 -29 -10
right_child=1 2 4 5 11 -7 7 8 29 14 -12 12 -14 -15 -16 24 17 18 -20 20 -22 -23 -24 -25 27 26 -28 28 -30 -31
leaf_value=0.066463495696795605 -0.16032903230750994 0.19586227213947147 0.120881511752178 -0.18159566305416036 0.081455545847202979 0.12805387356865572 -0.16852095509640977 0.11043959397147661 -0.096494857529839356 -0.10289988604290766 -0.026695467553369653 0.099125176992594155 -0.085503488548962295 -0.13274316246458101 0.12392556519519196 -0.10553592488177313 0.00017883424319834414 -0.031971407544449375 0.13086913272649042 0.083000603715947752 -0.00038907499348221462 -0.027047476854638965 -0.15575668673425455 0.036824192179765777 -0.1319474282748149 -0.098849034268225222 0.057864330974519214 -0.070252121866032469 0.12724617930079601 0.12627200276490974
leaf_weight=1.9580562329936118 0.88988688362587742 0.21190617534375622 0.95006552522863774 0.26452414642335498 1.7333131087252698 0.65973885711719027 0.43670370739710107 0.56938661754247788 1.0028653235385698 2.762904566793623 1.4913094272487777 0.45749315743159957 1.4399848649918565 0.25607948993274465 0.17838981971726742 0.66011758285094435 1429.1385639035925 1.4995712674017345 0.30059811672253989 3.3518823106278433 5.091344578569986 17.498422558972379 0.94466794993786529 0.52810432983096689 0.16419772763038087 0.49623020969568221 2.7583161109652101 0.2307876830891481 1.7802927851880661 0.1858609610935672
leaf_count=270 159 23 112 42 201 83 65 58 171 553 273 56 179 46 16 84 5868 235 46 257 523 2019 152 89 20 63 375 34 183 18
internal_value=0 -0.0204752 -0.005519 -0.0335597 0.0298259 0.0384839 -0.0734877 -0.038278 -0.00592652 -0.0560882 0.000994133 0.00756921 -0.0409884 0.0538834 -0.0891429 0.000179048 2.25476e-05 -6.66916e-05 -0.0567402 4.02164e-05 0.0327158 -0.000150493 -0.0798129 -0.0360691 0.0376928 0.0104454 0.0339698 0.0867276 0.104582 -0.0616646
internal_weight=0 14.0185 10.9338 6.09688 4.83694 1.45237 3.0847 2.19482 1.75811 4.64451 1.70322 3.88687 1.89748 1.98939 2.94129 1465.87 1459.78 1457.83 2.74484 1455.08 8.44323 1446.64 2.44424 0.792628 6.08994 3.91466 3.25455 2.17528 2.01108 1.18873
internal_count=12273 2144 1673 1079 594 214 471 312 247 865 296 482 235 247 569 10129 9370 9100 433 8667 780 7887 387 131 759 522 438 237 217 189
is_linear=0
shrinkage=0.3


Tree=358
num_leaves=31
num_cat=0
split_feature=85 166 161 147 221 234 53 29 254 173 125 229 183 272 124 209 170 180 242 190 185 112 240 233 269 119 71 200 18 147
split_gain=0.0629459 0.0989932 0.109325 0.108809 0.0908732 0.0893201 0.126362 0.122861 0.122241 0.148282 0.115439 0.112933 0.151296 0.118495 0.106162 0.104419 0.144264 0.0995216 0.213944 0.198631 0.135304 0.0936958 0.0853174 0.114701 0.0878031 0.0836184 0.0825778 0.0821303 0.0802405 0.0779857
threshold=0.026990400804826734 -0.054489536064055918 -0.03194200061261649 0.036037180150487125 -0.05004299354061046 -0.0039474999066441991 0.075969997793436009 0.13997349888086316 -0.099074402657634147 -0.028975000604987096 -0.027158500626683197 -0.023576249186284915 0.011651414030196037 0.070490498095750767 -0.0071316713455467752 0.015315975535092204 0.022575000301003404 -0.00090700000873764986 -0.0009094999986700499 -0.0063710000831633494 -0.0059890163266270646 0.059508471770382994 0.12730637904076555 -0.066480997949838541 0.15195499360561374 -0.022574999369680795 0.043565498664975104 -0.04587299935519689 -1.0000000180025095e-35 -0.032158050715831187
decision_type=2 2 2 2 2 2 2 2 2 2 2 2 2 2 2 2 2 2 2 2 2 2 2 2 2 2 2 2 2 2
left_child=5 25 3 22 -5 6 7 8 -1 -10 15 14 13 -13 29 16 -7 20 19 -19 -12 -22 24 -24 -3 -2 -4 -14 -16 -8
right_child=1 2 26 4 -6 10 11 -9 9 -11 17 12 27 -15 28 -17 -18 18 -20 -21 21 -23 23 -25 -26 -27 -28 -29 -30 -31
leaf_value=-0.025063224750735254 -0.12502281700289997 0.048311258348922533 -0.11649312451945074 0.12695010759879183 -0.15823510018955181 0.10087334190978675 -0.18185146907576519 -0.14198598422256217 0.013541043184235158 0.076950156362646752 -0.080066211230616371 0.06517401810536555 -0.18322833668569902 -0.056572714040718716 0.10815326333761786 -0.12457180877967802 -0.19421012032293436 -0.0067535123126648859 5.3526823134776649e-06 -0.17311274437599961 0.11614673620127211 -0.050987800584543809 0.10700359904018798 -0.17261125940732172 -0.10416433877111271 0.0061597537602019314 0.099496298397228594 -0.0041852816578384225 -0.1658786013183603 -0.056254985147968936
leaf_weight=2.3927427570306508 1.3768635471315067 4.3904474464197847 1.1410026149164858 0.12338499072939157 0.54358945560625205 0.52836358829290375 0.6063054658916377 0.35123218836543024 6.013216046477285 7.4084832926573609 0.52531445122804177 3.2660508028675386 0.4723770054133638 0.92277420084519679 0.47451769371400587 1.2622674804081269 0.20773745243263875 1.35047501930967 1313.8789869512475 1.2381772544449621 1.8703080240175034 0.35997958425286913 0.19431781165258144 0.41193581115885525 0.36842298539704632 0.6408594839813303 0.18516201792590425 0.45048243990095205 0.12061298421758682 1.6718104703431891
leaf_count=452 350 894 475 30 132 135 85 58 1168 1194 107 443 87 135 82 385 102 291 4544 96 259 61 28 105 76 129 53 68 31 218
internal_value=0 -0.0244902 -0.00834813 0.00879764 -0.105478 0.000176153 0.0182562 0.0335074 0.037405 0.0485415 -0.000154332 -0.0126203 0.0141283 0.0383539 -0.0602077 -0.0722038 0.0175969 -4.51904e-05 -0.000164404 -0.0863247 0.056908 0.0891704 0.023004 -0.0829885 0.0365069 -0.0833572 -0.0863362 -0.0958307 0.0526162 -0.0896817
internal_weight=0 9.37599 7.35826 6.0321 0.666974 1345.37 24.1506 16.1657 15.8144 13.4217 1321.22 7.98493 5.11168 4.18883 2.87325 1.99837 0.736101 1319.22 1316.47 2.58865 2.7556 2.23029 5.36512 0.606254 4.75887 2.01772 1.32616 0.922859 0.595131 2.27812
internal_count=12273 2272 1793 1265 162 10001 4021 2872 2814 2362 5980 1149 733 578 416 622 237 5358 4931 387 427 320 1103 133 970 479 528 155 113 303
is_linear=0
shrinkage=0.3


Tree=359
num_leaves=31
num_cat=0
split_feature=245 275 153 217 200 101 13 98 179 214 166 288 21 0 218 152 279 238 167 157 5 111 185 265 172 220 2 7 92 5
split_gain=0.0709489 0.0983215 0.109172 0.114399 0.0981338 0.0997598 0.0787889 0.0784689 0.0904158 0.0783838 0.125313 0.184627 0.15351 0.143787 0.138582 0.16688 0.124202 0.157974 0.16669 0.200186 0.138005 0.132702 0.127161 0.121472 0.106039 0.161506 0.224949 0.123029 0.120881 0.133025
threshold=0.040649000555276857 1.0000000180025095e-35 -0.045879817301770154 -0.011906666837214388 -0.021223500370979247 0.00071732722759912946 -0.11082099750638004 0.041525499895214958 -0.058823000639676999 -1.0000000180025095e-35 -0.057484155054846893 0.017036499455571154 0.048977637891846365 0.065943952192228886 -0.028069694300576258 -0.016065999865531897 -0.016599000431597195 -0.08030899986624708 0.04291300995015588 0.05008437251152506 -0.10088837874124278 0.081774000078439713 0.079384997487068162 1.0000000180025095e-35 0.0040111388631286111 -0.00040400000580114993 -0.017815496680716369 -0.1001604638391181 0.14662250131368634 -0.012976999860256848
decision_type=2 2 2 2 2 2 2 2 2 2 2 2 2 2 2 2 2 2 2 2 2 2 2 2 2 2 2 2 2 2
left_child=9 4 -3 -4 5 6 -2 8 -5 10 11 14 13 23 15 -1 17 20 21 -20 -11 -19 -22 -12 25 26 -18 -27 29 -26
right_child=1 2 3 7 -6 -7 -8 -9 -10 16 12 -13 -14 -15 -16 -17 24 18 19 -21 22 -23 -24 -25 28 27 -28 -29 -30 -31
leaf_value=-0.17457801049272983 -0.12755323897597629 0.11095496429506492 0.1499132272149134 0.12743592109429264 0.13862773439278117 -0.071220208251944125 0.075234433747772 0.093633276368612892 -0.13235263340209419 0.15010154762739883 -0.01586057360454092 -0.04458890801628513 0.055457224365688292 0.11157550435987715 0.083973950103927456 0.041219165447232649 -0.033009468249488007 0.016372706106380953 0.095775654790296844 0.0052407247445207007 -0.077676111140702178 -0.10749033825437097 0.16439660431105732 -0.060626774118221621 -0.0064794566516452566 -0.088298345589949007 0.10203325243187589 -6.9303033012418512e-06 0.14653232643333544 -0.076673246497012335
leaf_weight=0.46140116569586087 0.18650844390504095 0.46167111996328491 0.21994142443873022 0.13365504614193913 1.0389816652168509 0.66171143599785853 2.2851436808414296 0.20148541461094271 1.2317650664481328 0.31449413998052511 11.998641482162393 2.7445973923749989 1.9517397768431681 0.60887929581804101 3.599585835938341 1.0714827489864545 1.710891941853333 6.6612971083450274 5.8581719552457781 3.5181617867783643 2.5959958672610841 0.88147337653208513 0.21118941553868342 10.003525579149935 5.6812998366440288 1.4219061619951379 3.1617198050662401 1345.9955806817015 0.33572745253332037 4.2456689949904076
leaf_count=55 18 45 17 13 96 79 270 23 141 24 1300 272 238 61 255 78 216 732 442 435 251 118 9 964 546 151 265 4645 23 491
internal_value=0 0.0314761 -0.0190936 -0.0526945 0.0587286 0.0322352 0.0599323 -0.0811339 -0.106923 -0.000130673 -0.0147074 0.0182185 -0.0252664 -0.0322343 0.0518048 -0.0237362 0.000211341 0.0236567 0.0350977 0.0618054 -0.0383518 0.00189766 -0.0594646 -0.036214 -0.0001335 9.70537e-05 0.0546165 -0.000100103 -0.030513 -0.0365007
internal_weight=0 6.42086 2.24852 1.78685 4.17235 3.13336 2.47165 1.56691 1.36542 1415.03 32.4399 7.87707 24.5628 22.611 5.13247 1.53288 1382.59 20.0408 16.9191 9.37633 3.12168 7.54277 2.80719 22.0022 1362.55 1352.29 4.87261 1347.42 10.2627 9.92697
internal_count=12273 702 239 194 463 367 288 177 154 11571 3223 660 2563 2325 388 133 8348 2011 1727 877 284 850 260 2264 6337 5277 481 4796 1060 1037
is_linear=0
shrinkage=0.3


Tree=360
num_leaves=31
num_cat=0
split_feature=245 172 167 154 236 108 299 180 50 103 291 174 191 154 155 132 8 220 239 223 125 146 288 119 125 85 217 134 8 124
split_gain=0.0638147 0.0809452 0.101319 0.0965814 0.0813898 0.0766074 0.0905898 0.0880132 0.0853207 0.125317 0.0743168 0.107145 0.0949999 0.0747648 0.0882934 0.074627 0.113545 0.108397 0.112352 0.0965853 0.131289 0.119942 0.188695 0.127947 0.108223 0.102602 0.0742829 0.0741593 0.0723595 0.0715171
threshold=-0.071411298070840415 0.021758275096267671 0.019011717534769875 0.018414500169455953 -0.07214124188802952 0.0078105825227997314 0.093224998563528019 0.0040206519399501517 0.070253088867835531 0.044031500816345159 0.043460499495267806 -0.0056642007185294082 0.082693443966824889 -0.012467500288039399 0.036352999508380855 -0.065685499459504984 0.10336050018668171 -0.048009499907493543 0.057294429780580455 -1.0000000180025095e-35 -0.074019499123096383 0.033273499459028209 -0.049427999183535541 -0.009228750525443313 -0.06495400145649903 0.043953712176095706 0.098825352803529651 -0.019617499783635098 0.018436500802636101 -0.053834948005745988
decision_type=2 2 2 2 2 2 2 2 2 2 2 2 2 2 2 2 2 2 2 2 2 2 2 2 2 2 2 2 2 2
left_child=1 5 4 29 -3 6 8 -7 26 -10 15 27 13 -13 -15 16 17 -2 -19 21 25 23 -23 -17 -22 -21 -1 -12 -29 -4
right_child=10 2 3 -5 -6 7 -8 -9 9 -11 11 12 -14 14 -16 19 -18 18 -20 20 24 22 -24 -25 -26 -27 -28 28 -30 -31
leaf_value=0.14140958419274283 -0.13371603258254924 -0.087836151782143448 0.073892653910953773 0.070632866578707432 0.1198758966567232 0.080720408068797087 -0.055634909836056623 -0.11461014667971525 -0.16810232189124907 0.17161225953912881 0.11532800642459536 -0.10638378000125041 0.16621277731209572 -0.067494631659671928 0.046706816696783039 -0.021895757813009859 0.17375678739412834 -0.0048599795029209266 0.095969141967089597 0.12736592096885571 -0.097026910702755029 -0.15138617767223109 0.024778376884821856 -0.10033230189299504 0.00015984707082307865 -0.0067449200029271374 -0.048972769831869142 0.14137689788744304 -0.15328982047925618 -0.13150139737853012
leaf_weight=1.9831220827563818 0.3708244448644108 0.22622767927168752 0.17975619151548006 0.39594073632906646 0.68045183223148376 0.39187466085422773 0.38494506874121714 0.44152626243885607 0.2347083686327095 0.1674543432527571 0.6487683610048407 1.9031652734702218 0.17213141066895321 1.8018557915747799 0.92059224292461284 17.968379725665276 0.48978239914868016 2.479257563571081 1.6609181504545629 1.2981035455013619 1.0319558213523112 0.58811834300286125 7.8703200920108412 2.0893334721731689 1428.5188995358731 0.84934679174330074 0.20336465293075878 0.11119907386455441 0.23041413677856326 1.0089184775315514
leaf_count=272 49 31 17 76 119 56 43 70 33 25 86 278 18 341 104 2136 48 393 172 116 71 91 1069 362 5922 64 36 15 47 113
internal_value=0 0.03011 -0.0119321 -0.0576954 0.0680492 0.0576223 0.0801518 -0.0227635 0.100344 -0.0266504 -0.000152033 -0.0340786 -0.0526233 -0.0607668 -0.0288776 -1.80111e-05 0.0365674 0.021672 0.0355897 -0.000143305 0.000201036 -0.0174315 0.0125296 -0.0300662 8.96905e-05 0.0743232 0.123702 0.0557583 -0.0573724 -0.100441
internal_weight=0 6.29829 2.49129 1.58462 0.90668 3.807 2.97359 0.833401 2.58865 0.402163 1471 5.78813 4.79774 4.62561 2.72245 1465.22 5.00078 4.511 4.14018 1460.21 1431.7 28.5162 8.45844 20.0577 1429.55 2.14745 2.18649 0.990382 0.341613 1.18867
internal_count=12273 891 356 206 150 535 409 126 366 58 11382 889 741 723 445 10493 662 614 565 9831 6173 3658 1160 2498 5993 180 308 148 62 130
is_linear=0
shrinkage=0.3


Tree=361
num_leaves=31
num_cat=0
split_feature=208 66 287 236 180 169 275 295 131 159 236 100 174 83 130 69 92 71 251 85 283 53 125 271 278 7 127 223 262 247
split_gain=0.0628687 0.0928332 0.0852484 0.0700598 0.0600581 0.0713236 0.0850253 0.0628591 0.0727907 0.071973 0.134309 0.0977156 0.0647902 0.0668681 0.0607957 0.0774061 0.0612098 0.0529101 0.0535018 0.0523752 0.0440349 0.0436018 0.0377858 0.035599 0.0305784 0.0267769 0.0254812 0.0252825 0.0109451 0.00722649
threshold=-0.09310871025552199 -0.058326499536633443 0.027895499952137404 -0.034790404076508873 -0.069302499294280936 -0.051999999210238394 0.023475000634789404 -0.097586955795104458 -0.053066499531268997 0.0073329439784212682 0.066260019772154177 -0.11874699965119354 0.13352850079536435 0.024832000024616701 -0.021902999840676746 0.058393820941854198 0.011251499876379903 -0.11404899880290029 -0.017974499613046594 -0.025088499300181796 0.072457998991012504 0.025774675699526555 0.026394584255397861 0.05404949933290476 -0.038341108510592227 -0.066573175092522738 0.0095660001970827007 -0.002924553344589968 -0.048115784406530436 -0.0089743589557515994
decision_type=2 2 2 2 2 2 2 2 2 2 2 2 2 2 2 2 2 2 2 2 2 2 2 2 2 2 2 2 2 2
left_child=1 26 3 22 5 6 21 14 12 11 -11 -10 13 -9 15 29 23 -4 -19 -7 -18 -2 -3 -16 -21 -20 -1 -8 -5 -6
right_child=4 2 17 28 7 19 27 8 9 10 -12 -13 -14 -15 16 -17 20 18 25 24 -22 -23 -24 -25 -26 -27 -28 -29 -30 -31
leaf_value=-0.19842986056175521 0.056784316720074481 -0.10799320335559376 -0.1840230972709879 -0.065064124461107792 -0.088336711899766426 0.051797852924498546 0.18237244696087046 -0.16093830280526447 -0.045334695161627601 0.026002308435923722 -0.091943313520370704 4.9381290944235155e-05 0.17361998952088542 -0.021524205527624737 -0.159364685572464 0.16926135969477843 0.15574571002970419 -0.11639107090729039 0.020621461583507614 0.046625777327554192 0.023430669811564483 -0.20125010441591223 0.14716465235962589 0.060581304996382104 -0.19920305210551767 0.16823029515847501 -0.015709565282818121 0.010738639364171956 -0.19815205106101483 -0.20133460025647745
leaf_weight=0.40674452525490767 0.08791491664305795 0.090195503043105307 0.073326822035596706 0.067584823536890215 0.081312991900631459 0.11033602461975534 0.19117591034591896 0.5914535091142159 4.2835190475132086 15.997146459951182 0.91883935665146133 1325.4656464744801 0.091507411736529209 0.64982612531457562 0.12572378380354954 0.091871884629654232 0.77375204977943191 0.099434984993422404 0.15850964078708785 0.050377848398056813 0.31998755291715497 0.1788112437534437 0.12410678711239598 0.13995479195727967 0.47420854774554644 0.36598666911595501 0.082646375545664341 0.12961044399708044 0.31399178664787453 0.13634881298639823
leaf_count=108 15 35 17 21 26 23 20 141 906 2958 255 6714 15 152 31 17 193 24 46 18 78 49 25 43 133 53 20 27 81 29
internal_value=0 -0.0562846 -0.0141673 -0.0974893 9.3038e-05 -0.0663727 0.0089589 0.000153238 8.11988e-05 0.000150552 0.0195958 -9.68144e-05 -0.0699939 -0.0879532 0.0583387 -0.061655 0.0856608 0.05704 0.0853706 -0.136079 0.117035 -0.1162 0.0397739 -0.043501 -0.175595 0.123621 -0.167573 0.113026 -0.17458 -0.159121
internal_weight=0 1.78253 1.29314 0.595879 1350.89 1.22243 0.587513 1349.67 1348 1346.67 16.916 1329.75 1.33279 1.24128 1.66895 0.309534 1.35942 0.697258 0.623931 0.634922 1.09374 0.266726 0.214302 0.265679 0.524586 0.524496 0.489391 0.320786 0.381577 0.217662
internal_count=12273 430 302 162 11843 285 111 11558 11141 10833 3213 7620 308 293 417 72 345 140 123 174 271 64 60 74 151 99 128 47 102 55
is_linear=0
shrinkage=0.3


Tree=362
num_leaves=31
num_cat=0
split_feature=12 148 2 85 92 11 35 288 2 275 115 154 186 10 119 124 271 18 197 158 229 159 275 217 28 232 235 131 47 266
split_gain=0.0643887 0.109849 0.105264 0.118514 0.0878858 0.0848752 0.0829945 0.10191 0.0966688 0.0839156 0.0691887 0.103665 0.101551 0.102566 0.112397 0.0980659 0.135088 0.109094 0.132355 0.0954324 0.0803142 0.080265 0.076775 0.0761576 0.188645 0.129612 0.115978 0.110754 0.106811 0.0811828
threshold=-0.073129497468471485 0.071042259781758446 -0.011019499972462599 -0.033597500994801494 -0.020496499724686094 -0.085689999163150746 -0.076424346098779058 -0.0047127233568642945 0.045413499698042856 -0.071473833347175844 -0.082637500017881338 -0.037630001083016347 0.042772499844431856 0.017639500088989703 -0.01367571228808071 -0.067297000437974888 0.092411993015771743 0.020367499440908404 0.059628109283839763 0.00088999999570655013 -0.070532001554965876 0.022458419003011706 -0.053540999069809844 0.097031082287801593 -0.048757500946521745 0.039601698262465027 0.054745499044656705 -0.026234142588391993 -0.075034499168395927 -0.011345596329737641
decision_type=2 2 2 2 2 2 2 2 2 2 2 2 2 2 2 2 2 2 2 2 2 2 2 2 2 2 2 2 2 2
left_child=1 2 3 -1 -5 -4 -3 8 -8 -9 11 20 13 14 -13 16 17 18 -12 -19 -2 -15 -18 26 25 -25 27 -17 -28 -26
right_child=10 6 5 4 -6 -7 7 9 -10 -11 15 12 -14 21 -16 23 22 19 -20 -21 -22 -23 -24 24 29 -27 28 -29 -30 -31
leaf_value=0.13015933608868785 -0.041920332380737696 0.088411548399656009 -0.093024403210118026 0.122986143651254 -0.091095670557158656 0.10399761527562983 -0.14117185380535069 -0.17482690919093055 0.04765483484710159 0.065743050703177264 -0.092190300879722645 -0.077127797227685216 -0.11305207340845991 0.11248296340911809 0.12557926332373254 0.04658849660778825 -0.1088830796516171 0.05503570559378692 0.041996612617017544 -0.13807288282442887 0.15004926250848435 -0.0081081238951948055 0.11481446023818309 0.052907372505712064 0.14051647080901641 -0.063598081239166993 0.069037169055468223 -0.00017259834086821263 -0.046360468966043046 0.024690726303772344
leaf_weight=0.42972559138433997 0.24611989501863718 0.53763392381370101 0.21183782594744149 0.20926795143168408 0.98453870673256449 2.7695257777158977 1.027051369288529 0.15368810392101295 0.3200426989933477 0.86483059384045147 4.2210525636710363 1.1294733644681398 0.51712027582107101 1.4145595633890482 0.31479995345580336 4.5737465340225745 0.16945206734817475 1.2675162808736784 0.78450333594810207 0.28146771618048649 0.96590860723517813 0.76560940936906252 0.74590693099889893 1.5782162714604058 1.5282250920427034 1.8868773931462781 0.79769934518844809 1378.973837220412 7.5945989774377249 0.84618377857259375
leaf_count=45 16 39 33 18 150 300 125 35 30 117 433 124 58 136 32 477 29 151 84 35 93 64 66 141 162 250 90 7968 871 101
internal_value=0 0.0277142 0.0565269 -0.00493822 -0.0535683 0.0899984 -0.0179862 -0.0421672 -0.0963104 0.0294425 -0.000141386 0.0338987 0.0113153 0.0290596 -0.0329449 -0.000271069 -0.034553 -0.0496294 -0.0711597 0.0199457 0.111067 0.070135 0.0734034 -8.7862e-05 0.0341007 -0.0105343 -0.000231291 -1.8015e-05 -0.0353918 0.0992389
internal_weight=0 7.50814 4.6049 1.62353 1.19381 2.98136 2.90325 2.36561 1.34709 1.01852 1410.6 5.35359 4.14156 3.62444 1.44427 1405.25 7.4699 6.55454 5.00556 1.54898 1.21203 2.18017 0.915359 1397.78 5.8395 3.46509 1391.94 1383.55 8.3923 2.37441
internal_count=12273 892 546 213 168 333 346 307 155 152 11381 523 414 356 156 10858 798 703 517 186 109 200 95 10060 654 391 9406 8445 961 263
is_linear=0
shrinkage=0.3


Tree=363
num_leaves=31
num_cat=0
split_feature=49 204 218 147 258 114 183 81 147 254 235 285 56 166 199 122 76 118 229 173 289 43 224 295 44 79 279 87 175 128
split_gain=0.066006 0.0962866 0.147854 0.159768 0.127786 0.125312 0.108351 0.116948 0.0960481 0.0930859 0.118465 0.124794 0.125871 0.130586 0.0918787 0.0891272 0.101163 0.0885008 0.085034 0.158718 0.125371 0.13761 0.125003 0.105949 0.0950221 0.136297 0.161589 0.121286 0.119054 0.142313
threshold=0.074392372317169497 -0.015116499736904999 0.0076975000556557512 0.0069209818925954469 -0.0021422531625955449 -0.030032180203362031 0.036264000460505409 0.079488500952720614 0.043671639434318454 0.016981000080704602 0.10127537792110616 -0.04900549910962574 0.010011999867856452 -0.0085680000483988987 -0.0030950691373519785 -0.032539414724060627 -0.031723998486995642 0.065464999526739107 -0.032968001440167344 0.039743840491863074 -0.029755056570543316 -0.010364768493482928 -0.13676749914884562 -0.023384314928840712 -1.0000000180025095e-35 -0.025525500066578295 0.060042097084166676 0.024818564874333589 -0.041552923821376257 0.08771681269671415
decision_type=2 2 2 2 2 2 2 2 2 2 2 2 2 2 2 2 2 2 2 2 2 2 2 2 2 2 2 2 2 2
left_child=1 2 3 4 5 -1 7 8 -4 10 11 14 13 -13 -2 16 -5 -8 19 20 22 -22 -3 -21 25 27 -27 -20 29 -26
right_child=9 18 6 15 -6 -7 17 -9 -10 -11 -12 12 -14 -15 -16 -17 -18 -19 24 23 21 -23 -24 -25 28 26 -28 -29 -30 -31
leaf_value=0.045994494760444413 0.087383473226155334 -0.14251031350972154 -0.11387912630365972 -0.015825788060687712 -0.12041923070302145 -0.030996927060685409 0.10142937415804168 0.065891305423528834 0.049694557765599258 0.081506756870865199 -0.16990128946187452 0.038936124102570066 -0.10333586804826547 -0.042921176288987492 -0.02683771362573192 -0.049333054038922484 0.12331543922856003 -0.14939792574158506 0.054140516925974783 0.032498991797656383 0.0063566303734461102 0.098554857095292062 0.017799088453759455 -0.15945526672438767 0.019027211195245804 -0.061314796749931996 0.1039279465965311 -0.083654078660756429 -5.4211367163394292e-05 0.15576356776504338
leaf_weight=2.5575403012189772 2.8360021229132149 0.52981174248270724 3.5833408605476502 0.65752498702204398 1.0688829542850751 7.4299087029567081 0.54653644153586345 0.42855663713999081 0.35509084113436973 1.928277784223609 0.31855057072607529 4.793342570184902 1.0190173558839886 2.7661871871641788 0.81623808282892873 0.5640414981826315 1.6513931306108132 0.1647697813459672 2.5718019728192307 0.43394924202584662 2.3229632632501298 3.9081110001425259 2.5198133423964455 0.64112219500020617 2.5924938487260074 7.2793451110821916 0.57465541541932896 0.74040471675107244 1416.6450085196375 0.93107447851798486
leaf_count=265 349 36 573 119 237 1002 92 40 43 236 38 475 163 352 113 140 171 38 329 57 269 334 299 102 348 1119 76 131 4671 56
internal_value=0 -0.000217664 -0.0214304 -0.00545434 -0.0218323 -0.0112813 -0.0652512 -0.0829367 -0.0991312 0.020139 0.0107095 0.0154135 -0.00435911 0.00898286 0.0618562 0.057575 0.0836913 0.0433267 6.20092e-05 0.027149 0.0397897 0.0641831 -0.0100515 -0.0819735 -0.000133966 -0.0277004 -0.0492244 0.0233382 8.27769e-05 0.0551587
internal_weight=0 1460.7 19.0076 13.9293 11.0563 9.98745 5.07829 4.36699 3.93843 14.4776 12.5493 12.2308 8.57855 7.55953 3.65224 2.87296 2.30892 0.711306 1441.69 10.3558 9.2807 6.23107 3.04963 1.07507 1431.33 11.1662 7.854 3.31221 1420.17 3.52357
internal_count=12273 10547 2720 1934 1504 1267 786 656 616 1726 1490 1452 990 827 462 430 290 130 7827 1097 938 603 335 159 6730 1655 1195 460 5075 404
is_linear=0
shrinkage=0.3


Tree=364
num_leaves=31
num_cat=0
split_feature=287 260 11 262 148 207 9 99 147 77 262 173 254 106 182 280 35 95 138 239 87 16 211 154 155 170 276 66 219 39
split_gain=0.0563299 0.131669 0.0873448 0.0751344 0.0728953 0.0695292 0.0754112 0.0654435 0.0785277 0.0606346 0.0962846 0.138158 0.159316 0.200163 0.119045 0.121528 0.105918 0.0982844 0.0860203 0.0838274 0.0824517 0.110746 0.0961285 0.0714873 0.077433 0.0604446 0.0593163 0.0561339 0.0581881 0.0526174
threshold=0.071571502834558473 0.072275036960517944 0.028502668334156732 -0.047030499204993192 0.13525168436367119 0.079107001423835713 0.05697499960660931 -0.015162500087171748 -0.010743000078946298 0.058626751207402551 -1.0000000180025095e-35 -0.019294999539852049 -0.024195499718189194 -0.010003609497680565 0.091016996651887866 -0.055843522226203944 -0.056391579764434832 -0.035683998838066992 0.058388868872570887 -0.046703280663980877 -0.0041987122567935303 -0.0008817766547919544 0.025910577039262406 0.023336975708580822 -0.011721500195562748 0.028086999431252403 0.0043830000795423507 -0.079676918048769182 -0.013551999814808298 -0.11012849956750863
decision_type=2 2 2 2 2 2 2 2 2 2 2 2 2 2 2 2 2 2 2 2 2 2 2 2 2 2 2 2 2 2
left_child=9 2 4 -3 5 6 -2 -5 -9 10 11 14 16 -14 15 -1 -13 23 19 -11 22 -22 -19 29 -25 -10 -20 -21 -29 -12
right_child=1 3 -4 7 -6 -7 -8 8 25 18 17 12 13 -15 -16 -17 -18 20 26 27 21 -23 -24 24 -26 -27 -28 28 -30 -31
leaf_value=-0.036944649866673646 0.089995173856987562 -0.16267449909092294 -0.14666923876990212 0.13245686584166128 -0.19924806505244788 -0.20121734908194452 -0.1770094045926269 -0.16999483880950358 -0.11635416581308601 0.14444102874200257 0.12183176091276665 0.073640492946376743 -0.066220854022712008 0.12064733599423942 -0.13754334129178009 0.025107938589969694 -0.0050371402421734357 0.05611648439717852 0.1557458648738059 -0.15938214078178572 -0.054117709656414173 -2.6263415087592545e-05 -0.18779372524282842 0.08522579791706035 -0.12866762730910142 0.1267026581946166 -0.064408669394843868 0.00028630105728405883 -0.1466967450716421 -0.15827386758315917
leaf_weight=4.3254011973367588 1.413264490429355 0.82266991719916405 0.25691751846170507 0.16609434069141571 0.10664233355782915 0.08873152266278328 0.1020769671013112 0.38800251677457709 0.16130073776730547 0.14409951653215136 0.065557871363125741 2.1514245541766286 0.61043646198777457 3.3307145523776835 0.56008869104698611 8.2742988325960596 5.4182779103925895 3.3914365440234628 0.27861673277402577 0.70285554407610096 3.4154180852010532 1312.2776617786803 0.15193860174531426 0.37375069756240009 0.25711593766618535 0.2145906143123284 0.18215411307028262 0.70396825886018621 0.36971241094988627 0.76082873387986072
leaf_count=894 324 155 75 31 16 18 25 93 47 22 12 289 125 514 117 1467 922 770 58 154 768 4398 73 112 153 40 42 185 103 271
internal_value=0 -0.0368333 0.0164329 -0.0966328 0.0409278 0.0568952 0.0720091 -0.0382122 -0.075321 0.0001326 0.000217259 0.0187863 0.0427907 0.0917037 -0.00221024 0.00380566 0.0173242 -0.000129613 -0.0476952 -0.0756223 -4.35988e-05 -0.00016668 0.0456577 -0.0779971 -0.00194858 0.0224033 0.0687133 -0.0934722 -0.050326 -0.136053
internal_weight=0 3.72029 1.96763 1.75266 1.71072 1.60407 1.51534 0.929988 0.763894 1347.75 1345.36 24.6706 11.5109 3.94115 13.1598 12.5997 7.5697 1320.69 2.38141 1.92064 1319.24 1315.69 3.54338 1.45725 0.630867 0.375891 0.460771 1.77654 1.07368 0.826387
internal_count=12273 824 458 366 383 367 349 211 180 11449 10885 4328 1850 639 2478 2361 1211 6557 564 464 6009 5166 843 548 265 87 100 442 288 283
is_linear=0
shrinkage=0.3


Tree=365
num_leaves=31
num_cat=0
split_feature=210 251 276 109 130 292 103 70 237 174 273 235 100 96 71 165 111 246 92 34 139 154 48 130 155 114 290 254 214 288
split_gain=0.0619206 0.0736398 0.0793574 0.0642814 0.158364 0.150886 0.164384 0.139634 0.188689 0.16871 0.159475 0.149626 0.126211 0.109998 0.108221 0.0989016 0.0984036 0.124586 0.110678 0.114699 0.10226 0.0930655 0.147523 0.119847 0.100788 0.0956856 0.132309 0.0921711 0.0915933 0.0881305
threshold=-0.14175972177030802 0.013532137034869083 -0.020624500699341245 0.081764500588178621 -0.0098414998501538484 -0.013044500257819848 -0.033574499189853592 -0.029436499811708847 0.00193550001131365 0.074432000517845112 0.0070631320299315223 0.016025284693406458 -0.095557998865842778 0.05252899974584576 -0.038651000708341543 -0.0058285000268368994 0.055029965551513786 0.036580973968721973 0.085912499576806967 0.055634500458836555 0.051228499040007557 0.034865999594330753 -0.054414499551057746 0.0076923241783546864 -0.05502130625351908 0.050352999940514558 -0.062574475550586803 -0.0050695000682025992 0.0097044999711215028 0.034187998622655806
decision_type=2 2 2 2 2 2 2 2 2 2 2 2 2 2 2 2 2 2 2 2 2 2 2 2 2 2 2 2 2 2
left_child=1 -1 -3 16 5 6 28 8 9 -6 13 -10 -8 -9 -12 -7 21 20 19 -19 27 25 23 -23 -24 29 -27 -18 -5 -2
right_child=3 2 -4 4 7 15 12 10 11 -11 14 -13 -14 -15 -16 -17 17 18 -20 -21 -22 22 24 -25 -26 26 -28 -29 -30 -31
leaf_value=0.13258168186872141 0.00016101402102525477 -0.20139862059712235 0.067227515408342514 -0.13839663800479257 -0.061264237703584502 -0.14361321268054669 0.11451658735742801 0.016312704665068772 -0.046841668501223871 0.045746048387060541 -0.0093432592261856445 -0.16636801002878854 0.0037356216872109194 0.1418008881367919 -0.1234789751919631 0.022213041328482824 0.060372894385691982 -0.12196092631710953 0.07276061809802388 0.14707875638520485 -0.10356075646612294 -0.051609837113162194 0.03631497056657685 0.070342283224292548 -0.093503863050508007 -0.070535362693712758 0.079922768243075357 -0.0094660735693919539 0.070346493844072377 -0.036317452756634061
leaf_weight=0.6779190438101057 1363.1724263732704 0.15087325044441968 0.28774541391703679 0.57734330547100388 3.4782676032045892 0.69063627308059949 2.5696378094144161 2.3777333851830895 1.8661135887523417 2.1428575340896714 2.6199091074745415 1.9046432837640166 1.4466466142912398 0.85463353246450413 1.0462574533303266 0.60924924333812913 7.9767117355295314 1.1917379507358408 0.52271232919883903 0.16200402355752874 0.43196242794510986 1.3047345712402605 0.64211393443110898 1.6329451347410211 3.3272289589149286 0.65286982312682118 2.7072508675264535 2.1616509590530759 0.28138751117512584 5.9868531913571124
leaf_count=67 6340 17 48 64 360 91 171 292 175 154 252 183 164 73 145 71 920 173 52 13 61 184 62 164 514 114 282 288 28 751
internal_value=0 0.0706097 -0.0251728 -6.65447e-05 -0.0159861 0.0249253 0.0491409 -0.0314936 -0.0552977 -0.0204703 0.000914074 -0.107216 0.0746138 0.0494916 -0.0419155 -0.0658914 0.000190402 0.0267455 -0.044491 -0.0897646 0.0393915 -4.92083e-05 -0.0347852 0.0161787 -0.0725033 0.000125596 0.0506888 0.0454822 -0.069996 1.50648e-06
internal_weight=0 1.11654 0.438619 1414.34 22.4653 6.1749 4.87502 16.2904 9.39188 5.62113 6.89853 3.77076 4.01628 3.23237 3.66617 1.29989 1391.87 12.4468 1.87645 1.35374 10.5703 1379.43 6.90702 2.93768 3.96934 1372.52 3.36012 10.1384 0.858731 1369.16
internal_count=12273 132 65 12141 2223 589 427 1634 872 514 762 358 335 365 397 162 9918 1507 238 186 1269 8411 924 348 576 7487 396 1208 92 7091
is_linear=0
shrinkage=0.3


Tree=366
num_leaves=31
num_cat=0
split_feature=85 272 16 96 128 33 145 117 200 201 269 139 85 29 192 250 148 236 298 92 193 116 120 276 221 178 112 252 141 294
split_gain=0.0557847 0.0777546 0.102525 0.0732985 0.0643062 0.0610307 0.0592554 0.118632 0.110706 0.156191 0.146991 0.145506 0.107218 0.0915592 0.126604 0.105016 0.130113 0.10427 0.09535 0.0953375 0.0906659 0.146645 0.115478 0.115224 0.1141 0.0997016 0.0904462 0.0701712 0.0658449 0.0480395
threshold=0.08150300011038776 0.04153249971568581 -0.02833937207944482 -0.019067499786615295 0.10869349911808966 -0.029634500853717296 -0.014864270089135675 0.05994050018489356 -0.10266519594909472 -0.020748817428173829 0.14600650315084829 0.0066487738213262494 -0.013373572798777477 0.093652439177570018 0.0051450000610202004 0.13308052554581812 0.047974999994039508 -0.098384499549865681 -0.039505515652884078 0.14095000177621844 -0.0058570001274346984 0.10420749709010121 -0.042974499985575641 -0.070806009207724965 -0.038842582092526633 -0.083692277534406043 0.061163357126138483 0.01580663210537173 -0.073229499161243397 -0.068769998848438235
decision_type=2 2 2 2 2 2 2 2 2 2 2 2 2 2 2 2 2 2 2 2 2 2 2 2 2 2 2 2 2 2
left_child=6 -2 4 -4 -3 -5 7 13 9 26 12 -12 -11 15 17 16 -1 -15 -16 -17 21 25 23 -22 -24 -10 28 -28 -8 -9
right_child=1 2 3 5 -6 -7 8 29 20 10 11 -13 -14 14 18 19 -18 -19 -20 -21 22 -23 24 -25 -26 -27 27 -29 -30 -31
leaf_value=-0.057577826226423795 0.1252586574950702 0.12576851403120748 0.084194600206868572 0.0070517799757652024 -0.041192865968162559 -0.18339562083725403 -0.096680870637309166 0.027415280695521078 -0.18797510723402258 -0.023210845880441706 -0.14505258085983824 0.085931798620449668 0.070984738063877117 -0.14445263688219728 0.12142791688301396 -0.12816344396187546 0.0098310430450106595 0.10619432201874894 -0.083889125321168032 0.10589767617831257 -0.12472301365621921 0.15284594587449737 -0.056893352050841201 0.081630786627499133 0.00010685198169850001 -0.028643066217759465 0.12417457540304623 -0.087575317496492319 0.11131999099306628 -0.16237465796101699
leaf_weight=3.9460095464096394 0.75049484367627828 0.70680741101386957 0.22473263752181083 0.23756288591539487 0.2939669887709897 0.41773437586380135 0.14366432418319242 0.14581948213162832 0.3663348556146947 2.0182484601100441 0.97871455084532477 0.32760524859259021 2.3583734091953357 0.16391094610662538 0.25810844213992823 1.2703708881672344 7.4286554019645337 1.6843237701396003 0.96340755913661247 0.1786446627229451 0.26996178671470294 0.39121504178183464 3.1676555550548064 2.4877234936684536 1426.9475481952386 10.055823435171984 0.20520388276781876 0.44911847537150607 2.9407233635392913 0.67872159384933262
leaf_count=629 103 91 36 23 28 38 34 30 43 270 71 22 224 21 32 150 1080 203 177 12 53 53 451 372 5930 1605 18 40 318 116
internal_value=0 0.0436198 0.0110435 -0.0636503 0.0767254 -0.114353 -0.000100443 -0.0178591 0.000103869 0.0325178 0.00118775 -0.0871252 0.0275471 -0.012103 0.0344362 -0.0232436 -0.0135539 0.0839657 -0.0405053 -0.0993068 -0.000107667 -0.0274749 9.88629e-05 0.0614299 -1.94015e-05 -0.0342435 0.0801402 -0.0211678 0.101632 -0.12881
internal_weight=0 2.6313 1.8808 0.88003 1.00077 0.655297 1469.83 16.718 1453.11 9.42165 5.68294 1.30632 4.37662 15.8934 3.06975 12.8237 11.3747 1.84823 1.22152 1.44902 1443.69 10.8134 1432.87 2.75769 1430.12 10.4222 3.73871 0.654322 3.08439 0.824541
internal_count=12273 319 216 97 119 61 11954 2450 9504 997 587 93 494 2304 433 1871 1709 224 209 162 8507 1701 6806 425 6381 1648 410 58 352 146
is_linear=0
shrinkage=0.3


Tree=367
num_leaves=31
num_cat=0
split_feature=120 67 142 266 20 197 174 257 263 252 256 74 205 104 137 33 121 134 16 87 172 251 110 271 206 139 19 161 101 122
split_gain=0.063095 0.0591167 0.0783101 0.0729578 0.0787685 0.0659654 0.0644854 0.132661 0.118691 0.111335 0.119133 0.104901 0.100424 0.120485 0.118124 0.0752491 0.0804496 0.0678556 0.0941686 0.0591281 0.055849 0.0555935 0.0504701 0.0393668 0.0262668 0.0226273 0.0190202 0.0124506 0.00867957 0.00823042
threshold=-0.10238499939441674 -0.063542500138282734 -0.0063141164224888111 -0.017155500128865197 0.046172499656677211 0.053635999560356105 0.0043405001051723515 -0.04019308034211052 -0.022736091795986995 0.089097174861442544 -0.014475294195098218 -0.12775299698114392 0.021485500037670104 -0.055695428151340917 -0.013480156786969967 -0.04239253393499897 0.084877582811703225 -0.019206999801099248 -0.063683743531646783 -0.0027889999328180996 -0.031596927235395651 0.0090319274558918437 -0.0076717835940985982 -0.0033589999657123999 0.0033885605683156251 -0.037578500807285246 -0.014780499972402999 -0.019363632898639554 -0.10191504596377728 -0.060642000287771142
decision_type=2 2 2 2 2 2 2 2 2 2 2 2 2 2 2 2 2 2 2 2 2 2 2 2 2 2 2 2 2 2
left_child=23 2 3 4 24 20 7 17 9 10 -8 -11 13 -10 -14 16 -9 27 -19 29 21 -4 -5 -1 -2 -24 -25 -3 -22 -7
right_child=1 6 5 22 -6 19 8 15 12 11 -12 -13 14 -15 -16 -17 -18 18 -20 -21 28 -23 25 26 -26 -27 -28 -29 -30 -31
leaf_value=0.035408985591225572 -0.19514364023182723 -0.19889382209557524 0.092265743036119827 -0.11037992131778816 0.10881793060963352 0.058485285010341302 -0.073760115578072841 -0.11113939020041468 -0.039351950699977607 -0.13164778668150168 -0.0012555344601048288 0.083000833630100732 0.018049195236853912 0.052917939995230215 -0.11838562113930845 1.9970173040957899e-06 0.099293390392091924 0.15153445553822109 -0.1005071774916113 -0.16430397059673221 -0.088354296523846909 -0.20090452971750578 -0.0031550016697039257 0.0077068369563663254 0.0058365483743288964 0.16750247440948404 -0.18035967632111408 -0.070764960164231075 -0.20037664544067593 0.19449810631335038
leaf_weight=0.13478243610006757 0.26774365403980482 0.44941100997675676 0.15168146826908924 0.093709289387334138 0.151071909131133 0.068474124542262871 2.6691685228261113 0.97822393863225332 1.430765928000709 0.23159852455137331 8.6471129322519591 1.7782004694781779 2.098005186951696 11.599654893675504 0.78474848856148938 1315.357442773166 0.19632318721505726 0.17769922551610762 0.53535079991070122 0.089998272484081099 0.069812551524591981 0.094471034148227773 0.087899477541213855 0.056698293694353197 0.074896796000757604 0.34191726067365402 0.33063555757189433 0.080478264386329101 0.57455081464286084 0.096428607677808031
leaf_count=29 72 117 34 29 32 29 548 275 288 45 1587 298 525 2352 181 5040 38 43 121 27 22 35 29 22 24 64 114 35 199 19
internal_value=0 7.13568e-05 -0.049489 0.0110879 -0.071645 -0.103287 0.000150927 -0.000158265 0.0140858 -0.00680112 -0.0183572 0.0582659 0.031577 0.0427865 -0.0190913 -6.5778e-05 -0.075966 -0.0981216 -0.0376959 0.0312782 -0.141805 -0.0202503 0.0891093 -0.104237 -0.151212 0.132602 -0.15283 -0.179434 -0.18824 0.13802
internal_weight=0 1349.18 2.16266 1.01724 0.493712 1.14542 1347.01 1317.77 29.2393 13.3261 11.3163 2.0098 15.9132 13.0304 2.88275 1316.53 1.17455 1.24294 0.71305 0.254901 0.890516 0.246153 0.523526 0.522116 0.34264 0.429817 0.387334 0.529889 0.644363 0.164903
internal_count=12273 12108 615 250 128 365 11493 5669 5824 2478 2135 343 3346 2640 706 5353 313 316 164 75 290 69 122 165 96 93 136 152 221 48
is_linear=0
shrinkage=0.3


Tree=368
num_leaves=31
num_cat=0
split_feature=266 209 118 58 240 229 83 269 2 268 124 184 22 48 79 19 109 119 39 98 70 230 59 113 77 189 67 41 169 10
split_gain=0.062393 0.0903296 0.124144 0.112051 0.0978745 0.108829 0.0989864 0.0950205 0.0932715 0.127491 0.127624 0.0797271 0.0715732 0.122836 0.136756 0.128885 0.124057 0.14038 0.1199 0.10422 0.114124 0.117036 0.151791 0.129939 0.100324 0.122692 0.117514 0.107158 0.0984038 0.146386
threshold=-0.079330999404191888 0.074700500816106755 -0.033522809355600286 -0.084502998739480931 0.13332845058549345 0.012765500228852001 0.046718039826621427 0.10892549902200696 -0.0084265860137722678 -0.044843611473709639 -0.036847135353832654 -0.0083575001917778977 0.024365999735891802 -0.095216883312308112 -0.025525500066578295 0.12944699823856351 0.089503500610589967 -0.018579650560345464 -0.005621999967843249 -0.026555873586601057 -0.054781028536851822 0.068803956504131528 0.059331949407579222 0.063659001141786561 0.012901593833867462 -0.021129000000655599 0.020440527317341604 0.084776498377323109 -0.10482922462309359 0.088590499013662324
decision_type=2 2 2 2 2 2 2 2 2 2 2 2 2 2 2 2 2 2 2 2 2 2 2 2 2 2 2 2 2 2
left_child=1 3 -3 -1 5 11 -7 -6 9 -4 -11 -5 19 -14 16 18 17 -15 -16 24 21 22 -21 -23 25 27 -27 -2 29 -22
right_child=12 2 8 4 7 6 -8 -9 -10 10 -12 -13 13 14 15 -17 -18 -19 -20 20 28 23 -24 -25 -26 26 -28 -29 -30 -31
leaf_value=-0.18036565778415703 -0.051094321604803643 -0.083192952553135899 0.14912785920512212 0.030546103641505389 0.043096632936065166 0.014329592522284563 -0.15860206274351024 -0.15161501902850874 0.17021066284993547 -0.1912363166070625 0.092384894942526261 0.12844038175293215 -0.092122635910442438 -0.069690192687843572 0.030474038217214623 -0.089702717507775295 -0.15001517198310718 0.06387605378100171 -0.031674880448043854 0.0063546060782059413 -0.14520602246811712 -0.15644312362891374 -0.12585765434227281 0.099924890868764188 0.063258725608184713 0.08331586153321352 -0.010828897224049507 0.093425309403014578 0.00010018200941189856 0.16189101290574445
leaf_weight=0.2769723298260941 3.390146225304306 0.38222451967158155 0.5286781668546614 2.7248427132726647 0.37464412534609426 0.92218861222499959 0.44005086069228128 0.56687102856812999 0.97871928306994926 0.29775212623644665 0.27436544897500381 1.0324440416879936 1.8184466686216207 2.3573166494097677 9.3877128620333696 1.2247312097169931 0.9973150668083689 1.0123283859065897 3.9774828684739907 4.0944091824931084 0.83579919577459694 1.1698714616941286 0.9658974079256949 0.2098497631959616 4.4575877939678312 2.5986255388415875 2.2064861173857935 0.53456671547610302 1362.2251572314276 0.16773411346366629
leaf_count=25 458 37 33 296 46 115 65 38 65 24 19 129 249 354 1039 135 108 123 580 396 118 114 100 13 499 265 308 45 6465 12
internal_value=0 0.025176 0.0739465 0.00623317 0.0147602 0.0311088 -0.0415334 -0.0741361 0.102829 0.0429206 -0.0552226 0.0574459 -0.00016424 -0.0176419 -0.0104974 0.00344303 -0.0570719 -0.0295634 0.0119785 9.83361e-05 -0.000157216 -0.0399993 -0.0188817 -0.117451 0.0266405 0.00794263 0.040085 -0.03141 3.10014e-05 -0.0938767
internal_weight=0 8.79975 2.46174 6.33801 6.06104 5.11953 1.36224 0.941515 2.07952 1.1008 0.572118 3.75729 1403.63 20.7753 18.9569 14.5899 4.36696 3.36965 13.3652 1382.86 1369.67 6.44003 5.06031 1.37972 13.1874 8.72982 4.80511 3.92471 1363.23 1.00353
internal_count=12273 892 178 714 689 605 180 84 141 76 43 425 11381 2588 2339 1754 585 477 1619 8793 7218 623 496 127 1575 1076 573 503 6595 130
is_linear=0
shrinkage=0.3


Tree=369
num_leaves=31
num_cat=0
split_feature=161 49 43 211 267 128 214 240 284 39 145 287 117 156 126 45 141 18 86 88 45 10 14 24 34 191 109 18 213 183
split_gain=0.0564882 0.0747023 0.0727296 0.169751 0.129055 0.127532 0.165981 0.123083 0.137853 0.136495 0.105886 0.100727 0.10031 0.116242 0.112786 0.0983747 0.119509 0.0982922 0.0975553 0.0926598 0.210112 0.149612 0.0845914 0.0835048 0.0716676 0.0698918 0.0661186 0.0650007 0.0611653 0.06501
threshold=0.014592535301928217 0.051465270081397153 -0.0076936286472743427 0.010242999996989952 0.018465500324964454 0.054279543107123573 0.043775999918580007 0.043987000361084903 0.12645950168371198 -0.11244650185108178 0.052180500701069804 -0.0095216571122381886 0.034385500475764254 0.054970475841699874 0.025694499723613252 -0.085293910364447958 0.019259500317275451 0.0032001979594918884 0.026505678190980497 0.069619628272899886 -1.0000000180025095e-35 0.055188501253724105 -0.043195696046786781 -0.12088349834084509 -0.027762326302529942 -0.039360339454431285 0.10199000313878057 0.031698594332648718 0.068130999803543063 -0.0082914996892213492
decision_type=2 2 2 2 2 2 2 2 2 2 2 2 2 2 2 2 2 2 2 2 2 2 2 2 2 2 2 2 2 2
left_child=2 28 3 7 15 10 11 22 9 -9 18 -7 13 14 -5 16 24 -18 -6 20 -17 -21 -1 -24 -4 -8 -3 -15 29 -2
right_child=1 26 4 12 5 6 25 8 -10 -11 -12 -13 -14 27 -16 19 17 -19 -20 21 -22 -23 23 -25 -26 -27 -28 -29 -30 -31
leaf_value=0.10644339177970963 -0.11463868952947301 0.097516709484612163 0.018991202572760674 -0.080275463143380632 -0.063810279681770873 -0.021858573642890514 0.10119322753056925 0.12355149106780874 0.12182926580125741 -0.02582750478282821 0.10627501024930619 0.11736558820506915 -0.10400466878621799 0.12897274038712647 0.054327471696456575 -0.059269765967145567 0.072024138249213041 -0.13998159653535439 0.048498396553829502 0.046244826414696009 6.9880624899026258e-05 -0.033884650183341608 0.1345019226293491 -0.085274914702394025 -0.16110010960789714 -0.12848387740820794 -0.055269776292330937 -0.00078081980836691408 0.13184880065984117 0.043598490044003721
leaf_weight=0.23572945107298426 0.58371195037761936 1.7182122970734783 0.24871582669220527 0.90361914605909932 2.0539059698621704 0.54837087359919712 0.1600806477945298 0.57135888915218558 0.63846012198700997 15.100736025849066 0.66350818261344091 3.1789252838716493 0.42698722370550957 1.5981787769633231 1.4744141196133567 5.3908434818076776 0.72560938300739497 0.27007562855578726 1.052949209240978 8.698625715641354 1413.6215125716517 2.7633189616426526 0.16112618372426357 4.5309594038608401 0.99242088832761433 0.46742511553020438 0.29932332241151005 0.44400995739488269 0.19740964598895516 0.38965978247142563
leaf_count=32 140 258 39 209 341 64 14 66 64 2018 115 299 73 224 193 747 81 45 160 874 4419 264 17 1036 172 72 38 59 38 102
internal_value=0 0.039868 -0.000107264 -0.0158066 0.000176964 0.0378789 0.0728511 -0.027368 -0.0148149 -0.0203816 -0.00251425 0.0968825 0.0348508 0.048264 0.00318025 -3.6851e-05 -0.0629017 0.0145184 -0.0257476 6.14503e-05 -0.000155551 0.0269267 -0.0689177 -0.0777278 -0.125011 -0.0698918 0.0748492 0.100762 -0.020413 -0.0512932
internal_weight=0 3.18832 1466.92 26.0856 1440.84 8.12517 4.3548 21.2384 16.3106 15.6721 3.77036 3.7273 4.84721 4.42022 2.37803 1432.71 2.23682 0.995685 3.10686 1430.47 1419.01 11.4619 4.92782 4.69209 1.24114 0.627506 2.01754 2.04219 1.17078 0.973372
internal_count=12273 576 11697 3991 7706 1065 449 3233 2148 2084 616 363 758 685 402 6641 337 126 501 6304 5166 1138 1085 1053 211 86 296 283 280 242
is_linear=0
shrinkage=0.3


Tree=370
num_leaves=31
num_cat=0
split_feature=259 77 177 239 294 107 173 28 9 159 97 284 197 97 25 186 133 114 86 142 45 147 206 56 27 86 119 213 0 233
split_gain=0.055625 0.129799 0.0984558 0.0733102 0.0684226 0.0670088 0.103598 0.117865 0.0851492 0.0934533 0.0783276 0.0722878 0.0725859 0.0712754 0.0706008 0.0670352 0.103239 0.085777 0.121636 0.108337 0.102671 0.0887221 0.101652 0.0787812 0.074013 0.0721497 0.0792651 0.0691519 0.062925 0.0856843
threshold=0.037438936985929955 -0.03997199982404704 -0.023250500671565498 -0.0099429938661786069 -0.040776500478386844 0.0019800000591203002 -0.024371499195694899 -0.044216824390419289 -0.047188999131321845 -0.018497314857662064 -0.0732368274563409 -0.012174500152468648 -0.044456500560045194 0.01562977449903178 -0.04343450069427484 0.026976999826729253 -0.0020075000356882494 -0.048317000269889797 -1.0000000180025095e-35 0.0004894985637681887 -0.088983997702598489 -0.0018298063772442441 -0.054703500121831845 -0.057803714963703512 0.062583808731048116 -0.033397503293624203 -0.072509305798390752 0.065516501665115315 0.020733173659541228 0.024782000109553306
decision_type=2 2 2 2 2 2 2 2 2 2 2 2 2 2 2 2 2 2 2 2 2 2 2 2 2 2 2 2 2 2
left_child=5 2 4 -4 -2 15 7 8 -7 -10 -8 -12 -13 -9 -15 17 24 21 19 -19 -20 22 -1 -23 27 -18 -27 -17 -3 -30
right_child=1 28 3 -5 -6 6 10 13 9 -11 11 12 -14 14 -16 16 25 18 20 -21 -22 23 -24 -25 -26 26 -28 -29 29 -31
leaf_value=0.063077088907521381 0.067731875122739121 -0.10166369361163018 -0.068394695747676718 0.12368907145225355 -0.13387838550493444 0.12765784478376019 -0.092670941775438567 -0.12929342182800352 -0.13993047320546279 0.035619588314186663 -0.18520524488393184 -0.13972573766079394 0.095131852039640891 0.10586875647562345 -0.12830880616930126 -0.092259954157525484 -0.15428495830806468 0.06982456439017809 0.060852458379113759 -0.0038821139693831427 -0.00011220238021999502 -0.10946424016842289 -0.12400184060646557 0.063990467091093559 -0.17247729878189438 -0.16077092498680645 0.074071368123665687 0.051160385440232818 0.064388376037684922 -0.20067210749384845
leaf_weight=0.31587609563212016 0.23538023551373044 2.0088322397575662 0.2246915856067061 0.87600113971711824 0.42514188581662882 0.64151800159015726 0.26001114625069055 0.85407300427686983 0.34528621400158988 1.3021973020590847 0.090993801655714246 0.12322871300239135 3.0455020733425027 0.29703673340191017 0.18997105642029055 0.97063030818799301 0.18570757260386006 4.2484154677158577 2.4908753028430501 3.1075368514684669 1320.4355472406226 0.32991337799603571 1.5158090808320142 0.82492421192455256 0.61208177232037986 0.146742193319369 1.0914784707019851 0.43960544837500493 0.50064651967022644 0.14058433003538084
leaf_count=71 92 737 45 207 136 153 57 193 87 314 26 25 615 60 50 286 57 887 388 711 5745 83 338 212 132 44 190 112 153 67
internal_value=0 -0.0335937 0.0295305 0.0844778 -0.0620336 0.000149401 0.0291149 -0.00644382 0.0349333 -0.0011729 0.0657885 0.0784279 0.0859985 -0.0770677 0.0145212 -5.52981e-06 -0.0417923 0.000102481 0.000216495 0.038687 2.58508e-06 -0.0506827 -0.0917399 0.014438 -0.0853625 0.0200878 0.0462401 -0.0475523 -0.0755457 0.00627615
internal_weight=0 4.41128 1.76121 1.10069 0.660522 1343.86 7.14982 3.63008 2.289 1.64748 3.51974 3.25972 3.16873 1.34108 0.487008 1336.72 3.44625 1333.27 1330.28 7.35595 1322.93 2.98652 1.83169 1.15484 2.02232 1.42393 1.23822 1.41024 2.65006 0.641231
internal_count=12273 1437 480 252 228 10836 1580 857 554 401 723 666 640 303 110 9256 821 8435 7731 1598 6133 704 409 295 530 291 234 398 957 220
is_linear=0
shrinkage=0.3


Tree=371
num_leaves=31
num_cat=0
split_feature=299 53 243 272 87 86 95 78 46 25 3 109 225 245 231 123 20 63 109 46 246 40 10 284 129 63 143 157 16 81
split_gain=0.055256 0.102444 0.0760816 0.0970222 0.0820689 0.0853299 0.0876902 0.063688 0.0633702 0.123274 0.116402 0.145048 0.0950902 0.103798 0.0941286 0.0885802 0.0804008 0.0715666 0.145067 0.123808 0.108471 0.0966058 0.0902856 0.0815923 0.0700746 0.108762 0.130144 0.0895416 0.118067 0.0963638
threshold=0.10057958982920441 0.11012750118970871 0.033180998638272258 0.054548500105738605 -0.059274231733477033 0.037008653665672138 -0.032817499712109489 -0.035020999610423993 0.082231002271924994 -0.15611749887466422 -0.026321390341329264 0.032752421781878864 -0.067242503166198633 -0.029736000113189148 -0.078967500478029237 -0.023871283512348431 -0.075217016749697066 -0.082458499819040229 0.096838752929229846 0.049358926864948992 0.022016000002622552 0.084580000489950166 0.0050335000269114511 0.075954500585794407 -0.057846000418066895 -0.025292663864485081 0.024183999747037853 0.039974664263399802 -0.015298633402783058 -1.0000000180025095e-35
decision_type=2 2 2 2 2 2 2 2 2 2 2 2 2 2 2 2 2 2 2 2 2 2 2 2 2 2 2 2 2 2
left_child=8 2 4 -4 7 6 -6 -2 17 -10 11 15 13 -12 -14 -11 -13 18 20 23 22 -22 -1 -20 25 -19 -27 29 -29 -26
right_child=1 -3 3 -5 5 -7 -8 -9 9 10 12 16 14 -15 -16 -17 -18 24 19 -21 21 -23 -24 -25 27 26 -28 28 -30 -31
leaf_value=-0.022801541841509294 -0.1586285554052331 -0.12001685801503237 -0.13149797738410807 0.085417756665410197 -0.058696008679602396 0.15586992857959603 0.086774478841798355 0.041496513295726643 0.10498334302866114 0.02394823673336394 -0.14128911589253548 -0.083269065139883913 0.042433983011643521 0.11224792177188235 -0.089544054784155599 -0.13048513331067027 0.085433032220492061 0.092953571520891953 -0.089559759662565408 -0.19192670374385357 -0.084780951771766463 0.14569592205159357 0.10866530567807921 0.15056593096096629 0.034787132113190095 -0.063091390954111162 0.064554628038219361 -0.041675676835846623 0.011002310926694162 -0.00012862397839183016
leaf_weight=0.57102737657260094 0.23452915286179632 0.36435636039823283 0.44119709884398606 0.32031272153835744 0.50920011545531463 1.0061252947780301 1.3937259202648411 0.36719716241350431 0.62074745469726522 0.57933219175902195 0.20133538317168131 0.29741931823082302 0.5476180583355007 0.52243106986861576 4.3480938293942026 0.7902187030995258 1.7517028081929309 1.8568758718465685 0.26024379057344038 0.42076393257593736 0.70612308511044819 0.21306682843714952 2.6610616746474989 0.24940512236207724 7.1513463539959039 1.4587185822019813 1.4173692324548026 10.367693670783867 6.0718695848918278 1361.9598347967421
leaf_count=59 31 45 83 54 64 87 203 38 36 78 25 37 45 44 460 102 181 200 26 35 82 14 186 16 856 219 146 1392 885 6544
internal_value=0 0.0326801 0.0457026 -0.040257 0.0643478 0.0852087 0.0478483 -0.0365043 -0.000123769 -0.0243398 -0.0332218 0.0104279 -0.0597766 0.0417197 -0.0747814 -0.0651584 0.0609468 4.38574e-05 0.0355808 -0.0714858 0.0595773 -0.0313568 0.0854385 0.0279497 -8.60353e-05 0.0363553 -0.000185961 -0.000210517 -0.0222193 5.37532e-05
internal_weight=0 4.63664 4.27229 0.76151 3.51078 2.90905 1.90293 0.601726 1405.02 9.6589 9.03815 3.41867 5.61948 0.723766 4.89571 1.36955 2.04912 1395.37 5.08169 0.930413 4.15128 0.91919 3.23209 0.509649 1390.28 4.73296 2.87609 1385.55 16.4396 1369.11
internal_count=12273 605 560 137 423 354 267 69 11668 1008 972 398 574 69 505 180 218 10660 418 77 341 96 245 42 10242 565 365 9677 2277 7400
is_linear=0
shrinkage=0.3


Tree=372
num_leaves=31
num_cat=0
split_feature=184 162 242 192 69 283 24 265 257 228 169 276 87 261 293 116 281 89 202 1 117 295 65 298 31 81 158 25 27 130
split_gain=0.056317 0.0755065 0.0938289 0.0815975 0.0634252 0.055771 0.0499347 0.0915316 0.0971574 0.0818569 0.0856148 0.103423 0.0839524 0.0789731 0.0656737 0.0916421 0.0793969 0.074359 0.0637856 0.0631827 0.0624741 0.0624469 0.127453 0.0962845 0.0518776 0.0667191 0.070015 0.0422446 0.0392398 0.0201056
threshold=-0.11825850233435624 0.024788000620901553 0.019270999357104253 0.0090728166085816461 -0.033885998651385245 0.068459998816251713 0.044452000409364659 0.046645501628518111 -0.039326000958681044 -0.11360950022935863 -0.10251000151038163 -0.032698500901460592 -0.047848235517137079 0.10739245004137458 -0.055452499538660042 -0.016442280332661232 -0.047990500926971387 -0.029817500151693797 -0.076113499701023032 -0.075671024299758152 -0.097014306558635008 0.012004801605005297 -0.031840499490499441 -0.035525500774383496 -0.065187901680273816 0.028408587678075737 0.021100211908984024 -0.097533001117229581 0.055584905569290945 0.016437874802245327
decision_type=2 2 2 2 2 2 2 2 2 2 2 2 2 2 2 2 2 2 2 2 2 2 2 2 2 2 2 2 2 2
left_child=1 5 27 4 -4 29 9 8 13 10 -2 12 -12 19 15 16 -11 -17 -10 -8 -20 23 -23 -16 -9 26 -26 -3 -13 -1
right_child=6 2 3 -5 -6 -7 7 24 18 14 11 28 -14 -15 21 17 -18 -19 20 -21 -22 22 -24 -25 25 -27 -28 -29 -30 -31
leaf_value=-0.20086139459387586 -0.20152024674362631 0.050998641395827604 -0.081674893913749658 -0.14333248213140079 0.15696371131950432 0.080051390097455766 -0.19267802571126988 0.15090376866088928 0.1036695184792923 0.12784031493875761 -0.17605152531385218 0.16969078653195727 0.058129183960696246 -0.16151580825594447 0.034861958944570871 0.15473059920154703 -0.1356243489427732 0.034509411401872303 0.12829163969449081 0.081093566509520501 -0.10985176881375357 0.078856881807187598 -0.034510847457029224 -0.00016788251503650333 -0.10303945903015448 0.12923618173190646 0.16568658047115689 0.1892407863115744 0.012773028587394141 -0.037702594414636525
leaf_weight=0.17695238916712641 0.10245434718672175 0.295609414446517 0.15413249272387475 0.24186543448013254 0.28665198875387432 0.16643511794973165 0.083522260931204073 0.29750115339993499 0.14818531485798336 0.14121737473760732 0.19497142382897437 0.8209829092520512 0.4696596982248592 0.17985405465151416 7.0967340115821562 0.71448240250174477 0.37983438423725635 1.3157069480566848 0.10374371443322195 0.82797427739933505 2.2359942733189646 0.98813356120081053 9.2225869036392378 1439.4897126583821 0.4649585371953433 0.26597621899054502 0.10741949395742267 0.60839053486961314 0.17378532421025739 0.11037057764769997
leaf_count=32 21 33 24 52 47 24 32 41 21 31 18 91 47 56 886 74 63 195 27 145 616 124 1270 7976 105 48 12 96 43 23
internal_value=0 0.0497769 0.0806391 -0.00331351 0.0735171 -0.0581385 -9.82779e-05 -0.0309214 -0.0544677 1.19093e-06 0.0646264 0.0810588 -0.0105684 0.0201596 -7.68303e-05 0.0480139 -0.0642192 0.0768187 -0.0872037 0.0560073 -0.0992925 -0.00016105 -0.0235398 3.96858e-06 0.0432772 0.00508454 -0.052607 0.144035 0.142277 -0.138187
internal_weight=0 2.04041 1.58665 0.68265 0.440784 0.453758 1465.83 4.71513 3.57927 1461.11 1.76185 1.6594 0.664631 1.09135 1459.35 2.55124 0.521052 2.03019 2.48792 0.911497 2.33974 1456.8 10.2107 1446.59 1.13586 0.838354 0.572378 0.904 0.994768 0.287323
internal_count=12273 331 252 123 71 79 11942 1103 897 10839 220 199 65 233 10619 363 94 269 664 177 643 10256 1394 8862 206 165 117 129 134 55
is_linear=0
shrinkage=0.3


Tree=373
num_leaves=31
num_cat=0
split_feature=125 150 151 25 129 105 213 271 227 228 47 289 115 133 192 209 111 210 178 298 295 44 15 101 158 229 194 13 12 103
split_gain=0.0569156 0.0875905 0.0649877 0.0557893 0.0608607 0.0549142 0.052732 0.0509799 0.0441651 0.0638124 0.0954002 0.0959217 0.0957435 0.0981094 0.088664 0.0778122 0.0716447 0.0708584 0.0865619 0.0647547 0.0607085 0.059267 0.0699947 0.0608649 0.0586026 0.0501502 0.0478585 0.0447204 0.0446999 0.0400021
threshold=-0.059995999559760045 -0.021192011594872492 0.036627000197768156 -0.012591243014912192 0.014226499944925251 -0.020990500226616797 0.067366000264883014 -0.051394000649452147 0.032837999984622009 -0.037660107071100103 0.015250538318933256 -0.054984499548245754 -0.085403283920921905 -0.036557000130414893 0.025974958911529965 -0.053160000592470093 -0.010490499902516548 -0.11065958119205438 0.069833832156851808 -0.053242500871419844 -0.093608997762203147 -0.029783072900264478 0.0046030347424202466 -0.0020568612562997628 -0.060229319684047038 0.022796000353991954 0.040840325815757701 0.014683499932289052 -0.025485500693321148 0.035481000319123261
decision_type=2 2 2 2 2 2 2 2 2 2 2 2 2 2 2 2 2 2 2 2 2 2 2 2 2 2 2 2 2 2
left_child=1 7 3 4 6 -6 -3 -1 9 10 12 -12 16 -14 -13 19 -2 18 -17 -11 -19 23 -23 27 25 -24 -26 29 -21 -10
right_child=8 2 -4 -5 5 -7 -8 -9 21 15 11 14 13 -15 -16 17 -18 20 -20 28 -22 22 24 -25 26 -27 -28 -29 -30 -31
leaf_value=0.13219414497390053 0.095733744809519891 0.073842225439720369 -0.19012351251185811 -0.1366758778519159 0.065543445507077885 -0.14427400185976583 -0.10656963942216784 -0.1731280202411071 -0.081190410056567283 0.13727145906267765 -0.14693594082835337 -0.033337063089852945 -0.0018815493148637589 0.058307766291942786 0.074864044288370554 -0.11203284833956832 -0.16044965422050991 0.081166565588861567 0.14239173435996397 -0.19655288451988609 4.6011906434534951e-05 -0.16194001311359721 -0.045739988390490254 -0.1928494110116776 -0.12531190606796919 0.16820906334209376 0.093816825977819956 -0.091487868826511262 -0.049881258217376052 0.16023706080445282
leaf_weight=0.054182622610824183 0.13266667308926117 1.1574294679735437 0.17633208954202917 0.23889272253336358 0.17127026657999522 0.32586309744169728 0.16682587700779539 0.53716660936015648 0.07495669589843601 0.098888337706739549 0.47945812667603638 2.4855058217244728 3.6082531375304807 7.5107337680551609 0.93913031240299449 0.90364271805628849 0.37869904952276456 0.83081184509319328 0.13884312810841948 0.36317116607096978 1323.3632056741408 0.53580497223697321 0.19501826061241445 0.090729419889612806 0.49982791387037628 0.19944760162616149 0.10932175604830263 0.11723097334970589 0.38552233707718997 0.3509994937439842
leaf_count=13 31 341 142 131 59 158 75 302 30 19 115 466 677 1395 153 227 110 248 40 71 6702 219 70 35 138 36 31 43 117 79
internal_value=0 -0.0424726 -0.0153245 -0.000364129 0.0175145 -0.0719886 0.0511145 -0.145153 0.000131953 0.000201175 0.0193172 -0.0212602 0.0329383 0.0387756 -0.00366532 -2.27596e-05 -0.0939865 3.53575e-05 -0.0781474 -0.0908917 9.69077e-05 -0.0425993 -0.0743901 0.0346024 -0.0276494 0.0624357 -0.0859857 0.072594 -0.121028 0.117752
internal_weight=0 2.82796 2.23661 2.06028 1.82139 0.497133 1.32426 0.591349 1343.79 1341.62 15.5344 3.90409 11.6304 11.119 3.42464 1326.08 0.511366 1325.24 1.04249 0.847582 1324.19 2.17334 1.53942 0.633917 1.00362 0.394466 0.60915 0.543187 0.748694 0.425956
internal_count=12273 1221 906 764 633 217 416 315 11052 10371 2947 734 2213 2072 619 7424 141 7217 267 207 6950 681 494 187 275 106 169 152 188 109
is_linear=0
shrinkage=0.3


Tree=374
num_leaves=31
num_cat=0
split_feature=199 187 131 294 249 67 159 196 130 164 291 24 238 108 90 291 24 35 181 283 195 25 43 164 9 299 207 59 52 291
split_gain=0.0475766 0.0682707 0.0618355 0.0697167 0.0595619 0.092174 0.0823296 0.0695462 0.0816407 0.0645999 0.056174 0.0962797 0.0842274 0.0840444 0.0749326 0.0620173 0.118492 0.129525 0.112501 0.116227 0.0892783 0.073347 0.0561106 0.0557305 0.0690138 0.0550511 0.0495805 0.0500204 0.0428583 0.0351378
threshold=0.042695499956607805 -0.056066951595949176 0.040275488372693555 -0.073872502893209444 -0.039228074716347809 -0.011892938710464747 -0.059777999296784394 -0.026296500116586647 -0.0088346822241282905 0.022469319927879167 0.06603650003671642 -0.019012065748926919 -0.11250849813222884 0.0034364999737590005 -0.064536406904199026 0.0033173149841802525 -0.084544502198696095 0.029753999784588755 0.11317474234407125 0.047413500399291174 0.093155481983625152 -0.017064526899834283 0.016929427369687156 0.0052410000935196009 -0.017170818851786247 0.049853809636034217 -0.067014564379895933 -0.0049059631366473568 0.036534499377012204 0.010081999935209701
decision_type=2 2 2 2 2 2 2 2 2 2 2 2 2 2 2 2 2 2 2 2 2 2 2 2 2 2 2 2 2 2
left_child=4 -2 3 -3 5 7 -7 -1 29 -10 15 13 -13 14 -12 16 17 -6 19 -17 -18 -20 -14 -5 -25 28 -8 -28 -4 -9
right_child=1 2 25 23 10 6 26 8 9 -11 11 12 22 -15 -16 18 20 -19 21 -21 -22 -23 -24 24 -26 -27 27 -29 -30 -31
leaf_value=0.13673537676135483 0.12036307436290718 -0.08800995940055302 -0.14732427559872122 0.12936015691555491 0.053268392652499753 0.086092627780184602 0.025386761135159901 -0.17831785131424502 -0.08369634061289806 0.14511456333760986 0.088803639223525674 -0.16832297359044962 0.12023128336699433 0.084940065348827587 -0.18080028506079207 -0.04885085806387103 -0.00016611391497566868 -0.10348959343863853 0.1381666673484756 -0.0017239411123986671 0.043491257898974789 -0.070500188192501423 -0.057460146811390195 -0.12792350024090954 0.090494902242949371 0.073953001828866993 -0.033939572677103479 -0.16349707538185873 0.029517891923042366 0.019532837763193481
leaf_weight=0.34125535644125193 0.68876055651344392 0.27862962021026794 0.44776258044294071 0.76642386527964734 5.9321983651170731 0.22276790300384153 0.21517269499599923 0.28792497045651544 0.17572451572050363 0.30173355003353208 0.12224389635957778 0.11172989656915899 1.4661531861347596 0.29788456627284177 0.38496280723120468 8.0411062007351628 1367.1859000168752 0.51562666142126534 0.65689768100855872 11.369054648211202 4.2287738837358111 0.19709411767689644 0.17952265206258755 0.21589253202546388 0.32800306973513216 0.22767972591100261 0.36394736234797154 1.0195134341847722 0.17023253992374521 0.11229531998105813
leaf_count=41 97 42 88 99 475 24 23 56 26 32 14 25 193 40 80 1149 7361 69 68 1324 475 30 30 50 35 43 75 170 25 14
internal_value=0 0.0369743 0.0133834 0.048263 -9.27533e-05 -0.0420372 -0.0847691 0.0218153 -0.0228675 0.0609026 -1.70882e-06 0.0443755 0.0837344 -0.0415398 -0.115822 -8.30437e-05 0.000159263 0.0407326 -0.0165587 -0.0212474 -3.14959e-05 0.0900081 0.100847 0.0772404 0.00379646 -0.0521522 -0.108578 -0.129414 -0.0986114 -0.122804
internal_weight=0 3.12338 2.43462 1.58895 1403.73 3.04034 1.8214 1.21893 0.877678 0.477458 1400.69 2.5625 1.75741 0.805091 0.507207 1398.13 1377.86 6.44783 20.2642 19.4102 1371.41 0.853992 1.64568 1.31032 0.543896 0.845675 1.59863 1.38346 0.617995 0.40022
internal_count=12273 479 382 226 11794 461 292 169 128 58 11333 382 248 134 94 10951 8380 544 2571 2473 7836 98 223 184 85 156 268 245 113 70
is_linear=0
shrinkage=0.3


Tree=375
num_leaves=31
num_cat=0
split_feature=61 86 175 223 213 103 178 22 4 162 249 63 26 50 296 107 248 261 167 210 252 255 120 123 18 158 158 146 189 244
split_gain=0.0531284 0.117126 0.103039 0.114725 0.0928975 0.0866473 0.105369 0.0826354 0.078861 0.0741501 0.0732331 0.0732087 0.0691125 0.101438 0.0935661 0.0883158 0.0712945 0.0651769 0.0681461 0.0655196 0.0591967 0.0931888 0.0998408 0.0915381 0.0730381 0.103309 0.126457 0.121119 0.0891482 0.122348
threshold=-0.0086929998360573985 -0.014254742736580167 0.027235489920576172 0.04021599680454311 0.029101500287651953 -0.024164808313799652 0.016557609937493833 0.038147998973727205 0.035330001264810507 -0.032416578281266949 0.10309099778532976 0.029070499353110752 0.032318500801920856 0.047632999718189205 -0.038916124166088299 -0.051778990476783603 0.067527499049901921 0.083951853625442233 0.033767939981441057 -0.055550999939441591 0.10604563879040198 -0.022490941517090527 -0.010189999826252398 -0.061435500159859643 -0.040576730116223356 -0.037434000521898249 -0.030451000668108397 0.015227171897086495 -0.0035881767300846115 -0.051164223614877644
decision_type=2 2 2 2 2 2 2 2 2 2 2 2 2 2 2 2 2 2 2 2 2 2 2 2 2 2 2 2 2 2
left_child=1 9 4 11 7 -6 -7 10 -9 -1 -3 -4 20 16 -15 -16 -14 -11 19 -19 24 22 -22 -23 28 27 -27 -26 -2 -30
right_child=12 2 3 -5 5 6 -8 8 -10 17 -12 -13 13 14 15 -17 -18 18 -20 -21 21 23 -24 -25 25 26 -28 -29 29 -31
leaf_value=-0.11917893682114149 0.050068522756994714 -0.068630478623034008 -0.16485826786280774 0.12321714418621291 0.12807000356710502 -0.039186554289011702 0.10891984833167792 0.090782337099857113 -0.17120250039061466 0.10470500550590389 0.12195757357528351 0.024261896421548881 -0.10512824170160319 0.16021719109032012 0.1213987584656344 -0.10495046475989475 0.1344424825839263 -0.18423612256084609 0.075615472676816953 0.042432763392899947 0.080122635531129249 -0.18441836910816614 -0.089359748756362656 -0.040423491247062168 -0.048800426526094266 0.075507945941749297 2.1072629194330424e-05 0.0032466480844205031 -0.063011342209468385 0.055718522214043734
leaf_weight=0.18668558145873282 5.6055262870941078 2.0189490930824823 0.79199376964243107 0.20828126382548351 0.95815642676461754 1.143576171245513 0.69510500234900963 0.78302959508800984 0.11914155382692115 2.2623347885019034 0.1993686600762884 0.24005282303551212 1.7032284209199127 0.32915566445444711 0.22737288950884249 0.48834229424392084 0.11965099835651916 0.23301575754157966 0.71243218374002026 0.22616820660186909 0.87359283673504251 0.56666598394804157 0.48733475339395249 1.3296144622979671 8.4502314358537678 2.0001104969778671 1422.3075843144675 7.6824450420490384 1.8432643704582008 1.3555707259802128
leaf_count=42 652 393 121 33 88 155 86 118 46 333 21 31 411 46 35 135 26 58 121 59 128 112 78 207 1256 242 5696 1073 275 196
internal_value=0 0.0209809 -0.00126141 -0.0798811 0.015218 0.0549224 0.0168044 -0.0203683 0.0561844 0.0649518 -0.0515016 -0.120869 -0.000159465 -0.046686 0.0278383 -0.0330424 -0.0894032 0.074962 0.0175296 -0.0725918 -6.76056e-05 -0.0404656 0.0194327 -0.0834535 2.31897e-05 -0.000143315 0.000127076 -0.0240154 0.0272642 -0.0126972
internal_weight=0 10.7783 7.15765 1.24033 5.91733 2.79684 1.83868 3.12049 0.902171 3.62064 2.21832 1.03205 1455.37 2.86775 1.04487 0.715715 1.82288 3.43395 1.17162 0.459184 1452.5 3.25721 1.36093 1.89628 1449.24 1440.44 1424.31 16.1327 8.80436 3.19884
internal_count=12273 1705 1092 185 907 329 241 578 164 613 414 152 10568 653 216 170 437 571 238 117 9915 525 206 319 9390 8267 5938 2329 1123 471
is_linear=0
shrinkage=0.3


Tree=376
num_leaves=31
num_cat=0
split_feature=125 2 93 50 290 142 36 85 171 290 94 21 99 286 120 76 259 199 137 254 111 59 205 139 283 73 179 146 32 1
split_gain=0.0546427 0.0670748 0.0477091 0.10256 0.0784962 0.0837256 0.0757585 0.0741134 0.0714962 0.12538 0.0985126 0.0670302 0.065474 0.0688572 0.0644461 0.0558151 0.0557557 0.0514532 0.094914 0.103907 0.0760888 0.11557 0.0662525 0.0621086 0.0470209 0.0453636 0.0447145 0.0392832 0.0391616 0.0723587
threshold=-0.082451999187469441 -0.03806100040674204 0.064151998609304414 0.0013320000143721001 1.0000000180025095e-35 -0.0059654999058693491 -0.050428999587893396 0.010729999747127251 -0.0524807680996719 -1.0000000180025095e-35 -0.063494276853205869 0.015653776402294938 0.0097960000857710509 -0.0097334999591111495 0.0046804919313897866 -0.042312130094522844 -0.0096424999646841977 -0.052086267223775996 -0.1282696628464183 -0.087480999529361628 -1.0000000180025095e-35 0.017970500513911202 -0.046003499999642344 0.024505169983190443 0.06692613498544478 0.045982999727129902 0.04271350055932991 -0.01616467343207182 -0.022746499627828546 -0.008816500194370698
decision_type=2 2 2 2 2 2 2 2 2 2 2 2 2 2 2 2 2 2 2 2 2 2 2 2 2 2 2 2 2 2
left_child=1 24 8 28 5 7 -6 -5 9 10 11 -2 13 -11 -12 -7 -14 18 23 -20 21 -19 -22 -10 -1 26 -3 -8 -4 -30
right_child=2 25 3 4 6 15 27 -9 17 12 14 -13 16 -15 -16 -17 -18 20 19 -21 22 -23 -24 -25 -26 -27 -28 -29 29 -31
leaf_value=0.1003168609930528 0.019082283288554491 -0.1625184125663445 -0.19890126667695013 0.10052326712755615 -0.10351703373986752 -0.013127410287817907 -0.048139707107972822 -0.11323556034794299 -0.18478923495927871 -0.14897121456156412 0.089794599145629039 -0.11329118920651968 -0.029919178698605976 0.074645033438601155 0.020768115783860626 -0.17840854189453687 -0.17034133132681065 0.082243482283371402 -0.086260594248229863 0.0070698966119807551 0.045992529147799631 -0.021198528436765268 -0.0001241275643428586 0.033794797884442278 -0.20038144211113779 -0.17850832958963267 0.11995269415695003 0.15959174654659058 0.038486386879904799 -0.2009906019329743
leaf_weight=0.25039869277793514 1.2555730786525598 0.092190122831197097 0.37546361382283067 0.45903348629508445 0.16749317341054848 0.30601200256205674 0.098269506142287355 0.2140501975686675 0.50699108908020196 0.15950800049176905 3.4189604005516685 0.47434572313795786 0.5625027111300368 0.55566971507096052 1.8904153343519281 0.46076160030679536 0.464737726120802 2.4447757953275859 1.3955440279378306 4.6536043458406757 2.8096576980624368 1.6136642390817995 1319.0745027560224 0.1520879702820821 0.057561798277674825 0.45254144531281781 0.11136008967605449 0.49275741811015894 0.25464932030445198 0.20494547827729492
leaf_count=74 229 89 90 85 55 54 23 69 137 40 898 89 138 144 414 145 149 434 310 1307 528 391 5738 32 45 317 36 94 62 57
internal_value=0 -0.0713884 6.00336e-05 -0.0375206 -0.00352285 -0.044668 0.0745807 0.0325449 0.000145016 0.0271253 0.0449597 -0.0172147 -0.0449248 0.0247713 0.0652176 -0.112446 -0.0934481 -3.27748e-05 -0.0262404 -0.0144615 9.98153e-05 0.0411142 -2.61069e-05 -0.134349 0.0441125 -0.125603 -0.00798157 0.125052 -0.127023 -0.0683027
internal_weight=0 0.964052 1344.47 3.03344 2.19838 1.43986 0.75852 0.673084 1341.43 8.78171 7.03929 1.72992 1.74242 0.715178 5.30938 0.766774 1.02724 1332.65 6.70823 6.04915 1325.94 4.05844 1321.88 0.659079 0.30796 0.656092 0.20355 0.591027 0.835058 0.459595
internal_count=12273 561 11712 734 525 353 172 154 10978 2101 1630 318 471 184 1312 199 287 8877 1786 1617 7091 825 6266 169 119 442 125 117 209 119
is_linear=0
shrinkage=0.3


Tree=377
num_leaves=31
num_cat=0
split_feature=71 3 190 79 56 87 57 105 217 19 221 56 110 284 226 207 95 265 60 254 268 63 42 141 280 76 196 74 43 290
split_gain=0.0491416 0.0928875 0.0855646 0.0773411 0.0959221 0.0899934 0.0867066 0.0737902 0.0715871 0.112086 0.0978699 0.0805553 0.0947872 0.084401 0.070135 0.133218 0.104737 0.104223 0.116046 0.113631 0.105034 0.104388 0.0955231 0.088034 0.0784892 0.0726432 0.189326 0.124235 0.0648009 0.0684172
threshold=0.0048889999743550504 0.067260999232530566 -0.13660911217339192 0.022605999372899453 -0.086299337984790211 0.034639000892639112 -0.060387000441551146 -0.011091493280170801 0.093936000019311863 0.0071980000939219505 0.022523062817610882 -0.052771313967373244 0.016234500333666753 0.095185499638318974 -0.00087349896291885468 0.048240716195729304 0.096052846488504803 0.028968869330014229 -0.057872999459505046 -0.057568884911906676 -0.13336541591516363 -0.080372001975774696 -0.058814797194301695 0.020625991589311152 -0.030369479139371002 -0.026090620781544536 -0.039011999964713995 -0.070025476586753302 -0.0092250001616775486 -0.032701499760150847
decision_type=2 2 2 2 2 2 2 2 2 2 2 2 2 2 2 2 2 2 2 2 2 2 2 2 2 2 2 2 2 2
left_child=8 2 -2 4 7 -6 -5 -4 14 -10 11 13 -13 -11 17 25 23 18 24 21 -20 -19 -21 -17 -1 27 -27 -16 29 -12
right_child=1 -3 3 6 5 -7 -8 -9 9 10 28 12 -14 -15 15 16 -18 19 20 22 -22 -23 -24 -25 -26 26 -28 -29 -30 -31
leaf_value=0.014699236627718944 0.17520694983841412 0.13137567414038334 -0.16004241829751051 0.085530761401645547 -0.10405987557743329 0.027038819933525988 -0.035472331760590912 0.057883393649208074 0.10002866969726269 0.007262476406629555 -0.14509645910074029 -0.0068132282990344128 0.11346452529506985 -0.16376428842621704 -0.066450307022398361 -0.094915143709021141 0.20216418585757565 -0.15016293536872019 -0.12022594774426021 0.1060715648436054 0.053317789962476499 0.074132744101723519 -0.084723990318616493 -0.012587120319613173 -0.10644463962348628 0.065533956541826546 -7.193388749739692e-05 -0.0009630167949966561 -0.17893751131285304 0.12986015850646779
leaf_weight=1.2767196964705365 0.17535447117552383 0.32894310269330151 0.16769363280036487 0.82557139615528319 2.9627614055789309 0.56039129451164615 1.5037566944120042 0.84181970146255414 1.6006728108623054 2.0807952648610808 0.15096811729017645 1.0073889420018538 1.4221727728727271 0.29672690395091184 4.0088326548866462 2.5746562237400203 0.14403402572497714 0.21829264925327141 0.32466566807124664 0.26580020145047489 9.4419266805653006 1.292188233783236 2.1181214546086258 2.1410344670275663 0.77262577888904971 3.9704345326827015 1354.3003642301173 7.4568009597787732 0.37869621429126699 0.17686960188439116
leaf_count=157 24 50 38 95 524 71 278 104 224 216 23 185 188 47 511 389 12 24 61 39 1019 152 239 283 122 354 5757 1008 49 30
internal_value=0 -0.024443 -0.0317264 -0.0370145 -0.0598462 -0.0832074 0.00741415 0.021683 0.00012459 0.0301414 0.00985224 0.0251756 0.0635928 -0.0140825 -2.90075e-05 -0.0002568 -0.0498392 0.019902 0.03393 -0.0226602 0.0475488 0.0417178 -0.0634509 -0.0575363 -0.0309733 -8.08849e-05 0.000119842 -0.0238599 -0.0944039 0.0032436
internal_weight=0 7.36629 7.03735 6.86199 4.53267 3.52315 2.32933 1.00951 1397.42 7.11429 5.51362 4.80708 2.42956 2.37752 1390.31 1374.6 4.85972 15.7103 11.8159 3.8944 9.76659 1.51048 2.38392 4.71569 2.04935 1369.74 1358.27 11.4656 0.706534 0.327838
internal_count=12273 1184 1134 1110 737 595 373 142 11089 962 738 636 373 263 10127 8314 684 1813 1359 454 1080 176 278 672 279 7630 6111 1519 102 53
is_linear=0
shrinkage=0.3


Tree=378
num_leaves=31
num_cat=0
split_feature=245 0 284 158 60 179 98 19 132 237 74 184 252 63 12 54 49 99 103 248 178 254 172 45 174 14 217 186 104 15
split_gain=0.0563768 0.0653765 0.0821262 0.104971 0.112246 0.0856257 0.0804912 0.0743689 0.0921879 0.0741795 0.117369 0.120138 0.127517 0.0746209 0.0836607 0.0741227 0.133979 0.104372 0.103962 0.099576 0.116466 0.0976498 0.0698518 0.0697903 0.0684201 0.0667675 0.0589959 0.0583974 0.0548473 0.0698902
threshold=-0.071411298070840415 0.035682499408721903 0.049010498449206304 -0.035575499758124289 -0.11645824033878259 0.034183620453534798 0.038806499913334812 -0.0083907484614323732 0.022402999922633105 -0.029048760154062731 -0.012022926168742187 0.039572499692440012 0.051193999126553501 -0.022835499607026546 0.010651000309735452 0.018680734713612732 0.014881500042974902 0.014692632015781098 0.060776513444824841 -0.088479001075029276 -0.015393861554025785 -0.10297999903559678 0.042312499135732602 0.015695402605578158 0.035445131687792432 0.030209835636969596 0.071492622459161353 0.032375501468777608 -0.055695428151340917 0.0014610000071115503
decision_type=2 2 2 2 2 2 2 2 2 2 2 2 2 2 2 2 2 2 2 2 2 2 2 2 2 2 2 2 2 2
left_child=28 9 5 4 -4 7 -6 -3 -9 10 11 12 -2 23 -15 19 18 -18 -17 20 -11 -21 24 -12 -5 27 -13 -7 29 -1
right_child=1 2 3 22 6 25 -8 8 -10 15 13 26 -14 14 -16 16 17 -19 -20 21 -22 -23 -24 -25 -26 -27 -28 -29 -30 -31
leaf_value=0.041042788788690637 0.080012209516825195 -0.1086285716064089 0.18706634252252072 0.043779124231137966 -0.13891247773482696 -0.075335622367502755 0.028908739579935352 0.081680916826152181 -0.076908867167454431 -0.013276255948731473 -0.16071353965435178 -0.18256696365482619 0.0041011938610631292 -0.054385979761692106 0.14152694903268856 -0.10984403801386762 0.036125973914659819 -0.036671913944869954 0.02466147744110667 -0.078907751669944667 0.104807274521588 -1.3238066500745055e-05 0.11535328163357486 0.092954759037641471 -0.13680726557880357 -0.14014108519429733 0.043109651506157837 0.16274298941721793 0.046652241478279219 -0.13446290614918419
leaf_weight=0.45193930333334709 4.7038694938018999 0.29443133834865953 0.11634793016128275 0.40063619617467316 1.8432801102280798 0.22510864292416943 0.29892890255723603 1.7652579627783773 0.40570467072393501 1.3189959582632584 0.60967206958957831 0.31529617230080553 3.4540068358489862 0.60257556707051552 0.29086547113547567 2.289473599379106 3.2531338876251539 3.8944594947206497 0.66808689336539817 1.4133502228000896 1.7479345941464988 1427.6118880095319 0.38676454481901601 0.11622012256702874 0.35715287452330813 0.55490678178102826 0.15575434259517351 0.15767118064104579 4.0363163264539699 0.37254439647949766
leaf_count=99 644 63 14 85 327 42 46 271 81 196 104 92 460 143 55 456 433 557 130 260 215 6409 46 23 70 115 31 14 746 46
internal_value=0 -0.00011277 -0.0294463 -0.0624003 -0.0999081 0.00350796 -0.115494 0.0328556 0.052044 2.46872e-05 0.0254579 0.0393658 0.0478718 -0.0486532 0.00939473 -0.000156041 -0.0257595 -0.0035389 -0.0794604 2.46226e-05 0.054023 -9.12672e-05 0.0116141 -0.1201 -0.0413329 -0.0736537 -0.107946 0.0227316 0.0322496 -0.0382598
internal_weight=0 1459.25 6.80619 3.40311 2.25856 3.40308 2.14221 2.46539 2.17096 1452.45 10.2483 8.62893 8.15788 1.61933 0.893441 1442.2 10.1052 7.14759 2.95756 1432.09 3.06693 1429.03 1.14455 0.725892 0.757789 0.937687 0.471051 0.38278 4.8608 0.824484
internal_count=12273 11382 1174 588 387 586 373 415 352 10208 1552 1227 1104 325 198 8656 1576 990 586 7080 411 6669 201 127 155 171 123 56 891 145
is_linear=0
shrinkage=0.3


Tree=379
num_leaves=31
num_cat=0
split_feature=242 3 120 293 110 213 191 37 192 129 154 258 113 230 103 231 34 70 251 87 20 25 117 76 104 259 59 271 94 32
split_gain=0.0566131 0.0498553 0.0545744 0.0468142 0.0606564 0.0443433 0.0536409 0.0614874 0.0695444 0.0516247 0.0567905 0.108906 0.0982919 0.0559069 0.0457937 0.0444751 0.0415884 0.0313237 0.0289604 0.0282654 0.0259426 0.0255997 0.0220414 0.0110159 0.00862406 0.0072927 0.000226757 7.90127e-07 1.98378e-07 8.22913e-08
threshold=-0.10475299879908553 -0.10061865419001711 0.00039600000309290004 -0.0018284999532624498 0.009376489980075382 -0.06964421217868301 0.015262499917298502 -0.060682001763609945 -0.01582682029390084 0.052893500775098752 0.0003409474016410528 -0.015959499403834298 -1.0000000180025095e-35 0.01938420499918558 0.046554498374462058 -0.064281500875949846 -0.038767998483555159 -0.020570499822497344 0.0067780001554637514 -0.004651499912142699 -0.039902500808238893 -0.10235324076334062 -0.0096054999157785485 -0.051659500226378392 -0.053335499018430689 -0.11258549988269803 -0.047972236879342024 -0.0087069999426602988 -0.097546998411416938 -0.021601884263251082
decision_type=2 2 2 2 2 2 2 2 2 2 2 2 2 2 2 2 2 2 2 2 2 2 2 2 2 2 2 2 2 2
left_child=20 2 3 17 23 6 7 -3 -9 10 12 -12 -7 14 -11 -15 18 -2 -8 -6 22 -18 -1 -5 -4 -22 -27 -26 -29 -28
right_child=1 5 24 4 19 9 16 8 -10 13 11 -13 -14 15 -16 -17 21 -19 -20 -21 25 -23 -24 -25 27 26 29 28 -30 -31
leaf_value=-0.15006370459609397 0.0014537235830463966 0.16292556464896849 -0.054211136380170805 0.006082569411162109 -0.060354981588546491 -0.044842976010664511 0.099238412795791806 0.078719780611552201 -0.12052400560964718 -0.063548504727461597 0.0069698642774925594 0.081636410129056716 6.0223578350101062e-05 0.026254973494532152 0.065139273246588345 -0.14896011696904432 0.0076542483722618973 -0.20075446524130808 -0.17581616313802695 0.17408475068677173 -0.026933136048830086 0.16503928471305379 0.16725754009011701 -0.19463299608000248 -0.20235250173130548 -0.16914886018856631 -0.20078544902381595 -0.20132268326369734 -0.20059227997121554 -0.20035806496077335
leaf_weight=0.036686825764718378 0.11973793965898949 0.16080138442339376 0.042397012555738911 0.03508454895199975 0.0591213820498524 4.4019757449466388 0.066319870558800176 0.25644363529272596 0.40932082672588765 0.53999621877573989 9.2561660161114769 2.1703113210734264 1323.5409367681957 0.16581746501333328 0.46161988874882809 0.6101025668551755 0.1125532135629328 0.16254227825629641 0.071695854945573956 0.21316803020363295 0.025451973837334663 0.5358059643622255 0.042550219863187522 0.082423932092978158 0.031380417772197688 0.023169297026470304 0.12313405352006157 0.041823932202532887 0.16747841569304001 0.060454182823376779
leaf_count=28 36 30 21 17 36 1011 19 64 84 221 2481 492 6757 46 143 223 25 46 21 63 5 134 14 40 4 5 58 8 86 55
internal_value=0 3.58252e-05 -0.068479 -0.0219394 0.045439 8.45625e-05 0.049797 -0.00356553 -0.0437779 2.47755e-05 9.25819e-05 0.0211518 -8.86253e-05 -0.0510672 -0.00423952 -0.111516 0.105887 -0.114982 -0.0436458 0.123182 -0.127884 0.137718 0.0203375 -0.134705 -0.178972 -0.178462 -0.197115 -0.200949 -0.200738 -0.200645
internal_weight=0 1343.72 0.955158 0.672078 0.389798 1342.76 1.61294 0.826566 0.665764 1341.15 1339.37 11.4265 1327.94 1.77754 1.00162 0.77592 0.786375 0.28228 0.138016 0.272289 0.311447 0.648359 0.079237 0.117508 0.28308 0.23221 0.206758 0.240683 0.209302 0.183588
internal_count=12273 12108 357 238 156 11751 377 178 148 11374 10741 2973 7768 633 364 269 199 82 40 99 165 159 42 57 119 123 118 98 94 113
is_linear=0
shrinkage=0.3


Tree=380
num_leaves=31
num_cat=0
split_feature=149 63 202 136 130 77 158 166 75 4 14 163 37 184 253 213 192 191 16 215 249 50 212 245 295 46 266 173 235 65
split_gain=0.0428567 0.0759017 0.0723568 0.0655244 0.0661038 0.0550369 0.0927486 0.102302 0.100427 0.0927889 0.0822646 0.0893737 0.0771917 0.0718374 0.0633682 0.0590944 0.0554331 0.138969 0.0978291 0.101478 0.0678329 0.0810622 0.0905199 0.0782565 0.0647098 0.0584658 0.0554005 0.0542458 0.0477922 0.047173
threshold=-0.073667999356985023 -0.0017820000066421499 0.033631748364888199 -0.015861697234267332 -0.050813499838113743 -0.071625500917434623 -0.014919499866664349 0.027299999259412251 -0.0091194999404250968 0.038835000246763209 0.10084000229835506 -0.097025498747825539 -0.046238999813795041 -0.065317500382661792 -0.011536005448384302 -1.0000000180025095e-35 -0.079028498381376225 -0.043729431105064963 -0.060301499441266046 0.089926499873399721 -0.039228074716347809 -0.011773999780416449 0.00098018686001008536 0.05519550107419486 -0.046525623772184783 -0.044082644536886685 -0.069323505031674879 0.004670256596065011 0.015367723541734681 0.024561000056564804
decision_type=2 2 2 2 2 2 2 2 2 2 2 2 2 2 2 2 2 2 2 2 2 2 2 2 2 2 2 2 2 2
left_child=1 3 -3 -1 -5 6 7 10 15 12 11 -2 -10 -9 -12 -8 17 26 29 -20 24 23 -23 -22 27 -26 -7 -18 -6 -19
right_child=5 2 -4 4 28 16 8 13 9 -11 14 -13 -14 -15 -16 -17 20 18 19 -21 21 22 -24 -25 25 -27 -28 -29 -30 -31
leaf_value=0.14312886966154623 0.12879120192143695 -0.091894659032750861 0.16933490274024332 -0.14238751415348644 -0.040218362940313938 0.0361806883150756 0.19878032351866748 -0.096388637327642177 0.093951648977925725 0.16477070101585142 -0.089912720859102388 -0.092500283018447524 -0.080356246896726657 0.12865011288078759 0.11357880121407744 0.0025554665217559398 0.064604876426891403 0.091764656988180551 0.12947782066494015 -0.068453875682936094 0.021824111284106155 4.7943121431380554e-05 -0.034386383561994083 0.15223859618791424 0.090994676973025032 -0.11760399377000849 -0.1823097848927264 -0.13635291070921771 0.13487285535666002 -0.14200736144080919
leaf_weight=0.73647453821467945 0.17224682019150384 0.52254576704581168 0.11674927733838558 0.1779617494903506 0.23070610829745419 0.15943687595427036 0.38913734676316381 0.17888522946304874 0.28964872701908451 0.22348032676381979 0.21862016269005835 3.540922412306827 1.0858247717478651 0.44589107172214415 0.37222297317930486 0.21413752082298776 0.52880468274088333 0.11282834038138445 1.6190094415360348 0.27233534801052894 8.9431472391579483 1372.0427127767807 6.9053150356171491 0.43421152344672087 0.13521529009449285 1.1443313806412323 0.30282188500541485 0.15672094744513743 0.3580565822776407 0.24943431385327131
leaf_count=87 26 97 18 22 38 17 33 37 41 20 27 612 194 62 53 33 67 12 170 32 1235 7842 1009 57 27 212 68 41 36 48
internal_value=0 0.042397 -0.0441884 0.0792209 0.0178343 -6.52222e-05 -0.0263536 -0.0492233 0.0248309 -0.01452 -0.0656905 -0.082235 -0.0436503 0.0642173 0.0382841 0.129129 6.9352e-05 0.0428875 0.0736222 0.100978 -1.42912e-05 6.45462e-05 -0.000124493 0.0278629 -0.055713 -0.0955605 -0.106951 0.0186631 0.0662635 -0.069198
internal_weight=0 2.14249 0.639295 1.5032 0.766724 1400.14 7.13102 4.92879 2.20223 1.59895 4.30401 3.71317 1.37547 0.624776 0.590843 0.603275 1393.01 2.71587 2.25361 1.89134 1390.29 1388.33 1378.95 9.37736 1.96507 1.27955 0.462259 0.685526 0.588763 0.362263
internal_count=12273 298 115 183 96 11975 1138 817 321 255 718 638 235 99 80 66 10837 347 262 202 10490 10143 8851 1292 347 239 85 108 74 60
is_linear=0
shrinkage=0.3


Tree=381
num_leaves=31
num_cat=0
split_feature=38 234 103 223 190 225 61 216 213 63 150 90 23 158 252 200 247 287 245 266 265 56 108 116 41 189 91 242 75 195
split_gain=0.0535888 0.0837456 0.0800094 0.0854338 0.0585607 0.0582894 0.0582584 0.0561333 0.0739226 0.104649 0.0860979 0.0919638 0.0837185 0.117063 0.144102 0.112436 0.103357 0.120305 0.0969105 0.0771161 0.0894647 0.0723868 0.0710768 0.070354 0.0656611 0.0654837 0.0559321 0.0551327 0.0524665 0.0409441
threshold=0.071520499885082203 -0.037323500961065244 0.034242499619722304 0.0044090000446885009 -0.029581000097095897 0.011648277833603567 0.01339320787862385 -0.13325149565935127 -0.01141632545765171 -0.035013847384438516 0.055283000692725161 0.0041920000221579512 0.022413500584661902 -0.038873501121997799 0.024491500109434055 -0.10619799792766564 -0.038992320214209085 0.042451547719078636 -0.031861001625657047 -0.070544676594828534 0.12801299989223477 -0.022460000589489899 -0.06743349879980079 0.014492999762296651 0.054138500243425307 -0.046556790716347142 -0.025183000601828046 -0.009965999983251048 -0.0040454591817442632 0.053109985472652145
decision_type=2 2 2 2 2 2 2 2 2 2 2 2 2 2 2 2 2 2 2 2 2 2 2 2 2 2 2 2 2 2
left_child=7 5 6 4 -4 -2 26 21 9 19 11 -11 13 14 -10 -15 18 -18 -14 23 -21 25 -23 -9 -12 27 -3 -1 -6 -27
right_child=1 2 3 -5 28 -7 -8 8 12 10 24 -13 16 15 -16 -17 17 -19 -20 20 -22 22 -24 -25 -26 29 -28 -29 -30 -31
leaf_value=0.091033518797513868 0.13958932356824014 0.17390066350127825 -0.10635253518421262 0.16959178092269575 -0.092582348605685871 -0.054633764995390695 -0.14731566454058234 -0.14024653760373232 0.021470654536357534 0.011261051092357685 0.093383025090871208 -0.078859838649363953 0.10048607380760111 0.078042538518737242 -0.048838991830628974 -3.1365762473522222e-05 0.028610803652490805 -0.052495092810266798 0.019833449925044266 -0.09455734647046922 0.13668273383291973 0.12317956815843457 -0.12035425634029773 0.099031193264676284 -0.046754594903724266 0.062559709415032083 -0.093242873810797808 -0.16725458103640178 0.14609064017888726 0.16924339964265447
leaf_weight=0.13911045979693881 0.87746864639575528 0.12945270161435474 0.30715250380308134 0.37180531589547172 0.12191067918320186 0.16526115811939235 0.42213839627402194 0.14984646449011085 3.6756515380187684 2.6527286957855249 1.1970697733750055 1.6547886379084955 2.4071237375756027 1.6620511235341826 9.1652130053683987 1420.4671495910773 4.8269827656913531 2.4976463257007708 3.0269243432303483 3.0617006928914638 0.15836916031548742 0.15264778683194891 0.36758843620896087 0.42217590209838818 0.40195407644046088 0.75318141139359795 0.15498567655595152 0.15983744677942024 0.2589995218804686 0.56789083063176804
leaf_count=22 163 20 51 53 24 30 90 37 556 610 250 454 239 205 1201 5478 786 367 389 618 12 34 81 65 109 112 67 26 46 78
internal_value=0 0.0413889 0.00159207 0.053723 -0.00888846 0.108807 -0.0766046 -8.60617e-05 -0.000157357 -0.0262612 -0.00129197 -0.0233601 1.75185e-05 -0.000197596 -0.0287131 5.98797e-05 0.0242115 0.000954271 0.0555602 -0.0651532 -0.0831845 0.0484629 -0.0488965 0.0363502 0.058156 0.0797279 0.0283387 -0.0470645 0.0697031 0.10842
internal_weight=0 2.80917 1.76644 1.05987 0.688063 1.04273 0.706577 1459.57 1457.43 9.69863 5.90654 4.30752 1447.73 1434.97 12.8409 1422.13 12.7587 7.32463 5.43405 3.79209 3.22007 2.14026 0.520236 0.572022 1.59902 1.62002 0.284438 0.298948 0.38091 1.32107
internal_count=12273 544 351 174 121 193 177 11729 11376 2155 1423 1064 9221 7440 1757 5683 1781 1153 628 732 630 353 115 102 359 238 87 48 70 190
is_linear=0
shrinkage=0.3


Tree=382
num_leaves=31
num_cat=0
split_feature=242 40 69 140 99 264 207 36 36 216 57 72 174 37 49 275 287 253 95 53 175 98 284 198 139 223 127 193 88 203
split_gain=0.0462262 0.0445619 0.0843559 0.0725541 0.0679961 0.0599983 0.0459561 0.120772 0.106716 0.0935657 0.0757367 0.0720163 0.0697135 0.0861273 0.0916285 0.0843459 0.0764139 0.0688178 0.0539399 0.049541 0.0405748 0.0395099 0.0389722 0.0369009 0.0316647 0.0248092 0.0158373 0.0147571 0.00536735 0.00310061
threshold=-0.11012400314211838 -0.011885500047355849 -0.0093912397537221932 -0.029878499917685947 0.063249676290483586 -0.046143442968320396 -1.0000000180025095e-35 -0.00063300001784224991 -0.0010138274296754692 -0.069175001233816091 -0.069503627772993751 -0.069388779446760071 -1.0000000180025095e-35 0.0020139999687671501 0.033412241178469804 -0.084322960004075007 -0.040456499904394094 -0.06746800243854513 0.05912999995052811 0.077696502208709675 -0.030720855039210768 0.025373759252318797 0.013444385276848351 0.018247007808390045 -0.0055794999934732489 -0.064426405916538684 0.021746685215264121 -0.045172395019497942 -0.013581500388681849 0.024013570933449475
decision_type=2 2 2 2 2 2 2 2 2 2 2 2 2 2 2 2 2 2 2 2 2 2 2 2 2 2 2 2 2 2
left_child=26 2 4 5 20 24 7 8 10 11 -3 -9 13 14 -8 19 -17 -11 -15 -14 22 -22 -2 -7 -4 -5 28 -27 -1 -6
right_child=1 6 3 25 29 23 12 9 -10 17 -12 -13 15 18 -16 16 -18 -19 -20 -21 21 -23 -24 -25 -26 27 -28 -29 -30 -31
leaf_value=-0.046709399901489139 -0.098764638311415409 -0.025639467053521926 -0.035298684815374237 -0.0070273254961772218 -0.10797925179487748 -0.19029395504459887 0.063954461323291203 0.15869392941413105 -0.19100523755174378 -0.10149424914068793 0.026924412282459217 -0.061534005865267832 0.13534054733433046 -0.17156992026327933 -0.089728234046143787 -0.11557748802782974 5.4652760226991525e-07 0.13087746012689966 0.044423936748473759 -0.043979974958142154 -0.12014141806256451 0.15635690389472581 0.13867037250553496 0.01848316337372442 0.16086921586138722 -0.061478980088204974 0.047329322570137326 -0.19276205775525754 -0.20064775785782277 -0.20088155438932115
leaf_weight=0.023651746596442536 0.071618080140979146 3.8083372693745314 0.12551603131578304 0.091033268457977212 0.051895018976210849 0.18839637595374381 0.72576152499163915 0.17309158506395761 0.24703679588856076 0.12333099459647212 7.0045569035760309 0.58629199525239561 0.63902105823217326 0.62852881594562848 0.67287376586045866 0.51503103456707222 1323.5494523838788 1.6397202635389463 0.12470164665137418 0.17708351408737144 0.16588108440214488 0.064635061360604595 0.47396703157255615 0.1279322110585781 0.18063200318283634 0.089590134279205924 0.033089570214542618 0.55094143052974542 0.1475849548558007 0.085769659854122438
leaf_count=11 29 1005 51 33 26 51 210 24 11 34 1650 166 179 266 234 231 7060 306 38 44 63 18 105 49 39 38 17 158 104 23
internal_value=0 3.40073e-05 -0.0419838 -0.0895148 0.0284489 -0.0142311 0.000105085 0.0174669 0.00395703 0.0767024 0.00841124 -0.0113359 -7.26149e-05 -0.0540261 -0.00998122 1.50162e-05 -4.44107e-05 0.114622 -0.135811 0.0964305 0.0629155 -0.0426133 0.107503 -0.105859 0.0804434 -0.153572 -0.14267 -0.1744 -0.179385 -0.16586
internal_weight=0 1342.88 2.26781 1.35404 0.913766 0.622477 1340.61 13.5824 11.0599 2.52243 10.8129 0.759384 1327.03 2.15187 1.39864 1324.88 1324.06 1.76305 0.75323 0.816105 0.776101 0.230516 0.545585 0.316329 0.306148 0.731565 0.204326 0.640532 0.171237 0.137665
internal_count=12273 12141 683 419 264 190 11458 3196 2666 530 2655 190 8262 748 444 7514 7291 340 304 223 215 81 134 100 90 229 132 196 115 49
is_linear=0
shrinkage=0.3


Tree=383
num_leaves=31
num_cat=0
split_feature=296 193 163 149 71 216 86 202 28 61 138 38 16 4 215 111 245 274 57 123 188 8 291 251 55 138 171 207 81 222
split_gain=0.041181 0.0726816 0.0544664 0.0553167 0.0536132 0.098826 0.0585661 0.0877361 0.0616658 0.0564833 0.0539949 0.115002 0.0623318 0.0633307 0.0575086 0.0549103 0.134392 0.100854 0.0948416 0.0644244 0.106039 0.089688 0.0535353 0.0524721 0.0506632 0.0504453 0.0499721 0.060001 0.0450185 0.0443016
threshold=0.06689849868416782 -1.0000000180025095e-35 -0.032523280327633131 -0.05096775106432487 0.020215384121790848 -0.021926499903201998 0.012639716308644357 0.014987499918788652 -0.13327600061893458 -0.024447634325260145 0.085623502731323214 -0.043798100164548832 -0.047308948288903023 0.012602524596130401 0.027939499355852552 -1.0000000180025095e-35 -0.032839501276612247 0.041203999891877105 -0.02336464658552884 -0.10966816482687171 0.050962917470669798 0.10336050018668171 -0.0034875000128521995 -0.06750984243318775 -0.012398818220965698 0.016849973254834182 -0.036633500829338993 0.030273995194100296 0.0072396986122683256 -0.033425500616431146
decision_type=2 2 2 2 2 2 2 2 2 2 2 2 2 2 2 2 2 2 2 2 2 2 2 2 2 2 2 2 2 2
left_child=4 2 -2 -4 10 6 7 8 -6 -7 15 14 13 -13 22 16 17 -1 -18 20 -17 -21 -12 -8 -14 -9 27 -11 -5 -3
right_child=1 29 3 28 5 9 23 25 -10 26 11 12 24 -15 -16 19 18 -19 -20 21 -22 -23 -24 -25 -26 -27 -28 -29 -30 -31
leaf_value=-0.07651913506635824 0.06886534310962944 0.0070903054337345724 0.15292087167623811 0.020488874921468066 0.13574385962849819 -0.12139104188274669 0.10317994117982272 0.14712663393266112 -0.11706027875473929 -0.14477639058229627 0.10823674245129147 0.081444148459326793 0.0070833671335405381 -0.11935805808811803 -0.16339336152732648 0.015237843897719372 0.027327332372039454 0.073840074171921441 -0.047225104051358109 9.1538449191123767e-05 0.1288062168024709 -0.043973231534718292 -0.11333471088012795 -0.15863665134857963 0.12821572097316788 -0.039635168399798588 0.11478603617636929 0.14520262606563242 -0.15695676557264104 0.14439524658168051
leaf_weight=4.0156733836042804 0.46748144489538401 0.30769586344831623 0.091126802712096944 0.19198623827833217 0.096786888258066361 0.16903516749152914 0.0756306640105322 0.28555921159568243 0.84496587393732658 0.17518369287427049 0.21996966231381521 0.29690400129766259 0.40382249985123109 0.26982132540433668 0.30773160298122093 6.7108592869590202 5.053746323534142 0.44609189309994679 2.2061474043512117 1368.2853087472813 0.83163224118470669 4.1697996350267195 0.17720331274904344 0.77336049501354853 1.3483304751716767 0.23918953554675682 0.62230571845429838 0.10138624960382003 0.39022030051273759 0.67640821964596298
leaf_count=594 72 58 9 34 14 30 11 35 172 43 26 52 69 81 45 655 627 59 286 7919 70 580 20 194 188 46 92 15 66 111
internal_value=0 0.0417268 -0.00980499 -0.0644242 -6.85475e-05 -0.037787 -0.0726068 -0.0363045 -0.0910788 0.0377108 2.29509e-05 0.0400682 0.0723252 -0.014159 -0.0660455 -6.40553e-05 -0.0205105 -0.0614861 0.00467223 0.000109616 0.0277598 -4.23393e-05 0.00938008 -0.135313 0.100298 0.0619974 0.0676301 -0.0384746 -0.098443 0.101465
internal_weight=0 2.12492 1.14081 0.673333 1398.13 3.3834 2.31549 1.4665 0.941753 1.06791 1394.74 3.02378 2.31888 0.566725 0.704905 1391.72 11.7217 4.46177 7.25989 1380 7.54249 1372.46 0.397173 0.848991 1.75215 0.524749 0.898876 0.27657 0.582207 0.984104
internal_count=12273 350 181 109 11923 652 472 267 186 180 11271 481 390 133 91 10790 1566 653 913 9224 725 8499 46 205 257 81 150 58 100 169
is_linear=0
shrinkage=0.3


Tree=384
num_leaves=31
num_cat=0
split_feature=26 136 167 174 37 273 258 216 220 244 223 158 29 41 161 82 4 184 282 76 68 117 137 252 213 264 103 198 206 279
split_gain=0.0491096 0.102131 0.102042 0.0975669 0.091677 0.0806387 0.0732013 0.08798 0.0680693 0.0677882 0.063567 0.101104 0.0817669 0.071082 0.0737757 0.0678214 0.0921421 0.094047 0.0963687 0.0782311 0.110001 0.084262 0.0749444 0.0802081 0.0826211 0.0724376 0.0719534 0.071096 0.0697952 0.0627799
threshold=-0.076838500797748482 -0.077424000948667429 1.0000000180025095e-35 0.091033998876810004 -0.069938000291585881 1.0000000180025095e-35 -0.055731000378727837 0.026154000312089903 -0.018353999592363796 -0.081516001373529393 -0.053411001339554745 -0.0075850707298312989 0.032212000340223257 0.084776498377323109 -0.06618749722838399 0.057121001183986608 -0.043322443847292204 -0.078454239175997961 -0.036249499768018646 0.030555000528693154 -0.1071385814567547 0.006839000154286551 -0.066780999302864033 0.057647218214758204 -0.031478648163492294 -0.028085500001907297 0.039790999144315657 0.072806999087333665 0.028350386875201031 0.060042097084166676
decision_type=2 2 2 2 2 2 2 2 2 2 2 2 2 2 2 2 2 2 2 2 2 2 2 2 2 2 2 2 2 2
left_child=1 2 -1 4 9 -5 7 -6 -8 -3 11 12 29 14 -14 16 17 26 -19 21 -21 -18 25 24 -24 28 -12 -25 -17 -2
right_child=10 3 -4 5 6 -7 8 -9 -10 -11 15 -13 13 -15 -16 22 19 18 -20 20 -22 -23 23 27 -26 -27 -28 -29 -30 -31
leaf_value=0.13415503602580606 -0.13565259244574027 -0.18245417343517714 -0.11112504694610108 -0.14336295840140634 0.098862782148424436 0.053055542909659935 0.10286301679739915 -0.13223449843072771 -0.022033480402165181 0.036996121443070781 0.11607766352236359 0.046208525597931323 -0.10780903963608807 0.074582256352301673 -0.002271252551068931 0.073751889261938722 7.6843234291779617e-05 -0.094287353055242371 -0.013832162153984128 -0.14533804739692402 0.050009914441652412 -0.029703470164755712 -0.094756743707269581 -0.060527787640904863 0.08093079318239306 0.14311007590927796 -0.039273360459896489 0.066803052368463692 -0.15053313087013009 0.08551192725303404
leaf_weight=0.18782784458016955 1.2223018782538018 0.24962024746128009 0.81505038793693529 0.45617506251437578 3.2893198250139903 0.32012440042399248 0.55771204916527506 0.15526285075975454 1.3275929615886062 0.25723277663928446 0.58516653173137434 1.160262509140124 1.0382132107391726 0.52395960020658083 1.3999784624597855 0.43797961828204279 1422.2403376189993 2.5584115154379106 2.8132542558150808 0.27552592372376228 4.440979380882708 8.6027007188613407 0.28158343007453379 1.5859040046016164 1.6677440358344016 0.91451139402488457 0.49557178468239726 0.52540675578529761 0.1746742953928333 0.12756930105206254
leaf_count=32 350 55 156 58 488 48 91 19 232 46 90 230 356 79 369 72 5796 359 402 48 567 1353 73 296 288 113 80 67 37 23
internal_value=0 0.0240234 -0.0651868 0.0375523 0.0508416 -0.0623654 0.062436 0.0884462 0.0149135 -0.071081 -0.000130004 -0.0324026 -0.0535549 -0.0256673 -0.0472106 -8.00524e-06 -0.00013583 -0.0359056 -0.0521513 2.49436e-05 0.0385982 -0.000102206 0.0329791 0.0116724 0.0555525 0.0896323 0.0448416 -0.0288411 0.00980579 -0.114751
internal_weight=0 7.61592 1.00288 6.61304 5.83674 0.776299 5.32989 3.44458 1.88531 0.506853 1453.07 5.47228 4.31202 2.96215 2.43819 1447.6 1442.01 6.4524 5.37167 1435.56 4.71651 1430.84 5.5878 4.06064 1.94933 1.52717 1.08074 2.11131 0.612654 1.34987
internal_count=12273 1225 188 1037 931 106 830 507 323 101 11048 1407 1177 804 725 9641 8695 931 761 7764 615 7149 946 724 361 222 170 363 109 373
is_linear=0
shrinkage=0.3


Tree=385
num_leaves=31
num_cat=0
split_feature=31 210 249 233 177 195 288 185 23 11 9 165 140 181 211 233 200 76 205 78 115 299 271 284 29 140 243 252 109 118
split_gain=0.044771 0.0799229 0.0649907 0.0692506 0.0672529 0.0609323 0.0609024 0.0560636 0.0565549 0.0549114 0.100178 0.107242 0.0770397 0.0728817 0.0699268 0.0699062 0.0682846 0.0528442 0.079841 0.0799385 0.0735154 0.0713666 0.0933349 0.107096 0.102742 0.0671261 0.0561403 0.0499673 0.0484857 0.0473442
threshold=-0.082814000546932179 -0.071065923112146878 0.069436624348423057 -0.016304615886267863 -0.076200768435792848 -0.0020643762560370181 0.004429500084370301 -0.067161999642848927 0.036420000717043856 -0.052048498764634098 0.047553911688514819 0.033386500552296555 0.062477442210114621 0.04551799967885016 -0.068665999919176032 -0.065809988855077148 -0.10790228232722476 0.018994499929249255 -0.068954445166915013 -0.075698426025149243 -0.063522349100255435 -1.0000000180025095e-35 0.0017292184763592646 0.021805685112178976 0.002238603196211619 -0.10837800055742258 -0.064664002507924992 0.0094431182730109441 0.078789498656988116 -0.0059810001403092991
decision_type=2 2 2 2 2 2 2 2 2 2 2 2 2 2 2 2 2 2 2 2 2 2 2 2 2 2 2 2 2 2
left_child=1 5 3 4 -3 -1 -6 -5 -9 10 11 12 16 -12 -15 29 -2 21 28 -20 -21 22 23 -11 -24 27 -27 -23 -19 -13
right_child=9 2 -4 7 6 -7 -8 8 -10 17 13 15 -14 14 -16 -17 -18 18 19 20 -22 25 24 -25 -26 26 -28 -29 -30 -31
leaf_value=0.091274806945321946 -0.0097109821135054029 0.12894165279721248 -0.11020098751678607 -0.17304375700598171 0.01094542012329921 -0.14915334499850991 -0.13403813865312225 0.12738015507618397 -0.045199279128074553 0.18547933443946094 -0.12539479526391989 0.16225461277245065 -0.13906379047083889 -0.17714232180826969 0.091955958788342784 -0.12612970352682992 0.085591516290304218 0.12772191561140478 -0.13981178708914405 -0.15688366478863502 -0.010085638603050439 0.1014265950179857 -0.096375349066319227 -0.0017845200853010596 0.032517477036544895 -0.046545221312704103 4.3055883019515621e-05 -0.1963796441299763 -0.12314612785035409 -0.086150210400598393
leaf_weight=0.10977525889757089 0.82669424997220575 0.18759595089068248 0.47526568292960281 0.080066160080605187 0.49063539358394315 0.69858968536027566 0.55655036750431464 0.75127617616635578 0.22121926787986013 0.68333871985669137 0.60300816179369554 0.16763341346950256 0.16717722819566905 0.11277815837456728 0.37888219896558439 0.50146199633854838 3.7277621105756675 0.38538689281995164 0.70175810060231958 0.34767163768810894 2.6264794333285399 0.063197907365973971 0.64773699533725437 0.45980444863744196 3.9552762965111015 2.3320149394166938 1319.2106923129463 0.25653270523253013 0.084548682698368793 0.1174257991660852
leaf_count=26 195 41 162 33 145 215 150 151 68 107 159 26 57 41 99 176 795 89 279 143 814 16 119 118 1007 518 6376 78 41 29
internal_value=0 -0.0335337 -0.00925603 0.0117184 -0.0364759 -0.116503 -0.0661093 0.0682561 0.0881225 0.000102316 0.027393 0.0438663 0.060951 -0.0554975 0.0302296 -0.0586967 0.0682928 -3.29904e-05 -0.0338501 -0.0487356 -0.027246 7.26134e-05 0.0334335 0.110157 0.0143797 -7.24071e-05 -3.91545e-05 -0.137515 0.0825869 0.059928
internal_weight=0 3.57097 2.76261 2.28734 1.23478 0.808365 1.04719 1.05256 0.972495 1338.36 6.60282 5.50815 4.72163 1.09467 0.49166 0.786521 4.55446 1331.75 4.14584 3.67591 2.97415 1327.61 5.74616 1.14314 4.60301 1321.86 1321.54 0.319731 0.469936 0.285059
internal_count=12273 991 750 588 336 241 295 252 219 11282 1577 1278 1047 299 140 231 990 9705 1366 1236 957 8339 1351 225 1126 6988 6894 94 130 55
is_linear=0
shrinkage=0.3


Tree=386
num_leaves=31
num_cat=0
split_feature=112 162 244 216 274 199 241 32 207 248 176 75 24 75 165 264 78 192 79 34 117 129 17 121 173 91 292 152 246 63
split_gain=0.0426402 0.111515 0.116402 0.0912017 0.085601 0.082635 0.0826258 0.0760359 0.203556 0.0940056 0.095608 0.0922723 0.0896903 0.098001 0.087125 0.0960789 0.0833729 0.0818528 0.0790621 0.0735818 0.0717585 0.075006 0.0705634 0.0680486 0.0638776 0.140729 0.109001 0.105994 0.0913425 0.086992
threshold=0.061934821473877182 0.11498950049281116 -0.024995829151575097 -0.1019122097140092 -0.092336498200893333 -0.020471000112593094 -0.071701498068422673 -0.059077928369500883 -0.019198999740183294 -0.049574000760912847 -0.027405626988486118 0.11696099862456316 -0.094273999333381583 0.049444999545812558 -0.016456407078241888 0.0031744999578222004 0.016327246596368028 0.03016930616394908 -0.037456499412655796 0.018286685161001719 0.042533124405816615 -0.057846000418066895 -0.060294336641983325 0.072001176891348551 0.0014709244645931935 -0.069597431742891652 -0.091545000672340338 0.0028914998983963504 0.029331500642001605 -0.093590497970580985
decision_type=2 2 2 2 2 2 2 2 2 2 2 2 2 2 2 2 2 2 2 2 2 2 2 2 2 2 2 2 2 2
left_child=7 2 3 6 -5 -6 -2 8 9 -1 22 12 13 -10 15 -13 24 -14 -18 -20 21 -4 -11 -12 25 27 -27 -9 29 -26
right_child=1 -3 20 4 5 -7 -8 16 11 10 23 14 17 -15 -16 -17 18 -19 19 -21 -22 -23 -24 -25 28 26 -28 -29 -30 -31
leaf_value=0.088744416762137693 0.1211335226652198 -0.11683646788999502 0.13327842796424152 -0.092681309618219201 0.094430536204271526 0.0086010123495339659 -0.1252709720878383 0.10205730844260007 -0.1006872467027559 0.1192078367489473 0.086881096545764008 -0.15045759796351565 -0.0840762470990674 0.094822970559173325 0.11910072976715108 0.11786996699956262 -0.052812488418513111 -0.0085011298506997377 0.020435652730722231 0.11319740150522786 0.09447210527008218 -0.093722726016644067 -0.11123224146706719 -0.11562930820030914 0.080191849096009668 -0.072330782087593914 8.541310749847051e-05 -0.047211226871260149 -0.1036029434515524 -0.025792974967207827
leaf_weight=1.703865799441701 0.1675047273747623 0.4925049599551129 0.14687258016783733 0.30346083654148959 3.7460896429838604 1.3820114707050395 0.45564343467412882 2.0173833691442264 0.35249257070245021 0.14058247074717656 0.91114111291972111 0.32656667527044192 5.8725734944800934 0.66807761037489399 0.55935668415622675 0.18995903397444636 0.6190582506678769 1.6527886793373907 1.6141612034843995 1.4709562902571631 0.29307561623863865 1.2124638814348125 0.80100959786796044 0.17861158625510143 0.78954383477685031 1.8732673838439939 1360.6889985517869 0.54348412343824737 1.1877265254152005 5.9466891450356334
leaf_count=225 11 68 18 57 346 199 68 219 50 21 127 46 890 60 71 18 128 255 264 211 34 185 124 36 73 271 6978 86 236 898
internal_value=0 0.0215623 0.0304063 0.0496668 0.0621381 0.0712997 -0.0590365 -0.000135275 -0.022661 0.036779 -0.00680897 -0.0457358 -0.0561597 0.0272961 0.0370634 -0.0517767 8.32663e-05 -0.0674778 0.0450305 0.0646636 -0.0401673 -0.0691959 -0.0768269 0.0536894 -3.79913e-05 0.000117906 -1.41456e-05 0.0703786 -0.0268956 -0.0133707
internal_weight=0 8.19963 7.70712 6.05471 5.43156 5.1281 0.623148 1390.11 13.357 3.73521 2.03134 9.62181 8.54593 1.02057 1.07588 0.516526 1376.75 7.52536 3.70418 3.08512 1.65241 1.35934 0.941592 1.08975 1373.05 1365.12 1362.56 2.56087 7.92396 6.73623
internal_count=12273 986 918 681 602 545 79 11287 1923 533 308 1390 1255 110 135 64 9364 1145 603 475 237 203 145 163 8761 7554 7249 305 1207 971
is_linear=0
shrinkage=0.3


Tree=387
num_leaves=31
num_cat=0
split_feature=95 258 140 69 38 299 68 254 70 262 49 64 284 276 216 49 32 170 178 213 67 107 152 283 207 91 143 209 151 19
split_gain=0.04458 0.103128 0.099191 0.0852114 0.0836577 0.0781698 0.0768438 0.0964432 0.11285 0.115035 0.110541 0.122733 0.094632 0.0912614 0.0856507 0.0824158 0.084354 0.0753595 0.116347 0.0777004 0.0727263 0.0713943 0.0696157 0.0693229 0.0672337 0.0894185 0.0695311 0.066208 0.0858396 0.0645664
threshold=-0.038451086960001053 -0.095291490444721585 -0.053974829733510664 -0.013099499978125049 -0.027801999822258897 0.015001786518189753 -0.065980882075367092 -0.0029454261956041194 -0.050847999751567792 -0.042884500697255044 0.060626499354839304 -0.068649623828845721 0.082101002335548359 -0.05786268893737341 -0.0758317635975677 0.073762498795986162 0.0081144999712705005 0.026678499765694103 0.014672916425622311 -0.033057313740418183 -0.04770299978554244 -0.043488500639796243 -0.0096700416887665983 0.040954498574137611 -0.0049245001282542493 -0.013331499882042399 0.037418085641793143 -0.017617570309563239 0.036627000197768156 -0.04266850091516964
decision_type=2 2 2 2 2 2 2 2 2 2 2 2 2 2 2 2 2 2 2 2 2 2 2 2 2 2 2 2 2 2
left_child=1 2 -1 -4 -5 -3 7 8 10 13 14 -12 -11 -10 -2 29 24 27 19 -19 -18 -7 -23 -6 25 -17 -26 28 -9 -8
right_child=6 5 3 4 23 21 15 17 9 12 11 -13 -14 -15 -16 16 20 18 -20 -21 -22 22 -24 -25 26 -27 -28 -29 -30 -31
leaf_value=0.13482098101190954 0.10883602065435097 0.037385770120504501 -0.037979812524146749 -0.051930370764934668 -0.031014403328661431 0.026494557162098708 -0.11710689058559363 -0.14047582769000411 -0.020091877940972093 -0.0022513514889871376 0.18649564794666809 -0.091730918890331775 -0.096797950259721918 -0.12896518782929764 -0.0049261561330429943 0.085731255441070534 0.16310712788870435 0.12838030456123312 0.077261183939656114 -0.16506608784159205 -0.068204887961168942 -0.0078272161559535779 -0.12162003640790046 0.17301085348661621 0.11143528993038535 -0.055030139855619324 -0.0021596327359847695 0.094597564377232032 0.20155059118004756 -1.6938591946907672e-05
leaf_weight=1.1346848960383797 1.1394032167136177 2.2745534805108019 1.0189835677447265 0.31643749156501166 0.19217237548582444 1.0574393986180441 0.42397326722857442 0.25506452983609063 0.99383469822350923 4.046210281943786 0.16227087203878898 1.1828382137318838 1.24622234970775 2.2885797571379936 1.248068311640963 0.73375922276318306 0.14066403359174728 0.096120990165218245 0.47961611713981256 0.52349535392022495 0.93863078940375977 0.88166438058397023 1.0723915008711626 0.68109282482691924 2.0662987749237796 0.90974679658393121 0.63368201752018638 1.434344797889934 0.08911356027238071 1429.1017134927847
leaf_count=129 131 426 171 38 37 208 83 67 130 870 14 142 174 561 224 117 20 19 82 107 166 161 174 108 306 182 86 221 11 7108
internal_value=0 0.0214903 0.0627277 0.0256908 0.0802248 -0.00459189 -0.000136288 -0.0213653 -0.0329262 -0.0518792 0.0106146 -0.0581663 -0.0245145 -0.096001 0.049366 8.83653e-05 0.0370026 0.0280776 -0.033674 -0.119544 -0.0380581 -0.0362972 -0.070277 0.128113 0.0556541 0.00781415 0.0847747 0.0662437 -0.0519194 -5.16655e-05
internal_weight=0 8.62942 3.34337 2.20869 1.1897 5.28605 1450.13 15.1852 12.3074 8.57485 3.73258 1.34511 5.29243 3.28241 2.38747 1434.95 5.42278 2.87776 1.09923 0.619616 1.07929 3.0115 1.95406 0.873265 4.34349 1.64351 2.69998 1.77852 0.344178 1429.53
internal_count=12273 1452 483 354 183 969 10821 2753 2246 1735 511 156 1044 691 355 8068 877 507 208 126 186 543 335 145 691 299 392 299 78 7191
is_linear=0
shrinkage=0.3


Tree=388
num_leaves=31
num_cat=0
split_feature=121 299 143 97 8 228 281 175 107 13 116 266 137 242 296 213 223 223 296 22 217 231 205 161 46 251 11 239 204 156
split_gain=0.0461793 0.0746596 0.069803 0.0813068 0.0553974 0.0531194 0.0847792 0.0882454 0.109489 0.0752492 0.0652906 0.0723126 0.0647135 0.0622048 0.0585234 0.0707603 0.0516034 0.0507249 0.0490105 0.0502532 0.0490043 0.0446761 0.0444765 0.0421729 0.0843298 0.070541 0.0686073 0.101979 0.0810116 0.0430939
threshold=0.087838999927043915 0.035686498507857302 0.040424499660730306 0.051305500790476757 0.12486000359058382 -0.080256499350070884 0.039028499275445862 0.0035454999888315506 -0.016864500008523398 -0.035676000639796195 0.07200499996542932 0.0007910767772204354 -0.021216500550508447 0.020845499821007203 -0.031882735100972136 0.032366291457804688 0.049827537022994993 -0.080367498099803883 0.037713998928666052 -0.011615499854087798 -0.0052160625541998505 -0.092216998338699285 -0.02794494940682057 -0.11153350025415414 0.019272499717771955 -0.0082875001244246491 -0.0010092545541050299 0.072477685365729946 -0.03472814892449564 0.10481650009751316
decision_type=2 2 2 2 2 2 2 2 2 2 2 2 2 2 2 2 2 2 2 2 2 2 2 2 2 2 2 2 2 2
left_child=5 2 3 20 21 6 7 8 9 -1 23 13 -10 17 15 -9 -15 -12 19 -13 -2 -3 -22 24 29 -26 27 -25 -28 -7
right_child=1 4 -4 -5 -6 10 -8 14 12 -11 11 18 -14 16 -16 -17 -18 -19 -20 -21 22 -23 -24 26 25 -27 28 -29 -30 -31
leaf_value=-0.094305842982272917 -0.14617687695391032 0.17004116114693427 -0.13535260042360303 -0.15570238795456662 0.12466579309704807 0.060008548509100951 -0.12709594847325692 0.12602886920577447 0.091960380323075172 0.037872512601475207 0.10485829792085075 -0.050091218007706363 -0.07046286870171628 -0.062222313133331472 0.13302193127305684 -0.15219588244948784 0.16215264054779274 -0.1466645241631673 -0.14413016513050991 0.11041562159629582 0.15572908994795637 -0.15880160681569092 0.021301724671301474 0.038753409058348627 -0.0076304619628426145 -0.15741653598749827 -0.067759174861579008 -0.032205407235054974 1.7269125659019164e-05 -0.18310924658214536
leaf_weight=0.98885069176867546 0.08993568784717354 0.039285678838496096 0.28310624779624038 0.17784462078043362 0.078036040722508915 0.65230020451963255 0.28890295654673526 0.16775426141248306 1.4192920980966615 0.63756498678094409 0.077815271892177407 0.28376685086050202 0.26143703210084335 0.30320553071032907 1.1512138406260417 0.16144607357819041 0.13259310876310337 0.99330404808551909 0.14024091988540022 0.46038008194773272 0.42843186101708852 0.69461976101638345 0.45864593969872591 8.638996974215841 0.48626893713299058 0.67683673827241353 1.5891187492779852 2.3102697487813648 1316.4442332027409 0.072957496440722025
leaf_count=232 41 5 92 57 24 171 79 39 346 157 32 117 57 110 221 54 21 362 69 150 108 270 134 2229 97 196 527 614 5636 26
internal_value=0 -0.0429197 -0.00185489 0.0308712 -0.115646 9.59902e-05 0.0307256 0.0402493 0.0129988 -0.0424911 -2.06338e-05 -0.0495473 0.0666955 -0.089513 0.101125 -0.0104178 0.00604447 -0.128392 0.0185507 0.0492093 0.064833 -0.141199 0.0862261 6.83556e-05 -0.0447326 -0.0947943 0.000132014 0.0237813 -6.44472e-05 0.035552
internal_weight=0 2.24991 1.43796 1.15486 0.811941 1338.34 5.07646 4.78756 3.30714 1.62642 1333.26 2.39131 1.68073 1.50692 1.48041 0.3292 0.435799 1.07112 0.884388 0.744147 0.977013 0.733905 0.887078 1330.87 1.88836 1.16311 1328.98 10.9493 1318.03 0.725258
internal_count=12273 731 432 340 299 11542 1185 1106 792 389 10357 861 403 525 314 93 131 394 336 267 283 275 242 9496 490 293 9006 2843 6163 197
is_linear=0
shrinkage=0.3


Tree=389
num_leaves=31
num_cat=0
split_feature=156 130 274 92 48 291 210 159 63 298 202 136 135 173 283 221 13 47 32 232 81 122 216 279 254 289 297 33 193 179
split_gain=0.0417391 0.0813614 0.0937738 0.0740881 0.0693964 0.07794 0.0609564 0.0910418 0.0793445 0.100674 0.0995002 0.0902494 0.0809047 0.0682303 0.0595734 0.0563054 0.0554476 0.0594294 0.062232 0.0525349 0.11702 0.0797958 0.0951096 0.0717642 0.0565928 0.05164 0.104773 0.138196 0.117082 0.0863104
threshold=-0.016300351737694462 0.028426648872230936 0.0016644022330206797 -0.016667000018060148 -0.069779999554157188 -0.0034875000128521995 1.0000000180025095e-35 -0.069622479150867014 -0.0038880789342685784 0.010709929131447882 0.016273500397801354 -0.086657498031854588 0.10722499713301657 0.0068624999839812005 0.069187998771667467 -0.077519498765468542 0.0068416727225822952 -0.0052394991937762658 -0.024060500785708348 -0.0057991515520676691 0.08469800278544426 -0.064424999058246543 -0.002716598555069926 0.077313906714213496 -0.058220760819653834 -0.0099501555068218419 -0.011454999912530147 -0.053693007964519236 0.080791499465703964 0.019663999788463053
decision_type=2 2 2 2 2 2 2 2 2 2 2 2 2 2 2 2 2 2 2 2 2 2 2 2 2 2 2 2 2 2
left_child=1 2 -1 -4 -5 -6 19 14 9 12 15 -11 -9 -12 -8 -10 17 -3 -19 20 21 22 -2 -23 -22 26 28 -28 -21 -27
right_child=6 16 3 4 5 -7 7 8 10 11 13 -13 -14 -15 -16 -17 -18 18 -20 25 24 23 -24 -25 -26 29 27 -29 -30 -31
leaf_value=0.10297271868011773 -0.045936024902064131 -0.1480791420777173 0.12640794223329641 -0.14421739151343158 -0.070437802887391501 0.10298952734242528 0.15693273519389417 -0.094940702241581035 0.047193662274551108 -0.13456394960663565 0.096725072711952062 0.050432817361217387 0.022506845904959622 -0.15513382217560176 -0.075081374541758242 -0.13537653165668292 0.099219543298719251 -0.15798938278875477 0.076244931716934639 0.014869510159867164 0.039120487882912496 0.071877342435208769 0.13398577512883272 -0.120276687667697 -0.17002845084318868 -7.5135801900262154e-05 0.025357645745551969 -0.061926811873603015 -0.12006732402405436 0.028581788653046301
leaf_weight=1.6673077053274021 1.4533019723694449 0.45967373941311962 0.33971256023869489 0.35394118897966076 0.49218627907976009 0.44325717560423117 0.37496512974030327 1.6446446099944299 0.16862589526135718 0.26738303061574731 0.38368465588428069 2.111792084746412 0.77738392791434296 0.12947387289023027 0.13562826171983033 1.5448626303423216 0.21062838699435815 0.14835762465372682 0.32728547614533432 8.7445469620870426 0.16836242299177684 3.8427274869682142 0.32323427911614988 0.18326735857408483 0.37753712091944169 1350.0348616410902 2.1847880292625632 6.4586184125491837 0.61973703514149825 9.5257663766637943
leaf_count=261 200 114 56 81 100 71 44 290 51 32 63 326 77 41 22 346 36 28 45 1196 29 515 50 23 66 5558 249 993 116 1194
internal_value=0 0.029019 0.0529569 0.00176798 -0.0310708 0.0117402 -0.000106813 -0.0270104 -0.0358968 -0.0141889 -0.0827046 0.029642 -0.0572443 0.0331791 0.0953031 -0.11741 -0.0398402 -0.0711557 0.00318501 3.97353e-05 0.0272676 0.0397606 -0.0131999 0.0631303 -0.105524 -8.57425e-05 -0.0160456 -0.039864 0.00593926 0.000125649
internal_weight=0 4.44235 3.2964 1.6291 1.28938 0.935443 1391.46 7.53844 7.02785 4.8012 2.22665 2.37918 2.42203 0.513159 0.510593 1.71349 1.14595 0.935317 0.475643 1383.92 6.34843 5.80253 1.77654 4.02599 0.5459 1377.57 18.0077 8.64341 9.36428 1359.56
internal_count=12273 792 569 308 252 171 11481 1292 1226 725 501 358 367 104 66 397 223 187 73 10189 883 788 250 538 95 9306 2554 1242 1312 6752
is_linear=0
shrinkage=0.3


Tree=390
num_leaves=27
num_cat=0
split_feature=173 72 274 41 202 10 139 242 112 182 243 6 135 39 159 271 275 31 295 281 211 207 143 152 230 254
split_gain=0.0481929 0.0786094 0.058465 0.0454099 0.0434167 0.106353 0.0755939 0.053666 0.096304 0.0912155 0.0893069 0.0881823 0.0839396 0.118243 0.0766267 0.0571709 0.100609 0.0846505 0.0533792 0.0509262 0.049192 0.0457566 0.0375023 0.024847 0.00142683 1.02551e-06
threshold=-0.13037633978049537 -0.0095868444101974547 -0.013336000032722898 0.072551798063928793 -0.11300949752330773 0.057078604042456051 -0.024252043644183631 1.0000000180025095e-35 -0.040769500657916048 0.068992998450994464 -0.14203250408172602 -0.12000755825170054 0.14628150314092633 -0.055196499451994847 0.056466501206159557 0.090934297835762554 0.05563254217301121 -0.10930050164461129 -0.017081500031053996 -0.030655999667942496 -0.014177000150084449 -0.0068267404024331532 0.012762000318616552 -0.040719326573757701 -0.0051925000734626995 -0.052842000499367645
decision_type=2 2 2 2 2 2 2 2 2 2 2 2 2 2 2 2 2 2 2 2 2 2 2 2 2 2
left_child=1 2 -1 23 5 6 19 8 9 11 21 -6 14 -14 -12 17 -17 -10 -11 -2 -7 -9 -8 -3 -25 -26
right_child=4 3 -4 -5 7 20 22 10 15 18 12 -13 13 -15 -16 16 -18 -19 -20 -21 -22 -23 -24 24 25 -27
leaf_value=0.093546250223843108 -0.14135627292634084 0.067822842943459902 -0.14106303320399904 -0.062276689417761745 -0.099566846621857122 -0.19655710877766652 0.054722411176192746 -0.017002748184447709 -0.099760493543718506 -0.17643732141668952 -0.032320608162216484 0.078799496275681294 0.17515574848349022 -0.051212753104349647 0.025555169363187507 0.05102431309472609 -0.10392110093830322 -7.0791976961214476e-05 0.034351612470853117 0.082907684058340897 0.028961003627999866 0.16691666800494726 0.19630046222633754 0.16066632266995981 0.20205501194171202 0.20097055388115256
leaf_weight=0.16014481900492683 0.16222192160785198 0.22380511325900443 0.23718419167016691 0.1072292033895792 0.27128275886207198 0.1898806028184481 0.25068662961734745 0.18506831150989456 0.76701681901613383 0.23950806231005117 14.78677172602193 3.1008499657668827 0.45992906772153219 0.37865452548430667 2.3919130137255697 3.7042585023127677 0.41991022438742209 1426.9984408229234 0.19710328686778655 0.20794948146794912 0.16074450137966767 0.35578706377418967 0.51291262691665906 0.10192271030246047 0.14017647196305916 0.17830622356359416
leaf_count=29 20 33 34 29 73 23 32 32 108 26 3186 652 37 41 450 542 61 6627 41 33 17 38 36 22 15 36
internal_value=0 0.0614201 -0.046503 0.118485 -5.05995e-05 0.05123 0.095886 -0.000102943 0.000104255 0.0477447 -0.0161323 0.0644502 -0.019738 0.0729412 -0.0242621 -2.24656e-05 0.0352482 -0.000124347 -0.081279 -0.0153725 -0.0931681 0.103984 0.149821 0.148573 0.191561 0.201448
internal_weight=0 1.14877 0.397329 0.75144 1455.74 1.4844 1.13377 1454.26 1435.7 3.80874 18.5581 3.37213 18.0173 0.838584 17.1787 1431.89 4.12417 1427.77 0.436611 0.370171 0.350625 0.540855 0.763599 0.644211 0.420405 0.318483
internal_count=12273 198 63 135 12075 161 121 11914 8130 792 3784 725 3714 78 3636 7338 603 6735 67 53 40 70 68 106 73 51
is_linear=0
shrinkage=0.3


Tree=391
num_leaves=31
num_cat=0
split_feature=141 154 243 123 131 37 272 171 17 81 22 94 175 144 16 148 8 83 228 5 201 283 132 33 243 107 256 121 241 294
split_gain=0.0369135 0.0640569 0.053162 0.0469031 0.0468046 0.0386692 0.0411573 0.0377752 0.0646967 0.0658231 0.0658234 0.0648633 0.0574771 0.0600596 0.0574351 0.0893998 0.0721128 0.0672462 0.0688218 0.0650491 0.0598955 0.0521737 0.0636791 0.0841013 0.0643777 0.0507775 0.0457562 0.0448481 0.044197 0.0376878
threshold=0.069070000201463713 0.036170498909998579 0.041888499632477753 0.06657800078392026 0.06403822881154099 -0.042359610540338502 0.053357500582933357 -0.051331287272374813 -0.037424499168991994 0.028969000093638852 0.028840928783080137 -0.041767500340938492 -0.015302394516512123 -0.031275499612092937 -0.032074499875306993 0.13935261728168433 0.070750001817941652 0.057966500520706107 -0.094367999583482687 -0.06332100182771673 0.0067584998905658505 -0.042394500225782346 -1.0000000180025095e-35 -0.010116499848663748 -0.064664002507924992 -0.035892499610781649 0.065632018147784313 -0.015286500100046349 -0.045843674427155166 -0.026449499651789599
decision_type=2 2 2 2 2 2 2 2 2 2 2 2 2 2 2 2 2 2 2 2 2 2 2 2 2 2 2 2 2 2
left_child=7 2 3 5 29 6 -2 14 9 12 27 -12 13 -9 17 16 19 18 -1 -16 -20 -10 23 -23 -24 -18 -14 -11 -19 -3
right_child=1 4 -4 -5 -6 -7 -8 8 21 10 11 -13 26 -15 15 -17 25 28 20 -21 -22 22 24 -25 -26 -27 -28 -29 -30 -31
leaf_value=-0.1141506565456841 0.077229034125400067 -0.048689150103523489 0.095670666069754107 0.13779835912351054 -0.14498210449046528 -0.13774531810030352 -0.17432734112322021 0.067369673366773172 -0.13412819641254142 0.024089209307887282 -0.1317976907561029 0.048004375893434287 -0.14467004198256239 -0.050583874785985548 -0.093096370047087415 -0.14422012237490259 -0.15004908163768166 0.057312881428248197 0.1056229448037363 0.044479523646370173 -0.0074848992898208302 -0.0037330035918909997 -0.064101258251293675 0.05732489546244466 2.3345513867989661e-06 0.010620061848300704 0.11292313749694231 -0.16770871877817631 -0.12568015809632493 0.13929467535996781
leaf_weight=0.17143211001530367 0.17410239077071277 0.1355848547111691 0.1472208532723015 0.073508600449713302 0.096753158097044434 0.93183646588477054 0.088184078438644065 1.0066415015726309 0.26068253197899949 0.12832260707364185 0.29015254856608408 0.47813296304502728 0.36244988681369195 0.63269911158249659 0.34517967685133077 0.36093201462062996 0.37934387956283899 0.2012750125097682 2.0330180788787406 2.9768738458492399 0.53151902611148205 4.0895851068014508 1.4114940408740029 4.0320510322082992 1316.2158188123099 0.33193916246818833 0.074884025514620589 0.75701523933275872 0.2898417700180288 0.32863848951637908
leaf_count=39 60 58 58 22 68 479 41 302 72 54 101 165 165 259 105 68 126 62 521 886 147 1009 320 988 5412 113 18 350 97 108
internal_value=0 -0.0409552 -0.0749684 -0.0947861 0.04483 -0.109104 -0.00734745 8.02309e-05 -4.04762e-05 -0.0394935 -0.0841521 -0.0199001 -0.00393262 0.0218458 0.0211407 -0.00117737 0.0116231 0.0515308 0.0698787 0.0301846 0.0821805 7.05122e-05 9.68997e-05 0.0265797 -6.63357e-05 -0.0750685 -0.100563 -0.139909 -0.0506839 0.0843906
internal_weight=0 1.97583 1.41485 1.26763 0.560977 1.19412 0.262286 1337.36 1329.74 3.7303 1.65362 0.768286 2.07667 1.63934 7.62135 4.39427 4.03334 3.22709 2.73597 3.32205 2.56454 1326.01 1325.75 8.12164 1317.63 0.711283 0.437334 0.885338 0.491117 0.464223
internal_count=12273 894 660 602 234 580 101 11379 9215 1414 670 266 744 561 2164 1298 1230 866 707 991 668 7801 7729 1997 5732 239 183 404 159 166
is_linear=0
shrinkage=0.3


Tree=392
num_leaves=31
num_cat=0
split_feature=199 214 201 57 1 190 258 194 228 281 223 35 193 249 28 94 204 156 77 205 162 74 242 146 170 47 20 259 258 44
split_gain=0.038308 0.0523988 0.0507099 0.0997364 0.0849412 0.113404 0.0898256 0.0876428 0.0840803 0.124736 0.102082 0.0877878 0.0898726 0.084082 0.0837473 0.0789681 0.0777654 0.0713782 0.0703287 0.0700995 0.0834752 0.0876511 0.0693342 0.0781771 0.0643195 0.0650058 0.0608141 0.0658082 0.0535696 0.053168
threshold=0.042695499956607805 -0.038566999137401491 -0.020748817428173829 -0.074382683497951074 -0.049090499058365787 -0.049265381849711062 -0.10430032751958675 -0.011651999782770798 -0.037660107071100103 0.032469999045133556 0.0079514998942613515 -0.004639000166207499 -0.022496287096090382 0.10010300204157825 -0.088750834700272327 0.039716999977827051 -0.036982986260670141 0.076885998249053913 -0.10030600056052204 -0.063776193464612094 0.092797499150037766 -0.041576571219793308 -0.078755332538382822 -0.031909000128507538 -0.046026999130844994 -0.015079000033438148 0.056945500895380911 -0.013555000070482449 -0.16385950148105619 -0.0151424999348819
decision_type=2 2 2 2 2 2 2 2 2 2 2 2 2 2 2 2 2 2 2 2 2 2 2 2 2 2 2 2 2 2
left_child=2 -2 8 4 6 7 -4 -6 9 10 14 12 15 -12 -1 -10 -14 -8 -7 20 21 -5 -13 -24 25 -21 27 -11 -26 -22
right_child=1 -3 3 19 5 18 17 -9 11 26 13 22 16 -15 -16 -17 -18 -19 -20 24 29 -23 23 -25 28 -27 -28 -29 -30 -31
leaf_value=0.022676542900987327 -0.10885402486740044 0.050932546481289226 0.13695634641385623 -0.17557606657037236 0.0077291392801454323 -0.095902918326984957 0.088114517418494326 -0.11023998592943877 0.095505571504017395 -0.0069240152172856282 -0.10279774458799509 0.085789036251705433 0.057965818423617886 0.077246897196223588 -0.047474419927724387 -0.14905166605348039 -0.017816971612080585 -0.042197799441534775 0.057301103108591663 -0.0087724405994261765 -0.095827529266872491 -0.014644507932970618 0.0082603882745877349 -0.068109592748140491 0.094061890289558581 0.12404275736663534 -0.13530086663804958 0.12632342423743653 -7.3284658029934874e-05 0.13585886505069039
leaf_weight=2.321218428631254 0.20144182650256004 2.2233464643650214 1.2097737138392406 0.65831154730403785 1.4312616128008815 0.29294817300979081 0.8121080655546391 0.93840559836826276 1.8029122868611009 0.59191096825088596 2.9481839933268934 0.45403223912535384 1.7340710769349241 0.25351954803045362 4.5024281236487722 0.12721702420094505 4.1002806355963912 0.7081978850037558 3.3938959886254434 0.59245832599117421 0.1350335328024812 0.56687687786415963 2.0504473208347918 2.9304763497925688 0.54429184235050243 0.75345894723432028 0.14648137509357173 0.76434745484948408 1354.1720056494923 0.26231197016022623
leaf_count=218 51 428 99 131 189 58 100 145 263 89 534 72 255 31 696 31 683 80 452 94 23 111 369 589 65 104 24 94 6160 35
internal_value=0 0.0376581 -8.23676e-05 0.000161281 0.0320206 0.0122169 0.0759539 -0.0389875 -0.0135466 -0.0322654 -0.0443472 0.0028019 0.0232712 -0.0885413 -0.023611 0.0793865 0.004707 0.0274117 0.0451279 -4.49051e-05 -0.0623641 -0.101115 -0.0264409 -0.0366711 2.96601e-05 0.0655789 0.0483367 0.0681703 -3.54634e-05 0.0571228
internal_weight=0 2.42479 1391.2 1366.47 8.78659 6.05651 2.73008 2.36967 24.7275 11.5281 10.0254 13.1994 7.76448 3.2017 6.82365 1.93013 5.83435 1.52031 3.68684 1357.68 1.62253 1.22519 5.43496 4.98092 1356.06 1.34592 1.50274 1.35626 1354.72 0.397346
internal_count=12273 479 11794 7846 1123 844 279 334 3948 1686 1479 2262 1232 565 914 294 938 180 510 6723 300 242 1030 958 6423 198 207 183 6225 58
is_linear=0
shrinkage=0.3


Tree=393
num_leaves=31
num_cat=0
split_feature=154 68 144 242 199 131 283 94 291 225 51 104 49 64 58 30 38 67 242 223 222 108 34 116 298 295 163 299 211 120
split_gain=0.0417355 0.0784997 0.0860798 0.0822122 0.0779626 0.10321 0.0596368 0.0743233 0.0518417 0.0527463 0.0623166 0.0621137 0.0638712 0.0572455 0.0508409 0.0530187 0.0492369 0.0964821 0.0881536 0.071281 0.0515697 0.0904666 0.0782125 0.0748614 0.061232 0.105443 0.0760155 0.0480968 0.0464672 0.0464427
threshold=0.051789902836841782 -0.077452000230550738 -0.11826038782922536 -0.015970688635049444 -0.010623425592540446 0.035699691643822404 0.05340049974620336 -0.031952487113182416 0.043460499495267806 -0.020557801484652704 0.025489000603556553 0.010192678917930858 0.009862758844526056 -0.0060379998758434495 0.035483086432686668 0.0010284999734721503 0.053732000291347455 0.076887000352144214 -0.089281586775787777 -0.050364000722765846 0.0091302962209068774 -0.0007195000071077999 0.065120998769998509 0.087799999862909275 -0.038136211728823838 0.010713000316172751 -0.15367799997329709 -0.014003907192761943 -0.070354699673415816 -0.012167596457909593
decision_type=2 2 2 2 2 2 2 2 2 2 2 2 2 2 2 2 2 2 2 2 2 2 2 2 2 2 2 2 2 2
left_child=8 3 -3 29 6 28 -4 -8 16 13 -11 12 -12 -10 15 -15 20 18 -18 -20 24 23 -23 -22 25 -1 -26 -7 -6 -2
right_child=1 2 4 -5 5 27 7 -9 9 10 11 -13 -14 14 -16 -17 17 -19 19 -21 21 22 -24 -25 26 -27 -28 -29 -30 -31
leaf_value=0.056206726207013169 0.1355429263879098 -0.13037484630344776 0.14102541692800155 -0.11680088332257356 0.10680907940147895 -0.099193073455051156 0.1352751119593692 -0.0087435020078848059 -0.11470455477700656 0.085114589704468988 -0.18112411363511957 -0.13087525160567084 0.053601484606200019 -0.041146692943857831 -0.12061390886208961 0.15712859889559344 -0.12319248030389708 -0.13862424276745172 -0.023085160369526726 0.098011390735401716 -0.011872299504318836 -0.091958238620102148 0.070654817545181395 0.13128082401473923 -0.17474222040734436 -0.040365942152382782 -3.9964236746054854e-05 0.14090386126366108 -0.15236019331494879 -0.052539652165845864
leaf_weight=4.0463824865901179 0.26025049536838196 0.22448919336602546 1.1048461847931328 0.59911547220690387 0.073902729112887755 0.095404195613809861 0.52711142982298087 0.83081324476370289 1.1052861628127173 0.54646882006818387 0.12548524254452764 0.41437243537257018 0.6189962179360009 0.26732905761673498 0.23607566457940266 0.22231482615097775 0.22972930020023419 0.25374602590818529 0.56348088245567929 1.9563142872502779 4.5134072557163449 2.1641876643494125 0.30353559694776766 0.35460585443070147 0.22418969745922268 1.359386819793144 1431.1709631462309 0.35266783741462859 0.39527158683631514 0.21641293066932121
leaf_count=588 47 58 195 168 20 26 81 169 259 136 51 101 156 64 59 49 31 92 212 349 1039 527 52 54 37 220 7208 72 110 43
internal_value=0 0.0282912 0.0495167 -0.042827 0.0614644 -0.0131931 0.0892703 0.0471608 -8.39226e-05 -0.0363628 0.00160209 -0.037779 0.0140376 -0.0717218 -0.0062582 0.048877 4.73104e-06 0.0383771 0.054712 0.0709316 -7.50693e-05 -0.0251645 -0.0719565 -0.00144444 5.30275e-05 0.0319216 -6.73267e-05 0.089782 -0.111537 0.0501504
internal_weight=0 4.68029 3.60451 1.07578 3.38002 0.917246 2.46277 1.35792 1450.68 3.53633 1.70532 1.15885 0.744481 1.83101 0.72572 0.489644 1447.14 3.00327 2.74952 2.5198 1444.14 7.33574 2.46772 4.86801 1436.8 5.40577 1431.4 0.448072 0.469174 0.476663
internal_count=12273 989 731 258 673 228 445 250 11284 875 444 308 207 431 172 113 10409 684 592 561 9725 1672 579 1093 8053 808 7245 98 130 90
is_linear=0
shrinkage=0.3


Tree=394
num_leaves=31
num_cat=0
split_feature=290 12 31 124 54 62 55 93 62 141 175 146 175 9 198 73 50 160 133 1 153 172 178 249 272 13 115 195 245 181
split_gain=0.0358036 0.0700921 0.0516255 0.0496496 0.0484989 0.0423994 0.0615564 0.068406 0.0602116 0.0884759 0.0689072 0.0647895 0.0924273 0.080638 0.0688178 0.0737856 0.0580765 0.0578369 0.0549118 0.0419346 0.0361405 0.0376635 0.0347925 0.0345926 0.049677 0.0329438 0.0305918 0.0270744 0.025514 0.0254113
threshold=0.032503999769687604 -0.047841548931349433 -0.049279499799013089 -0.0053255579750845832 -0.0058309999294578491 0.077963501214981065 0.078136999160051318 0.053734000772237757 0.044216566731214886 0.027948766154087003 0.018903784980855116 1.0000000180025095e-35 -0.1332935986211323 0.04887899942696091 -0.00037049999809819995 0.0077627387668891034 -0.044689498841762494 -0.062661468416252114 -0.074901998043060289 -0.092474497854709584 -0.065677497535943943 -0.0094856270496543778 -0.016728291616845851 0.069436624348423057 -0.0048907526084595873 0.038797998800873708 0.021647499874234154 0.034712499007582609 -0.046324307430566918 0.088213336649518345
decision_type=2 2 2 2 2 2 2 2 2 2 2 2 2 2 2 2 2 2 2 2 2 2 2 2 2 2 2 2 2 2
left_child=5 4 26 23 27 8 7 16 11 10 17 14 -13 -14 15 -1 -7 -10 -16 -18 -11 -22 -8 24 -4 -6 -3 -2 -12 -5
right_child=1 2 3 29 25 6 22 -9 9 20 28 12 13 -15 18 -17 19 -19 -20 -21 21 -23 -24 -25 -26 -27 -28 -29 -30 -31
leaf_value=-0.1646657980816974 0.15844535606722854 -0.19372224744358785 0.13835798560473972 -0.1878120617348901 -0.20057599885270494 -0.12896293994303284 0.024553324976162097 -0.18885747583994311 -0.14372503952405216 0.074829893325410471 0.0012946108271476753 -0.14560134240157793 0.034789509003729929 -0.054797642795673493 -0.1137121686223164 -0.024278947725770134 -0.11682813057238242 0.02564277964835145 1.8412959190419321e-05 0.090239675222017562 -0.061277968746795641 -0.1750231270482959 -0.18971405916711601 0.14499360869867342 -0.10207080725388731 0.14151290771841654 0.012107757961749852 -0.033548080727021153 -0.18205203774835058 0.017867618569853194
leaf_weight=0.44321706704613362 0.26767636139993556 0.38911160376983378 0.11210648690848746 0.20885034751972764 0.091113334395913514 0.12685972697727366 0.12317210182595772 0.097876647317434506 0.19853816949853431 0.090245315739593823 0.093636782852627221 0.28688516955116838 10.201309382815221 0.99220478416964475 0.38219022430825944 1.4052930050211214 0.092373839248467315 2.109796338238993 1316.6079315004079 1.8682678835398274 0.4830834506501559 0.57247881206831142 0.15283568810264103 0.14721336851926026 0.24942637190929418 0.03509495202160906 0.078017647818342084 0.08778257592848604 0.25253095061270858 0.072942617181979585
leaf_count=75 60 136 29 112 53 49 39 43 68 41 33 103 2680 357 165 497 37 565 5783 560 154 202 66 39 130 14 26 45 88 24
internal_value=0 -0.0430056 -0.0802752 -0.0335526 0.054308 6.44106e-05 0.0394023 0.0562626 -8.16594e-06 -0.0377161 -0.00764227 9.95539e-05 0.022539 0.0268484 -9.57803e-05 -0.0579395 0.0677556 0.0110756 -1.45916e-05 0.0804839 -0.107388 -0.122967 -0.0940944 0.0224015 -0.0275171 -0.105451 -0.159346 0.111032 -0.132458 -0.134572
internal_weight=0 1.73934 1.25767 0.790539 0.481667 1336.58 2.46139 2.18538 1334.12 3.80031 2.6545 1330.32 11.4804 11.1935 1318.84 1.84851 2.0875 2.30833 1316.99 1.96064 1.14581 1.05556 0.276008 0.508746 0.361533 0.126208 0.467129 0.355459 0.346168 0.281793
internal_count=12273 668 496 334 172 11605 794 689 10811 1151 754 9660 3140 3037 6520 572 646 633 5948 597 397 356 105 198 159 67 162 105 121 136
is_linear=0
shrinkage=0.3


Tree=395
num_leaves=31
num_cat=0
split_feature=115 85 227 227 14 79 194 119 131 30 210 7 26 136 54 23 286 74 115 216 248 34 201 166 210 204 253 119 66 296
split_gain=0.038025 0.0736791 0.0623742 0.0666357 0.084014 0.057225 0.0543973 0.0926615 0.0996325 0.0943423 0.093478 0.0885654 0.0877004 0.0716979 0.0708134 0.069686 0.0675613 0.072772 0.0662711 0.0578064 0.0913174 0.0807501 0.115544 0.0986519 0.0979933 0.09753 0.074295 0.0722017 0.0693447 0.0599003
threshold=-0.082637500017881338 -0.012648500036448199 -0.072638496756553581 0.0048825000412761515 -0.0053484998643397496 -0.030005499720573394 0.022292500361800156 -0.094711001962423283 0.025297041309581086 -0.045518498867750092 -0.032803999260067891 0.015258499886840552 -0.049013120122122146 -0.03907999955117699 -0.015350999776273898 0.019646749266235674 0.012389500159770202 -0.078300002962350776 0.032470500096678706 0.013817500323057152 -0.009821812375207668 -0.023629999719560098 0.016894902351991814 -0.039124500006437239 -0.046500581708270525 -0.064084500074386527 -0.091034625118843568 -0.10540850088000288 -0.083127498626708943 0.0053189999889581511
decision_type=2 2 2 2 2 2 2 2 2 2 2 2 2 2 2 2 2 2 2 2 2 2 2 2 2 2 2 2 2 2
left_child=1 -1 -3 4 -4 -6 19 10 9 14 16 18 -13 -12 -9 -11 -8 -18 -10 21 26 22 25 24 -23 -2 -21 -25 -24 -22
right_child=6 2 3 -5 5 -7 7 8 11 15 13 12 -14 -15 -16 -17 17 -19 -20 20 29 23 28 27 -26 -27 -28 -29 -30 -31
leaf_value=0.082591975464239215 0.052239428971982381 0.12395709683810223 0.072119216323466934 0.061408515749083445 0.078141916350783713 -0.11945349602552612 0.11157308186091897 0.0595591707077004 -0.099726106694499508 0.064400634672250323 0.041827957294459948 -0.1506745825105992 0.099655145877787607 -0.15597911148785368 -0.16395675167411919 -0.031192614479914435 0.087508312354740977 -0.095791642600798838 0.044348781180424145 -0.09265980798248355 -0.12022598330560391 -0.00059126098138452717 -0.093698320468514784 -0.051231472319886041 0.054227741177434778 -0.070652675552950572 0.10323517572184367 -3.1627175926684031e-06 0.073046827392131974 0.068552542249633697
leaf_weight=1.4699699772863826 0.6689994033295078 0.30823483993299339 0.36067177430959496 0.63385004145857227 0.15173341705303811 1.0096132613252826 1.0729393890251233 0.17478331690654159 3.3005207618552963 1.6045164061506496 0.29658752074465156 0.17134230090596247 0.47551001590909425 0.37147510010981921 0.47223395909532007 1.1993525718867202 0.38848388605401851 0.39125256842817169 0.31473606635699969 0.19588255623239104 0.40682262310292472 5.7241685544286156 0.27726195580908086 2.4806446031666374 6.0225643567264324 4.4290837887592707 1.5772692650643876 1354.3479856596337 1.1787811306421643 0.24082358615123667
leaf_count=239 127 38 40 106 28 143 121 31 688 230 45 38 65 72 70 197 53 64 59 37 88 701 52 398 782 884 245 6434 154 44
internal_value=0 0.0294366 -0.00227346 -0.0203212 -0.0543579 -0.0936371 -9.92677e-05 -0.0218907 -0.0382102 -0.000317328 0.0280439 -0.0688907 0.0333462 -0.0681623 -0.103577 0.0235107 0.0627352 -0.0044671 -0.0871833 6.26195e-05 0.0463804 -1.8919e-05 -0.0332388 0.000140171 0.0275145 -0.0545261 0.0815944 -9.68217e-05 0.041295 -0.0500298
internal_weight=0 3.93407 2.4641 2.15587 1.52202 1.16135 1387.78 10.2337 7.713 3.45089 2.52074 4.26211 0.646852 0.668063 0.647017 2.80387 1.85268 0.779736 3.61526 1377.55 2.4208 1375.13 6.55413 1368.58 11.7467 5.09808 1.77315 1356.83 1.45604 0.647646
internal_count=12273 594 355 317 211 171 11679 1733 1378 528 355 850 103 117 101 427 238 117 747 9946 414 9532 1217 8315 1483 1011 282 6832 206 132
is_linear=0
shrinkage=0.3


Tree=396
num_leaves=31
num_cat=0
split_feature=293 56 194 135 3 171 211 49 13 168 177 234 216 161 185 273 236 95 17 163 230 90 268 233 156 13 189 51 215 191
split_gain=0.0423452 0.0453493 0.0747116 0.068018 0.069757 0.0648866 0.0869274 0.0558917 0.0628671 0.0942833 0.0907573 0.0924579 0.0669434 0.0600713 0.0594022 0.105756 0.114225 0.0859473 0.0909349 0.0805578 0.0655568 0.0537453 0.051929 0.0493868 0.0402398 0.0387458 0.038197 0.0454319 0.0389317 0.0218765
threshold=-0.078979998826980535 0.012221510967403705 -0.019387500360608049 0.11119900271296497 -0.0068010000977664986 -0.057986756242097218 0.0020228371248838827 0.074392372317169497 -0.035676000639796195 -0.020889321476665685 -0.037812592841901617 -0.06473750248551359 -0.058971265311209504 -0.082338497042655875 0.053107433900767075 -0.03056087518214767 -0.087715258235119262 -0.020120000466704296 -0.0045384999830274985 -0.096012998372316291 0.065520498901605564 0.037304318179882494 -0.028584999963641146 0.042871000245213502 0.041121896428750838 -0.046105357190072124 -0.024612000212073295 -0.0064588879814232048 -0.020474651672481043 0.054415499791502904
decision_type=2 2 2 2 2 2 2 2 2 2 2 2 2 2 2 2 2 2 2 2 2 2 2 2 2 2 2 2 2 2
left_child=26 7 5 4 21 29 23 14 9 25 11 -10 -12 -11 17 19 -17 20 -19 -16 -2 -4 -6 -7 -8 -9 -1 -28 -29 -3
right_child=1 2 3 -5 22 6 24 8 10 13 12 -13 -14 -15 15 16 -18 18 -20 -21 -22 -23 -24 -25 -26 -27 27 28 -30 -31
leaf_value=0.1686464604879262 0.01626395595561619 -0.19543804653342978 -0.0034009323995206112 -0.14595836648467603 -0.015052546469311966 -0.11772433628328464 -0.0919086481946879 -0.099844812691183754 0.083336508434492321 0.013294968516783688 0.080608796546164554 -0.094225958427524154 -0.021874878548750767 0.093086493359113523 -0.18897836125604259 0.055160629016077933 -0.038847943394216357 -0.03274271355755537 6.9718536915653226e-05 -0.048931884985884751 0.081688146924548288 -0.16040922806868299 0.11757378504055924 0.056484885293925771 0.16837367638853604 0.097106993607426847 0.15788166219364166 0.10297101383061674 -0.14125931199638384 0.030605224230370709
leaf_weight=0.24991430765658151 5.7362941885512546 0.42257104767395492 1.1627781006027365 0.2599291901642572 0.41540877527404518 0.8037757971214885 0.071515318064484745 0.47662356556975283 0.33241040045686521 1.2756100000624431 1.2884426183891267 1.2810778790353654 1.0340024650649846 2.5401503306679842 0.53273580464883696 1.7814137442219355 3.3521767085503593 7.6424096214143438 1418.0982612059197 1.2076335113069943 1.814432496728841 0.23605100025451964 0.73726735558011502 0.17908935454761377 0.21171117594349198 0.11079475411679585 0.13780849426984787 0.090532687136146706 0.16728207933374406 0.042399739684697124
leaf_count=38 1118 199 340 54 107 200 32 88 57 173 243 221 221 389 91 233 603 1539 5458 218 232 82 112 34 48 26 22 20 52 23
internal_value=0 -2.25849e-05 -0.0299507 0.000239104 0.0151327 -0.0789823 -0.0437839 7.12694e-05 0.0245609 0.049188 -0.00298982 -0.0576446 0.0349809 0.0664122 -7.05347e-05 -0.027892 -0.00622591 6.28951e-05 -0.000106166 -0.0918008 0.0319853 -0.0298959 0.0697771 -0.0859814 0.102652 -0.0626971 0.0768301 0.0188298 -0.0554969 -0.174826
internal_weight=0 1453.05 4.5425 2.81143 2.55151 1.73106 1.26609 1448.5 8.33911 4.40318 3.93593 1.61349 2.32245 3.81576 1440.17 6.87396 5.13359 1433.29 1425.74 1.74037 7.55073 1.39883 1.15268 0.982865 0.283226 0.587418 0.645538 0.395623 0.257815 0.464971
internal_count=12273 12141 1231 695 641 536 314 10910 1418 676 742 278 464 562 9492 1145 836 8347 6997 309 1350 422 219 234 80 114 132 94 72 222
is_linear=0
shrinkage=0.3


Tree=397
num_leaves=31
num_cat=0
split_feature=36 93 75 272 263 193 113 71 107 144 141 2 212 114 26 213 13 86 51 164 26 33 154 240 143 263 162 272 73 294
split_gain=0.0336038 0.0527081 0.0554838 0.0567676 0.0537745 0.0523795 0.0489871 0.0851335 0.0808791 0.0900831 0.0792657 0.074369 0.0738137 0.0753212 0.0706302 0.0659762 0.0605391 0.0577542 0.0629286 0.0556002 0.0506991 0.0512613 0.050334 0.0409802 0.0387669 0.0356358 0.0349838 0.0344512 0.0342485 0.0326072
threshold=-0.082735501229762934 -0.053455999121069846 0.084816119476554125 0.0059817630390386943 -0.030882300063660367 -0.013332999777048748 0.0012801628148276093 -0.076120193122303684 -0.0078727722866059769 0.011552999727427902 0.061037501320242854 0.078882500529289218 -0.090077999979257542 -0.045035648284631712 -0.028174999170005249 0.083498999476432759 -0.065829718742894949 -0.063156999647617285 -1.0000000180025095e-35 -0.0010505900291909143 -0.08639400079846378 0.089205499738454763 0.023336975708580822 0.065582498908042866 1.0000000180025095e-35 0.07070800289511682 0.051228500902652706 -0.029550500214099846 0.074742776280309384 0.0378000382213814
decision_type=2 2 2 2 2 2 2 2 2 2 2 2 2 2 2 2 2 2 2 2 2 2 2 2 2 2 2 2 2 2
left_child=1 24 3 26 -5 -6 7 20 10 11 12 15 14 -14 -8 -10 -11 -9 19 -19 -2 29 27 -24 -1 -4 28 -12 -3 -22
right_child=6 2 25 4 5 -7 8 17 9 16 22 -13 13 -15 -16 -17 -18 18 -20 -21 21 -23 23 -25 -26 -27 -28 -29 -30 -31
leaf_value=-0.083304549860756652 0.10345015270026138 0.067287437612108855 -0.16293070288773515 -0.13930393692994927 -0.10661073644546627 0.01598561489498734 -0.15100290501495509 -0.13882462434185169 0.084652772215038627 0.083745738110035411 0.098598244675865004 -0.16842084341832111 -0.040177359692097216 0.029548852461618969 0.003297410299051028 -0.12207552124946823 -0.09745782949535875 -0.066274515762851163 -8.4444694375946261e-05 0.11778237469128662 -0.14737634482253192 0.15687090753060956 0.13347736351779205 -0.15542957245228631 0.14391925311888182 0.048842922703837499 0.15236392209358374 -0.16193806846220821 -0.17112465339849686 0.026762028329319256
leaf_weight=0.093032206943462703 0.11491444433750075 0.16818428224746629 0.4568504307076181 0.43525965068647643 0.44247198288940204 1.0773399533109094 0.47754774512668519 0.26988080716182494 3.5532932956235754 0.23830173945862043 0.050278985586714953 0.11498352359558328 1.6783992205555467 8.2384928422694639 0.60555007042171449 0.14459471242298594 0.54644896858997061 0.18656306092179875 1315.3944681901603 0.70930571485678129 0.7809338815754916 0.061739722325000912 0.13346295344717873 0.066058625239975299 0.24697082342322574 0.084784763383140671 0.23248596440498659 0.4992016032658747 0.080034443895783625 0.11046512420580257
leaf_count=49 41 62 225 237 172 441 108 129 1027 59 13 50 524 2121 153 77 176 108 5393 239 278 18 59 44 77 29 65 233 32 34
internal_value=0 -0.0301561 -0.0429347 -0.023623 -0.0463327 -0.0197066 7.50448e-05 -0.000127446 0.0163969 0.0501303 0.0031964 0.0691812 0.00962637 0.0177479 -0.064735 0.0765693 -0.0424326 -5.87629e-05 -3.03115e-05 0.0794529 -0.0847915 -0.107487 -0.0912354 0.0378246 0.0817459 -0.129781 0.0687393 -0.138098 -0.009585 -0.125797
internal_weight=0 3.31741 2.97741 2.43578 1.95507 1.51981 1333.97 1317.63 16.3466 4.59762 11.749 3.81287 11 9.91689 1.0831 3.69789 0.784751 1316.56 1316.29 0.895869 1.06805 0.953139 0.749002 0.199522 0.340003 0.541635 0.480705 0.549481 0.248219 0.891399
internal_count=12273 1389 1263 1009 850 613 10884 6240 4644 1389 3255 1154 2906 2645 261 1104 235 5869 5740 347 371 330 349 103 126 254 159 246 94 312
is_linear=0
shrinkage=0.3


Tree=398
num_leaves=31
num_cat=0
split_feature=2 275 117 95 139 122 138 83 252 75 121 258 15 281 188 10 78 267 233 112 244 258 37 192 252 105 289 230 56 155
split_gain=0.0383063 0.084571 0.0618806 0.0521206 0.0903775 0.0958269 0.0920746 0.0869162 0.0856942 0.0826022 0.0750172 0.0965507 0.0789659 0.0785052 0.0726283 0.0649542 0.0837981 0.107933 0.081433 0.0877788 0.0641233 0.0616736 0.0517316 0.0510546 0.0568703 0.0511751 0.0497179 0.0737249 0.0483618 0.0483021
threshold=0.077531497925519902 0.0031489999964832505 -0.073729500174522331 -0.0028704999713226498 -0.017241463553502406 -0.058742939103137222 0.052462000399827909 0.073293499648570959 0.037514500319957657 0.13391465718480569 0.075774460879969405 -0.10584350302815433 0.03332924167723849 -0.050448531681825351 0.027800000272691205 0.013898500241339153 0.0049254999030381016 0.00040280397617339247 -0.089426977276842998 0.042682665701616954 -0.047522999702167938 -0.10974200069904318 0.062647470580413381 -0.01661158295535797 0.037514500319957657 -0.02144881067706263 0.010495699081065868 0.011966499965637901 -0.052245398140432435 -0.029792911147051619
decision_type=2 2 2 2 2 2 2 2 2 2 2 2 2 2 2 2 2 2 2 2 2 2 2 2 2 2 2 2 2 2
left_child=3 22 -3 4 15 6 9 8 -7 -6 29 26 13 -13 -14 16 17 -1 20 -20 -17 -18 -2 -4 25 -25 -12 -28 -8 -5
right_child=1 2 23 10 5 7 28 -9 -10 -11 11 12 14 -15 -16 18 21 -19 19 -21 -22 -23 -24 24 -26 -27 27 -29 -30 -31
leaf_value=-0.10083605233025791 0.099827105146714529 -0.18626463857493536 -0.096329012119919427 -0.029621201905378286 -0.11534005890613498 -0.071548902569567654 0.14480740794812597 0.098121885469974551 0.013094794193521636 0.06418374277096843 0.1725540336893048 0.069526475106916785 0.11078534158465625 -0.058919490115391396 -0.077461252274547407 -0.17140372241253837 -0.10060165683737299 0.0042593437683729248 0.0096810665563740652 0.092557753722021491 0.053834498962802395 0.12300193418070546 -0.096337395066731057 0.098827963103864838 0.13320546487449969 -0.1477478664691437 0.17263373100848131 -0.083056790041982465 -0.040399422439308649 0.00012228906006019624
leaf_weight=1.689835482982746 1.3788140668948465 0.18106292355514597 0.30769541743211448 4.9317251706252128 2.5982571799972911 2.0432721077850129 0.21974426211090758 0.56549914519746369 2.2750784572272096 0.25314312567934383 0.62724535372399237 0.60619147410761831 0.98023571573139612 1.4589454157949142 0.22721249453024939 0.34174420897033997 0.14352089884050656 1.8339986537321236 5.3142073032686312 1.4678876510224652 0.17051505905692455 0.49016784191189788 0.13263072381960217 0.13209279393777251 0.35609040096460376 0.17760921103763372 0.19264415601355722 0.21449217945337296 0.30029692499374494 1358.15317718498
leaf_count=374 228 33 64 941 525 354 28 79 355 29 66 76 122 272 44 52 31 305 883 180 18 83 19 19 47 37 28 25 65 6891
internal_value=0 0.0359139 -0.0252214 -8.11887e-05 -0.0153994 -0.0393276 -0.0782297 -0.0124726 -0.0269552 -0.0994022 0.00013958 0.03967 0.0144172 -0.021216 0.0753619 0.00184977 -0.0280772 -0.0461386 0.0189071 0.0276185 -0.096429 0.0723591 0.0826135 0.00473172 0.0514369 -0.0425794 0.119565 0.037928 0.03786 1.46753e-05
internal_weight=0 2.666 1.15455 1387.1 19.7072 8.25529 3.37144 4.88385 4.31835 2.8514 1367.39 4.30697 3.27259 2.06514 1.20745 11.4519 4.15752 3.52383 7.29435 6.78209 0.512259 0.633689 1.51144 0.973488 0.665792 0.309702 1.03438 0.407136 0.520041 1363.08
internal_count=12273 447 200 11826 3361 1435 647 788 709 554 8465 633 514 348 166 1926 793 679 1133 1063 70 114 247 167 103 56 119 53 93 7832
is_linear=0
shrinkage=0.3


Tree=399
num_leaves=24
num_cat=0
split_feature=16 234 2 205 95 274 36 121 60 255 285 0 259 238 169 233 219 217 236 297 20 241 249
split_gain=0.03909 0.0570723 0.0411587 0.0421409 0.0565109 0.0572788 0.0593869 0.055029 0.0501987 0.0974587 0.064137 0.0530459 0.0531165 0.05137 0.0401344 0.0377629 0.035367 0.0236771 0.0231357 0.0222909 0.00572801 0.00358345 0.00195045
threshold=-0.11617549881339069 -0.0012340000248513498 -0.12182400003075593 -0.078104000538587529 0.032499705075487724 -0.036241499707102741 -0.048073999583721091 0.028768025572324663 -0.09899200126528733 0.040534000843763303 0.0026874999748542007 0.053550999611616107 -0.053552500903606394 -0.094531278523680498 -0.095061000436544335 0.039468611904213247 -0.013551999814808298 0.011820000130683151 -0.093006884408705359 -0.014307999983429848 0.017097499221563301 -0.052749501541256898 0.038370043516308579
decision_type=2 2 2 2 2 2 2 2 2 2 2 2 2 2 2 2 2 2 2 2 2 2 2
left_child=1 15 16 4 5 7 -7 -4 9 10 -5 13 -13 -10 -11 19 -2 -3 -6 -1 -19 -20 -18
right_child=2 17 3 8 18 6 -8 -9 11 14 -12 12 -14 -15 -16 -17 22 20 21 -21 -22 -23 -24
leaf_value=0.17541073766137447 -0.045851665557979281 -0.010387885272108805 -0.067790791517745419 0.094407968091146433 0.021115607658179963 0.026525547642012395 -0.11332507142884951 0.14326272366998649 0.029321650009011702 0.11956787213013374 -0.096665884452228554 0.027721943808891487 -0.067409017377104419 -9.7547789499729447e-05 -0.16070839754853891 -0.20097199423331616 0.14467147808562811 0.11177191351646364 -0.11559687678506028 -0.069763239572105645 0.19595309027146471 -0.20116642800248352 0.20213556658088833
leaf_weight=0.065869620628291159 0.092009795211197343 0.079434377030337511 0.17445373329610436 1.546140499714965 0.058139218170254026 0.45862073586431484 0.67621094949481542 0.30658115301048383 5.3617360539910797 0.056388957891613245 0.17611537527682219 0.72013660176344307 1.9822881588374901 1439.0606064354904 0.24914585386795796 0.089134377714799484 0.096251799710443176 0.10327856189906015 0.053721705284260679 0.067654341102752369 0.24608268002339173 0.24454917316097624 0.11874036636436358
leaf_count=21 22 20 31 293 14 114 166 55 1009 14 41 142 491 9496 76 38 32 30 17 19 37 83 12
internal_value=0 0.0734666 -3.72168e-05 -6.04533e-05 -0.0438826 -0.0200333 -0.0568071 0.0667213 -8.11945e-07 0.0471676 0.074869 -6.6907e-05 -0.0420587 1.16571e-05 -0.108981 -0.0497581 0.109796 0.137453 -0.152009 0.0511852 0.171067 -0.185754 0.176409
internal_weight=0 0.651454 1451.43 1451.12 1.97228 1.61587 1.13483 0.481035 1449.15 2.02779 1.72226 1447.12 2.70242 1444.42 0.305535 0.222658 0.307002 0.428796 0.35641 0.133524 0.349361 0.298271 0.214992
internal_count=12273 165 12108 12042 480 366 280 86 11562 424 334 11138 633 10505 90 78 66 87 114 40 67 100 44
is_linear=0
shrinkage=0.3


Tree=400
num_leaves=31
num_cat=0
split_feature=64 175 178 145 217 275 62 64 207 196 150 122 278 296 102 253 290 139 240 30 206 77 86 218 73 67 9 171 125 235
split_gain=0.0373185 0.0481745 0.055876 0.051581 0.0564008 0.0475662 0.043507 0.0423778 0.0414846 0.0405169 0.0388358 0.0807524 0.104483 0.0809481 0.0834102 0.0806212 0.0707902 0.0695787 0.0678858 0.0767755 0.0614959 0.0594052 0.0588725 0.056233 0.106102 0.0478445 0.0613297 0.046897 0.0455581 0.040631
threshold=0.016548136959068923 0.011340999975800502 0.0016000271969377816 0.026384499855339454 0.05977350100874896 -0.093882497400045326 0.0020194103997818943 0.039986768787879871 0.016142286195952173 0.0231554992496967 0.00088658950138368654 -0.05979650095105165 -0.028715499676763945 0.0025092838887679409 -0.0069329999387263497 -0.075006007553162349 -0.019704000093042798 -0.058025000616907997 0.12290141789513902 -0.03565894197478265 0.049415816166163355 0.029125500470399853 -0.048452498391270589 -1.0000000180025095e-35 0.01749156930641553 0.018060500733554304 -0.042405130989926744 -0.087588500231504385 -0.034961000084876938 0.010472499765455652
decision_type=2 2 2 2 2 2 2 2 2 2 2 2 2 2 2 2 2 2 2 2 2 2 2 2 2 2 2 2 2 2
left_child=10 2 6 4 -3 -4 7 -2 9 -8 17 16 20 15 -15 -14 18 25 21 -20 29 -12 -19 24 -24 26 -1 -18 -29 -13
right_child=1 3 5 -5 -6 -7 8 -9 -10 -11 11 12 13 14 -16 -17 27 22 19 -21 -22 -23 23 -25 -26 -27 -28 28 -30 -31
leaf_value=0.047329033814556089 -0.0062548014807308249 -0.15465506073175667 0.066025952569323115 0.13204458445791747 0.10501187040992381 -0.12970668753383083 0.12518794660110275 -0.15703777986498721 -0.10537476228888895 -0.069044753106796961 0.044861750856094409 -0.0095778828109234666 -0.083060762808092534 0.038926822301917963 -0.091580163903163439 0.080643080071424525 0.080105178060215873 -0.10074425332979033 0.12098150462915278 -0.1100252137584041 0.11799509716242694 -0.10090501968620252 0.13614648451912711 -8.0092717305031661e-05 0.012271826343469754 0.0006084102874356329 -0.16255883240110458 0.032259417913617867 -0.10087734520250434 -0.14857039042877299
leaf_weight=0.15867518957111315 0.43066771287953975 0.17588995733012769 0.12760703913272664 0.29522506343414534 0.13161522531208902 0.89873951596655366 0.40941744288420523 0.27479381499142619 0.13751574250795784 0.12652854885891429 2.8249570944567504 0.31995593676401757 0.28833360031558175 1.4746784816925358 0.62863992973689153 4.4406873357047498 0.19052418785940961 0.52194184364611729 0.16086113112032763 0.66382311640563774 0.14977979853392753 0.27622678532043199 0.759900514831087 1313.6981292397506 3.4367611109621521 0.50921795839940387 0.59563095346970729 0.28087177174711531 1.3111602699270859 0.46347904492881753
leaf_count=65 176 90 55 117 46 415 110 105 56 43 901 112 101 497 142 1164 98 246 49 154 52 111 164 4856 937 244 286 160 507 214
internal_value=0 -0.033366 -0.0523711 0.0424763 -0.0435151 -0.105371 -0.0129227 -0.0649883 0.0416168 0.0793326 8.69459e-05 0.0161114 0.0360238 0.0488844 -7.91134e-05 0.0706619 -0.0109767 -7.66644e-05 0.0115347 -0.0649655 -0.0581329 0.0318781 -9.22863e-06 3.06667e-05 0.0347021 -0.0704421 -0.118407 -0.0605555 -0.0773889 -0.0918057
internal_weight=0 3.008 2.40527 0.60273 0.307505 1.02635 1.37892 0.705462 0.673462 0.535946 1333.15 13.474 7.76555 6.83234 2.10332 4.72902 5.70842 1319.68 3.92587 0.824684 0.933215 3.10118 1318.42 1317.89 4.19666 1.26352 0.754306 1.78256 1.59203 0.783435
internal_count=12273 1213 960 253 136 470 490 281 209 153 11060 4262 2282 1904 639 1265 1980 6798 1215 203 378 1012 6203 5957 1101 595 351 765 667 326
is_linear=0
shrinkage=0.3


Tree=401
num_leaves=31
num_cat=0
split_feature=53 171 212 294 27 58 93 102 259 196 121 158 90 37 46 126 167 81 53 29 127 277 252 54 26 112 216 287 187 16
split_gain=0.0403038 0.0785455 0.0847383 0.0712483 0.0859114 0.0877633 0.065504 0.0571377 0.054129 0.0547264 0.0583445 0.0509491 0.0664019 0.064344 0.0546265 0.0653852 0.0774402 0.0750722 0.0698322 0.06169 0.0604638 0.0622295 0.0518221 0.0630131 0.0576662 0.0512986 0.097936 0.0706379 0.0493644 0.0481356
threshold=-1.0000000180025095e-35 0.025938499718904454 -0.047773087107000199 -0.085508000105619389 0.0046224999241530002 0.047609620699016114 0.034297601952792973 -0.075480502098798682 -0.046471500769257497 0.010881999973207651 0.039723746975358271 0.021100211908984024 -0.017308910451742425 -0.056320000439882188 -0.022839294520269612 -0.0019099999917670497 0.0018730865945015024 -0.026057000271975946 0.017921499907970404 0.026633391414308729 -0.038104498758911996 -0.0065709999762474988 -0.005739500047638949 -0.023012299156364529 -0.035475629944211683 0.055939000099897357 -0.1019122097140092 0.032471386922016579 0.025912584141687785 -0.056900376087503
decision_type=2 2 2 2 2 2 2 2 2 2 2 2 2 2 2 2 2 2 2 2 2 2 2 2 2 2 2 2 2 2
left_child=1 2 29 7 5 -5 -6 -4 -3 -10 -11 14 13 -13 19 16 17 -16 -18 -2 28 -22 -14 -24 -25 27 -27 -17 -21 -1
right_child=11 8 3 4 6 -7 -8 -9 9 10 -12 12 22 -15 15 25 18 -19 -20 20 21 -23 23 24 -26 26 -28 -29 -30 -31
leaf_value=-0.030085006185501178 0.11391765217061289 0.083200807203074115 0.053258179577044984 0.1200411623860845 -0.040344323770392647 -0.039026288011971909 0.055153925122320889 -0.15597865406411673 -0.16027369554080573 0.063002633091404081 -0.11930910919343535 0.097300966868285071 -0.11202925702049013 -0.13299735009498673 0.038354492049851002 7.1797935522053871e-05 -0.094283072442564023 -0.14049469022752853 0.0012465653142166213 0.099950413910738042 -0.19166776604789423 -0.0020814147513063398 0.095446278280661337 0.066720894224294586 -0.12673329914578424 -0.074882546851307033 0.044971925768173444 -0.025206994534214166 -0.051594870253393293 0.11983181448794894
leaf_weight=0.22690364025038423 0.76953978712299376 0.23753134883008886 0.17460582812782377 1.2889491202654415 1.7108095241346748 0.41193865370587435 1.0390180547547059 0.35888923276797857 0.41405911376932614 0.34630476405436639 0.2905182508402504 0.12510892795398831 0.30869200617598869 0.85792258679794065 0.2740716157532006 1353.2143374295215 0.82452463809022436 0.92116813304710266 4.1802939363860787 0.82621669837681155 0.19094376139401026 0.84710273097675703 0.58528809249401093 0.24052871861204039 0.32749955089093263 0.70631225913530205 4.6738868328284289 10.022409248831989 0.25259354137233458 1.2808329924155257
leaf_count=68 150 43 27 135 376 76 197 79 84 60 57 22 74 205 61 6218 181 254 848 170 66 193 90 44 89 103 585 1432 75 211
internal_value=0 0.0215247 0.034953 0.0161019 0.0285201 0.0815166 -0.00426046 -0.0874982 -0.0461369 -0.0753711 -0.0201679 -0.000128147 -0.0433956 -0.103688 -5.13588e-05 -0.000137916 -0.0308763 -0.0994841 -0.0144916 0.0411764 0.0147328 -0.0369549 -0.00285619 0.0263646 -0.0448161 1.33449e-06 0.0292374 -0.00011405 0.0644675 0.0972704
internal_weight=0 7.78036 6.49195 4.98421 4.45072 1.70089 2.74983 0.533495 1.28841 1.05088 0.636823 1380.15 2.44504 0.983032 1377.7 1374.82 6.20006 1.19524 5.00482 2.8864 2.11686 1.03805 1.46201 1.15332 0.568028 1368.62 5.3802 1363.24 1.07881 1.50774
internal_count=12273 1413 1169 890 784 211 573 106 244 201 117 10860 524 227 10336 9682 1344 315 1029 654 504 259 297 223 133 8338 688 7650 245 279
is_linear=0
shrinkage=0.3


Tree=402
num_leaves=31
num_cat=0
split_feature=245 69 262 176 201 107 164 113 27 67 227 98 114 199 224 285 168 256 82 35 296 211 17 221 179 111 91 266 270 155
split_gain=0.0392566 0.0408364 0.0404656 0.10825 0.101133 0.111923 0.109278 0.0900005 0.0792431 0.111256 0.0755663 0.0680691 0.067368 0.0739512 0.0719348 0.0702163 0.0647813 0.071213 0.0602944 0.0632483 0.0593247 0.0751523 0.0631312 0.0584082 0.0935484 0.0792723 0.0495385 0.046678 0.0441653 0.0230207
threshold=-0.1048386869564062 0.082571502774953801 -0.038631605613199498 -0.067310500890016486 -0.059081498533487244 -0.035462500527501044 -0.038569365978133284 -0.0063145000021903987 0.040700500831007909 -0.076408497989177634 -0.027731000445783097 -0.0129670002497732 -0.027471409621830204 -0.0053725000470875991 -0.044265501201152739 -0.020802499726414594 0.041241500526666607 -0.028809499926865045 -0.067412998527288381 -0.013391499873250648 -0.047617999836802448 -1.0000000180025095e-35 0.011358962632405446 0.0050729999784380007 0.039565858479080167 0.01872798349442158 -0.02318873116503711 0.010808576297564649 0.030257999897003156 -0.045557873655233762
decision_type=2 2 2 2 2 2 2 2 2 2 2 2 2 2 2 2 2 2 2 2 2 2 2 2 2 2 2 2 2 2
left_child=1 29 4 16 12 6 11 -8 9 -7 -10 -6 13 -2 15 -14 23 -18 19 -5 22 -22 -20 25 -25 -4 -21 -16 -19 -1
right_child=2 -3 3 18 5 8 7 -9 10 -11 -12 -13 14 -15 27 -17 17 28 20 26 21 -23 -24 24 -26 -27 -28 -29 -30 -31
leaf_value=-0.079149990789941171 0.18348740604779815 -0.16607859002358674 0.045194102287108878 -0.17772319196908506 -0.046079006355719723 0.15581742226262477 0.05823400098548788 -0.036604003934506309 -0.12130064893890093 -0.034965687826829482 -0.033749907732997735 0.12372523361198484 0.058361963595462238 -0.034315354658432183 0.11186682749965941 -0.11840285286526833 -0.077127422647148072 0.11577754786587936 0.069795595804424029 0.1562694911886445 -0.025524504058073934 9.436753488646784e-05 -0.032172222925208695 0.096292437282079812 -0.090664181536607755 -0.068770894948828099 -0.1015960425231688 -0.088462365703310189 -0.0096923110329134379 0.12537332443331442
leaf_weight=0.055362009679811308 0.49387081534950994 0.055805257201427594 1.0325399918619949 0.35008415140691795 0.27479368157219142 0.29967853100970421 1.1664944587100761 3.9506043329438389 1.9808212017724138 3.3537092145625129 1.6071367082686272 0.93678743622149319 0.32984408904485474 0.19597452555899542 0.614874128186783 0.52283855705263704 0.23325686197495121 1.7608414896531033 2.1030324258972537 0.12275081680854782 10.381025161166916 1414.5739000720196 0.73830785323843873 1.2573344316097061 0.29796106321737159 1.1737553284001476 0.14776148221062513 0.12615865029511042 0.29475604293111235 0.47025293383830913
leaf_count=18 46 10 181 81 56 43 158 630 493 646 401 102 93 29 133 107 33 255 442 20 2454 4880 170 230 52 216 39 27 58 170
internal_value=0 0.0779251 -4.35335e-05 0.000123057 -0.015117 -0.0249463 0.00419736 -0.0149847 -0.0504168 -0.0193162 -0.0820845 0.0852126 0.0432932 0.121613 0.0093922 -0.0500247 0.0401657 0.0799608 -4.65544e-05 -0.0935356 -5.9191e-06 -9.22701e-05 0.0432998 0.0159512 0.0604756 -0.0154356 0.015416 0.0777614 0.0977862 0.103831
internal_weight=0 0.58142 1450.32 1434.47 15.8536 13.57 6.32868 5.1171 7.24135 3.65339 3.58796 1.21158 2.28356 0.689845 1.59372 0.852683 6.05045 2.28885 1428.42 0.620596 1427.8 1424.95 2.84134 3.76159 1.5553 2.2063 0.270512 0.741033 2.0556 0.525615
internal_count=12273 198 12075 9111 2964 2529 946 788 1583 689 894 158 435 75 360 200 1025 346 8086 140 7946 7334 612 679 282 397 59 160 313 188
is_linear=0
shrinkage=0.3


Tree=403
num_leaves=31
num_cat=0
split_feature=281 228 107 128 101 279 136 47 85 117 261 163 49 110 32 74 78 109 199 81 24 214 260 36 155 184 200 205 255 92
split_gain=0.0327981 0.0558536 0.0566969 0.0552159 0.0530316 0.0470693 0.0509455 0.0451172 0.0393705 0.0785324 0.0726748 0.0690211 0.0647571 0.0761192 0.0792132 0.0637857 0.0898934 0.0620739 0.0587444 0.0564365 0.0557743 0.0491845 0.0914703 0.0660184 0.0482897 0.0465198 0.0459675 0.0418097 0.0428748 0.0397308
threshold=0.022997000254690602 0.00064573166228022174 -0.11202749982476229 -0.062104498967528295 0.014601353818167085 0.013906999956816402 -0.0042737503534808633 -0.05773049965500824 -0.0058760061563754989 -0.036464135399756986 0.083537999540567356 -0.0010750527232106406 0.085560999810695607 0.046407608337155133 -0.051893512260605665 -0.11504385912420227 -0.01657337010315682 0.11309349909424778 -0.041320517205449686 -0.009035000111907698 -0.11495227268952506 -1.0000000180025095e-35 0.064531632552243007 -0.0970309066246582 -0.0087720002047716981 0.00099346091345544046 -0.080824678294143068 -0.031012954440226347 -0.013270500116050198 0.059076989165719733
decision_type=2 2 2 2 2 2 2 2 2 2 2 2 2 2 2 2 2 2 2 2 2 2 2 2 2 2 2 2 2 2
left_child=8 2 -2 -4 7 -5 -7 -3 9 10 19 -12 13 17 -15 16 27 -11 -14 29 24 22 -22 -23 -17 -21 -13 28 -10 -1
right_child=1 4 3 5 -6 6 -8 -9 15 12 11 26 18 14 -16 20 -18 -19 -20 25 21 23 -24 -25 -26 -27 -28 -29 -30 -31
leaf_value=0.11663045777521147 0.12036971654880868 -0.1327943946876699 0.17591266340225079 -0.10089415878494284 -0.13146944718198084 -0.067241136718714706 0.10542422999216097 0.082555841318124837 0.04181523908723183 0.08147589186719173 0.084581417786794552 0.13060782921643191 0.034179294890900012 0.065654067984948619 -0.051185797194879333 0.073433705615470635 0.064699857383405585 -0.045520163918415964 -0.12638462472548451 -0.13097362169013163 0.088848712053723577 -0.12569087925783343 -0.0023853023256102568 -2.7413720694890722e-05 -0.20097242838201801 0.0031945650879926526 -0.12646687454101951 -0.18654504437247207 -0.1618206533060198 -0.10741303422000223
leaf_weight=0.21988117396540485 0.15957160760444855 0.098588684121295955 0.083058699179674345 1.6145941734569071 0.15568764989438932 0.43745389972605153 0.23717611904794456 0.78253395237084056 0.20570510779725737 3.7523636855871683 0.76482178911101073 0.079301578072772827 0.42353662507230183 0.92743152139064511 1.1952656110279347 0.078068739308946533 0.31566935930709294 0.38162344230659062 0.39758394786622364 0.90759100269860937 1.601329747221256 0.37636854176639545 2.5865776874724133 1315.7804866812617 0.22141198826216069 0.31272546746185981 0.29723388902675629 0.44039434000023903 0.16992067692990531 0.10537695302991779
leaf_count=74 61 73 35 643 57 203 72 328 82 1204 219 20 128 194 378 25 155 107 146 282 616 183 822 5543 83 112 90 222 69 47
internal_value=0 -0.028709 -0.0527263 -0.0643696 0.0299404 -0.0730876 -0.00653808 0.0584603 8.97787e-05 0.019069 -0.0245963 0.0328178 0.0356456 0.0460411 -0.000137076 -5.04319e-05 -0.0712428 0.0697524 -0.0435652 -0.0669948 1.05744e-05 3.99364e-05 0.0324998 -6.33485e-05 -0.12944 -0.0965909 -0.0723248 -0.123831 -0.0503029 0.044045
internal_weight=0 3.56866 2.53185 2.37228 1.03681 2.28922 0.67463 0.881123 1331.54 9.76474 2.68693 1.14136 7.0778 6.25668 2.1227 1321.78 1.13169 4.13399 0.821121 1.54557 1320.64 1320.34 4.18791 1316.16 0.299481 1.22032 0.376535 0.81602 0.375626 0.325258
internal_count=12273 1472 1014 953 458 918 275 401 10801 3001 844 329 2157 1883 572 7800 528 1311 274 515 7272 7164 1438 5726 108 394 110 373 151 121
is_linear=0
shrinkage=0.3


Tree=404
num_leaves=31
num_cat=0
split_feature=87 7 154 85 277 264 283 15 100 297 122 130 87 2 15 11 235 264 180 95 94 121 124 11 22 29 30 243 47 70
split_gain=0.0426938 0.0645448 0.0783994 0.0725088 0.060423 0.0716821 0.0724372 0.0456732 0.0428309 0.0426878 0.0807965 0.0951646 0.0829791 0.0742103 0.0715187 0.0706047 0.0686979 0.0713386 0.0670299 0.0669934 0.0521591 0.0519831 0.0626289 0.0674246 0.0571626 0.0590834 0.0561678 0.0517553 0.0439973 0.0723856
threshold=0.064750500023365007 -0.081909500062465598 0.0033230014869003229 0.0093439999036490518 -0.0018544999766162997 0.0068773694202660029 0.083021998405456501 -0.032444499433040591 -0.072171775288450521 0.037245029083728856 -0.037489499896764693 0.011349499691277702 -0.071827501058578436 -0.031847000122070243 0.016544500365853254 0.064356002956628758 0.032188499346375458 -0.013497500214725698 0.017590000294148905 0.083028442749410958 -0.037795500829815788 0.090743001550435964 -0.057482000440359039 0.014369908137127073 0.048849881028982307 0.030700532666584599 -0.0037174999015405497 0.0016407706770682309 0.033277500420808757 -0.039129501208662945
decision_type=2 2 2 2 2 2 2 2 2 2 2 2 2 2 2 2 2 2 2 2 2 2 2 2 2 2 2 2 2 2
left_child=9 2 -2 -4 -3 6 7 -6 -8 21 11 12 -11 -14 16 19 27 -18 -16 -13 -20 28 23 -23 26 -26 -24 -12 -1 -30
right_child=1 4 3 -5 5 -7 8 -9 -10 10 14 15 13 -15 18 -17 17 -19 20 -21 -22 22 24 -25 25 -27 -28 -29 29 -31
leaf_value=-0.00013379375746825844 0.13097830430933485 0.093136331483979276 0.071240711231530279 -0.16975568929272311 -0.13028828338208592 -0.15179652300405852 -0.19617808917439397 0.079749872293577606 0.031978352119267077 -0.17609475879627298 0.13885313413007933 -0.12618251529192501 -0.086589727121305263 0.037148635906335048 -0.17373985640008988 0.13788774912385257 0.052412343771232932 -0.10397996714661384 -0.12463881291322983 0.11473812077998732 0.10295523429593628 -0.15884546685757947 0.13716812958622279 0.089046930410397726 0.16100459602416381 -0.16441868169069285 0.033704708856120653 -0.046806475558348257 -0.021446950344863606 0.06075545923424535
leaf_weight=1369.0462285197584 0.96472053963225357 0.45792907150462281 0.30701191365369596 0.17721840366721153 0.10724793092231244 0.34292159934193489 0.20928625061060302 0.7101804195262944 0.11460078260643058 0.24562714429339383 0.76421559813388729 1.7229714241941563 0.57623092402354847 1.7951874224527276 0.29677011791500252 0.10805552540114138 0.7287638675043131 0.41029428824549474 0.14655949559528381 0.11054338538087893 0.23745929144206457 0.25715551991015706 0.86922548701113589 0.16030897966993507 0.070032921154051908 0.17741774070782412 1.0339676869757557 0.16416136372208712 1.5179222180668146 2.6424756241176501
leaf_count=9218 149 75 56 38 19 70 47 120 29 33 87 324 109 320 64 19 162 51 28 19 43 53 119 24 11 50 211 46 252 427
internal_value=0 0.0336208 0.0815386 -0.016959 -0.00212827 -0.0315201 0.00461837 0.0521925 -0.11545 -8.18976e-05 -0.0229515 -0.0474456 -0.0101109 0.00708145 0.0176782 -0.0977692 0.0454494 -0.00392093 -0.0666581 -0.111657 0.0160947 3.95644e-05 0.0426818 -0.0636532 0.0633226 -0.0723181 0.0809585 0.106024 -4.01832e-05 0.0307639
internal_weight=0 3.39112 1.44895 0.48423 1.94217 1.48424 1.14132 0.817428 0.323887 1383.08 7.30684 4.55862 2.61705 2.37142 2.74822 1.94157 2.06744 1.13906 0.680789 1.83351 0.384019 1375.77 2.56811 0.417464 2.15064 0.247451 1.90319 0.928377 1373.21 4.1604
internal_count=12273 603 243 94 360 285 215 139 76 11670 1305 824 462 429 481 362 346 213 135 343 71 10365 468 77 391 61 330 133 9897 679
is_linear=0
shrinkage=0.3


Tree=405
num_leaves=31
num_cat=0
split_feature=59 156 94 141 58 223 158 193 267 298 256 134 126 50 88 140 238 85 60 172 102 17 284 183 241 103 100 112 36 5
split_gain=0.0381175 0.068923 0.0769139 0.0579361 0.0632258 0.0567907 0.0575359 0.0486306 0.0742116 0.0839809 0.0814844 0.0785741 0.0727269 0.0672093 0.0620851 0.0580267 0.0549721 0.0820227 0.0893193 0.110728 0.0847099 0.0650991 0.0675189 0.0925981 0.0779949 0.0669487 0.0756877 0.0618639 0.0556277 0.0497725
threshold=0.066360031444491069 0.070754498243331923 0.068608500063419314 -0.020929999649524647 0.017843391249437488 0.065061502158641815 0.014491499867290201 -0.018914000131189747 0.026597806468849416 -0.0020084999268873993 0.0020050000166520004 0.019331499934196403 0.074455998837947859 0.029161012346177451 0.13447928703119133 -0.011592995342102083 -0.075296598856219282 0.030650918852501142 -0.026874500326812246 0.027999733225403878 -0.08787975815206521 -0.0058134999126195491 0.043316758364055102 -0.02601205783084827 -0.053120998665690346 -0.049295301395496649 -0.12488328012564494 0.063929498195648166 -0.093032436519982081 -0.11600162317698363
decision_type=2 2 2 2 2 2 2 2 2 2 2 2 2 2 2 2 2 2 2 2 2 2 2 2 2 2 2 2 2 2
left_child=7 2 5 -3 -5 6 -2 8 9 12 15 29 13 -1 -14 -10 17 18 20 -20 -9 22 24 -24 -18 26 -23 28 -19 -11
right_child=1 3 -4 4 -6 -7 -8 16 10 11 -12 -13 14 -15 -16 -17 21 27 19 -21 -22 25 23 -25 -26 -27 -28 -29 -30 -31
leaf_value=0.06588708853710265 -0.035599736566054786 0.13841398778175204 0.17833120341163455 0.087466331063223296 -0.027946109835946736 0.1401515957267058 0.084239796557818894 0.14863977782264531 -0.10785524180844575 0.15027295208402389 0.093519411340737824 0.034870924168713596 -0.16558224220233145 -0.050851810607201398 0.12847055481468322 0.059212691896083511 0.074281537137752054 -0.10198216197522202 -0.056221770375623155 0.077713628751860678 0.011399277585808167 0.1509305403222643 -0.079950561226383679 -0.0046131359063490592 -0.021770611907296379 -1.2913284882063982e-06 -0.00012933377713527906 -0.094185302617327674 0.12481757610121545 -0.096885910489176399
leaf_weight=1.3190516802242203 2.9781939335698557 0.66796784865437109 0.20239789137849573 0.92745239620307962 0.79201749384810682 0.20869749362464052 0.41022856183553802 0.64568380374112155 0.45776781503991515 0.075311767985113298 0.88997135837280439 0.53505943332675077 0.34388092948938709 0.66895465399920784 0.079575656971428543 0.31644636058626907 1.0956662435746696 0.10526427743025113 2.2444348815424742 0.73826357965117484 1.0848673114114715 0.56374520424287766 3.1313611863806727 2.7647438670659881 2.4897518023845446 1418.7761196375654 0.63450166512484318 0.15137720257916942 1.291362118499819 2.7861180973513906
leaf_count=319 675 111 35 181 153 35 84 70 114 20 224 127 84 183 19 74 230 25 423 143 215 58 497 582 706 5755 123 27 192 789
internal_value=0 0.0234883 -0.00161131 0.0634333 0.0343054 -0.0117361 -0.021091 -0.000109635 -0.024249 -0.0402529 0.0316038 -0.0706495 0.00256005 0.026605 -0.110324 -0.0395692 1.59979e-05 0.0280647 0.00838658 -0.0230707 0.0626049 -0.00010686 -0.0248825 -0.0446241 0.00758192 5.8573e-05 0.0709406 0.0879792 0.107724 -0.0903808
internal_weight=0 6.18696 3.79952 2.38744 1.71947 3.59712 3.38842 1443.19 7.47214 5.80795 1.66419 3.39649 2.41146 1.98801 0.423457 0.774214 1435.72 6.26125 4.71325 2.9827 1.73055 1429.46 9.48152 5.89611 3.58542 1419.97 1.19825 1.548 1.39663 2.86143
internal_count=12273 1274 829 445 334 794 759 10999 1953 1541 412 936 605 502 103 188 9046 1095 851 566 285 7951 2015 1079 936 5936 181 244 217 809
is_linear=0
shrinkage=0.3


Tree=406
num_leaves=31
num_cat=0
split_feature=45 25 100 218 97 128 35 291 269 154 110 286 290 257 91 114 130 260 118 250 57 112 141 167 205 139 178 217 200 125
split_gain=0.0338361 0.0575539 0.0592859 0.0444934 0.0408192 0.0406145 0.0392354 0.0385243 0.0608382 0.0569652 0.0521082 0.0589257 0.0588513 0.0495267 0.049365 0.0478455 0.0501728 0.047361 0.0465013 0.045681 0.0411537 0.0384636 0.0443951 0.0356813 0.0345938 0.034147 0.0331505 0.0307663 0.0296907 0.0293634
threshold=0.014835399276500554 -0.056264773733230702 -0.048476099020207851 0.072466500103473622 0.040504117019862139 0.025174576607787751 -0.055316500365734038 0.020494500175118401 -0.019157497322539071 -0.054856000468134845 0.0025381791672819684 -0.044805882174718127 -0.057839300965253526 -0.064800905145380477 -0.015916161697328162 -0.072108521694889308 -0.046546999365091289 -0.012693000026047148 -0.10130614521737631 0.054501519654630799 -0.14215999841690055 0.045799000188708257 -0.0035594773820661462 0.039694000035524361 -0.039264405135997667 -0.0023095000069587993 0.039641434955438003 0.0060217636778800241 -0.035143500193953493 -0.0044619999825953492
decision_type=2 2 2 2 2 2 2 2 2 2 2 2 2 2 2 2 2 2 2 2 2 2 2 2 2 2 2 2 2 2
left_child=7 5 3 23 -4 6 28 9 13 18 14 -12 -13 -9 29 16 -11 -17 -1 -16 -19 24 -23 -3 -20 -15 -8 -18 -2 -10
right_child=1 2 4 -5 -6 -7 26 8 10 15 11 12 -14 25 19 17 27 20 21 -21 -22 22 -24 -25 -26 -27 -28 -29 -30 -31
leaf_value=0.18244307467513532 -0.048769555894484486 -0.14221868908561883 0.10433533583177232 0.15740627584066635 -0.1620371131182827 -0.14704697559953486 -0.16071270642324409 0.14579290667366029 0.00018610432757154284 0.062407991661995815 -0.13325002428458357 0.0019529626875848332 0.091131911253868617 -0.17048207605453633 0.06042327335805607 0.083197862909818121 0.00026392217377906599 -0.14000205661285506 -0.0069140397414602754 -0.098967425316508983 6.5684530515588304e-05 0.10959958810208521 -0.095185178679341662 1.6045570157665773e-05 -0.13349347846823281 0.023834163614045278 0.12699457326265132 -0.16016859329436084 0.18727218321425021 -0.16073122510371268
leaf_weight=0.06844280246150436 0.089899674336834323 0.35527047035475345 0.50987191585022507 0.080903981513984036 0.057627924958069343 0.5373272902621693 0.18873158929181988 0.076701979352947092 0.16809566420351985 0.17960617903372622 0.14114064748991939 0.94476933181829315 2.2571110172864342 0.29552853206928376 0.73543736469002741 0.61676343312114923 0.14412692952896478 0.18881542124063244 0.26100683004597136 0.2074824601841101 1323.5692294250869 0.19685366756311851 0.18464023494743731 0.28693954547725298 0.76053082138423544 0.112326926231617 0.044552363811362738 0.42425904882975374 0.10280764732851821 0.25977729715305031
leaf_count=25 40 199 192 32 32 318 100 36 103 60 85 279 692 135 295 270 52 77 101 73 8014 63 73 182 345 55 25 203 27 90
internal_value=0 -0.0367111 0.00470558 -0.0522555 0.077286 -0.0921994 -0.0230169 7.70827e-05 0.0258525 -2.39205e-05 0.036258 0.0564558 0.0648181 -0.0753729 -0.0129994 4.15892e-05 -0.0758111 8.44299e-05 -0.059018 0.0253505 4.57058e-05 -0.070797 0.0104853 -0.0786682 -0.101152 -0.116966 -0.105767 -0.119487 0.0771566 -0.0975127
internal_weight=0 2.25393 1.29061 0.723114 0.5675 0.963319 0.425991 1331.79 5.19837 1326.59 4.71381 3.34302 3.20188 0.484557 1.37079 1325.12 0.747992 1324.37 1.47147 0.94292 1323.76 1.40303 0.381494 0.64221 1.02154 0.407855 0.233284 0.568386 0.192707 0.427873
internal_count=12273 1147 637 413 224 510 192 11126 1843 9283 1617 1056 971 226 561 8676 315 8361 607 368 8091 582 136 381 446 190 125 255 67 193
is_linear=0
shrinkage=0.3


Tree=407
num_leaves=31
num_cat=0
split_feature=231 260 122 96 43 213 42 219 188 57 170 12 92 7 280 52 248 99 209 130 160 277 135 271 275 241 294 176 18 133
split_gain=0.0357433 0.0717048 0.119807 0.085739 0.0788905 0.0756334 0.0809681 0.0659944 0.0707553 0.0667212 0.0637761 0.0601215 0.0827218 0.065504 0.0588841 0.0577846 0.0591635 0.0547219 0.0514755 0.0497666 0.0483612 0.0801579 0.0590447 0.0541366 0.050989 0.0482659 0.0811358 0.0594041 0.0539051 0.0465644
threshold=-0.056580999866127892 0.13181910397620375 -0.061747877840591055 0.028714748590779913 -0.0060835001058875985 0.019368500448763353 -0.080526979870005302 0.031932499259710256 -0.022699488681626082 -0.079363498836755739 -0.05118630047060984 -0.071422502398490892 0.091546997427940313 -0.042963000014424289 -0.054893004928039252 0.032524693053480665 0.034539999440312358 -0.0070684999227522997 0.10695961755089903 -0.0025340000865980493 0.052534676373964403 -0.029671164763884091 0.047503681876448357 0.09297582243804868 -0.067788971430423742 0.027514500543475155 -0.064797997474670341 -0.11485400050878518 -0.0028424999909474995 -0.050357500091195044
decision_type=2 2 2 2 2 2 2 2 2 2 2 2 2 2 2 2 2 2 2 2 2 2 2 2 2 2 2 2 2 2
left_child=1 5 19 -4 -5 6 -1 8 9 -7 -8 12 13 15 -12 16 -2 -15 -10 -3 25 -22 23 -23 -24 -13 28 -28 -27 -14
right_child=11 2 3 4 -6 7 10 -9 18 -11 14 20 29 17 -16 -17 -18 -19 -20 -21 21 22 24 -25 -26 26 27 -29 -30 -31
leaf_value=-0.15495985095857709 0.079271530626334755 0.18140034456388512 0.080579977853462992 0.11305997804652283 -0.14305335230139832 0.1386301840446961 -0.11824128344318106 0.032209440502784466 -0.13848533844925384 -0.07387850115655982 0.10159041186164111 -9.1411438818752314e-06 -0.057854081978770892 0.046322346908402874 -0.0022358607956305229 -0.06699254786292802 -0.12921560760761813 -0.1059654260078179 0.014142724125049069 0.01302797911114147 -0.10342577068824137 -0.017191226570146694 -0.025129682781537748 0.12893055807326115 0.11315794087565959 -0.020470720707340549 0.134707293328894 -0.08897858817789675 0.13294618942212549 0.16401869301148389
leaf_weight=0.27935582840291306 1.7855828318533906 0.4839480638038367 0.39505863917293005 0.13377165453857731 0.56721916308742959 0.20351772173307836 0.28472416283329982 0.46669720039062657 1.6213161617702097 0.38359355539432805 0.74022559385048303 1366.8033219545914 0.099563546071294695 0.33377635423676111 1.4637659316103953 0.35376139185973432 0.13152370342504571 0.58378477839869347 0.22667660930892441 0.2345745894126593 0.34196245457860674 1.3201258199114811 0.29102900552288691 0.27588208878296416 1.3677197921024342 0.57567993612246937 0.11379033303819608 1.7523305827489808 0.32108848309144411 0.58729097031755362
leaf_count=78 368 37 55 19 59 20 48 70 322 71 124 8733 17 81 300 89 39 144 25 27 101 353 75 48 250 121 19 426 55 99
internal_value=0 -0.0206808 0.0312249 -0.0311889 -0.0941787 -0.0372926 -0.00181644 -0.0711338 -0.09094 -0.000213959 0.0153738 0.00010733 0.0374214 0.017078 0.0326349 0.044411 0.0649682 -0.0505685 -0.119764 0.126432 2.02413e-06 0.0347434 0.0492602 0.00806703 0.0888952 -8.92127e-05 -0.0397007 -0.0753389 0.0344603 0.131857
internal_weight=0 7.48444 1.81457 1.09605 0.700991 5.66987 2.76807 2.9018 2.4351 0.587111 2.48872 1377.04 3.87528 3.18843 2.20399 2.27087 1.91711 0.917561 1.84799 0.718523 1373.16 3.59672 3.25476 1.59601 1.65875 1369.57 2.76289 1.86612 0.896768 0.686855
internal_count=12273 1255 197 133 78 1058 550 508 438 91 472 11018 837 721 424 496 407 225 347 64 10181 827 726 401 325 9354 621 445 176 116
is_linear=0
shrinkage=0.3


Tree=408
num_leaves=31
num_cat=0
split_feature=18 116 119 2 145 214 275 278 284 153 71 160 200 41 237 8 178 179 284 46 141 14 290 84 242 161 114 238 194 226
split_gain=0.0369262 0.07631 0.0735833 0.0703221 0.0782479 0.0803329 0.0714178 0.111101 0.0786583 0.0759565 0.0705463 0.0641219 0.0604167 0.0648102 0.0603521 0.0845429 0.0583691 0.0593708 0.0704543 0.0691005 0.0631445 0.0581556 0.056537 0.0559241 0.0557725 0.0548003 0.0572944 0.0521407 0.0509354 0.0501815
threshold=-0.041147500276565489 -0.0080915451186414512 -0.024146490011177781 -0.031006075450191403 -0.015795500017702496 0.0033661420262107028 -0.00039262693654089782 -0.028715499676763945 0.10250406443794553 -0.070043999701738288 -0.091109998524188981 0.021345499902963604 -0.04968572129454786 0.09048431887688467 0.012305114460409935 0.057432316646450578 -0.078864719439382044 0.029482118926039826 0.095724001526832567 0.043938999995589256 0.0020011036031199001 0.036809541403694808 0.03656964693731269 -0.021317999809980347 -0.0089904996566473969 -0.023342999629676297 -0.034222500398755039 -0.088870468997278809 0.039105672688281919 -0.0031488600599568332
decision_type=2 2 2 2 2 2 2 2 2 2 2 2 2 2 2 2 2 2 2 2 2 2 2 2 2 2 2 2 2 2
left_child=2 12 16 4 23 11 7 -5 -9 -8 -7 -6 13 25 -4 -16 -1 19 24 28 -20 -21 -14 27 -19 26 -2 -3 -18 -11
right_child=1 3 14 6 5 10 9 8 -10 29 -12 -13 22 -15 15 -17 17 18 20 21 -22 -23 -24 -25 -26 -27 -28 -29 -30 -31
leaf_value=-0.12370892371731131 0.0085480905748333905 0.071087416018008304 -0.073270987345029001 0.044672597043174007 0.10817883788592308 -0.079155697930739441 0.096716917004268183 -0.06024760939835426 0.046336250563000406 -0.049366570375135498 0.036184381372563565 -0.0095308405878833675 -0.092711126575993091 0.14658731049736842 0.086491320808085428 -0.094725396710201915 0.010217735875081001 0.094229971082709529 0.047371446522336581 0.15066634795092279 -0.1878134590696808 0.041049534623470725 0.088127430232251974 0.049596494655864798 -0.026354961653349499 0.050591982536632468 -0.076920354947099701 -0.10629169868607627 0.13753949739777516 4.391587682698558e-05
leaf_weight=0.19789038717135543 1.2244999514678063 0.1836280708994309 1.1853340215438932 1.4613774046947581 2.0894454383869738 0.60325115081286629 0.73087188856152252 5.2599990065311877 0.7069175528577033 1.8523168690635419 2.285166145591575 0.52020710514989321 1.8016155552750195 0.21739411176531565 0.69130918165683375 0.3485019208783342 2.0324450063144472 0.65358034967721312 0.15774234183209035 1.067235888673167 0.29468819125395385 0.73598210036288936 0.17030189331126155 0.509477818446612 0.73163566389121104 0.7436103607360568 1.6667482824241231 0.79427647144802904 0.32849022498703551 1416.5915802991112
leaf_count=40 213 42 267 394 297 141 156 1528 137 378 446 132 630 34 135 62 452 149 29 162 56 134 44 125 130 194 484 163 63 5056
internal_value=0 -0.000116555 0.0198028 2.2672e-05 0.0300495 0.046564 -0.000124356 -0.0294634 -0.0476203 2.92113e-05 0.0120954 0.0847146 -0.0343866 -0.0125256 -0.0269961 0.0257549 0.0365995 0.0418852 -0.00303067 0.0617066 -0.105815 0.105926 -0.0770933 -0.0309961 0.0305401 -0.0220419 -0.0407228 -0.072984 0.0279327 -2.06083e-05
internal_weight=0 1439.41 8.42484 1433.59 6.98545 5.49807 1426.6 7.42829 5.96692 1419.17 2.88842 2.60965 5.82417 3.85225 2.22515 1.03981 6.19969 6.0018 1.83765 4.16415 0.452431 1.80322 1.97192 1.48738 1.38522 3.63486 2.89125 0.977905 2.36094 1418.44
internal_count=12273 10594 1679 8995 1346 1016 7649 2059 1665 5590 587 429 1599 925 464 197 1215 1175 364 811 85 296 674 330 279 891 697 205 515 5434
is_linear=0
shrinkage=0.3


Tree=409
num_leaves=31
num_cat=0
split_feature=240 275 257 275 278 144 33 113 140 76 124 93 261 290 295 220 228 159 133 191 32 87 237 158 7 118 52 69 6 285
split_gain=0.0301955 0.0897468 0.0772148 0.0820748 0.060132 0.0699356 0.0543183 0.0537656 0.0461719 0.0653922 0.0790347 0.0699618 0.0594573 0.0630983 0.0574039 0.0553441 0.090038 0.0647567 0.056927 0.0547505 0.0658082 0.0689302 0.0535086 0.0534204 0.0472625 0.0458818 0.0495339 0.0596181 0.0446536 0.0441899
threshold=0.12460149824619286 0.0065579998772591006 0.016779500059783403 -0.046828500926494591 0.05937801207970006 -0.037614999338984392 -0.044217982850956621 0.007282999809831301 -1.0000000180025095e-35 0.010966499801725102 -0.01171550014987585 0.038983499631285605 0.094747502356767613 0.0051782108581974696 0.038582000881433459 -0.00040400000580114993 -0.0015054771905902286 0.00091449997853485009 -0.018571499735116896 0.017527500167489003 -0.049292754604307272 -0.053031605214014628 0.031565530801049298 -0.03650449961423869 -0.050861968912475082 -0.014664217296408032 -0.02555704386773603 -0.0039019999094306998 -0.12000755825170054 0.052532315622435578
decision_type=2 2 2 2 2 2 2 2 2 2 2 2 2 2 2 2 2 2 2 2 2 2 2 2 2 2 2 2 2 2
left_child=8 2 4 -4 5 -2 -7 -5 9 10 12 14 24 -14 -12 16 17 -10 -19 20 -11 -22 -13 -18 -1 26 -3 -28 -21 -27
right_child=1 25 3 7 -6 6 -8 -9 15 19 11 22 13 -15 -16 -17 23 18 -20 28 21 -23 -24 -25 -26 29 27 -29 -30 -31
leaf_value=-0.058433110571135857 -0.12777618175150446 0.11366647707212377 -0.15585552180519666 -0.016715149151334967 0.10947380623347265 -0.15431770764344352 0.063516813524918836 0.15042430756485656 -0.077609210133953013 -0.072231401624051894 0.08846302851900259 -0.054983601627410804 0.060196918631630902 -0.13245146689409071 -0.08865640501009607 -1.2104103555819928e-05 0.0068639775247223154 -0.040161791563346809 0.15109637209984542 0.10015504976691177 -0.070875961081358727 0.063688710630918854 0.088936035659816851 -0.19254396175218988 0.015548912337847677 -0.14822687431503498 0.053081911952481346 -0.1549073899636689 -0.12526177490651885 0.10193205822462695
leaf_weight=1.5469472754850806 0.65180624267804854 0.17425116097786031 0.12310425861141994 0.2366508689499367 0.22213238669473856 0.13281452636783764 0.45929648000452516 0.64620721995015629 0.52126732954866362 0.78069660296489529 3.3137939735738651 0.71700666495053134 1.8836436272094945 0.16654197041225405 0.17329610189153744 1314.3562972352961 0.16132915937441794 0.24622947048965216 0.32483989077604747 0.091494734678690293 0.45076500944651399 1.4277768436752452 0.34407305247566455 0.48261305521418663 1.5617390320728644 0.79764277682465923 0.20735839030339775 0.30866372800875297 0.58339821416484472 0.069054579811790973
leaf_count=645 194 64 53 80 59 61 144 133 326 321 1128 237 508 69 61 5541 111 136 132 42 162 521 119 125 534 261 58 119 310 19
internal_value=0 -0.0259175 0.00961683 0.0736242 -0.0343032 -0.0599782 0.014655 0.105622 9.31996e-05 0.017856 0.0303061 0.0591362 0.0048889 0.0445476 0.0796608 -8.28118e-05 -0.0536083 -0.00115535 0.0686311 -0.0183915 0.000975487 0.0313993 -0.00831522 -0.142586 -0.0212661 -0.0823355 -0.0246291 -0.0713289 -0.0947022 -0.128295
internal_weight=0 4.02898 2.47201 1.00596 1.46605 1.24392 0.592111 0.882858 1329.13 13.0412 9.70704 4.54817 5.15887 2.05019 3.48709 1316.09 1.73628 1.09234 0.571069 3.33413 2.65924 1.87854 1.06108 0.643942 3.10869 1.55697 0.690273 0.516022 0.674893 0.866697
internal_count=12273 1245 724 266 458 399 205 213 11028 4657 3301 1545 1756 577 1189 6371 830 594 268 1356 1004 683 356 236 1179 521 241 177 352 280
is_linear=0
shrinkage=0.3


Tree=410
num_leaves=31
num_cat=0
split_feature=140 190 193 174 109 82 4 280 255 195 223 256 242 49 161 205 233 253 110 163 299 254 86 237 37 65 3 110 202 27
split_gain=0.0330501 0.071372 0.0625295 0.0555447 0.0348609 0.0717085 0.0781833 0.0891979 0.0888977 0.0795445 0.0734691 0.0570361 0.100948 0.0951867 0.0952056 0.0735512 0.0796537 0.0735618 0.0558504 0.0529086 0.0499171 0.0973229 0.0647739 0.0627152 0.0597725 0.0505912 0.0457234 0.0452958 0.0446027 0.0424579
threshold=-0.11717250198125834 -0.068411499261855982 0.0024364340701011644 0.035445131687792432 0.08134800195693967 0.05490233251784566 -0.051779501140117597 -0.092295501381158732 0.021106500178575453 0.071143999695777851 -0.058398000895976993 -0.0003975494996729427 -0.0026050042463447985 0.098449498414993217 -0.0019590679294124525 0.010260500013828252 0.019028405252406278 -0.043579217931102837 0.087027996778488118 -0.071577072546296638 -1.0000000180025095e-35 -0.0029454261956041194 0.056966999545693356 -0.058128999546170193 -0.0058799236332080411 -0.005010500084608749 -0.0095773066200071661 0.043769118128730709 -0.015989500097930397 0.043195696787668457
decision_type=2 2 2 2 2 2 2 2 2 2 2 2 2 2 2 2 2 2 2 2 2 2 2 2 2 2 2 2 2 2
left_child=1 2 -1 -3 11 6 19 9 -9 -8 27 12 15 14 -14 17 -17 -2 -12 -6 21 25 -23 -22 -25 -13 -21 -7 -20 -15
right_child=4 3 -4 -5 5 10 7 8 -10 -11 18 20 13 29 -16 16 -18 -19 28 26 23 22 -24 24 -26 -27 -28 -29 -30 -31
leaf_value=0.077460776058703204 0.035245723276503778 -0.022675006535719088 -0.15692437129743975 0.16520423629200232 -0.10399273135846365 0.12590374757801992 0.10506264032901259 -0.048038887467510921 0.030091560760544488 -0.06102619248016402 -0.12949767697370046 0.086090569646356599 0.038748607670186598 -0.15849170406381999 0.13713258147045027 0.077785156096061611 -0.066119183241649504 -0.051172555478506097 -0.12769257752518245 0.096237441337305218 -0.088104740523986827 -0.15227537468160429 0.11125447532473703 0.034604600419517677 -6.9027544228286597e-05 -0.025434055978982784 0.0038300119553959294 -0.095089568212390466 0.12027467710257386 0.044236057538719807
leaf_weight=0.1929843854450155 1.220243428229878 0.19912800763267913 0.21833623701240867 0.49038697744254023 0.19741336593870107 0.23971610108856101 0.87194661099783555 6.0203333440022115 1.6754164587764533 0.36949456073489273 1.177340906179096 0.43506755170528855 4.7826208081478399 0.27956015167546855 1.0862968711003285 1.4346945303404934 0.45627352182054881 3.2413852142899486 0.10866451449692249 1.189574717580399 0.72676769297322508 0.76600064696981363 0.094273674178111833 4.4894181638155706 1347.2370698482637 2.3086786347039379 0.81008796900277835 0.12806672730948776 0.16353892019833427 0.13930808036820963
leaf_count=28 221 45 30 62 44 38 108 1018 319 65 260 88 939 53 157 240 91 616 24 179 194 183 24 920 5586 513 146 26 28 28
internal_value=0 0.0519471 -0.046955 0.110946 -5.481e-05 -0.015546 -0.00652754 -0.0189919 -0.0310294 0.055629 -0.0707994 9.17784e-05 0.0201504 0.0470978 0.0569588 -0.00652207 0.0430623 -0.0275374 -0.101183 0.0441745 -9.51967e-05 -0.0353545 -0.123396 -1.23747e-06 4.61322e-05 -0.00774993 0.0588021 0.048951 0.0212853 -0.0910681
internal_weight=0 1.10084 0.411321 0.689515 1381.65 12.9516 11.1343 8.93719 7.69575 1.24144 1.81733 1368.7 12.6404 6.28779 5.86892 6.3526 1.89097 4.46163 1.44954 2.19708 1356.06 3.60402 0.860274 1352.45 1351.73 2.74375 1.99966 0.367783 0.272203 0.418868
internal_count=12273 165 58 107 12108 2255 1879 1510 1337 173 376 9853 2345 1177 1096 1168 331 837 312 369 7508 808 207 6700 6506 601 325 64 52 81
is_linear=0
shrinkage=0.3


Tree=411
num_leaves=31
num_cat=0
split_feature=112 201 153 136 292 245 155 165 8 66 6 59 200 151 139 165 61 100 94 82 247 2 179 81 146 124 102 180 276 23
split_gain=0.0334256 0.0569986 0.058693 0.0518393 0.0454112 0.0418851 0.0557754 0.0686994 0.0672387 0.0580796 0.0503984 0.0548873 0.0756867 0.0615098 0.0553903 0.0546586 0.0521994 0.0520042 0.0498164 0.0469912 0.0559744 0.0523326 0.0444709 0.043886 0.0404297 0.0355337 0.0349845 0.0343433 0.0769404 0.0678294
threshold=-0.07473655468940138 -0.0062775001861154487 0.041734073542714155 -0.032100500538945143 -0.065116498619317995 0.0075745000503956508 0.058394500985741553 -0.010380757085206662 0.094656813997707936 -0.021480499766766997 -0.0027809999883174497 0.043407891419083362 -0.079954497516155174 -0.032837342006241617 -0.079114001244306481 0.052523499354720053 -0.061699500307440695 -0.13383150100708002 -0.0098514999262988481 0.058917999267578104 0.016042499803006604 0.032723000273108462 -0.019726131421617211 0.0015860000276006001 -0.036404501646757043 0.055626999586820554 -0.010441529737020871 -0.03769499994814389 -0.077191874709602926 0.021081000566482502
decision_type=2 2 2 2 2 2 2 2 2 2 2 2 2 2 2 2 2 2 2 2 2 2 2 2 2 2 2 2 2 2
left_child=1 2 25 -4 -3 6 27 8 22 23 11 13 24 16 -14 19 -7 -15 -11 20 -12 -21 -8 -9 -13 -1 -17 29 -29 -2
right_child=5 4 3 -5 -6 10 7 9 -10 18 15 12 14 17 -16 26 -18 -19 -20 21 -22 -23 -24 -25 -26 -27 -28 28 -30 -31
leaf_value=0.11345850700415112 0.0013190298873658078 0.11805908018978602 -0.11169122225701016 0.11897873220802813 -0.092159913917600145 0.11633782680244863 0.047647809152309456 0.0032407121585597606 0.1607004981804043 -0.13258459748904083 -0.16784451830656547 -0.019747130457522254 -0.15623655822747942 0.11185867197150347 0.011890543047699325 -0.053495618507521492 -0.077466889294927219 -0.017067139585289163 0.14583625634830105 -0.1411585488467452 0.0014316044158890772 0.15702638702298968 -0.087281295454663815 0.14086366356462876 0.14419660774943147 -0.082720627549337414 0.19411918737626097 -0.066480063092741307 -4.3088265620210151e-05 0.079283059277871062
leaf_weight=1.1150147489047415 3.2218055356115647 0.11816275829914957 0.26220620721602472 0.13173822913813626 0.42555132833416465 0.13333100589079583 0.33078177596325986 0.2638556692691052 0.17308419701294042 0.17903810663847253 0.73477616809577628 0.17784610574017279 0.20855157110781886 0.36363014833386831 1.1425517228037729 0.10416420619003475 2.0205738692584418 1.2478944185818366 0.085438339039682343 0.09362298049563833 0.23110487320809625 0.121997522568563 0.65547037376381945 0.99470773976372584 0.56696038250811431 0.089786743934382574 0.10128746554255474 1.5705599985722063 1428.0414171934851 1.4591850910892388
leaf_count=309 506 28 67 50 166 25 62 50 31 43 267 40 56 97 270 29 567 415 24 36 59 23 157 173 111 41 20 304 8003 244
internal_value=0 0.0374336 0.0659696 -0.0345533 -0.046474 -6.59905e-05 4.87528e-05 0.043268 -0.0117607 0.0851557 -0.0228139 -0.0106452 0.0282665 -0.0323041 -0.014061 -0.0742394 -0.06547 0.0120241 -0.0426416 -0.0990741 -0.127342 0.0275537 -0.0420271 0.112011 0.10505 0.0988384 0.0685782 -3.20746e-05 -0.000116075 0.0256224
internal_weight=0 2.14246 1.59875 0.393944 0.543714 1444.22 1436.98 2.68238 1.15934 1.52304 7.24829 5.86134 2.09591 3.76543 1.3511 1.38695 2.1539 1.61152 0.264476 1.1815 0.965881 0.215621 0.986252 1.25856 0.744806 1.2048 0.205452 1434.29 1429.61 4.68099
internal_count=12273 661 467 117 194 11612 9597 540 250 290 2015 1581 477 1104 326 434 592 512 67 385 326 59 219 223 151 350 49 9057 8307 750
is_linear=0
shrinkage=0.3


Tree=412
num_leaves=31
num_cat=0
split_feature=186 127 272 78 84 86 99 147 130 142 36 156 82 144 175 223 239 261 251 224 138 67 219 112 144 203 88 291 72 136
split_gain=0.027398 0.0534626 0.0429334 0.0423981 0.0406863 0.0390536 0.0369127 0.0457207 0.0484508 0.0360934 0.0822059 0.0760958 0.0729263 0.0721619 0.0701675 0.0707709 0.0663852 0.0487722 0.0486823 0.0478234 0.0454681 0.0446746 0.0404533 0.0398094 0.0447571 0.0406241 0.0395573 0.0329172 0.0328163 0.0318509
threshold=0.032375501468777608 -0.007899728264383581 0.040479747117747357 -0.048236019222261589 -0.067900742168461523 0.032854501157999004 0.0014214999973773503 -0.0043045000638812494 0.0053289998322724507 -0.00036399999225974995 -0.042915500700473695 0.096818998456001268 0.057632500305771807 -0.037235999479889849 0.029780999757349453 -0.019449000246822747 0.07117792553461913 0.055766999721527058 -0.054307697313017878 -0.097696498036384541 0.034428000450134208 -0.062127999961376142 -0.052383998408913543 -0.12151389478507253 -0.10433201932586254 -0.0036745000397785995 -0.034574501216411542 -0.057863499969243941 0.031907469387278377 -0.043361499905586194
decision_type=2 2 2 2 2 2 2 2 2 2 2 2 2 2 2 2 2 2 2 2 2 2 2 2 2 2 2 2 2 2
left_child=9 2 -2 5 -5 -3 -4 28 -9 10 11 12 17 16 15 -15 19 -1 -13 -12 -18 27 -20 -23 25 -25 -26 -11 -8 -16
right_child=1 3 6 4 -6 -7 7 8 -10 21 13 18 -14 14 29 -17 20 -19 22 -21 -22 23 -24 24 26 -27 -28 -29 -30 -31
leaf_value=-0.040630717870387786 -0.13090285791470418 -0.14185139843204206 0.074603346971569784 -0.11890086185120788 0.10435273017759553 0.068107848950497901 -0.18899288301062572 0.089367643852816495 -0.17828079752782205 0.070563626706761279 -0.058665465968271865 0.092445221746814785 -0.083271465181782384 0.019514370755208999 0.097788755040903202 0.10449043645718331 -0.14732526673429094 0.0551250605294724 0.057329190338298516 0.055034177306048218 0.023175127655068298 -0.20066019026742035 -0.13713220161577344 0.1395628336583711 -0.15362029380481654 0.0066819750246008358 -3.4750498112320357e-05 -0.12559283725450351 0.018607092706370287 -0.14752150329538563
leaf_weight=0.64512718735886743 0.5791737702113553 0.20639836146438029 0.2397092113750432 0.08575051373190945 0.51288367021879722 0.12992079001469392 0.26707642443386714 0.2363024837618467 0.081992917055686121 0.094633996777020002 0.44299229353055136 0.11842101439833641 0.63704236076409859 1.3922194408351063 0.062903030884626787 2.4072185355626043 0.40021037600490661 1.855953880456809 0.11020933853251336 1.3401591889416977 0.21714185020391596 0.088996187403835303 0.76168154500214758 0.3933337512826256 0.1509447539303882 0.43723587562976618 1317.4424548857473 0.41307053034006358 0.092182963972163634 0.19626464146131173
leaf_count=377 307 82 89 34 250 47 133 102 61 43 123 34 273 456 22 688 122 749 40 468 69 41 304 177 57 173 6571 268 44 69
internal_value=0 -0.0317912 -0.0669541 0.0244886 0.0723731 -0.0607437 -0.0265759 -0.0623717 0.0204214 8.37744e-05 0.01753 -0.015535 0.0073452 0.038664 0.0630506 0.0733528 -0.00256721 0.0304259 -0.0880383 0.0267875 -0.087355 -5.62634e-05 -0.112552 -2.20033e-05 -8.45979e-06 0.0696105 -5.23454e-05 -0.0890301 -0.135724 -0.0879818
internal_weight=0 2.43139 1.49644 0.934953 0.598634 0.336319 0.917264 0.677555 0.318295 1329.61 10.5875 4.12844 3.13812 6.45911 4.05861 3.79944 2.4005 2.50108 0.990312 1.78315 0.617352 1319.02 0.871891 1318.51 1318.42 0.83057 1317.59 0.507705 0.359259 0.259168
internal_count=12273 1149 736 413 284 129 429 340 163 11124 3794 1777 1399 2017 1235 1144 782 1126 378 591 191 7330 344 7019 6978 350 6628 311 177 91
is_linear=0
shrinkage=0.3


Tree=413
num_leaves=31
num_cat=0
split_feature=210 194 19 101 179 276 259 163 175 185 188 114 127 240 257 30 211 12 218 60 71 262 190 172 271 201 228 79 178 278
split_gain=0.0325674 0.0337419 0.0647082 0.0777206 0.0638101 0.0610081 0.0574281 0.0555396 0.0572236 0.0557037 0.0454841 0.0433377 0.0629016 0.0680426 0.0532124 0.0517457 0.0460388 0.0453482 0.0417672 0.106935 0.0765371 0.0753358 0.0666735 0.0629198 0.0521117 0.0404591 0.0309003 0.0307217 0.0254648 0.0166187
threshold=-0.14644664773863927 0.022292500361800156 0.10952825972656384 -0.074641998857259681 0.023177295619646779 -0.079362703074513777 -0.049802999943494748 -0.0046979999169706995 -0.048375727932169002 0.0010480000055394503 -0.013903500046580997 0.054172500967979355 -0.065735297201719348 0.067927529300558828 -0.013707707564320305 0.0024555000709369505 0.0076661399236384485 0.035613000392913756 -0.049024614035651205 -0.053784999996423687 -0.084879498928785282 -0.12397149950265877 -0.068411499261855982 0.034256501123309101 -0.0096826718274566174 -0.040583999827504144 -0.039628999307751649 -0.058000499382615041 -0.016728291616845851 -0.04095049947500224
decision_type=2 2 2 2 2 2 2 2 2 2 2 2 2 2 2 2 2 2 2 2 2 2 2 2 2 2 2 2 2 2
left_child=26 11 3 4 10 -4 -6 9 -9 -5 -3 18 14 17 15 -13 -15 -14 19 21 23 -2 -21 -20 -22 28 -1 -27 -7 -16
right_child=1 2 5 7 6 25 -8 8 -10 -11 -12 12 13 16 29 -17 -18 -19 20 22 24 -23 -24 -25 -26 27 -28 -29 -30 -31
leaf_value=-0.030897692831578269 0.15009961082753387 -0.006378369870756362 0.085961207871362702 -0.013102885838179363 -0.15466266737258058 0.14195975869371039 0.047043627851092694 0.016863199494966116 -0.069922518233378528 0.069992535463860153 -0.16079595067658456 -0.11128936526538181 0.07975262143876867 -0.10970354693588129 0.026670428168149306 0.094015165022842309 0.049951201969480392 -0.10453535696771606 0.058817951888662665 -0.060460973790467623 -0.047928378148160311 -0.099813549193401421 0.023151151302767538 -0.032471611493832007 5.7259857729208672e-05 0.044548915032623641 0.13144646251937089 -0.17078322457249548 -0.079888757163806834 0.17241241631373164
leaf_weight=0.1569994572782889 0.11569491666159581 0.23186556647124235 0.1551785015326459 1.2381295381492234 0.16584653797326609 0.073614268214441836 0.54286181357292662 1.4726669925476019 1.2764827778082675 1.7555348655441774 0.66133554422322027 0.17424478905741125 0.86594326243425601 0.56132798693579378 0.081315366143826395 0.30196851532673463 0.22882062007556669 0.13953817727451678 3.3733564887770617 1.1659547017661678 2.0398943970467363 1.7600478732165354 3.2533190002327492 0.85089305056317233 1356.5063768154932 0.065678877697791904 0.32180267153307696 0.64754148827341829 0.12673439596255776 0.52532471347353771
leaf_count=37 13 52 24 363 36 16 97 296 288 310 159 35 177 149 15 48 44 36 596 315 453 367 726 149 7123 13 62 137 34 103
internal_value=0 -4.08837e-05 -0.0189814 -0.00894531 -0.0673765 -0.0879519 -0.000158145 0.00735358 -0.0234331 0.0356257 -0.120711 7.52691e-05 0.0368472 0.00240849 0.0939548 0.018895 -0.0634688 0.0541776 -2.04443e-06 -0.0243824 0.000110575 -0.084399 0.00109143 0.0404294 -1.47919e-05 -0.117493 0.0782137 -0.150954 0.00162522 0.152877
internal_weight=0 1380.36 8.41347 7.34472 1.60191 1.06875 0.708708 5.74281 2.74915 2.99366 0.893201 1371.94 2.87848 1.79563 1.08285 0.476213 0.790149 1.00548 1369.07 6.29502 1362.77 1.87574 4.41927 4.22425 1358.55 0.913569 0.478802 0.71322 0.200349 0.60664
internal_count=12273 12174 1825 1601 344 224 133 1257 584 673 211 10349 607 406 201 83 193 213 9742 1421 8321 380 1041 745 7576 200 99 150 50 118
is_linear=0
shrinkage=0.3


Tree=414
num_leaves=31
num_cat=0
split_feature=185 48 269 24 205 235 255 48 13 17 202 246 93 9 161 242 50 45 192 290 212 293 278 198 126 83 11 98 47 66
split_gain=0.0313203 0.0516582 0.0513266 0.0320973 0.0554481 0.059476 0.0566322 0.0561643 0.0480378 0.0527098 0.0478035 0.0455036 0.070042 0.0704391 0.0658503 0.0640918 0.0552813 0.0529023 0.0472253 0.0447325 0.0616729 0.0472304 0.0443212 0.077898 0.0733176 0.0638654 0.0605142 0.0591512 0.0418647 0.04127
threshold=-0.085001997649669578 -0.04204891738278644 0.0040177187379247569 0.0018040972391099876 -0.0012055000406689497 -0.037282039092510946 -0.028676000423729347 -0.019109052625711786 -0.10169249773025503 -0.046638848661049122 0.046402799631821291 0.029834499582648253 0.025427812166876469 0.0067634999286383009 -0.048725326471923465 0.049614276178714507 0.069303018308851036 -0.018775500357150997 -0.0203790003433823 -0.040260656823602678 0.051106000319123206 0.017389178077769265 0.0092272039782155691 0.090197000652551609 -0.016148000024259045 0.021253000013530202 -0.080418861464633076 0.028881000354886052 0.03499975863621916 0.019579830375068736
decision_type=2 2 2 2 2 2 2 2 2 2 2 2 2 2 2 2 2 2 2 2 2 2 2 2 2 2 2 2 2 2
left_child=1 -1 -3 11 6 -6 8 10 -5 -10 -7 22 13 18 -15 16 -14 -17 -13 21 -21 -8 24 25 29 -24 -26 -25 -9 -2
right_child=3 2 -4 4 5 7 19 28 9 -11 -12 12 15 14 -16 17 -18 -19 -20 20 -22 -23 23 27 26 -27 -28 -29 -30 -31
leaf_value=0.10585343747910107 0.099774471426192529 -0.091475280845614335 0.069697782827896737 0.12237887519386847 0.08990668256393268 -0.063194387734828356 -0.081770417008413282 0.06014946971026669 0.058393542088757369 -0.061733677638597967 0.070788112892188268 0.013157040218432493 0.14001167344273341 0.0017671573311879426 0.1310129988321557 -0.1804297735162885 -0.0057881904358763848 0.098049266449936487 -0.10103337752510511 -0.11879500107566271 0.10723812518113844 0.062394209643175505 -0.0022332205383041861 0.13478836284956511 0.086144366001802711 -0.049542592959312896 1.2603829119489835e-06 -0.10449209454589266 -0.12123550799436524 -0.11465320480144658
leaf_weight=0.65883651479634864 0.92024136794975564 0.3549787624322096 0.35633611070579718 0.24209457193501283 0.64964179251637721 1.5711300975094675 0.44834314149761656 1.0660220346680929 0.49264094728277985 0.98808911470177907 0.28280602706854563 0.59978737516212255 1.0333301886394108 1.0630606757149506 0.53250465728888219 0.14039711800830901 0.30258394753855089 0.10910658902139392 0.71395612891353677 1.4725494843048639 0.11729443913100102 0.37608992360583215 5.2927653767569574 0.46904305041789562 0.73431627829995605 4.9886671520307573 1418.7707153488595 0.11596956253197277 0.12830533491796825 0.088555810247271438
leaf_count=171 215 117 108 53 202 518 221 323 117 361 87 154 181 226 116 53 60 24 208 620 26 162 1104 104 148 986 5521 29 34 24
internal_value=0 0.0453265 -0.010735 -5.25809e-05 -0.0192019 0.00749217 -0.0430622 -0.0100719 -0.00151151 -0.0217672 -0.0427562 5.19095e-05 0.0301897 0.00254413 0.0449017 0.0809205 0.106988 -0.0586524 -0.0488999 -0.0727126 -0.102119 -0.0160054 -4.27273e-05 -0.0191293 0.000103279 -0.0251883 4.58226e-05 0.0873548 0.0406635 0.0809512
internal_weight=0 1.37015 0.711315 1443.71 7.83501 3.69791 4.1371 3.04826 1.72282 1.48073 1.85394 1435.88 4.49473 2.90931 1.59557 1.58542 1.33591 0.249504 1.31374 2.41428 1.58984 0.824433 1431.38 10.8664 1420.51 10.2814 1419.51 0.585013 1.19433 1.0088
internal_count=12273 396 225 11877 2724 1164 1560 962 531 478 605 9153 1022 704 342 318 241 77 362 1029 646 383 8131 2223 5908 2090 5669 133 357 239
is_linear=0
shrinkage=0.3


Tree=415
num_leaves=31
num_cat=0
split_feature=49 250 292 162 7 0 69 2 180 162 41 129 147 251 244 42 45 268 2 229 53 262 51 69 228 219 220 55 204 205
split_gain=0.0269579 0.0543489 0.0608565 0.0582757 0.0605031 0.0552881 0.049924 0.048157 0.074968 0.0566642 0.0717847 0.067882 0.0597165 0.0602092 0.0535275 0.0501212 0.0631707 0.0449955 0.044519 0.0442496 0.043538 0.0421039 0.0393995 0.03712 0.0370949 0.0435539 0.0405392 0.0402269 0.0364448 0.035929
threshold=0.060146499425172757 0.062322000041604007 -0.041843999177217449 0.068282166714414158 -0.09379235425844791 0.047370667779250322 -0.014176491150561066 -1.0000000180025095e-35 -0.051605498418211895 0.054200332066549201 0.069293797249582553 0.021334678699742347 -0.021058767949685323 0.030099128057474663 0.018197362767080495 -0.060249999165534938 -0.071941498667001683 -0.080736000090837437 -0.049681499600410392 -0.032294999808072995 -0.019955500029027396 -0.03441550023853774 -0.028215000405907596 0.063128418866629774 0.011489999946206751 -0.062521999701857484 0.065754499286413109 0.073569498956203475 -0.087786503136157934 -0.068954445166915013
decision_type=2 2 2 2 2 2 2 2 2 2 2 2 2 2 2 2 2 2 2 2 2 2 2 2 2 2 2 2 2 2
left_child=7 20 3 4 -3 29 -6 9 -9 11 15 12 13 -1 -14 17 -17 -11 -5 -20 -2 -7 -10 -13 25 28 -27 -26 -22 -4
right_child=1 2 5 18 6 21 -8 8 22 10 -12 23 14 -15 -16 16 -18 -19 19 -21 24 -23 -24 -25 27 26 -28 -29 -30 -31
leaf_value=0.056137207650516122 -0.12929606090639167 -0.19675610320602063 0.055989424742319063 -0.20062416930882968 -0.20108103708836161 0.12515027544640211 0.025910787867580123 -0.13981057551328785 -0.10901710950264526 0.070183727758418149 -0.11863725993492864 -0.045639392429229438 0.11075720883619405 -0.067849984815866016 -0.16766179443796664 0.084915588114083548 -0.0097310285098397547 -0.1462398715048519 -0.11933034788951349 0.11260760277006071 0.15250795589984395 -0.16141772080569661 2.4015735883573088e-05 0.10013936424922716 -0.11837448252980302 0.072336044966625226 -0.064298272562448758 0.094506178462141474 -0.11413587987497616 -0.14686312158504694
leaf_weight=1.4279569160598837 0.18948520837602734 0.22324635045606556 0.085844543267739826 0.055690740400677896 0.10576450922803815 0.15029586789478344 0.49688709726251568 0.34526801826245801 0.29829808976091854 0.12022416975378292 0.44542123022392832 0.93270208424735279 1.7999877329489189 0.46802754476630082 0.064369671939857764 1.0016684335555517 1.7322364835345063 0.30782592823709443 0.086297787064609111 0.52076521377489371 0.056171575444750488 0.066586533097392819 1316.6318691084061 0.18907063531150925 0.30329014866219939 1.5238448316998745 0.2241848798535101 0.10845758580762777 0.258153060713881 0.92895238824030446
leaf_count=489 133 85 30 39 50 50 184 184 189 51 139 322 570 177 30 285 727 137 49 136 12 33 6378 67 203 778 98 48 150 450
internal_value=0 -0.0211635 -0.0509892 -0.0101745 -0.0633463 -0.100319 -0.013926 0.000107823 -3.73284e-05 0.0226302 -0.00588277 0.0436984 0.0630196 0.0255307 0.101144 0.0100008 0.0249463 -0.0854541 0.0560861 0.0796362 0.0092975 0.0371691 -6.83189e-07 -0.0210689 0.019912 0.0363256 0.0548127 -0.0623 -0.0664851 -0.129703
internal_weight=0 5.38392 2.72033 1.48865 0.825898 1.23168 0.602652 1325.76 1317.28 8.48949 3.60738 4.88211 3.76034 1.89598 1.86436 3.16196 2.7339 0.42805 0.662754 0.607063 2.66359 0.216882 1316.93 1.12177 2.4741 2.06235 1.74803 0.411748 0.314325 1.0148
internal_count=12273 2528 1106 543 319 563 234 9745 6751 2994 1339 1655 1266 666 600 1200 1012 188 224 185 1422 83 6567 389 1289 1038 876 251 162 480
is_linear=0
shrinkage=0.3


Tree=416
num_leaves=31
num_cat=0
split_feature=246 82 296 154 79 283 193 19 175 276 146 24 264 188 61 47 107 101 205 116 96 189 145 153 43 61 80 98 204 272
split_gain=0.0318469 0.0475008 0.0354068 0.0675882 0.0568012 0.0498006 0.0588373 0.058382 0.056834 0.0527754 0.0458035 0.0814947 0.0762465 0.0800826 0.0598819 0.0573884 0.0632349 0.0484524 0.0457784 0.0654571 0.041925 0.0392775 0.0773598 0.0686245 0.0979533 0.0890979 0.0624566 0.0602342 0.0378499 0.0343203
threshold=-0.099305499345064135 0.042891214443345697 0.035732500255107859 0.02268400043249125 -0.0030064869382555345 0.078155817299103578 0.039715500548481907 0.098937521626616551 -0.11207229486721886 -0.055333566206631372 0.035321999341249403 -0.044075403682827086 -0.013497500214725698 0.0024889999767765004 -0.014572999905794798 0.00094286621121884146 -0.011826796089999944 -0.061136499047279295 0.026975999586284102 0.046158789530778503 0.028714748590779913 0.029547622068152694 -0.037564499303698491 -0.00029845672848534047 -0.0087325000204145475 -0.0098600001074373479 -0.011725000105798198 -0.044682795062048718 0.02984797730960637 0.020198860219505243
decision_type=2 2 2 2 2 2 2 2 2 2 2 2 2 2 2 2 2 2 2 2 2 2 2 2 2 2 2 2 2 2
left_child=1 -1 10 5 20 7 28 8 -4 -9 21 12 13 -12 -14 16 -13 -17 19 -6 -5 23 27 24 -2 -25 -24 -23 -7 -22
right_child=2 -3 3 4 18 6 -8 9 -10 -11 11 15 14 -15 -16 17 -18 -19 -20 -21 29 22 26 25 -26 -27 -28 -29 -30 -31
leaf_value=0.092974584493147203 0.050880278541652744 -0.14078791444127867 -0.073269116426329314 -0.15721975688582515 0.048284187481095399 -0.10509604763078936 0.10432874104529724 0.11353180327408287 0.10888664751313717 -0.13469365421395341 0.055712782845480563 0.006836503145782412 0.07684852066264132 -0.073097115159787548 -0.12348923905223036 -0.027503525841694531 -0.072563398214561148 0.06826478602861713 0.13288394999377029 -0.1661601866192666 0.12111951541208754 -0.09028499202744579 -0.00035324852629893143 -0.072608504007367708 -0.0021494444158980941 -3.0309474596219194e-05 -0.091670815086561455 0.12048847018365663 0.091621481070793695 -0.13851758700944902
leaf_weight=0.62057830605226527 5.7769168960016941 0.089518992375815287 0.16860474010172799 0.38698003449826501 0.38354792538302696 0.45419714353920415 0.26550899037829367 0.12229717985610478 1.7990927047067082 0.20852683370321745 0.79153662036696937 2.472126934031849 0.14774764532921847 0.96274166286093532 1.4731725203891979 0.69153914920389103 1.4219942101826726 1.5216579617335808 0.23881469154730439 0.19235241205751663 0.11208531655870502 0.16710621122183511 1.1553566390248313 1.5240137038781529 6.8546034489008871 1347.0891930160774 1.6182087473007398 0.45233956410083953 0.10919013962848112 0.07750426021812018
leaf_count=139 1109 26 43 121 92 119 59 19 378 64 142 593 21 223 260 149 421 311 57 62 22 38 263 330 1105 5558 384 113 22 30
internal_value=0 0.0635051 -4.37326e-05 0.0264684 -0.0285407 0.0509401 -0.0121004 0.0736739 0.0932784 -0.042931 -0.000130916 -0.020909 -0.05832 -0.0149776 -0.105228 -0.00023384 -0.0221575 0.0383409 0.0224528 -0.0233409 -0.100597 1.34655e-05 -0.0322239 9.38197e-05 0.0221032 -0.000112327 -0.0536316 0.0636287 -0.0669702 0.0149798
internal_weight=0 0.710097 1378.64 4.5187 1.39128 3.12742 0.828896 2.29852 1.9677 0.330824 1374.12 9.48252 3.3752 1.75428 1.62092 6.10732 3.89412 2.2132 0.814715 0.5759 0.57657 1364.64 3.39301 1361.24 12.6315 1348.61 2.77357 0.619446 0.563387 0.18959
internal_count=12273 165 12108 1088 384 704 200 504 421 83 11020 2120 646 365 281 1474 1014 460 211 154 173 8900 798 8102 2214 5888 647 151 141 52
is_linear=0
shrinkage=0.3


Tree=417
num_leaves=31
num_cat=0
split_feature=161 125 117 289 281 264 14 151 2 229 86 63 164 82 251 214 288 27 239 238 74 171 297 133 151 4 88 287 170 97
split_gain=0.0310101 0.0369974 0.0650267 0.0684043 0.0539804 0.0496703 0.0678875 0.0636864 0.0623745 0.0568383 0.0671213 0.0506108 0.0470317 0.0675002 0.0601478 0.0453801 0.0431565 0.0419285 0.0438862 0.0548938 0.0436896 0.0382941 0.0360596 0.0355435 0.0367401 0.0349904 0.0376889 0.0416295 0.0349423 0.0327974
threshold=0.010225387595793348 0.017084999941289352 -0.057023321049109725 -0.041467159605003599 0.0067688741840134506 0.015408500097692001 0.0084586146983120138 -0.066569499671459129 -0.021361911194865944 -0.012606000062078198 0.056148188867046318 -0.013956000097095899 -0.081466622773161204 -0.060935998335480641 0.043112998828291858 -0.10630400106310839 0.026813499629497504 -0.057762000709772048 0.10935400053858751 -0.037350544727864775 -0.020160143225012698 -0.06358139898622546 0.029477999545633755 -0.076742000877857194 0.037723500281572307 -0.016953499987721398 0.028603785064368187 0.020710499957203806 0.018272999674081754 -0.057440498843789038
decision_type=2 2 2 2 2 2 2 2 2 2 2 2 2 2 2 2 2 2 2 2 2 2 2 2 2 2 2 2 2 2
left_child=1 5 3 28 22 12 9 11 -9 -7 -11 -8 14 29 16 -15 -1 -4 20 -20 -19 -6 -5 -2 25 -25 -27 -28 -3 -14
right_child=23 2 17 4 21 6 7 8 -10 10 -12 -13 13 15 -16 -17 -18 18 19 -21 -22 -23 -24 24 -26 26 27 -29 -30 -31
leaf_value=0.13763086903064839 0.12157247459387807 0.15542532395411124 0.16690177803876552 -0.1022807896443709 -0.095601449265986932 0.14070344844333135 -0.17777575807099888 0.079957190328920624 -0.016683409390149288 0.075483226844193216 -0.15501309217375825 0.032564742979544044 0.062195494687403791 0.1526668335078617 -0.082226281752941485 -7.467876734356581e-05 -0.059586002141721939 -0.034839414478827629 -0.087243056914991235 0.13818954527962496 -0.10347820182190895 0.12576236881542668 0.059607377978047077 0.058090923730900197 0.12627470938330329 -0.1357791486404831 0.066975269784199667 -0.089697729886948005 -0.021041640592796524 -0.13709916261215943
leaf_weight=0.622826171078258 0.36585304571781341 0.43066209366952524 0.086920356174232327 0.53610313927674702 0.09173267513688188 0.77688166685766191 0.27493588196165319 1.0570778163037178 1.3933903305405695 0.45863518145421156 0.15118538735987386 0.16458344030615979 0.08854565501678735 0.17508434766204928 0.19240582280326635 1429.1242071022914 0.11893121665343642 3.3514482943610342 0.15887195430696011 0.25049301900435228 1.1113673950680998 0.3014967014787544 0.16102712261363195 0.57224275320913875 0.24358308369255599 0.24994053258342208 0.36771031514035712 0.26095852284561261 0.13192238644114695 0.46249199888529702
leaf_count=105 90 73 20 203 23 127 47 220 298 104 27 33 21 33 45 8230 27 1073 37 37 525 79 54 192 77 90 132 91 35 125
internal_value=0 -5.91414e-05 -0.0224484 0.0290829 -0.0147543 4.40173e-05 0.0323266 0.00614437 0.0250052 0.0868921 0.0183391 -0.0990112 -5.24769e-05 -9.64407e-05 0.0672395 -5.59684e-05 0.10601 -0.0396246 -0.0433091 0.0507006 -0.0519324 0.0741225 -0.0648869 0.0367723 0.0184627 0.000362206 -0.0372368 0.00194078 0.114045 -0.105075
internal_weight=0 1441.67 6.61205 1.65294 1.09036 1435.06 4.27669 2.88999 2.45047 1.3867 0.609821 0.439519 1430.78 1429.85 0.934163 1429.3 0.741757 4.9591 4.87218 0.409365 4.46282 0.393229 0.69713 2.06029 1.69444 1.45085 0.878609 0.628669 0.562584 0.551038
internal_count=12273 11601 2159 467 359 9442 856 598 518 258 131 80 8586 8409 177 8263 132 1692 1672 74 1598 102 257 672 582 505 313 223 108 146
is_linear=0
shrinkage=0.3


Tree=418
num_leaves=31
num_cat=0
split_feature=92 1 39 278 222 232 274 258 205 205 79 264 265 156 36 122 28 267 3 271 198 6 34 227 79 48 76 252 248 23
split_gain=0.0236424 0.0767905 0.0577907 0.0574645 0.0465269 0.0431289 0.0498006 0.0379212 0.0337072 0.0573813 0.0582588 0.0721602 0.0554149 0.0549943 0.0611963 0.0484674 0.0474594 0.0570298 0.0559611 0.0646413 0.0490961 0.0468739 0.0445737 0.0428226 0.0422806 0.0419458 0.0356748 0.0313558 0.028569 0.027324
threshold=0.11924999952316281 -0.039467500522732644 -0.038865000009536695 0.073339998722076361 -0.05412600003182879 0.070668183201603521 -0.040649499744176788 -0.040336124884065648 -0.0015343038811155986 -0.00084795564560288285 -0.0018980000168084498 -0.018448159213369134 -0.0041049998253583492 0.10767348929361782 -0.025995827075079515 0.0019925000378861507 -0.13031511928292103 -0.025940000079572149 -0.018653881276423829 0.12061330737562824 0.0099944998510181505 0.025851499289274205 -0.0094398848341468323 -0.065517000854015336 0.0032418906670567877 -0.0047961124067516557 -0.025289528111324473 0.053760763686735866 -0.014027666415594038 -0.014964499976485898
decision_type=2 2 2 2 2 2 2 2 2 2 2 2 2 2 2 2 2 2 2 2 2 2 2 2 2 2 2 2 2 2
left_child=8 2 4 29 -2 6 -6 28 13 25 11 12 -11 16 22 -13 17 -1 21 -20 -19 -18 26 -16 -24 -10 -15 -25 -4 -3
right_child=1 3 7 -5 5 -7 -8 -9 9 10 -12 15 -14 14 23 -17 18 20 19 -21 -22 -23 24 27 -26 -27 -28 -29 -30 -31
leaf_value=-0.13698409264385475 0.15732028012123833 -0.030584420163439277 -0.20093225219682512 0.10664994940119978 -0.17075903907188442 0.15390997919494914 0.032886808746363107 0.041038967588669491 0.019400290943215343 0.060584973921421446 4.8234477498485663e-05 -0.12310800223951865 -0.065206098659358488 0.14193806986385502 -0.16140358600106289 0.051839749875968323 0.014715312079883894 0.1139033456118243 0.061785999607038532 -0.15931164691138647 -0.10919746709970399 -0.12626466977316203 -0.043999748056672845 0.086376789086837227 -0.18745149720283724 -0.20275062420917997 -0.081959793903401093 -0.042406346311550637 0.040336943791310489 -0.16851001700078758
leaf_weight=0.34010391149058705 0.27661325606186449 0.17065161668961082 0.20645998697727919 0.10125567704926652 0.15822615825891273 0.14559240965900244 0.34097609315040234 0.14685215370673188 0.11829377435788047 0.69663413466423663 1314.220757989465 1.0317723908176493 0.57562596488378426 0.12438349452691 0.097852347247680882 0.16536136876129592 3.7880362203179603 0.24159360253565765 4.3190736841040698 0.12238252523866311 0.1403441918637327 0.22485473418919344 0.35618146382648774 0.57944010802975643 0.38456590766054433 0.21648969281477448 0.13203584189795947 0.2408934162215246 0.056192594304775412 0.53308937462588701
leaf_count=143 83 96 82 31 49 51 94 62 41 348 5763 445 260 41 33 66 1694 91 1603 68 66 113 134 208 165 16 71 106 30 220
internal_value=0 -0.0315193 0.0127198 -0.10466 0.0543951 0.0102408 -0.0316604 -0.081052 6.88552e-05 -6.9842e-05 -3.82665e-05 -0.0460744 0.00367161 0.0165376 -0.0296996 -0.0989423 0.0261886 -0.0476368 0.0324936 0.0556937 0.0319243 0.00681577 -0.0811562 0.0261832 -0.118474 -0.124255 0.0266482 0.0485592 -0.149314 -0.135064
internal_weight=0 2.13591 1.33091 0.804997 0.921408 0.644795 0.499202 0.409505 1328.12 1317.02 1316.69 2.46939 1.27226 11.0917 1.91535 1.19713 9.17639 0.722042 8.45435 4.44146 0.381938 4.01289 0.997167 0.918186 0.740747 0.334783 0.256419 0.820334 0.262653 0.703741
internal_count=12273 798 451 347 277 194 143 174 11475 6939 6882 1119 608 4536 758 511 3778 300 3478 1671 157 1807 411 347 299 57 112 314 112 316
is_linear=0
shrinkage=0.3


Tree=419
num_leaves=28
num_cat=0
split_feature=223 188 121 278 220 26 182 265 272 122 17 37 271 110 18 204 10 164 292 56 40 48 116 134 284 158 82
split_gain=0.0330657 0.0357854 0.0407764 0.0321858 0.032203 0.0556888 0.0472943 0.0436483 0.0378504 0.0371255 0.0321768 0.0622442 0.0632166 0.0498149 0.0372296 0.0796278 0.0595822 0.032172 0.0287341 0.0253319 0.023515 0.0199944 0.012818 0.0121635 0.00126287 2.17745e-07 1.30397e-07
threshold=-0.10889479815506141 0.024368500337004603 0.075158499181270558 -0.094293501228094032 -0.058946000412106438 -0.071309000253677327 0.064803503453731509 0.034227499738335561 0.086119037426825959 -0.10900384148434601 0.023198999464511854 -0.029414279096201149 0.034758901936394908 0.069138500839471762 0.0098484996706247017 -0.028223726179940647 -0.011493000201880899 0.022856965455531539 -0.013584000058472099 -0.020527071627456869 0.055114833632596914 -0.039356499910354538 0.02944755716942845 -0.023059000261127897 0.016668727213769972 -0.036032601739581303 -0.0025690000038593496
decision_type=2 2 2 2 2 2 2 2 2 2 2 2 2 2 2 2 2 2 2 2 2 2 2 2 2 2 2
left_child=1 2 18 17 5 6 21 9 -9 -7 14 13 -13 -12 16 -16 -6 22 23 -20 24 -5 -2 -1 -3 -26 -24
right_child=3 20 -4 4 10 7 -8 8 -10 -11 11 12 -14 -15 15 -17 -18 -19 19 -21 -22 -23 26 -25 25 -27 -28
leaf_value=-0.18415586635744138 -0.054906350772416401 0.15027306461407744 0.17490470528676708 -0.0042824634610042602 -0.043672776692805039 -0.10355295401982149 0.11897032878889707 -0.082340029986213287 0.13907742003134294 0.11874825116888779 0.049422089062253004 0.0076946726375404992 -0.060912629669376155 -0.11719250144563037 0.054752677700809514 -0.0032856803324942617 -6.9201368875472567e-06 0.052276536186074703 -0.063897746239861622 0.15615292510261333 -0.0068469245911308213 -0.18523685597108816 -0.20107749798474572 -0.021102128927726019 0.20048426201819869 0.20115503534876975 -0.20053467231017491
leaf_weight=0.1120059263339499 0.082072153367333978 0.059735146205639467 0.10467431934011984 0.078967428311443655 2.8182284217327824 0.07307154725822318 0.093134508060757071 0.25281344703398645 0.095820691960398108 0.9051483184848611 1.4437106855539239 1.881580336225851 3.380213134635369 0.18184315421967756 3.4846467509478316 5.4628668234950037 1356.2989124557894 0.098374777313438244 0.095939693739637733 0.092457137356176555 0.073264914910396328 0.18073210286092933 0.08240943681448698 0.065112192591186613 0.086793380643939599 0.08742967585567385 0.077080378352547996
leaf_count=37 32 18 31 23 737 33 22 74 23 208 322 420 773 48 780 1297 7100 26 34 34 39 51 13 23 34 14 27
internal_value=0 0.0618426 0.00981434 -4.55347e-05 -2.27428e-05 0.0414908 -0.0644387 0.0696594 -0.0214843 0.102143 -7.34572e-05 -0.0205273 -0.0363791 0.0307837 2.95153e-05 0.0193176 -9.74645e-05 -0.0923453 -0.0374634 0.0440937 0.141469 -0.130214 -0.151242 -0.124214 0.187915 0.200821 -0.200815
internal_weight=0 0.777412 0.470189 1376.97 1376.63 1.67969 0.352834 1.32685 0.348634 0.97822 1374.95 6.88735 5.26179 1.62555 1368.06 8.94751 1359.12 0.339937 0.365515 0.188397 0.307223 0.2597 0.241562 0.177118 0.233958 0.174223 0.15949
internal_count=12273 264 159 12009 11911 434 96 338 97 241 11477 1563 1193 370 9914 2077 7837 98 128 68 105 74 72 60 66 48 40
is_linear=0
shrinkage=0.3


Tree=420
num_leaves=31
num_cat=0
split_feature=234 164 131 61 270 147 96 133 64 186 132 294 242 216 46 53 196 111 212 95 200 173 290 4 65 116 19 293 163 231
split_gain=0.0269222 0.053448 0.0595951 0.0480936 0.0469175 0.0364978 0.0337484 0.0333183 0.0586493 0.063545 0.0730055 0.0552911 0.0608046 0.0554961 0.0494307 0.0607866 0.0492483 0.049077 0.0434117 0.0394221 0.0320188 0.031829 0.0313155 0.114013 0.0654794 0.0559937 0.0532922 0.0514127 0.0470985 0.107109
threshold=0.038469513897384698 -0.054358301825393231 -0.04122299887239924 0.060988896947756215 -1.0000000180025095e-35 0.018281961317982775 0.048353999853134107 0.0035409999545663001 -0.043855640936568505 -0.0053250000346451486 -0.027312288998972416 -0.043266882097912761 -0.055762499570846495 -0.081472501158714225 0.085955496877431856 0.11488080382152237 0.087640497833490316 0.023797727643965021 0.056870588433519824 0.031999500468373257 -0.037532619958587574 -0.019294999539852049 -0.066671498119831044 -0.035017972970467368 0.037857500836253104 -0.028633835642156675 0.096880000084638568 0.03752699866890901 -0.011430326645605228 -0.031532999128103249
decision_type=2 2 2 2 2 2 2 2 2 2 2 2 2 2 2 2 2 2 2 2 2 2 2 2 2 2 2 2 2 2
left_child=7 4 -3 -4 -2 20 -6 22 9 10 19 13 21 -10 15 -11 -12 -15 -14 -9 -5 -13 23 24 27 -25 -27 -1 -24 -30
right_child=1 2 3 5 6 -7 -8 8 11 14 16 12 18 17 -16 -17 -18 -19 -20 -21 -22 -23 28 25 -26 26 -28 -29 29 -31
leaf_value=-0.14038855811610024 -0.1738720537827961 -0.1046943525697899 0.096225678034402615 0.12362944102510455 -0.076399791391886809 -0.13503966270293838 0.16160462179816171 0.011549204066388275 0.10441830005182393 -0.08910352435038979 0.11924586209701726 0.15206030119116087 -0.096518935636053876 0.025202563956662601 0.13043114363045263 0.14583308120200772 -0.10708082789202224 -0.091772890907140137 0.10471465506456512 -0.19606744218906919 -0.1171643387621006 -0.076995906500950645 -0.021638387471271187 -0.076377380126854938 0.035095136845998375 0.030232546989893614 0.10588406517480192 0.023447181534862565 0.062697885462204894 -1.1888284522310279e-05
leaf_weight=0.6669397391260643 0.19367573066847399 0.19559954107535338 1.3777259212802149 0.16611134918821335 0.12084435573069674 0.15663954723277129 0.096388227131683379 0.25149860069268459 0.35385824375225627 0.8676630581185234 0.93650778217715946 0.1555924597523699 2.1194288456258614 0.68867910442349944 0.13650511200467008 0.11190015262945963 0.095337891807503183 0.60758560163185393 0.10108403807498678 0.12235587507393575 0.070918859535595291 0.084115242827465742 9.0299413057232396 0.28756875032195273 0.5274331733784976 2.0345668095369969 1.4250336135473842 0.23246975164147443 2.4555477898911695 1416.9911369655401
leaf_count=131 41 59 427 47 40 42 22 93 102 267 243 46 880 175 29 22 28 220 35 57 23 43 2066 104 139 459 211 57 584 5581
internal_value=0 0.031893 0.05245 0.0698021 -0.0665124 -0.0226725 0.0292051 -5.45557e-05 -0.0212692 0.0147483 0.0571818 -0.0433665 -0.0718623 -0.000881226 -0.0386971 -0.0622656 0.0983343 -0.0296262 -0.0873582 -0.0564 0.0515845 0.0716827 4.35837e-05 0.0233407 -0.0488278 0.050821 0.0613939 -0.098042 -4.07996e-05 9.65954e-05
internal_weight=0 2.3779 1.967 1.7714 0.410908 0.39367 0.217233 1440.28 6.63211 2.52177 1.4057 4.11034 2.46022 1.65012 1.11607 0.979563 1.03185 1.29626 2.22051 0.373854 0.23703 0.239708 1433.65 5.17401 1.42684 3.74717 3.4596 0.899409 1428.48 1419.45
internal_count=12273 701 598 539 103 112 62 11572 2240 739 421 1501 1004 497 318 289 271 395 915 150 70 89 9332 1101 327 774 670 188 8231 6165
is_linear=0
shrinkage=0.3


Tree=421
num_leaves=31
num_cat=0
split_feature=240 275 141 275 6 83 228 26 122 129 101 42 288 187 236 165 153 87 112 258 229 233 60 204 201 258 144 292 111 107
split_gain=0.0208432 0.0577271 0.054527 0.0681421 0.0433137 0.0454559 0.0432443 0.0427638 0.0389898 0.0375415 0.0453181 0.0353137 0.0614833 0.0655498 0.0560157 0.0505091 0.0485249 0.0508148 0.0477521 0.0448397 0.0430971 0.0437554 0.041585 0.0349765 0.0345384 0.0336847 0.0342472 0.033592 0.0316457 0.0313434
threshold=0.12460149824619286 0.0065579998772591006 -0.014107443919223915 -0.0075319998431950487 -0.053169185669833557 -0.021510999649763048 -0.042775669812662842 -0.080626498907804434 -0.05979650095105165 0.0057426791326432849 -0.085257496684789588 -0.0019394999835639496 -0.03175428056648625 -0.0097505003213881978 0.04039618428969103 0.035589499399065951 -0.059756999835371943 0.05289623795104343 -0.089579500257968833 -0.11149499937891953 -0.058396760530339646 0.00040445515397179892 -0.039878967425081104 -0.023942255985145541 -0.10451551613692929 -0.13497221722009167 -0.1060374568267846 -0.017555500380694797 0.017074500210583151 -0.016007999889552548
decision_type=2 2 2 2 2 2 2 2 2 2 2 2 2 2 2 2 2 2 2 2 2 2 2 2 2 2 2 2 2 2
left_child=11 2 7 4 5 -4 -6 -2 27 -10 -11 12 13 20 16 22 19 -18 -13 -14 -1 -22 -16 -5 -20 -26 -27 -3 -12 -9
right_child=1 8 3 23 6 -7 -8 29 9 10 28 18 14 -15 15 -17 17 -19 24 -21 21 -23 -24 -25 25 26 -28 -29 -30 -31
leaf_value=-0.20050077591766016 0.11266637554666237 -0.17191590150902991 0.15607690630529059 -0.048197060135335437 0.097877686185213975 -0.14601074005509776 -0.089599907508022242 -0.16045587261126962 -0.11663606052929631 -0.12576560035222256 -0.10173452024156514 -0.15843256414709758 0.099080940944328913 -0.12975557055305575 -0.088306669131264823 -0.2004606186677628 0.055642648447659447 -0.036962031032190618 -0.11570679538346564 -0.083688079494481343 0.05887171564246467 -0.085186360916131701 0.028304875755519324 0.1547081773138928 -0.099317104037950688 0.089971631955689926 -2.7456814734867089e-05 0.03036281355977697 0.13617685523150513 0.0059051859738913142
leaf_weight=0.085385206833052396 0.094998353463324747 0.43286426588997529 0.053306017525301286 0.091604261330758163 0.36054377507480229 0.28192921502613888 0.15981502231352362 0.32292729215168947 0.27246217475015988 0.12662001751436947 0.063304304202745243 0.17133620997378685 0.16006752284022241 0.47560871948871764 0.3993815346075279 0.13559840221398634 5.7479007546968424 0.58783425807632728 0.2323210299555275 0.49257185995429509 0.73411181476103582 0.25590564171579899 0.88538926982539568 0.46247576679081626 0.30742643346775267 0.38064206628632646 1315.2842022089278 0.089097353120450862 0.24529595075182442 0.14893430997835833
leaf_count=43 27 188 17 39 123 116 94 118 129 37 32 130 76 304 169 119 2384 295 124 277 291 127 481 122 189 201 5818 57 78 68
internal_value=0 -0.0241488 0.00760203 0.0391996 -0.0138793 -0.0979755 0.0402987 -0.0709752 -0.0751851 -0.0293069 0.0253641 6.8994e-05 0.0178654 -0.0370171 0.0279886 -0.0263237 0.0390274 0.0470507 -6.56542e-05 -0.0388618 0.00399753 0.0216347 -0.00794478 0.121163 -4.50389e-05 -2.462e-05 -1.41869e-06 -0.137388 0.0873732 -0.107947
internal_weight=0 3.20618 1.97653 1.40967 0.855594 0.335235 0.520359 0.56686 1.22964 0.707682 0.43522 1326.34 9.95975 1.55101 8.40874 1.42037 6.98837 6.33574 1316.38 0.652639 1.0754 0.990017 1.28477 0.55408 1316.2 1315.97 1315.66 0.521962 0.3086 0.471862
internal_count=12273 1245 724 511 350 133 217 213 521 276 147 11028 4566 765 3801 769 3032 2679 6462 353 461 418 650 161 6332 6208 6019 245 110 186
is_linear=0
shrinkage=0.3


Tree=422
num_leaves=31
num_cat=0
split_feature=95 153 56 23 282 164 293 289 32 207 112 244 248 24 118 75 199 24 222 256 30 165 222 247 140 152 197 97 265 168
split_gain=0.0287908 0.0453006 0.041166 0.0519222 0.0436545 0.0547836 0.0382559 0.0489425 0.0376196 0.0721211 0.0646726 0.0629599 0.0581528 0.0657502 0.0515204 0.0513968 0.0541676 0.0517427 0.0507759 0.0401694 0.0546541 0.0620624 0.0585556 0.0564209 0.0551439 0.0477506 0.0437361 0.0651992 0.0639664 0.0617667
threshold=0.071255138961953388 0.040883748706409588 -0.019035209242969628 0.010431500151753351 -0.075826998800039236 -0.0097835976647720636 0.020532499998807855 0.0037904999917373005 -0.059077928369500883 -0.019198999740183294 0.07066150009632112 -0.035653999075293492 -0.04871400310410072 0.0073255000170320004 0.081092499196529361 0.10097787028994432 0.0048926836253453598 -0.094273999333381583 -0.036167999729514087 -0.021998500451445548 -0.010620280821384371 -0.007414499996229949 0.0085551625602371534 -0.027606999501585894 -0.017226000316440993 -0.052959499880671439 -0.005747916609654187 -0.011092499829828699 0.025843726585667286 -0.028609250783776023
decision_type=2 2 2 2 2 2 2 2 2 2 2 2 2 2 2 2 2 2 2 2 2 2 2 2 2 2 2 2 2 2
left_child=8 2 3 6 -5 -6 -2 -8 9 12 15 18 -1 14 -14 17 -17 -11 -12 20 22 25 23 -10 -23 -22 27 28 -21 -29
right_child=1 -3 -4 4 5 -7 7 -9 19 10 11 -13 13 -15 -16 16 -18 -19 -20 26 21 24 -24 -25 -26 -27 -28 29 -30 -31
leaf_value=0.073809827074638346 0.12917817174065871 -0.072628871604692932 0.10209920492268638 -0.20119814568057465 -0.11276875076856717 0.05771222894420093 -0.10394237144080588 0.16736800893156054 0.074115636706423474 0.021846740414148566 -0.027810615991112765 -0.094302134304224808 -0.12562016649020841 0.048226402295472405 0.093481777744819958 -0.023141091260155771 0.13275735001270628 -0.073097826330596569 0.16128444851501364 0.03447524042172373 0.058946774556193932 -0.0051120908871860205 0.12804038327153577 -0.026211366829628314 0.10051153917328932 -0.05723406300168913 5.0003433089757642e-05 0.045820668050761931 -0.065694620668735521 -0.085633455968080308
leaf_weight=1.1526897103758531 0.45903532695956573 0.33254601010412432 0.77845732087462161 0.11895862605888441 0.26883476090733938 0.45979048513981891 0.17911998939234763 0.089861599262803793 1.1292886273076879 0.59264403618726547 0.19299522184883244 0.21115271349844977 0.53482742084452162 0.66013109159439409 0.11787802242906764 1.0486256580143161 0.24802883798838582 4.0258458691373553 0.37834470556117594 1.8812250375540318 0.39301971295208238 1.0213499729725297 0.73517641369835462 0.91181721399675564 0.78812678817121096 1.6765871849020189 1352.9405551594391 0.38412488486392282 0.82551746554963745 1.9794661834243914
leaf_count=225 88 103 198 31 72 110 50 15 204 99 37 48 133 164 23 238 42 993 46 342 77 227 138 212 149 359 7001 93 176 580
internal_value=0 0.0310175 0.0456591 0.0177737 -0.0326987 -0.00518871 0.0765355 -0.0133028 -6.89158e-05 -0.019227 -0.0353752 0.0456767 0.0246397 -0.0185323 -0.0860506 -0.0460973 0.00667974 -0.0609146 0.0974093 5.97229e-05 0.0233096 0.00031037 0.0554447 0.0292968 0.0408928 -0.0351712 -5.42208e-05 -0.0278648 0.00392488 -0.0642699
internal_weight=0 2.6866 2.35406 1.5756 0.847584 0.728625 0.728017 0.268982 1373.83 9.16316 6.69764 0.782493 2.46553 1.31284 0.652705 5.91514 1.29665 4.61849 0.57134 1364.67 6.65537 3.87908 2.77628 2.04111 1.80948 2.06961 1358.01 5.07033 2.70674 2.36359
internal_count=12273 667 564 366 213 182 153 65 11606 2048 1503 131 545 320 156 1372 280 1092 83 9558 1366 812 554 416 376 436 8192 1191 518 673
is_linear=0
shrinkage=0.3


Tree=423
num_leaves=31
num_cat=0
split_feature=85 109 178 195 89 212 193 12 185 108 139 170 163 63 234 47 19 128 290 257 286 48 202 23 151 160 140 145 220 84
split_gain=0.0281378 0.065909 0.0625592 0.0877625 0.0631241 0.0583529 0.058075 0.0470921 0.0541104 0.0535518 0.0623333 0.0591203 0.0659727 0.0426285 0.0418531 0.0417722 0.0492642 0.048727 0.0415801 0.0392145 0.0461471 0.0452513 0.0687231 0.0957258 0.0619737 0.0572687 0.067018 0.0569753 0.03844 0.0360251
threshold=-0.014042322949513448 0.14670249819755551 0.03355799987912176 -0.010330500081181498 -0.063015501946210792 -0.0016701273790082703 0.044276500120759003 -0.049468999728560392 0.012196000199764903 0.00043991590157410794 0.016290999948978351 0.031729999929666457 0.0098859472578844611 0.0091525247178557891 0.06902150064706801 -0.016676742831654812 0.07747777639735505 0.086521502584218965 -0.043738000094890546 -0.071077499538660036 -0.042035998776554992 -0.06639147561984933 -0.03189549967646594 0.044385459814676273 -0.064534500241279533 -0.03484150022268289 -0.037194871707464001 -0.016333042517105757 -0.050464499741792644 0.03912750072777265
decision_type=2 2 2 2 2 2 2 2 2 2 2 2 2 2 2 2 2 2 2 2 2 2 2 2 2 2 2 2 2 2
left_child=1 2 3 5 -5 28 19 8 -8 10 13 12 -11 -9 -6 -4 17 -17 -13 20 -2 22 23 -21 -24 26 -23 -27 -1 -22
right_child=6 -3 15 4 14 -7 7 9 -10 11 -12 18 -14 -15 -16 16 -18 -19 -20 21 29 25 24 -25 -26 27 -28 -29 -30 -31
leaf_value=0.10447061410221403 -0.1370249871690046 -0.13754763209492929 -0.12494772171241032 0.10481243467201121 -0.00049788403560390544 0.070907992060693967 0.048097843768697329 0.13009940840158962 -0.11833349982690486 -0.11441558157112709 -0.027637625631850442 -0.07125750724425102 0.045400356167858633 0.026226313342921904 0.18290235169633698 -0.1037265504036109 0.10222043236924078 0.11749948600666853 0.15106832861010422 -0.090954636023021895 0.10687858962373568 0.073409273934872954 -0.10830803926987687 0.12214711230630072 0.033103875352246584 -0.049794293139673533 -0.0093841853164391958 2.0677588171570658e-05 -0.13765795299067937 -0.10144744783413984
leaf_weight=0.064125263859750703 0.093574120091943769 0.38694425950961964 0.64455788933446456 0.60219512831008426 5.934610558916801 0.17932700842356908 0.34859831073299563 1.3108532810920221 0.35471034635520482 0.49785621830460491 0.41047211348495682 0.10014656231260233 0.43610564375489957 0.48793631057924347 0.11414164027155482 0.51871525825754339 0.21050493291477324 0.10831813708864502 0.31026233335433062 1.8828930615372885 0.72730293875906582 2.0503093202787572 0.3370058808077373 0.21096964726348222 1.6182090124309514 2.0693945804741807 1.5414522098797068 1417.0184825658109 0.73992073807767156 0.083259046048624441
leaf_count=14 25 73 268 135 1981 45 132 283 77 121 115 27 111 146 22 167 64 29 55 372 181 346 106 40 474 606 408 5527 294 29
internal_value=0 -0.0162806 -0.0111334 -0.000183577 0.0121847 -0.083835 9.75671e-05 0.0350857 -0.035841 0.049123 0.0778511 0.00191276 -0.0397909 0.101923 0.00296293 -0.0675363 -0.0233533 -0.0655104 0.0968171 -6.76108e-06 0.0624516 -4.63417e-05 -0.0317159 -0.0694833 0.00872975 4.37927e-05 0.0378774 -5.19654e-05 -0.118347 0.0854798
internal_weight=0 9.50336 9.11642 7.63432 6.65095 0.983373 1431.89 4.25694 0.703309 3.55363 2.20926 1.34437 0.933962 1.79879 6.04875 1.4821 0.837538 0.627033 0.410409 1427.63 0.904136 1426.73 4.04908 2.09386 1.95521 1422.68 3.59176 1419.09 0.804046 0.810562
internal_count=12273 3092 3019 2491 2138 353 9181 1067 209 858 544 314 232 429 2003 528 260 196 82 8114 235 7879 992 412 580 6887 754 6133 308 210
is_linear=0
shrinkage=0.3


Tree=424
num_leaves=31
num_cat=0
split_feature=260 166 183 257 252 73 290 288 10 184 11 105 81 291 38 165 204 158 205 45 48 139 96 189 293 40 84 36 243 237
split_gain=0.0208265 0.0522619 0.0597671 0.0389817 0.052173 0.0426573 0.0510859 0.0387979 0.0337329 0.0305342 0.0298626 0.0633618 0.0700522 0.0613614 0.0608051 0.0600191 0.0521387 0.0520638 0.0454646 0.043078 0.043059 0.0397381 0.0388651 0.0353692 0.0378435 0.0357388 0.029198 0.038852 0.0379933 0.0346252
threshold=0.13181910397620375 -0.049441499635577139 -0.020514500327408248 0.0063529015551905847 0.073448749478720904 0.11563588553548629 -0.046047725220822747 0.015714499168097903 0.068703939108256742 -0.066194556221535736 -0.0010092545541050299 -0.018549500033259298 0.048585965823631096 -0.031367501243948888 -0.038705499842762892 0.0024454999947920004 -0.055014001205563497 -0.016065499745309297 -0.05256550014019009 -0.0082688047592362167 -0.0065603022079011889 0.038174500688910457 -0.0012581876845705138 0.0099919997155666022 0.097098515737810934 0.0036476585132944475 -0.077100001275539329 -0.046858999878168044 0.0016407706770682309 -0.015534000005572949
decision_type=2 2 2 2 2 2 2 2 2 2 2 2 2 2 2 2 2 2 2 2 2 2 2 2 2 2 2 2 2 2
left_child=10 7 3 5 -5 -3 -7 -2 -4 -9 11 18 13 14 -13 -15 20 19 22 -14 -12 -19 -1 24 -20 -25 27 -18 -29 -28
right_child=1 2 8 4 -6 6 -8 9 -10 -11 16 12 17 15 -16 -17 26 21 23 -21 -22 -23 -24 25 -26 -27 29 28 -30 -31
leaf_value=0.15158958394280445 -0.16999198815390776 0.13422597637663225 -0.15281764280242091 -0.15943966095660475 0.10505011469817056 -0.2006544949633681 0.1565555962628328 -0.20059575423863432 0.086365767993416789 0.071888928584771805 -0.12439515154174241 -0.13065292271611814 0.023684658379040352 0.090929727488320108 0.026316824655881275 0.010323584176546 -0.17248349115295408 -0.15054450256686311 -0.093009204257653841 -0.11356961960232334 0.028383359798999929 0.10580142146202753 -0.029887587043285101 -0.1641920725613368 0.17555143401694998 0.024868429564245804 0.044167281025524259 -0.1005866749269208 0.090929805292196839 -4.5367874367022106e-05
leaf_weight=0.21558982635178836 0.34815449732104742 0.44003172733277995 0.26877788529452473 0.16117132215367747 0.11502867830859032 0.086491470068722265 0.06176360065001063 0.050550231244415045 0.066123733220479153 0.13820066177413537 0.54156562517925977 0.28345835120308027 1.7007500907027975 2.8194586568445161 1.0260655284678248 1.1790324961855274 0.20464972304853291 0.34739370945891312 1.0619203865499001 0.23413144713720169 0.23943040560368345 0.064535350981941519 0.20933575012895778 0.10292483199918923 0.049420231938711257 0.71588892056274744 1.5961320477781544 0.19685591374695732 0.17709253158955107 1313.9791584784116
leaf_count=85 164 135 159 95 41 43 19 26 39 72 292 121 659 1096 486 529 113 201 486 171 119 34 113 79 24 323 841 110 87 5511
internal_value=0 -0.032821 0.00200246 0.0436848 -0.0492879 0.0873353 -0.0518395 -0.110613 -0.105593 -0.00108643 5.67354e-05 0.0163807 0.0296197 0.0487023 -0.0076607 0.0671614 -6.73418e-05 -0.0135413 -0.0266506 0.00707613 -0.0775578 -0.110384 0.0621865 -0.0462082 -0.0810666 0.00110354 -2.13595e-05 -0.0673987 -0.00988931 8.27347e-06
internal_weight=0 1.73629 1.19939 0.864487 0.2762 0.588287 0.148255 0.536905 0.334902 0.188751 1326.94 10.0099 7.65483 5.30802 1.30952 3.99849 1316.93 2.34681 2.35508 1.93488 0.780996 0.411929 0.424926 1.93015 1.11134 0.818814 1316.15 0.578598 0.373948 1315.58
internal_count=12273 793 531 333 136 197 62 262 198 98 11480 4407 3297 2232 607 1625 7073 1065 1110 830 411 235 198 912 510 402 6662 310 197 6352
is_linear=0
shrinkage=0.3


Tree=425
num_leaves=25
num_cat=0
split_feature=246 82 111 160 145 234 79 256 220 263 290 14 37 108 6 197 274 57 296 191 213 3 178 259
split_gain=0.0294122 0.0389356 0.028721 0.0432403 0.0287264 0.0577663 0.0552758 0.0521432 0.0390051 0.0382292 0.060901 0.0542833 0.0500476 0.0381889 0.073818 0.0600063 0.0223524 0.0215848 0.0210087 0.0141499 0.012099 0.00410227 0.000806185 3.81974e-05
threshold=-0.10917526436780446 0.032292185558780995 -0.062587570550019775 -0.049355000257492045 -0.043570499867200789 -0.092167226823081622 0.055486135172342098 -0.0072665389243483881 0.015645047878454811 0.02909041593537982 -0.018249999731779046 0.098802045422005422 0.0050699999555945006 0.0009050159669840188 -0.071873001754283836 -0.0033419999526812997 0.02960079937977279 -0.054587500169873196 -0.048268498852848944 0.016188999637961353 -0.042145845366887737 -0.030502837113809449 -0.0065764999017118991 -0.064845997840166036
decision_type=2 2 2 2 2 2 2 2 2 2 2 2 2 2 2 2 2 2 2 2 2 2 2 2
left_child=1 19 3 -2 5 8 7 -7 21 13 11 -11 -12 15 -15 -6 20 -10 -8 22 -5 -4 -1 -22
right_child=2 -3 4 16 9 6 18 -9 17 10 12 -13 -14 14 -16 -17 -18 -19 -20 -21 23 -23 -24 -25
leaf_value=0.16156408090335636 0.10157671800149887 -0.084511065206140171 -0.11485787881477906 -0.02079261294008462 -0.033913686931275173 -0.026574271320185573 -0.0066787425575676454 0.051185998608521396 0.16395055156389757 -0.070615474726252708 0.064060398065701712 0.064027212867436581 -0.046488803807750202 0.061230203563406811 0.0010709240873953104 5.4328405571446634e-06 -0.0091441270639005222 -0.077053116801180474 0.1677209042795606 0.035599762306195874 -0.18813015042181921 -0.20115569836189759 0.20122002755963495 -0.20053886196854265
leaf_weight=0.075924953971480136 0.098786728365439558 0.091240823443513364 0.077011744433548301 0.040739894611760974 4.7104195620152032 1.2223284358478856 0.075400208050268702 2.126023115743009 0.062708895042305812 2.406230926404533 0.91094172374141524 0.30347929885465408 0.61902057725092163 2.6825065050943522 5.8150287339794868 1352.6924623361219 0.11025888239964843 0.071672964259050786 0.35416714847815445 0.079900753902620636 0.025299999688286334 0.13915543700568367 0.11760388495167617 0.18997234552943965
leaf_count=25 31 26 23 7 1086 307 26 577 14 760 218 69 179 509 1345 6754 34 26 89 23 7 28 25 85
internal_value=0 0.0851854 -2.4985e-05 -0.0745658 2.39911e-07 0.0249872 0.0357969 0.0227993 -0.0915101 -7.50502e-05 -0.0285183 -0.0555359 0.0193323 1.32361e-05 0.020062 -0.000112272 -0.122073 0.0354105 0.137109 0.141811 -0.170709 -0.170411 0.185662 -0.199081
internal_weight=0 0.36467 1374.73 0.465058 1374.27 4.12847 3.77792 3.34835 0.350549 1370.14 4.23967 2.70971 1.52996 1365.9 8.49754 1357.4 0.366271 0.134382 0.429567 0.27343 0.256012 0.216167 0.193529 0.215272
internal_count=12273 99 12174 164 12010 1090 999 884 91 10920 1226 829 397 9694 1854 7840 133 40 115 73 99 51 50 92
is_linear=0
shrinkage=0.3


Tree=426
num_leaves=31
num_cat=0
split_feature=65 295 92 129 11 118 35 144 217 265 199 67 81 48 290 64 169 233 124 36 108 116 73 29 284 137 39 24 70 94
split_gain=0.027178 0.0589475 0.0482081 0.0537198 0.0440165 0.0442989 0.0401563 0.0398524 0.0381386 0.0597689 0.0578138 0.0566014 0.0484826 0.0435512 0.0727335 0.0511482 0.0335165 0.0333801 0.0317962 0.0291538 0.0289022 0.0280511 0.0618728 0.052127 0.0654896 0.0398486 0.0447902 0.0569775 0.0546498 0.0327598
threshold=0.074466999620199162 -0.019534000195562794 0.10490088882823967 0.038426499813795006 -0.074991538450526071 -0.067958999425172736 0.031528924282931366 0.0049354999791830006 0.093936000019311863 0.038769817453968354 -0.060937499627470949 -0.058145500719547195 0.057794500142335857 -0.077992076810003669 -0.059034759998847462 0.044485000893473563 -0.020088000223040546 0.0046025327747300148 0.0099051692575124212 -0.012258066023549199 0.0037849952731349884 0.073752500116825118 0.035485999658703811 0.093652439177570018 0.044885175866570697 -0.19442749768495551 -0.023633499629795548 -0.046492307850369341 -0.10188800096511834 0.019631738364754788
decision_type=2 2 2 2 2 2 2 2 2 2 2 2 2 2 2 2 2 2 2 2 2 2 2 2 2 2 2 2 2 2
left_child=8 4 3 6 -2 -6 7 -3 21 11 -11 16 19 14 -13 -15 -10 20 -19 -12 -7 25 -23 24 -24 -1 27 -27 -28 -25
right_child=1 2 -4 -5 5 17 -8 -9 9 10 12 13 -14 15 -16 -17 -18 18 -20 -21 -22 22 23 29 -26 26 28 -29 -30 -31
leaf_value=0.14129293706304874 -0.094691706656995153 -0.10266727804154827 -0.16063333077176389 0.1228968852503928 -0.12885889593871094 0.15343523657278593 0.076663692927344901 0.089894267760103078 0.16617351951338108 0.13893450843363511 -0.19351028807786605 0.1635588467265682 0.11425483596751952 -0.11023566288568859 -0.11015302512373575 0.14440878527635087 -0.071589332056345878 0.065230960326506382 -0.095808634513878152 -0.010771582042728463 0.034233503599015933 0.10072686072056701 0.040718686732636213 0.15823612147607435 -0.072528916985068415 0.00067801659834868585 0.12925406291480862 -0.04062057454075739 4.5198835937178653e-05 -0.071598383035868574
leaf_weight=0.17945649547595977 0.1528627957759453 0.55868952480528722 0.1917564159593893 0.25652084223838756 0.092987000559332844 0.69238998178298083 0.22637814805966627 0.11698309473285917 0.14771060056227725 0.30509950240411854 0.14619226239847194 0.16518129879477783 0.14493840569048189 1.4963573781146791 0.18549779090790308 0.074526955315377452 0.083536969366833191 0.66381153654947411 0.13234467791579618 0.16987730234905019 0.24886570881972148 0.79519197636636763 0.90167600238874024 0.27025128710738489 0.93731638688427665 6.5599822099084122 0.29467051468964101 5.5505477490205504 1418.5526769488597 0.070343542378395796
leaf_count=24 46 226 67 65 43 149 80 36 32 65 51 30 31 492 56 25 22 188 51 51 70 210 276 76 218 1307 80 1837 6357 12
internal_value=0 0.0270447 -0.0213022 0.0017587 0.0599622 0.0728779 -0.03269 -0.069328 -7.45378e-05 -0.0343317 0.0376308 -0.0599405 -0.029413 -0.0768155 0.0187742 -0.0981546 0.0802829 0.083675 0.0384614 -0.0952941 0.121919 -4.81252e-06 0.0290969 0.00296366 -0.0170025 -6.53036e-05 -8.30314e-05 -0.0182501 7.20333e-05 0.110768
internal_weight=0 3.33359 1.35033 1.15857 1.98326 1.8304 0.902051 0.675673 1437.03 2.91892 0.766107 2.15281 0.461008 1.92156 0.350679 1.57088 0.231248 1.73741 0.796156 0.31607 0.941256 1434.11 2.97478 2.17959 1.83899 1431.14 1430.96 12.1105 1418.85 0.340595
internal_count=12273 1021 474 407 547 501 342 262 11252 855 198 657 133 603 86 517 54 458 239 102 219 10397 792 582 494 9605 9581 3144 6437 88
is_linear=0
shrinkage=0.3


Tree=427
num_leaves=31
num_cat=0
split_feature=254 59 297 158 200 243 199 156 274 0 14 215 63 278 293 190 86 109 190 13 289 12 148 179 299 171 244 257 1 292
split_gain=0.0202173 0.0419056 0.0383368 0.0529864 0.0315113 0.0299544 0.0350758 0.0283129 0.0276245 0.0405338 0.0394128 0.0449406 0.0462131 0.04679 0.035688 0.034883 0.0335325 0.0321444 0.0309764 0.0326073 0.0302388 0.03712 0.0366837 0.0297621 0.033598 0.0281184 0.0268375 0.0265453 0.0242082 0.0255827
threshold=0.012724500149488402 0.029546000063419304 -0.017867499962448994 -0.060229319684047038 -0.0012334302577837856 -0.006143499864265249 -0.020080500282347147 0.017866999842226453 0.014592053232309206 -0.092416875150325387 0.087747000157833058 0.030044000595807953 -0.069139998406171729 0.024334954234201036 0.064323000609874711 -0.014126053389597782 -0.057410499081015545 0.095479399084134331 0.012185500003397453 -0.026085999794304298 -0.068934500217437689 -0.0082229285882023297 0.0082698506674762657 0.0085828506477823464 0.031018914102212341 0.041353501379489857 -0.083393537971384032 0.005651525857384254 -0.036286567040558236 -0.029240387034653852
decision_type=2 2 2 2 2 2 2 2 2 2 2 2 2 2 2 2 2 2 2 2 2 2 2 2 2 2 2 2 2 2
left_child=8 2 5 7 -5 6 27 -4 9 14 11 12 -10 -14 -1 -12 23 26 25 -20 22 -22 -18 24 -11 -13 -17 -2 29 -3
right_child=1 28 3 4 -6 -7 -8 -9 10 16 15 18 13 -15 -16 17 20 -19 19 -21 21 -23 -24 -25 -26 -27 -28 -29 -30 -31
leaf_value=-0.14938404156357121 0.013622846542722737 -0.20035472212009783 0.10931670623355424 0.13115000459519202 -0.13678485775866267 -0.13319546626882664 0.079010703418369341 -0.17027735310661266 -0.13511610326267726 0.067815021878500345 -0.13593648964011951 0.084811660196974933 0.063590890608859252 -0.050602518323020457 0.10300126510996205 0.051524780646293462 0.090961734009598463 0.15833621967805803 -0.13947312018558308 0.046450908768943852 0.025055893318774912 -3.0683344252000757e-05 -0.093155914547679089 -0.14903581757406531 -0.16925960358715417 -0.094849845591809312 -0.17780714843181963 -0.16575906755467903 -0.13787491164961024 0.099270304424453948
leaf_weight=0.2781430694806194 0.14872494118935708 0.036011602142707488 0.044890275787111023 0.40971846943591572 0.043720386078290541 0.24994299840699341 0.23600237317259598 0.11902438928882475 0.21182920580395137 0.17716448756459513 0.24439868003446463 1.8125422831960807 0.77128878809764889 0.55553050868081755 0.061589363850544032 0.099205866935335507 0.1169657309781077 0.097415767342681647 0.12896084716385303 0.24845624278714229 5.3299678376022248 1314.7616277734533 0.58199104184564021 0.25618438493802387 0.07726351668998177 0.081945813004040136 0.085511991615703553 0.14825936411170915 0.40651696770282786 0.089106687654293637
leaf_count=182 73 40 22 211 15 123 78 65 105 111 145 859 401 274 35 54 56 34 97 125 2331 5652 381 168 74 66 83 63 290 60
internal_value=0 -0.0306521 -0.00342748 0.052473 0.105316 -0.047506 -0.00732207 -0.0937067 5.96606e-05 -1.87803e-05 0.023963 0.0345936 -0.00499519 0.0157789 -0.10363 -0.0529717 7.86005e-06 0.0188966 0.0614051 -0.0170781 3.75755e-05 7.06056e-05 -0.0623451 -0.0768564 -0.0041787 0.0770404 -0.0546405 -0.0759275 -0.10236 0.0130321
internal_weight=0 1.93192 1.40028 0.617354 0.453439 0.78293 0.532987 0.163915 1325.98 1321.64 4.33709 3.81055 1.53865 1.32682 0.339732 0.526532 1321.3 0.282134 2.27191 0.377417 1320.79 1320.09 0.698957 0.510612 0.254428 1.89449 0.184718 0.296984 0.531635 0.125118
internal_count=12273 1040 650 313 226 337 214 87 11233 8990 2243 1927 780 675 217 316 8773 171 1147 222 8420 7983 437 353 185 925 137 136 390 100
is_linear=0
shrinkage=0.3


Tree=428
num_leaves=31
num_cat=0
split_feature=217 232 0 276 241 297 87 28 265 134 165 54 211 290 86 298 72 235 83 104 167 143 119 245 299 159 147 275 160 171
split_gain=0.0289179 0.0463443 0.0476743 0.0474195 0.0490033 0.0461194 0.0450975 0.0434273 0.0392212 0.0342286 0.0566154 0.060168 0.0526795 0.0475701 0.0465598 0.0427989 0.0411284 0.0357166 0.0346306 0.0343001 0.034138 0.0338613 0.0789552 0.0617388 0.0644008 0.0593058 0.0840859 0.0576619 0.0572563 0.0519517
threshold=0.093936000019311863 0.012674499768763703 0.053550999611616107 -0.033300999552011441 -0.014157500118017148 -0.00032749999081709995 -0.066360181050460959 -0.12876850366592396 0.0043979999609291007 -0.065584000200033146 -0.044672500342130599 0.026937729839379278 -0.091633502393960883 1.0000000180025095e-35 0.0060292455120382182 -0.036093031385850578 0.037673000246286358 0.021762515046780614 -0.034227491064951092 -0.013474012984909741 0.049186998978257158 0.043907500803470556 -0.037306999787688193 -0.044674437886792824 0.058724913947040054 0.040258013365018337 -0.018716535583915981 0.019954961115995495 0.0075151050958040333 -0.057460437988609357
decision_type=2 2 2 2 2 2 2 2 2 2 2 2 2 2 2 2 2 2 2 2 2 2 2 2 2 2 2 2 2 2
left_child=9 5 3 7 6 -2 -5 -3 -7 10 14 12 19 -14 17 -16 18 -1 -13 -12 -6 25 23 29 -25 -11 27 -27 -28 -23
right_child=1 2 -4 4 20 8 -8 -9 -10 21 11 16 13 -15 15 -17 -18 -19 -20 -21 -22 22 -24 24 -26 26 28 -29 -30 -31
leaf_value=0.023417024068778044 0.13448036924544596 -0.16409402079717736 0.12202287154163147 0.11621047062450837 -0.016702586913012095 0.12055873334502898 -0.075651605150834508 0.089978127148684611 -0.060509511797856276 4.1485336236155133e-06 -0.097221138086105593 0.18624962000375414 -0.1199592336575357 -0.0073158472300776873 -0.061273869309262687 0.13725181364730663 -0.11923509642027538 -0.13607460546265257 0.018554075505733573 0.093718609564376845 0.11136250194805168 0.059843036948133213 0.059823980777190464 -0.013995109948346449 0.078891109374331719 -0.02194116250917353 -0.11228493845267144 0.099783467953395655 -0.0060174186582061624 -0.12679889733816982
leaf_weight=0.37711605859658426 0.59419072695891373 0.067259015864692628 0.2928033509524538 0.12044205318670775 0.47337648920438358 0.17291620041942113 1.3042202236356388 0.60669952612806843 0.28532012387586292 1354.6839985159936 0.12808850093279034 0.1416520404163748 1.447905063418147 0.43993769855296694 0.12648911928408779 0.42989819594367873 0.14994063510675915 0.19005252749775536 0.50936337642633578 0.24981078362907316 0.31002538869506679 0.17501053468731698 2.7976187760277744 2.4099069582007364 0.93143231261637982 1.3102509884429312 1.4155543099741401 0.47803075244951276 0.67338591082989285 0.57590596547993289
leaf_count=97 126 20 83 29 141 47 354 139 62 7692 38 27 405 129 27 99 45 57 123 65 85 31 629 477 183 320 351 85 206 101
internal_value=0 0.0247725 0.00668712 -0.00503058 -0.0262905 0.0793299 -0.0594314 0.0646225 0.00781688 -7.85814e-05 -0.0271512 -0.0482584 -0.0732427 -0.0937091 0.0304599 0.092119 0.0224172 -0.030027 0.0550423 0.0289998 0.0339782 4.49818e-06 0.0209827 -0.00557059 0.0118979 -0.000101892 -0.0371519 0.0105974 -0.0780288 -0.0832996
internal_weight=0 4.22725 3.17483 2.88202 2.20806 1.05243 1.42466 0.673959 0.458236 1369.64 4.19025 3.0667 2.26574 1.88784 1.12356 0.556387 0.800956 0.567169 0.651015 0.377899 0.783402 1365.45 6.88987 4.09226 3.34134 1358.56 3.87722 1.78828 2.08894 0.750917
internal_count=12273 1086 851 768 609 235 383 159 109 11187 1112 832 637 534 280 126 195 154 150 103 226 10075 1421 792 660 8654 962 405 557 132
is_linear=0
shrinkage=0.3


Tree=429
num_leaves=31
num_cat=0
split_feature=49 18 214 142 279 279 60 68 52 187 219 259 83 13 96 103 265 297 282 8 199 98 181 216 95 200 74 132 145 23
split_gain=0.0286222 0.0458127 0.050194 0.056933 0.053451 0.0522668 0.0507495 0.0506027 0.0698094 0.0596806 0.0433172 0.0541549 0.0535624 0.05275 0.0475364 0.0409809 0.0379873 0.0540112 0.0377572 0.0481741 0.0469956 0.0421999 0.0378989 0.0374293 0.0372217 0.0548656 0.0523632 0.0380348 0.037176 0.0636898
threshold=0.074392372317169497 0.0032001979594918884 0.011865499895065952 0.027578805187787433 0.048969499766826609 0.009585598015661995 0.021170194021442625 -0.050917733299928755 -0.012601196872179284 0.029626499861478754 -0.0039884999860077498 -0.057647923759023036 0.070844524415403523 0.014683499932289052 -0.019067499786615295 0.004519001510638279 -0.040802000090479844 -0.061501499265432295 -0.084850881446116827 0.076691001653671209 -0.0020830000285058992 0.036925622157362677 0.076807498931884724 -0.14853750169277188 -0.043686499819159445 -0.10266519594909472 -0.092245496809482533 0.0073616020003766961 -0.020471268281737894 0.027651616297973521
decision_type=2 2 2 2 2 2 2 2 2 2 2 2 2 2 2 2 2 2 2 2 2 2 2 2 2 2 2 2 2 2
left_child=1 24 3 7 16 -5 -7 8 -3 -9 18 12 -12 -13 -15 -6 17 -4 20 21 -2 22 -20 -18 25 -1 27 -27 29 -26
right_child=10 2 4 5 15 6 -8 9 -10 -11 11 13 -14 14 -16 -17 23 -19 19 -21 -22 -23 -24 -25 28 26 -28 -29 -30 -31
leaf_value=0.12988510998775959 0.12996783141088317 -0.12174475124344554 0.099803346213399771 0.10479969065602061 -0.13052715218313329 -0.11167223701473893 0.1104352908644151 0.040062602786397117 -0.010312352839100199 -0.10955042322390506 -0.12467899862308129 0.077820778759978379 0.11638312694441237 0.09296987886304782 -0.12184406165899977 0.10202097759320522 0.14350648495882734 -0.083740721740864568 0.00045877610201556867 -0.087055952443902115 -0.05381154581399919 -0.10307289469022586 0.11400743405727688 -0.10418348313781552 -0.069747746288146534 -0.13600348025734341 0.049948764927234039 0.029969018850597381 2.4760124845925956e-05 0.040955231958947978
leaf_weight=0.47263834342811639 0.36376145171175267 0.8251888568638609 0.24551879821774492 0.69472609133663332 0.088925743525578471 0.25567219243384898 0.1451492813648656 1.4588444692880949 1.3080116657079086 0.28719916330828699 0.29337333793864706 2.3206937536438086 0.11565965146292001 0.14886469996417873 0.24579773407822347 0.29265870982274578 0.0567853433749409 0.34997682837729449 1.3311683581209766 0.69700164746973303 0.19097495175083201 0.27896608325318073 0.33016343363169642 1.6609988207592317 1.640703902007089 0.29447751717816584 1.1258815522380687 0.21498811970013776 1420.863280939381 0.65423633495447564
leaf_count=117 92 379 74 210 47 74 37 422 427 100 88 574 25 36 73 98 12 236 441 194 44 69 90 756 456 66 343 52 6485 156
internal_value=0 -0.000102293 -0.0232262 -0.00536376 -0.0562007 0.0550275 -0.0312405 -0.022419 -0.0534179 0.0154534 0.0201369 0.045248 -0.0565154 0.0605774 -0.0408173 0.0478272 -0.0733605 -0.00806675 -0.00444217 -0.0194063 0.0666995 0.0048951 0.0230248 -0.0959955 2.21417e-05 0.0398571 0.0138377 -0.0659652 -3.68619e-05 -0.0381888
internal_weight=0 1432.94 7.66966 4.97479 2.69486 1.09555 0.400821 3.87924 2.1332 1.74604 6.31643 3.12439 0.409033 2.71536 0.394662 0.381584 2.31328 0.595496 3.19204 2.6373 0.554736 1.9403 1.66133 1.71778 1425.27 2.10799 1.63535 0.509466 1423.16 2.29494
internal_count=12273 10547 2872 1649 1223 321 111 1328 806 522 1726 796 113 683 109 145 1078 310 930 794 136 600 531 768 7675 578 461 118 7097 612
is_linear=0
shrinkage=0.3


Tree=430
num_leaves=31
num_cat=0
split_feature=49 197 173 263 137 192 82 162 259 167 294 230 149 52 40 271 172 158 32 70 165 130 288 270 196 283 107 27 182 35
split_gain=0.0215113 0.036119 0.0697276 0.0596893 0.0588366 0.0551502 0.0539323 0.0527362 0.0446759 0.0413499 0.0407044 0.0367931 0.0434812 0.0357917 0.0444249 0.0434026 0.0371317 0.0349228 0.0349226 0.0347833 0.034769 0.0343759 0.0329976 0.0320936 0.0327794 0.029988 0.0295263 0.0288393 0.0288153 0.0281444
threshold=0.062368500977754558 1.0000000180025095e-35 -0.012200499884784149 -0.031310659445706386 0.0073995001148432007 0.032234587226949156 0.061181999742984751 0.054753499105572659 -0.01002707652072639 0.055968498811125707 -0.062612500041723182 0.022351000458002052 0.026699500158429104 -0.015151500236242949 0.088906512797822898 0.049199024165078875 -0.035167348055477492 -0.095303347226325372 -0.0018070000223814997 0.029680499807000101 -0.026491028964067954 -0.071697499603033038 0.037620000541210154 -0.054456727802732745 0.0012211105502601964 0.024284999817609704 -0.11681200191378589 0.062228498980402905 0.070135999470949159 -0.042983689504590958
decision_type=2 2 2 2 2 2 2 2 2 2 2 2 2 2 2 2 2 2 2 2 2 2 2 2 2 2 2 2 2 2
left_child=1 -1 5 9 7 6 10 -5 -6 18 -3 12 -7 15 16 20 27 -18 -4 -13 26 -19 -11 24 -17 -8 -2 -15 -22 -25
right_child=13 2 3 4 8 11 25 -9 -10 22 -12 19 -14 14 -16 23 17 21 -20 -21 28 -23 -24 29 -26 -27 -28 -29 -30 -31
leaf_value=-3.9503967637251587e-05 0.19226542196693314 -0.035119678416896852 0.056229059569640097 0.13055940799674143 0.068424918668539267 0.037900587911474132 0.042701687052281251 0.029138959329863802 -0.12427350379901607 -0.14873723822670126 0.04833896511607827 -0.1492018515912753 -0.12922617111727167 -0.18981637901480322 -0.090264806768771341 -0.20035371928745327 -0.10109573386361421 -0.17104858800715383 -0.10324798929568166 0.06385681476693468 0.0762224030713127 0.053997931999692793 0.07291047788391597 -0.031321027020835959 0.12087991173232356 -0.11910130110937757 -0.11969741606371573 0.044737005449523824 -0.20041387719730677 -0.1666696589516149
leaf_weight=1314.8059779084533 0.030709889135323465 0.6774570515328836 0.73384634498006562 1.4075123214118992 0.22557376924305572 0.46502003599471187 0.14178294364410238 0.6864687208194481 0.20824958165212581 0.24999598521480948 2.3516924778331263 0.46435563464820007 0.20051769837505162 0.12755022801980054 0.40311908068872515 0.04024542860861402 0.16075726192775697 0.063524988518111836 0.14860715685426862 0.08099096542900952 0.38340875080280079 1.5920159703736061 0.079729136345122242 0.18965591774895074 0.098709861270435795 0.37775665259300695 0.24629100355832634 0.074872448742098641 0.037173731268921983 0.51032134163892806
leaf_count=6036 9 381 258 533 105 218 95 323 111 109 1099 157 108 120 230 34 99 32 65 22 262 872 36 122 52 217 136 46 25 361
internal_value=0 8.65123e-05 0.0195801 0.0502332 0.0764782 -0.00450652 0.0143572 0.0973108 -0.0240767 -0.00449647 0.0296738 -0.0597898 -0.0124525 -0.0220621 0.000660167 -0.0578766 0.018817 0.0323999 0.0293728 -0.11756 -0.00258283 0.0453626 -0.0951417 -0.103854 0.0278415 -0.0749451 -0.0851114 -0.103059 0.0517715 -0.129998
internal_weight=0 1323.31 8.49956 3.73998 2.5278 4.75957 3.54869 2.09398 0.433823 1.21218 3.02915 1.21088 0.665538 3.95836 2.42184 1.53652 2.01872 1.8163 0.882454 0.545347 0.697583 1.65554 0.329725 0.838933 0.138955 0.51954 0.277001 0.202423 0.420582 0.699977
internal_count=12273 9873 3837 1540 1072 2297 1792 856 216 468 1480 505 326 2400 1399 1001 1169 1003 323 179 432 904 145 569 86 312 145 166 287 483
is_linear=0
shrinkage=0.3


Tree=431
num_leaves=31
num_cat=0
split_feature=263 283 196 136 138 165 43 260 142 228 110 46 271 254 166 221 87 35 288 269 158 293 2 141 240 160 236 53 254 93
split_gain=0.0269415 0.0494228 0.0407402 0.0562489 0.0513393 0.0402427 0.0334625 0.0286031 0.0259741 0.0251622 0.0675383 0.0645989 0.0590731 0.0643336 0.0574912 0.0548166 0.0454539 0.0389627 0.0336775 0.0320608 0.0659912 0.0618936 0.0593059 0.0572123 0.0540979 0.0523729 0.0472521 0.0704476 0.0628348 0.058429
threshold=-0.082680238182002749 0.099772261908992743 0.028912499547004655 -0.022093446069073062 0.056183082606035009 -0.042994499206542892 -0.014467500150203648 0.045138524907599363 -0.018961999565362847 -0.079427499324083231 0.090610999614000307 0.016899500042200054 0.064310562803021526 -0.03518499992787829 -0.033248782607277726 0.0055430000647902012 -0.071827501058578436 0.0045245001092553009 -0.068891502916812827 0.12657999992370603 -0.075222600172460477 -0.027250392774759959 -0.0084265860137722678 -0.020421500317752295 0.14857250452041623 -0.031185499392449797 -1.0000000180025095e-35 -1.0000000180025095e-35 0.03596703685073372 0.0081791766443385094
decision_type=2 2 2 2 2 2 2 2 2 2 2 2 2 2 2 2 2 2 2 2 2 2 2 2 2 2 2 2 2 2
left_child=1 2 3 4 5 -1 -5 -4 -8 10 11 14 13 -13 16 -12 -2 -14 -16 26 21 25 23 -22 -24 -21 28 29 -11 -28
right_child=9 -3 7 6 -6 -7 8 -9 -10 19 15 12 17 -15 18 -17 -18 -19 -20 20 22 -23 24 -25 -26 -27 27 -29 -30 -31
leaf_value=0.11077412880349176 0.14822825413461804 -0.1273775036084499 -0.0039317639312432453 -0.033563233605328646 0.13234094033326524 -0.097605827615229165 0.025568165651841755 0.1579517110457174 0.17577294481837816 -0.026628557392270064 0.13785845280466252 0.0097102402559422658 -0.16024115634689948 -0.092184708087222705 -0.16255264224019411 -0.082111166729089566 -0.14605835544190776 -0.027318066334565596 0.075562138368693452 -0.17046111607803327 -0.13102450421238185 0.096038337440629507 0.060170974788040218 -0.008094131938016726 -0.154493859997307 0.061390923147539835 0.10137866895990631 -9.6577368434899685e-06 0.061709658779465902 0.0057332040476951373
leaf_weight=0.097827787045389414 0.05860231863334775 0.158453404517786 0.13041563164733805 0.1542297236937884 0.14115453034173697 0.56595079600811005 0.15297208837000653 0.39804892194661079 0.32111882261256075 9.768112684773083 0.39001071333768766 1.4376227101765837 0.64226579863679933 0.91108610285846259 0.056866694951168029 0.1380498944199644 0.24353635872830637 0.28722372368793003 0.89171345249246659 0.16019769920967519 0.40562740495079186 1.4866506327816749 1.5323927554854879 2.1297459211054961 0.11348219373030577 0.19371918053366233 1.1256266108321136 1346.5238097801225 0.78274919053365088 1.1747583657488574
leaf_count=17 9 46 38 36 27 117 31 75 42 2803 55 304 162 278 17 26 84 75 236 19 85 241 275 373 25 40 253 5964 196 324
internal_value=0 0.0337861 0.0468037 0.0205518 -0.0319564 -0.0668948 0.0878194 0.118002 0.127307 -5.79542e-05 -0.0211806 -0.033019 -0.0551499 -0.0298158 0.0249872 0.0803522 -0.088979 -0.119166 0.0612873 2.02769e-05 0.0218619 0.0691964 0.00102546 -0.0277614 0.0453699 -0.0435551 -7.6478e-05 7.9955e-05 -0.0200749 0.0525345
internal_weight=0 2.12017 1.96172 1.43325 0.804933 0.663779 0.628321 0.528465 0.474091 1370.45 5.05698 4.52892 3.2782 2.34871 1.25072 0.528061 0.302139 0.92949 0.94858 1365.4 6.02182 1.84057 4.18125 2.53537 1.64587 0.353917 1359.38 1348.82 10.5509 2.30038
internal_count=12273 429 383 270 161 134 109 113 73 11844 1246 1165 819 582 346 81 93 237 253 10598 1058 300 758 458 300 59 9540 6541 2999 577
is_linear=0
shrinkage=0.3


Tree=432
num_leaves=31
num_cat=0
split_feature=184 23 107 220 274 35 102 282 268 266 136 154 132 128 203 219 176 102 243 12 116 139 29 171 229 232 24 157 114 137
split_gain=0.0267324 0.0523017 0.0554427 0.0681773 0.0405234 0.0508104 0.0424583 0.042767 0.0445901 0.043495 0.0404264 0.0417239 0.0397225 0.0514208 0.0503734 0.0394195 0.0385956 0.0381571 0.0528102 0.0515716 0.0371202 0.036946 0.0366411 0.0363946 0.0362626 0.0429358 0.0352192 0.0340955 0.0375794 0.0335778
threshold=-0.073542997241020133 0.0077019324236207373 -0.059015063343807642 -0.017623170215100722 0.025012967504201813 0.014154000207781752 -0.13053699582815168 -0.011520999949425398 -0.031893000006675692 -0.00093620403986622604 -0.099211998283862984 0.0037333463381299349 -0.059075819674843801 0.040316085218139834 0.024643499404191953 0.024122999981045654 -0.059637000784277895 -0.12064299757003406 -0.06766049936413758 -0.013972500339150399 0.06097549945116041 -0.017241463553502406 0.00058574286312657259 -0.029049353087588829 -0.020241000689566097 0.03714299947023391 0.013801186684579194 0.062966000288724858 -0.0037920000031589998 -0.19442749768495551
decision_type=2 2 2 2 2 2 2 2 2 2 2 2 2 2 2 2 2 2 2 2 2 2 2 2 2 2 2 2 2 2
left_child=1 2 27 -4 6 12 7 9 -9 -2 -5 -12 23 -14 -15 -11 21 18 -8 -20 22 24 -7 -6 25 -3 -24 28 -1 -19
right_child=4 16 3 10 5 20 17 8 -10 15 11 -13 13 14 -16 -17 -18 29 19 -21 -22 -23 26 -25 -26 -27 -28 -29 -30 -31
leaf_value=0.10366683642686199 0.1415557404795019 0.10026430615900432 0.076304496917680653 0.12766147359972346 -0.092757541498322202 -0.16055001282965431 -0.17120252089950797 -0.1044181861912918 0.079694034144283277 -0.16831601591972808 -0.13032114067773523 -0.026415682239662223 -0.13249509423777875 -0.099286181617537647 0.01695925113397212 0.12005635415510095 0.024964168279674924 0.16789248852809924 -0.077053741525694455 0.12781609314791359 0.11145970414249694 0.16360863690572811 0.046192685821284434 0.090874157962124599 0.1128773647801192 -0.19311134730053781 -0.083932813259024311 0.16937090261051971 -0.08484905248840699 -2.8703279065961453e-05
leaf_weight=0.20990538819569338 0.56496396030979668 0.081303019833285362 0.39595407365959578 0.093049797404091694 0.14787966135315855 0.12723914706657502 0.27840599876071792 0.24142653801754932 0.23230972943497252 0.089667000342160463 0.67244833833740203 0.72047441374797927 0.79474557578043858 0.61948319983775924 0.73186147311753302 0.081384113291278481 1.6420890286689198 0.10718079646176093 0.3273402009763231 0.16700430167770619 0.29059968979299799 0.44530718790065327 0.69040516724828649 0.28308665106214981 0.26073760011422564 0.10026333620771766 0.25683382799240917 0.20645661039816332 0.17410822950114413 1427.0941447030407
leaf_count=58 86 20 131 17 92 54 44 82 47 28 192 261 342 254 208 14 637 19 88 27 86 107 241 85 77 30 164 62 61 8659
internal_value=0 0.0218811 -0.00914863 -0.0343128 -8.83668e-05 -0.030463 -4.58418e-06 0.056174 -0.0141336 0.101428 -0.063788 -0.0765772 -0.0552514 -0.0719421 -0.03633 -0.0311118 0.052208 -5.21776e-05 -0.0666978 -0.00784261 0.0163337 0.102609 -0.00939374 0.0278637 0.0411961 -0.0617416 0.0109105 0.0710536 0.0181955 -1.60926e-05
internal_weight=0 5.0021 2.4724 1.88193 1433.13 3.94213 1429.18 1.20975 0.473736 0.736015 1.48597 1.39292 2.57706 2.14609 1.35134 0.171051 2.5297 1427.97 0.772751 0.494345 1.36508 0.887611 1.07448 0.430966 0.442304 0.181566 0.947239 0.59047 0.384014 1427.2
internal_count=12273 1653 782 601 10620 1526 9094 257 129 128 470 453 981 804 462 42 871 8837 159 115 545 234 459 177 127 50 405 181 119 8678
is_linear=0
shrinkage=0.3


Tree=433
num_leaves=31
num_cat=0
split_feature=85 34 226 119 143 44 137 69 234 96 53 283 62 184 225 161 144 48 77 299 9 224 98 67 201 32 133 37 275 131
split_gain=0.0203722 0.0398182 0.0383113 0.0364373 0.0357559 0.0345773 0.0356793 0.0324626 0.0306923 0.0415345 0.0427381 0.0453528 0.0367524 0.0351112 0.0319735 0.0301767 0.0296623 0.0290526 0.0327666 0.0283757 0.0262747 0.0302747 0.0250623 0.0228037 0.0219097 0.0189613 0.0158065 0.01536 0.0129574 0.012214
threshold=0.027502847610490409 0.012853499967604851 0.031783500686287859 -0.084379836493609722 -0.030077999457716897 -0.044739000499248491 0.0085421331489822401 -0.10461537478473359 -0.0039474999066441991 0.075158998370170552 0.075969997793436009 0.02245825835053893 0.0025230000028386504 -0.026701520928370592 -0.044931183920856869 -0.037860000506043344 -0.085534498095512335 -0.082209497690200792 -0.048969499766826595 0.080956500023603425 -0.047188999131321845 0.010279744496446438 0.0011959999683313002 0.047559187174814437 -0.031534999608993496 -0.048846499994397087 -0.049677500501275042 0.028163355596964239 -0.030659000389277848 -0.031401485297687388
decision_type=2 2 2 2 2 2 2 2 2 2 2 2 2 2 2 2 2 2 2 2 2 2 2 2 2 2 2 2 2 2
left_child=7 2 3 4 -2 6 15 -1 9 10 11 -9 -12 28 -15 26 24 27 -19 23 22 25 -7 -18 -4 -22 -3 -5 -11 -6
right_child=1 5 16 17 29 20 -8 8 -10 13 12 -13 -14 14 -16 -17 19 18 -20 -21 21 -23 -24 -25 -26 -27 -28 -29 -30 -31
leaf_value=-0.18294292624068423 0.082348680933987256 -0.067030870550094337 -0.10084862966315589 0.16776220975384037 0.13642411825527315 -0.110593606676423 -0.15878965741872234 0.08028237491108782 -2.7346995698303446e-05 -0.029270025023773634 -0.064303397973125856 0.020672797029203237 0.014525670330323075 -0.10899116392343934 0.086767507792891801 -0.18556067607693771 -0.14903522286945597 -0.12992166422725598 0.046752957309248867 0.1226836441667869 -0.077527626918556344 0.10097924345202801 0.13049659068502137 0.0085131806823931181 0.15563080624177952 -0.17863576807213957 0.14054225907967094 -0.0081093357549703576 -0.19192823713188892 -0.18197207254278897
leaf_weight=0.087215912270038554 0.084792079121143615 0.039713347706992863 0.045434218700393103 0.23554016117935839 0.011699834722094238 0.0744466784716451 0.08293336571114196 1.6145705341233982 1314.463242082915 0.059080646891743527 0.75954198362137537 3.9813070799062871 1.7791702318750138 0.13027938745653955 0.17726497790135987 0.037097933720360743 0.3629888928044237 0.10785476494379531 0.76168795618934726 0.050889449699752731 0.28313822074255768 0.05165315464773812 0.081060770052772568 0.10707358034835579 0.088105023869047727 0.40672763457081351 0.19580859149141361 0.055159789619210642 0.17355716410537525 0.14812241452636987
leaf_count=51 69 36 33 99 6 48 65 785 5979 46 366 1911 684 48 87 64 289 71 415 34 185 37 41 77 39 349 117 32 76 134
internal_value=0 -0.0234803 0.002174 0.030103 -0.0751202 -0.065658 0.0135127 7.79674e-05 9.00314e-05 0.017876 0.0232254 0.0378719 -0.00905872 -0.0626794 0.00384185 0.0659286 -0.0577753 0.0522873 0.0248389 -0.0901106 -0.0970388 -0.120552 0.0150786 -0.113148 0.0683685 -0.137138 0.105542 0.134391 -0.15062 -0.158664
internal_weight=0 3.31193 2.05935 1.40486 0.244614 1.25258 0.355553 1323.23 1323.14 8.67477 8.13459 5.59588 2.53871 0.540182 0.307544 0.27262 0.654491 1.16024 0.869543 0.520952 0.897026 0.741519 0.155507 0.470062 0.133539 0.689866 0.235522 0.2907 0.232638 0.159822
internal_count=12273 2240 1298 826 209 942 282 10033 9982 4003 3746 2696 1050 257 135 217 472 617 486 400 660 571 89 366 72 534 153 131 122 140
is_linear=0
shrinkage=0.3


Tree=434
num_leaves=31
num_cat=0
split_feature=31 231 216 267 142 233 178 299 262 59 205 109 203 236 128 279 220 216 166 179 188 22 3 170 186 189 251 115 18 288
split_gain=0.0250085 0.0604858 0.0399566 0.0378623 0.0415213 0.0359057 0.0582947 0.0333117 0.0314183 0.0290892 0.0323112 0.0282757 0.0477847 0.0507053 0.0441213 0.0617611 0.0562059 0.0547246 0.0491129 0.0486874 0.0421062 0.0522936 0.0389941 0.0401784 0.0433946 0.0454204 0.0424036 0.0387244 0.0498884 0.0509726
threshold=-0.10071050003170963 -0.06520755865700989 -0.077829338293849956 0.0011641968510286433 -0.010205500293523047 0.0096280002035200023 0.012549499981105302 0.052435001358389806 -0.073242500424384988 0.067695498466491658 -0.056515604630451875 0.081764500588178621 0.082158793211941014 -0.10105117267550111 0.090393502265214906 -0.018224572916541667 0.037114500999450656 -0.052893498912453589 -1.0000000180025095e-35 0.022178499959409202 0.029643999412655754 0.017967258623643022 0.039424349761907521 -0.0045721477002472694 0.026976999826729253 -0.034679498523473691 -0.042105749054246862 -0.082637500017881338 -0.081869497895240742 -0.061727417364404562
decision_type=2 2 2 2 2 2 2 2 2 2 2 2 2 2 2 2 2 2 2 2 2 2 2 2 2 2 2 2 2 2
left_child=1 8 3 4 -3 9 -7 -5 -1 10 -4 22 14 -14 15 18 19 -17 -13 -16 21 -15 27 26 25 -25 -24 -2 29 -29
right_child=11 2 5 7 -6 6 -8 -9 -10 -11 -12 12 13 20 16 17 -18 -19 -20 -21 -22 -23 23 24 -26 -27 -28 28 -30 -31
leaf_value=0.051671284377458118 0.05100960626376539 -0.089043653363175532 -0.011907116833621157 -0.14882959471226134 0.16343525169330347 -0.094441320371440152 0.16280966691311136 0.081266029261690118 -0.1791425435433083 -0.022256827093716295 0.15124016768210916 -0.001602521434763377 0.12735277683070023 0.10683934612757086 -0.095027260446353026 -0.091392715172119193 -0.15921244096599066 -0.0082704857464096643 0.096362339410130296 0.017134195585368765 -0.11296900159920634 -0.07124982940840624 -0.055834474392467602 -0.10235192818534264 0.10893093752106484 0.027599240549375348 0.10960219882552383 0.18857198486327817 -2.6835004675939777e-05 -0.11780377790365261
leaf_weight=0.077113047940656543 1.3373944696995739 0.094068370606692042 0.12816947896499176 0.22184924095927272 0.15557445184822438 0.22729380834789492 0.12174180646252353 0.076034671859815717 0.17027737176977131 0.13556850899476558 0.74028163192269714 2.1196713834888219 0.38790891589451348 0.37888692061028428 0.67136121884095679 1.2290299591604705 0.44566642002610013 1.6972367557327732 0.5884275678045009 0.72387519570474979 0.23060659694601782 0.24393114204576705 0.16616926467395388 0.40981891698902462 0.27511067509567499 0.59136137707537173 0.86679687848300113 0.05398532809340395 1356.0921010351879 0.51610798138244618
leaf_count=17 350 34 27 62 40 55 30 15 52 26 137 454 53 89 183 330 103 510 155 132 59 65 50 98 66 160 196 10 8542 173
internal_value=0 0.0323392 0.050502 -0.0178777 0.0682982 0.0781725 -0.00471351 -0.0900978 -0.107197 0.106987 0.127162 -5.67397e-05 -0.0170888 0.0374193 -0.0261404 -0.0129661 -0.0664621 -0.0431818 0.0196837 -0.0368358 -0.00345832 0.0370894 5.23985e-05 0.0390032 0.00340317 -0.0255944 0.082989 -1.38366e-05 -6.41354e-05 -0.0887913
internal_weight=0 2.14797 1.90058 0.547527 0.249643 1.35306 0.349036 0.297884 0.24739 1.00402 0.868451 1369.03 8.7166 1.24133 7.47527 5.63437 1.8409 2.92627 2.7081 1.39524 0.853425 0.622818 1360.31 2.30926 1.27629 1.00118 1.03297 1358 1356.66 0.570093
internal_count=12273 495 426 151 74 275 85 77 69 190 164 11778 2133 266 1867 1449 418 840 609 315 213 154 9645 570 324 258 246 9075 8725 183
is_linear=0
shrinkage=0.3


Tree=435
num_leaves=31
num_cat=0
split_feature=63 226 242 59 219 13 119 266 237 69 79 102 208 81 174 147 245 45 151 195 294 265 86 25 223 69 183 3 140 13
split_gain=0.0250112 0.0484314 0.0390875 0.0561432 0.0369246 0.0353465 0.0388873 0.0394655 0.0341336 0.0415293 0.0436925 0.0388498 0.0447248 0.0469717 0.0470459 0.0445256 0.0405208 0.0355432 0.0368554 0.0332089 0.0302414 0.0365906 0.0498993 0.040154 0.0274697 0.0265006 0.0260838 0.02431 0.0222644 0.0202876
threshold=0.026823915396719491 -0.060054998844861894 -0.045859999954700394 -0.00041925102790118699 -0.023155700490536769 0.057448021621559313 -0.12196955060037484 -0.085890501737594535 0.026494286770906528 -0.050924330774486923 0.066909499466419206 0.036706174981203467 0.005752463558522449 -0.027814652718778896 0.10538050159811972 -0.056014662444262599 -0.059669999405741643 -0.086079026186191843 -0.041281500831246341 0.035206634107429309 -0.12234000116586678 -1.0000000180025095e-35 -0.046819500625133494 -0.14636649936437598 -1.0000000180025095e-35 -0.047752000391483244 -0.037458404976917457 -0.053791690499140753 -0.041996998712420443 0.009797787328607194
decision_type=2 2 2 2 2 2 2 2 2 2 2 2 2 2 2 2 2 2 2 2 2 2 2 2 2 2 2 2 2 2
left_child=8 27 3 4 -3 6 28 -8 9 10 17 12 13 -10 -15 29 -17 19 -19 -1 26 22 -22 -23 25 -13 -11 -2 -4 -14
right_child=1 2 5 -5 -6 -7 7 -9 11 20 -12 24 15 14 -16 16 -18 18 -20 -21 21 23 -24 -25 -26 -27 -28 -29 -30 -31
leaf_value=-0.19270730959307109 0.022385310275689803 -0.14197644550526647 0.012631530308553783 0.14474622981785532 0.080831898122671497 -0.10153274511410663 -0.12970723120417524 0.023237596687687479 -0.14096480396068167 -0.025866023669304277 -0.15155181952937416 0.18685850676804572 -0.043481126963595976 0.0022118819520611887 -0.12920021247135813 0.037278198846738442 -0.13573752363422201 0.11513082000219918 0.027218716320162355 0.055075856779116771 0.049545735369446522 0.070427472583824494 -0.034473543156705949 -1.3989581186036078e-05 0.18033742633211264 -0.13138228473891919 0.12321500049278 -0.19255662283271507 0.1903890962015968 0.19151030935227051
leaf_weight=0.097261700193485123 0.07322872408258263 0.12467570134322159 0.095954423370130826 0.5521144394897427 0.14455881247704383 0.21453307084084361 0.1637492506638426 2.0880838410089351 0.25108219582898472 0.15608572927885689 0.098942211734538321 0.035707279854250373 0.064102786074727192 3.5119607701237783 0.26358708022871713 0.14469081421157171 0.77103643499867736 0.77549502359806866 0.96108404647452428 0.097459916727530072 0.72781730578014947 0.7286816797954988 5.0526852382428151 1418.9751147853926 0.13901825030916359 0.069166610945103457 0.32672634447726423 0.13404218777600396 0.18700944111333351 0.068289681803435087
leaf_count=51 29 58 30 215 56 99 78 868 192 49 46 13 31 1083 87 56 290 161 287 48 296 145 1680 6037 29 51 95 54 48 11
internal_value=0 0.024364 0.0325477 0.0899745 -0.022345 0.0153918 0.0252877 0.0121157 -7.76956e-05 1.16509e-05 0.0428878 -0.0240663 -0.0296872 -0.0153183 -0.00696256 -0.084889 -0.1084 0.0528491 0.0664772 -0.0686896 -4.93946e-05 -7.48205e-05 -0.0238948 2.21654e-05 0.09289 -0.0230282 0.0750194 -0.116618 0.130111 0.0777304
internal_weight=0 3.77795 3.57068 0.821349 0.269235 2.74933 2.5348 2.25183 1433.32 1428 2.03024 5.31864 5.07475 4.02663 3.77555 1.04812 0.915727 1.9313 1.73658 0.194722 1425.97 1425.48 5.7805 1419.7 0.243892 0.104874 0.482812 0.207271 0.282964 0.132392
internal_count=12273 1535 1452 329 114 1123 1024 946 10738 8895 593 1843 1750 1362 1170 388 346 547 448 99 8302 8158 1976 6182 93 64 144 83 78 42
is_linear=0
shrinkage=0.3


Tree=436
num_leaves=31
num_cat=0
split_feature=272 200 36 295 106 293 69 159 5 59 263 144 3 11 229 281 215 110 238 38 0 280 9 39 59 121 184 252 95 198
split_gain=0.0182366 0.049882 0.0479492 0.0412034 0.0401974 0.0434615 0.0353205 0.0326591 0.0322488 0.0294028 0.0288208 0.0288056 0.0292917 0.0369122 0.0463363 0.0439733 0.0403774 0.0346035 0.0281497 0.0253288 0.0234443 0.0231336 0.0237541 0.0185632 0.0183707 0.0181237 0.0167713 0.0155785 0.0120967 0.0113619
threshold=0.070490498095750767 -0.1004691757220736 0.034537499770522055 -0.093608997762203147 -0.0077829998917877492 -0.027798000723123498 -0.051793460802333192 0.027721550861722333 0.03641649653156543 -0.0059530001599341483 0.080879981629492018 -0.13904922280740145 -0.085425227940657184 -0.0010092545541050299 -0.023576249186284915 0.0013564157797717167 -0.023906500078737649 0.013777500018477402 -0.028459499590098799 -0.1085234992206096 -0.020768401516649125 -0.075941998511552741 -0.011084000114351447 -0.079899421294720149 -0.0049059631366473568 0.035898646567557223 -0.09231500327587118 -0.018400800669233761 0.070045273015119633 -0.020337999798357449
decision_type=2 2 2 2 2 2 2 2 2 2 2 2 2 2 2 2 2 2 2 2 2 2 2 2 2 2 2 2 2 2
left_child=11 2 3 -2 7 21 9 10 -8 -7 19 25 17 14 16 -16 -14 26 -9 -3 -19 22 -6 -5 -22 -1 -13 -23 -28 -25
right_child=1 4 -4 23 5 6 8 18 -10 -11 -12 12 13 -15 15 -17 -18 20 -20 -21 24 27 -24 29 -26 -27 28 -29 -30 -31
leaf_value=0.15157120739021876 0.10977593251863774 0.17407310426503461 0.17060702615261611 -0.0036113669268633209 0.12847918194429664 0.13589625985965423 0.048255938221886452 0.13423362885787876 -0.071599793164790371 -0.19226128498023923 0.12995034961091997 0.07012924968982219 -0.089254664482700419 -2.6067022004310459e-05 0.055625826831069619 -0.0089556650336829313 0.0082264054738624449 -0.10963475600776515 -0.12846852528861627 -0.12238232248488584 -0.097685152706316392 0.030578222764919956 -0.20034845309796376 -0.015438221832944427 0.12350045074270551 -0.063264734297150391 -0.17779882716374926 -0.18543310783589326 0.011848866589108159 -0.19122616420933689
leaf_weight=0.17628524328051653 0.059739248506957665 0.027104902896098793 0.053991288717952557 0.064271804905729368 0.06597816359862918 0.03165280962275574 1.9460151901718052 0.11975519207771868 0.22544693490397083 0.10987098085661351 0.048688628354284447 0.032996250860378495 0.50472557765192538 1314.1772771552319 3.5102424556591805 1.3004199755429224 1.5781554106375777 0.096707707725499858 0.052938508357328828 0.60254360062253942 0.044062654331355589 0.036216234650055412 0.02823206923858379 0.036125175889083039 0.14503148923495246 0.044202190285432152 0.25762360133171469 0.17642050239942397 0.034300369880384096 0.39404087514753872
leaf_count=93 37 7 19 37 40 18 1002 61 162 89 15 38 264 5878 1631 647 816 81 55 409 23 20 22 43 94 34 162 140 20 316
internal_value=0 -0.0200137 -0.0992678 -0.125561 -0.00612669 0.0122741 0.0263479 -0.0627722 0.0358122 -0.118866 -0.0924251 7.65064e-05 5.84185e-05 8.87846e-05 0.021984 0.0381681 -0.0153953 -0.0656274 0.0537034 -0.109621 0.0105131 -0.0938129 0.0299391 -0.153995 0.0719599 0.108502 -0.132601 -0.148642 -0.155516 -0.176464
internal_weight=0 4.07903 0.608168 0.554177 3.47086 2.61983 2.31299 0.851031 2.17146 0.141524 0.678337 1321.9 1321.68 1321.07 6.89354 4.81066 2.08288 0.610722 0.172694 0.629649 0.285802 0.306847 0.0942102 0.494438 0.189094 0.220487 0.32492 0.212637 0.291924 0.430166
internal_count=12273 2492 452 433 2040 1493 1271 547 1164 107 431 9781 9654 9236 3358 2278 1080 418 116 416 198 222 62 396 117 127 220 160 182 359
is_linear=0
shrinkage=0.3


Tree=437
num_leaves=31
num_cat=0
split_feature=266 278 223 263 103 64 113 8 208 52 89 229 68 288 161 133 245 47 206 7 132 116 141 10 272 199 234 49 28 190
split_gain=0.024473 0.0425388 0.0360735 0.0396536 0.05066 0.0393117 0.0324821 0.0452341 0.0430949 0.0395568 0.0374689 0.0370322 0.0349135 0.0340604 0.0295003 0.040843 0.0424812 0.0377012 0.0405021 0.0393897 0.0277963 0.0244281 0.0223843 0.0563276 0.0520677 0.0498616 0.0400959 0.0364501 0.0301032 0.0295934
threshold=-0.078653499484062125 -0.0031022180678259227 -0.069944001734256675 -0.055813498795032439 -0.0070704314876999432 -0.069189999252557685 0.027014999650418703 -0.0050125756315684703 -0.074854999780654838 0.032524693053480665 -0.035754999145865392 0.010326000396162252 -0.10635099932551378 -0.03736549988389009 0.005126500036567401 -0.075816500931978184 -0.070344031512789076 0.0022294999798759506 0.012055000290274552 -0.045809999067252763 0.0083610001020133027 -0.016442280332661232 0.065971497446298558 0.011893500108271801 -0.026816499419510299 0.00552427364956875 -0.024980000220239145 0.034581312033394603 0.021327088780444505 -0.052788499742746291
decision_type=2 2 2 2 2 2 2 2 2 2 2 2 2 2 2 2 2 2 2 2 2 2 2 2 2 2 2 2 2 2
left_child=1 2 -1 20 21 -6 8 -8 -3 12 -9 -12 -10 -11 22 -16 -17 18 -18 -19 -4 -5 29 26 -25 -26 27 -24 -28 -2
right_child=14 6 3 4 5 -7 7 10 9 13 11 -13 -14 -15 15 16 17 19 -20 -21 -22 -23 23 24 25 -27 28 -29 -30 -31
leaf_value=0.16045162383532707 -0.018574335498433944 -0.08449103195755199 0.16749985259530356 -0.041828615977034071 0.18001854965649206 -0.046061645425719513 0.10717917971221468 -0.11534059461521882 -0.0049644240313232559 -0.17565518010658454 0.075442957556952656 -0.12264418849040193 0.1310109826598955 0.054974406824749959 -0.14555961848380389 -0.16085549637793875 0.0086293954621317545 -0.021868310845808744 -0.1167671950023087 0.15907624772319259 -0.027877921674672557 -0.19202738115042153 0.11484734318271367 -0.14395963203463885 0.09101668700332885 -0.035150266056735449 -0.16226679213708567 -0.059954975453252651 0.077670394782891533 3.654473849480585e-05
leaf_weight=0.08834636496612791 7.7335194874231084 0.14628511443152126 0.12148092879215244 0.14703812857624143 0.091430803819093742 0.28496638081469483 0.27211285202065483 0.31008450163062662 0.20345243823248882 0.085028616129420698 0.31218057774822205 0.11668847326654941 1.0319806323459477 0.17886534729041148 0.2696132505807326 0.17138397073426848 0.67845604526792047 0.21043332694534911 0.35213936689547154 0.22303970744542301 0.14230698114261031 0.28899097627436265 0.19404653033416253 0.1119798944482685 1.4694903868185059 0.34883755801274663 0.27186024812181075 0.24032857432030141 0.056912834268587176 1353.8523302481829
leaf_count=25 2070 32 25 35 18 108 66 71 49 17 74 30 241 47 88 125 233 66 148 57 26 61 64 53 377 119 119 83 13 7733
internal_value=0 0.0239747 -0.0238332 -0.0389612 -0.0717743 0.00885559 0.0449315 0.00261127 0.0709331 0.0860973 -0.0358949 0.0215466 0.108618 -0.0193362 -6.72073e-05 -0.037373 -0.0195378 -0.00299519 -0.0342168 0.0712351 0.0620984 -0.141377 -1.51139e-05 0.0273066 0.054585 0.0668122 -0.0416913 0.0181337 -0.120732 -6.91611e-05
internal_weight=0 3.82124 1.16456 1.07621 0.812426 0.376397 2.65668 1.01107 1.64561 1.49933 0.738954 0.428869 1.23543 0.263894 1366.18 1.90507 1.63545 1.46407 1.0306 0.433473 0.263788 0.436029 1364.28 2.69346 1.93031 1.81833 0.763148 0.434375 0.328773 1361.59
internal_count=12273 925 298 273 222 126 627 241 386 354 175 104 290 64 11348 717 629 504 381 123 51 96 10631 828 549 496 279 147 132 9803
is_linear=0
shrinkage=0.3


Tree=438
num_leaves=31
num_cat=0
split_feature=211 124 279 131 259 127 146 261 299 242 255 272 8 12 53 288 242 30 263 286 112 161 147 243 89 209 162 291 228 55
split_gain=0.0257754 0.0529139 0.0484329 0.0483087 0.0585711 0.0389767 0.0368881 0.0354044 0.0338971 0.0409142 0.0572706 0.0496928 0.0544235 0.0407828 0.0507971 0.0612253 0.0420818 0.0389994 0.0385966 0.0363647 0.0357405 0.0321473 0.031667 0.0310694 0.0299652 0.0298372 0.0296522 0.0295478 0.0291998 0.0259975
threshold=0.017181499861180751 -0.027216484685466349 0.028973955166946331 0.045167459576235185 0.014649489800349597 -1.0000000180025095e-35 0.028396000154316401 0.052556999027729007 0.059489499777555403 -0.0084883008575845804 -0.023086500354111146 0.053855000063776907 -0.012771501673421757 -0.0073434999212621992 0.10514467493697573 -0.014579500071704348 0.037303000688552808 0.035949001088738407 -0.063106000423431341 0.028034692288474699 0.02816302624678305 -0.073378499597310978 -0.064998876377055273 -0.15884499996900553 -0.10888599976897238 0.042308999225497204 0.028869678285507048 0.042491586475213498 -0.012931453331682035 0.0056350341253939328
decision_type=2 2 2 2 2 2 2 2 2 2 2 2 2 2 2 2 2 2 2 2 2 2 2 2 2 2 2 2 2 2
left_child=8 2 5 4 -3 27 -4 -6 23 10 18 12 -12 14 16 -16 -11 -13 -10 -20 26 22 -5 -1 -25 -23 -15 -2 -9 -22
right_child=1 3 6 21 7 -7 -8 28 9 13 11 17 -14 20 15 -17 -18 -19 19 -21 29 25 -24 24 -26 -27 -28 -29 -30 -31
leaf_value=0.10709767433855515 0.13414056203191288 -0.15489782512268116 -0.12582498608184439 0.10517972759398844 0.12019411668224887 -0.050017466309117568 0.099751883155492507 0.039257733922378614 0.18950532773261974 -0.1202035020314503 -0.19700588870131244 -0.14491307181854599 0.040987825344979703 -0.038314554566550925 0.11959563522185254 -0.15669854093259658 -0.023581166904378146 0.078220660890745461 0.073905434550470994 -0.097450470727349026 0.024597834211858894 0.08723362924841073 -0.14192534785505845 0.11620238103094283 -2.2452914857714583e-05 -0.082712103232321574 0.12061294529600305 -0.025627026201750235 -0.17969394470767031 -0.17955081302025072
leaf_weight=0.24380332963096307 0.91769814813733297 0.35336865267436113 0.17774760536849488 0.067172932809626218 0.16340339050657349 0.14510894135310115 0.10308033498586155 0.11605623791911057 0.18615288024284382 1.2243657466106022 0.097956268265989022 0.41172916901996359 0.73789979160437691 0.16469232547024049 0.24229912733972014 0.1028096788249967 0.60670204528787497 0.085061240155482665 0.47605671208293676 0.14553668700318667 0.10723832018993562 0.66409745008149912 0.15295876798086283 0.19967441496510119 1427.5549077281876 0.10811487131286412 0.29475872736838937 0.11752310532028787 0.10389001228031702 0.1178242198911903
leaf_count=59 254 168 60 30 50 58 30 35 26 406 40 148 214 71 59 48 293 24 135 46 33 240 80 52 9335 30 118 57 27 47
internal_value=0 0.0269216 0.0689509 -0.00859569 -0.0667938 0.0955926 -0.043025 0.0144198 -7.42598e-05 -0.0247296 0.00664041 -0.0315646 0.0130967 -0.048201 -0.0682904 0.0372862 -0.0881889 -0.106708 0.0696723 0.033785 0.0156666 0.0346107 -0.0665215 1.20873e-05 -6.19863e-06 0.0634401 0.0636447 0.116003 -0.0641625 -0.0822776
internal_weight=0 3.19022 1.46116 1.72906 0.736718 1.18033 0.280828 0.38335 1433 5.00108 2.14039 1.33265 0.835856 2.86069 2.17618 0.345109 1.83107 0.49679 0.807746 0.621593 0.684514 0.992344 0.220132 1428 1427.75 0.772212 0.459451 1.03522 0.219946 0.225063
internal_count=12273 1119 459 660 280 369 90 112 11154 1708 633 426 254 1075 806 107 699 172 207 181 269 380 110 9446 9387 270 189 311 62 80
is_linear=0
shrinkage=0.3


Tree=439
num_leaves=31
num_cat=0
split_feature=77 81 59 78 63 87 148 260 148 98 262 9 244 131 49 104 38 150 297 163 137 69 13 297 66 234 265 170 214 201
split_gain=0.0203097 0.0333758 0.034209 0.0370518 0.0412313 0.0346517 0.0384101 0.0376844 0.0334663 0.0355269 0.0409015 0.03482 0.0327732 0.0297957 0.0295904 0.0294153 0.0217722 0.0212455 0.0448103 0.033367 0.0570376 0.0378397 0.0343086 0.0338322 0.0335273 0.031412 0.0324864 0.0303701 0.0557221 0.0427084
threshold=0.026579692173399155 0.023017626600249416 -0.00079539999092887326 -0.04963775603821103 -0.03679784409051786 -0.045288501307368188 0.066105604732630038 0.053736001253128003 0.14439946111705926 -0.016959999687969598 -0.14018250256776801 0.028017000295221754 -0.067100775448096589 0.060740176026666849 0.057052999734878505 -0.042273992627396471 -0.028879499994218297 -0.056187868312000781 -0.043490111005595848 -0.071577072546296638 -0.13082087626865649 -0.050257047137052438 -0.068809498101472785 0.05103829489400305 -0.085155501961707986 -0.056313329400102675 -0.03194100037217134 -0.0025042625910829315 -0.040919499471783589 -0.056017610772233502
decision_type=2 2 2 2 2 2 2 2 2 2 2 2 2 2 2 2 2 2 2 2 2 2 2 2 2 2 2 2 2 2
left_child=17 8 5 4 12 6 -3 16 9 10 -2 15 -4 -13 -12 -11 -7 18 -1 21 22 23 24 -19 -21 26 -23 28 -22 -29
right_child=1 2 3 -5 -6 7 -8 -9 -10 11 14 13 -14 -15 -16 -17 -18 19 -20 20 27 25 -24 -25 -26 -27 -28 29 -30 -31
leaf_value=0.08388918690053862 0.16536683307843808 -0.099453296581266837 -0.12922711318612468 -0.15577008810195417 -0.14232909221931722 -0.12930768732241207 0.15135956360360592 -0.13307617819560558 -0.18595580594618472 -0.013487966100863991 -0.11998021045169115 -0.16262531709348127 0.11973933264738648 0.12187407153811297 0.040423384904989972 0.09850330704665107 0.14423484259887034 -0.096498464231335471 -0.12573874390025785 0.16989037414923949 -0.080772447546241327 0.064818907417799207 -0.16502984425404579 0.15568119066078015 -0.10276685515841602 0.068790758595889193 -0.15394391160603224 -0.068380719357439779 0.04138257689520837 4.1428335481401723e-05
leaf_weight=0.12895514044839729 0.071622292511165142 0.077480432839365676 0.065931517279750551 0.44567877678423407 0.1725276345008524 0.036430180766501508 0.189000264457718 0.24249986358336173 0.080062213286509976 0.30426709140237995 0.38071041613761725 0.12024658705831826 0.17101847902631562 0.045730874182481784 0.14215401241381187 0.68920343433171594 0.093142412875749869 0.28720178836829324 0.31830563204402906 0.066409053299139487 0.37706788024553395 0.12000745243676647 0.30160079489823388 0.057458868639514549 0.10439392646949841 1.6260317733883753 0.12444871065144991 0.82154967759561159 3.0920496435525697 1314.6669005745273
leaf_count=67 19 47 39 361 165 17 71 102 40 112 216 78 66 17 117 331 58 182 257 26 290 64 194 29 59 793 58 523 1877 5998
internal_value=0 -0.0233915 -0.0566828 -0.0959142 -0.0307665 -0.00414369 0.0784346 -0.0632868 0.00372285 0.0123811 -0.0472465 0.0429542 0.0504642 -0.0842387 -0.0763704 0.0642041 0.0673266 7.49338e-05 -0.0652984 9.70569e-05 3.52936e-05 0.0368857 -0.104189 -0.0544572 0.00324364 0.0537168 -0.0465497 7.2623e-05 0.0281052 -1.30271e-06
internal_weight=0 3.32771 1.49371 0.855156 0.409478 0.638553 0.266481 0.372072 1.834 1.75393 0.594487 1.15945 0.23695 0.165977 0.522864 0.993471 0.129573 1322.09 0.447261 1321.65 1319.43 2.21515 0.472404 0.344661 0.170803 1.87049 0.244456 1318.96 3.46912 1315.49
internal_count=12273 1856 926 631 270 295 118 177 930 890 352 538 105 95 333 443 75 10417 324 10093 8967 1126 279 211 85 915 122 8688 2167 6521
is_linear=0
shrinkage=0.3


Tree=440
num_leaves=31
num_cat=0
split_feature=95 148 12 123 247 132 72 201 235 164 89 145 242 104 278 38 174 275 292 145 31 116 82 60 224 156 125 256 151 213
split_gain=0.0217934 0.032914 0.0418342 0.0373207 0.0315433 0.0306623 0.0276996 0.0271048 0.0306818 0.0267143 0.0264841 0.0227716 0.0437228 0.0451375 0.0435144 0.0490968 0.0432487 0.0399431 0.0570674 0.0375334 0.0374717 0.0444459 0.0360195 0.0348085 0.0531869 0.04769 0.0358538 0.0390449 0.0310806 0.0308789
threshold=0.071255138961953388 0.10063623687863349 0.045173000544309609 -0.043502498418092644 -0.088560000061988733 -0.016252569956191693 -0.062221363733786311 -0.023989999666809945 0.01006045592071487 0.020867970472688482 -0.035754999145865392 0.038103500381112057 0.072664014924784678 0.015785045300150274 0.035973999649286208 0.029853000305593003 0.022984864164226813 0.035918999463319758 -0.065116498619317995 -0.035224499180912937 -0.084775999188423143 0.052461998537182759 -0.067412998527288381 -0.028909570696475345 0.0071389998774975009 0.078612502664327608 -0.12919549643993372 -0.0003975494996729427 -0.021879692847945189 -0.012524416186856079
decision_type=2 2 2 2 2 2 2 2 2 2 2 2 2 2 2 2 2 2 2 2 2 2 2 2 2 2 2 2 2 2
left_child=11 2 4 6 -2 -5 -3 8 -6 -4 -9 14 13 20 23 17 -17 18 -16 -18 -13 -22 -15 24 25 -1 -25 -28 -19 -24
right_child=1 3 9 5 7 -7 -8 10 -10 -11 -12 12 -14 22 15 16 19 28 -20 -21 21 -23 29 26 -26 -27 27 -29 -30 -31
leaf_value=-0.0067090309318548107 -0.12870667755868134 -0.00017807836419208721 -0.13251359187998199 0.11442603492925207 0.069561106413553161 -0.1310677899501467 0.1657704723741292 -0.027313248291718793 -0.0960996952997204 0.046237199073308297 0.13215789917368687 0.081196164426308726 0.080547816824537904 0.12934372770831021 -0.044540295492734812 0.040107273033879107 0.032229624901156988 0.15102151893213578 0.042995706803929258 -0.12721356046075802 -0.0025853873468063746 -0.089310838272155912 -0.021529705487405688 -0.1652244151553266 0.068361519090028106 -0.068620241880866281 0.030447933571294897 -6.2629103502012163e-05 0.021388271551423126 -0.11785091611712455
leaf_weight=2.4231177840481442 0.095937506092013791 0.11834708723472431 0.26698356762790343 0.078031157961049757 0.21857543198711937 0.1108197647408814 0.38506953080650419 0.1210798269166844 0.18645227494562278 0.10477816947968677 0.41488442419358695 0.37099135848256981 0.36938102984277055 0.075243705621687584 0.82371753075130927 0.43826567612268241 0.18586208093620371 0.45060670003294945 3.5983784442996689 0.46610439207779564 2.7835761110262638 0.65745643899026607 0.46130345107303572 0.11818072473374641 0.49413846379320592 2.081839184720593 3.7855270162649495 1346.1714775549494 0.26396524775191199 0.85423139554370653
leaf_count=731 32 24 86 30 78 63 83 39 75 39 118 112 113 18 189 157 73 65 861 158 770 229 172 34 142 533 877 5938 76 358
internal_value=0 0.0305305 0.00420774 0.0840946 0.0351632 -0.0296324 0.126758 0.0518703 -0.00669993 -0.0821341 0.0961317 -4.74229e-05 -0.0191864 -0.0262672 3.09182e-05 0.025052 -0.03277 0.0373244 0.0266901 -0.0817596 -0.00938912 -0.0191555 -0.0725287 -8.40599e-05 -0.0250711 -0.0353196 8.46295e-06 2.29281e-05 0.103135 -0.0840751
internal_weight=0 2.10096 1.40869 0.692268 1.03693 0.188851 0.503417 0.940992 0.405028 0.371762 0.535964 1366.87 5.57218 5.2028 1361.3 6.2269 1.09023 5.13667 4.4221 0.651966 3.81202 3.44103 1.39078 1355.07 4.9991 4.50496 1350.08 1349.96 0.714572 1.31553
internal_count=12273 667 467 200 342 93 107 310 153 125 157 11606 1772 1659 9834 1579 388 1191 1050 231 1111 999 548 8255 1406 1264 6849 6815 141 530
is_linear=0
shrinkage=0.3


Tree=441
num_leaves=31
num_cat=0
split_feature=45 196 228 39 152 119 257 133 275 295 85 191 13 249 59 299 91 22 89 145 79 141 228 298 131 184 191 178 245 78
split_gain=0.0230305 0.0423409 0.0494166 0.0389585 0.0370569 0.030367 0.0350768 0.0322349 0.0317423 0.0327334 0.0301204 0.0397107 0.0539605 0.0537387 0.048165 0.0447092 0.0453945 0.043489 0.0432021 0.0387471 0.0359114 0.0340309 0.032073 0.0309736 0.0493515 0.0402165 0.0465655 0.0377206 0.042205 0.0368507
threshold=0.024524999782443001 0.047720499336719457 -0.021330264142575193 0.046821501106023754 -0.047202998772263437 -0.056173499673604944 -0.022848389266990045 -0.016902244182640257 0.010741112458103816 -0.027308999560773348 -0.014042322949513448 -0.018852117214033143 -0.027531961069558058 0.06174049898982046 0.066360031444491069 0.010503499768674303 -0.07302399724721903 0.017967258623643022 -0.085042346179035014 0.035112716545853788 -0.067724999040365177 0.013489546811182749 -0.0019721123007873024 -0.038136211728823838 -0.028935500420629947 -0.12834149599075312 -0.063862714932895262 0.0048919461934387896 -0.036544779257915022 -0.11089212351354856
decision_type=2 2 2 2 2 2 2 2 2 2 2 2 2 2 2 2 2 2 2 2 2 2 2 2 2 2 2 2 2 2
left_child=10 3 -3 5 -5 8 -7 -8 -2 -10 11 12 13 20 15 18 -17 21 -13 -15 -1 -14 -16 24 27 -25 -27 -12 -29 -26
right_child=1 2 -4 4 -6 6 7 -9 9 -11 23 14 17 19 22 16 -18 -19 -20 -21 -22 -23 -24 25 29 26 -28 28 -30 -31
leaf_value=0.17806999021029637 0.13944077174901934 0.07471521694419013 -0.11134163692666026 0.1444371175799091 -0.14148939898902091 -0.072512734876043317 0.12650732406817025 -0.025790714783649266 -0.081979802990853362 0.11909998572493943 -0.13052071483067698 0.16140595523919365 0.075879787993609352 0.07278746833240711 0.096306930947608629 0.079399946523777035 -0.09893499879718172 0.1296064445583818 -0.029992517856854892 -0.10265233490212092 -0.080436257789896312 -0.074364200541061645 -0.048551215315184158 0.11145520959680853 -0.088986101163343961 -0.067140415874607132 -9.9804091206757301e-06 0.19884209315022108 -0.077176894097506235 0.059236263406517296
leaf_weight=0.050846241308590723 0.63734507132176077 0.20150984041083575 0.35448608252045222 0.054496885219123214 0.16224806868558506 0.2444872677733656 0.31100781489885776 0.20921965736488279 0.14376341701790807 0.14773623559449334 0.27012482244754243 0.1144071615563006 0.28743837265028538 0.58203084943852434 0.35717330795523594 0.13917471406330184 1.6688129120019248 0.46886519118743308 1.4684222514657959 0.14068478467743262 0.99119639086166023 0.25699203328485964 0.22372691540294898 0.29114914048682194 0.16207672004566154 0.93057658758038897 1421.988917122907 0.086861772128031589 0.11703148844117095 2.200827302480092
leaf_count=14 192 86 124 21 55 71 103 78 52 45 64 29 109 143 126 39 902 151 663 56 371 132 99 88 48 295 7451 20 29 617
internal_value=0 0.0289518 -0.043909 0.050158 -0.069598 0.0654845 0.021211 0.0652577 0.101935 0.0199303 -6.32809e-05 -0.0200565 0.00745727 -0.0242249 -0.0393012 -0.0529752 -0.0852072 0.0626349 -0.0161582 0.0386361 -0.0678225 0.00495886 0.0405165 3.13508e-05 0.031347 -3.10715e-05 -5.38831e-05 -0.0569962 0.0404116 0.0490694
internal_weight=0 2.4663 0.555996 1.9103 0.216745 1.69356 0.764715 0.520227 0.928845 0.2915 1432.8 6.74977 2.77805 1.76476 3.97172 3.39082 1.80799 1.0133 1.58283 0.722716 1.04204 0.54443 0.5809 1426.05 2.83692 1423.21 1422.92 0.474018 0.203893 2.3629
internal_count=12273 827 210 617 76 541 252 181 289 97 11446 2834 976 584 1858 1633 941 392 692 199 385 241 225 8612 778 7834 7746 113 49 665
is_linear=0
shrinkage=0.3


Tree=442
num_leaves=31
num_cat=0
split_feature=33 140 97 93 42 20 171 122 72 104 12 102 97 30 197 133 286 163 266 5 97 81 179 162 70 41 19 263 128 55
split_gain=0.0265991 0.0298502 0.0299899 0.0302782 0.0316784 0.0350712 0.0248015 0.0374254 0.0335601 0.0323232 0.033063 0.0311702 0.0304393 0.0361109 0.0414343 0.027619 0.0260803 0.025558 0.025849 0.0247024 0.0233087 0.0287759 0.0219747 0.0243627 0.0212484 0.0204834 0.0197979 0.0188396 0.0184268 0.0182713
threshold=-0.058585001155733993 -0.062896002084016731 -0.06397099792957299 0.027484499849379004 -0.048210838642117851 0.011152803279816903 -0.052908241691533582 -0.10442849993705744 0.031152500770986056 -0.062751903583643007 -0.0091830003075300971 -0.091021649662296311 -0.069194505158165776 -0.0028625000268220498 0.041749998927116359 0.027249945091065601 -0.028229999355971747 -0.014496073163416655 -0.012094500008970449 0.014194000046700203 0.0039174999110400512 0.032868342182829892 0.0082984999753534013 0.0077729947005978697 0.022447000257670855 0.070625498890876756 -0.050637500360608038 0.067070502787828418 0.1212332688543743 -0.020817500539123946
decision_type=2 2 2 2 2 2 2 2 2 2 2 2 2 2 2 2 2 2 2 2 2 2 2 2 2 2 2 2 2 2
left_child=1 20 19 4 -4 -6 8 17 9 -2 15 -12 16 14 -14 -11 -9 18 -8 -3 -1 -22 23 -10 28 -20 -24 -19 -5 -18
right_child=6 2 3 24 5 -7 7 12 22 10 11 -13 13 -15 -16 -17 29 27 25 -21 21 -23 26 -25 -26 -27 -28 -29 -30 -31
leaf_value=-0.12378290547288638 -0.086332128958858459 0.14170483297100911 -0.10080497540244661 -0.16667448421509742 0.092882279023905542 -0.042179718186441749 -0.097987741438699885 0.071209984139376181 -0.18905452475992393 0.097740281708426149 -0.084731900661021833 0.035498602555403137 0.050036355385275642 -1.5364204644403807e-05 -0.0198637017097705 -0.022754796143972411 0.02786845463156935 -0.16045308525521343 0.08233934420276183 -0.14051180982717407 -0.20053784765342444 0.10997561033329797 0.18564233285264506 0.073414321907059515 0.035827220992555503 -0.15793284797888671 -0.10632962925039395 0.082201721029713556 0.077075625262163563 -0.13591930755353748
leaf_weight=0.45220264973289692 0.17267704017558649 0.17042625212536688 0.21191750784237229 0.25338960735848559 0.3814980459716808 0.31665277000729475 0.21390602196743203 0.091323598472172307 0.037947008066112065 1.1638182650605706 0.2397261056178196 1.0189271052113875 2.6201603863456735 1314.4205473572893 1.0769035199540438 0.20073217781282449 0.074980627345667017 0.26896192611616143 0.20540015461119765 0.033380941073119175 0.037801955952090793 0.0927980857413786 0.02233495659311302 0.19739105830251447 0.079227724276051958 0.03781124630040722 0.32570403629858902 0.032249079553366755 0.03136813013770734 0.33592329744283134
leaf_count=305 105 95 141 184 221 234 156 81 31 636 122 602 1337 6060 560 141 63 271 136 31 21 46 8 143 57 18 200 21 19 228
internal_value=0 -0.0340434 -0.011369 -0.0284616 0.000786473 0.0316237 6.72032e-05 1.46062e-06 0.0257353 0.0393918 0.0476678 0.0125992 3.97774e-05 6.79127e-05 0.0296754 0.0800149 -0.0738026 -0.0666257 -0.0219184 0.0954815 -0.0915407 0.020098 -0.0397143 0.0310926 -0.10159 0.044985 -0.0875927 -0.134473 -0.139824 -0.106032
internal_weight=0 2.06066 1.47786 1.27405 0.910068 0.698151 1322.76 1319.38 3.37926 2.79588 2.6232 1.25865 1318.62 1318.12 3.69706 1.36455 0.502228 0.758328 0.457117 0.203807 0.582803 0.1306 0.583377 0.235338 0.363985 0.243211 0.348039 0.301211 0.284758 0.410904
internal_count=12273 1354 982 856 596 455 10919 8931 1988 1606 1501 724 8329 7957 1897 777 372 602 310 126 372 67 382 174 260 154 208 292 203 291
is_linear=0
shrinkage=0.3


Tree=443
num_leaves=31
num_cat=0
split_feature=245 299 80 43 72 212 202 262 101 261 128 273 226 201 137 0 61 184 96 165 137 177 92 232 71 77 124 139 147 249
split_gain=0.0179096 0.0356575 0.0396736 0.0366079 0.039519 0.0380764 0.0390223 0.0391233 0.0326646 0.0336581 0.0286881 0.0279874 0.0256021 0.0255237 0.0467512 0.0507613 0.0540814 0.0539738 0.0470272 0.0460489 0.0549228 0.0504021 0.0502603 0.0610981 0.0520846 0.0451255 0.0413319 0.0412667 0.0391821 0.03825
threshold=0.027305548170201411 0.031018914102212341 0.039212954866888111 -0.031535775491179356 0.05953659614664325 -0.095695006782469394 -0.048538500443100895 -0.07635092380870305 -0.044765209162749009 0.070096186147712333 0.030934499576687754 0.069082003086805316 0.041174000129103654 -0.020748817428173829 -0.025586005491408555 0.054703999310731853 0.040075405602929111 0.038000293300155988 0.072237998247146565 -0.026491028964067954 -0.16132099926471702 -0.076960999518632847 0.10025034881880418 0.039025430190158028 -0.056481499224901144 -0.12265786520429679 -0.052283000200986793 -0.011696000117808547 0.029915495787816083 0.079681999981403309
decision_type=2 2 2 2 2 2 2 2 2 2 2 2 2 2 2 2 2 2 2 2 2 2 2 2 2 2 2 2 2 2
left_child=13 3 11 5 8 -2 -7 -8 10 -10 -5 -3 -4 14 15 16 17 -1 -18 22 -21 27 23 28 -25 -16 -24 -22 -15 -17
right_child=1 2 12 4 -6 6 7 -9 9 -11 -12 -13 -14 19 25 29 18 -19 -20 20 21 -23 26 24 -26 -27 -28 -29 -30 -31
leaf_value=-0.06536224032243762 -0.19635276367824281 0.090453585124363592 -0.10809702334284269 -0.0071236482985714677 -0.18420062075190413 -0.084034229191419549 -0.049449403022570802 0.12126277707892122 -0.031678775108040014 0.095925723874612207 -0.1496629909748359 -0.12099136011132761 0.08282784285456353 0.069749269801569314 -0.14151644032228444 0.016510141241217097 -0.015623914751244368 0.064512301383302509 0.11205234586959342 0.11604107553107597 -0.019217110132971161 -1.9406601130918077e-05 -0.022835795195169845 0.032650556310887695 -0.066397493799471033 0.019213022877226999 0.13237122114653518 -0.13746673077272484 -0.057364884022847659 0.20042091510140356
leaf_weight=4.0057496764267171 0.056166720518376678 1.1567036737469605 0.18930419693060674 0.26568445885368441 0.14047806894814119 0.14485707330459263 0.15203070561983623 0.58859565421880722 0.4350856537330392 0.32500595195233473 0.24359079499845393 0.059223817603196838 0.094898787763668224 1.6643438006119589 0.16408302169293199 0.52199118299904501 2.3178635366139138 0.31029862927971397 0.29239286566371436 0.36672936734976147 0.71388918020238634 1346.2889019256827 0.20243651502823923 0.85831347676503345 1.0778377784081383 3.7516948402845838 0.65103894445928734 0.42298407102657509 0.25118126413508424 0.12643116132676369
leaf_count=1134 29 351 65 87 47 41 40 149 136 98 90 19 30 380 64 161 730 93 73 56 183 5942 39 245 355 1264 142 127 85 18
internal_value=0 0.0204285 0.0565681 -0.00262658 -0.0332177 0.0431747 0.0583681 0.0862202 -0.0165088 0.0228834 -0.0753015 0.0801548 -0.0443449 -5.73193e-05 -0.0141368 -0.0278954 -0.0354096 -0.056025 -0.00132201 6.22967e-05 -4.11312e-05 -7.27254e-05 0.0296893 0.0150938 -0.0224886 0.012478 0.0955575 -0.063213 0.0530809 0.0523696
internal_weight=0 3.85163 1.50013 2.3515 1.40984 0.94165 0.885483 0.740626 1.26937 0.760092 0.509275 1.21593 0.284203 1363.99 11.4905 7.57473 6.9263 4.31605 2.61026 1352.5 1347.79 1347.43 4.70515 3.85168 1.93615 3.91578 0.853475 1.13687 1.91553 0.648422
internal_count=12273 1182 465 717 458 259 230 189 411 234 177 370 95 11091 3537 2209 2030 1227 803 7554 6308 6252 1246 1065 600 1328 181 310 465 179
is_linear=0
shrinkage=0.3


Tree=444
num_leaves=31
num_cat=0
split_feature=109 278 245 186 102 214 138 22 98 176 19 151 62 49 175 26 297 85 70 218 82 120 106 92 14 273 89 118 37 259
split_gain=0.0184691 0.0509855 0.0430198 0.0427505 0.0402331 0.0400316 0.0396355 0.0391983 0.038917 0.0383834 0.0382869 0.0463465 0.0440591 0.0375095 0.0412851 0.0367327 0.0357088 0.0375717 0.0440599 0.0424667 0.0364538 0.0490119 0.0494761 0.0452937 0.0347042 0.0340542 0.0334102 0.0378979 0.031766 0.0304907
threshold=0.08134800195693967 0.0025698022627680607 -0.1048386869564062 -0.032217498868703794 0.068779498338699327 0.057832733094451076 -0.010718873280467002 0.050521420405676039 0.0015065012098555003 -0.060393501073121948 0.13465499877929688 -0.054039500653743695 -0.051026797035152817 -1.0000000180025095e-35 -0.071002971343351803 0.016522499732673154 0.023812778774297657 -0.014042322949513448 -0.045554999262094442 0.035640895797140283 0.05533025615961739 0.041804999113082851 0.032149750300688847 0.082247248113582458 -0.033886971505170831 0.020021212949851593 0.035639999434351907 -0.022960999980568799 -0.0050193378303883358 0.042540499940514502
decision_type=2 2 2 2 2 2 2 2 2 2 2 2 2 2 2 2 2 2 2 2 2 2 2 2 2 2 2 2 2 2
left_child=1 3 -3 5 10 15 -7 16 -9 -10 12 -12 -4 14 -5 24 20 18 -18 -19 21 23 -23 -2 -1 -11 27 -22 -20 -16
right_child=7 2 4 13 -6 6 -8 8 9 25 11 -13 -14 -15 29 -17 17 19 28 -21 26 22 -24 -25 -26 -27 -28 -29 -30 -31
leaf_value=-0.14328094647099013 -0.0042899927929770107 0.14812853315015664 0.02864293605385463 0.064214258947281236 0.10413286162813054 0.10295599787079 -0.14292153827313223 0.11139185936384662 0.10520299736983475 -0.14591903015636287 -0.097447430549248093 0.09525571852965671 -0.042746750178080321 2.8042256850604774e-05 -0.13790351043581769 -0.067134391698186038 0.12797646021325643 0.1027040291655823 0.048303929348504998 -0.083106961461995713 0.15047133844338859 0.11246783008374749 -0.038005392787283224 -0.073850260168705884 0.092691718155251693 0.066651977280814637 0.15031302710315331 -0.039634927830993982 -0.15667919260516408 0.0034066162469678228
leaf_weight=0.058674506055467535 2.1193713205933586 0.13008266522046952 0.87818835594180011 0.18095447124960629 0.20948116604540779 0.088628026329388376 0.1765351687167821 0.68340419145897591 0.18957084870180552 0.18532547393840559 0.15184593099547783 0.43159097159150395 6.8232887921189995 1415.4564652455244 0.4777896920004413 0.16652581571634062 0.11828039287297543 0.87464097495603688 0.10251963415680621 0.1267414219037164 0.12911984285528888 0.47314196937077202 0.336548229730397 1.3983313717044437 1.2744226091569988 0.10698183563727071 0.23133976178996818 0.35074388581415394 0.20231312405576307 0.19291010506094608
leaf_count=26 667 56 376 75 73 35 70 213 58 107 56 118 2707 5482 252 81 31 235 50 35 41 126 73 342 500 34 69 149 69 67
internal_value=0 -9.15439e-05 -0.023088 4.83168e-05 -0.02571 0.0467116 -0.0607395 0.0147093 0.0653551 6.5284e-05 -0.0289931 0.0451026 -0.0346063 -9.82784e-06 -0.0629502 0.0657111 0.00557796 0.0475165 -0.0274372 0.0791866 -0.00627876 -0.0166235 0.0499235 -0.0319411 0.0823057 -0.06812 0.0566652 0.0115181 -0.0877404 -0.0972592
internal_weight=0 1426.7 8.62448 1418.07 8.4944 1.76479 0.265163 7.62837 1.16528 0.481878 8.28491 0.583437 7.70148 1416.31 0.851654 1.49962 6.46309 1.4245 0.423113 1.00138 5.0386 4.32739 0.80969 3.5177 1.3331 0.292307 0.711203 0.479864 0.304833 0.6707
internal_count=12273 9974 3386 6588 3330 712 105 2299 412 199 3257 174 3083 5876 394 607 1887 420 150 270 1467 1208 199 1009 526 141 259 190 119 319
is_linear=0
shrinkage=0.3


Tree=445
num_leaves=31
num_cat=0
split_feature=208 7 158 210 128 173 225 37 10 293 214 124 159 57 164 181 6 112 242 140 196 162 136 246 277 155 97 254 167 269
split_gain=0.0192454 0.0329221 0.0363533 0.0305379 0.0300667 0.028927 0.0277875 0.02416 0.0343904 0.0362828 0.0320395 0.0277853 0.0256319 0.025903 0.0255397 0.0320011 0.0237545 0.0219571 0.0218745 0.0232948 0.0218606 0.0216515 0.0227811 0.0250209 0.0215303 0.0213292 0.0234813 0.0211987 0.0165696 0.0161814
threshold=-0.063504997640848132 -0.10963974756100241 -0.069684532604673513 -0.095933122249792349 0.085100470520993773 0.029592216364090086 0.040543762366213106 -0.043914100959302045 0.0061558081554594513 -0.011559137161412502 -0.039616499096155146 -0.095661502331495243 -0.073500507508546628 -0.0078549146831499057 0.029465500265359854 0.074654892295627981 -0.11784508250982041 0.055332001298665952 -0.10115138824064684 -1.0000000180025095e-35 -0.074942000210285145 0.034715649111624301 -0.03907999955117699 -0.035016998648643445 0.077960498631000463 0.010911499615758602 0.016511499881744305 0.004773107549497572 0.086532000452280003 0.081626001745462362
decision_type=2 2 2 2 2 2 2 2 2 2 2 2 2 2 2 2 2 2 2 2 2 2 2 2 2 2 2 2 2 2
left_child=1 5 21 29 6 -1 -5 8 9 -2 16 20 13 17 15 -12 -10 -13 -14 -20 -9 22 -3 -24 -22 26 -11 -27 -6 -4
right_child=7 2 3 4 28 -7 -8 11 10 25 14 12 18 -15 -16 -17 -18 -19 19 -21 24 -23 23 -25 -26 27 -28 -29 -30 -31
leaf_value=-0.14114243581260197 -0.14539365982589936 0.10938172919659747 -0.17168497135675118 0.066172739375845557 -0.1619812469360373 0.13620221677337352 -0.11275543154414264 0.11711235886773808 0.10698828535637063 0.09322640417992023 0.072423032738483273 -0.17641238039834772 -0.16894472539203551 0.065936625823961398 0.12824818319662298 -0.089357739368693845 -0.12394928390921293 0.0035806866988169917 0.017616374155189265 -2.9802855491416944e-05 -0.1867903781798535 -0.15702376698967133 0.1199180149845549 -0.18758218748601735 0.035663094269926851 -0.17776211100302852 -0.07940211033984225 0.08044401137591442 0.10489733923522888 0.021465922204296429
leaf_weight=0.31990504773148165 0.1646895514049902 0.076674307079883874 0.11143908901249244 0.87601956283037752 0.099315594444533417 0.037850482529620422 0.085762553509084682 0.036130861641140655 0.05728689166426193 0.2932507531386358 0.54410955299840635 0.20039557020299981 0.0689289927952349 0.086064805642307785 0.51423652427638444 0.13793713489576476 0.13351116953708708 0.087686835493514081 6.7675841725622368 1312.7211351139783 0.16750332058972972 0.2086205081634489 0.033177850285028399 0.084392346436288901 0.051104053587550879 0.084185187547291207 0.093533845669298898 0.043353559301976929 0.026530840541454381 0.060082064561356674
leaf_count=238 109 46 56 537 107 29 55 18 22 147 312 155 89 52 246 75 87 49 3781 5425 160 159 20 49 38 63 65 24 16 44
internal_value=0 -0.0292453 -0.0114752 0.0136215 0.0321747 -0.111799 0.0502176 6.12251e-05 0.0324769 -0.0228424 0.0595572 1.04945e-05 2.96143e-05 -0.078481 0.077766 0.0397045 -0.0546106 -0.121626 5.18752e-05 6.07034e-05 -0.099059 -0.0899147 -0.0178389 -0.100807 -0.134787 0.0163993 0.0514807 -0.0899915 -0.105718 -0.104026
internal_weight=0 2.01977 1.66201 1.25915 1.08763 0.357756 0.961782 1322.25 2.06609 0.679013 1.38708 1320.19 1319.93 0.374147 1.19628 0.682047 0.190798 0.288082 1319.56 1319.49 0.254738 0.402865 0.194245 0.11757 0.218607 0.514323 0.386785 0.127539 0.125846 0.171521
internal_count=12273 1356 1089 815 715 267 592 10917 1150 408 742 9767 9551 256 633 387 109 204 9295 9206 216 274 115 69 198 299 212 87 123 100
is_linear=0
shrinkage=0.3


Tree=446
num_leaves=31
num_cat=0
split_feature=180 217 54 254 216 95 272 130 82 222 99 27 263 21 270 248 283 29 109 299 181 100 192 187 103 37 79 260 270 297
split_gain=0.0174616 0.0400305 0.0525931 0.0446803 0.0443679 0.0441812 0.0400537 0.0383542 0.0369494 0.0452591 0.0535968 0.0428356 0.045571 0.0439822 0.0423873 0.0453785 0.0389803 0.0386253 0.0372013 0.0358407 0.0354205 0.0338504 0.0338097 0.0420981 0.0332027 0.0323731 0.0322019 0.0314364 0.0312329 0.032248
threshold=0.046026110425608009 0.0086489999666809533 -0.0080677219688285434 -0.027233999222516948 -0.069654103848021273 -0.0045361806689759804 0.093819995123423441 0.023980500176548954 0.026907999999821103 0.01834479717874736 0.034249499440193155 0.028815000317990756 0.019818302305148607 0.024335253874229062 0.028564000502228654 -0.009821812375207668 0.027372410721381423 0.018350142821233262 0.12181099876761431 0.015001786518189753 0.04232349991798396 -0.024945499375462445 0.0090728166085816461 -0.009351499844342399 0.029518081841334771 -0.022461500018835047 -0.059286547829088009 0.062633930403125648 0.018319499678909754 -0.042282000184059094
decision_type=2 2 2 2 2 2 2 2 2 2 2 2 2 2 2 2 2 2 2 2 2 2 2 2 2 2 2 2 2 2
left_child=8 3 6 20 22 7 19 -6 -1 14 11 13 -13 -11 15 18 -16 24 -10 -3 25 -18 -4 -24 -12 -2 -19 -27 29 -22
right_child=1 2 4 -5 5 -7 -8 -9 9 10 17 12 -14 -15 16 -17 21 26 -20 -21 28 -23 23 -25 -26 27 -28 -29 -30 -31
leaf_value=3.4763476674991294e-05 -0.14288679779478461 -0.0099874307775263075 -0.11328993820252958 0.056947815973519576 0.029084507398982749 0.064482869592719455 0.12909028348072377 -0.10600220017602476 -0.025176519132772069 -0.075006458860694972 -0.12526788397651703 0.11975250093764971 -0.049601626780059152 0.14046397271328817 -0.083814252303674328 -0.11415938542135069 0.076043214850453011 0.070842933303352784 -0.14596976413118765 0.080397191673526894 -0.11061811816959877 -0.10704037219730315 0.11197347937011086 -0.1450360117877369 0.13278405265665477 0.033742234331437811 -0.13511590304545534 -0.10676157072665539 -0.085167044489182164 0.12798072594092846
leaf_weight=1353.0235233560766 0.41784601553445089 0.72972694142663408 0.44607419187377662 0.49610208452213456 0.4347801734402309 1.0742322638725457 0.61475172771315545 0.33483928277564701 2.8322609911408567 0.36102185501204098 0.064607776352204271 0.7404396316378552 0.17722927886643447 0.11162009387044236 0.2587815890983618 0.82557777015153933 0.66067825263962732 0.08244364370330004 0.24969448216143053 0.86040468002465786 0.064696644534706138 0.10538600550353294 0.16710146068544418 0.08734022495264071 0.1469230898310343 0.30106015296769317 0.39888260808947962 0.2735285955859581 0.1632726122479653 0.24047770592733286
leaf_count=7651 145 254 222 146 137 385 181 127 850 125 21 177 64 41 109 362 188 22 72 305 26 42 63 58 41 109 140 86 59 65
internal_value=0 0.0152681 0.0301465 -0.0208393 0.000758138 0.0251762 0.0640599 -0.0296878 -7.78337e-05 -0.0217934 0.015284 0.0492539 0.0870452 -0.0241205 -0.0374529 -0.0516955 0.0168513 -0.0528811 -0.034963 0.0389188 -0.0472551 0.0508568 -0.0635136 0.0237518 0.0539674 -0.0793489 -0.0998384 -0.0331435 0.0207376 0.077398
internal_weight=0 6.70623 4.74925 1.95698 2.54437 1.84385 2.20488 0.769619 1360.04 7.01555 2.08317 1.39031 0.917669 0.472642 4.93238 3.90753 1.02485 0.692857 3.08196 1.59013 1.46088 0.766064 0.700516 0.254442 0.211531 0.992435 0.481326 0.574589 0.468447 0.305174
internal_count=12273 2368 1732 636 992 649 740 264 9905 2254 631 407 241 166 1623 1284 339 224 922 559 490 230 343 121 62 340 162 195 150 91
is_linear=0
shrinkage=0.3


Tree=447
num_leaves=31
num_cat=0
split_feature=24 203 264 22 185 243 189 49 1 142 51 21 112 213 205 122 155 229 205 216 87 188 296 296 254 230 134 223 54 255
split_gain=0.0182775 0.0413803 0.0502191 0.0329745 0.0328569 0.0303862 0.0299539 0.0290686 0.0289278 0.0328003 0.028761 0.0352937 0.0318195 0.0368107 0.0360998 0.0356916 0.0348822 0.0281889 0.0277122 0.0269967 0.02627 0.0260946 0.0330286 0.0405425 0.0401339 0.0325378 0.0429856 0.0342187 0.0252987 0.0240894
threshold=1.0000000180025095e-35 0.0076990001834928512 0.026820999570190903 -0.05902950093150134 -0.075330998748540781 -0.12811479763101438 0.082973498851060812 0.026686345744928348 -0.040279999375343246 0.0051374998874962009 0.11008999869227405 -0.08711599393260587 -0.043582038607569533 0.023283499293029253 -0.082217000424861839 -0.00071549165723350163 0.019657354697013667 -0.053830083991329963 -0.047695001587271642 -0.077174000442027976 0.023659234948410764 -0.035372499376535339 -0.042925499379634795 -0.02934337673740977 -0.070328999310731846 0.058067500591278055 0.058940500020980807 -0.021917000412940948 0.0287629999220371 1.0000000180025095e-35
decision_type=2 2 2 2 2 2 2 2 2 2 2 2 2 2 2 2 2 2 2 2 2 2 2 2 2 2 2 2 2 2
left_child=4 2 3 17 7 8 19 -1 9 -6 12 -12 16 15 -15 -14 18 -2 -3 -5 28 25 24 -24 -23 26 -7 -27 -9 -4
right_child=1 10 29 6 5 21 -8 20 -10 -11 11 -13 13 14 -16 -17 -18 -19 -20 -21 -22 22 23 -25 -26 27 -28 -29 -30 -31
leaf_value=0.12548420430957929 -0.17189553270644248 -0.065849973449195562 0.12142642138864548 -0.034747792854571205 -0.083144856521502233 -0.084093137503277293 0.10707912687247507 -0.088521533647156966 0.13650240385012649 0.13209694267718414 0.084513836928865049 -0.13023567604392333 -0.052085187289271494 -0.17182479802451275 0.053534725789694711 0.063968609796399165 -0.097934194385630419 0.12334560740134297 0.12891378825035366 -0.12713125971995898 0.11030466096706956 -0.01423551733770274 -0.04641655199776222 1.8746597596610122e-05 0.055520433343164033 -0.1729425971953788 0.14713986619942557 0.07724153391515215 0.073046102023609574 -0.098336171820471385
leaf_weight=0.34658468740235449 0.038046437446610071 0.076914450830372516 0.19268701536384458 0.4106080078228157 0.16583531312062405 0.98404768207956184 0.066774292125046375 0.24063200538125784 0.28651521496430987 0.10347819852904649 0.091003127643489279 0.28329044464294373 1.3837849781623393 0.068332754261518747 1.0026331488043068 0.2881676187912493 0.093689491234272282 0.12384215125712206 0.45297842049967618 0.92830093319037055 0.17631582470494322 1.1606125323976217 1.6942378375442775 1420.1075752305446 2.0596777993450948 0.058667158416938037 0.078096757213643286 0.30498171369254112 0.13681572824134491 0.058526203829387669
leaf_count=140 12 38 67 257 35 476 32 86 62 23 34 150 823 32 415 131 56 77 158 649 57 449 480 6655 655 24 20 89 55 36
internal_value=0 -0.0171796 -0.0542979 -0.0742539 5.50369e-05 1.88894e-05 -0.0890198 0.0573468 0.070149 -0.000442606 0.000867425 -0.078023 0.0096386 -0.00426793 0.0391557 -0.0320829 0.0708085 0.0539592 0.100644 -0.0987997 0.0147016 -8.4374e-06 3.21495e-05 -3.65863e-05 0.03038 -0.0405734 -0.0670912 0.0368795 -0.0299572 0.0702274
internal_weight=0 5.55958 1.81879 1.56757 1427.9 1427 1.40568 0.900348 0.555829 0.269314 3.74079 0.374294 3.3665 2.74292 1.07097 1.67195 0.623582 0.161889 0.529893 1.33891 0.553764 1426.45 1425.02 1421.8 3.22029 1.42579 1.06214 0.363649 0.377448 0.251213
internal_count=12273 2967 1130 1027 9306 8968 938 338 120 58 1837 184 1653 1401 447 954 252 89 196 906 198 8848 8239 7135 1104 609 496 113 141 103
is_linear=0
shrinkage=0.3


Tree=448
num_leaves=31
num_cat=0
split_feature=33 50 1 145 101 72 154 42 245 205 230 125 13 179 48 56 1 197 237 130 131 214 116 133 121 136 73 52 39 130
split_gain=0.0215246 0.0218703 0.0304482 0.0262974 0.0236248 0.0234555 0.0211833 0.020901 0.0266805 0.0200495 0.0216624 0.0228553 0.0257227 0.0217452 0.0205703 0.0349768 0.0205557 0.0199922 0.019985 0.0176799 0.016471 0.0161836 0.0152042 0.0139816 0.0139188 0.0124775 0.0121674 0.0120076 0.0110041 0.0107552
threshold=-0.065408501774072578 0.033984313515636501 -0.056319943887460616 -0.074674228364391373 -0.07350350171327584 -0.0020494998898356498 -0.078894000500440528 -0.027173610334537586 -0.037021317763032351 -0.086542498320341096 -0.08551287132182557 -0.08565400168299668 -0.074511823375094668 0.060091140677462601 -0.016427208125741177 -0.073773402699319021 0.039353501051664304 -0.0011987443730380387 -0.039928499609231893 0.037362315055730462 -0.011987270275251842 -0.00046956222117117743 -0.024064499884843795 -0.068069162744223491 -0.0077759998384862488 -0.032100500538945143 0.050776208202819841 -0.08363100141286843 -0.046463937574608677 -0.023527000099420495
decision_type=2 2 2 2 2 2 2 2 2 2 2 2 2 2 2 2 2 2 2 2 2 2 2 2 2 2 2 2 2 2
left_child=1 2 5 -4 21 -1 -5 -6 25 16 13 12 -12 24 15 -13 17 19 -7 29 -19 -3 -14 -8 -11 -9 -10 -26 -15 -2
right_child=9 4 3 6 7 18 23 8 26 10 11 14 22 28 -16 -17 -18 20 -20 -21 -22 -23 -24 -25 27 -27 -28 -29 -30 -31
leaf_value=-0.15375822932932212 0.033550631421585146 0.1415950469119554 -0.20043492770662627 -0.13271178356563387 -0.18271991992210826 -0.18787897661135849 -0.094669688173553479 0.15535821388356255 -0.023750199127258065 0.045880768040005737 0.10306668281044742 -0.021878604013833208 0.026194924397130052 0.15370146694708206 -1.7372639746601877e-05 0.026929772774319148 -0.13858249007294077 -0.044842368160648988 0.12218010359176612 0.16350667382275247 0.16036951830354446 -0.10567412216870212 -0.17911777133242723 0.089295234555355499 0.030877229272278144 -0.071119763155747653 -0.16590029087598837 -0.16672979801660412 -0.07773688011759905 -0.18497437483686227
leaf_weight=0.1717968090033537 0.035029785137339786 0.065976014603393196 0.039520405778603163 0.049716291432559956 0.19425092098617824 0.026145441528569791 0.040730880099317801 0.061614955819550232 0.085942629213150212 0.042501036510657286 0.049690521439401891 1.7137963119499771 0.04062767145660473 0.048840935914995498 1313.7029339825403 5.771183938781518 0.040646508801728487 0.04141282655109535 0.065782276293248287 0.034141392147830629 0.23468412092779445 0.037284302452007978 0.16151108018095683 0.42668908629991509 0.031929336586472346 0.033960953092901036 0.14669649239556293 0.20772548529816859 0.029753014236121089 0.048108919972946751
leaf_count=134 24 43 30 28 166 21 40 35 82 42 45 845 36 30 5974 3420 27 23 51 22 139 48 321 280 16 23 109 161 26 32
internal_value=0 -0.0365648 -0.00434426 0.0354368 -0.0788087 -0.0883121 0.0534625 -0.104724 -0.0585624 5.58567e-05 3.46881e-05 5.47546e-05 -0.0903145 -0.0734696 7.19797e-05 0.0157544 0.064524 0.0855104 0.0339953 -0.018258 0.129589 0.0523133 -0.137852 0.0732646 -0.112343 0.0748839 -0.113387 -0.140403 0.0660867 -0.0929007
internal_weight=0 1.44611 0.820381 0.556657 0.625726 0.263725 0.517136 0.522466 0.328215 1322.23 1321.8 1321.44 0.251829 0.36075 1321.19 7.48498 0.434024 0.393377 0.0919277 0.11728 0.276097 0.10326 0.202139 0.46742 0.282156 0.0955759 0.232639 0.239655 0.078594 0.0831387
internal_count=12273 1090 584 378 506 206 348 415 249 11183 10916 10641 402 275 10239 4265 267 240 72 78 162 91 357 320 219 58 191 177 56 56
is_linear=0
shrinkage=0.3


Tree=449
num_leaves=31
num_cat=0
split_feature=5 195 203 191 0 254 64 63 62 228 254 172 223 32 125 297 295 256 182 72 140 290 168 136 187 216 28 148 20 176
split_gain=0.0196224 0.0419759 0.0374987 0.0401546 0.0412311 0.0407864 0.0367085 0.0317597 0.0385235 0.0297495 0.0294631 0.02874 0.0276702 0.0217839 0.0216064 0.0211222 0.0584318 0.0493533 0.0516416 0.0458154 0.0452687 0.0445985 0.0418894 0.0387484 0.0460509 0.0454253 0.0510866 0.0387103 0.0505401 0.0473153
threshold=0.025292499922215852 -0.034374000504612888 0.022835120305809063 -0.020487039337768485 -0.010067000053822947 -0.086739502847194574 -0.018640000373124996 -0.0017820000066421499 -0.020721499808132596 -0.07721478747234839 -0.11754849925637238 -0.031596927235395651 -0.03352349996566769 -0.085781000554561587 0.033635164624123144 0.0077745770676809949 -0.0022895000874995496 -0.010795615713826732 0.037672501057386357 -0.077384497970342594 -0.10641699656844134 -0.063173498958349186 0.032479053819183423 -0.071187958059586443 0.050742975792849254 -0.11362400278449054 -0.038223000243306098 0.10635850206017491 -0.029729649711154622 -0.051129000261425944
decision_type=2 2 2 2 2 2 2 2 2 2 2 2 2 2 2 2 2 2 2 2 2 2 2 2 2 2 2 2 2 2
left_child=15 10 7 5 13 -4 -6 9 -9 -3 -2 -7 -10 -5 -11 20 17 19 -19 -17 -1 -20 -21 24 -22 26 -25 28 -18 -29
right_child=1 2 3 4 6 11 -8 8 12 14 -12 -13 -14 -15 -16 16 27 18 21 22 23 -23 -24 25 -26 -27 -28 29 -30 -31
leaf_value=0.088079870088639226 -0.039240983307663783 -0.092445303494054942 0.1157028012955872 -0.00042613446582932346 0.062110586673172145 0.12295611736769395 -0.077461199284888774 -0.097885350820797842 0.12613668406364301 0.12645508038960449 0.14896936214363299 -0.046436590151417385 -0.035830807762866859 -0.12762388772088196 0.014355671235867343 0.12774299821077195 0.083590006503733369 -0.091521948362704303 -0.13370864389562967 0.027579734532259589 0.061988298260731961 0.024473778425560352 -0.075554320336863087 -0.11446753037707831 -0.13082239166385121 -1.3905422698364087e-05 0.012829875224392632 0.10346382187244103 -0.028236947446489663 -0.03155289667535164
leaf_weight=0.52523758593815628 0.095663691288791597 0.080152970440394711 0.34728451143018901 0.15715407906100176 0.41391958359054115 0.11139185883803293 0.28731770730519157 0.24666101271577645 0.21322258640429936 0.62948008496550756 0.34417992892849714 0.47260055903461795 0.17110847964795473 0.52931552974041551 0.20518718779203482 0.22884388672537159 0.44688083445362337 1.8535958458023745 0.20036821457870246 0.82521260594057799 1.4467151893040853 0.80450728225150647 0.62129367231682409 0.65705620733388059 0.12079409393481899 1350.1524702295576 0.49937695403718751 0.74108613611315377 1.9549634215243241 0.34112317903782219
leaf_count=129 36 42 110 69 125 38 104 123 66 212 99 176 62 176 62 39 125 657 71 247 466 250 187 231 38 7274 191 146 619 103
internal_value=0 0.0202199 0.0102259 -0.0139006 -0.0462399 0.0342886 0.00492389 0.0464199 -0.00535706 0.0821328 0.108035 -0.0141263 0.0540269 -0.0985044 0.0988976 -6.68935e-05 -0.0154194 -0.0378699 -0.0618325 0.00301485 2.40583e-05 -0.00706717 -0.0167177 -1.01282e-05 0.0471301 -6.48106e-05 -0.0594973 0.0137956 -0.00743072 0.0609052
internal_weight=0 4.30464 3.8648 2.31898 1.38771 0.931277 0.701237 1.54581 0.630992 0.91482 0.439844 0.583992 0.384331 0.68647 0.834667 1361.42 8.01788 4.53382 2.85847 1.67535 1353.4 1.00488 1.44651 1352.88 1.56751 1351.31 1.15643 3.48405 2.40184 1.08221
internal_count=12273 1500 1365 798 474 324 229 567 251 316 135 214 128 245 274 10773 2444 1451 978 473 8329 321 434 8200 504 7696 422 993 744 249
is_linear=0
shrinkage=0.3


Tree=450
num_leaves=31
num_cat=0
split_feature=188 174 1 13 131 45 146 39 55 199 221 161 272 195 123 262 56 46 7 3 82 230 196 273 212 200 142 147 172 119
split_gain=0.0188747 0.0351958 0.0326921 0.0293954 0.0370507 0.032424 0.0255826 0.0253307 0.02483 0.0234992 0.0254606 0.0211811 0.0416727 0.0458951 0.0423289 0.0433981 0.0396537 0.0467319 0.0449507 0.0447816 0.0360529 0.035498 0.0581492 0.0431357 0.0427435 0.0376483 0.0308784 0.0293329 0.0291732 0.0311914
threshold=0.064098499715328203 0.064908001571893664 -0.028545500710606495 -0.036195874846183813 -0.030186999589204747 -0.066105499863624531 0.021671282268741831 0.049939498305320705 -0.0019239999819546498 -0.016049660657079169 0.023730999790132004 -0.07254911926995633 0.073035558107968898 0.1036792595828742 -0.12928249686956397 -0.05197003976518539 -0.079665001481771427 0.041909683978012542 -0.10709164933379613 -0.022879499942064247 0.024667499586939753 0.055232924605487115 -0.042538501322269391 -0.022817726593092676 -0.0021764242708970853 -0.12093750014901158 -0.062214307025859984 -0.14090999960899347 0.060513500124216003 -0.012346500065177598
decision_type=2 2 2 2 2 2 2 2 2 2 2 2 2 2 2 2 2 2 2 2 2 2 2 2 2 2 2 2 2 2
left_child=11 3 6 7 -5 -6 -3 9 -4 -2 -11 12 13 14 15 -1 17 18 -13 -20 -16 24 -23 -24 25 -14 -26 -18 29 -19
right_child=1 2 8 4 5 -7 -8 -9 -10 10 -12 16 21 -15 20 -17 27 28 19 -21 -22 22 23 -25 26 -27 -28 -29 -30 -31
leaf_value=-0.05786794670975455 0.16346122943938438 -0.16560075326204532 0.10416784731232664 -0.14257477618069833 -0.15986714651180908 0.064098270216909503 0.047818624262316874 -0.075850711232129664 -0.060338799959870584 -0.049054778517354666 0.18694907372434527 0.12023934287365085 0.12557414191395277 0.080633128126971126 -0.077791675109305722 0.10880308794045029 0.16812830365154172 0.11831499235966013 0.040494045335821745 -0.10317958100604317 -0.019270306929520569 -0.086863367871751002 -0.035439169800788352 0.13738422793878338 -0.1792188000034424 -0.062287158767380203 0.083952480129738757 -4.269273433927931e-05 -0.03851548488936414 -0.040041359401799752
leaf_weight=0.25078911352557043 0.39395923368101649 0.19680773406435037 0.18406878724272246 0.11383230802312039 0.06436602624717136 0.60498923554337025 0.06802081683963479 0.064566141951218015 0.14976042804687484 0.11836073394806601 0.063059577223611996 0.19743706861845578 0.10597495148408609 0.29985806520835456 2.1478736896399364 0.32001692245830771 0.093351920338817673 0.90748100821406286 0.3495473570401374 0.44231553479903518 1.6952161394958691 0.19070270041993354 0.1674532536562765 0.58081613588001335 0.043998825337894232 1.0209726672778741 0.45580364155785003 1421.0897999837562 0.16094301021075796 0.12769808233133506
leaf_count=89 142 66 53 47 72 303 35 27 88 42 19 53 29 121 848 72 23 237 156 163 793 28 48 113 27 375 193 7919 42 50
internal_value=0 0.0289547 -0.0320737 0.0546271 0.0156529 0.0425615 -0.110784 0.102325 0.0303679 0.122319 0.0329774 -5.21032e-05 -0.0161934 -0.0329396 -0.0406552 0.0355746 3.04474e-05 0.04041 -0.0078274 -0.0397586 -0.0519775 0.014573 0.0610194 0.0987085 -0.0122363 -0.0446212 0.0607849 -3.16462e-05 0.0803067 0.0987804
internal_weight=0 2.02179 0.598658 1.42313 0.783188 0.669355 0.264829 0.639946 0.333829 0.57538 0.18142 1430.65 7.27948 4.71375 4.4139 0.570806 1423.37 2.18542 0.9893 0.791863 3.84309 2.56572 0.938972 0.748269 1.62675 1.12695 0.499802 1421.18 1.19612 1.03518
internal_count=12273 894 242 652 422 375 101 230 141 203 61 11379 2736 1923 1802 161 8643 701 372 319 1641 813 189 161 624 404 220 7942 329 287
is_linear=0
shrinkage=0.3


Tree=451
num_leaves=31
num_cat=0
split_feature=125 136 266 105 6 183 3 136 124 12 260 131 224 10 260 37 120 189 54 239 176 286 166 220 179 170 97 16 234 70
split_gain=0.0234385 0.0327285 0.0290109 0.0245389 0.0202629 0.0362704 0.0310777 0.0251103 0.0333335 0.027147 0.0389751 0.0256881 0.0247559 0.024726 0.0259574 0.021457 0.0216345 0.0200438 0.0214824 0.0199333 0.0196387 0.0194397 0.0208134 0.0201048 0.0192738 0.0179208 0.0174129 0.0168666 0.0167932 0.0167967
threshold=-0.050029499456286396 -0.047073500230908345 -0.036800500005483537 0.049182498827576603 -0.11784508250982041 -0.049209981098251081 -0.087235499173402689 -0.07205149903893468 0.042344998568296405 -0.0042529544078082826 0.13114699721336362 0.01512266179035301 -0.0055412274038791082 0.02896585913428636 0.060848999768495511 -0.004384815889141875 -0.015117029113508549 -0.032264276989213699 1.0000000180025095e-35 0.045038498938083607 -0.030239272214922102 0.021823999471962407 -0.030897499993443444 0.01176871526809776 -0.0008234999841078499 -0.031494500115513746 -0.016770500689744897 -0.020597499795257997 -0.02872925095120785 -0.027238089136770054
decision_type=2 2 2 2 2 2 2 2 2 2 2 2 2 2 2 2 2 2 2 2 2 2 2 2 2 2 2 2 2 2
left_child=1 2 28 25 5 19 15 8 12 10 -9 -10 -8 14 24 -6 -17 18 -3 27 -20 -19 -23 -24 -7 -4 -22 -2 29 -1
right_child=4 17 3 -5 6 13 7 9 11 -11 -12 -13 -14 -15 -16 16 -18 21 20 -21 26 22 23 -25 -26 -27 -28 -29 -30 -31
leaf_value=0.15698920271781652 -0.12556159361735528 0.054765932620805653 -0.10295243548650958 -0.11981321926222636 -0.14141186858072344 -0.12095788400139695 -0.10238942938341303 0.030199024609489866 -0.16319372331833931 9.2460390758043059e-07 -0.054832310450915869 0.13903127410382732 0.045830281748966778 0.11811554378722589 -0.11885416976153317 0.067742989805403345 -0.12400283423212929 -0.15718745653386004 -0.18440622010680222 -0.18960967490934083 0.11011980060189591 -0.15268334305705894 -0.1005596975871748 0.13793472830998701 0.13774608488388693 0.13372152624043443 -0.15308212811653998 0.1290258309005578 -0.16286162093764592 -0.11917881912308402
leaf_weight=0.041247107345952827 0.042364302891655825 0.18141264815267277 0.032446463172846052 0.050402710172420484 0.23499962757591675 0.033458721885835985 0.60394037722744542 4.7552495182983412 0.031947516486980021 1314.3169484653508 0.54026537297795574 0.12185022542689694 0.12188429704701675 0.45050411793499734 0.099049437470057455 0.12915666424669325 0.089766118275064311 0.31758227461793243 0.096737558837048709 0.077984815347008407 0.058057515772816259 0.089073642830072686 0.055716226618528708 0.074145486767520197 0.1150037078330105 0.25577532388706459 0.0370644046374764 0.052375934075826081 0.094534211128006973 0.038156272580636141
leaf_count=39 24 151 33 78 200 26 527 2715 19 6031 297 67 87 279 69 103 104 438 121 35 29 106 61 59 75 222 43 30 155 50
internal_value=0 -0.0384748 0.0221539 0.0733063 5.6697e-05 0.045806 2.65399e-05 5.3519e-05 -0.0506169 8.72947e-05 0.0215239 0.0762518 -0.0774996 0.0762637 8.79782e-05 -0.0784573 -0.0108796 -0.0726321 -0.0192471 -0.0772798 -0.08923 -0.109774 -0.0409967 0.0356104 0.0794424 0.107078 0.00756276 0.0151838 -0.0774304 0.0242802
internal_weight=0 1.42235 0.512562 0.338624 1321.82 0.870741 1320.95 1320.49 0.879622 1319.61 5.29551 0.153798 0.725825 0.698016 0.247512 0.453922 0.218923 0.90979 0.373272 0.172725 0.191859 0.536518 0.218935 0.129862 0.148462 0.288222 0.0951219 0.0947402 0.173938 0.0794034
internal_count=12273 1585 577 333 10688 538 10150 9743 700 9043 3012 86 614 449 170 407 207 1008 344 89 193 664 226 120 101 255 72 54 244 89
is_linear=0
shrinkage=0.3


Tree=452
num_leaves=31
num_cat=0
split_feature=296 154 23 40 59 124 75 139 192 160 262 21 143 272 170 125 101 71 29 170 202 250 197 88 149 187 48 26 24 233
split_gain=0.0164451 0.0425603 0.0295893 0.0360787 0.0483996 0.0300985 0.0347542 0.0295236 0.0335352 0.0278704 0.0262416 0.0250529 0.0478517 0.0241226 0.0228801 0.0260087 0.0208731 0.020443 0.0296039 0.0440453 0.0323144 0.0298193 0.0357206 0.0273632 0.0263387 0.0253594 0.0330236 0.0250465 0.0231345 0.0452126
threshold=0.035732500255107859 0.02268400043249125 0.026649025642269869 0.019179999828338602 -0.024547725405357716 -0.056051500141620587 0.068087998777627917 0.0024215338357908064 -0.017187078604184985 0.064429392163795812 0.010858499910682402 -0.06559300050139423 0.0082314996980130013 -0.032748787442752877 -0.010563179434885632 -0.007770815083227846 -0.064300040855327659 0.00052800000412385006 0.082401998341083513 -0.035691048347541457 -0.04710949957370749 0.056477346909261102 0.041749998927116359 0.030780000612139653 -0.00089600001228969984 -0.024849690339800553 -0.020303759964689288 -0.099182002246379783 -0.088581191354718855 -0.069550503045320441
decision_type=2 2 2 2 2 2 2 2 2 2 2 2 2 2 2 2 2 2 2 2 2 2 2 2 2 2 2 2 2 2
left_child=17 2 5 16 -5 6 -2 10 -9 -6 14 12 -7 -13 -3 -16 -4 28 20 -20 25 22 -22 24 -21 26 -19 -23 29 -1
right_child=1 7 3 4 9 11 -8 8 -10 -11 -12 13 -14 -15 15 -17 -18 18 19 23 21 27 -24 -25 -26 -27 -28 -29 -30 -31
leaf_value=-0.047685977024481872 -0.13147959893308678 -0.15421098806615732 -0.054282229886302297 0.12464767599038418 -0.12030020749413256 -0.18068469159730158 0.1209865458998953 -0.087928653490518857 0.1117461372486714 0.097757361496346298 -0.14012527315110546 -0.11624244505689275 0.10282866253496983 0.13316844369362954 -0.083933000334156391 0.11909720135384175 0.15342142185372917 -0.093688504359428743 0.07414994847940147 -0.12499856673595905 -0.070770955542639263 -0.17887442337965029 0.069939768206165348 -0.1555642848491669 0.17046002300182195 -0.15699913937803323 0.12775588192352116 0.056983413251180157 -5.1858076041264679e-05 0.049185820104251828
leaf_weight=0.55197009394760277 0.12216832942795042 0.077054479465004988 0.058386447189150203 0.12325233421870507 0.36496217048261315 0.078716873944359 0.082018749526469037 0.11784312816780584 0.21167857709224336 0.061665894660109188 0.27168276769953081 0.036579398787580764 0.16777552185521927 0.76057779463735509 0.097497545953956433 0.13599195184360713 0.17130973019811779 0.17566719897877192 0.13102457487639185 0.057996416231617332 0.59025214082271216 0.042435667390236631 0.2239858003322297 0.41409475080263292 0.051062997197732218 0.20729465072508957 0.092535997428058181 0.89852670643449528 1356.3792668247236 2.0223024014667308
leaf_count=136 45 55 29 46 119 40 28 46 58 28 138 23 46 261 52 44 61 59 62 27 256 14 87 202 13 82 22 301 9426 467
internal_value=0 0.022413 0.0466221 0.000769165 -0.0409427 0.0752683 -0.0300679 -0.0314196 0.0403387 -0.0887816 -0.0720325 0.0958771 0.0122892 0.121724 -0.0124609 0.0343185 0.100625 -5.14876e-05 -0.0252787 -0.081397 -0.00882136 0.00997224 -0.0320633 -0.120354 0.0133389 -0.078194 -0.0172853 0.0463467 2.06641e-06 0.0284148
internal_weight=0 2.93916 2.02741 0.779577 0.54988 1.24784 0.204187 0.911748 0.329522 0.426628 0.582227 1.04365 0.246492 0.797157 0.310544 0.233489 0.229696 1361.84 2.88488 0.654179 2.2307 1.7552 0.814238 0.523154 0.109059 0.475498 0.268203 0.940962 1358.95 2.57427
internal_count=12273 1119 726 283 193 443 73 393 104 147 289 370 86 284 151 96 90 11154 1125 304 821 658 343 242 40 163 81 315 10029 603
is_linear=0
shrinkage=0.3


Tree=453
num_leaves=31
num_cat=0
split_feature=49 211 166 31 150 153 108 91 52 99 83 95 18 259 226 84 292 235 263 108 231 79 44 228 281 122 118 219 18 13
split_gain=0.0176508 0.0361885 0.0402599 0.0310275 0.0285384 0.0275535 0.0271295 0.0385432 0.0362845 0.0304553 0.0343192 0.0269757 0.0451552 0.0528845 0.0491889 0.0481478 0.0468439 0.0391446 0.0368429 0.0336373 0.0331942 0.0416956 0.0332509 0.0312608 0.0309211 0.0294959 0.0324872 0.0285203 0.0267952 0.0258067
threshold=0.074392372317169497 -0.0061277847797026703 -0.068467491627649715 0.03627751920504145 -0.072436999529600088 0.084526497870683656 -0.026925957127446342 -0.029014499858021698 1.0000000180025095e-35 -0.017155000008642597 0.060326000675559009 1.0000000180025095e-35 -0.042398618985982149 -0.060515999794006292 0.013702183378836563 -0.069237500429153387 -0.029240387034653852 0.077690236696819737 -0.016623499803244995 -0.068990997970104134 -0.039560262252895835 0.016677000559866404 0.058328999206423711 0.016544224248384993 -0.069331491116288654 -0.11486950144171708 0.028150998318951421 -0.057160001248121192 -0.046582000330090446 0.015466341071396932
decision_type=2 2 2 2 2 2 2 2 2 2 2 2 2 2 2 2 2 2 2 2 2 2 2 2 2 2 2 2 2 2
left_child=11 2 -2 4 -3 29 7 28 -9 -8 -11 25 16 20 17 -16 18 -15 27 -20 21 -14 -22 24 -18 26 -1 -13 -4 -6
right_child=1 3 6 -5 5 -7 9 8 -10 10 -12 12 13 14 15 -17 23 -19 19 -21 22 -23 -24 -25 -26 -27 -28 -29 -30 -31
leaf_value=0.11807993614485962 0.080904586834268641 -0.15267293458254416 -0.029475369805952528 -0.072562253576508348 0.1212645275328143 -0.10872683639320209 0.08642092314261797 0.049660472440858298 -0.082959380221455922 -0.072432873639944537 0.043753214674160275 -0.02084750182298498 0.15767740503598549 -0.089846963023801948 -0.099611647209764662 0.00041722382568567428 0.14521567797158477 0.058358518494655787 0.15390790453852973 -0.053915364559707836 -0.057555269609098056 -0.029109005443020482 0.131328084769299 0.096495918766510785 -0.09606366154183163 1.5918942639930273e-06 -0.045367854005547575 0.14278377921724977 0.12820674887635933 -0.010172907572973471
leaf_weight=0.37742077484290248 0.50060575086172354 0.046007817669305839 0.1317338414482947 0.13713486600317981 0.84747751356832057 0.060076311785905889 0.16311293990833098 0.34819855341629613 0.39778685691817373 1.1945338098098539 0.28301967900551961 0.1184162774006835 0.3033348444114381 1.9152539105195949 0.52659205514919438 2.4387940038454876 0.053402711942908354 0.17505296213630561 0.091272509000191349 0.30206592306603841 0.40915105700241827 0.16664880636744783 0.10551079732249491 0.1253112952445008 0.45590110826560692 1419.0150530707008 0.15414408867582097 0.50340792619317654 0.36777155223535374 0.15979134232111392
leaf_count=145 165 16 39 62 340 22 83 159 157 408 95 45 68 962 246 1171 15 101 27 115 227 62 27 57 192 6872 83 132 112 68
internal_value=0 0.0184707 0.00236705 0.062085 0.0786699 0.0886419 -0.0112553 0.0221274 -0.0210573 -0.0365974 -0.0501779 -6.79361e-05 -0.0177881 -0.0298022 -0.0421903 -0.0173459 0.0261992 -0.0774355 0.0661681 -0.00569086 0.0338049 0.0914459 -0.0188323 -0.0377372 -0.0707645 2.80594e-05 0.0706831 0.111623 0.0866215 0.100414
internal_weight=0 4.63725 3.38676 1.25049 1.11335 1.06735 2.88616 1.24549 0.745985 1.64067 1.47755 1427.24 7.69012 6.04034 5.05569 2.96539 1.64978 2.09031 1.01516 0.393338 0.984646 0.469984 0.514662 0.634615 0.509304 1419.55 0.531565 0.621824 0.499505 1.00727
internal_count=12273 1726 1218 508 446 430 1053 467 316 586 503 10547 3447 2864 2480 1417 583 1063 319 142 384 130 254 264 207 7100 228 177 151 408
is_linear=0
shrinkage=0.3


Tree=454
num_leaves=28
num_cat=0
split_feature=69 89 64 230 38 64 210 113 57 227 75 192 26 248 88 124 67 243 27 37 84 178 45 59 258 178 161
split_gain=0.0198437 0.0186323 0.0264247 0.0277882 0.0242648 0.0243986 0.0211427 0.0210033 0.0205128 0.0193679 0.0337656 0.0413464 0.0322794 0.0182194 0.017086 0.0187531 0.0147002 0.0122907 0.00739889 0.00270423 0.00137686 1.74581e-05 1.61557e-08 5.74419e-09 5.63143e-09 2.42726e-09 1.38001e-09
threshold=-0.10461537478473359 -0.054949409145038451 -0.037830084270438713 1.0000000180025095e-35 -0.062984500080346992 0.0081809743924478057 -0.02276214779852483 0.074361000210046754 -0.15218649804592127 -0.0035621824301128348 0.057521501556038808 -0.038307742066681909 0.0016191745527113549 -0.010405499953776548 0.065614454318239535 -0.033425999805331195 0.031375760207778734 0.013838608025900399 0.030463071409506024 -0.038868285692268682 -0.064429701379835044 -0.010013186271171095 -0.075985997915267889 -0.022604678042068293 -0.054691499099135343 -0.00044350000098339993 -0.08703950047492974
decision_type=2 2 2 2 2 2 2 2 2 2 2 2 2 2 2 2 2 2 2 2 2 2 2 2 2 2 2
left_child=16 2 3 13 21 7 -7 -6 17 10 11 -10 -12 18 15 -5 20 23 -2 -16 -1 -4 -22 -3 26 -25 -24
right_child=1 8 4 14 5 6 -8 -9 9 -11 12 -13 -14 -15 19 -17 -18 -19 -20 -21 22 -23 24 25 -26 -27 -28
leaf_value=-0.099837778660618368 -0.054071255609850176 -0.20043551507271509 -0.18808594290464789 -0.18211629632359433 0.090811496712702278 -0.18534292259056695 0.033143056273487487 -0.09738255049397386 -0.021242931722889553 -2.6913567818786539e-05 -0.020571499063461483 0.049676674792874125 0.045396417060436532 -0.14158416602118418 -0.11726568928586134 0.082961570293159634 0.084122886389522589 0.023293850268266764 0.15440352091568996 -0.19580198618784417 -0.20055444210271697 -0.20025139555545213 -0.20023043260621778 -0.20030196789981136 -0.20037004524601157 -0.20016895278942015 -0.20010236389115263
leaf_weight=0.014756695167307043 0.019997566198071581 0.021189149520068895 0.015123876473808195 0.042275741963749169 0.32928086489402975 0.081744524147779885 0.07779975637276948 0.063697157965407314 0.9603268242886428 1313.5250057605508 2.949187481285009 3.2226872593849114 0.86290555977200245 0.039084103440870877 0.049503564070619177 0.055623018878577568 0.023440142853360157 0.031725390567771683 0.065524180470674764 0.19446778269571041 0.022215819539269432 0.035622299201065744 0.014965685841161758 0.031703966116765514 0.020228577435317585 0.020222244027080616 0.015328716136082221
leaf_count=11 22 8 13 33 191 60 50 46 747 6079 1860 2085 586 39 20 40 18 29 60 117 8 34 12 25 15 30 35
internal_value=0 2.01275e-05 -0.0395565 -0.0931765 0.00190503 0.020139 -0.078801 0.0603074 5.21615e-05 6.26886e-05 0.0147835 0.0333951 -0.005639 0.0281061 -0.137382 -0.0315073 -0.126866 -0.132642 0.105656 -0.179866 -0.183391 -0.196626 -0.200341 -0.200304 -0.200247 -0.20025 -0.200166
internal_weight=0 1322.69 1.06974 0.466476 0.603268 0.552522 0.159544 0.392978 1321.62 1321.52 7.99511 4.18301 3.81209 0.124606 0.34187 0.0978988 0.110936 0.104841 0.0855217 0.243971 0.0874955 0.0507462 0.0727388 0.0731154 0.050523 0.0519262 0.0302944
internal_count=12273 12174 725 331 394 347 110 237 11449 11357 5278 2832 2446 121 210 73 99 92 82 137 81 47 70 63 62 55 47
is_linear=0
shrinkage=0.3


Tree=455
num_leaves=31
num_cat=0
split_feature=245 13 21 172 173 276 6 77 200 63 137 44 152 201 169 112 76 252 111 76 284 291 243 272 187 9 293 273 133 256
split_gain=0.0154032 0.0217511 0.0237723 0.0243865 0.0241625 0.0218037 0.0213585 0.0212619 0.0189193 0.0172737 0.0305695 0.0341859 0.0316919 0.0291335 0.0269026 0.0361589 0.0240945 0.0277938 0.0272569 0.0180856 0.0176585 0.0434939 0.0575191 0.0523037 0.0508527 0.0483908 0.0403238 0.0382912 0.0303287 0.0524021
threshold=0.040649000555276857 -0.13205350190401069 0.019904999993741502 0.066066511521419999 -0.027618999592959846 -0.06018375166529389 -0.0020505000138654997 -0.010899499990045998 -0.038040500134229591 0.026823915396719491 -0.065070498734712587 -0.017244999296963149 -0.10410900041460984 -0.08141376621913643 -0.042208500206470441 0.022179499268531754 -0.082080498337745597 -0.066311470115884216 0.047542000189423506 0.0077834997791796506 0.064922927447590401 -0.017838500440120645 -0.094118501991033485 0.087741423612875 0.013731500133872003 0.036045501008629757 -0.016627139344916688 -0.029141999781131696 -0.010141221239232201 -0.0003975494996729427
decision_type=2 2 2 2 2 2 2 2 2 2 2 2 2 2 2 2 2 2 2 2 2 2 2 2 2 2 2 2 2 2
left_child=9 -2 3 5 -4 7 -5 -3 -7 20 16 12 -12 -14 15 -13 -11 -18 -19 -16 28 25 24 -24 -23 26 -22 -27 -1 -30
right_child=1 2 4 6 -6 8 -8 -9 -10 10 11 14 13 -15 19 -17 17 18 -20 -21 21 22 23 -25 -26 27 -28 -29 29 -31
leaf_value=-0.020205439712339446 -0.14689072670930678 -0.095038172029350679 -0.098402283199172338 -0.10104600444340624 0.070163427995617852 0.054225937687644013 0.1135419796090279 0.074913112682882338 0.14022882784909041 0.096412590219103436 0.16569505606210824 0.043636816968738432 0.056090335808979604 -0.080693570072641135 0.037657785767178147 -0.13048706658544179 0.17975490240731101 -0.13088882964760176 -0.010493888900142974 0.15507233427030084 0.13738425874411517 -0.12856504101173602 -0.0065609094878231718 0.072354090854924405 0.064699598331368346 0.13241194032685627 0.042449714165313908 -0.055407581314266659 0.049235515581338846 -4.4001570074632324e-05
leaf_weight=6.7011052021384776 0.062346432998310664 0.13305003105779178 0.21626609946542885 0.15649736269551795 0.11844990229292296 0.61219484302273453 0.056930662089143769 0.13196009736566305 0.36894726022728674 0.073142620356520638 0.062272200957522839 0.33909275279438589 0.17196897983819792 0.75718892709483032 0.27516355406089466 0.15704546809138265 0.034694236906943843 0.55996832716618916 0.24254384676896734 0.20680313455522992 0.53323835670016784 0.52447368958382856 3.6439656556922255 0.95372007535479486 0.15988693739927839 0.11694876525143627 1.6445991321488689 0.59330078703351308 1.9448562423742703 1342.3176454805837
leaf_count=2256 22 52 85 52 56 238 20 54 123 21 30 149 76 402 129 68 11 316 108 71 108 133 1052 270 35 33 410 164 625 5104
internal_value=0 0.0273057 0.0333585 0.0498946 -0.0387499 0.0659427 -0.0438059 -0.010412 0.0865663 -3.815e-05 -0.0232477 -0.00223416 -0.0414919 -0.0553775 0.0375584 -0.0114796 -0.0687105 -0.0831364 -0.0945018 0.0880382 1.10291e-05 0.0139162 -0.0022693 0.00980881 -0.0834127 0.0435179 0.0656942 -0.0244815 -7.3064e-05 2.72952e-05
internal_weight=0 1.85664 1.7943 1.45958 0.334716 1.24615 0.213428 0.26501 0.981142 1362.01 2.87988 1.96954 0.99143 0.929158 0.978105 0.496138 0.910349 0.837206 0.802512 0.481967 1359.13 8.17013 5.28205 4.59769 0.684361 2.88809 2.17784 0.71025 1350.96 1344.26
internal_count=12273 702 680 539 141 467 72 106 361 11571 1381 925 508 478 417 217 456 435 424 200 10190 2205 1490 1322 168 715 518 197 7985 5729
is_linear=0
shrinkage=0.3


Tree=456
num_leaves=31
num_cat=0
split_feature=245 262 201 263 95 9 242 49 45 20 93 218 78 19 73 140 71 224 129 293 5 103 151 188 232 55 153 251 148 221
split_gain=0.0185495 0.0402401 0.0487909 0.0391264 0.0531014 0.0441411 0.0362052 0.041919 0.0385894 0.0386068 0.0361213 0.0396887 0.0358348 0.0356441 0.0357633 0.0378347 0.0528345 0.0465874 0.0402026 0.0427947 0.0323602 0.0309007 0.0313472 0.0306004 0.0304911 0.0280638 0.027595 0.0269499 0.0266938 0.0272984
threshold=-0.044674437886792824 -0.038631605613199498 -0.059081498533487244 -0.023917861212685593 0.071255138961953388 -0.0037248927207153199 -0.020976999774575195 0.010432570961862344 -0.0028389999642967996 0.010464242611985697 -0.034617500379681546 -0.098882000893354374 -0.042940499261021538 0.014825500082224602 0.03196049854159351 -0.053974829733510664 -0.084879498928785282 -0.15113999694585792 -0.028848264839010474 -0.050606001168489394 0.0028719999827444506 -0.032535500824451398 0.0037609999999403503 -0.027182999998331046 0.071786500513553606 -0.03825850039720529 -0.048662500455975442 -0.042105749054246862 0.026213039845443195 0.0059309999924152508
decision_type=2 2 2 2 2 2 2 2 2 2 2 2 2 2 2 2 2 2 2 2 2 2 2 2 2 2 2 2 2 2
left_child=13 2 24 4 10 21 7 25 9 -8 12 -12 -3 28 -15 16 -16 -18 23 -20 -9 -5 -23 -17 26 -4 -2 -10 -1 -30
right_child=1 3 6 5 -6 -7 8 20 27 -11 11 -13 -14 14 15 18 17 -19 19 -21 -22 22 -24 -25 -26 -27 -28 -29 29 -31
leaf_value=0.07445426637747761 -0.1182866968105977 0.085803073181022579 0.076001478753587537 0.0787733768841858 -0.10861176891738704 -5.4790656406094081e-07 -0.10874111118812126 0.047315643784207516 -0.18138482305580342 -0.035147496833759583 -0.068562335767756125 0.062544159434937893 -0.10464478541646785 0.081571167508166079 -0.10305356293921329 -0.1209352463942375 -0.14795918259444041 0.083938171805472847 0.13006827911757679 -0.040315316170995333 -0.04640287215042551 -0.09549885498589343 -0.00428219112773602 0.095801900722423464 -0.10324705376815303 -0.15888802682093719 0.086159481342807293 0.051082689551815601 -0.11118671861272843 0.0053413562637238442
leaf_weight=0.15652121011817044 0.065685218258295208 0.13152480912322062 0.057788210240687476 0.1532419401119115 0.22831277993827814 1414.5174628249124 1.2540415280557229 1.0149456463470867 0.05064905633116723 1.3135106450254168 0.22503370191407235 2.7146844925350693 0.27449674129457058 0.88307625644665666 0.17800639844244859 0.0676455753209666 0.082815913920057826 1.3320619150399573 0.14314169891258632 1.8137482255397124 0.49249159055659664 0.94507055061785517 0.52879300446511479 0.43977883130355611 0.11030172589289577 0.22027556848070151 0.62269672377715313 0.39420488351390703 0.42769491821854899 0.31359859589065309
leaf_count=75 17 46 18 67 115 5410 621 322 24 541 72 894 128 398 38 50 24 356 60 660 199 657 365 174 114 125 213 146 221 123
internal_value=0 -7.83166e-05 -0.0254667 2.17654e-05 0.0313711 -5.73537e-05 -0.0368952 -0.0030453 -0.0569586 -0.071092 0.0409235 0.052508 -0.042952 0.0168666 0.0268597 0.0149513 0.050985 0.0703647 -0.00834014 -0.0278522 0.0166971 -0.0494413 -0.0627721 0.0669083 0.0431876 -0.110072 0.0666513 0.024615 -0.0381206 -0.0618904
internal_weight=0 1425.32 5.59659 1419.72 3.57405 1416.14 4.79791 1.7855 3.01241 2.56755 3.34574 2.93972 0.406022 5.83809 4.94027 4.0572 1.59288 1.41488 2.46431 1.95689 1.50744 1.62711 1.47386 0.507424 0.798684 0.278064 0.688382 0.444854 0.897815 0.741294
internal_count=12273 10094 2340 7754 1255 6499 1996 664 1332 1162 1140 966 174 2179 1760 1362 418 380 944 720 521 1089 1022 224 344 143 230 170 419 344
is_linear=0
shrinkage=0.3


Tree=457
num_leaves=31
num_cat=0
split_feature=17 269 9 45 104 205 145 195 5 170 262 135 268 289 194 221 263 131 219 251 198 13 250 207 240 30 253 34 235 9
split_gain=0.0184247 0.0316716 0.0331634 0.0302009 0.0262568 0.0249777 0.0244483 0.0239567 0.0230465 0.0226838 0.023512 0.0455003 0.0472251 0.0319292 0.030146 0.0279272 0.0254971 0.0251886 0.0208831 0.0179476 0.016571 0.0129438 0.010793 0.00945803 0.00648712 0.00613941 0.00169917 0.000869602 6.47287e-08 1.37828e-08
threshold=-0.037424499168991994 0.14463549852371213 0.052004499360918957 -0.06669328942488556 -0.048597680767568686 -0.089166138597009642 0.0118915000930428 0.080784141573055759 0.00073097307661843891 -0.085439804731819294 -1.0000000180025095e-35 0.017705000005662403 -0.019755000248551296 -0.068070501089095986 -0.0036302764440682071 -0.064156180923647679 0.011384466285387468 0.073939498513936955 0.0058054998517036013 -0.049771001562476137 0.052458821345444141 -0.086390998214483192 -0.0051104366579355518 -0.079982999712228733 -0.010160999838262748 -0.056962000206112841 0.031289499253034557 -0.011402519423357791 0.0047436661704248562 0.049815500155091258
decision_type=2 2 2 2 2 2 2 2 2 2 2 2 2 2 2 2 2 2 2 2 2 2 2 2 2 2 2 2 2 2
left_child=1 2 3 7 19 -4 -6 18 -9 20 11 12 14 -14 -11 16 -13 -17 -1 -5 26 -3 -22 -7 -25 -23 29 -27 -29 -2
right_child=9 21 5 4 6 23 -8 8 -10 10 -12 15 13 -15 -16 17 -18 -19 -20 -21 22 25 -24 24 -26 27 -28 28 -30 -31
leaf_value=0.12205335935423901 -0.20024676518012835 0.044714203591971029 0.15277587971164455 0.13495447079001396 0.019071510980127885 0.18441043261651502 -0.074015198289029971 -0.13453224679112818 0.1019417705604941 -0.051143195137700208 -1.7912804352532856e-05 -0.10384233736521013 -0.12742333765154945 0.14970691033927103 0.075001794346782877 0.020619129924605115 0.065214154947618938 -0.04370283710338458 -0.01391804842473277 -0.15073434228972438 0.17141583107066841 -0.024207555012758217 -0.10517259519989611 0.036138012670033394 -0.20030195047733956 -0.13984098347647195 -0.1099626268927095 -0.20078743972548746 -0.2003351258074946 -0.200495804138561
leaf_weight=0.34629970481341921 0.050347965478521384 0.029804018886352424 0.024373954889597371 0.021924299740931019 0.78558274591864419 0.006483912904513999 0.37521625473362974 0.10482941991449479 0.057403085818805266 0.32454997409217867 1313.2269289999924 0.35180905706351939 0.040141031231542001 0.55126546564406342 0.35921934833487512 4.2732980129412113 0.10403481211506005 0.62852484217296467 0.14390068334978423 0.20336739613941368 0.024434860595192731 0.022959109131079458 0.026433449076876059 0.011178398772472065 0.15888908406623148 0.025488482224318432 0.024127157092380003 0.042452544177649432 0.086481420401014475 0.033182275103172287
leaf_count=248 65 20 12 16 703 5 403 75 46 264 6028 264 38 269 207 2344 87 414 97 208 15 31 33 10 231 24 24 19 58 15
internal_value=0 -0.0259994 -0.0156174 -0.00415598 -0.0292081 -0.131902 -0.0110178 0.0490672 -0.0508601 5.84454e-05 7.20748e-05 0.0178886 0.0688195 0.130897 0.0151273 0.00576655 -0.0652595 0.0123716 0.0821383 -0.122932 -0.113417 -0.138217 0.0276881 -0.171203 -0.184761 -0.168954 -0.18009 -0.190474 -0.200484 -0.200346
internal_weight=0 2.44663 2.23945 2.03852 1.38609 0.200925 1.1608 0.652433 0.162233 1320.02 1319.86 6.63284 1.27518 0.591406 0.683769 5.35767 0.455844 4.90182 0.4902 0.225292 0.158526 0.207186 0.0508683 0.176551 0.170067 0.177382 0.107657 0.154422 0.128934 0.0835302
internal_count=12273 2206 2054 1796 1330 258 1106 466 121 10067 9915 3887 778 307 471 3109 351 2758 345 224 152 152 48 246 241 132 104 101 77 80
is_linear=0
shrinkage=0.3


Tree=458
num_leaves=31
num_cat=0
split_feature=194 188 145 273 243 86 230 169 214 261 268 67 109 153 220 256 29 142 247 260 122 60 154 110 291 124 149 74 33 110
split_gain=0.0152306 0.0392003 0.0400418 0.0394903 0.034251 0.039971 0.0409334 0.0339665 0.0334161 0.0481336 0.051281 0.0438431 0.0381299 0.0421003 0.0430647 0.0338235 0.0798991 0.0533153 0.0524611 0.046549 0.0372591 0.03576 0.0334544 0.0331365 0.0319987 0.0317993 0.0315729 0.0311596 0.0307717 0.0298076
threshold=-0.022544123397736111 -0.035372499376535339 -0.090321999043226187 0.055679355349390038 0.028363394238188532 0.020363323548623611 0.038701999932527452 0.0023033913603268713 -1.0000000180025095e-35 0.046771498560073559 -0.028975499793887097 -0.051752500236034345 0.037570686895113579 -0.0018368407810779237 0.046455873896495199 -0.0003975494996729427 0.0082175000570714005 -0.00036399999225974995 -0.025008500553667497 0.11391676466516966 -0.091386001557111698 -0.0048094116965439046 -0.012023499701172049 0.039567310335167895 0.055764147241153937 -0.030626590714091979 -0.05096775106432487 -0.018902667122734782 -0.020727000199258248 0.093547001481056172
decision_type=2 2 2 2 2 2 2 2 2 2 2 2 2 2 2 2 2 2 2 2 2 2 2 2 2 2 2 2 2 2
left_child=1 3 -3 28 7 6 -6 24 9 10 11 -2 25 14 -14 16 17 21 19 -18 -20 -10 -15 -9 -4 -11 -12 -27 -1 -13
right_child=8 2 4 -5 5 -7 -8 23 15 12 26 29 13 22 -16 -17 18 -19 20 -21 -22 -23 -24 -25 -26 27 -28 -29 -30 -31
leaf_value=0.12777866303214994 -0.14943635503437702 0.1318721330129432 0.01256394176479542 -0.068741705699659872 -0.041853669771679765 -0.11407516095538316 0.12332162360974047 -0.084030933901951904 0.081383585477065964 -0.024604112116799047 0.041324642298568762 0.031683014970016167 0.018281144963205452 -0.1330561156663585 -0.11337620370729745 -7.07817006188931e-05 0.0058725469629387064 0.16651846389381228 0.059612102107685042 0.11620850704240314 -0.050998625978884597 -0.12227726933333573 -0.021876351139255804 0.01959345286240732 0.10630762645995383 0.096051723402153469 -0.17108969169296934 -0.031229325441207212 0.033976827009776368 -0.2005610220734777
leaf_weight=0.57432828880996556 0.19632871519570472 0.213635608968615 5.1053752812574649 0.19462951711466292 0.56917715627423582 0.47392262215771552 0.17702771788754035 0.63355459446393048 0.24580783581041032 0.5741958097027009 0.072593658594996668 0.59636213563135243 1.5314450318182933 0.49553733101265607 0.2618296314140024 1343.7390656806806 0.92320966788247483 0.53501074641098867 0.33939318859847833 0.54862922019674443 1.4242818602215264 0.11338564469770063 0.47906826558323734 0.49451102317698314 0.3501896315410703 0.70999750697262698 0.47546190122011356 0.22891564589644964 0.69642028586804272 0.054262652003671974
leaf_count=191 64 90 1556 93 300 274 55 269 68 194 33 233 461 174 94 5674 285 77 121 81 516 38 189 161 133 235 200 85 307 22
internal_value=0 0.0119808 0.00373456 0.0570978 0.000226667 -0.0459408 -0.00266791 0.00878276 -8.41991e-05 -0.0230544 -0.0714503 -0.0251809 -0.00728411 -0.0282177 -0.000941674 1.25307e-05 0.027121 0.106496 0.00518387 0.0470004 -0.0297132 0.0170945 -0.0784056 -0.038605 0.0185813 0.031009 -0.142954 0.0650194 0.0763716 0.0123137
internal_weight=0 9.48277 8.01739 1.46538 7.80376 1.22013 0.746205 6.58363 1353.54 5.676 1.39501 0.846954 4.28099 2.76788 1.79327 1347.87 4.12972 0.894204 3.23551 1.47184 1.76368 0.359193 0.974606 1.12807 5.45556 1.51311 0.548056 0.938913 1.27075 0.650625
internal_count=12273 3429 2838 591 2748 629 355 2119 8844 1984 552 319 1432 918 555 6860 1186 183 1003 366 637 106 363 430 1689 514 233 320 498 255
is_linear=0
shrinkage=0.3


Tree=459
num_leaves=31
num_cat=0
split_feature=59 190 196 73 19 234 48 164 84 86 18 204 96 229 191 241 46 267 53 121 63 160 101 86 42 91 171 7 190 282
split_gain=0.018045 0.0247648 0.0237053 0.027511 0.0284761 0.0253175 0.0306346 0.0246791 0.0191489 0.0231304 0.0171329 0.0345518 0.0424249 0.0378112 0.0377626 0.0313012 0.0394182 0.0436953 0.0351734 0.0297632 0.0272662 0.0368022 0.0355181 0.0295462 0.0262524 0.0330873 0.0250903 0.0250605 0.0240428 0.0341554
threshold=0.082684498280286761 -0.095955715775567871 0.022788194980483418 0.026244999840855553 0.0064600000623613509 -0.05440450087189664 0.023576499894261301 -0.047736499458551393 -0.039002335699630263 -0.0020999999251215995 0.0036289999261498005 -0.011347724742786855 0.075158998370170552 0.1012487703973259 -0.044489006292099544 -0.05634750053286549 0.073904397205444242 0.031399824103418843 0.061459500342607457 0.099487289236963802 -0.092053046723485632 -0.059593499379458452 -0.1130972212162831 -0.016783681550500664 -0.061499586484143012 -0.016334000043570947 -0.036952745776333736 -0.014323521877291214 -0.023217999376356546 -0.025313999503850847
decision_type=2 2 2 2 2 2 2 2 2 2 2 2 2 2 2 2 2 2 2 2 2 2 2 2 2 2 2 2 2 2
left_child=10 -2 5 -4 -5 8 -7 -6 -3 -10 15 12 13 14 -12 16 17 18 -1 24 21 -17 -22 -23 27 -26 -24 -13 -18 -30
right_child=1 2 3 4 7 6 -8 -9 9 -11 11 19 -14 -15 -16 20 28 -19 -20 -21 22 23 26 -25 25 -27 -28 -29 29 -31
leaf_value=-0.053094383677811045 -0.15253210659274039 -0.16620828926005071 -0.1146090131573929 -0.10647634152541442 -0.13557071000217141 0.1136218372761018 -0.072300855678269715 0.080655088078748105 0.20059479965519164 -0.075510625058976863 0.013025925397835465 0.097509839032691698 0.098320016758413939 0.14896537690477218 -0.07347680474164571 0.06942772349318023 0.15504405524453577 0.11627324110835155 0.036299625430181698 -0.11680434415752325 0.079494589737735585 0.031184754089478108 -0.028131487419936256 -0.14476010224020841 0.039367065886309678 -0.034727407486404641 1.651956165585587e-05 -0.10988211331795422 0.1271106780851354 -0.14132674486354474
leaf_weight=0.75192978865993543 0.064408613216073607 0.063271137012634426 0.15604955898379558 0.11753459730243776 0.053164955344982445 0.68470230505590635 0.090277147806773428 0.44639082045432588 0.047005707980133593 0.065161648541106731 0.57975053864311243 0.47197254998673088 0.18926089590877371 0.08459702029449534 2.0972879778562401 0.14502068338333629 0.3361470968084177 0.31521149402306026 0.8371694339075475 0.16441130387465808 0.50551436963564711 0.11247277311849757 2.8558058762648661 0.36357542752398231 1.0227559058281208 1.154928996414496 1416.3640680778219 0.058992635560571993 0.10538538841137779 0.071672087397018802
leaf_count=309 34 33 75 44 15 249 31 175 15 27 292 241 76 31 1298 33 66 129 221 92 177 38 1277 123 450 685 5919 39 45 34
internal_value=0 0.0301096 0.0369348 -0.0020737 0.0263842 0.0686672 0.0919638 0.0576434 -0.0342427 0.0401962 -4.77106e-05 -0.016286 -0.0390865 -0.0485032 -0.0547434 1.87595e-05 0.0341261 0.0142395 -0.00599982 0.00713211 -3.92932e-05 -0.062884 -1.18014e-05 -0.103191 0.0146549 7.12726e-05 -4.01209e-05 0.0744677 0.107918 0.0184484
internal_weight=0 1.78797 1.72356 0.77314 0.61709 0.950418 0.774979 0.499556 0.175438 0.112167 1428.59 5.82396 2.9509 2.76164 2.67704 1422.76 2.41752 1.90431 1.5891 2.87306 1420.35 0.621069 1419.73 0.476048 2.70865 2.17768 1419.22 0.530965 0.513205 0.177057
internal_count=12273 698 664 309 234 355 280 190 75 42 11575 3204 1697 1621 1590 8371 804 659 530 1507 7567 194 7373 161 1415 1135 7196 280 145 79
is_linear=0
shrinkage=0.3


Tree=460
num_leaves=31
num_cat=0
split_feature=241 25 256 30 209 44 226 246 173 294 150 48 267 255 57 19 297 49 219 1 165 190 3 220 249 108 266 7 168 87
split_gain=0.0181531 0.0292388 0.026043 0.0210751 0.0188293 0.0252768 0.0326456 0.0522224 0.0365055 0.0306231 0.0326139 0.0315616 0.0310048 0.030196 0.0596676 0.0297807 0.023973 0.024331 0.0231988 0.0226529 0.0211267 0.0204626 0.0200654 0.0181474 0.0156381 0.0154539 0.0175629 0.0214108 0.0151831 0.014984
threshold=-0.074149083404905169 -0.071297692145703181 0.017093500122427902 -0.045518498867750092 -0.041048498824238694 -0.011980132160394718 -0.00087349896291885468 0.00054199999431140007 -0.056786499917507095 -0.064017999917268684 0.0028694999637081504 0.0053119999356567504 0.037836499512195552 -1.0000000180025095e-35 -0.030976734917205002 0.10575775985982906 -0.0028443128014548741 0.098449498414993217 -0.060289999470114645 -0.053988499566912596 0.020954999141395054 -0.022777286832664025 -0.046364000067114795 0.06264350190758701 -0.024515265360981125 -0.070829254512772777 -0.016788000240921946 -0.0054430000018327986 0.015627887538516728 0.037675925994523025
decision_type=2 2 2 2 2 2 2 2 2 2 2 2 2 2 2 2 2 2 2 2 2 2 2 2 2 2 2 2 2 2
left_child=1 3 25 28 16 9 7 15 -9 10 18 12 -11 14 -8 -7 17 19 -6 -2 29 -13 -12 -4 -5 -3 27 -27 -1 -18
right_child=4 2 23 24 5 6 13 8 -10 11 22 21 -14 -15 -16 -17 20 -19 -20 -21 -22 -23 -24 -25 -26 26 -28 -29 -30 -31
leaf_value=0.14198158737925531 0.098872382988413068 -0.15755082714988089 -0.1210926087071966 0.045275362104475331 0.02041311848602452 -0.11307016468132544 -0.00040458655203223158 -0.20029761632137857 0.052893715123340353 0.056617227766144695 -0.11016305332804918 0.0041368844389093112 -0.033282817149683279 -1.8743005055924521e-05 0.097574563405125284 0.04361437474584292 0.11953645715939014 0.11493798631177565 -0.1697299020827798 -0.14736482485801589 -0.15107957081294798 -0.14363253644436896 0.047411903337142958 0.10448767733493625 -0.15449108604995754 -0.10754856329409403 0.10205884963662817 0.15467180120215193 -0.090369752949529938 -0.10032600567838697
leaf_weight=0.049632789517374931 0.037562832830190018 0.031906217578750784 0.18463650591934311 0.039775718279997818 0.082019497373494232 0.75646389880048903 1.6373690023457075 0.057118569852718792 0.4989203868261427 2.6921905258109575 0.09037235305211766 0.24120580271846848 0.39605779681914999 1312.1007203654754 0.84966835477589953 0.12758941386414335 0.13919493383639192 0.043959336721172804 0.19515953792603102 0.32071747587247046 0.047061030957479488 0.12968621556103688 0.37256755240696293 0.038849662150369113 0.31120814499229255 0.094665291814408192 0.27905428737642413 0.039810206041693164 0.051652482188728754 0.03489058357263275
leaf_count=40 28 50 189 32 66 453 1060 67 314 1903 105 255 279 5030 517 98 151 39 237 248 50 134 280 27 258 69 192 22 45 35
internal_value=0 -0.0381453 0.00169034 -0.0970637 4.39377e-05 6.85507e-05 -5.59933e-06 -0.0451497 0.0268849 0.0233068 -0.0320782 0.035157 0.0450878 4.38547e-05 0.0330689 -0.0904569 -0.0520824 -0.095704 -0.113465 -0.121549 0.0272601 -0.0475322 0.0166511 -0.0818789 -0.131852 0.0436191 0.0591405 -0.0299207 0.0234893 0.0754712
internal_weight=0 1.12119 0.668922 0.452269 1320.85 1320.23 1316.03 1.44009 0.556039 4.19926 0.740119 3.45914 3.08825 1314.59 2.48704 0.884053 0.623386 0.40224 0.277179 0.35828 0.221147 0.370892 0.46294 0.223486 0.350984 0.445436 0.41353 0.134475 0.101285 0.174086
internal_count=12273 924 549 375 11349 10798 7539 932 381 3259 688 2571 2182 6607 1577 551 551 315 303 276 236 389 385 216 290 333 283 91 85 186
is_linear=0
shrinkage=0.3


Tree=461
num_leaves=31
num_cat=0
split_feature=299 272 209 234 220 291 95 165 88 66 30 70 78 112 268 218 273 132 145 100 184 180 230 67 261 150 240 128 186 18
split_gain=0.0143155 0.0366977 0.0352563 0.0271728 0.0251259 0.0371174 0.0316584 0.0297104 0.0250806 0.0388454 0.036098 0.0327263 0.0293756 0.0336808 0.0405019 0.0414058 0.0390857 0.0379312 0.0440387 0.0437337 0.0323527 0.0348672 0.0293359 0.0280471 0.0256639 0.0248799 0.0262715 0.0221625 0.0218844 0.0216867
threshold=0.095972999930381761 0.0084678792957271262 0.056842602685684328 -0.070309501141309697 0.024195499718189201 -0.012173023299707418 -0.00074545700128076829 -0.042406000196933698 0.060285116621923242 -0.067617002874612739 0.044366501271724652 0.0035011063582024477 -0.11329849809408184 0.029040999710559803 -0.070376500487327534 -0.072253499180078437 0.043030900238568502 0.0068433971327694675 -0.070452999323606436 -0.13237800449132911 -0.059852202508322259 -0.022729000076651497 0.029293499886989555 0.044858999550342511 0.11104564054875302 0.0028694999637081504 0.071547500789165455 0.10189949721097942 0.0042835001368075514 -0.075939998030662481
decision_type=2 2 2 2 2 2 2 2 2 2 2 2 2 2 2 2 2 2 2 2 2 2 2 2 2 2 2 2 2 2
left_child=8 2 -2 -3 27 6 -6 -7 9 10 11 22 20 17 16 -16 -15 18 -14 -19 21 -10 -1 -22 -13 -12 -27 -5 -29 -11
right_child=1 3 -4 4 5 7 -8 -9 12 29 25 24 13 14 15 -17 -18 19 -20 -21 23 -23 -24 -25 -26 26 -28 28 -30 -31
leaf_value=0.12319446826770689 -0.095160874663086939 -0.078285572860725752 0.12432805512089444 0.13175186824276675 -0.0075796346809025505 0.058386210362923824 0.17795364566994054 -0.12390881513810628 0.18089297565805479 -0.07031512293875955 -0.15123212365562502 -0.055630477457199484 0.090537488462204579 0.086708436088133736 -0.1230719815639144 -0.0028531155221501762 -0.079525737627519619 0.041620010286833486 -0.059569324541693995 -0.032919892805539232 0.10965059431713013 -0.14158377097984856 0.032184832545387024 -0.064660516759667719 0.12517891839558973 0.12998691001048773 -0.090298350621008605 0.12823196903977144 -0.10962945644808265 4.4253526362216228e-05
leaf_weight=0.71436011211449046 0.33659087921114306 0.13777687917900028 0.081889054417842999 0.51974348241128587 0.15495774276496377 0.13525321255292511 0.17768689386139158 0.19863415197505674 0.038907303591258824 0.39438473557720399 0.13053545112052223 0.31497236912400683 0.18541397833905593 0.75881704196081035 0.27760798432336775 3.6219374162137115 0.15295712882652879 1.0937012972062805 3.4296182694511677 2.0108655221642948 0.46907819877378543 0.13446724946697941 0.57561210154381115 0.10095706227457413 0.091082766030012863 0.095846133051963989 0.099110821314752684 0.063343352281663101 0.077287107444135472 1345.4340444273362
leaf_count=238 146 59 26 201 46 44 58 97 8 184 69 113 76 194 109 1033 54 294 1312 816 135 76 200 45 32 40 50 31 25 6462
internal_value=0 0.0261378 -0.0522108 0.048523 0.06169 0.020599 0.0915256 -0.0500636 -3.68821e-05 8.60539e-05 0.0416414 0.0592035 -0.0135366 -0.017263 0.00189807 -0.0114115 0.0588214 -0.0309826 -0.0518704 -0.00666039 0.0442642 -0.0692162 0.0825841 0.0787789 -0.0150729 -0.0498689 0.0179999 0.103164 -0.00249093 2.36352e-05
internal_weight=0 1.88316 0.41848 1.46468 1.32691 0.666532 0.332645 0.333887 1360.12 1347.85 2.02152 1.69603 12.2743 11.5309 4.81132 3.89955 0.911774 6.7196 3.61503 3.10457 0.74341 0.173375 1.28997 0.570035 0.406055 0.325492 0.194957 0.660374 0.14063 1345.83
internal_count=12273 733 172 561 502 245 104 141 11540 7388 742 583 4152 3888 1390 1142 248 2498 1388 1110 264 84 438 180 145 159 90 257 56 6646
is_linear=0
shrinkage=0.3


Tree=462
num_leaves=31
num_cat=0
split_feature=264 93 24 244 238 109 154 187 85 238 220 35 182 12 142 241 27 66 298 119 243 288 211 189 69 193 169 236 214 28
split_gain=0.0165482 0.0383504 0.0374657 0.0334026 0.0411427 0.028131 0.0291904 0.0275427 0.0324826 0.0269437 0.0256133 0.0316955 0.0227765 0.0226349 0.0381251 0.0329685 0.029673 0.0280463 0.0296608 0.0274956 0.0267602 0.0314482 0.0262589 0.0258655 0.0234634 0.0241397 0.0225505 0.0220842 0.0215873 0.0208169
threshold=0.015408500097692001 -0.059847394924639162 -0.054583013137546259 -0.057044356214529732 -0.05567199923098079 0.018452357200527302 0.04204950109124176 -0.024426000192761397 0.021106226717159716 -0.06266897445997674 0.021703500300645755 -0.079543901387035057 0.011816500220447702 -0.056382499635219491 0.039704499766230562 0.014377033421751955 0.040700500831007909 -0.14306938172860886 -0.027670931803104416 -0.14942399412393562 -0.06766049936413758 -0.0032709999941288996 -0.074599999934434794 0.028234999626874903 -0.083345998078584588 -0.058712000027298893 -0.13133303349521425 -0.11040999740362163 0.059549000114202458 -0.04612155582022761
decision_type=2 2 2 2 2 2 2 2 2 2 2 2 2 2 2 2 2 2 2 2 2 2 2 2 2 2 2 2 2 2
left_child=13 -2 3 10 -5 6 -4 8 -7 -9 -3 -12 -6 14 16 22 17 -1 -19 29 21 -18 -16 -22 25 -21 -26 -28 -27 -15
right_child=1 2 5 4 12 7 -8 9 -10 -11 11 -13 -14 19 15 -17 20 18 -20 24 23 -23 -24 -25 26 28 27 -29 -30 -31
leaf_value=0.19794107341194095 0.1526608665964361 0.16029347188804441 -0.11767191732031911 0.10745991158091321 0.044775265868565693 -0.076119205258248293 0.076499519774847674 -0.040048368523441666 0.066741896564104938 0.079769995868033836 -0.13403872176885237 0.082900077895709773 -0.16226647445457765 0.007790398333079358 -0.11840686499052787 -0.10047269664263175 0.17849328442244425 0.053381138681712736 -0.056112554248635288 -0.1822992052147914 -0.12014281491824555 -0.12231656843266979 0.11800994766337081 0.006157763489455295 -0.1084292521279886 0.13334765378573615 0.035616662084177353 -7.3096506972934248e-05 -0.077919582466465298 0.1502917585003129
leaf_weight=0.055665159481577464 0.18852267009469903 0.30580072079335707 0.34892645190477245 0.14512888001036117 0.069455578835914356 0.50816884062169287 0.087067930120610981 0.238106456185051 0.1994643690140947 0.58121255961805152 0.072466405923478305 0.37055821892226959 0.15351833017484751 0.17762563568976475 0.048337500739762618 0.10603748574658312 0.072908622018985625 0.32889326935764973 0.6893721669714522 0.029695477984205354 0.78614459017671778 0.054781123998509762 0.3375540731831278 0.17919748005806468 0.1727547032635347 0.27695149583769207 1.5621189384719389 1421.2650295957833 0.051646031468408182 0.1919771077484701
leaf_count=13 84 77 161 52 24 245 42 120 87 230 14 99 43 75 30 85 19 131 348 20 470 33 133 103 122 117 504 8702 28 62
internal_value=0 0.0213129 0.0132729 0.0571374 -0.0168579 -0.0116862 -0.0788959 0.00750434 -0.0358502 0.044949 0.0935116 0.047415 -0.0977737 -5.8145e-05 -0.0277119 0.0476845 -0.0448279 -0.00941152 -0.0207468 -6.5e-06 -0.0796254 0.0494406 0.0883959 -0.0966975 -2.77447e-05 0.0767337 -4.70722e-05 -3.39128e-05 0.100143 0.0818077
internal_weight=0 3.2684 3.07987 1.11693 0.368103 1.96295 0.435994 1.52695 0.707633 0.819319 0.748825 0.443025 0.222974 1426.39 2.65889 0.491929 2.16696 1.07393 1.01827 1423.73 1.09303 0.12769 0.385892 0.965342 1423.36 0.358293 1423 1422.83 0.328598 0.369603
internal_count=12273 1278 1194 309 119 885 203 682 332 350 190 113 67 10995 1365 248 1117 492 479 9630 625 52 163 573 9493 165 9328 9206 145 137
is_linear=0
shrinkage=0.3


Tree=463
num_leaves=31
num_cat=0
split_feature=125 48 69 213 232 135 275 105 163 234 28 102 264 277 15 222 98 16 12 153 77 154 73 109 117 53 70 294 16 121
split_gain=0.0182396 0.025412 0.0234695 0.0181117 0.0199584 0.0339953 0.0245642 0.024365 0.0231263 0.0309715 0.0315713 0.0249516 0.0295878 0.0230391 0.022509 0.0218002 0.0209169 0.0203855 0.0167493 0.0188909 0.0207475 0.0166636 0.0157839 0.0147505 0.0161035 0.0144834 0.0161011 0.0237409 0.0140882 0.0138815
threshold=-0.045864999294280943 -0.051074499264359391 -0.031798999756574596 -0.06964421217868301 -0.0049890000373124495 0.029961499385535707 0.012111971799294215 0.047991000115871409 -0.071577072546296638 -0.051745001226663541 -0.031573490604695921 -0.11221719678702337 -0.055968156929723963 -0.032420649368433592 -0.010975244864177877 -0.091049998998641898 0.036925622157362677 -0.069715754002084879 -0.029256999492645198 -0.00029845672848534047 0.058626751207402551 0.0068498174984730955 0.016690349980801347 0.0081629999913275016 0.011993160681366773 0.079522997140884413 0.001619354049164447 -0.054595834510477552 -0.038137501105666098 0.017798000015318352
decision_type=2 2 2 2 2 2 2 2 2 2 2 2 2 2 2 2 2 2 2 2 2 2 2 2 2 2 2 2 2 2
left_child=1 2 -1 21 5 7 17 13 9 16 -11 12 -10 -5 -8 -13 -6 -7 -4 20 -20 22 -2 -23 -25 26 -3 -28 -29 -24
right_child=3 25 18 4 8 6 14 -9 11 10 -12 15 -14 -15 -16 -17 -18 -19 19 -21 -22 23 29 24 -26 -27 27 28 -30 -31
leaf_value=-0.10695784632378348 -0.050216473069628551 -0.090461867642429042 0.083296505829629983 -0.2003087583066066 -0.11887484563441636 0.017092154019665594 -0.1679738779555886 -0.10336731240787293 0.065648083986441993 0.063432654859293461 -0.07307618106908223 -0.10036001247057028 -0.091987585940102187 0.099556703450513387 0.059996890161303884 5.8199918782931649e-05 0.077727977537472251 -0.15459726095445994 -0.1593468697039028 0.052747549557377309 0.098158997645895293 -0.172652158112096 0.020239312095687193 -0.059118988238641035 0.16700808034791403 -0.16723383169084441 -0.19565766440758639 0.16527310516772328 -0.037216138868498963 0.16707310903326969
leaf_weight=0.13900149569212772 0.055971494189178794 0.36182911572930609 0.28014009823436936 0.025309621350061207 0.17923912259448105 0.07534744020904327 0.05244446544247694 0.093837117118226843 0.13561779884184944 1.4287856914816073 0.17069721634493262 0.19459981658064762 0.51075753998293194 0.25941158958937538 0.1518259064960148 1315.8835177593596 0.066875131975393742 0.35782177218894162 0.11211765402620699 0.16385041546743651 0.037605291752697667 0.042967269851942547 0.081792927934202453 0.069756872799189296 0.047742860944708809 0.12939305938198231 0.035073453444624647 0.076015934650058625 0.052131089547572174 0.19875412067676734
leaf_count=154 46 610 245 24 119 70 61 86 95 824 119 181 318 209 104 7653 42 265 137 148 15 23 50 52 22 250 75 77 72 127
internal_value=0 -0.0343681 0.00400674 5.06265e-05 2.90613e-05 -0.042002 -0.0842913 0.0292075 6.14475e-05 0.0336199 0.0488644 1.441e-05 -0.0589136 0.0729009 0.00146757 4.33517e-05 -0.0654532 -0.124733 0.029986 -0.0176405 -0.0946702 0.0573101 0.0952435 -0.0222407 0.0327617 -0.0773326 -0.0551774 0.0230417 0.0828991 0.124264
internal_weight=0 1.38716 0.732715 1320.08 1319.59 1.016 0.63744 0.378558 1318.57 1.8456 1.59948 1316.72 0.646375 0.284721 0.20427 1316.08 0.246114 0.433169 0.593713 0.313573 0.149723 0.496986 0.336519 0.160467 0.1175 0.654443 0.52505 0.16322 0.128147 0.280547
internal_count=12273 1783 699 10490 10170 819 500 319 9351 1104 943 8247 413 233 165 7834 161 335 545 300 152 320 223 97 74 1084 834 224 149 177
is_linear=0
shrinkage=0.3


Tree=464
num_leaves=31
num_cat=0
split_feature=199 294 131 128 202 132 222 191 11 52 172 167 285 54 122 111 27 286 115 19 55 212 23 249 207 12 233 255 256 98
split_gain=0.0136853 0.0258332 0.0287555 0.0322211 0.0253299 0.0207901 0.0184566 0.0261663 0.0201185 0.0174274 0.0282214 0.0322624 0.0328057 0.0337234 0.0313493 0.0269342 0.0269004 0.024935 0.0240225 0.0353741 0.0324106 0.0319184 0.0275539 0.0230163 0.0245693 0.0228054 0.0332405 0.0267445 0.0188284 0.015955
threshold=0.032941998913884107 -0.10576849364665365 0.030231500044465006 -1.0000000180025095e-35 0.028770999982953054 0.042644498869776705 0.00039044148927781612 -0.025443086942808467 0.026493499986827301 0.026832000352442206 0.10238800197839736 0.023101000115275352 0.042342999950051259 -0.0020187227056456783 -0.016320999711751896 0.055029965551513786 0.075781825674588341 -0.014525296013574683 -0.076967999339103629 0.13265129645616044 -0.017529832972096853 0.0018042834139709995 0.049825500696897507 -0.040904455526374187 -0.019708104813601104 -0.061273500323295545 0.0010028762842869228 -0.088756497949361732 0.029578999616205654 0.026302671310028208
decision_type=2 2 2 2 2 2 2 2 2 2 2 2 2 2 2 2 2 2 2 2 2 2 2 2 2 2 2 2 2 2
left_child=9 -2 6 -4 5 -5 7 -3 -9 18 11 14 13 -13 15 -11 -14 -16 19 20 21 -1 -22 24 28 26 -25 -27 -20 -6
right_child=1 2 3 4 29 -7 -8 8 -10 10 -12 12 16 -15 17 -17 -18 -19 23 -21 22 -23 -24 25 -26 27 -28 -29 -30 -31
leaf_value=-0.16023428396635167 -0.12443681221732236 -0.056686232789934642 0.12058127569645455 -0.10428047586188896 -0.022922773070483252 0.093714083522692088 0.14214834078361452 0.12429889833903349 -0.051165622580371335 -0.11354601659029882 0.13212381447203053 -0.028146370965349984 -0.14333653811834018 0.041080513241847631 -0.12915471144875415 -0.0031764900459855805 0.057780059084775293 0.064021317075953418 -0.043963550162401673 -0.12987460060622644 0.086943976375021437 0.082557325129260173 -0.025770621512302964 0.0024551914901399081 -0.12002889723996572 -0.090534726838464807 0.08211219060908985 -2.2709507224111934e-05 0.14819666258303513 0.20084188335774023
leaf_weight=0.1215193419920978 0.093641910549194907 0.15988062602991704 0.1385721140904933 0.35111336966292594 0.061144569903262891 0.055239286317373626 0.26090211701375665 0.29118276909866725 0.073695846571354195 0.78931869575808355 0.10848623491619935 1.2501308015635006 0.24569604998396233 1.2835980260315412 0.078267493867315352 0.26608054293683381 0.079134043531666975 0.25961312651270319 0.15742029096873011 0.10706971754552785 1.0551189600698752 0.081359342948417179 0.23950063529809984 1.2793992924343904 0.29505641768991964 0.29387278034346209 0.74662185313718499 1350.8105940570213 0.064773958656587638 0.054011528613045812
leaf_count=49 48 78 63 182 37 20 94 99 39 350 32 448 89 433 37 125 39 93 91 35 338 29 109 470 169 157 358 8121 30 11
internal_value=0 0.0282659 0.0381566 -0.00800234 -0.0421688 -0.0773652 0.0769374 0.0445156 0.0888597 -3.63273e-05 -0.018972 -0.0228272 -0.00458295 0.00692427 -0.0602586 -0.0857204 -0.0943412 0.0192735 2.45954e-05 0.03671 0.0486207 -0.0628689 0.0660921 -1.88903e-05 -0.0632899 5.29586e-06 0.0318101 -4.23964e-05 0.0120549 0.0820293
internal_weight=0 1.53938 1.44574 0.660081 0.521509 0.406353 0.785661 0.524759 0.364879 1359.61 4.36033 4.25184 2.85856 2.53373 1.39328 1.0554 0.32483 0.337881 1355.25 1.60457 1.4975 0.202879 1.29462 1353.65 0.517251 1353.13 2.02602 1351.1 0.222194 0.115156
internal_count=12273 671 623 313 250 202 310 216 138 11602 1646 1614 1009 881 605 475 128 130 9956 560 525 78 447 9396 290 9106 828 8278 121 48
is_linear=0
shrinkage=0.3


Tree=465
num_leaves=31
num_cat=0
split_feature=171 3 161 201 163 7 175 113 90 42 54 53 246 211 154 16 180 267 98 66 239 156 138 143 276 128 32 235 136 20
split_gain=0.0152254 0.0304511 0.0306312 0.0353987 0.0258679 0.0225569 0.0230075 0.0205431 0.0201752 0.0207001 0.0193438 0.018012 0.017259 0.0278137 0.0188638 0.0333725 0.0262653 0.0196024 0.0413118 0.0390595 0.0166897 0.0157057 0.0156425 0.0133105 0.0116575 0.0108725 0.00629155 0.00287976 8.59426e-06 3.09202e-08
threshold=0.03404399938881391 0.039424349761907521 -0.065721496939659035 0.053037000820040654 -0.017478499561548195 -0.052444498986005741 -0.068142060762966902 -0.01098299439968234 0.02248753430280211 -0.063437998294830225 0.060092000290751409 -0.073930498212575843 -0.10306999832391733 -0.010850847938017473 -0.08791654989659474 -0.024910500273108396 -0.010643867360346041 -0.030944098558942586 -0.058808000758290194 -0.099088481848636681 0.019589499570429252 0.10767348929361782 0.024823499843478151 0.0023694999981671004 -0.039309499785303993 0.024696340316399047 -0.035513245653863761 -0.017832837034896538 -0.013182543771987432 -0.043449199896762214
decision_type=2 2 2 2 2 2 2 2 2 2 2 2 2 2 2 2 2 2 2 2 2 2 2 2 2 2 2 2 2 2
left_child=11 2 4 8 5 6 -2 -7 9 -4 21 -1 13 27 15 25 -17 18 -16 -19 -10 26 24 -24 -6 -14 -3 -13 -28 -29
right_child=1 10 3 -5 22 7 -8 -9 20 -11 -12 12 14 -15 17 16 -18 19 -20 -21 -22 -23 23 -25 -26 -27 28 29 -30 -31
leaf_value=-0.1421514227935258 0.10493019104884066 -0.070489932130100783 -0.026907519478238086 -0.15572106690477547 0.19458689829751782 0.14586024799981531 -0.15134089263250647 -0.095395709198123971 -0.1605399855350573 0.12574203206737064 0.083541633095530476 -0.093260792892073896 0.017071819470754375 0.070795577796406398 0.072779951556644254 0.12915601756322662 -0.093166412416681957 0.045736606960966916 -0.030234806965476983 -3.5288178665522208e-05 0.062024320144499996 0.037678699336730119 0.078847211162871939 -0.20034261126313033 0.036803364385065311 0.17259787611133887 -0.20076034829854547 -0.20065998786218289 -0.19515808866270118 -0.20029802334592858
leaf_weight=0.080265981351202664 0.037186610112257767 0.051182358663936611 0.090313724436782539 0.055942606966709718 0.085025209977175109 0.074095163261517882 0.20724442779282981 0.055602789536351338 0.047651349101215601 0.69679237902891966 0.059720563571318053 0.029783115970531071 0.051686787342987373 0.062907983054173111 0.3863584256832836 0.069864331773715094 0.15160883640214606 1.6799057896448619 3.7605650485731976 1420.5812051571638 0.083389418694423512 0.049084673752076924 0.030814044327598822 0.030660987315059174 0.083559619974039268 0.18615164533457573 0.066224951733602211 0.032759715009888168 0.039251839069038286 0.060401697827273892
leaf_count=27 17 27 51 24 25 22 110 29 25 276 28 26 29 34 192 21 81 631 1784 8487 39 18 22 27 44 73 24 9 24 47
internal_value=0 0.0272378 0.0430497 0.075965 -0.0100173 -0.0586944 -0.112353 0.0424314 0.0900817 0.108227 -0.0667694 -4.16029e-05 -3.36098e-05 -0.0914483 -2.17028e-05 0.0607655 -0.0230342 -4.12766e-05 -0.0206372 1.87754e-05 -0.0189084 -0.1104 0.0691427 -0.0604001 0.116381 0.138799 -0.156796 -0.174465 -0.198676 -0.200425
internal_weight=0 1.84374 1.57828 0.974089 0.604189 0.374129 0.244431 0.129698 0.918147 0.787106 0.265464 1427.13 1427.05 0.185853 1426.87 0.459312 0.221473 1426.41 4.14692 1422.26 0.131041 0.205744 0.23006 0.061475 0.168585 0.237838 0.156659 0.122945 0.105477 0.0931614
internal_count=12273 832 711 415 296 178 127 51 391 327 121 11441 11414 116 11298 204 102 11094 1976 9118 64 93 118 49 69 102 75 82 48 56
is_linear=0
shrinkage=0.3


Tree=466
num_leaves=25
num_cat=0
split_feature=214 139 144 289 121 251 31 280 17 171 200 47 286 71 63 205 215 100 134 108 208 175 97 113
split_gain=0.0159968 0.0240685 0.0138804 0.0179933 0.0147079 0.0161524 0.0141761 0.0309427 0.0214033 0.0210349 0.0266222 0.0264166 0.0133681 0.0127154 0.00955843 0.00905281 0.00155432 0.00128744 0.000433966 1.00745e-05 2.05032e-08 5.07149e-09 2.93963e-09 1.64042e-09
threshold=-0.075504500418901388 0.015789000317454303 -0.13904922280740145 -0.13724999874830243 0.035898646567557223 -0.020564000122249047 -0.082814000546932179 -0.06830399855971328 -0.0080909466614024882 -0.053532977337071637 -0.1178115010261535 0.01744319782018278 0.022781499661505156 -0.074455000460147844 -0.019527999684214547 -0.05256550014019009 0.039122000336646957 -0.078608078052775962 -0.069111769884384874 -0.036710498854517895 0.026862000115215754 -0.027454500086605497 -0.034603498876094742 -0.030110499821603246
decision_type=2 2 2 2 2 2 2 2 2 2 2 2 2 2 2 2 2 2 2 2 2 2 2 2
left_child=1 13 4 22 14 -6 7 15 -9 11 -11 -8 -3 -1 -2 -5 -16 -7 -15 -18 21 -20 -4 -24
right_child=2 12 3 6 5 17 9 8 -10 10 -12 -13 -14 18 16 -17 19 -19 20 -21 -22 -23 23 -25
leaf_value=0.021782664213265947 -0.010571256327479834 -0.086008991653722874 -0.20036789487926196 -0.0054630584239832502 0.17453607030578355 -0.20023689457563959 0.042848313116553391 -0.067451252610131199 0.026211218126499954 -0.065473450364822744 2.1707371395206416e-05 -0.044824316042434718 0.16297762608737451 -0.13137925112772458 0.11152493017087864 -0.16515454787007675 0.19283117544231829 -0.091849983985580544 -0.2002936519575679 0.20030425472630861 -0.2005318516415566 -0.20014751278582898 -0.20027357244658303 -0.20012715920676466
leaf_weight=0.030631013817583153 0.031427285081008449 0.034402926927214139 0.012550265128083993 0.039063162715137878 0.020351279763417551 0.022857723088236526 1.9241098330256812 0.35588406501278769 0.57331269377789229 0.55879455598483119 1316.6621253554961 0.36855496228156415 0.044522780612169299 0.0088959210718257964 0.024238301498825332 0.17543965162678887 0.022587378829484805 0.017349398010992445 0.039389603467952838 0.057733657024073182 0.023248541638167808 0.046722705885712368 0.012515519646967732 0.015314484671988704
leaf_count=31 25 33 9 29 15 24 1600 338 417 549 8403 296 30 16 17 160 15 19 48 45 17 90 12 35
internal_value=0 -0.0794828 2.06983e-05 8.83472e-06 0.0797391 -0.0432387 1.49577e-05 -0.0333704 -0.00966168 4.38947e-05 -6.07714e-06 0.0287546 0.0544468 -0.150479 0.134504 -0.136073 0.17811 -0.153468 -0.195099 0.198203 -0.200282 -0.200214 -0.200247 -0.200193
internal_weight=0 0.227813 1320.89 1320.7 0.196545 0.0605584 1320.66 1.1437 0.929197 1319.51 1317.22 2.29266 0.0789257 0.148888 0.135987 0.214503 0.104559 0.0402071 0.118257 0.080321 0.109361 0.0861123 0.0403803 0.02783
internal_count=12273 265 12008 11848 160 58 11792 944 755 10848 8952 1896 63 202 102 189 77 43 171 60 155 138 56 47
is_linear=0
shrinkage=0.3


Tree=467
num_leaves=31
num_cat=0
split_feature=245 194 242 51 293 53 261 88 62 201 192 113 176 57 269 225 33 207 85 153 138 248 93 236 47 23 89 88 272 188
split_gain=0.0130524 0.0188557 0.0231905 0.0194196 0.0224005 0.0208603 0.0209344 0.0178302 0.0215095 0.0152987 0.0329606 0.0395664 0.0358651 0.0304692 0.0329979 0.0351832 0.0492127 0.0330003 0.0361933 0.0311142 0.0287245 0.0275667 0.0274153 0.0271312 0.0390667 0.0379443 0.0326482 0.0386788 0.0308745 0.0274202
threshold=0.040649000555276857 -0.054281535741424955 0.044168116960255126 0.073245773429001917 -0.023867500014603096 -0.022319500334560847 0.12856327291797898 0.055385001003742211 0.0064973552773177111 -0.020748817428173829 0.02711500041186805 0.035129353183709647 -0.020648150018354659 -0.074382683497951074 0.14600650315084829 -0.049181500449776594 -0.026521499268710547 0.0070704999379813506 0.020530000329017604 0.053084498271346058 0.053875500336289357 -0.018712558381830124 -0.017272500321268949 0.018579500727355456 -0.037955000996589591 0.0003020000003743501 -0.057388499379157992 0.049474000930786056 0.015147619731820919 0.046326499432325308
decision_type=2 2 2 2 2 2 2 2 2 2 2 2 2 2 2 2 2 2 2 2 2 2 2 2 2 2 2 2 2 2
left_child=9 7 3 5 -5 -3 -7 -2 -9 10 23 12 22 14 17 16 -16 19 -19 -11 21 -13 -12 26 29 -26 28 -28 -1 -25
right_child=1 2 -4 4 -6 6 -8 8 -10 13 11 20 -14 -15 15 -17 -18 18 -20 -21 -22 -23 -24 24 25 -27 27 -29 -30 -31
leaf_value=-0.12051681399736588 0.15925299542026058 0.13794647572889254 0.10049920503889342 -0.13147429440939254 0.094876742145336146 -0.076313203623797093 0.094238140130836062 -0.066226238592500847 0.10662130178562486 0.070548425127235595 0.088826105956270274 0.042730788193951985 0.11731568550128658 -1.9476543780780124e-05 0.097568113764315303 0.12554246930196139 -0.133225280567215 0.01464579608475061 -0.087944619236134072 -0.099723324819621692 -0.16201067899614607 -0.10192385939359927 -0.03518667617563194 0.11029153307744005 0.039114112106720195 -0.062074957297364952 -0.00028524147527562006 -0.058305170469746807 0.069403048776495141 -0.073213295989137978
leaf_weight=0.092783212052380715 0.16269348486093793 0.05444201809586946 0.19795741069538053 0.047733907427755184 0.22401407026336528 0.53924870587070373 0.073615252229501493 0.11276888055726886 0.15231387026142329 0.89423464339211001 0.25772136782143196 0.36311575993750012 0.50102670570231556 1346.4444198048041 0.20302328793331981 0.5461803214275277 0.14083275271696039 0.94009051882130712 0.46140051331894938 0.10828201789990999 0.12916982301976532 0.17605194013594871 0.42501555713170092 0.43413708732077783 0.59833547016933131 0.75357144494046224 1.5036237642063941 3.3116029879570306 0.45394675464922329 0.088169052236025891
leaf_count=45 71 21 90 27 100 228 36 54 75 326 96 128 195 6682 40 119 47 320 192 55 77 102 172 136 289 350 716 1310 134 40
internal_value=0 0.0273834 0.00718388 -0.0124875 0.055117 -0.0400181 -0.0558271 0.0810729 0.0330902 -3.15756e-05 -0.0122989 0.0234119 0.056359 5.10248e-05 0.0288685 0.0782158 0.00304231 0.0105987 -0.0191291 0.0521573 -0.0349443 -0.00450263 0.011626 -0.0214391 0.00963175 -0.0172901 -0.0322996 -0.0401876 0.0371726 0.0793146
internal_weight=0 1.56479 1.13701 0.939054 0.271748 0.667306 0.612864 0.427776 0.265083 1358.83 9.08827 1.8521 1.18376 1349.74 3.29404 0.890036 0.343856 2.40401 1.40149 1.00252 0.668338 0.539168 0.682737 7.23617 1.87421 1.35191 5.36196 4.81523 0.54673 0.522306
internal_count=12273 702 502 412 127 285 264 200 129 11571 3790 770 463 7781 1099 206 87 893 512 381 307 230 268 3020 815 639 2205 2026 179 176
is_linear=0
shrinkage=0.3


Tree=468
num_leaves=31
num_cat=0
split_feature=222 108 184 216 193 184 165 101 184 69 142 23 160 207 170 109 32 254 113 188 14 214 293 143 140 14 21 130 57 69
split_gain=0.0131964 0.0507917 0.0406759 0.0334084 0.0330359 0.0300112 0.0268367 0.0283684 0.0262241 0.0400793 0.0343077 0.03463 0.0292667 0.0267456 0.0298212 0.0350059 0.0292774 0.0346915 0.0278188 0.026065 0.0246469 0.0245849 0.0237498 0.0266908 0.0220355 0.0213317 0.0211742 0.0202726 0.0198912 0.0195744
threshold=0.0091302962209068774 0.0029688913088854029 -0.038495499640703139 -0.13325149565935127 0.042046999558806412 -0.012588500045239847 0.075311500579118715 -0.077178395014125281 -0.067948997020721394 -0.0027920000720768495 0.015761975880886892 0.015154292084148124 0.012256500311195802 -1.0000000180025095e-35 0.023028999567031801 0.11614200100302696 -0.064839500933885533 -0.057004693997120597 -0.035513000562786994 0.046326499432325308 -0.01790074398873906 -0.0080079956963245175 0.011466000229120202 -0.012637955393014667 -0.016652262559456933 0.066392000764608369 -0.068538405603670305 -0.019167499616742096 0.024966499768197453 -0.020966314017207041
decision_type=2 2 2 2 2 2 2 2 2 2 2 2 2 2 2 2 2 2 2 2 2 2 2 2 2 2 2 2 2 2
left_child=3 4 -3 26 6 -6 7 25 9 10 11 -5 21 14 18 -16 17 -15 -10 -9 -14 -11 28 -24 -7 -2 27 -1 -4 -12
right_child=1 2 22 8 5 24 -8 19 13 12 29 -13 20 16 15 -17 -18 -19 -20 -21 -22 -23 23 -25 -26 -27 -28 -29 -30 -31
leaf_value=-0.17016270111987161 0.079985088665397441 -0.11932938939888042 -0.12447747511748711 -0.10916484919680858 0.10786052418531594 -0.19039983968895124 0.13978538504598498 -0.055593221001997303 0.063687185501376725 0.14849772260519362 0.094331464755085762 0.030150396081347793 -0.15085271805289149 -0.0034511486831012802 0.030594757659431742 -0.13501162611723883 -1.4944153294378791e-05 0.089923735800300442 -0.052472122390150956 0.032567072735510093 0.033796701084462158 0.050758394343251925 -0.098098201709613322 0.067137187761827394 0.043196844228514587 -0.058907027055445052 0.10832909714863832 0.059594391296979625 0.16287496269747789 -0.073920859679090678
leaf_weight=0.054103189148008823 0.38482840721462785 0.64536274863201015 0.2031559444637876 0.40541236636636335 0.44402873549552169 0.058709437557808997 0.10208282597886853 1.3484927420655588 0.2012239187624808 0.42167099295647859 0.29774059675764875 0.26590664441050649 0.078248132973385509 0.72146824958963407 1.101613200739848 0.12824989341970638 1415.8992200871844 0.71101096336587832 2.3830037890588747 0.38886101280240826 0.3859847186369052 0.51389220996782004 0.11841773931541866 0.34232847545126788 0.095402500541695079 0.13423516345210373 0.41182796758539453 0.095700672177599699 0.024270874950161669 0.078675451566596166
leaf_count=27 173 379 201 171 238 42 48 886 82 160 155 156 35 317 464 58 5810 286 1255 218 203 206 100 150 61 85 211 43 11 42
internal_value=0 -0.0166202 -0.0652248 4.32069e-05 0.0053019 0.0682716 -0.0106679 -0.0174745 1.43464e-05 0.0310409 -0.0133326 -0.0539827 0.0642541 -3.90882e-05 -0.0251272 0.0133254 2.84249e-05 0.0428955 -0.0434272 -0.0358609 0.00267337 0.0948108 -0.0144859 0.0246696 -0.0457926 0.0440662 0.0731971 -0.0233847 -0.0938114 0.0591647
internal_weight=0 4.29018 1.33354 1424.15 2.95664 0.598141 2.3585 2.25642 1423.59 2.44753 1.04774 0.671319 1.3998 1421.15 3.81409 1.22986 1417.33 1.43248 2.58423 1.73735 0.464233 0.935563 0.688173 0.460746 0.154112 0.519064 0.561632 0.149804 0.227427 0.376416
internal_count=12273 2592 841 9681 1751 341 1410 1362 9400 1128 524 327 604 8272 1859 522 6413 603 1337 1104 238 366 462 250 103 258 281 70 212 197
is_linear=0
shrinkage=0.3


Tree=469
num_leaves=21
num_cat=0
split_feature=129 180 205 31 194 200 205 256 216 70 244 228 46 99 175 161 200 286 138 115
split_gain=0.0141251 0.0124405 0.01287 0.0342195 0.0365765 0.0349992 0.0323022 0.0396619 0.0304358 0.0308806 0.0299513 0.0163778 0.014368 0.0118156 0.00529291 0.00475365 0.00379527 1.03065e-05 1.64805e-08 3.55741e-09
threshold=-0.10123719550002912 -0.095991000533103887 -0.0015343038811155986 -0.034619498997926691 -0.065470928617470656 -0.072420124338307565 -0.00046450000081669991 -0.0003975494996729427 -0.079574124502507879 -0.047713499516248641 -0.061357500031590399 0.035333000123500803 0.020250000059604607 -0.040600571398282791 -0.035395895753896331 -0.090654499828815391 -0.0035642491617463514 0.0049445000477134505 -0.04082631896779667 0.0083890003152191014
decision_type=2 2 2 2 2 2 2 2 2 2 2 2 2 2 2 2 2 2 2 2
left_child=13 15 3 8 11 -6 7 16 9 -3 -10 -5 -9 -1 17 -2 -4 -15 -17 -20
right_child=1 2 6 4 5 -7 -8 12 10 -11 -12 -13 -14 14 -16 18 -18 -19 19 -21
leaf_value=0.084554100466405949 -0.0084709810050319616 -0.12928504242708269 -0.12164214861833912 -0.098918390865615907 0.0076865280679176305 0.071808658526840138 -2.1311970813614414e-05 0.18034420860294323 0.041835661000403278 -0.017082489111195857 -0.034507531146643032 0.1470858828146103 -0.065082209276272202 -0.19218991615537592 -0.055249444507973408 -0.20062768501544595 -0.20549913278084075 -0.20042223169624748 -0.20011984503885458 -0.20035059411377976
leaf_weight=0.024937830102771841 0.016637719207210466 0.31729575746356886 0.080089920053438846 0.23480885280218933 1.3782073833474446 1.7249249080844593 1314.0585371714105 0.047653288769054281 1.1945534194984473 0.72561339337858066 0.75471691487098258 0.027175220135177369 0.039069081694833585 0.019746367528114206 0.036797751191896988 0.014017277735547395 0.12344089135876857 0.044603841324715177 0.013883017007400578 0.010607388587231981
leaf_count=19 12 220 40 284 1082 1316 7066 18 814 555 655 24 28 16 32 6 8 32 38 8
internal_value=0 1.5766e-05 2.17155e-05 0.0134873 0.034242 0.0433298 -4.34156e-05 -0.100113 -0.00985414 -0.0512191 0.0122772 -0.0734007 0.0697778 -0.100401 -0.146001 -0.142472 -0.172501 -0.197896 -0.200368 -0.20022
internal_weight=0 1320.76 1320.71 6.3573 3.36512 3.10313 1314.35 0.290253 2.99218 1.04291 1.94927 0.261984 0.0867224 0.126086 0.101148 0.0551454 0.203531 0.0643502 0.0385077 0.0244904
internal_count=12273 12174 12110 4950 2706 2398 7160 94 2244 775 1469 308 46 99 80 64 48 48 52 46
is_linear=0
shrinkage=0.3


Tree=470
num_leaves=31
num_cat=0
split_feature=66 189 73 58 223 1 53 249 87 205 145 139 48 165 149 211 2 157 196 161 260 174 28 216 259 9 225 191 87 150
split_gain=0.012273 0.0373923 0.0362428 0.0299894 0.028512 0.0262575 0.0238242 0.0237937 0.0210965 0.0209686 0.0288547 0.0198496 0.0357088 0.036865 0.0297988 0.0271454 0.0268136 0.0326932 0.0257052 0.0282051 0.0247368 0.0285049 0.0221301 0.0460439 0.040615 0.0295183 0.0394102 0.0284154 0.0279234 0.019362
threshold=0.0065325000323354513 0.0027579473053564517 0.078258550732412155 0.053539905361652033 -0.080367498099803883 0.024942297968037739 0.0019019778311309737 0.0094956867187005103 -0.020335000008344598 -0.015471999999135648 0.0022675000363960502 0.0094854999333619516 -0.059523876977434144 -0.040365669558965526 -0.094871119710119148 -0.007704500108957249 -0.00083075463044997918 0.030853000469505752 0.093253999948501573 -0.12254599854350089 0.10232900083065032 0.028237393624561891 -0.12531800568103782 -0.097920799519637544 -0.019748584884566846 -0.023446000181138446 -0.057329000905156094 -0.046595882447192032 -0.056007999926805441 0.086515497416257817
decision_type=2 2 2 2 2 2 2 2 2 2 2 2 2 2 2 2 2 2 2 2 2 2 2 2 2 2 2 2 2 2
left_child=11 2 4 6 -2 7 -3 -6 -7 10 -4 14 15 20 -1 16 17 -13 19 -15 21 -14 23 27 -25 26 -24 -16 -27 -8
right_child=1 3 9 -5 5 8 29 -9 -10 -11 -12 12 13 18 22 -17 -18 -19 -20 -21 -22 -23 25 24 -26 28 -28 -29 -30 -31
leaf_value=0.13524532423669822 0.093854289315154799 0.17834127573202244 0.087855261865684764 -0.023186922140356291 -0.011371818489796187 -0.082319610197077966 0.083471992602674738 -0.11290291732547385 0.12230686112215866 0.094616789654576552 -0.10368027498148248 0.047705430797211158 0.098594034853377824 0.057357968569775021 0.11566189557618298 -0.065772812697197022 0.10749216932211762 -0.11366564218319244 0.087671417405170302 -0.085600915220029009 0.10135623544643896 -0.074204127788009014 -0.10120027827963647 0.14817740458291886 0.027436521153782603 -0.048680818119392441 -0.012880266192656437 -0.098772593592833816 6.6018848803184413e-05 -0.10395295485615451
leaf_weight=0.14664668397745018 0.13568888321879047 0.232756817669724 0.13592202056315728 0.23887861380171671 0.33589940256581419 0.07152772563858889 0.41244283589003317 0.54442837814076483 0.12387618291541003 0.40223895573660673 0.14772096235537902 0.40962355511692294 0.12123779162720927 0.13508799116971237 0.068746372475288808 0.25864079590246569 0.36496207277559733 0.15603299622125633 0.093336649675620609 1.5421159568826381 0.21551332014496438 0.29492023974773929 0.56917663129115714 0.36329386846045952 0.80930075067476437 1.0584230441454554 2.2609665106119783 0.291211522395315 1347.7653413319442 0.056388577664620243
leaf_count=54 81 70 52 138 168 30 193 268 48 148 74 147 47 61 14 110 146 85 37 720 59 168 250 67 283 414 1112 100 7099 30
internal_value=0 0.0197097 -0.00453555 0.0686223 -0.0357346 -0.0520804 0.0998817 -0.0741625 0.0474032 0.0505689 -0.0118962 -4.0054e-05 -0.0223134 -0.0433611 1.90549e-05 0.0202014 0.0440957 0.00319218 -0.0655592 -0.0740865 0.0188589 -0.0238635 4.4002e-06 0.036034 0.0648445 -3.64514e-05 -0.0306425 -0.0578189 2.77672e-05 0.0609295
internal_weight=0 2.83777 1.8973 0.940467 1.21142 1.07573 0.701588 0.880328 0.195404 0.685882 0.283643 1356.92 3.59147 2.40221 1353.33 1.18926 0.930619 0.565657 1.77054 1.6772 0.631671 0.416158 1353.19 1.53255 1.17259 1351.65 2.83014 0.359958 1348.82 0.468831
internal_count=12273 1300 869 431 595 514 293 436 78 274 126 10973 1580 1092 9393 488 378 232 818 781 274 215 9339 464 350 8875 1362 114 7513 223
is_linear=0
shrinkage=0.3


Tree=471
num_leaves=31
num_cat=0
split_feature=138 216 184 297 237 95 138 64 240 37 107 124 291 266 223 36 292 251 142 268 229 213 17 263 225 26 36 115 288 85
split_gain=0.0132105 0.028099 0.0278756 0.036269 0.0306991 0.0330692 0.0286611 0.0306873 0.027695 0.0276149 0.0321391 0.0298151 0.0323635 0.0289303 0.027145 0.0335113 0.0261634 0.0334847 0.0330467 0.0369672 0.0299335 0.0268432 0.023485 0.0310961 0.0234228 0.0221696 0.0265388 0.0227658 0.0203118 0.0196631
threshold=0.012843620768414133 -0.12124980252663663 -0.087722159837525807 -0.0046172669855467198 0.025394000113010354 -0.053161500021815244 0.028236146324089224 -0.020401364055154577 0.1023124977946281 -0.060682001763609945 -0.039746999740600537 0.0034340000711381006 0.019588744625327326 0.03160550072789186 -1.0000000180025095e-35 -0.039964604879943168 -0.06701599806547158 -0.0058270016066606272 -0.0087373660424301513 -0.042077999562024994 0.0092722744263400488 0.06055399961769576 -0.023022999987006146 -0.027175352558976542 -0.069269999861717182 -0.016331000253558096 -0.080926136308030888 0.0097264320538387791 0.07076100260019301 0.0055690000299364007
decision_type=2 2 2 2 2 2 2 2 2 2 2 2 2 2 2 2 2 2 2 2 2 2 2 2 2 2 2 2 2 2
left_child=1 25 3 8 16 -6 -7 -8 29 22 11 12 -11 -13 15 -12 17 24 20 -20 -18 -19 23 -3 -4 26 -1 -28 -24 -2
right_child=2 9 4 -5 5 6 7 -9 -10 10 14 13 -14 -15 -16 -17 18 21 19 -21 -22 -23 28 -25 -26 -27 27 -29 -30 -31
leaf_value=0.14560074801718378 -0.15424769063068572 0.12872665678779799 -0.070114614164526273 0.11451241686172113 0.075716687507898547 -0.14487407687485876 -0.09441269731670951 0.0070217858629612251 0.096340870794859632 0.065677509316289309 0.0050924368022478806 -0.052537079328206698 -0.019446587898332278 0.099680184073250924 4.1980979267418513e-05 -0.063763882006285341 -0.082700523321234717 -0.037448386522644247 -0.037473267647344329 0.041625710148279066 0.0064201478009129308 0.078326333174422336 -0.15041292168190307 -0.094864405675985738 0.12176010452042264 0.13398749973904042 0.023006684387429147 -0.14983941892791874 0.095910058179639185 -0.0058365879695298261
leaf_weight=0.12508639675252198 0.12440490317862896 0.10090396731538931 0.067044440365862101 0.33988893585546964 0.15552219642449916 0.34758253909262737 0.55987265455036073 0.51566331748563243 0.14794097679259721 1.8368201862886051 1.2156749042532911 0.57652790509882823 0.51457926502189355 0.13958107362122973 1413.4028188831937 1.3343685812010608 1.0560686177238947 0.65700163536439438 1.0280275593597705 1.1015579813239926 0.49967623538998385 0.24837843855493702 0.26994424094527758 0.1257413565135721 0.39232243186734195 0.23444410747492739 0.34462052668686738 0.085620303721952951 0.033913907962414669 0.22686102824627596
leaf_count=64 96 48 34 180 96 213 394 281 59 693 705 286 254 57 4965 659 529 220 564 604 311 84 186 88 142 118 154 35 25 129
internal_value=0 5.85299e-05 -0.0125924 0.038924 -0.0191136 -0.0556291 -0.0699829 -0.0457802 -0.0125409 2.70563e-05 5.26403e-05 0.030727 0.047049 -0.0228675 -1.38124e-05 -0.0309382 -0.00769899 0.0277849 -0.0208393 0.00344179 -0.0540766 -0.0056872 -0.0684063 0.00467978 0.0937561 0.0566297 0.0239714 -0.0113906 -0.122921 -0.0583981
internal_weight=0 1420.34 7.46781 0.839096 6.62872 1.57864 1.42312 1.07554 0.499207 1419.55 1419.02 3.06751 2.3514 0.716109 1415.95 2.55004 5.05008 1.36475 3.68533 2.12959 1.55574 0.90538 0.530503 0.226645 0.459367 0.789771 0.555327 0.430241 0.303858 0.351266
internal_count=12273 8337 3936 464 3472 984 888 675 284 7966 7619 1290 947 343 6329 1364 2488 480 2008 1168 840 304 347 136 176 371 253 189 211 225
is_linear=0
shrinkage=0.3


Tree=472
num_leaves=31
num_cat=0
split_feature=170 191 76 208 76 240 168 187 219 59 143 60 196 51 88 63 21 119 48 157 298 284 260 55 181 178 53 196 182 230
split_gain=0.01339 0.021231 0.0213313 0.0159466 0.0181527 0.0308547 0.0443583 0.0384933 0.0316078 0.0285651 0.0238746 0.0234381 0.0151468 0.0148822 0.0145239 0.0185402 0.0181339 0.0164305 0.021763 0.016836 0.0142671 0.0132083 0.0115209 0.010808 0.0106512 0.0080871 0.0097091 0.00651066 0.00646443 0.00486542
threshold=-0.044567056022405384 0.024670499376952603 0.020216499455273106 -0.10382999852299683 -0.0055561313697440051 0.12032587124736301 0.053370999172329854 -0.058220000937581042 -0.064333502203226034 0.015387080424939721 -0.058105999603867496 -0.031611420511771786 -0.06763999909162513 0.059110265844216268 0.016476858863255468 -0.019981184030738664 -0.041724998992433572 -0.11393999680876724 -0.046345581414985106 0.08692803137402115 0.012118499726057002 0.041412905508810334 -0.0025819043973137074 0.022092263215662895 0.029174000024795501 -0.019955999217927397 -0.0043209998402743985 -0.0023984043848680665 0.0084314914584119379 0.045810500159859657
decision_type=2 2 2 2 2 2 2 2 2 2 2 2 2 2 2 2 2 2 2 2 2 2 2 2 2 2 2 2 2 2
left_child=1 14 20 12 5 9 8 -8 -7 10 -5 -11 -2 -14 15 27 -17 18 -16 22 25 -22 -19 29 -21 -3 -27 -1 -18 -15
right_child=3 2 -4 4 -6 6 7 -9 -10 11 -12 -13 13 23 17 16 28 19 -20 24 21 -23 -24 -25 -26 26 -28 -29 -30 -31
leaf_value=-0.18948554430439327 0.16865967519647887 0.18706874924477113 -0.16689374052129671 -0.075860576647413122 -2.2337141352320328e-05 0.058442639707809607 -0.12601453014647987 0.086802845155284733 -0.12823404579234851 0.036049304806050841 0.061605231897360203 -0.027892295816869209 -0.1740513472004093 -0.019443926135599116 -0.19334687813525969 -0.11924806951768066 -0.0034337510248115236 0.059704531016871079 0.12370983137481378 0.12966350032176097 0.1002740732192068 -0.15176814115193762 -0.15276447589000994 -0.16285862898497575 -0.13878144530331654 -0.16732058632558641 0.10402188538173683 0.0095462198800218712 0.18870303567637114 0.16920198476043491
leaf_weight=0.042634512742097286 0.019654547360914876 0.082033664649543425 0.039906319171223004 0.12065025155970976 1314.2711925350377 0.10198529816670998 0.098637492842044594 0.34069177909992732 0.4090188875129569 1.0286035468074601 1.9759968154563683 1.0351681253379184 0.11806774633669093 0.023615621700628253 0.028144671161498991 0.031287831340250705 0.020311588234860234 0.024648333061463745 0.063321830581571703 0.037861572110159614 0.03440778037884229 0.0410242185325842 0.33707140347246423 0.025138885173873859 0.020507594368609716 0.014750403890317898 0.06073928095906922 0.022650292339676525 0.070325948491699819 0.025690143909287144
leaf_count=34 16 59 77 100 6902 68 67 210 350 814 1474 983 125 24 33 41 38 32 56 45 53 57 354 32 36 26 72 31 46 18
internal_value=0 -0.0351969 0.0357691 3.38296e-05 4.70544e-05 0.0178916 -0.0308803 0.0390214 -0.0909774 0.0290323 0.0536948 0.00397681 -0.0822058 -0.107818 -0.0629085 0.00858694 0.0776701 -0.0890732 0.02615 -0.114161 0.0704862 -0.0368008 -0.138286 -0.00277309 0.0353473 0.121862 0.0510026 -0.120432 0.145646 0.0788476
internal_weight=0 0.971627 0.272862 1319.59 1319.38 5.11075 0.950333 0.439329 0.511004 4.16042 2.09665 2.06377 0.212167 0.192512 0.698766 0.18721 0.121925 0.511555 0.0914665 0.420089 0.232955 0.075432 0.36172 0.0744447 0.0583692 0.157523 0.0754897 0.0652848 0.0906375 0.0493058
internal_count=12273 1090 344 11183 10968 4066 695 277 418 3371 1574 1797 215 199 746 190 125 556 89 467 267 110 386 74 81 157 98 65 84 42
is_linear=0
shrinkage=0.3


Tree=473
num_leaves=31
num_cat=0
split_feature=298 178 218 272 167 275 122 69 282 213 165 1 107 210 136 191 288 288 226 284 181 78 132 269 120 256 5 224 290 119
split_gain=0.0154971 0.0270468 0.0279596 0.0251145 0.0271971 0.0242342 0.0262344 0.0231964 0.0225787 0.0219777 0.0211157 0.0220264 0.0205301 0.020274 0.017124 0.0167832 0.0154737 0.016627 0.0146232 0.0326254 0.0389182 0.0333623 0.0341237 0.0324539 0.0303234 0.0294945 0.0321599 0.0310464 0.0273881 0.0469118
threshold=0.056014001369476311 0.049366001039743403 -0.044184934536706195 0.086955396741642002 0.062885001301765414 -0.016426000744104347 -0.089320000261068289 0.023505133227475172 -0.061443400571765894 0.00044649999472310005 0.066270496696233708 0.032683178653856025 0.035637000575661611 -0.087269129392771191 -0.00085548120472081512 0.028261500410735604 0.017871996986691452 0.069906998425722053 0.0073259999044239009 0.064922927447590401 0.11896000057458876 -0.073536999523639637 -0.029845999553799598 0.066073503345251069 0.073494055170889153 -0.029833500273525698 0.018842999823391351 -0.081069000065326649 -0.00078760990396532088 -0.009228750525443313
decision_type=2 2 2 2 2 2 2 2 2 2 2 2 2 2 2 2 2 2 2 2 2 2 2 2 2 2 2 2 2 2
left_child=18 2 3 4 15 6 8 -6 -4 16 11 -7 -8 -5 -11 -2 -3 -18 28 24 21 23 -23 -21 25 27 -27 -20 29 -1
right_child=1 9 5 13 7 10 12 -9 -10 14 -12 -13 -14 -15 -16 -17 17 -19 19 20 -22 22 -24 -25 -26 26 -28 -29 -30 -31
leaf_value=0.007030552122766604 -0.14267631430892819 0.13001516882267516 -0.13436581392488425 -0.058432240424259818 0.1279327666704555 0.043555720896182364 0.11813870025123221 -0.12681157788968406 0.061635904411534111 -0.16828083783184578 -0.15509418393967386 -0.13629638152330842 -0.077761266327737943 0.14704024646306163 0.06489434731280902 0.042062395262658397 -0.16732274713344605 0.10282192359740215 0.082052316486963886 0.026111481306027345 0.14838538226860434 0.070888120930024112 -0.00052998920998597373 -0.092450716083361778 0.071685941007619727 -0.055145839700304018 0.0071709786430677915 -0.028646028388751334 -4.3297973811397564e-05 0.077536212593980539
leaf_weight=3.9835851710408861 0.25134130831429558 0.071143187233246752 0.0821918967703823 0.068137581954943016 0.10073548517539166 0.63844727731338813 0.78306074216743571 0.047264148452086374 0.14840199396348941 0.15399921388598159 0.062907108920626342 0.067792555637424812 0.051300656676176004 0.11817849046201445 0.034739798225928098 0.053718392475275323 0.051316145203600172 0.034151863597799093 0.38581863935610272 0.32607786785956694 0.16998404762125563 0.77505377821580657 2.6985523184434896 0.57277588910983468 0.26897456488222804 3.4791375361905903 0.94852656116654532 0.55750735476067337 1341.0061315906389 1.0794846021751698
leaf_count=1544 116 27 46 21 39 275 344 29 80 98 24 32 26 51 14 30 38 17 140 153 49 290 933 183 89 1679 486 292 4760 368
internal_value=0 0.0222212 0.0332017 -0.0208198 -0.0589486 0.0520338 0.0813402 0.0465794 -0.00822611 -0.0564233 0.0114564 0.0262916 0.106094 0.071897 -0.125362 -0.110145 0.0266577 -0.0593766 -4.58252e-05 -0.0113719 0.0075501 0.00207497 0.0154053 -0.0494398 -0.0266118 -0.0315344 -0.0417959 0.0166294 3.98517e-05 0.0220629
internal_weight=0 2.81883 2.47348 0.639375 0.453059 1.8341 1.06496 0.148 0.230594 0.34535 0.769147 0.70624 0.834361 0.186316 0.188739 0.30506 0.156611 0.085468 1356.25 10.1824 4.54244 4.37246 3.47361 0.898854 5.63996 5.37099 4.42766 0.943326 1346.07 5.06307
internal_count=12273 1307 1113 286 214 827 496 68 126 194 331 307 370 72 112 146 82 55 10966 4294 1608 1559 1223 336 2686 2597 2165 432 6672 1912
is_linear=0
shrinkage=0.3


Tree=474
num_leaves=31
num_cat=0
split_feature=59 14 27 299 145 147 161 2 36 130 201 71 263 187 257 138 129 139 205 206 250 52 245 43 211 238 160 37 18 62
split_gain=0.0128317 0.0229817 0.0254163 0.0311195 0.029511 0.0246955 0.029131 0.0243451 0.0303948 0.0238196 0.0211199 0.0207925 0.0203576 0.0290694 0.0271963 0.0263546 0.0291362 0.0273554 0.0198653 0.0193301 0.0192538 0.0164033 0.0160933 0.0165425 0.0450378 0.0337848 0.0313859 0.0418519 0.0302659 0.0200115
threshold=0.066360031444491069 0.013803570668363218 0.024094921119658965 0.0088466064109221035 0.054776500910520505 0.0022614999907091004 -0.063335496932268087 0.06593849882483481 -0.067728139131388407 0.0083653449399547757 0.032076001167297301 -0.021661000326275746 -0.082680238182002749 -0.015383284566173425 -0.027277000248432146 0.032631834808569814 0.021334678699742347 0.00043299999379080002 -0.058836289687471503 -0.0039775001350789993 0.020555499941110601 0.0064755215281571774 -0.1048386869564062 -0.0076936286472743427 -0.0018658429434860247 -0.090015481417587348 -0.045276001095771741 0.067331806427975135 0.023838999681174703 -0.072245500981807639
decision_type=2 2 2 2 2 2 2 2 2 2 2 2 2 2 2 2 2 2 2 2 2 2 2 2 2 2 2 2 2 2
left_child=12 7 3 4 20 -4 -7 8 9 -2 18 21 13 14 19 17 -17 -16 -5 -1 -3 -10 -14 24 25 -24 27 -25 -26 -28
right_child=1 2 5 10 -6 6 -8 -9 11 -11 -12 -13 22 -15 15 16 -18 -19 -20 -21 -22 -23 23 26 28 -27 29 -29 -30 -31
leaf_value=-0.19114763707209975 -0.17827334166266665 0.073689577274401466 0.10701777196051239 -0.05824040484831905 0.11833717643573645 -0.12340936774451403 0.084154760561206285 -0.19570067515138209 -0.061313721320959864 0.017602262330373906 -0.12334073895934528 0.12891070834307122 0.086123859513917753 -0.13242171839918818 0.13520021633922785 -0.1319401245554668 0.14752283433042906 -0.088216633345966688 0.10099250040534404 0.02257192257928143 -0.11944266758895861 0.095365119727018624 0.024049254968365571 0.053749246509253626 0.061657728759792862 -0.04307467273582221 0.11224863868169994 -0.12232193701430739 -0.035305498466236672 -2.6677608302304624e-05
leaf_weight=0.10726259891816881 0.13116592714504804 0.054810516287034039 0.63473887742247825 0.085495002640527784 0.073732598539208993 0.10623540827236866 0.1424586517860007 0.067620148853166029 0.1807251538757555 0.097340890439227223 0.054795607342384756 0.15390166582551446 0.19515692841332466 0.24927957272120593 0.21539206404122524 0.13609611396532273 0.044572001108463155 0.063972887262934819 0.40239295252649743 0.059059522965981159 0.30481188430280781 0.090131017241219524 0.82915448867652175 1.6010592093066396 0.94080303176401858 3.6264146111687272 0.14288851701644389 0.13147897692397226 0.41864496087328007 1415.8817852870752
leaf_count=39 46 32 311 48 40 51 80 26 107 57 27 83 172 120 65 60 21 30 186 31 127 53 443 602 567 2109 86 35 336 6283
internal_value=0 0.0211268 0.0387551 0.00538668 -0.0545587 0.0756214 -0.00451105 -0.0243441 -0.00660677 -0.0948329 0.0532555 0.0408562 -4.77839e-05 -0.0457765 -0.0112931 0.0262947 -0.0629948 0.0840391 0.0730893 -0.115258 -0.0900071 -0.00917674 -1.96601e-05 -3.14695e-05 -0.0159997 -0.0305833 3.40253e-05 0.0403875 0.0317977 -1.53481e-05
internal_weight=0 2.58036 1.85947 0.976039 0.433355 0.883433 0.248694 0.720885 0.653265 0.228507 0.542684 0.424758 1424.64 0.875635 0.626355 0.460033 0.180668 0.279365 0.487888 0.166322 0.359622 0.270856 1423.77 1423.57 5.81502 4.45557 1417.76 1.73254 1.35945 1416.02
internal_count=12273 1274 902 460 199 442 131 372 346 103 261 243 10999 366 246 176 81 95 234 70 159 160 10633 10461 3455 2552 7006 637 903 6369
is_linear=0
shrinkage=0.3


Tree=475
num_leaves=31
num_cat=0
split_feature=253 161 278 159 259 183 158 11 45 26 260 246 181 3 45 190 159 63 266 270 200 250 69 257 248 168 193 34 51 57
split_gain=0.0136112 0.0229373 0.0262973 0.0199035 0.0244865 0.0224815 0.0207521 0.018497 0.0251961 0.0407812 0.027215 0.0238202 0.0226909 0.0216279 0.021291 0.0209691 0.0192397 0.0189561 0.0187578 0.0253836 0.0352451 0.0225855 0.0215088 0.0197706 0.0176529 0.0169905 0.0158179 0.0153542 0.0138493 0.014426
threshold=-0.06350149959325789 -0.038540495550751779 -0.029341000132262648 -0.0074411260143365009 -0.020161279502022678 -0.075197499245405142 -0.039319500327110242 -0.031816900892646792 -0.072647075228033015 -0.024921500124037196 0.11054218128009885 -0.075650498270988395 0.10598047702823234 -0.071542989032001195 -0.011152058896053174 0.014719999860972102 0.071018498390912968 0.023249000310897803 -0.052171241632304237 -1.0000000180025095e-35 -0.027522999793291047 0.11500876427644777 -0.056050000712275443 0.060100000351667356 -0.023488000035285898 0.098374001681804615 0.011542327129864775 -0.0079433584379235266 0.073245773429001917 -0.030976734917205002
decision_type=2 2 2 2 2 2 2 2 2 2 2 2 2 2 2 2 2 2 2 2 2 2 2 2 2 2 2 2 2 2
left_child=1 2 -1 28 6 -6 -5 8 12 10 14 17 13 26 -10 25 -15 -9 21 20 -20 22 -13 -23 -19 -11 -2 -12 29 -4
right_child=7 -3 3 4 5 -7 -8 11 9 15 27 18 -14 16 -16 -17 -18 24 19 -21 -22 23 -24 -25 -26 -27 -28 -29 -30 -31
leaf_value=-0.1565892123137729 0.084529001523343431 -0.12303301862511652 0.046416115907115169 0.028484508199413405 -0.14281936831688158 0.11462681394753008 -0.15789924218345078 -0.15952416651964901 0.013045941992454806 0.062296339804757017 0.014864948748449396 -0.15396749931874873 -0.095781332305015357 0.097192002627667293 -0.11451897343806161 -0.107673236700346 -0.059049283099043746 0.1239433372686017 0.0045375036613727856 -2.5239055790281456e-05 0.080015125198947892 -0.13773019443777917 0.0073686427003547854 0.12269343037834129 -0.18382571898864439 -0.15034102766665353 -0.15895317789935787 -0.19346219440477952 -0.19743640129001042 -0.15830748867937564
leaf_weight=0.10025582532466615 0.039902370255731401 0.20876714226639481 0.090863439108716193 0.14863718636843259 0.034035140590276569 0.2962347860676573 0.084230919280344096 0.14955591321171269 0.48301540213219596 0.91057690146484904 0.040689827032338144 0.084574640475238994 0.07936442559957857 0.8748217397660486 0.15571566419052363 0.077753819705549176 0.077192089094751282 0.051683684618183179 1.6247286001512864 1312.431551527472 0.8471225666625618 0.26132718666417531 0.61634222964971641 0.029164231229515281 0.024831407824933649 0.035124279513183865 0.060306281746306922 0.14640314275158062 0.058643137492396136 0.047002480038827343
leaf_count=110 39 258 77 95 20 223 63 167 390 742 38 103 43 621 177 71 52 49 1447 5620 600 241 613 21 51 38 41 152 62 49
internal_value=0 -0.0338331 -0.0121771 0.00688191 0.0355675 0.0880963 -0.0389325 3.75979e-05 0.0236429 0.00206748 -0.0475278 -1.58654e-05 0.0589022 0.0705693 -0.018053 0.0420859 0.0845235 -0.0973879 8.63118e-07 3.19646e-05 0.0304043 -0.0412489 -0.0120986 -0.111585 0.0240632 0.0543988 -0.0620003 -0.148154 -0.0753228 -0.0233801
internal_weight=0 1.06867 0.859903 0.759647 0.563138 0.33027 0.232868 1319.1 2.98087 1.84928 0.825824 1316.12 1.13159 1.05222 0.638731 1.02346 0.952014 0.226071 1315.89 1314.9 2.47185 0.991408 0.700917 0.290491 0.0765151 0.945701 0.100209 0.187093 0.196509 0.137866
internal_count=12273 957 699 589 401 243 158 11316 2404 1608 757 8912 796 753 567 851 673 267 8645 7667 2047 978 716 262 100 780 80 190 188 126
is_linear=0
shrinkage=0.3


Tree=476
num_leaves=31
num_cat=0
split_feature=180 266 157 199 217 66 252 118 4 161 113 255 28 295 298 104 19 68 145 270 195 292 296 260 216 11 163 166 252 59
split_gain=0.0136838 0.029358 0.0280907 0.0265293 0.0275169 0.0238567 0.0289339 0.0220895 0.0215299 0.0285184 0.0259154 0.0206424 0.0198469 0.0194605 0.0235944 0.0265169 0.0220478 0.0165152 0.0155657 0.0155333 0.0149854 0.0159534 0.03777 0.0208944 0.0133138 0.0119909 0.00922926 0.00806141 0.00602462 0.00590284
threshold=0.046026110425608009 -0.066993542598797362 0.048446999862790059 0.039082000032067257 0.0086489999666809533 0.016364864243266289 0.056850557497911312 -0.11680100113153448 -0.045964499935507691 -0.02872822881285177 0.095022499561309814 -0.019971619042703802 -0.013194999657571248 -0.093608997762203147 0.071639038599620522 0.014396499842405252 0.051996501162648152 -0.065454501658677985 0.037404339260885593 0.022106000222265703 -0.09011700004339214 -0.09253850206732743 0.045693999156355809 0.13271350413560865 -0.067359000444412134 -0.0066225000191479496 -0.064602501690387684 0.055004199569452343 0.00070066771427484368 0.026800499297678453
decision_type=2 2 2 2 2 2 2 2 2 2 2 2 2 2 2 2 2 2 2 2 2 2 2 2 2 2 2 2 2 2
left_child=7 2 18 4 8 6 -6 -1 9 -3 -10 24 -7 14 15 16 -9 -5 26 29 -15 22 -22 -23 -4 -13 -2 -17 -28 -20
right_child=1 3 11 17 5 12 -8 13 10 -11 -12 25 -14 20 -16 27 -18 -19 19 -21 21 23 -24 -25 -26 -27 28 -29 -30 -31
leaf_value=-0.15531579935657974 0.014419909308466251 0.082034698604675937 -0.062300659016938632 -0.039989640595480901 -0.020868123631389759 0.0055407466659095298 0.049607661917799056 0.043539995100191901 -0.083157669186479627 -0.16348273910637975 0.09436200037977982 -0.19924117247898673 0.14578497941503263 0.14336676949069724 0.11190558762281427 -0.18731392782134026 -0.1222522595662504 0.15366454274202535 0.0078415776315591407 -0.12446015540467084 -0.05401063264863748 -4.7167697395296769e-05 0.12102332215630679 0.029114764674884185 0.17388062970518275 0.025923947131225738 0.05787623490730235 0.00088715851633999754 0.17767619893380748 0.17958725161515326
leaf_weight=0.082466930505687652 0.043807330745039508 0.21501427037583198 0.036006028734846041 0.051924007377238013 1.411015544676389 0.15594907096237876 0.8342764248845923 0.18089665565616897 0.71678240666381021 0.053094063987373374 0.08253533483366482 0.062424453579296824 0.21744481075529609 0.06559264310612789 0.066512082521512639 0.17106670478142405 0.12013145523815183 0.16745856613852073 0.032783836591988802 0.043474522564793006 1.0338156979087205 1349.6691211780862 0.12429441554013454 2.214886085894249 0.053248677017109003 0.032299490063451231 0.043779722749604733 0.023270145473361481 0.27566397012560628 0.039968716126168147
leaf_count=53 32 86 19 38 791 116 379 86 371 37 34 32 89 24 36 160 86 77 22 33 417 8394 52 581 27 27 26 16 112 20
internal_value=0 0.0163903 0.0747359 0.00647868 0.000446658 0.0169954 0.00531835 -5.52269e-05 -0.0401518 0.0334144 -0.0648275 -0.0249185 0.0872116 -4.57683e-05 -0.0558655 -0.078392 -0.0226228 0.10783 0.112974 0.0174151 -2.25892e-05 -2.95404e-05 -0.0352251 6.10335e-07 0.0786033 -0.122463 0.143549 -0.164778 0.161258 0.102195
internal_weight=0 4.56895 0.663457 3.90549 3.68611 2.61869 2.24529 1353.75 1.06743 0.268108 0.799318 0.183979 0.373394 1353.67 0.561877 0.495365 0.301028 0.219383 0.479478 0.116227 1353.11 1353.04 1.15811 1351.88 0.0892547 0.0947239 0.363251 0.194337 0.319444 0.0727526
internal_count=12273 2368 350 2018 1903 1375 1170 9905 528 123 405 105 205 9852 384 348 172 115 245 75 9468 9444 469 8975 46 59 170 176 138 42
is_linear=0
shrinkage=0.3


Tree=477
num_leaves=31
num_cat=0
split_feature=109 172 122 46 28 276 207 12 127 25 183 88 110 277 166 76 177 23 58 201 107 140 239 158 145 130 188 190 76 159
split_gain=0.0133019 0.0296829 0.0303912 0.0330621 0.0298832 0.0287992 0.033567 0.0246263 0.0246039 0.0238044 0.0236465 0.031875 0.0405274 0.0288685 0.0409813 0.028362 0.026807 0.0347736 0.0262995 0.0256022 0.0220735 0.0231971 0.0215449 0.0290616 0.020565 0.0208921 0.0202953 0.0202868 0.0200565 0.0223982
threshold=0.08134800195693967 0.037137984119411209 -0.06636000052094454 0.018380901064198426 -0.12368037094030462 -0.066431000828742939 0.064216907848753682 -0.038753667027876859 -0.052220827183083372 -0.12697560897513635 -0.013240373486092145 0.070601999759674003 0.0032654999522491505 0.071320138792980978 -0.048577990577054468 0.049466500058770103 -0.10041050240397449 -0.033615706476975558 -0.054330423926159034 -0.074103500694036387 -0.096625998616218498 -0.11391200125217434 0.06749665954684847 -0.044763821032138613 0.025851190623548095 0.0070570623457250061 -0.032020499929785638 -0.076200000941753332 0.068110708800843897 -0.065013002604246084
decision_type=2 2 2 2 2 2 2 2 2 2 2 2 2 2 2 2 2 2 2 2 2 2 2 2 2 2 2 2 2 2
left_child=10 2 3 27 -4 9 -7 8 -3 -6 11 16 22 15 -15 -14 24 26 -12 -19 -5 -22 23 -13 25 -1 -18 -2 29 -9
right_child=1 7 4 20 5 6 -8 28 -10 -11 18 12 13 14 -16 -17 17 19 -20 -21 21 -23 -24 -25 -26 -27 -28 -29 -30 -31
leaf_value=-0.20038999021335868 0.084428234952052247 -0.14999643636003784 -0.14065034859722175 0.15936187064979593 -0.094647362973569779 -0.042552608251505683 0.071697768754746538 -0.044953830096656169 0.060686894505923752 0.098673298944275095 0.068514203264454704 -0.064099465360325847 -0.044909849930832989 -0.07448056688263606 0.087314384089545546 0.071534940556404858 -0.13014436001759713 0.0078256262683665569 -7.1147526907565285e-06 -0.088407114574429124 -0.20054973192426426 0.051734231589402602 0.14483193818656637 0.092498833874654948 0.12150649844948924 0.081211909413031649 0.053788557177956046 -0.068834177171426397 -0.068498920654131684 0.11747424456850677
leaf_weight=0.046959925275587344 0.099761907723859622 0.089593896223050251 0.16683032276705478 0.17259422157076176 0.069631479651434347 1.5147352521598234 0.27318082373722075 0.086396025004432886 0.11256308289830486 0.32434810468839725 0.50430545989729481 0.17956939118596438 1.8988348951563701 0.20221777597907931 0.46462462435920304 0.20896883673776745 0.064209575577478972 0.29703282780337792 1415.2097306648134 1.5326872331952452 0.0338792497786925 1.0313581754617187 0.21419834415246441 0.26267374383314779 0.14479416266112821 0.04789404448820278 0.3392477068704246 0.35195208513658771 0.070681828961824067 0.66086485683229035
leaf_count=42 66 72 57 47 28 740 128 40 61 129 263 154 828 67 157 75 43 164 6706 1000 13 371 90 131 56 38 160 229 28 290
internal_value=0 0.0153497 0.00379945 0.0344846 -0.0182738 -0.00891675 -0.025096 0.0610739 -0.0326858 0.064506 -6.17185e-05 -0.0190083 -0.000294724 -0.0161537 0.0382506 -0.0333654 -0.0449737 -0.055206 1.72939e-05 -0.0727849 0.0598361 0.0437105 0.0667378 0.0289133 0.0503768 -0.0582024 0.0245159 -0.0349859 0.0842469 0.0986948
internal_weight=0 5.05837 4.03827 1.68955 2.34873 2.1819 1.78792 1.0201 0.202157 0.39398 1421.62 5.90391 3.43109 2.77465 0.666842 2.1078 2.47283 2.23318 1415.71 1.82972 1.23783 1.06524 0.656441 0.442243 0.239648 0.094854 0.403457 0.451714 0.817943 0.747261
internal_count=12273 2299 1808 726 1082 1025 868 491 133 157 9974 3005 1502 1127 224 903 1503 1367 6969 1164 431 384 375 285 136 80 203 295 358 330
is_linear=0
shrinkage=0.3


Tree=478
num_leaves=31
num_cat=0
split_feature=174 37 204 0 49 104 147 67 163 108 176 85 86 278 59 36 175 126 224 274 291 251 151 88 194 61 296 117 234 62
split_gain=0.0140685 0.0294969 0.0249859 0.0227948 0.0205335 0.0208287 0.0196216 0.0164529 0.0232249 0.0225411 0.0263392 0.0349577 0.0321537 0.0387759 0.0256345 0.0216074 0.0212961 0.0142936 0.0137079 0.0135737 0.0143052 0.0153737 0.0133706 0.0177275 0.0128968 0.0114894 0.00710776 0.00532613 0.00442447 0.00253707
threshold=-0.004299000138416849 0.039866639675333056 0.0048517203763214041 -0.048918498679995495 0.019903999753296302 -0.022838999517261947 -0.073842757920865296 -0.063542500138282734 -0.04489927842275878 -1.0000000180025095e-35 -0.064577501267194679 0.0036715000169351506 -0.018538918978888933 0.047626553642959348 -0.026151999831199594 -0.066165135972443265 -0.021524999290704696 -0.022095243983283819 -0.13676749914884562 0.049452500417828504 0.025482499971985803 -0.036833498626947341 0.00089619563664209161 0.076064378905793636 0.016537000425159851 0.091661002486944157 0.012715121747102712 0.010561460981096914 0.045212499797344159 0.036521000787615755
decision_type=2 2 2 2 2 2 2 2 2 2 2 2 2 2 2 2 2 2 2 2 2 2 2 2 2 2 2 2 2 2
left_child=1 2 3 6 17 -6 -1 8 19 10 11 15 16 -14 -13 -9 -12 -5 -4 20 21 -2 28 -24 29 26 -26 -8 -20 -10
right_child=7 -3 18 4 5 -7 27 9 24 -11 12 14 13 -15 -16 -17 -18 -19 22 -21 -22 -23 23 -25 25 -27 -28 -29 -30 -31
leaf_value=0.090560742026756916 0.06472946743989294 -0.19670099745425487 0.14781528559807114 -0.11432200486600934 0.076427234115507822 -0.063771400770029352 -0.19056171139144049 -0.094637368159659493 -0.19878620231408067 -2.4714794219361373e-05 0.015657487254415306 0.064568090168918582 0.068143419943131681 -0.028764583273503046 -0.093415007348431417 0.049410959063274119 -0.087642914568390837 0.14565339246051365 -0.18702501541938621 0.17435861664325925 0.12196825539931538 -0.15666802205861655 0.044226809229987493 -0.18645884261683227 -0.17905641204296222 0.19861572449807427 0.049742693737832841 -0.016182086376830229 -0.0010744655545256833 -0.063992587658759315
leaf_weight=0.038034677734685829 0.043869714265383664 0.091653656515745641 0.019963650564477575 0.021386309035733575 0.16956647856250118 0.21796186736338552 0.089440272558704126 0.10916892587715665 0.12228275768575159 1313.4265241870507 0.58179470902814501 0.11202722644975438 2.1352261829798915 0.44990825894669217 0.52860835867335254 0.66222502592222532 0.25982841345950225 0.173009768562152 0.13537029260108113 0.037529450524516506 0.043769595835328801 0.079168283785747917 0.082817613712109051 0.04699373840668386 0.032494503767338756 0.015861248739383882 0.019584998820391775 0.01913672366845276 0.012586979764819262 0.014006629570758378
leaf_count=29 48 157 18 20 187 185 106 108 186 6290 615 91 1601 403 576 467 304 149 209 25 43 106 100 74 45 15 32 23 30 31
internal_value=0 -0.0336366 -0.0190736 0.0108508 0.0374865 -0.00242624 -0.0948704 3.19259e-05 -0.0601607 5.05813e-05 0.0204887 -0.0139918 0.0346968 0.0512779 -0.0657887 0.029025 -0.0162337 0.117052 -0.0922972 0.011347 -0.0253284 -0.0777278 -0.109554 -0.039285 -0.131706 -0.0249312 -0.0930143 -0.159827 -0.171206 -0.184933
internal_weight=0 1.11792 1.02627 0.728536 0.581924 0.387528 0.146612 1318.67 0.408567 1318.27 4.83879 1.41203 3.42676 2.58513 0.640636 0.771394 0.841623 0.194396 0.297732 0.204337 0.166808 0.123038 0.277769 0.129811 0.20423 0.0679408 0.0520795 0.108577 0.147957 0.136289
internal_count=12273 1287 1130 699 541 372 158 10986 531 10455 4165 1242 2923 2004 667 575 919 169 431 222 197 154 413 174 309 92 77 129 239 217
is_linear=0
shrinkage=0.3


Tree=479
num_leaves=31
num_cat=0
split_feature=217 265 0 219 293 90 272 170 22 43 71 271 208 2 145 129 65 23 296 192 71 90 236 46 256 263 216 116 57 23
split_gain=0.0118398 0.0237508 0.0285416 0.0291271 0.0261405 0.0257061 0.0249555 0.026144 0.0248639 0.0229714 0.0184927 0.0176489 0.0175706 0.0154814 0.0307822 0.0384607 0.0267343 0.0266796 0.0259697 0.0264152 0.0245268 0.031255 0.0304 0.0242182 0.0230573 0.0285051 0.0283211 0.0533958 0.0265547 0.0317377
threshold=0.093936000019311863 0.039468636951740486 0.053550999611616107 -0.024980181699135708 0.043398000299930559 0.0088962757125944543 0.048227500170469208 0.011708499863743702 0.043816631132804228 -0.020362791091282206 -0.05939450114965434 -0.010455499868839948 0.00032450001162935002 -0.024437500163912749 -0.014864270089135675 -0.056755536063120858 0.048478885421773421 0.020648499950766504 -0.053535005824393515 -0.027028680337543052 -0.03044414877119694 0.039344374030315564 0.023542658765987573 0.063728866862721459 -0.020780500024557096 -0.082680238182002749 -0.097920799519637544 0.010819999966770402 -0.085624501109123133 0.055435718712589697
decision_type=2 2 2 2 2 2 2 2 2 2 2 2 2 2 2 2 2 2 2 2 2 2 2 2 2 2 2 2 2 2
left_child=13 2 3 4 11 12 8 -8 -5 -6 -7 -2 -3 14 16 23 18 -18 19 -1 22 -22 -17 -16 28 -26 27 -27 -15 -30
right_child=1 5 -4 6 9 10 7 -9 -10 -11 -12 -13 -14 24 15 20 17 -19 -20 -21 21 -23 -24 -25 25 26 -28 -29 29 -31
leaf_value=0.11470084544846897 -0.039245239005379975 -0.12970839113064631 0.15666525122994907 -0.087194576721935577 0.075313094384193632 0.16591675193903635 -0.033769191222930282 0.10592137454749849 0.072336698060098209 -0.15138336174749623 -0.066431919138047413 0.14641333025207104 0.024573347503322896 0.078765159756581563 0.09964619153981466 -0.036559704671353381 0.026684318307494043 -0.12943454367634707 0.080403101657694764 -0.16727225401986176 -0.10072615715239967 0.042524913160192683 0.046037829802905973 -0.05956359534045011 0.068490812556794511 0.014425275633205177 -8.9773720657868737e-06 -0.11024275714271144 0.028208555180408976 -0.065033446424149294
leaf_weight=0.046705227898200974 0.053176441404502839 0.22746292379451905 0.16531306981050864 0.39566870884664174 0.095313639190862887 0.077874706978036556 0.21871671186818276 0.2687429807629087 0.11304871604079381 0.069609158876119182 0.051031784532824531 0.34540565174393123 0.09384511197640677 0.67945983952085987 0.31984367781114986 2.45543288335648 0.24322536775434855 0.16558729524695082 0.69246824658330275 0.083103840661351569 0.84095495320479974 0.16377298161023646 0.47931924564545614 0.11760800939373439 0.54630276745842721 0.64444240785735363 1345.227892469557 0.59438005808090111 1.7566121037526721 0.40413064364736317
leaf_count=19 33 122 85 208 50 23 133 128 44 31 30 143 56 259 128 977 111 68 266 59 493 78 202 60 196 300 6670 339 750 212
internal_value=0 0.0221195 0.0381344 0.0255712 0.0800805 -0.0392417 -0.00526298 0.0432441 -0.0517431 -0.0203689 0.0739341 0.121644 -0.084647 -3.13479e-05 -0.0157611 -0.0275487 0.0261478 -0.0365508 0.0573198 -0.0658185 -0.0369198 -0.0773759 -0.0230694 0.056843 3.40019e-05 -2.2932e-05 -5.07301e-05 -0.0453897 0.0270358 0.0107692
internal_weight=0 2.17521 1.725 1.55968 0.563505 0.450215 0.996177 0.48746 0.508717 0.164923 0.128906 0.398582 0.321308 1355.46 5.60802 4.37693 1.23109 0.408813 0.822277 0.129809 3.93948 1.00473 2.93475 0.437452 1349.85 1347.01 1346.47 1.23882 2.8402 2.16074
internal_count=12273 1086 855 770 257 231 513 261 252 81 53 176 178 11187 2461 1938 523 179 344 78 1750 571 1179 188 8726 7505 7309 639 1221 962
is_linear=0
shrinkage=0.3


Tree=480
num_leaves=31
num_cat=0
split_feature=117 48 40 78 14 220 6 89 60 67 170 195 101 158 262 231 196 223 144 298 135 244 66 100 196 287 18 149 161 1
split_gain=0.0148127 0.0283219 0.0413682 0.0244708 0.0259847 0.0227243 0.0192257 0.0217151 0.0236413 0.0194986 0.0238591 0.0252014 0.022457 0.0229566 0.018291 0.0339072 0.0332394 0.032914 0.0292652 0.0269578 0.0172529 0.0199198 0.0153623 0.0151694 0.0148785 0.014821 0.0147272 0.0142611 0.014109 0.0127233
threshold=-0.078027551153305869 -0.067375855265683446 0.039038617103516526 -0.10470749810338019 0.050763500854372902 0.078841000795364366 -0.13573750108480448 0.024618451731276688 0.042396498844027505 -0.076408497989177634 0.029240499250590756 0.049861911013464752 -0.00047332982971490088 -0.02570233603309028 -0.038631605613199498 -0.029290183843469639 -0.0056458384898150811 -1.0000000180025095e-35 0.041746843378703755 -0.038748443784921018 0.024024499580264053 -0.089983001351356437 -0.09050000086426728 -0.099743999540805733 -0.054618999361991841 0.022045366609342389 -0.024432522582415954 -0.006874499842524499 -0.056025000289082492 -0.035399001091718597
decision_type=2 2 2 2 2 2 2 2 2 2 2 2 2 2 2 2 2 2 2 2 2 2 2 2 2 2 2 2 2 2
left_child=1 2 23 4 -3 20 7 8 28 10 11 -8 13 -12 18 16 -16 -17 19 -11 21 -5 -4 -1 -22 -13 -7 -25 -2 -30
right_child=6 3 22 5 -6 26 9 -9 -10 14 12 25 -14 -15 15 17 -18 -19 -20 -21 24 -23 -24 27 -26 -27 -28 -29 29 -31
leaf_value=0.13381264064750242 -0.14177451938510965 -0.10846173029689646 0.047068681489811845 -0.11136502275720307 0.11386378155531626 0.10671228977030355 0.13775499234843391 -0.18355417939016538 0.13615284259352872 0.014528708564047007 -0.071185143709144499 -0.11798078724033176 -0.19247904050713568 0.14536042381715808 0.071944246721680247 -0.032288907784115729 0.0032154653085040025 2.0795374041630504e-05 0.089609035611957225 -0.037568120689506691 -0.062706121260017636 0.081907622379768022 -0.16013264715624151 -0.16600901135691204 0.13604980756459711 0.11206591125364841 -0.14204288291518219 0.12037608695089695 0.18442474771578737 -0.099487641712768457
leaf_weight=0.11588930845937284 0.11003323585828184 0.14482617386602203 0.038985133105597924 0.067819466210494284 0.070269256255414803 0.031963920628186315 0.31190713000933001 0.10671492963047058 0.063371563846885692 1.2195828119939731 0.097454968068632297 0.066579338130395627 0.055094592506065965 0.080419616679137107 1.1643312668420551 2.8433473253971888 1.3886226031418107 1413.3975331862307 0.21496366426072189 3.3478483617333259 0.036289442552515427 0.16417816926843798 0.18515483810745081 0.037870082243898651 0.51418510776534287 0.040559936278441455 0.064934645030007232 0.026670398565329267 0.028380010186538129 0.028444073121817293
leaf_count=47 119 68 19 45 47 20 141 96 29 614 38 36 25 36 453 1875 820 5185 106 1753 21 83 174 30 250 33 39 15 18 38
internal_value=0 0.0298 -0.0380236 0.054871 -0.0358305 0.0770567 -3.7433e-05 -0.0716901 -0.0198392 -2.04814e-05 0.0518469 0.0946365 -0.0251195 0.0267182 -4.42373e-05 1.81954e-05 0.0345608 -4.40719e-05 -0.0185662 -0.0236574 0.0940275 0.0254086 -0.124094 0.0688975 0.122947 -0.0308915 -0.059986 -0.0476646 -0.0790841 0.0423085
internal_weight=0 1.49904 0.40457 1.09447 0.215095 0.879371 1424.57 0.336944 0.230229 1424.23 0.652016 0.419046 0.232969 0.177875 1423.58 1418.79 2.55295 1416.24 4.78239 4.56743 0.782472 0.231998 0.22414 0.18043 0.550475 0.107139 0.0968986 0.0645405 0.166857 0.0568241
internal_count=12273 858 285 573 115 458 11415 300 204 11115 309 210 99 74 10806 8333 1273 7060 2473 2367 399 128 193 92 271 69 59 45 175 56
is_linear=0
shrinkage=0.3


Tree=481
num_leaves=28
num_cat=0
split_feature=89 272 63 5 248 65 100 248 244 57 171 61 124 173 208 30 206 9 68 97 171 37 63 263 225 54 178
split_gain=0.01267 0.014685 0.0193793 0.0126968 0.0200226 0.0193967 0.0171288 0.0122207 0.0117415 0.0116132 0.0123829 0.0210009 0.0187761 0.017528 0.0170011 0.0151574 0.0115101 0.0112165 0.00997077 0.0107384 0.00885961 0.00350421 0.00275709 0.000459521 7.87694e-05 4.8865e-08 1.78971e-09
threshold=-0.078674104890388993 0.03128711798015666 -0.042813500389456693 -0.096862498670816338 -0.07489050179719918 0.069667991639449964 -0.15533145918164656 -0.092074502259492791 -0.099884498864412238 -0.15832872767369596 -0.048642000183463048 -0.041326832227122121 -0.068115692225684296 -0.075270000845193835 -0.077467501163482597 -0.0055102140652182208 -0.033845501020550693 -0.006838500034063999 -0.089444998651742894 -0.031472999602556194 -0.099419500678777639 -0.026511500589549496 0.036259698491102811 -0.048691403619848153 -0.065752914492176642 -0.045856108045136339 -0.0076446217115163648
decision_type=2 2 2 2 2 2 2 2 2 2 2 2 2 2 2 2 2 2 2 2 2 2 2 2 2 2 2
left_child=1 2 -1 4 18 6 -6 -3 -7 21 12 16 15 -14 -13 -11 -12 -4 -2 -20 -8 -5 24 -19 -9 -26 -23
right_child=3 7 17 9 5 8 20 22 -10 10 11 14 13 -15 -16 -17 -18 23 19 -21 -22 26 -24 -25 25 -27 -28
leaf_value=0.18095977025438867 0.19833665488589503 0.057633980466325674 0.081760722846600797 -0.01030669188382149 0.16034504614186992 0.17254262706502851 0.067903501806722971 -0.17543302437490835 -0.11908378747015629 -0.14594824078993487 0.0046597062391943479 -0.06375285469274683 -0.031157213830513161 0.040190122300015778 3.2895139700019066e-05 0.014279166107526681 -0.13498801131950416 -0.13441580575699447 0.15066465820134331 -0.17746909290140639 -0.15831635858379914 -0.200252148242129 -0.068037565064574451 -0.20029220569415004 -0.20073427242718975 -0.20023472108478804 -0.20011132562042841
leaf_weight=0.039634768122368769 0.036491141057922505 0.024545826512621716 0.023374612278757922 0.011787309409555746 0.018053645968393539 0.036732663452767156 0.01674350224857335 0.013255544731691771 0.018777138685891259 0.10428896865130355 0.079404961688283038 0.37618139753089863 0.36852084503701177 1.9481202597374634 1315.599433960931 0.10833424808083725 0.16046673035213999 0.01459124282700941 0.016852761302288854 0.019204246933838931 0.22441717860902954 0.020414530545167509 0.017802565940655768 0.027473543054610583 0.026155840624596749 0.054020228777517332 0.013489317555012259
leaf_count=24 17 22 29 13 22 35 21 22 35 98 89 465 480 1727 8386 114 168 12 13 33 243 17 27 37 17 74 33
internal_value=0 -0.0687957 0.0154119 1.75918e-05 -0.0542945 -0.0870453 -0.12151 -0.13396 0.073895 3.35409e-05 3.87811e-05 -1.51715e-06 0.0210098 0.0288405 1.46615e-05 -0.0643103 -0.0887603 -0.0848557 0.0877829 -0.024102 -0.14261 -0.151209 -0.176239 -0.177441 -0.196856 -0.200398 -0.200196
internal_weight=0 0.240854 0.105074 1319.18 0.387272 0.314724 0.259214 0.13578 0.0555098 1318.79 1318.74 1316.22 2.52926 2.31664 1315.98 0.212623 0.239872 0.0654394 0.0725481 0.036057 0.241161 0.0456912 0.111234 0.0420648 0.0934316 0.0801761 0.0339038
internal_count=12273 264 102 12009 419 356 286 162 70 11590 11527 9108 2419 2207 8851 212 257 78 63 46 264 63 140 49 113 91 50
is_linear=0
shrinkage=0.3


Tree=482
num_leaves=31
num_cat=0
split_feature=141 10 162 34 51 233 82 203 154 241 199 33 24 20 52 161 159 267 194 90 58 108 122 218 24 166 185 42 280 135
split_gain=0.0101237 0.0379099 0.0380101 0.0266235 0.0284312 0.0246976 0.0241323 0.0235223 0.0225887 0.0235335 0.0220891 0.021966 0.0218568 0.0212403 0.0335396 0.0295919 0.0282782 0.0303568 0.0267963 0.0273494 0.0377323 0.0281242 0.0246418 0.0239092 0.0367198 0.0318031 0.0293483 0.0263113 0.0256047 0.0235574
threshold=0.049397498369216856 0.013356500305235353 0.042662998661398853 -0.00024245278545773695 0.05043813046537364 -0.080988947399725217 0.034862499684095306 0.060098828129236122 -0.0028437898428089856 -0.030353094118342739 -0.0094662440044790633 0.037670923445254571 -0.0071673669734277782 0.017097499221563301 0.037443000823259361 -0.0034800000721587998 0.038395105659151448 -0.023600611739726263 -0.02215652392877911 -0.017677833166418785 0.017405063292583713 0.0009050159669840188 0.0026417481478294394 -0.028683499433100144 -0.031096000224351845 -0.024499916569472972 -0.096845500171184498 0.020731227412368099 0.00058150000404565009 0.13675549626350403
decision_type=2 2 2 2 2 2 2 2 2 2 2 2 2 2 2 2 2 2 2 2 2 2 2 2 2 2 2 2 2 2
left_child=13 3 6 -2 -5 -4 7 10 11 -10 -3 -7 -6 18 15 16 29 -18 23 20 -20 -22 -16 25 28 -1 -26 -27 -25 -15
right_child=1 2 5 4 12 8 -8 -9 9 -11 -12 -13 -14 14 22 -17 17 -19 19 -21 21 -23 -24 24 26 27 -28 -29 -30 -31
leaf_value=-0.055473815777430623 -0.088598721509856426 0.11357941085400282 -0.05767777109746116 0.05307842991865945 -0.14579844819644386 0.13618501259184232 -0.07474821623132194 -0.076566558666200213 -0.031531347254407802 0.088264468448820313 -0.0333005792036912 -0.058949729667388248 0.043810275037598115 0.023559827441611215 -0.095297368691015752 -0.082823308509870255 0.014961515330607142 -0.090150599131672116 -0.080412394195212483 2.0139199959638055e-05 -0.024444366353295017 0.088029486172181745 0.084360168264802721 0.028757433574103014 -0.1309731473731309 0.063919996734665904 0.10368961697338444 -0.092516373178662681 -0.10613130356210575 -0.071861206282172033
leaf_weight=0.58846095659828279 0.42233663976969638 0.27382598023177707 0.12617836667777771 0.43451777208622322 0.14933348823342385 0.61101005627824656 0.32927742717492947 0.14429124642629176 0.24771092277114826 0.3651299143439235 0.13889013348671175 0.056740068015642464 0.086356769847043324 2.5492798880841301 0.68843197960632085 0.43954834880059834 0.44203524058320909 0.56126202244058709 0.90519522706153965 1343.2928015824211 0.84651318261194297 0.26201962532650214 0.076328815404849593 0.8047665232734289 0.050699348728812765 0.59985574796212426 0.88981481924895323 0.11537397153733764 0.15030606698132942 0.25626029136037676
leaf_count=288 273 127 49 215 90 223 187 82 133 167 95 34 53 1137 366 327 173 284 431 5633 478 144 32 318 30 286 409 64 66 79
internal_value=0 0.0163859 0.0382984 -0.0296045 0.00757115 0.068956 -0.0103634 0.027698 0.0814334 0.0398429 0.0641503 0.119604 -0.0763259 -3.94778e-05 -0.0195308 -0.0091197 -0.000614143 -0.04384 3.29822e-05 -3.22329e-05 -0.0349679 0.00214064 -0.0773662 0.0274561 0.0489638 -0.00381638 0.0910399 0.0386852 0.0075291 0.014844
internal_weight=0 3.3856 2.29305 1.09254 0.670208 1.40677 0.886285 0.557007 1.28059 0.612841 0.412716 0.66775 0.23569 1353.52 5.01315 4.24839 3.80884 1.0033 1348.51 1345.31 2.01373 1.10853 0.764761 3.19928 1.89559 1.30369 0.940514 0.71523 0.955073 2.80554
internal_count=12273 1728 1097 631 358 606 491 304 557 300 222 257 143 10545 2398 2000 1673 457 8147 6686 1053 622 398 1461 823 638 439 350 384 1216
is_linear=0
shrinkage=0.3


Tree=483
num_leaves=27
num_cat=0
split_feature=173 82 154 116 200 251 103 145 30 51 278 165 29 17 130 172 145 214 210 196 290 101 13 178 108 34
split_gain=0.0182514 0.0189353 0.0141979 0.015083 0.0241204 0.0238546 0.0221231 0.0220907 0.0210427 0.0209645 0.0203752 0.0229462 0.0227319 0.0166113 0.0384127 0.0135088 0.0181395 0.0133971 0.0129229 0.0108068 0.0109754 0.00966632 0.00807242 0.00580176 0.00179166 0.000151378
threshold=-0.13037633978049537 -0.01048174942443416 -0.09710989617172773 -0.0080915451186414512 -0.052214499562978696 0.0090319274558918437 0.074914000928401905 0.049944998696446356 0.012202411772413751 0.080104500301314316 -0.039102377468805759 0.054185026365860686 0.059551998972892706 -0.0045384999830274985 -0.0033604999771341495 0.015010718721437907 0.010932000353932351 0.047919639543859825 -0.064179498702287632 -0.0061345000285654488 -0.0085312434063349093 -0.056042593568691623 -0.060909475452231361 -0.0019024999928660498 -0.02015382749970716 -0.0033634766330813055
decision_type=2 2 2 2 2 2 2 2 2 2 2 2 2 2 2 2 2 2 2 2 2 2 2 2 2 2
left_child=1 -1 17 4 6 7 9 -6 -7 -4 11 12 -5 14 -12 16 21 19 -8 24 -21 -3 -13 -17 -2 -25
right_child=2 15 3 10 5 8 18 -9 -10 -11 13 22 -14 -15 -16 23 -18 -19 -20 20 -22 -23 -24 25 -26 -27
leaf_value=-0.085819033608177941 0.19997417532703327 0.054035218894092261 0.0042970392015175126 -0.0093918819611689061 -0.14305557871156641 0.030607055290176308 -0.065817336309926089 -0.0068925829717142329 -0.085487207769197937 -0.082419728544295176 -0.049902499644947702 0.034234470497031308 0.07806522995451641 3.9405972645083554e-05 0.0029395250264028093 0.073671147796435466 0.18267400237466253 -0.074566760731847703 0.14799718056142475 -0.071950376815650918 0.16703607436491819 -0.18321406565113613 0.18732948913910905 0.17701179722177682 0.12151759001094628 0.2004875570180876
leaf_weight=0.057275531144114211 0.067831773289071862 0.027111450984193652 1.4632364325756273 0.72617875420632916 0.36755173728232537 0.35688819149214623 0.031703233616326543 0.15140818731742911 0.23176742997338806 0.30284265037960256 1.9765415818917516 0.042671250965213403 0.42344873713591369 1415.3352094018974 3.3140104584977044 0.053177256299022702 0.037314865226676375 0.043542739935219288 0.1287886684372096 0.044552716832185979 0.02826834704205694 0.035951166840844873 0.11330319722765114 0.035648011515149847 0.042678260008869984 0.080649217563404818
leaf_count=35 26 22 808 442 346 255 28 133 169 205 1082 27 262 6310 1740 36 25 28 75 32 19 28 62 14 26 38
internal_value=0 0.0708478 -2.20253e-05 -3.39731e-05 -0.0211631 -0.05644 -0.000881819 -0.10333 -0.015102 -0.0105729 1.11132e-05 0.0374711 0.0228217 -2.33137e-05 -0.0168022 0.1041 0.016883 0.0750204 0.105761 0.110549 0.0208216 -0.0812175 0.145446 0.155757 0.169675 0.193292
internal_weight=0 0.327127 1425.19 1424.97 3.03419 1.10762 1.92657 0.51896 0.588656 1.76608 1421.93 1.3056 1.14963 1420.63 5.29055 0.269852 0.100377 0.226874 0.160492 0.183331 0.0728211 0.0630626 0.155974 0.169474 0.11051 0.116297
internal_count=12273 198 12075 11944 2019 903 1116 479 424 1013 9925 793 704 9132 2822 163 75 131 103 103 51 50 89 88 52 52
is_linear=0
shrinkage=0.3


Tree=484
num_leaves=21
num_cat=0
split_feature=120 6 125 112 213 203 290 288 53 51 247 124 259 87 99 265 287 19 9 213
split_gain=0.0112 0.0109527 0.0121395 0.0110238 0.0146306 0.0138334 0.0121515 0.011598 0.0107344 0.00875314 0.00799952 0.0074712 0.00727451 0.00635708 0.00558747 0.0050324 0.000479906 0.000443913 0.000195695 1.32189e-08
threshold=-0.10238499939441674 -0.16950099915266031 -0.098522998392581884 -0.10123400017619123 -0.06964421217868301 -0.061766499653458547 0.0071604999247938004 -0.047549499198794344 -0.012974907865189659 -0.080298501998186042 -0.087003000080585383 0.037897000089287709 -0.01002707652072639 -0.051252667708027728 0.049184923340322227 -0.041985999792814192 0.035593500360846506 -0.014780499972402999 -0.055795500054955392 -0.084720763696144147
decision_type=2 2 2 2 2 2 2 2 2 2 2 2 2 2 2 2 2 2 2 2
left_child=9 12 8 7 6 -6 -5 -4 -3 -1 -11 -9 16 14 -10 -12 -2 -17 -15 -19
right_child=1 2 3 4 5 -7 -8 11 13 10 15 -13 -14 18 -16 17 -18 19 -20 -21
leaf_value=0.20023843821187223 0.19950160200271505 0.14093246524542183 0.13598498903989778 0.083791069776544505 -0.1033207096666364 1.7404981222732363e-05 -0.055971302912145991 -0.1516042905403292 -0.20008294248345274 0.13689826033894317 -0.026657298977535302 0.026624348381347911 -0.028424631601352831 -0.11923819696596899 0.15824586563194384 -0.1339179564278522 0.14129897375664657 -0.20054227977653696 -0.20011346583169329 -0.2001650130787089
leaf_weight=0.0082742332015186548 0.030982439617218915 0.013153240209021533 0.019118465577321331 0.3129973446987141 0.11659765372905795 1318.2475630384786 0.068184357757900216 0.10160942626089209 0.0065433496542937055 0.0097844362633168203 0.022778815109631978 0.026738160625427554 0.022444367935121501 0.0028226013391758889 0.0097556010887274169 0.010809419392899144 0.021666403030394576 0.010177704083616845 0.058518580360668149 0.046769838646467998
leaf_count=6 25 22 20 271 127 11078 66 160 43 10 37 35 22 10 11 19 18 4 200 89
internal_value=0 1.50564e-05 8.53369e-06 1.6085e-05 2.52567e-05 8.26564e-06 0.0587909 -0.0820034 -0.109685 -0.0963332 -0.120794 -0.114475 0.114584 -0.152142 0.0143918 -0.148643 0.17555 -0.189653 -0.196392 -0.200232
internal_weight=0 1319.06 1318.98 1318.89 1318.75 1318.36 0.381182 0.147466 0.0907934 0.108594 0.10032 0.128348 0.0750932 0.0776401 0.016299 0.0905358 0.0526488 0.067757 0.0613412 0.0569475
internal_count=12273 12108 12043 11757 11542 11205 337 215 286 165 159 195 65 264 54 149 43 112 210 93
is_linear=0
shrinkage=0.3


Tree=485
num_leaves=31
num_cat=0
split_feature=269 230 266 34 190 17 271 121 224 95 146 113 196 95 52 76 1 155 184 146 146 186 221 32 230 85 240 4 19 101
split_gain=0.010311 0.0336767 0.0423106 0.0388476 0.0415726 0.0358555 0.0350009 0.0284681 0.0231559 0.0273553 0.0243286 0.0242211 0.0204755 0.0195727 0.0329449 0.0316551 0.0390754 0.0284727 0.0269186 0.0266766 0.0319003 0.0314528 0.0246756 0.0241024 0.0289241 0.0240323 0.0235252 0.0382564 0.0277513 0.0233269
threshold=0.14769177586954468 0.038177499547600711 -0.037328999489545794 0.044710296927543462 -0.057328499853610944 0.020339499227702552 0.048326499760150854 0.076407303414953984 -0.13043878594693376 0.035847629812693793 0.057103499770164455 0.076693501323461519 0.0089563502934683695 -0.00033613688720470083 -0.005702999886125249 0.015383321508070381 -0.073605500161647727 0.035812049374866088 -0.10386699810624118 -1.0000000180025095e-35 -0.00036063082407743451 0.010469962290113355 0.019695698120441654 -0.067517999559640843 0.046483661273840619 -0.029682999476790348 0.1085314191122255 0.007108500227332051 0.018776590629053538 1.0000000180025095e-35
decision_type=2 2 2 2 2 2 2 2 2 2 2 2 2 2 2 2 2 2 2 2 2 2 2 2 2 2 2 2 2 2
left_child=13 8 3 4 6 -6 -3 -4 -2 10 -10 12 -11 14 23 16 17 -16 -18 20 21 29 -23 24 25 -1 28 -28 -17 -15
right_child=1 2 7 -5 5 -7 -8 -9 9 11 -12 -13 -14 19 15 26 18 -19 -20 -21 -22 22 -24 -25 -26 -27 27 -29 -30 -31
leaf_value=0.090695373581701363 -0.12605865297131491 -0.010421929122249846 -0.11754528579460052 0.12250730524973549 0.094451801680646125 -0.11326950452284693 -0.17397044807716414 0.10190777268684852 0.13532168181541548 -0.081542420766894497 -0.037515076250349971 0.14203939519037828 0.10175021294063669 0.022845259722057559 0.10101076993713418 -0.085840505610487214 0.053407262899859614 -0.1692815583204155 -0.082770325298662517 -2.4527431537456527e-05 0.19088359722620929 0.10381864598660494 -0.051819430076505739 0.017899971718568199 -0.1662139623905888 -0.062774001513018512 0.013040998011767654 -0.17081771859439307 0.065274234591232258 -0.045288409582974115
leaf_weight=0.13963221694575623 0.056429873337037861 0.35572788844001457 0.38342666265452852 0.26518683500762552 0.40525159760727547 0.091714679554570466 0.17605320504662814 0.061771517794113606 0.52182562711823199 0.21381946864130441 0.085275258868932724 0.092391092446632683 0.073777421930572018 1.8142985959278815 0.20283555231799288 0.13491534104105063 0.14091116798954351 0.042409092930029146 1.7926979161146039 1343.8336000610952 0.10392483341286052 0.57170340127049701 0.10919143020873889 2.5661255214463949 0.14504974456951913 0.26825642417316009 0.29228139566657774 0.1563329854834592 0.57773061866828357 0.60241044527720067
leaf_count=62 24 104 133 66 84 36 63 17 177 85 43 29 33 975 94 79 90 38 1017 6367 12 228 49 1367 76 182 111 56 255 321
internal_value=0 0.0182422 -0.00732252 0.0201248 -0.006267 0.056117 -0.0645668 -0.087096 0.0608484 0.0715335 0.111044 0.00840733 -0.0345222 -3.83625e-05 -0.0165131 -0.0372173 -0.0585386 0.0542703 -0.0728464 4.06358e-05 0.0273928 0.0219076 0.0788598 0.00565835 -0.0511537 -0.0102369 0.00278742 -0.05103 0.0366658 0.00586165
internal_weight=0 2.78265 1.73913 1.29393 1.02875 0.496966 0.531781 0.445198 1.04352 0.987089 0.607101 0.379988 0.287597 1353.49 6.45918 3.34011 2.17885 0.245245 1.93361 1347.04 3.20153 3.0976 0.680895 3.11906 0.552938 0.407889 1.16126 0.448614 0.712646 2.41671
internal_count=12273 894 503 353 287 120 167 150 391 367 220 147 118 11379 3427 1740 1239 132 1107 7952 1585 1573 277 1687 320 244 501 167 334 1296
is_linear=0
shrinkage=0.3


Tree=486
num_leaves=31
num_cat=0
split_feature=274 69 87 208 176 166 86 238 277 145 281 49 20 195 62 213 125 98 283 147 46 152 289 226 230 21 279 283 225 22
split_gain=0.0146519 0.01832 0.0140234 0.015556 0.0135932 0.020665 0.0227557 0.0184668 0.0212155 0.0142839 0.0142186 0.022482 0.0234598 0.0233846 0.0202092 0.0165253 0.0156449 0.024697 0.0299735 0.029386 0.0184589 0.0179935 0.0152953 0.0140387 0.0129753 0.00854867 0.00726157 0.00123653 0.0010904 2.16573e-05
threshold=-0.10825150087475774 -0.052507985637233003 0.022646022001867949 -0.042705999687313999 -0.11676950159610154 -0.019850628326959947 -0.00072696395451663062 -0.053503071632335461 0.095263069793654467 -0.010540718450133537 -0.073632501065730979 0.024832292163031931 0.015891999937593902 0.040450999513268457 0.064986934529359122 0.085930500179529162 -0.053804500028490944 0.0042510411974240178 -0.027360088841831606 0.032181501388549756 -0.0027672562503175059 -0.053674176666492206 -0.09546780401529173 0.084455501288175569 0.0019792275259811975 -0.01814350020140405 -0.050310114002146307 0.013097000308334801 -0.051133500412106493 0.025999000295996604
decision_type=2 2 2 2 2 2 2 2 2 2 2 2 2 2 2 2 2 2 2 2 2 2 2 2 2 2 2 2 2 2
left_child=1 -1 24 -4 5 6 25 -8 -9 -7 11 15 13 -13 -14 23 17 19 -19 -12 21 -18 -22 -6 -3 -2 -11 -28 -26 -30
right_child=4 2 3 -5 10 9 7 8 -10 26 16 12 14 -15 -16 -17 20 18 -20 -21 22 -23 -24 -25 28 -27 27 -29 29 -31
leaf_value=-0.12981582565397612 0.17594315747444711 -0.0081508227944504293 0.093556674341462628 -0.1855986592504752 -0.15826160419007776 0.0018444431741069212 0.071598687984049503 -0.14546700585154956 0.095850414681138515 0.015992878352199442 -0.025207151136829524 -0.13862930088851924 0.14696589502530297 0.048186461754233391 -0.045725325663612926 0.055963458123561606 -0.093776913141459736 -0.15073049687318149 0.07058756043739596 0.096920268232767656 0.057250244963055967 -0.015329440660820105 -3.877016581510913e-05 0.081053101362784902 0.1373115363296829 0.0051382662880571075 0.13254081487812688 0.19653627299634172 0.19209441138920721 0.20068794249482344
leaf_weight=0.037480073602637276 0.072298287675948814 0.041938892883080281 0.046462931873975322 0.02929245542463832 0.22929503345676394 0.077795438106477377 0.085374314519867767 0.15744001388338802 0.041412916252738796 0.028253918164409697 1.0230069286571954 0.14592540925809772 0.13095420107151767 0.10277619759290246 0.078259625796818 0.048453315423103049 0.34341485629687429 0.058285829256419674 0.99943718367808265 0.21449877718896448 0.41955322178705401 1.1258675152174067 1419.2056001664926 0.024409740653936751 0.037349142641687649 0.041515064604482177 0.035435398674052432 0.11655149695343425 0.047595273047136288 0.059252046059555141
leaf_count=26 27 39 28 38 252 35 33 89 15 16 571 97 67 61 47 16 318 41 532 121 237 862 8511 25 25 27 22 53 23 19
internal_value=0 0.066357 0.094432 -0.0143848 -1.8668e-05 0.0431536 0.000285175 -0.0451054 -0.0952105 0.109281 -3.85566e-05 -0.0410595 0.000852206 -0.0614275 0.0748868 -0.104576 -1.66518e-05 0.0247316 0.0583918 -0.00403862 -5.6623e-05 -0.0336649 -2.18391e-05 -0.135236 0.138719 0.11364 0.155653 0.181616 0.181436 0.19686
internal_weight=0 0.299371 0.261891 0.0757554 1424.81 0.656077 0.398041 0.284227 0.198853 0.258036 1424.15 0.760074 0.457915 0.248702 0.209214 0.302158 1423.39 2.29523 1.05772 1.23751 1421.09 1.46928 1419.63 0.253705 0.186135 0.113813 0.180241 0.151987 0.144196 0.106847
internal_count=12273 198 172 66 12075 317 191 137 104 126 11758 565 272 158 114 293 11193 1265 573 692 9928 1180 8748 277 106 54 91 75 67 42
is_linear=0
shrinkage=0.3


Tree=487
num_leaves=31
num_cat=0
split_feature=127 280 168 139 235 103 257 183 205 156 274 36 213 279 150 271 69 21 57 143 68 267 299 279 39 131 292 124 79 34
split_gain=0.0100789 0.0239958 0.0255465 0.0196764 0.0157751 0.016587 0.013064 0.0133738 0.0129227 0.0301884 0.0265867 0.0242232 0.0218092 0.0262943 0.0212227 0.0207632 0.0203697 0.0195817 0.0188655 0.0185639 0.0171013 0.0162863 0.0132206 0.0118957 0.0175539 0.0128248 0.0105433 0.00930191 0.00595792 0.00535785
threshold=-0.08804349973797794 -0.036490125101083536 0.067977823185731798 -0.054587500169873189 0.06433049961924546 0.048085000365972456 0.0052805000450461504 -0.044582000002264942 -0.0015343038811155986 0.10767348929361782 -0.03313300013542169 -0.025995827075079515 0.048943671586614709 -0.0047049999702720993 0.081568498164415318 0.083955001085996558 0.013272138260247271 -0.023405499756336146 -0.056017360033399813 0.062580998986959416 -0.040645613274065177 -0.013685472015053553 -0.05831805276427101 -0.022187694097098233 -0.045367499813437392 0.068043500185012804 -0.054884999990463194 -0.033055000007152495 0.017837499268352954 -0.011402519423357791
decision_type=2 2 2 2 2 2 2 2 2 2 2 2 2 2 2 2 2 2 2 2 2 2 2 2 2 2 2 2 2 2
left_child=1 4 3 29 23 26 28 -8 9 10 12 20 13 -2 17 19 -16 -12 -14 -13 22 -22 -11 24 -1 -26 -6 -4 -5 -3
right_child=8 2 27 6 5 -7 7 -9 -10 11 14 15 18 -15 16 -17 -18 -19 -20 -21 21 -23 -24 -25 25 -27 -28 -29 -30 -31
leaf_value=-0.16012108847431908 -0.052342122468779083 0.024210583052458687 0.026799695436945957 0.1701990133540906 -0.085559505081573339 -0.18698450478024095 -0.18581909943498398 0.065306570193298594 -2.5673128518107861e-05 0.11736255272566909 0.023859018660517352 0.064815939806397341 -0.14659827297454925 0.054231965316371381 -0.14359168515425197 -0.15708410850700696 0.063683110637610785 0.077479679273518356 0.0049725199983963689 -0.15454434868162772 -0.17747857224664268 0.056817918652108404 -0.13539333317460384 -0.18390576924997185 0.084697423277162884 -0.13104215668505736 0.14629761853446877 -0.19282595314307113 0.047031604705708545 -0.19581691276794597
leaf_weight=0.09933223965617799 0.33586399984847048 0.014724158317903857 0.024646601264748824 0.13031165765917663 0.024617459217552096 0.027396947902616375 0.025539095798194467 0.075536926859683717 1313.3937282921611 0.019852915502269752 1.1931319663721218 0.34010375707123319 0.16781223546104229 0.54880648567296952 0.10174203187557385 0.053591815675360976 0.07349544006456199 1.2605391098037575 0.13207211148582587 0.038669054742968001 0.034701437748253738 0.11582132477951745 0.30106755231236093 0.12917309510720543 0.07478326397151136 0.037102581874250973 0.06237823220772043 0.058673156247095903 0.048502549116165028 0.030786739743120961
leaf_count=92 322 25 24 105 18 53 30 89 6830 14 1031 263 179 440 118 71 94 1290 155 39 53 125 258 174 99 62 74 57 36 53
internal_value=0 -0.0323912 0.0203616 0.0583138 -0.079801 0.0165808 0.0880612 0.00185411 3.06219e-05 0.0157044 0.027388 -0.0335923 -0.00992882 0.0137713 0.0442025 0.0176926 -0.0566596 0.0514059 -0.079845 0.0424214 -0.080626 0.00280333 -0.119757 -0.112191 -0.0683333 0.0131558 0.0806882 -0.127859 0.13679 -0.124631
internal_weight=0 0.863505 0.408721 0.325401 0.454784 0.114393 0.27989 0.101076 1318.11 4.71727 3.81346 0.903808 1.18455 0.88467 2.62891 0.432365 0.175237 2.45367 0.299884 0.378773 0.471443 0.150523 0.32092 0.340391 0.211218 0.111886 0.0869957 0.0833198 0.178814 0.0455109
internal_count=12273 991 419 338 572 145 260 119 11282 4452 3629 823 1096 762 2533 373 212 2321 334 302 450 178 272 427 253 161 92 81 141 78
is_linear=0
shrinkage=0.3


Tree=488
num_leaves=31
num_cat=0
split_feature=223 250 108 124 145 62 170 208 291 141 190 5 95 193 78 190 160 284 126 9 124 227 151 92 62 22 219 212 256 209
split_gain=0.0109175 0.0317142 0.0257821 0.0252782 0.0294245 0.026787 0.0351388 0.0261391 0.0257447 0.0246965 0.0249937 0.0213858 0.0222533 0.0197298 0.0386559 0.0419179 0.025328 0.0242089 0.0285974 0.0231396 0.0213844 0.0195722 0.0186052 0.0183785 0.0179284 0.0261335 0.0177971 0.0412834 0.0355264 0.0253135
threshold=1.0000000180025095e-35 0.0019905000226571505 0.016443500295281351 0.0030474999221041508 0.038103500381112057 0.048799999058246606 0.024316499941050954 -0.0041762090633166377 -0.041515892016633908 0.010895499959588002 -0.060068709537794432 -0.044638000428676543 -0.035683998838066992 -0.00051150002400389991 -0.014890000224113449 -0.0037414249047550171 -0.058729454546377936 0.070816626714710104 0.059326499700546258 -0.07626605520799544 -0.049294499680399846 -0.026898499578237495 0.050215998664498253 -0.023249999620020344 -1.0000000180025095e-35 -0.00084949874325510012 -0.036814213714151146 -0.06097550350351074 -0.031919341303894753 0.041811711491437996
decision_type=2 2 2 2 2 2 2 2 2 2 2 2 2 2 2 2 2 2 2 2 2 2 2 2 2 2 2 2 2 2
left_child=13 9 3 5 7 8 -7 -5 -3 10 -2 -4 -13 14 16 17 20 18 -16 -18 -1 -6 -21 -14 25 -17 28 29 -15 -28
right_child=1 2 11 4 21 6 -8 -9 -10 -11 -12 12 23 26 15 24 19 -19 -20 22 -22 -23 -24 -25 -26 -27 27 -29 -30 -31
leaf_value=-0.06440360696766502 0.0019324096284188323 0.022588642487011607 0.099098276190397794 0.0085014999333686905 -0.14559854846569029 0.051366926190688396 -0.049566922838979191 0.11500353822837565 -0.062745033897873434 -0.0028380837696150912 -0.15115017306126463 -0.13206576083641966 -0.17863959416534569 0.070205633455658126 -0.053323292498900533 0.1744784027651087 -0.14810097656051477 0.090861362475266674 0.10902450017255229 0.0039042157434332515 0.12608405163450312 0.014725039660375625 -0.11555943291944491 0.045759277334364939 0.18915500341605329 -0.085853677210685472 -0.00097962049232783372 -2.2855753521902122e-05 -0.055334028368478082 0.0940969827420189
leaf_weight=0.068153025808896928 0.13102760995207063 0.3892119476706738 0.35335549427327351 0.50082265637684031 0.12859909813232662 0.72100570092220528 0.54512307686218264 0.35400838816349256 1.7438120416172758 0.31782907839408381 0.35895482043508664 0.089340634647669503 0.035288914194097742 0.24533555986272393 0.39530982326141384 0.076701456593582407 0.10069939874938461 0.32603534206555196 0.12968646016088314 2.5450076276615623 0.23919108315021764 0.14671692040542439 0.12299914416507807 0.47493802339022284 0.26763242240849539 0.063382729305885732 0.40152529641045365 1342.5961423621252 1.1722562574134361 0.67689858597441344
leaf_count=30 101 166 175 248 83 314 221 140 861 209 245 55 23 134 221 23 71 142 66 1332 85 90 68 214 45 36 222 5730 711 212
internal_value=0 -0.0124736 -0.00429654 -0.0137331 0.0251353 -0.0266561 0.00791055 0.0526068 -0.0471742 -0.0679675 -0.110214 0.0405562 0.00605434 5.39486e-05 0.0202608 0.0645474 0.00213837 0.0266545 -0.0132196 -0.00693144 0.0838437 -0.0601615 -0.00160324 0.0302391 0.143642 0.0566881 -1.11717e-05 2.42728e-05 -0.0336075 0.0586975
internal_weight=0 6.29003 5.48222 4.5293 1.13015 3.39915 1.26613 0.854831 2.13302 0.807812 0.489982 0.952923 0.599568 1349.43 4.3348 1.25875 3.07605 0.851032 0.524996 2.76871 0.307344 0.275316 2.66801 0.510227 0.407717 0.140084 1345.09 1343.67 1.41759 1.07842
internal_count=12273 3145 2590 2123 561 1562 535 388 1027 555 346 467 292 9128 2119 533 1586 429 287 1471 115 173 1400 237 104 59 7009 6164 845 434
is_linear=0
shrinkage=0.3


Tree=489
num_leaves=29
num_cat=0
split_feature=119 170 41 163 285 10 29 46 63 217 82 158 216 62 265 185 213 48 129 184 136 241 45 280 43 134 122 30
split_gain=0.013881 0.0205854 0.0200334 0.0254964 0.021511 0.0133078 0.0180915 0.0135103 0.0265294 0.0212446 0.0163603 0.0159345 0.0147612 0.024267 0.0234183 0.0150655 0.021173 0.0177604 0.0131037 0.0143284 0.00993797 0.00718327 0.00495127 0.00362355 0.00205035 0.00203736 0.000920428 0.000128909
threshold=-0.1437904597970234 0.029240499250590756 0.046665178246248377 -0.055955372730398918 -0.037797499448060892 -0.077316999435424735 -0.0030888122832358291 -0.02146173672415767 0.0056595001369714008 0.030985597020944295 -0.0052256770328642345 -0.007108499994501449 -0.10139850154519074 0.095283500850200611 0.034227499738335561 -0.085001997649669578 -0.033057313740418183 -0.037012500688433599 -0.029337000101804647 -0.073542997241020133 -0.034447500482201542 -0.045843674427155166 -0.03938899934291834 -0.038041500374674748 -0.033604271022265299 -0.015186499804258298 -0.093301497399806879 -1.0000000180025095e-35
decision_type=2 2 2 2 2 2 2 2 2 2 2 2 2 2 2 2 2 2 2 2 2 2 2 2 2 2 2 2
left_child=1 2 3 -1 -4 6 -2 8 18 10 -10 -11 13 14 -9 17 -17 -14 25 -20 -15 -5 -8 -3 -23 -7 -6 -24
right_child=5 23 4 21 26 7 22 12 9 11 -12 -13 15 20 -16 16 -18 -19 19 -21 -22 24 27 -25 -26 -27 -28 -29
leaf_value=-0.1069749344515305 -0.10302862343627513 0.077370098092077483 0.052249116464228543 0.021212345444453589 -0.1324897962617663 -0.20047428476370885 0.061000291190928771 0.0096854223715035631 0.16754987534037372 -0.10554524990834992 0.0011911772880419849 0.083953586469887806 0.11523672963340445 0.050533200264885274 0.078209308472952807 -0.044125293723930981 -3.3745356353323006e-05 -0.013809513518116354 0.079569291549933793 -0.080958957111708779 -0.16172215565785486 0.10654424132216644 0.17541910252606949 0.18849695325902505 0.19406263962736275 -0.092512258614261503 -0.19849504244141314 0.200367564907904
leaf_weight=0.052653438837296562 0.034301088504435029 0.037731779229943641 0.070765536307590082 0.038598750263190595 0.030292487514088862 0.080356627075730103 0.041405086434679106 1.3561102483315606 0.10879983304124607 0.13854879600972936 0.10411890239527111 0.056109901686340891 0.21983227325017651 0.025934840552508831 0.67093994710830873 0.98087461943919052 1419.5774078907345 0.17037659343918576 0.058296573527854889 0.35342450804489445 0.084656557391781351 0.033274894594796933 0.03228133094671648 0.087995905843854416 0.087298043395775404 0.019560841366910608 0.051069598743197275 0.04410865510885642
leaf_count=29 21 34 28 31 13 75 33 849 75 161 114 47 134 13 315 870 8682 113 53 322 58 21 15 36 41 33 32 25
internal_value=0 0.050494 0.0143415 0.0739889 -0.0687125 -2.45321e-05 0.0887099 -3.40097e-05 -0.0363924 0.0207099 0.0861992 -0.0509227 -1.05247e-05 0.0249003 0.0323664 -4.8e-05 -6.41899e-05 0.0588914 -0.0818807 -0.0582294 -0.111946 0.133851 0.144543 0.155147 0.16991 -0.179339 -0.17392 0.189825
internal_weight=0 0.48968 0.363953 0.211825 0.152128 1424.16 0.152096 1424.01 0.919216 0.407577 0.212919 0.194659 1423.09 2.13764 2.02705 1420.95 1420.56 0.390209 0.511639 0.411721 0.110591 0.159172 0.117795 0.125728 0.120573 0.0999175 0.0813621 0.07639
internal_count=12273 265 195 122 73 12008 94 11914 880 397 189 208 11034 1235 1164 9799 9552 247 483 375 71 93 73 70 62 108 45 40
is_linear=0
shrinkage=0.3


Tree=490
num_leaves=31
num_cat=0
split_feature=3 15 187 285 282 154 207 266 118 230 229 75 212 167 207 259 108 45 179 170 133 62 188 241 251 115 31 224 245 184
split_gain=0.0108709 0.0145662 0.0125742 0.0106724 0.0175001 0.0176953 0.012991 0.0219856 0.0198665 0.0183201 0.0174486 0.0219769 0.0231651 0.0188022 0.0155505 0.0133156 0.0149756 0.0101916 0.0112285 0.00994242 0.0144486 0.00738313 0.00536823 0.00465423 0.0041881 0.00366211 0.00264635 0.00198246 0.000683913 0.000181283
threshold=-0.098865406766463049 0.02420901108097492 0.0020800000056624001 -0.10289799794554703 -0.056288501247763592 0.010595999658107752 -1.0000000180025095e-35 -0.083827998489141436 0.072431652538553312 -0.00061438089466949234 -0.025894999504089296 0.056516999378800357 -0.032817329331935395 0.05155050009489056 -0.029599000699818048 -0.036243231724943363 -0.037279499694704947 -0.00068450000253499987 -0.017806500196456847 0.0059195000212639006 -0.034897999837994492 -0.025931463211729212 -0.027182999998331046 -0.036355605501448542 0.073337179723036897 0.00039149999793150009 -0.0031635001068934499 -0.071188502013683236 -0.045261500403284992 -0.097677502781152628
decision_type=2 2 2 2 2 2 2 2 2 2 2 2 2 2 2 2 2 2 2 2 2 2 2 2 2 2 2 2 2 2
left_child=1 2 17 4 22 19 7 15 9 -9 11 12 -8 -13 -10 25 -17 18 -1 20 -6 -7 -2 -20 -4 -5 -3 -23 -21 -24
right_child=3 26 24 6 5 21 10 8 14 -11 -12 13 -14 -15 -16 16 -18 -19 23 28 -22 27 29 -25 -26 -27 -28 -29 -30 -31
leaf_value=-0.17613260034097972 -0.048964336808577688 -0.20023836451817337 -0.20016900230913862 -0.19840256177965551 -0.17669629608831869 -0.060673337947641695 0.052043125546989193 0.003716668038507879 -0.10227571934162043 0.053949756035429487 1.696650181708293e-05 -0.038354098074511032 -0.076766076072721692 -0.14602607167744233 0.021897992957688798 -0.17872015289268559 0.033203774399742425 -0.1786203314570779 -0.0071425040971737318 -0.1221971262762471 0.10891008382874517 0.19503319140186268 -0.15879621233824645 0.15456755198530345 0.013220971834120604 -0.047946551571280055 -0.057808642399796967 0.085537572229736181 -0.2002047465907987 -0.20024854686261853
leaf_weight=0.013853820679059936 0.032365899696742417 0.061093100043194681 0.034012844842919776 0.064925165382192063 0.026042205865429935 0.018813716834756633 0.37139979822575242 1.0740810274157875 0.18215478536058072 1.6683626737870996 1313.4678009678048 0.47198608127030184 0.18990781586921801 0.21131357597255374 0.1809162517201911 0.039491671998689526 0.1249955308796874 0.016687446446524201 0.021241612732410431 0.014045996560525964 0.04110194367429798 0.039163707077022991 0.011070229114125141 0.065141592624968325 0.010940268740569081 0.018768752644973574 0.01453354417844821 0.02400240637416573 0.036143292352790013 0.066733887945531478
leaf_count=30 37 87 71 65 35 28 382 1116 190 1382 6923 500 271 228 203 60 126 42 31 19 56 31 22 76 28 21 32 36 51 94
internal_value=0 -0.0641706 -0.0133894 1.7813e-05 -0.0556857 -0.00264782 3.08922e-05 0.0186787 0.0255453 0.0342759 -1.66764e-05 -0.0355209 0.00846297 -0.0716522 -0.0404007 -0.0672446 -0.017677 0.0384542 0.0745927 -0.0773657 -0.00186383 0.104292 -0.151639 0.114803 -0.148236 -0.164662 -0.172867 0.153426 -0.178373 -0.194351
internal_weight=0 0.237504 0.161878 1318.38 0.309483 0.199313 1318.07 3.3537 3.10551 2.74244 1314.71 1.24461 0.561308 0.6833 0.363071 0.248181 0.164487 0.116924 0.100237 0.117333 0.0671441 0.0819798 0.11017 0.0863832 0.0449531 0.0836939 0.0756266 0.0631661 0.0501893 0.0778041
internal_count=12273 397 278 11876 409 256 11467 3163 2891 2498 8304 1381 653 728 393 272 186 179 137 161 91 95 153 107 99 86 119 67 70 116
is_linear=0
shrinkage=0.3


Tree=491
num_leaves=31
num_cat=0
split_feature=112 216 36 120 255 130 270 73 244 243 32 200 107 18 187 234 257 292 61 102 296 131 198 109 198 207 103 231 244 108
split_gain=0.00952729 0.0246438 0.0249917 0.0239797 0.0234586 0.0291852 0.0227022 0.0218961 0.0218662 0.0180587 0.0172155 0.0349085 0.0257703 0.0416776 0.0236587 0.0233357 0.0224002 0.0217879 0.0261605 0.0242809 0.0241839 0.0239723 0.0201492 0.0227601 0.0210379 0.0195856 0.0272208 0.0238812 0.02294 0.017373
threshold=0.067892502993345261 -0.09727704174797186 -0.025995827075079515 0.052790040774448453 -0.00059513386547804749 0.044846499338746008 -0.034985000267624793 0.027428466793238241 -0.010696500074118348 -0.033706265688613138 -0.059077928369500883 -0.039776147791950899 -0.049009488276556865 0.004017516232620825 -0.077389001846313435 0.043708998709917006 0.015789500437676903 -0.091545000672340338 0.073760502040386158 -0.037084926746768061 0.049677418593295462 -0.049046499654650598 -0.0027600315460290094 0.098998002707958166 0.094798541218452728 -0.021353536683249321 -0.013684500008821448 -0.065778338662824565 -0.068544998764991732 -0.0073762895995873263
decision_type=2 2 2 2 2 2 2 2 2 2 2 2 2 2 2 2 2 2 2 2 2 2 2 2 2 2 2 2 2 2
left_child=10 6 3 7 5 9 -2 -3 -9 -4 11 12 13 -1 -15 16 -14 18 20 22 21 -12 23 -19 -24 27 -27 -13 -28 -29
right_child=1 2 4 -5 -6 -7 -8 8 -10 -11 17 25 15 14 -16 -17 -18 19 -20 -21 -22 -23 24 -25 -26 26 28 29 -30 -31
leaf_value=-0.13727914447622364 0.099030691639431803 -0.029648850588646688 0.04800061972764965 -0.055527782069556116 0.063775139832491182 -0.16364441973556909 -0.12175238316992258 0.1368203822708362 -0.049327629364438588 -0.10927261959261661 0.1295918120773773 -0.14695824613095196 -0.037646090905763159 0.16597398954183029 -0.039390777291752818 -0.18569260435211846 0.037541382468242901 0.0012840923759111444 0.078283737316262078 -2.7491713597085541e-05 0.06939848349670652 -0.10933879738985459 0.034188438771658218 -0.12616341496640632 -0.064812539810324712 0.1056074006438434 0.013732574636283898 0.14247633177969399 -0.11432420341863156 0.01690722829424653
leaf_weight=0.50784609185507212 0.054973487858660519 0.10982767084715295 0.2287783051651785 0.11358793945328216 0.28197302260377821 0.13449483816657448 0.17647006682909694 0.51781377490988234 0.063789947264012881 0.09218498944392195 0.040504678414436057 0.041122194412309909 1.0147165032167325 0.062870318637578748 0.25632858714925533 0.072177922626224134 0.54986846359042818 1.4593312734650679 0.1239701419699486 1342.9560980769991 0.09510270582359226 0.56445100171504137 4.1866907308046839 0.13804047479061399 0.20252681034799014 0.14344164983049268 0.28789425418267456 0.25031573718297295 0.22375223796575372 0.1642196270840941
leaf_count=243 18 72 77 49 126 88 95 175 35 59 17 25 583 18 150 65 281 753 68 6063 57 299 2066 68 98 74 175 117 146 113
internal_value=0 0.0219728 0.0356699 0.0722185 -0.00422854 -0.0463294 -0.069311 0.0932046 0.116404 0.00282962 -2.7365e-05 -0.0208194 -0.0407252 -0.0838876 0.00105845 -0.0189155 -0.0112217 2.76979e-05 -0.0487392 5.74882e-05 -0.0712331 -0.0933412 0.0191208 -0.00972957 0.0296203 0.0233348 -0.00988915 0.0711002 -0.042269 0.0927317
internal_weight=0 1.77389 1.54245 0.805019 0.737431 0.455458 0.231444 0.691431 0.581604 0.320963 1353.34 3.57455 2.46381 0.827045 0.319199 1.63676 1.56458 1349.77 0.824029 1348.94 0.700058 0.604956 5.98659 1.59737 4.38922 1.11075 0.655088 0.455658 0.511646 0.414535
internal_count=12273 794 681 331 350 224 113 282 210 136 11479 1990 1340 411 168 929 864 9489 441 9048 373 316 2985 821 2164 650 395 255 321 230
is_linear=0
shrinkage=0.3


Tree=492
num_leaves=24
num_cat=0
split_feature=173 250 105 69 245 111 177 88 207 175 242 4 28 239 194 149 212 72 243 238 153 209 76
split_gain=0.0121741 0.0178492 0.0117664 0.0149128 0.0126104 0.0124599 0.0160024 0.0172963 0.0144881 0.0246625 0.01361 0.0110431 0.0103966 0.00993155 0.00927706 0.00772023 0.00861406 0.00602641 0.00506357 0.00367042 0.000698534 0.000106393 8.47987e-07
threshold=-0.13439650088548658 0.091917000710964161 -0.084592998027801444 -0.0044735781754416523 -0.11017800122499463 -0.046407500281929942 -0.05278004292071261 0.064552497118711458 -0.048246499150991343 -0.0031195000046863497 -0.051721999421715688 -0.065175187913811661 -0.08510330487003076 -1.0000000180025095e-35 -0.022544123397736111 -0.008932000026106798 -0.024514500051736794 -0.013024414727813478 -0.042382501065730993 0.00096134488184906853 -0.056001055822733743 -0.014169999863952348 -0.016963999718427599
decision_type=2 2 2 2 2 2 2 2 2 2 2 2 2 2 2 2 2 2 2 2 2 2 2
left_child=1 13 3 -2 11 6 18 -8 9 -7 -10 -4 -5 -1 -3 16 -13 -15 -6 -17 -19 -14 -22
right_child=2 14 4 12 5 8 7 -9 10 -11 -12 15 21 17 -16 19 -18 20 -20 -21 22 -23 -24
leaf_value=-0.024684705800978198 0.066785541939921672 -0.20032587231198148 -0.069603660487066371 0.027480504574586558 0.042961046130370426 -0.062545706597128645 -0.055253874563229714 0.091187590249075356 0.028300082671497216 0.047714731980939742 -3.7301081077934264e-05 -0.13949342349037866 -0.17768997856886237 0.032410516438271066 0.043085271836175561 0.1978689140030174 0.14611582319117319 0.14096458825054245 0.18902627480522985 0.064123993639122676 0.19826672901358122 -0.20049047433345549 0.20037698647256505
leaf_weight=0.035079246758868976 0.042636312666218146 0.027813684845568787 0.03471652284861193 0.024956337125331629 0.029032228601863608 0.76129827860545163 0.14914765486628212 0.14141187479549444 1.5270358085308533 0.2401729933018959 1420.7384045398594 0.018768724537949311 0.027301316607918125 0.028762469504727051 0.028564188498421572 0.073637997998729499 0.019253392738846742 0.023193498229375109 0.080830485113438044 0.02464885389781557 0.023980822382668521 0.056614005515711052 0.060060931622387126
leaf_count=29 29 20 19 19 21 673 135 105 989 173 9715 32 17 18 22 72 17 16 45 14 22 33 38
internal_value=0 0.0693943 -1.64988e-05 -0.0836156 -7.60315e-06 -1.73886e-05 0.0528951 0.0160174 -3.2275e-05 -0.036103 -6.87624e-06 0.0814497 -0.142516 0.117638 -0.0770002 0.119921 0.00513153 0.154349 0.150427 0.164328 0.187055 -0.193072 0.199775
internal_weight=0 0.227455 1423.99 0.151508 1423.84 1423.67 0.400422 0.29056 1423.27 1.00147 1422.27 0.171025 0.108872 0.171077 0.0563779 0.136309 0.0380221 0.135998 0.109863 0.0982869 0.107235 0.0839153 0.0840418
internal_count=12273 165 12108 98 12010 11856 306 240 11550 846 10704 154 69 123 42 135 49 94 66 86 76 50 60
is_linear=0
shrinkage=0.3


Tree=493
num_leaves=22
num_cat=0
split_feature=132 295 117 158 12 183 127 26 232 108 62 113 225 73 50 192 99 212 36 233 171
split_gain=0.00965559 0.00955174 0.0117347 0.0131197 0.0113823 0.0112817 0.0210552 0.01253 0.0118475 0.0119622 0.0247022 0.0107409 0.00948689 0.00900896 0.00884437 0.00845748 0.00742406 0.00719773 0.00540683 0.00454616 0.000719861
threshold=-0.13934300094842908 -0.097586955795104458 0.049968909082874116 -0.0075850707298312989 -0.03296500071883194 -0.090027000755071585 0.012532999739050801 0.017337500117719101 -0.049773000180721248 -1.0000000180025095e-35 -0.032118000090122188 0.045855998992919859 -0.036703500896692193 0.0035460001090541005 0.04060454823682963 -0.057729000225663143 0.066188000142574269 -0.056718117546409243 -0.031184954174357373 -0.093117497861385276 -0.079664273285383558
decision_type=2 2 2 2 2 2 2 2 2 2 2 2 2 2 2 2 2 2 2 2 2
left_child=-1 2 3 15 -5 6 7 11 13 10 -10 -3 20 -7 -14 -2 -17 -9 -4 -15 -8
right_child=1 5 18 4 -6 8 12 17 9 -11 -12 -13 14 19 -16 16 -18 -19 -20 -21 -22
leaf_value=-0.19200412528799543 -0.094743259960369336 -0.17359173477923695 -0.20025039608158021 0.093054620595337784 -0.20028864699788718 0.090492606540865966 0.20020673236062425 0.12842778539254213 -0.041422657079692893 -3.5160761498698614e-05 0.02449096589628046 -0.027449943196821463 -0.19068100245907524 0.0029537033604999504 0.10498633411135495 0.13876312655517997 0.0038605466055175982 -0.11857343489383181 0.017576629199087281 -0.18901974870689511 0.12593229995362237
leaf_weight=0.023570515687651006 0.019084632371686894 0.14535430638433311 0.022323457656966639 0.021045403751600134 0.027409243714145215 0.016688617413762041 0.02493704864900792 0.030776659754337743 0.59114535887614739 1313.1990476360079 3.808302447870445 0.065730123079546843 0.017699966178042814 0.013614896462968318 0.018752340644823562 0.19123074233596071 0.045438991335686296 0.016210550921641698 0.018971163113747025 0.060153567267946073 0.022197765200417052
leaf_count=33 36 184 24 30 36 17 20 42 832 6429 3960 82 20 13 30 258 60 20 17 107 23
internal_value=0 8.64675e-06 0.0498832 0.0702532 -0.0728803 -4.42719e-06 -0.0545119 -0.0968962 9.70587e-06 1.71593e-05 0.0156343 -0.128084 0.0763476 -0.108558 -0.0385794 0.097371 0.112863 0.0432126 -0.100178 -0.153589 0.165228
internal_weight=0 1318.38 0.345504 0.304209 0.0484546 1318.03 0.341659 0.258072 1317.69 1317.6 4.39945 0.211084 0.0835871 0.0904571 0.0364523 0.255754 0.23667 0.0469872 0.0412946 0.0737685 0.0471348
internal_count=12273 12240 461 420 66 11779 421 328 11358 11221 4792 266 93 137 50 354 318 62 41 120 43
is_linear=0
shrinkage=0.3


Tree=494
num_leaves=31
num_cat=0
split_feature=298 129 48 180 260 157 42 68 200 139 187 23 146 105 243 136 25 297 251 218 88 254 298 135 214 39 9 138 95 276
split_gain=0.00864889 0.028933 0.0356066 0.0270916 0.0258007 0.0284677 0.0334636 0.0251135 0.0234571 0.0292496 0.0233193 0.024017 0.0231958 0.0215173 0.019579 0.0281342 0.0200815 0.0191547 0.0238044 0.0202509 0.0263033 0.0249133 0.0201032 0.0200402 0.0242401 0.0192779 0.0191497 0.0188063 0.0183476 0.0168611
threshold=-0.0010878643376654605 0.025089140453190252 -0.051074499264359391 0.10433650016784661 0.13626150041818616 0.056275000795722008 -0.011826999951153949 -0.065454501658677985 -0.027912500314414446 -0.019841999746859046 -0.051785498857498141 0.010869722899718152 0.043525145794819704 -0.071263499557971885 -0.024799999780952896 -0.089665687595497409 -0.026314999908208795 -0.03736570108369807 -0.057955501601099892 -0.039412946666475539 0.049474000930786056 -0.095394998788833577 0.076400532702631641 0.074237499386072117 0.010244499891996351 -0.079899421294720149 -0.064133204797209908 0.054727999493479708 -0.0089750001206993484 -0.051823500543832744
decision_type=2 2 2 2 2 2 2 2 2 2 2 2 2 2 2 2 2 2 2 2 2 2 2 2 2 2 2 2 2 2
left_child=1 3 7 4 14 6 -6 28 9 12 -9 -12 -4 -2 15 -1 -16 18 -15 20 22 -22 -19 25 -25 -20 -21 -11 -3 -7
right_child=13 2 8 -5 5 29 -8 10 -10 27 11 -13 -14 17 16 -17 -18 19 23 26 21 -23 -24 24 -26 -27 -28 -29 -30 -31
leaf_value=0.12680095322174989 0.10656042757434321 0.0035630050996840958 0.081775035476657265 0.091098026064306961 0.055513975672776918 0.19260890120378074 -0.073256291867267412 -0.12487879817172025 -0.11930589488942753 -0.066691551895055504 0.11659095103826736 -0.029573252070062214 -0.10993761403246634 0.13226043833702839 -0.049123119427511033 -0.02946446689466635 -0.13769741267602997 0.042592262894449819 0.12407909071094461 -0.084110728629159554 0.067863617658509928 -0.078049313846989363 -0.11170200744203453 -0.0012964724970936598 0.11537277476305596 -0.0096236480366844838 4.9695917637748717e-05 0.091314582523121954 0.15147173569762798 0.016989470174833342
leaf_weight=0.10922557553567491 0.17069841754005111 0.098502495889988495 0.41744872910885533 0.17792452450447616 0.35061621130444109 0.1135514212801354 0.37684292926860496 0.085917543565301457 0.16791632302954407 0.48839776936972612 0.21301894234784446 0.19270439775982595 0.065746019208745565 0.17908855132554924 1.1692003539184836 2.047282921443184 0.2868963347758603 0.48238186615935674 0.10422483212096301 0.24337020021130129 0.1186904542337287 0.93446820606277459 0.090211886064935243 0.29245406768313831 0.35461609128833516 1.4109931765274257 1343.3598364554709 0.078722535035922192 0.32295205845366581 0.086822592798853293
leaf_count=47 94 42 184 100 98 28 131 50 127 275 75 94 43 74 781 1057 261 289 61 207 62 561 56 152 154 860 6116 46 121 27
internal_value=0 -0.0106326 0.0183778 -0.0237369 -0.0282369 0.0163866 -0.0111924 0.0631664 -0.0151925 0.00145236 0.0171017 0.0471681 0.0556896 5.46408e-05 -0.0396976 -0.0215497 -0.066575 4.11496e-05 0.0271522 -6.03726e-06 -0.0334682 -0.061605 0.0182833 0.0184467 0.0626422 -0.000426856 3.44517e-05 -0.0447586 0.116902 0.116513
internal_weight=0 6.84969 2.13133 4.71836 4.54044 0.927833 0.727459 0.913095 1.21823 1.05032 0.491641 0.405723 0.483195 1347.74 3.61261 2.15651 1.4561 1347.57 2.34138 1345.23 1.62575 1.05316 0.572594 2.16229 0.64707 1.51522 1343.6 0.56712 0.421455 0.200374
internal_count=12273 3587 1057 2530 2430 284 229 382 675 548 219 169 227 8686 2146 1104 1042 8592 1301 7291 968 623 345 1227 306 921 6323 321 163 55
is_linear=0
shrinkage=0.3


Tree=495
num_leaves=26
num_cat=0
split_feature=293 6 246 97 286 95 258 265 254 20 68 41 209 67 31 288 75 8 272 174 290 191 199 132 151
split_gain=0.0116518 0.0109537 0.0163866 0.0134555 0.0141218 0.0115234 0.0280583 0.0230538 0.0249042 0.0215655 0.0194959 0.0256357 0.0250351 0.0183461 0.0197339 0.017002 0.0163164 0.0152357 0.0119407 0.0105024 0.00680514 0.00558178 0.00476286 0.00277066 0.000263094
threshold=-0.078979998826980535 -0.13573750108480448 -0.022532634214264231 -0.07067399844527239 0.059639001265168155 -0.038451086960001053 -0.13023150712251655 0.025843726585667286 -0.027233999222516948 0.011152803279816903 -0.065980882075367092 0.11702402376805941 0.059989056962563479 -0.078709498047828591 -0.083611456086168823 -0.056564640991993896 0.05500349961221216 -0.050533608501643602 0.068546000868082005 0.060328942844661226 -0.0085312434063349093 -0.018852117214033143 -0.10665550082921973 -0.025775999762117797 -0.021079000085592197
decision_type=2 2 2 2 2 2 2 2 2 2 2 2 2 2 2 2 2 2 2 2 2 2 2 2 2
left_child=19 2 21 -4 22 6 15 8 -8 -9 11 12 -7 14 -12 -3 -17 -15 -13 20 23 -2 -5 -1 -25
right_child=1 5 3 4 -6 10 7 9 -10 -11 13 18 -14 17 -16 16 -18 -19 -20 -21 -22 -23 -24 24 -26
leaf_value=0.076934291991985135 0.17132998429898355 -0.083120417011867329 0.075673796974439669 0.019314336150456843 0.051646654649108718 -0.0062197087005110485 0.024429263492409977 0.0020837162248289257 -0.062541608139074265 0.11583739566387218 -0.09750098914461533 -0.026294824873506175 -0.05674420449838527 0.087855588001274645 0.096061204400299804 0.039679794521318167 0.1810727092563176 -7.8684750564459953e-06 0.17090364167930044 -0.06408050385579081 0.0064332402513184875 -0.012502159407284193 -0.17965600509230295 0.16332726111400758 0.20004421189461363
leaf_weight=0.029770564799491694 0.030278649021056481 0.040228469792054966 0.03472669948132534 0.011699443886755034 0.032784694916244916 2.2571700441544635 0.61653507605092273 0.32462582250718686 0.57054538586612469 0.27882318770571146 0.055834773433161899 0.040015667059378646 1.4494417764465195 0.17764054813551311 0.31394389306433268 0.12266872875079604 0.18308192174663418 1416.8872044262328 0.089324310305528343 0.037797943885379937 0.038588182143484029 0.02920187726522272 0.14530468369048222 0.029148430597160768 0.044193146557518048
leaf_count=23 17 19 18 11 35 1828 427 188 408 169 24 37 752 110 168 75 74 7509 28 34 29 35 209 22 24
internal_value=0 -1.58799e-05 -0.0589276 -0.0960191 -0.127435 -4.12588e-06 0.0220116 0.00689922 -0.0173715 0.0546435 -3.72208e-05 -0.0213957 -0.0259769 2.05807e-05 0.0668343 0.100222 0.124345 3.14592e-06 0.109894 0.0764232 0.113902 0.0810779 -0.164829 0.15412 0.185452
internal_weight=0 1423.69 0.283996 0.224516 0.189789 1423.41 2.13651 1.79053 1.18708 0.603449 1421.27 3.83595 3.70661 1417.43 0.369779 0.345979 0.305751 1417.06 0.12934 0.179498 0.1417 0.0594805 0.157004 0.103112 0.0733416
internal_count=12273 12141 325 273 255 11816 1360 1192 835 357 10456 2645 2580 7811 192 168 149 7619 65 132 98 52 220 69 46
is_linear=0
shrinkage=0.3


Tree=496
num_leaves=31
num_cat=0
split_feature=241 78 6 164 51 14 58 170 205 66 215 64 29 140 229 262 244 148 260 96 291 285 31 1 64 260 204 127 42 288
split_gain=0.00959055 0.0196782 0.0168975 0.0162475 0.0152049 0.0124338 0.012093 0.0177364 0.0105533 0.0191185 0.0206757 0.0238958 0.0188649 0.0176194 0.0149658 0.0261246 0.032719 0.0270382 0.0223822 0.0215125 0.0194377 0.0223003 0.0172747 0.0141392 0.0118077 0.0103621 0.00991735 0.00953359 0.00949751 0.00859227
threshold=-0.074149083404905169 -0.11604100093245499 -0.034132499247789293 0.012008932570091944 0.07377349957823752 1.0000000180025095e-35 0.038139000535011257 0.0027929999632760505 -0.046003499999642344 0.0056759999133646011 -0.015897227523805704 -0.005552999908104499 0.10419350117444991 0.032196953653240511 -0.023576249186284915 -1.0000000180025095e-35 -0.016952950946667142 0.049404500052332809 0.14484850317239764 0.075158998370170552 0.019588744625327326 -0.014299000147730098 -0.03619389308869847 0.052269000560045208 -0.058787999674677793 -0.00155049999011675 -0.0024195754514535965 -0.061014998704194988 0.0079160002060234009 -0.011697628383194389
decision_type=2 2 2 2 2 2 2 2 2 2 2 2 2 2 2 2 2 2 2 2 2 2 2 2 2 2 2 2 2 2
left_child=1 26 6 4 5 -4 -3 27 9 10 11 12 -2 23 18 16 19 -18 20 -16 21 -10 -22 -12 -11 -15 -1 -8 -5 -13
right_child=8 2 3 28 -6 -7 7 -9 14 24 13 29 -14 25 15 -17 17 -19 -20 -21 22 -23 -24 -25 -26 -27 -28 -29 -30 -31
leaf_value=0.15446350732945005 -0.14459292074669483 -0.14342699834981029 -0.18362435456114523 0.12254417523738048 -0.1992908980836057 0.04565243913873758 -0.073198757276942097 -0.18352986429508483 -0.0048906817440327885 0.050833079658820259 0.066163552377882545 -0.043426109984893303 0.10500665059600262 0.11645957329373029 0.022265080322830991 -3.4101649296293527e-05 0.15978784928229939 1.4012095976518807e-07 -0.19454156017758498 -0.10632463163743303 -0.058103264919158834 -0.098042571508246953 0.061457854856510521 -0.13135317581526054 -0.14332854258461092 -0.15902330284765762 -0.071934092531015723 0.15981713987779447 -0.066703415806225297 0.14798867132198865
leaf_weight=0.067187052322026375 0.15514598822295511 0.21236473175325443 0.027412771216645093 0.098821659582199572 0.051893310301124984 0.095269740304217976 0.025195574233293883 0.037860665856328524 0.504860897881663 0.040444952577672666 1.0957168805816184 0.031717281406599795 0.033059871919249417 0.015967436273058411 2.1317885842601649 1311.6638935037931 0.28228899284763898 0.14389068812843675 0.070754548295098973 0.12389512888466914 0.1562776749196928 0.42685587011378956 0.35770165487917893 0.033619048927903239 0.093024872884143295 0.053336690914534191 0.02350631766648803 0.042388467274804498 0.031466120703498746 0.063083426412276711
leaf_count=78 161 298 41 100 81 127 24 65 700 50 1023 35 22 19 2023 5330 195 184 117 122 176 490 384 37 128 85 27 42 41 68
internal_value=0 -0.0347722 -0.0537881 -0.00332969 -0.0631601 -0.00557827 -0.102191 -0.0191422 2.17576e-05 0.024257 0.0340534 -0.0388798 -0.100749 0.0512734 -7.98922e-06 2.63765e-05 0.0296054 0.105839 -0.0297936 0.0152022 -0.0217306 -0.0475672 0.0251048 0.0602837 -0.0844923 -0.095553 0.0957848 0.072948 0.0768385 0.0839474
internal_weight=0 0.713366 0.622673 0.304864 0.174576 0.122683 0.317809 0.105445 1317.48 1.61512 1.48165 0.283007 0.188206 1.19864 1315.86 1314.35 2.68186 0.42618 1.51645 2.25568 1.4457 0.931717 0.513979 1.12934 0.13347 0.0693041 0.0906934 0.067584 0.130288 0.0948007
internal_count=12273 924 819 390 249 168 429 131 11349 1628 1450 286 183 1164 9721 7854 2524 379 1867 2145 1750 1190 560 1060 178 104 105 66 141 103
is_linear=0
shrinkage=0.3


Tree=497
num_leaves=31
num_cat=0
split_feature=246 260 24 211 130 207 187 16 81 64 187 87 177 293 102 207 70 150 238 203 45 137 237 138 82 261 75 275 122 202
split_gain=0.00889794 0.0305149 0.0263016 0.0251245 0.0242862 0.0277951 0.0258264 0.0319614 0.0245767 0.0241077 0.0293785 0.0236867 0.0236724 0.0236049 0.027594 0.0203804 0.0202754 0.0200282 0.0205632 0.0226045 0.0198731 0.0197983 0.0194962 0.0194129 0.0252535 0.0195202 0.0184216 0.0183023 0.0182706 0.0181532
threshold=-0.0060126824911686987 0.11336368696050415 0.014680685929954525 -0.058908179048183983 0.020423000678420053 -0.019708104813601104 -0.06934370669503781 -0.049250001087784691 0.018539500422775704 -0.025046605025905073 -0.026775499805808047 -0.097880501300096484 0.011429499834775852 0.051194500178098658 -0.13399199396371839 0.032358740217070435 -0.025978975953434836 -0.051408130924744826 -0.10736443611242168 -0.0071875001303850989 0.038543000817298854 -0.092360999435186344 -0.10585800185799593 -0.0030472780595599395 0.047464013109706452 0.10573150217533107 0.026184000074863354 0.028127999976277303 -0.051765842798679206 -0.033531000837683587
decision_type=2 2 2 2 2 2 2 2 2 2 2 2 2 2 2 2 2 2 2 2 2 2 2 2 2 2 2 2 2 2
left_child=1 2 9 4 6 28 -2 16 -9 10 29 -5 15 14 -3 -11 -8 27 19 -19 -12 -14 -20 24 -16 -25 -7 -13 -6 -1
right_child=3 13 -4 11 5 26 7 8 -10 12 20 17 21 -15 23 -17 -18 18 22 -21 -22 -23 -24 25 -26 -27 -28 -29 -30 -31
leaf_value=0.034526917578021392 -0.12660315450222703 -0.08109111679752791 0.030102450053086909 -0.16383534502160699 0.076941570595622288 -0.034441981797104483 -0.00081331730352989092 0.11285576511971013 -0.0020749390550500444 -0.087052849294441612 0.053566565499988027 0.096057452753278885 -0.16443435008504151 -0.049259388179944651 0.047477650320340015 0.0010687772930791186 -0.14689652256137167 0.10762390688599244 -0.17709497646952621 -0.11022721525170867 -0.12672462061956113 0.047024752115356984 1.1099836788827579e-05 0.12362092450862376 -0.13884036704965744 0.036027419132223973 -0.15235303678173262 -0.075365897499904133 -0.10565702635036482 -0.048333507866122942
leaf_weight=0.32546928964438826 0.14337735369917926 0.12249546492239449 1.7104625451388527 0.079419600682739566 0.14303625574393664 0.17899729416330945 0.19505573094647843 0.29166631732425596 0.39320032710793384 0.8842248419456944 0.95505168319277822 0.33234137175691003 0.045176802740115818 0.21757320707547467 0.45591781898110617 0.32230315295038281 0.15225513271434443 0.050912551567307673 0.055942603885340669 0.27124533510072879 0.058388828709212248 0.33790369855705638 1344.0473227265657 0.62966137919283938 0.076450303022284061 0.35981834642007016 0.35726683499387946 0.067426718160277233 0.075269869518592714 0.88501839827586082
leaf_count=171 102 33 1169 48 68 116 118 136 191 574 539 154 37 106 183 210 121 30 32 188 47 192 6524 206 35 97 249 37 71 489
internal_value=0 0.010388 -0.000807123 -5.32332e-05 -0.0342564 -0.0762594 -0.00729533 0.00927744 0.046871 -0.0146708 0.00549521 -4.14692e-06 -0.0428839 0.043602 0.0558891 -0.0635127 -0.0648537 5.52825e-06 -1.44357e-05 -0.0757989 0.0431792 0.0220873 3.72855e-06 0.0669148 0.0207216 0.0917681 -0.112996 0.0671444 0.0139833 -0.0260545
internal_weight=0 7.38592 5.524 1346.83 1.93013 0.75457 1.17555 1.03218 0.684867 3.81354 2.22393 1344.9 1.58961 1.86192 1.64434 1.20653 0.347311 1344.83 1344.43 0.322158 1.01344 0.383081 1344.1 1.52185 0.532368 0.98948 0.536264 0.399768 0.218306 1.21049
internal_count=12273 4088 3428 8185 1172 504 668 566 327 2259 1246 7013 1013 660 554 784 239 6965 6774 218 586 229 6556 521 218 303 365 191 139 660
is_linear=0
shrinkage=0.3


Tree=498
num_leaves=31
num_cat=0
split_feature=119 265 154 6 85 178 212 19 6 171 147 252 243 218 292 98 223 137 63 72 119 171 112 32 100 9 153 150 205 100
split_gain=0.011027 0.0168223 0.0187823 0.0131155 0.0112301 0.0233742 0.0208426 0.0243291 0.02822 0.0213718 0.0205394 0.0190607 0.0167127 0.0257913 0.0176794 0.0265628 0.0156595 0.0151288 0.0146773 0.0169679 0.013999 0.0136615 0.0134347 0.0105352 0.0099574 0.00975929 0.00957942 0.00933872 0.0108542 0.0125327
threshold=-0.1437904597970234 -0.072450244222354424 -0.029419499449431844 -0.066887501627206733 -0.014042322949513448 0.03355799987912176 -0.016534108407813216 0.097753229842592729 -0.093616500496864291 -0.08068518767255857 -0.090275032095625179 0.11159842574376889 -0.11759899929165833 -0.080951751786318984 -0.031052250512789793 0.0061224999371915509 -0.10889479815506141 -0.19442749768495551 -0.00095481278784700181 -0.0026545000728218997 -0.089097000658512046 0.048426000401377657 -0.07473655468940138 -0.015347500331699798 -0.10961257236545176 -0.034753499552607495 -0.026312500238418548 0.017218999564647654 -0.0098995767838544139 -0.13019515257931594
decision_type=2 2 2 2 2 2 2 2 2 2 2 2 2 2 2 2 2 2 2 2 2 2 2 2 2 2 2 2 2 2
left_child=1 -1 3 -3 5 6 7 8 -2 -9 -8 -12 13 23 24 -16 25 -18 21 -20 -21 26 -19 -6 -15 -14 -7 -4 29 -29
right_child=4 2 27 -5 12 18 10 9 -10 -11 11 -13 16 14 15 -17 17 22 19 20 -22 -23 -24 -25 -26 -27 -28 28 -30 -31
leaf_value=-0.087828442199888113 0.050963772126205266 -0.13005211329317104 0.15889355362052798 0.11077730235831883 -0.18138089246861996 -0.063161856614798076 -0.094808608976829037 -0.2003060746963036 -0.057277188336899217 0.055551509121407765 0.054368616263556498 -0.14001368868468883 0.063647764002183652 0.19303055792678084 0.11277490852307034 -0.17456580551276671 0.14992419994845621 0.050388111137481768 0.093018255008717937 0.12461017673874543 -0.13536177622264975 0.069092555706388781 -1.0430658431490562e-05 0.030390325304667308 0.076445363171555994 -0.15193353951914276 -0.16784558059049653 -0.2002969273534248 0.1525500523894919 0.087486202394000331
leaf_weight=0.068207937350962311 0.25692035511269828 0.057224249088903889 0.164687722484813 0.031585762551003427 0.049738641333533451 0.12860463600009098 0.10742572991421184 0.031562007167451611 1.3874427758812262 0.42546101583263851 0.85040623202617271 0.047961879780828554 0.023595229587499489 0.12875668043125188 0.070186660615489838 0.049288390808214899 0.060584329898801026 0.47618836441779322 0.086375142471069921 0.023369641116005369 0.092143303093734974 0.035312029260239797 1418.2366199131384 0.036773139960132539 0.13512858557805885 0.094953583733739744 0.20262866028235749 0.025584154413081706 0.044397629419108853 0.029122271229425678
leaf_count=51 182 28 74 30 31 107 93 43 1200 243 680 57 43 37 33 20 24 387 86 16 92 22 8204 15 73 126 194 14 35 33
internal_value=0 0.04855 0.0749313 -0.0443998 -2.03763e-05 -0.0165813 -0.00634886 -0.0233476 -0.0403653 0.037882 0.0291662 0.043991 2.25104e-05 0.0565921 0.089981 -0.005765 3.7771e-06 1.28873e-05 -0.0725143 -0.00755924 -0.0827664 -0.108291 6.48552e-06 -0.0913643 0.13333 -0.109026 -0.127201 0.115106 0.0423417 -0.0470992
internal_weight=0 0.42081 0.352602 0.08881 1423.04 3.67561 3.10718 2.10139 1.64436 0.457023 1.00579 0.898368 1419.36 0.469872 0.38336 0.119475 1418.89 1418.77 0.568433 0.201888 0.115513 0.366545 1418.71 0.0865118 0.263885 0.118549 0.331233 0.263792 0.0991041 0.0547064
internal_count=12273 265 214 58 12008 3015 2498 1668 1382 286 830 737 8993 209 163 53 8784 8615 517 194 108 323 8591 46 110 169 301 156 82 47
is_linear=0
shrinkage=0.3


Tree=499
num_leaves=27
num_cat=0
split_feature=129 33 272 203 185 173 293 140 34 184 48 158 67 281 91 143 219 234 252 135 247 158 35 78 137 274
split_gain=0.0101348 0.00867199 0.0139669 0.0139819 0.014113 0.0137268 0.0136755 0.0122028 0.021804 0.0288542 0.0397504 0.0262937 0.019244 0.0158886 0.0108331 0.00888898 0.00763712 0.00754406 0.010281 0.00479831 0.00338885 0.00213993 0.00180504 0.000369605 3.0792e-08 8.85753e-09
threshold=-0.092480210085601713 -0.058585001155733993 0.080287141098410245 0.081313502043485614 0.08119450137019156 -0.06539200246334069 0.043398000299930559 -1.0000000180025095e-35 0.04076150059700006 -0.027054999954998448 0.01347649982199065 -0.097080198647493884 -0.013013149574986499 0.011299902203615835 -0.0010264999582431497 0.071557998657226521 0.071502499282360008 -0.018876999616622845 0.035776988933691974 0.042898999527096707 0.011472000274807203 -0.040533151879457524 -0.018432999961078098 -0.095444213991642393 -0.17256150394678108 -0.042752500623464543
decision_type=2 2 2 2 2 2 2 2 2 2 2 2 2 2 2 2 2 2 2 2 2 2 2 2 2 2
left_child=17 2 3 4 5 -2 15 8 9 11 -11 -3 14 -14 -10 -5 20 18 19 -1 24 -20 -19 -6 -4 -24
right_child=1 7 16 6 23 -7 -8 -9 12 10 -12 -13 13 -15 -16 -17 -18 22 21 -21 -22 -23 25 -25 -26 -27
leaf_value=-0.049247622906403089 -0.081694940016968698 -0.10380844219289719 -0.20081935639711451 -0.16616237510212689 -0.13884676908146459 0.032683292376443275 0.099602688262261013 -2.1343543319372429e-05 -0.14852206338351853 0.066188270554696935 -0.08514811966517298 0.011238318746978386 0.032298451305521947 -0.10191210735514149 -0.021344308784274797 0.012516865508946448 0.11561252084762411 -0.0892538756961124 -0.050504771289639316 0.17312414702587978 -0.034082812178921756 -0.20020905114336657 -0.20041933350541299 -0.20026935285130562 -0.2001432542054658 -0.20013392668224159
leaf_weight=0.013866118182704668 0.11452693366987887 0.20051071919760932 0.006755726513802073 0.11773732124925118 0.014237447461709962 0.53824075210893241 0.028206509141455172 1312.3706994716747 0.1533697807013823 1.655778788988626 0.17247719514045923 1.6505471938246075 0.37520822692664513 0.1006926187959607 0.099314222457451251 0.031832977147132624 0.0092604001461040752 0.019867967042046075 0.015164839529688834 0.023591730388943688 0.013279837863038324 0.019831728264762205 0.019265560695203021 0.023159283248787688 0.059086983622250955 0.019890310236177267
leaf_count=23 207 238 3 163 11 648 29 6238 195 1454 177 1796 378 153 147 32 11 26 20 32 38 22 9 32 158 33
internal_value=0 1.08439e-05 -0.0285467 -0.0169773 0.00234769 0.0126158 -0.0920009 3.15841e-05 0.0157898 0.0251791 0.0519112 -0.0012238 -0.0316253 0.00390175 -0.0985365 -0.128134 -0.14216 -0.0832851 -0.0184249 0.0908067 -0.17233 -0.135339 -0.162904 -0.176885 -0.200213 -0.200274
internal_weight=0 1317.73 0.956324 0.867941 0.690164 0.652768 0.177777 1316.78 4.4079 3.67931 1.82826 1.85106 0.728585 0.475901 0.252684 0.14957 0.0883829 0.131478 0.0724544 0.0374578 0.0791225 0.0349966 0.0590238 0.0373967 0.0658427 0.0391559
internal_count=12273 12108 1332 1122 898 855 224 10776 4538 3665 1631 2034 873 531 342 195 210 165 97 55 199 42 68 43 161 42
is_linear=0
shrinkage=0.3


Tree=500
num_leaves=31
num_cat=0
split_feature=115 3 220 61 213 57 225 226 193 139 33 73 187 38 223 281 38 70 204 150 6 219 257 126 131 245 153 126 63 16
split_gain=0.0106907 0.0228273 0.0181642 0.0181338 0.0212908 0.0180458 0.0201826 0.0172002 0.0184671 0.0202471 0.0170349 0.0170274 0.0144206 0.0160547 0.0111026 0.0166039 0.0166146 0.0122549 0.0220243 0.0235743 0.0190349 0.0185324 0.0180391 0.0139757 0.0127701 0.0229175 0.016692 0.0127556 0.0236656 0.0173763
threshold=-0.078891010904456119 0.019742177084827329 -0.058946000412106438 0.037595399346837331 -0.017462426780802773 -0.10355599969625469 -0.030145499855279898 0.026379953584858468 0.013987563472727295 -0.0093200001865624982 -0.034351998940110144 0.024942831404546662 0.01013056926804015 -0.039237174980258173 -0.10889479815506141 -0.042882999405264792 -0.0043958904153219543 -0.076893001794814994 -0.035921500995755147 0.013025143701706406 -0.028861500322818697 0.0095830000936984513 0.056909000501036609 0.0050841493226624805 -0.060601500794291448 -0.056360042707827428 -0.03688262077629266 -0.0019099999917670497 -0.093590497970580985 -0.11617549881339069
decision_type=2 2 2 2 2 2 2 2 2 2 2 2 2 2 2 2 2 2 2 2 2 2 2 2 2 2 2 2 2 2
left_child=1 5 -3 4 -4 6 -1 8 11 -10 -5 -7 -9 -14 15 -2 -17 18 21 22 -21 23 -20 -16 25 -19 -27 28 -26 -29
right_child=14 2 3 10 -6 7 -8 12 9 -11 -12 -13 13 -15 17 16 -18 24 19 20 -22 -23 -24 -25 27 26 -28 29 -30 -31
leaf_value=-0.1643232199992696 -0.064889658946013701 0.13682861343100816 0.066716300608525139 0.15078068753778365 -0.17797345133816886 -0.088110784896044472 0.065082633747682875 0.14298479507199247 -0.11581645012512073 0.080677182830615979 -0.096450091588790296 0.11167823379225178 -0.14217968809876316 0.091352053882009482 -0.028909201529224396 -0.02664976948678981 0.15591475421932585 -0.12676715626833623 -0.10923559885775877 -0.043691626421024865 0.083883845100370377 -0.077143469019722924 0.069528579150820141 0.14045079504496846 0.13043042219495582 0.17289837503947533 0.032056099825868718 -0.13229315530705582 -0.030328992977132419 2.220352884398279e-05
leaf_weight=0.070795918385556433 0.072609778842888772 0.044352176239499386 0.040945831467979588 0.052810224733548239 0.14654998830519606 0.046612122816440116 0.067350661935051792 0.30241469749671523 0.12880100775510073 0.07449245087991585 0.047773285448784009 0.21772063674234232 0.037511891685426235 0.090207062421541195 0.062136442560586036 0.064082098841026891 0.14959880590845287 0.053330855385866016 0.50303740474032455 0.30646293746031006 0.16032510132936295 0.082388467031705659 0.056510988913942128 0.14902838506168337 0.086007087636972179 0.12215715466300026 0.19927686996743332 0.089332412397424288 1.9733622986673243 1348.2083957577343
leaf_count=37 76 29 31 21 69 41 34 132 76 41 32 115 15 53 30 58 102 38 303 205 96 48 32 67 42 53 114 95 1494 8694
internal_value=0 0.0265077 -0.0418931 -0.0694088 -0.124537 0.0484581 -0.0524809 0.0639905 0.024165 -0.0438156 0.0333556 0.0764477 0.107287 0.0227623 -2.2956e-05 0.0590493 0.101164 -3.54643e-05 -0.0289286 -0.0496539 0.000126014 0.0435325 -0.0911815 0.0906157 -7.23091e-06 0.0553633 0.0855815 -2.25979e-05 -0.0236151 1.34369e-05
internal_weight=0 1.36834 0.332432 0.288079 0.187496 1.03591 0.138147 0.89776 0.467626 0.203293 0.100584 0.264333 0.430134 0.127719 1352.34 0.286291 0.213681 1352.05 1.31989 1.02634 0.466788 0.293553 0.559548 0.211165 1350.73 0.374765 0.321434 1350.36 2.05937 1348.3
internal_count=12273 726 182 153 100 544 71 473 273 117 53 156 200 68 11547 236 160 11311 781 636 301 145 335 97 10530 205 167 10325 1536 8789
is_linear=0
shrinkage=0.3


Tree=501
num_leaves=19
num_cat=0
split_feature=269 171 173 155 95 142 152 245 116 132 163 100 52 217 206 68 261 203
split_gain=0.00986084 0.0115944 0.0111697 0.0125748 0.0150305 0.0111422 0.0210335 0.0197689 0.0137374 0.0128525 0.00879583 0.00812121 0.00668305 0.00328142 0.0031592 0.0017382 0.000908365 8.67575e-07
threshold=-0.099759999662637641 -0.13423150032758707 -0.13037633978049537 0.010911499615758602 0.018556999973952753 -0.058415442442924979 -0.071219999343156787 -0.013551786880609039 -0.089842310613203288 -0.078714001923799445 -0.02008001212512333 -0.10230397331494311 -0.0070248162428711873 0.0086489999666809533 -0.019390000030398345 -0.064615399435003454 0.019551500678062404 0.012782093078924766
decision_type=2 2 2 2 2 2 2 2 2 2 2 2 2 2 2 2 2 2
left_child=-1 11 3 4 10 6 12 -8 13 -10 -3 -2 -4 -7 -6 -5 -13 -18
right_child=1 2 5 15 14 8 7 -9 9 -11 -12 16 -14 -15 -16 -17 17 -19
leaf_value=0.14832712725991817 -0.0044380169035923281 -0.036795378472023341 -0.0080653977819469206 0.094854998666423399 -0.20023806106281228 -0.036280310725859216 -0.011725308731448753 -0.1031783943062036 0.044895308228048741 -4.0344007038724621e-06 0.14396155279898554 -0.11685010671867879 0.17566486935436143 -0.2002506468636423 -0.04365141026333165 0.20030972568801983 -0.19755351971372873 -0.20042896653001871
leaf_weight=0.040333431847556223 0.044307135288363497 0.037273832181199396 0.026538004058238585 0.019354933166141564 0.02377599710598588 0.015503452173105781 0.59661850462248367 0.33061161272735151 0.57401744087451234 1421.0573285629962 0.069228384065353477 0.016996651735097568 0.054225291909460793 0.037683093610212381 0.022636134347521875 0.051492312090431369 0.014828015218881774 0.026006719591350702
leaf_count=33 37 38 22 25 16 15 473 304 426 10639 47 13 33 41 25 38 22 26
internal_value=0 -1.06783e-05 -3.42321e-06 0.0670181 0.0186102 -1.39644e-05 -0.0315439 -0.0443337 8.39078e-06 1.40948e-05 0.0806999 -0.101084 0.115293 -0.152455 -0.123868 0.1715 -0.175128 -0.199385
internal_weight=0 1423.02 1422.92 0.223762 0.152914 1422.69 1.00799 0.92723 1421.68 1421.63 0.106502 0.102139 0.0807633 0.0531865 0.0464121 0.0708472 0.0578314 0.0408347
internal_count=12273 12240 12142 189 126 11953 832 777 11121 11065 85 98 55 56 41 63 61 48
is_linear=0
shrinkage=0.3


Tree=502
num_leaves=31
num_cat=0
split_feature=47 272 1 124 6 25 181 193 205 117 289 143 262 56 92 83 33 125 16 44 47 251 178 63 283 290 150 196 284 62
split_gain=0.0096928 0.0184285 0.0170824 0.014032 0.0115363 0.0114496 0.0111792 0.0113316 0.0108186 0.0129997 0.0173439 0.01906 0.014657 0.0297571 0.0127678 0.0103531 0.009469 0.00871775 0.00718657 0.00534219 0.00470256 0.00488398 0.00420315 0.00411905 0.00518304 0.00398397 0.0026649 0.00169355 0.000441615 7.85606e-06
threshold=-0.066717789740387293 0.048766998574137653 0.015098364342102275 0.045966500416398007 -0.16950099915266031 0.054303611898587602 0.080912500619888264 0.079471502453088774 -0.084835499525070093 -0.038853500038385343 -0.082107690519762147 0.010772500187158552 -1.0000000180025095e-35 -0.023063128375457619 0.13473549485206601 -0.033295499160885741 0.029598880186200906 -0.034405767038874463 -0.044867204035289439 0.010252499952912253 -0.069799176687225378 -0.063100498169660527 0.037324323723124005 -0.028745932718345222 -0.013258500024676248 -0.041534020189819693 0.022660678249097486 -0.0034764999290927494 0.05349199846386906 0.011245399585553871
decision_type=2 2 2 2 2 2 2 2 2 2 2 2 2 2 2 2 2 2 2 2 2 2 2 2 2 2 2 2 2 2
left_child=1 2 6 5 26 20 7 16 14 10 22 -12 13 -11 15 25 -1 -17 -8 -5 21 -3 -10 -4 -25 -6 -2 -9 -26 -20
right_child=4 3 23 19 8 -7 18 27 9 12 11 -13 -14 -15 -16 17 -18 -19 29 -21 -22 -23 -24 24 28 -27 -28 -29 -30 -31
leaf_value=0.10203600005948761 0.049049499812396348 0.010614958951425713 -0.20031032633300902 -0.039817109111138865 0.033412638061114816 0.1522342446437015 0.038112828552049054 -0.043228200026558299 -0.17583092757476981 0.0016223899555741004 0.0139773805996207 -0.054749453561925399 -1.347757673248751e-05 0.064357753484154609 -0.18204926764889548 -0.015669127686248611 -0.03716705861971871 0.13698139638456514 -0.19031338509839532 0.18627660213626496 -0.019465352650570488 -0.17728656632211759 0.011388681462818878 0.19027406492800158 -0.082405758911736765 -0.20017574250753215 0.198543531604605 -0.20022674975904176 -0.20010036530827274 -0.20018318066531085
leaf_weight=0.20238824286917534 0.016294900000501822 0.013460904943713103 0.0398707626632131 0.019577382118313835 0.012004777593574545 0.01222562525072135 0.019731851029064273 0.010349183649339011 0.082878991376332922 2.3137323273517159 0.74928260775072775 0.70476788212636166 1311.8718516695681 0.96397248530098423 0.017787392796890344 0.042642374071306222 0.056189429308460603 0.16003400140686963 0.012958161527876655 0.01810258304249146 0.023141545649650652 0.16570997986633529 0.012408059583208342 0.0063636150225647716 0.005247580861833967 0.014519010062940652 0.031435270927886449 0.01536357996769766 0.0063308992946815579 0.016500820630767521
leaf_count=289 21 21 33 35 19 6 24 21 147 2061 1074 873 5729 1043 17 82 68 162 23 15 39 285 29 17 20 23 36 22 20 19
internal_value=0 -0.0368063 0.00395281 -0.10004 2.13506e-05 -0.129695 0.0300516 0.0528998 1.60053e-05 4.22876e-06 -0.0274595 -0.019334 3.65829e-05 0.0200729 0.062797 0.0817987 0.0717869 0.104864 -0.101996 0.0688051 -0.146732 -0.16317 -0.151452 -0.146593 -0.0272218 -0.0944527 0.147507 -0.137036 -0.146759 -0.195842
internal_weight=0 0.643512 0.391294 0.252218 1316.99 0.214538 0.333481 0.28429 1316.95 1316.7 1.54934 1.45405 1315.15 3.2777 0.246988 0.2292 0.258578 0.202676 0.0491908 0.03768 0.202312 0.179171 0.0952871 0.0578129 0.0179421 0.0265238 0.0477302 0.0257128 0.0115785 0.029459
internal_count=12273 957 556 401 11316 351 466 400 11259 10956 2123 1947 8833 3104 303 286 357 244 66 50 345 306 176 90 57 42 57 43 40 42
is_linear=0
shrinkage=0.3


Tree=503
num_leaves=31
num_cat=0
split_feature=254 13 236 71 221 1 12 90 277 291 185 217 111 178 174 231 31 57 252 165 280 113 123 156 42 283 37 179 145 178
split_gain=0.0117476 0.0210719 0.0253168 0.0172582 0.0172475 0.0166504 0.0149953 0.0166844 0.0147556 0.0126469 0.0123559 0.0121882 0.0117832 0.0117063 0.0111216 0.0107928 0.026886 0.0231025 0.0227032 0.0217954 0.0202806 0.0241543 0.0201705 0.0163498 0.0191085 0.0183509 0.0164811 0.0148964 0.0263095 0.0157207
threshold=-0.11289279027246042 -0.025187550128889746 -0.013669500127434698 -0.037680743403972421 -0.026762864609556843 -0.0020354124489541359 -0.090456080368941608 -0.059608001261949491 0.041806999593973153 -0.06505500152707093 0.076156369257606146 0.021304499357938704 0.040142999961972202 -0.013005500193685248 0.043112499639391851 -0.056580999866127892 -0.10071050003170963 -0.10046407952685253 0.13210800290107724 0.011464499868452502 0.0039690001867711006 0.03758971569063789 0.004564216514557449 -0.016300351737694462 -0.048210838642117851 0.036385999992489752 0.0050699999555945006 -1.0000000180025095e-35 -0.038557675228913686 -0.095970077458352551
decision_type=2 2 2 2 2 2 2 2 2 2 2 2 2 2 2 2 2 2 2 2 2 2 2 2 2 2 2 2 2 2
left_child=1 3 6 9 -5 14 -3 -8 11 -1 -9 -6 -11 -14 -4 17 22 19 20 -2 21 -19 -17 24 25 -18 -26 28 -25 -29
right_child=15 2 5 4 8 -7 7 10 -10 12 -12 -13 13 -15 -16 16 23 18 -20 -21 -22 -23 -24 27 26 -27 -28 29 -30 -31
leaf_value=-0.070592393062670955 0.099663636549485735 0.20064079092747356 -0.0054577006202162735 0.13320652072747127 0.14737773826643555 -0.095704368929477604 0.14301273730452585 -0.123314356915369 -0.15419641864452363 0.15462189620254937 0.054880607036243798 -0.087652646654135025 -0.017696653310615002 0.11907539158694767 0.17347138198715631 0.084272045721970529 -0.12247649173094999 0.0001983429103178629 0.18542195547868692 -0.079906093473288309 -0.12708562847328098 -0.082144118872624086 -0.081225938431001246 0.04099730463840482 0.10897359093247304 0.049330161504897392 0.011055261313491068 0.1265720263465758 -0.033496748041245292 -6.3127010173697421e-06
leaf_weight=0.03907596966746496 0.23157637763506489 0.018253029091283679 0.044826983525126707 0.056533217449668882 0.039889167581350193 0.041478629507763598 0.027943974389927462 0.26019814943356323 0.076553517872525845 0.23302579422306735 0.040467265380357276 0.039543847000459209 0.10077582396570506 0.1276740402172436 0.10333430420723744 0.52583280451653891 0.10863897991112026 0.91710639076654732 0.040587659350421634 0.082507418224849971 0.21710532887300349 0.49295493420686398 0.07583745478768833 0.51286509909550693 0.36890844985714366 0.11537328739359509 0.26643564089226857 0.088312938387160922 2.5394192722501421 1345.4397462852921
leaf_count=29 108 5 37 35 23 23 16 216 64 110 23 24 63 66 58 264 111 471 22 50 158 275 49 365 230 76 198 43 1717 7344
internal_value=0 0.0290782 -0.0158349 0.06287 -0.00875699 0.0723013 -0.0640215 -0.0787225 -0.0602079 0.0932808 -0.0993307 0.0303734 0.107157 0.0587413 0.119335 -2.33397e-05 9.13593e-06 -0.0221459 -0.0362023 0.052492 -0.0417305 -0.0285884 0.0634119 -1.91332e-05 0.0413478 -0.0339907 0.0679109 -4.54935e-05 -0.0209798 1.99519e-06
internal_weight=0 1.24957 0.536502 0.713071 0.21252 0.18964 0.346862 0.328609 0.155987 0.500552 0.300665 0.079433 0.461476 0.22845 0.148161 1352.02 1350.04 1.98184 1.66775 0.314084 1.62717 1.41006 0.60167 1349.44 0.859356 0.224012 0.635344 1348.58 3.05228 1345.53
internal_count=12273 792 378 414 146 118 260 255 111 268 239 47 239 129 95 11481 10397 1084 926 158 904 746 313 10084 615 187 428 9469 2082 7387
is_linear=0
shrinkage=0.3


Tree=504
num_leaves=31
num_cat=0
split_feature=245 78 228 52 165 104 217 219 202 160 185 124 113 217 190 184 13 237 175 40 12 125 100 177 256 16 1 164 154 223
split_gain=0.00996819 0.0159453 0.0282491 0.01705 0.018355 0.0165213 0.0197411 0.0141254 0.0234242 0.0248434 0.0262732 0.0216691 0.0201039 0.0191204 0.0175822 0.0168165 0.0164471 0.0156485 0.0145067 0.0217214 0.0156975 0.0136306 0.0151068 0.0134562 0.0129124 0.0128745 0.0102838 0.00983345 0.00831373 0.00773596
threshold=-0.071411298070840415 -0.021211504164615428 -0.091217452890920564 -0.0019735000678337993 -0.0053364663151911325 -0.049180623733744162 0.090749796035698646 -0.024085000157356196 -0.11743499711155889 -0.061994412403380612 0.048493408979781293 0.03374150022864341 0.024220500141382204 -0.018552176556444037 -0.056270500645041389 -0.11825850233435624 -0.032657500356435692 -0.10585800185799593 -0.1076206165488067 0.093277499079704215 -0.056382499635219491 -0.040990499779581947 -0.066007997840642887 -0.054966681643454425 -0.0051895000506191986 -0.061347438913271615 -0.074964500963687827 0.052020621179285402 0.019760499708354456 -0.053411001339554745
decision_type=2 2 2 2 2 2 2 2 2 2 2 2 2 2 2 2 2 2 2 2 2 2 2 2 2 2 2 2 2 2
left_child=1 2 -1 4 28 21 25 8 14 12 11 -11 16 -12 -2 23 -10 24 19 -19 -20 22 -4 -9 -17 -7 -14 -5 -3 -25
right_child=7 3 5 27 -6 6 -8 15 9 10 13 -13 26 -15 -16 17 -18 18 20 -21 -22 -23 -24 29 -26 -27 -28 -29 -30 -31
leaf_value=-0.15545254009738046 0.15008284491247162 -0.18755416137651967 0.19734657241167516 0.156371719662694 0.11575848243639057 -0.017165283647862573 -0.11132954939685254 -0.077156800437561304 -0.065516274943453509 -0.0033651714946270864 0.043870417086332193 -0.091663783814973518 -0.026395734727977658 -0.085368842505925233 -0.039741062725487303 -0.031460230180197321 0.09202748234872038 0.075302062320539292 -0.041415507206604141 -0.1011699908128364 6.3189079670208222e-06 -0.15986014989443381 -0.11840853939319453 0.015597823333685003 0.18906293553802514 0.096419048012977834 0.16226988225161559 -0.0060799337448659016 0.016923472373071412 0.1598697038229652
leaf_weight=0.08908711556068738 0.1262737454562739 0.044583209989184525 0.027259479786152951 0.19375087150416337 0.061720389975562284 0.11986706075549591 0.062513780732842861 0.037584066467388766 0.16146957965679576 2.0899513523411493 0.11588491306429205 0.28414277083072637 0.032149772589036729 0.92855785615665787 0.067331128888326819 0.036041937088157283 0.094567376713712625 0.44290868282155216 0.82388842879572521 0.07313989523845521 1415.9970701280163 0.07128328971521114 0.027287903566502791 0.045715034296790691 0.070917445246094668 0.35819685323531303 0.13598522894958975 0.040554461784267914 0.029895731742726639 0.1246742561852433
leaf_count=53 36 45 16 137 60 100 48 33 102 1621 79 345 22 693 32 20 49 327 621 60 7097 69 30 32 42 266 89 37 30 82
internal_value=0 0.0282091 0.0032086 0.0791877 -0.00522153 0.0244188 0.0472084 -2.87337e-05 -0.0177507 -0.0228805 -0.0313774 -0.0139332 0.0455985 -0.0710293 0.0840666 2.17239e-05 -0.00732741 9.20823e-06 5.49039e-07 0.0502906 -1.77681e-05 -0.073487 0.0393867 0.0853226 0.114754 0.0679396 0.126194 0.128254 -0.105477 0.121162
internal_weight=0 1.126 0.755495 0.370505 0.136199 0.666408 0.540578 1421.69 4.03631 3.84271 3.41854 2.37409 0.424172 1.04444 0.193605 1417.65 0.256037 1417.44 1417.34 0.516049 1416.82 0.125831 0.0545474 0.207973 0.106959 0.478064 0.168135 0.234305 0.0744789 0.170389
internal_count=12273 891 582 309 135 529 414 11382 3068 3000 2738 1966 262 772 68 8314 151 8167 8105 387 7718 115 46 147 62 366 111 174 75 114
is_linear=0
shrinkage=0.3


Tree=505
num_leaves=31
num_cat=0
split_feature=153 48 98 122 223 109 116 258 87 271 140 81 45 54 234 108 180 82 19 158 267 88 153 154 193 57 97 283 27 286
split_gain=0.00956415 0.0159621 0.0161307 0.0125107 0.013693 0.0122307 0.0128768 0.0103244 0.0153652 0.0144688 0.0211767 0.0177307 0.0165141 0.0148006 0.0192448 0.0274498 0.0136101 0.0151295 0.0128024 0.0125633 0.0125059 0.012677 0.0121546 0.0118402 0.0115892 0.00926854 0.00902793 0.00893034 0.00837466 0.00823636
threshold=-0.057350000366568489 -0.084340497851371724 -0.057084500789642244 -0.094703000038862187 -0.04460549913346764 0.10275950813563063 0.078510500490665422 -0.13254399597644803 -0.023884000256657548 -1.0000000180025095e-35 -0.034080669319922728 0.067822501063346863 0.034165755730800676 -0.034897500649094491 -0.0039474999066441991 -0.062134500592946992 -0.011691499967127999 0.010957332923303828 0.093441002070903709 -0.08299250155687328 -0.061152617929697652 0.14814950525760648 0.0015024999738670502 -0.043624999001622145 0.015344500076025652 -0.042822999879717792 -0.037114814161395171 0.0085836583834497868 -0.027324000373482645 -0.0077474999707191489
decision_type=2 2 2 2 2 2 2 2 2 2 2 2 2 2 2 2 2 2 2 2 2 2 2 2 2 2 2 2 2 2
left_child=1 -1 28 4 -4 6 -5 8 22 10 19 12 -12 16 15 -15 17 -11 -18 -9 29 -22 23 -2 -21 -7 -25 -24 -3 -10
right_child=7 2 3 5 -6 25 -8 9 20 13 11 -13 -14 14 -16 -17 18 -19 -20 24 21 -23 27 26 -26 -27 -28 -29 -30 -31
leaf_value=-0.13573108682077908 -0.20022588705540773 0.1197854042316582 0.085252524043701663 0.046247435824752429 -0.15840193910616793 -0.15628955039767081 -0.15693759789161729 -0.17981271304768529 -0.11806270415880224 -0.091090253676263416 0.11065927475320926 -0.11869785360371056 -0.15899397040535188 -0.08472947520547422 -1.0831896138853157e-05 0.03412852644880008 -0.089138219165394328 0.068965184133884389 0.022775153626490019 0.040333154632591364 -0.15480748450145207 0.14266141293318693 0.10401455620248951 -0.021889829640555351 -0.090988648295207003 0.02231615623427392 0.13075298444286282 -0.16631915196912195 -0.17887474693238475 0.16052396341999162
leaf_weight=0.11387837325401051 0.015273834954314225 0.0095955434475172297 0.027979677022358374 0.47894283169490748 0.080429988269870023 0.059378338178703416 0.029819468755931666 0.038114009639684809 0.015667663003341659 0.077712313044003167 0.4183269268587243 0.037019371737244455 0.021490339100182609 0.18832100313321154 1311.7987340214302 2.4490665429644585 0.44857537754154364 0.16818923340736092 0.11573145331220758 0.21341048767249049 0.1737732103534303 0.013927026939541065 0.014300101920525776 0.053929759968696089 0.084400699145788849 0.046727862240459217 0.098681761185616779 0.047626186313721064 0.070778898246544486 0.024465793314448092
leaf_count=122 22 12 41 604 137 92 61 64 25 119 452 69 41 363 5428 2537 637 181 160 204 275 16 14 73 96 69 98 87 149 25
internal_value=0 -0.0306151 -0.01572 -0.00155165 -0.0955166 0.0150157 0.0343384 2.47147e-05 -0.0450272 4.0381e-05 0.0400553 0.0807002 0.0974835 1.56536e-05 4.0639e-05 0.0256415 -0.0405193 0.0183828 -0.0661863 -0.017639 -0.100235 -0.132736 0.00970567 0.0516079 0.00311611 -0.0776338 0.0768122 -0.103893 -0.143219 0.0517668
internal_weight=0 0.917531 0.803653 0.723278 0.10841 0.614869 0.508762 1316.52 0.457645 1316.06 0.812762 0.476837 0.439817 1315.25 1314.44 2.63739 0.810208 0.245902 0.564307 0.335925 0.227834 0.1877 0.229812 0.167885 0.297811 0.106106 0.152612 0.0619263 0.0803744 0.0401335
internal_count=12273 1287 1165 1004 178 826 665 10986 635 10351 926 562 493 9425 8328 2900 1097 300 797 364 341 291 294 193 300 161 171 101 161 50
is_linear=0
shrinkage=0.3


Tree=506
num_leaves=31
num_cat=0
split_feature=298 238 158 61 50 95 112 226 291 289 168 107 240 211 158 179 78 288 229 212 203 101 144 95 299 248 227 275 208 281
split_gain=0.0102784 0.0215731 0.0227328 0.0314264 0.0272243 0.0287632 0.0213205 0.0233061 0.0209854 0.0180542 0.0206365 0.0171528 0.0173861 0.0224346 0.0295201 0.0211428 0.0198932 0.0170161 0.0154758 0.0176995 0.0155461 0.0156247 0.0140109 0.0139884 0.0147267 0.024159 0.0269612 0.0211308 0.0122557 0.0119345
threshold=0.0017605808608902142 -0.073754500597715281 -0.024431500583887048 0.02238679864015267 -0.035265499725937795 -0.0089750001206993484 0.0311111382774951 0.035168001428246456 -0.002646740016374141 0.061266500502824756 0.036645530397846876 0.079713501368718215 0.034162867003544796 -0.015209443587031985 -0.0046837540764798095 -0.075612999498844091 0.016327246596368028 -0.051490500569343491 -0.029211500659584947 -0.066150579811002849 -0.019194499589502746 0.017740500159561603 -0.0231279047918455 -0.10108900070190423 -0.00058341929232139046 -0.009821812375207668 -0.034918000921606997 0.021652349789699949 -0.11003400012850759 0.03511999920010566
decision_type=2 2 2 2 2 2 2 2 2 2 2 2 2 2 2 2 2 2 2 2 2 2 2 2 2 2 2 2 2 2
left_child=1 2 3 6 -5 -6 8 -8 -1 11 17 12 13 22 -15 -14 -17 -11 19 -4 -20 -22 -2 -3 25 26 -25 -27 -19 -30
right_child=9 23 18 4 5 -7 7 -9 -10 10 -12 -13 15 14 -16 16 -18 28 20 -21 21 -23 -24 24 -26 27 -28 -29 29 -31
leaf_value=-0.10836520133199061 0.036613934350571482 0.1360175823990851 0.11728789869032337 0.13181067843537711 -0.15520350300465091 -0.018535409589672473 0.13875525729440674 -0.043424215392016206 0.046521904343532976 0.19614378173138111 0.097325947701172894 -0.17469784412980152 -0.11509548481387086 0.03111160035774025 -0.13732548644782111 0.0031668249985837013 0.059276694963573857 0.06687170325899712 0.090478165353314835 -0.098872589126842478 -0.17711581977278071 0.022523074313526115 0.11115231510186653 -0.082251942223175681 1.083864518555183e-05 -0.16434557408001418 0.024792300450399398 0.0018106860595709857 -0.15613699325862837 0.051969478352584364
leaf_weight=0.1393347539997194 0.44732345508964499 0.068032420163716689 0.058689881812370004 0.059435871840832877 0.25796026311127196 0.29951420550651187 0.23063058667685254 0.08705480416165301 0.18099486653227337 0.017638407152844593 0.065500997796334559 0.042564525043417123 0.12307305921194611 0.52471548882112984 0.11398857117813921 4.1677295861413777 0.65853664205860685 0.031799370713997632 0.026772163550049299 0.0813421515194932 0.24643325358715529 0.041178722620315966 0.46071200122241862 0.31044739076969563 1342.9749546358184 0.19690227287344331 0.66619924494023053 0.10595142701822624 0.20914574675776965 0.02813821766176261
leaf_count=63 352 35 25 34 166 177 76 60 93 9 38 40 85 351 92 2499 416 15 13 55 246 23 262 195 5980 180 388 73 208 24
internal_value=0 -5.57526e-05 -0.0337369 -0.0129184 -0.061198 -0.0817759 0.0337643 0.0888329 -0.0208498 0.0115602 -0.0546017 0.0151242 0.016368 0.0441307 0.00105088 0.00769177 0.0108229 -0.0893093 -0.0912299 -0.00827594 -0.128179 -0.148533 0.0744326 -1.29261e-05 -1.98106e-05 -0.0321895 -0.00923393 -0.106217 -0.108021 -0.131459
internal_weight=0 1346.03 1.70934 1.25493 0.61691 0.557474 0.638015 0.317685 0.32033 6.89087 0.352223 6.53864 6.49608 1.54674 0.638704 4.94934 4.82627 0.286722 0.454416 0.140032 0.314384 0.287612 0.908035 1344.32 1344.25 1.2795 0.976647 0.302854 0.269083 0.237284
internal_count=12273 7882 1031 669 377 343 292 136 156 4391 294 4097 4057 1057 443 3000 2915 256 362 80 282 269 614 6851 6816 836 583 253 247 232
is_linear=0
shrinkage=0.3


Tree=507
num_leaves=24
num_cat=0
split_feature=60 26 207 102 122 270 264 180 203 6 94 262 148 177 216 110 98 219 180 287 33 209 16
split_gain=0.00946684 0.00899969 0.0156987 0.0163671 0.0154102 0.0111097 0.0106666 0.0141436 0.0137423 0.00902712 0.0129263 0.0115556 0.00950405 0.0129095 0.00970646 0.00949252 0.00827232 0.00747288 0.00745683 0.00731366 0.00280776 0.00169846 0.00163774
threshold=-0.14232850074768058 -0.11134199798107143 0.039591001346707309 -0.0088324857573157025 -0.068009658562713002 -0.03440189168546727 -0.11376872315913965 0.016074567698547357 0.037891499698162058 -0.13573750108480448 -0.019606581245429487 -0.0066989701336059417 -0.029922000132501046 -0.029544818832052708 -0.13325149565935127 0.015180000104010051 -0.041497498750686597 -0.076124999672174384 -0.0070474999956785991 0.037091000005602809 0.036080500110983807 0.018577499315142552 -0.051950971882142462
decision_type=2 2 2 2 2 2 2 2 2 2 2 2 2 2 2 2 2 2 2 2 2 2 2
left_child=19 2 3 4 18 -6 7 8 -3 10 11 -8 13 -11 -14 -12 -5 -9 -2 -1 -19 -4 -18
right_child=1 6 21 16 5 -7 9 17 -10 12 15 -13 14 -15 -16 -17 22 20 -20 -21 -22 -23 -24
leaf_value=0.17718629008230649 0.034181358573242407 0.12755281928053763 0.1084216010134537 -0.051060253878931691 0.16660807362326316 -0.032686754023104163 0.10153960378377989 0.039258641773696291 -0.14850279202600003 -0.01597863940174268 -0.017796319518483511 -0.10337489118282961 0.043391180798223704 0.14284401312009015 -2.7769633320063759e-05 -0.19139055113925854 0.10254605867243098 -0.2002827430559754 -0.15979292283384666 -0.014636587094263303 -0.068088993424428451 0.20035917988365612 0.19880772205922553
leaf_weight=0.047905535899871121 0.023120295532862656 0.046454274073993385 0.028630709755475436 0.019920185073715402 0.042642596017685719 0.061452575262592291 0.060823677791859154 0.017505358533526305 0.024944489916379098 0.087096151168225333 0.045231220974641384 0.041781653203543101 0.46353902265991465 0.097760933609378209 1420.8852070036903 0.075960661487783909 0.0236472174683513 0.074273764945928633 0.078046016466032597 0.028549354545248207 0.017956307515305525 0.04909737894195132 0.0485948359281555
leaf_count=38 18 34 31 18 22 58 60 24 27 65 114 52 343 85 10917 88 19 79 68 28 21 28 36
internal_value=0 -1.1265e-05 0.0464482 0.0150755 -0.032081 0.0489544 -2.35224e-05 -0.0728195 0.0311076 -1.42481e-05 -0.0602611 0.0180969 -4.76321e-06 0.0680141 -1.36096e-05 -0.126602 0.120102 -0.140439 -0.115463 0.105557 -0.174546 0.166494 0.167298
internal_weight=0 1422.31 0.375152 0.297424 0.205261 0.104095 1421.94 0.181134 0.0713988 1421.76 0.223797 0.102605 1421.53 0.184857 1421.35 0.121192 0.0921622 0.109735 0.101166 0.0764549 0.0922301 0.0777281 0.0722421
internal_count=12273 12207 298 239 166 80 11909 185 61 11724 314 112 11410 150 11260 202 73 124 86 66 100 59 55
is_linear=0
shrinkage=0.3


Tree=508
num_leaves=31
num_cat=0
split_feature=208 294 176 278 179 154 3 171 200 10 278 83 265 173 4 297 214 211 121 10 19 58 31 298 66 69 221 80 282 72
split_gain=0.00952772 0.0100571 0.0164883 0.0181029 0.0185894 0.0190675 0.0134531 0.0124008 0.0150128 0.0149542 0.0185311 0.0141163 0.0155689 0.013998 0.0135809 0.0134585 0.0128365 0.0246897 0.0108893 0.0105172 0.0100887 0.00939867 0.00928193 0.0139288 0.00917816 0.00894866 0.00839454 0.00831183 0.00778695 0.010967
threshold=-0.10684350132942194 -0.064017999917268684 -0.0090416284873932346 0.019840004035440683 0.021346987333047612 -0.032334499061107594 -0.04586622807133383 -0.053532977337071637 -0.10790228232722476 0.048220500349998453 -0.028715499676763945 0.081208385226356691 0.10384524098064642 0.020655694134897946 -0.032654499635100344 0.028772033082868031 -1.0000000180025095e-35 0.010242999996989952 0.030196054285492688 0.073040500283241216 -0.013650000095367347 0.018403000198304601 -0.034619498997926691 0.0126390000805258 -0.057300999760627691 0.094123497605323764 0.022989000193774655 0.053561000153422307 -0.066495999693870489 -0.0047400000039487496
decision_type=2 2 2 2 2 2 2 2 2 2 2 2 2 2 2 2 2 2 2 2 2 2 2 2 2 2 2 2 2 2
left_child=24 2 3 20 5 -5 27 11 9 15 -11 12 14 19 -3 -9 17 -10 -6 -13 21 -2 23 -8 -1 -24 -22 -4 -26 -30
right_child=1 7 6 4 18 -7 22 8 16 10 -12 13 -14 -15 -16 -17 -18 -19 -20 -21 26 -23 25 -25 28 -27 -28 -29 29 -31
leaf_value=-0.18617417064840888 0.10230867483576045 -0.0063040102289303743 -0.15732760348453304 -0.16438840976122637 -0.011336127615277095 0.062344185146199126 0.076620872806272611 -0.1356597582330642 0.043974662041037338 -0.18045604004437191 0.049895546178603582 -0.1532501781617884 -0.18368872819736881 0.11706704293232088 0.064738964863844964 0.00022360086760191152 -3.567385950973041e-06 -0.068998603299729858 -0.16534812759565995 0.060670904509459889 -0.16694982420874596 -0.16805263866898054 0.11641231465707996 -0.13080648968841294 -0.12255210010312492 -0.10364543910528602 -0.040858103378754292 0.12108256040982254 0.11690662201520588 -0.16600490341339444
leaf_weight=0.046384614959720238 0.034074301997861767 0.3386194420507278 0.049666217023883519 0.038671999623261399 0.076035751035306021 0.24401956472337361 0.066306141657605622 0.2112622910271672 1.2489634946170785 0.038125884965666046 0.17899928330928105 0.092399721252831912 0.027532018821147974 0.032392174451160827 0.85027541171332555 0.095143906007166379 1312.5379802069726 0.20230366814441669 0.090489016954961699 0.026649835942521349 0.18826261794950483 0.017523697040587649 0.16112475325098674 0.051973277353681624 0.044523258329718374 0.018545622202509549 0.063562564442463554 0.011978549798868698 0.046176461864433804 0.016825291304370604
leaf_count=74 34 447 109 80 115 285 79 334 1365 62 209 130 29 45 1100 129 6125 345 88 35 397 45 200 79 67 24 135 17 51 39
internal_value=0 1.2981e-05 -0.0285023 -0.0537501 -0.0155118 0.0313273 0.024342 3.70832e-05 7.37494e-06 -0.0507845 0.00944718 0.0285865 0.0393398 -0.0577869 0.0445046 -0.0934659 2.76119e-05 0.0282264 -0.0950257 -0.105363 -0.110362 0.0104886 0.0507358 -0.014525 -0.0746333 0.0936979 -0.135123 -0.103228 -0.0265163 0.0413521
internal_weight=0 1316.99 1.11223 0.75264 0.449216 0.282692 0.359595 1315.88 1314.51 0.523531 0.217125 1.36787 1.21643 0.151442 1.18889 0.306406 1313.99 1.45127 0.166525 0.11905 0.303423 0.051598 0.29795 0.118279 0.15391 0.17967 0.251825 0.0616448 0.107525 0.0630018
internal_count=12273 12042 1687 1179 568 365 508 10355 8569 734 271 1786 1576 210 1547 463 7835 1710 203 165 611 79 382 158 231 224 532 126 157 90
is_linear=0
shrinkage=0.3


Tree=509
num_leaves=31
num_cat=0
split_feature=266 165 203 172 10 191 79 231 263 252 262 48 216 294 215 264 184 140 209 260 108 82 217 216 28 36 284 17 212 70
split_gain=0.0106166 0.0145446 0.0170419 0.0181059 0.0221724 0.0169303 0.0181187 0.014189 0.0171985 0.0127703 0.0147782 0.0113996 0.0106031 0.010396 0.0100765 0.0100728 0.00987566 0.0097817 0.0163964 0.0206202 0.0243855 0.0236461 0.0167149 0.0114738 0.0301235 0.022417 0.0218933 0.0178059 0.0155801 0.0116904
threshold=-0.079330999404191888 -0.047949999570846495 0.06530350630714836 0.0023420472785503667 0.047639999538660056 -0.040744801016402273 0.0019457118979441101 -0.051405772376937879 -0.047659066978418353 0.099843662064857966 -0.020797999575734045 -0.011737786274372138 -0.12829899787902829 0.012427109970278476 -0.0097890002653002479 -0.0619998386400216 -0.031073500402271696 -0.10439600050449364 0.094075500965118422 0.068319998681545258 -0.041206752828645291 0.015274381447244708 0.08049349859356876 -0.10139850154519074 -0.11639750003814688 -0.042239458384349594 0.015063827630231659 -0.0053092888387778385 -0.038246054603818642 -0.094314001500606495
decision_type=2 2 2 2 2 2 2 2 2 2 2 2 2 2 2 2 2 2 2 2 2 2 2 2 2 2 2 2 2 2
left_child=1 5 7 11 14 6 -1 8 -3 12 -11 15 -9 -7 -5 -4 -10 18 19 22 21 -21 -2 24 28 27 -27 -26 -19 -25
right_child=17 2 3 4 -6 13 -8 9 16 10 -12 -13 -14 -15 -16 -17 -18 23 -20 20 -22 -23 -24 29 25 26 -28 -29 -30 -31
leaf_value=-0.13594339722057111 -0.088658239217550158 0.10082833006608335 0.019600867062167595 -0.18899014837382391 0.14868139647373543 0.15604071064518016 0.11643377920725594 -0.073880145677063677 -0.16046484814028109 -0.1582149059816233 0.098902397700690051 0.043457924740940172 0.082995666135323137 -0.028999690313282794 0.027800693585322889 -0.15912410644476715 0.01055169643634688 -0.16369278602548945 -0.074910867436745743 -0.08590089125882118 0.17007924314557837 0.17772561398326137 0.13579797639386454 -0.047945830871212326 0.00024485831010048233 -0.074682078073982652 0.051804935367099417 -0.099752947548851667 0.023242156594056453 3.3492676442383269e-06
leaf_weight=0.055094006638682913 0.11364539775467974 0.055789803562220186 0.034727093996480107 0.03741568102122983 0.079225405061151832 0.18641740812017804 0.047826222587900702 0.041884899779688456 0.083259274004376493 0.049788798321969807 0.033760957943741232 0.043707440141588449 0.52241365043118915 0.032019433956520515 0.039845602499553934 0.15529613194667036 0.047858916455879696 0.18743269386686734 0.095426882653555367 0.088852727902121842 0.19809554598032264 0.046723610139451921 0.04050097253639251 0.45777980897355419 0.32056021833341208 0.15425561789117992 0.61089777556787794 0.32048051632500574 0.051057277247309574 1348.1994912078785
leaf_count=29 83 20 26 22 30 107 21 26 51 32 23 25 309 38 22 77 34 113 35 37 76 25 14 311 251 116 368 280 39 9633
internal_value=0 0.0248453 0.00994304 -0.0418109 0.0371654 0.0816508 -0.0186657 0.0341361 -0.0386821 0.0551446 -0.0543184 -0.0946869 0.0713516 0.128917 -0.0771856 -0.126462 -0.0980428 -2.66874e-05 0.038816 0.0610632 0.102986 0.00495259 -0.0296838 -4.3465e-05 -0.0250855 -0.00836513 0.026305 -0.0497478 -0.123673 -1.29263e-05
internal_weight=0 1.54633 1.22497 0.390217 0.156487 0.321357 0.10292 0.834756 0.186908 0.647848 0.0835498 0.233731 0.564299 0.218437 0.0772613 0.190023 0.131118 1350.89 0.583245 0.487818 0.333672 0.135576 0.154146 1350.3 1.64468 1.40619 0.765153 0.641041 0.23849 1348.66
internal_count=12273 892 697 202 74 195 50 495 105 390 55 128 335 145 44 103 85 11381 270 235 138 62 97 11111 1167 1015 484 531 152 9944
is_linear=0
shrinkage=0.3


Tree=510
num_leaves=31
num_cat=0
split_feature=10 13 205 297 71 21 184 188 118 179 48 287 259 148 222 13 37 150 218 243 86 89 256 130 145 40 266 290 290 175
split_gain=0.00841044 0.0126754 0.00995795 0.0219661 0.0225237 0.0228747 0.0191131 0.0183075 0.0143119 0.0142438 0.0139025 0.0135877 0.0149424 0.0143361 0.0132107 0.0122593 0.0118343 0.0117866 0.0100761 0.00979515 0.0155272 0.0138165 0.01322 0.01793 0.0117967 0.00922797 0.00905031 0.00566047 0.00537068 0.000262922
threshold=-0.077316999435424735 0.024949257106073121 -0.06136099994182579 -0.0092500001192092479 -0.062520861897469124 -0.013220500200986798 -0.046893000602722147 0.056110000237822505 1.0000000180025095e-35 -0.0091715003363787972 0.026305500417947752 -0.063907999545335728 0.014649489800349597 0.068074997514486271 0.01355949155242865 -0.055821500718593549 -0.0036044999724253496 -0.046352000907063443 0.0056107435431323122 -0.12811479763101438 0.02740510911998115 0.031922542372780291 -0.047076998278498643 0.028426648872230936 -0.050572290638111687 0.049517483865395229 -0.0066662471827690353 -0.015107199532786315 0.0071604999247938004 -0.041552923821376257
decision_type=2 2 2 2 2 2 2 2 2 2 2 2 2 2 2 2 2 2 2 2 2 2 2 2 2 2 2 2 2 2
left_child=1 27 3 7 5 14 9 10 28 -6 17 12 13 16 -5 -8 -4 -2 -7 20 21 -13 23 -21 -24 29 -15 -1 -9 -14
right_child=2 -3 11 4 6 18 15 8 -10 -11 -12 19 25 26 -16 -17 -18 -19 -20 22 -22 -23 24 -25 -26 -27 -28 -29 -30 -31
leaf_value=0.024711663460555068 0.087387743883510616 -0.099842964287913685 0.14249112451321766 0.15978484408465607 -0.084971492045969474 -0.16526126988156645 -0.0060785977024752991 0.03032893421430877 0.14709368367743364 0.10647169156007294 0.087518813522690572 0.042367714094887307 0.16577355258628615 -0.1838131499249622 -0.032926113843756537 -0.14010013232173174 -0.058263413326931898 -0.12981940150769189 0.060678161512446198 -0.005157911913591994 0.15336617700140043 -0.14974080147493457 -0.040946273151328975 -0.094303084559835257 2.5659669037581415e-05 0.034223730166007604 0.02827875053331376 0.18258148938899046 -0.20024669591528307 0.20027987456247118
leaf_weight=0.030163279079715721 0.023960166373399261 0.027542389820155222 0.074260436777876748 0.16948994992912958 0.051687691342522157 0.042814737851301743 0.10114477106526465 0.016581974383370834 0.053555895885438076 0.10819193133283989 0.032597674966382328 0.20582471610168696 0.028856037497462239 0.044468714661888953 0.039470828072580844 0.15642775292422928 0.041028294100896257 0.36508098420858914 0.03036204868931236 0.5762523975588455 0.095630461633845698 0.040289019241754431 0.63273570407591151 0.31355182308834628 1418.547129518061 0.054771773408901936 0.030545435151907441 0.063415543845848243 0.020127169344050344 0.063841773546300828
leaf_count=31 19 29 43 86 49 56 66 18 31 74 24 135 17 42 53 134 26 346 26 464 35 25 647 259 9360 37 39 39 25 38
internal_value=0 0.0790446 -1.21821e-05 -0.0271991 0.00735578 0.0728333 -0.0368976 -0.0744234 0.0481942 0.0445798 -0.100674 1.10006e-05 0.0601741 0.00462871 0.123383 -0.0874719 0.0710477 -0.116442 -0.0715159 -3.30608e-06 0.0507804 0.0109194 -1.55273e-05 -0.0365711 7.3925e-06 0.131853 -0.0974503 0.131695 -0.0960928 0.189538
internal_weight=0 0.121121 1421.96 1.21149 0.69959 0.282138 0.417452 0.511904 0.090265 0.15988 0.421639 1420.75 0.337772 0.190303 0.208961 0.257573 0.115289 0.389041 0.0731768 1420.41 0.341744 0.246114 1420.07 0.889804 1419.18 0.14747 0.0750141 0.0935788 0.0367091 0.0926978
internal_count=12273 99 12174 1007 544 221 323 463 74 123 389 11167 242 150 139 200 69 365 82 10925 195 160 10730 723 10007 92 81 70 43 55
is_linear=0
shrinkage=0.3


Tree=511
num_leaves=31
num_cat=0
split_feature=133 150 218 56 270 48 176 211 140 187 201 193 205 239 215 262 36 53 99 15 230 45 256 247 269 195 168 29 67 173
split_gain=0.009244 0.0152627 0.0150662 0.0201464 0.0169794 0.0148913 0.0137825 0.0170694 0.0165665 0.0123776 0.0121879 0.0118191 0.0108353 0.019776 0.019583 0.0211441 0.0191239 0.0177833 0.0205013 0.0175322 0.0143754 0.0147125 0.0132544 0.0108319 0.010649 0.00991495 0.00838844 0.0105668 0.0071983 0.00714276
threshold=-0.04192115727512969 -0.013903388692134913 -0.076990591530203337 -0.065829001367092091 0.0065399999730288505 -0.093351501971483189 -0.016746282808900417 -0.055847501382231643 0.0085215755353683729 0.037549501284956911 0.012357073806722569 0.0093882901688152349 -0.0015343038811155986 0.070417285923037851 -0.015120261349302619 -0.080135002732276833 -0.049770500510930994 0.087636168473897172 0.02868597443762012 0.024551295449987885 -0.067489122761469358 -0.071941498667001683 0.013233915281644309 0.047955000773072208 0.087571096527796599 0.024125999771058504 0.0259870002046227 0.080114498734474113 0.060038499534130055 0.067209500819444615
decision_type=2 2 2 2 2 2 2 2 2 2 2 2 2 2 2 2 2 2 2 2 2 2 2 2 2 2 2 2 2 2
left_child=1 2 -1 4 10 9 7 25 -9 -3 -4 23 13 16 26 -16 20 19 -19 -18 28 -22 -17 -8 -13 -7 27 -15 -2 -5
right_child=12 5 3 29 -6 6 11 8 -10 -11 -12 24 -14 14 15 22 17 18 -20 -21 21 -23 -24 -25 -26 -27 -28 -29 -30 -31
leaf_value=0.087976263291961412 -0.1643546647050626 -0.14855268503857752 -0.20019957589373788 -0.16537743899021326 0.13687336572918263 -0.015646538142926582 0.10199847204221854 0.037959752550274915 -0.11648548916432355 0.1240150141598267 0.1234859992249184 0.027749466022954531 -1.0791174626080633e-05 -0.09504951744788824 -0.16883100822096053 -0.032435085315486917 0.10860790731387936 0.047520943249796076 -0.12147216097986038 0.020677475551327814 0.072757838029122501 -0.018188398043816185 0.051850722429112615 -0.12663972950774191 -0.13145350254747662 -0.14430379917556171 -0.162425764563604 0.15772644367271607 0.029865822183495264 0.087969179494024538
leaf_weight=0.043493932184446749 0.066640140092204092 0.10106918529845632 0.037358014682865814 0.2020593883349876 0.048897386426801859 0.091024694848101495 0.24502954576763503 0.35157302944978142 0.076022369283180069 0.017606540828865036 0.014545893128570242 0.15331979195357803 1312.3666417858856 0.060780858085081491 0.059067812740238423 0.28014132275563941 0.61215084437627976 0.20988948372934146 0.093339761001971056 0.30614293544306292 0.24412135531565582 0.46506696035180595 0.41916509398277668 0.020185006400424754 0.050192827498221959 0.1322119894494449 0.10295695933791649 0.019710565864670571 0.023137354392019915 0.010537977916101227
leaf_count=55 117 128 62 386 57 120 312 468 196 25 19 208 6296 87 55 297 762 259 95 344 306 659 469 34 60 189 123 28 44 13
internal_value=0 -0.0228215 -0.0774819 -0.100444 0.0100188 -0.0070669 0.00364442 -0.0246036 0.0105009 -0.108115 -0.109488 0.042867 3.01171e-05 0.0181534 -0.0177486 0.00352745 0.0348886 0.0584931 -0.00449837 0.0792935 -0.0011999 0.0131177 0.0180859 0.0845972 -0.0115152 -0.0918438 -0.105704 -0.0331503 -0.1143 -0.15282
internal_weight=0 1.59513 0.356893 0.313399 0.100801 1.23823 1.11956 0.650832 0.427595 0.118676 0.0519039 0.468727 1315.33 2.96231 0.941823 0.758374 2.02049 1.22152 0.303229 0.918294 0.798966 0.709188 0.699306 0.265215 0.203513 0.223237 0.183448 0.0804914 0.0897775 0.212597
internal_count=12273 2332 592 537 138 1740 1587 973 664 153 81 614 9941 3645 1059 821 2586 1460 354 1106 1126 965 766 346 268 309 238 115 161 399
is_linear=0
shrinkage=0.3


Tree=512
num_leaves=31
num_cat=0
split_feature=256 156 73 262 287 195 199 88 222 128 30 272 56 83 146 278 176 257 103 58 62 223 86 145 119 201 100 207 232 133
split_gain=0.011403 0.0304377 0.032123 0.0230979 0.0195245 0.0245162 0.0236523 0.0211268 0.0207072 0.0233306 0.0218648 0.0165444 0.0164964 0.0155653 0.0208559 0.0169552 0.0169476 0.015404 0.0210647 0.0149608 0.0148024 0.014761 0.0133354 0.0132122 0.0275918 0.0210282 0.0192917 0.0159273 0.0158833 0.0132063
threshold=-0.0003975494996729427 0.014056897664194237 0.0050621694032906518 -1.0000000180025095e-35 0.071571502834558473 0.055141000077128362 -0.09281044410056967 0.10198500007390972 0.0050259918231297575 0.12930399924516678 -0.016003499738871999 0.020198860219505243 -0.016226999461650796 0.018605556778276081 -0.01056741846940573 -0.011032601404129554 0.019166500307619506 -0.084613083159774602 -0.015899186279372653 -0.022757089248844158 0.011751791308486305 -0.10655800356179208 0.025056775312095204 -0.047359286390921844 -0.067281727511954534 -0.025985499843954995 -0.20062199980020518 -0.0098079032508172331 0.027336796084564376 -0.051928998902440043
decision_type=2 2 2 2 2 2 2 2 2 2 2 2 2 2 2 2 2 2 2 2 2 2 2 2 2 2 2 2 2 2
left_child=1 2 3 11 6 -6 12 19 9 -8 -10 -1 22 14 29 -15 -16 18 -2 -7 -14 -19 -3 24 27 26 -25 -23 -26 -4
right_child=17 4 13 -5 5 7 8 -9 10 -11 -12 -13 20 15 16 -17 -18 21 -20 -21 -22 23 -24 25 28 -27 -28 -29 -30 -31
leaf_value=-0.14409037292330018 0.16820860144215458 0.036330491153958651 -0.15214220187837812 0.1916122574625812 0.09888318129947081 -0.14084596903248373 -0.036226323190504311 -0.18004260989195028 0.089651521953748342 0.10937361069995392 -0.0070380940563648364 0.15276708935520208 -0.12324544048528115 -0.015783758170509223 -0.12210818767227143 0.12637587059062222 0.13069117754263723 0.103344546469384 -0.12650060512144379 0.093068549360057443 0.059158053686612228 -0.0088662817498652274 0.15194698727621653 0.16394098329020595 0.076259937806664804 -2.2150519127996561e-05 -0.032464945369115233 0.14428060406133808 -0.056646851044901136 0.066146857781970256
leaf_weight=0.036944031118764542 0.025262865012336988 0.19354683135935602 0.02769388712476939 0.22023187010921563 0.37704647551618098 0.032813668716698885 2.2380505373271276 0.060225974048080388 0.29916024646445294 0.10363453827449109 0.71014293648022409 0.031137367801420623 0.074729259658852132 0.11550783622624294 0.16094471764881746 0.2180463494257765 0.028022652128129266 0.12428024903056112 0.16053131458102043 0.098409834674384911 0.086261914824717678 0.081869783321963041 0.16747915022870075 0.045916647271951994 0.11873835046549075 1343.2178267872844 2.2779747788863451 0.24112136614121482 0.254124101466914 0.2511760905108531
leaf_count=27 13 126 18 45 181 13 1400 26 171 50 459 16 59 80 137 124 15 117 141 56 64 63 81 13 89 6299 1784 146 248 212
internal_value=0 0.0135968 0.0585259 0.144401 0.00257364 0.0544903 -0.0050469 -0.0329385 -0.0143001 -0.0297826 0.021621 -0.00832113 0.0543519 0.0276312 -0.00767201 0.0771468 -0.0846197 -5.24831e-05 -0.0864283 0.034576 -0.0255104 -4.05635e-05 0.0899647 -5.01076e-05 0.0412772 -7.14803e-05 -0.0285843 0.105462 -0.0143226 0.0444691
internal_weight=0 5.53121 1.0897 0.288313 4.4415 0.568496 3.87301 0.191449 3.35099 2.34169 1.0093 0.0680814 0.522017 0.801392 0.467837 0.333554 0.188967 1346.55 0.185794 0.131224 0.160991 1346.36 0.361026 1346.24 0.695854 1345.54 2.32389 0.322991 0.372862 0.27887
internal_count=12273 3360 674 88 2686 276 2410 95 2080 1450 630 43 330 586 382 204 152 8913 154 69 123 8759 207 8642 546 8096 1797 209 337 230
is_linear=0
shrinkage=0.3


Tree=513
num_leaves=23
num_cat=0
split_feature=124 264 200 256 14 193 111 185 49 178 73 70 232 133 123 211 274 234 270 286 235 226
split_gain=0.00857835 0.0154988 0.0164905 0.0156609 0.010195 0.0093677 0.00847826 0.0128503 0.0122265 0.0106289 0.0204969 0.0231127 0.0219201 0.017819 0.0151176 0.0125312 0.0105338 0.0087125 0.00635871 0.005475 0.00432294 0.00106773
threshold=-0.10415599946855993 -0.013859994815787228 -0.036387499421834897 -0.0023475696529779775 -0.090835001319646794 -0.016255662123624625 -0.046407500281929942 0.026238131024920657 0.057052999734878505 -0.015393861554025785 0.083101499825715963 -0.031537295499778462 0.0035640000132843006 -0.081415001302957493 -0.10966816482687171 -0.14008150249719617 0.027405000291764705 -0.016711971084512865 0.033889950011802665 0.031017230750575175 -0.033178001642227097 0.035704167953258405
decision_type=2 2 2 2 2 2 2 2 2 2 2 2 2 2 2 2 2 2 2 2 2 2
left_child=1 2 3 -1 -2 -5 7 16 20 10 11 -8 -12 14 -11 -15 19 -18 21 -6 -9 -3
right_child=4 18 -4 5 6 -7 9 8 -10 13 12 -13 -14 15 -16 -17 17 -19 -20 -21 -22 -23
leaf_value=-0.16811017927974595 -0.16612223381420424 0.20002071521912052 -0.18497901170704881 -0.02983366007307808 0.16591297204230362 0.15952097519913397 0.03586577333296375 0.019345295255718604 0.07261631080835719 -0.10589887831995758 -0.12779889689917082 -0.02783484721214852 -0.027735802623089882 0.12444398069820164 0.074646641147766063 -9.501049675700454e-06 0.083927971432832357 -0.16793581455845411 0.02959768437103949 0.036966774213483218 -0.17651938805950199 0.13223904865614172
leaf_weight=0.025702246988657862 0.03325458187964514 0.054865215486642138 0.037282341156242182 0.036095408642722759 0.11416083302435609 0.067459045254508965 0.96342252881868295 0.013246835173049476 0.050411458874805248 0.046123092206471483 0.24034949052111176 1.0955858898278159 1.0932498148047214 0.072818555173170263 0.43922554654773094 1417.1514581804145 0.028405042328813579 0.02188445885622059 0.039604516510735266 0.040025654735472926 0.043265154063760747 0.033802433419623412
leaf_count=23 29 24 32 31 102 36 772 12 39 34 170 1162 753 50 294 8491 26 30 25 49 62 27
internal_value=0 0.0511629 -0.00920496 0.0414947 -1.65998e-05 0.0935187 -1.27137e-05 0.0494831 -0.0347929 -2.35595e-05 -0.0167954 0.00197106 -0.0457698 1.65758e-05 0.0574892 -3.10649e-06 0.0935522 -0.0256755 0.12954 0.13244 -0.130607 0.174181
internal_weight=0 0.294811 0.166539 0.129257 1421.45 0.103554 1421.41 0.311399 0.106923 1421.1 3.39261 2.05901 1.3336 1417.71 0.485349 1417.22 0.204476 0.0502895 0.128272 0.154186 0.056512 0.0886676
internal_count=12273 198 122 90 12075 67 12046 320 113 11726 2857 1934 923 8869 328 8541 207 56 76 151 74 51
is_linear=0
shrinkage=0.3


Tree=514
num_leaves=31
num_cat=0
split_feature=17 269 9 59 108 6 85 136 195 19 173 292 161 263 139 57 92 224 111 173 11 145 261 49 121 44 115 168 20 82
split_gain=0.008696 0.0129612 0.0144361 0.0129443 0.0137856 0.0113765 0.0109744 0.0108969 0.010162 0.00978482 0.00926015 0.0117835 0.00998243 0.0161403 0.017872 0.0185326 0.0162471 0.0148501 0.0121907 0.0094181 0.00938009 0.00860984 0.00787281 0.00760949 0.00698924 0.00747692 0.00629308 0.0054337 0.00392399 0.003711
threshold=-0.037424499168991994 0.14463549852371213 -0.06048450060188764 0.070616188991513063 0.072403784303704269 -0.14481906183792095 0.043953712176095706 -0.026393000036477997 0.1036792595828742 0.0048475000075995506 -0.10342264840010341 0.01244479529945792 -0.046265663650313323 -0.015342500060796698 -0.056396499276161145 -0.080462999641895239 0.13473549485206601 -0.053835500031709643 -0.038730498403310741 -0.0085014998912810984 0.0088179996237158515 -0.0040905000641941495 0.12764261868933149 -0.0061832126663861784 0.023604952313981249 -0.013035319216609963 0.027899627609995172 0.080313999205827713 -0.021198499947786296 -0.062822997570037786
decision_type=2 2 2 2 2 2 2 2 2 2 2 2 2 2 2 2 2 2 2 2 2 2 2 2 2 2 2 2 2 2
left_child=1 2 7 6 5 -5 8 21 -4 -8 11 22 13 14 17 -16 18 -12 -15 -18 -13 -1 26 -23 28 -26 29 -3 -9 -2
right_child=10 27 3 4 -6 -7 9 24 -10 -11 12 20 -14 16 15 -17 19 -19 -20 -21 -22 23 -24 -25 25 -27 -28 -29 -30 -31
leaf_value=0.10259119980062725 0.1020114274876006 -0.16025476515771167 0.0088948434844040285 0.15097332778451752 0.12828030975736257 -0.19568846201618825 0.055187125131458917 -0.0040580016408365916 -0.0991649109979124 -0.15428108140226926 -0.1456335304899469 -0.13662480087985451 -2.4053623316894786e-06 -0.090791560907961977 -0.056986853267166362 0.026648023235880093 -0.16710070384359266 0.035856832778355975 0.053931615698873926 0.023494791800396445 0.14754080524768109 0.055113284486207469 0.089600819874133472 -0.19830009370360399 -0.18145409545401675 0.12966881005103009 0.043020290319612783 0.036786417424542202 0.18384154443784395 -0.1836914073985452
leaf_weight=0.027636279597572866 0.0042788980499608434 0.08247487157177591 0.63615237207129283 0.0093698240671074018 0.016866029509401415 0.093936930242392691 0.026196567520287317 0.011523681394464802 0.089321161727639264 0.085827130139350061 0.13228740180784371 0.015327381179304211 1312.1828987074537 0.054556512965007076 0.30686283914928925 1.0696425150216557 0.05145323629426457 0.05852707939504842 1.3153243062809554 0.042695529327829607 0.032884828740407102 0.016497147968038917 0.014665602841887448 0.030163280702254269 0.012856666342486278 0.015136474203927719 0.014125393827498556 0.01486613451197627 0.075787930834849138 0.093528930739465888
leaf_count=45 7 138 1021 10 19 249 57 22 165 255 192 32 6208 92 335 1035 66 83 1609 50 37 21 26 40 17 24 32 14 109 263
internal_value=0 -0.02506 -0.0161426 -0.0311162 -0.123191 -0.164247 -0.0179043 0.0594885 -0.0044096 -0.105297 2.81427e-05 -0.0690144 3.73195e-05 0.017233 -0.00392401 0.00800339 0.0398828 -0.0899664 0.0481679 -0.0806675 0.0572003 -0.0301081 -0.11708 -0.108704 0.11722 -0.0132235 -0.14416 -0.130162 0.159042 -0.171192
internal_weight=0 1.24461 1.14727 0.95767 0.120173 0.103307 0.837497 0.189601 0.725474 0.112024 1315.39 0.174811 1315.21 3.03135 1.56732 1.37651 1.46403 0.190814 1.36988 0.0941488 0.0482122 0.0742967 0.126599 0.0466604 0.115305 0.0279931 0.111933 0.097341 0.0873116 0.0978078
internal_count=12273 2206 2054 1776 278 259 1498 278 1186 312 10067 397 9670 3462 1645 1370 1817 275 1701 116 69 106 328 61 172 41 302 152 131 270
is_linear=0
shrinkage=0.3


Tree=515
num_leaves=28
num_cat=0
split_feature=149 19 12 196 219 203 215 206 226 171 283 194 273 250 40 81 17 161 55 152 46 22 253 133 134 144 63
split_gain=0.00961075 0.0149098 0.00986604 0.0142354 0.0127286 0.0141295 0.0118706 0.0114231 0.0095177 0.0182354 0.0214782 0.0185309 0.0166734 0.0116901 0.0191592 0.0139421 0.0132533 0.0106773 0.00978317 0.0198736 0.0115841 0.00948472 0.0117533 0.0116868 0.00920158 0.00789278 0.00300101
threshold=-0.080111999064683886 0.10489731424275048 -0.090456080368941608 -0.05576746262593902 -0.086578000336885438 0.0076990001834928512 -0.055204501375555944 -0.039736500009894295 -0.045173000544309595 -0.020893000066280299 -0.025519749097907839 -0.021302180826976755 -0.027899006823048512 -0.011307499837130298 0.0070620812704152982 -0.0039044999284669492 -0.092766890871080129 -0.069997714224390883 -0.045408500358462292 -0.078712534734243597 -0.022839294520269612 -0.011090500280260998 0.021851343054037523 -0.039465000852942446 -0.053607633228913064 -0.018925499171018545 -0.010338800118588405
decision_type=2 2 2 2 2 2 2 2 2 2 2 2 2 2 2 2 2 2 2 2 2 2 2 2 2 2 2
left_child=1 21 3 -2 -5 7 -7 -6 9 12 -11 -12 17 14 15 -10 -16 -4 19 -15 -20 26 23 -23 -14 -3 -1
right_child=2 25 8 4 5 6 -8 -9 13 10 11 -13 24 18 16 -17 -18 -19 20 -21 -22 22 -24 -25 -26 -27 -28
leaf_value=0.19307028874143425 -0.1665095475041857 -0.20030912971124976 0.09272698443388204 -0.14266742073520727 0.14181478421473312 -0.084039820557767597 0.12151248237705303 -0.058332165111052478 0.12156474535526313 0.18389817058524097 0.029378626932895016 -0.11990130425958792 0.019435269571696077 0.11434202598328042 0.0903540159825032 -0.025205096042018194 -0.0772526874317086 -0.13124452725492614 0.040415009939038592 -0.04896371954994122 -2.1665508285517022e-05 -0.046573500059280612 -0.13995957470978396 0.17135400507718493 0.13482733255117721 0.025885671825260706 0.08479473287799992
leaf_weight=0.068872111092787236 0.027855188454850577 0.02683420418179594 0.030981932206486817 0.027848778983752709 0.033515074534079758 0.027818976632261183 0.27765332790932007 0.10955938800361664 0.10010464205879543 0.041763812594581395 0.14869165657728445 0.15068333010230972 0.082957403064938262 0.074067939007363748 0.046012553793843836 0.13931926580585141 0.55001828153808674 0.050189382953249151 0.63791023188514273 0.70966350000503453 1347.7949903300109 0.036959299570298754 0.02733728097518906 0.055260833832789014 0.24849859526875662 0.028768098236469086 0.034618307807249948
leaf_count=38 32 24 27 28 28 18 196 115 70 19 96 124 54 38 43 151 604 60 517 491 9212 31 26 33 151 20 27
internal_value=0 0.055711 -9.5006e-06 0.0419459 0.0541345 0.0663533 0.102793 -0.0114479 -2.51624e-05 0.0336762 -0.0176423 -0.0457579 0.0761037 -4.39787e-05 -0.03552 0.0361603 -0.0643137 -0.0457578 -2.20114e-05 -0.0335302 -2.53592e-06 0.0903588 0.032802 0.0840146 0.105947 -0.0832781 0.156851
internal_weight=0 0.27865 1351.31 0.504251 0.476396 0.448547 0.305472 0.143074 1350.81 0.753766 0.341139 0.299375 0.412627 1350.05 0.835455 0.239424 0.596031 0.0811713 1349.22 0.783731 1348.43 0.223048 0.119557 0.0922201 0.331456 0.0556023 0.10349
internal_count=12273 199 12074 417 385 357 214 143 11657 531 239 220 292 11126 868 221 647 87 10258 529 9729 155 90 64 205 44 65
is_linear=0
shrinkage=0.3


Tree=516
num_leaves=31
num_cat=0
split_feature=154 16 116 18 91 180 46 17 248 170 133 2 240 167 154 293 98 70 10 62 102 218 184 117 228 156 211 228 186 157
split_gain=0.00773891 0.00957851 0.00865923 0.01689 0.0149867 0.0158423 0.015612 0.0149639 0.0182339 0.0148272 0.0132892 0.0130948 0.0219031 0.0225515 0.0204777 0.0180305 0.0150019 0.0188971 0.0171317 0.0138664 0.0152735 0.0127903 0.0132152 0.0125774 0.0122814 0.0119813 0.0110111 0.0108357 0.0100991 0.00931882
threshold=-0.09710989617172773 -0.016009000129997644 -0.0080915451186414512 -0.052177131408813991 0.043732499703764909 -0.0083981554860884187 0.050144501030445057 -0.0012119999737477997 -0.062950239655545873 -0.081203637316287908 -0.0074855000711976987 -0.031006075450191403 0.045050499960780109 0.094344999641180025 -0.038151421042031904 -0.037997338887391006 0.018166851958685701 -0.030380999669432595 0.076781867876159191 -0.022159999236464448 -0.014723793602041084 0.020523499697446806 -0.051866286891536238 -0.093234002590179388 -0.11360950022935863 0.06518299877643581 -0.064249999821185996 -0.075427886354062376 -0.05987728742825673 0.091137124463520972
decision_type=2 2 2 2 2 2 2 2 2 2 2 2 2 2 2 2 2 2 2 2 2 2 2 2 2 2 2 2 2 2
left_child=1 -1 3 10 7 -6 -7 8 -5 -9 21 12 19 15 16 -14 18 -18 -13 29 -21 26 -23 25 -25 -16 -2 -12 -29 -4
right_child=2 -3 11 4 5 6 -8 9 -10 -11 27 14 13 -15 23 -17 17 -19 -20 20 -22 22 -24 24 -26 -27 -28 28 -30 -31
leaf_value=0.1260104418929735 0.00022466248186201035 -0.025734090460334626 0.084510882945361021 -0.088168781103616922 0.16471773914661789 0.065291510547373574 -0.15702071560475364 0.13351930409142795 0.013352536325225988 -0.079849158702624712 0.080181089801565034 0.0061136461844244839 0.12179677472849597 0.14839121051372797 -0.0012968691814940099 0.017776201616900533 -0.025811146221305838 -0.15791182849146509 -0.13446581554335538 -0.11534083693539302 0.0016896381073776975 0.15050086001909285 -0.12526334761126659 0.093093665791921007 -9.9439970834828813e-06 0.13741488205725508 0.14324926152876014 0.088749587135702995 -0.17020564351101561 -0.092692548306556599
leaf_weight=0.095576784642616985 0.068265602403243975 0.061546255632264457 0.12172878343653792 0.21539612312513867 0.067499521193326473 0.07744169481730967 0.044920872712054916 0.030528895690281388 0.61054532453765376 0.73516421974232204 0.038351470116140263 0.54619797664355363 0.1657038380967607 0.15129236026768911 0.10752576403683534 1.5797466256406092 0.20496193341750768 0.18581654961934646 0.09102003832867922 0.2112641070200425 0.19119655144459047 0.022478842554846779 0.051409003157459665 0.12752563142384943 1415.2911444308488 0.1170498469246013 0.16685809513546701 0.017319771214260982 0.062344410514697635 0.034216743807064631
leaf_count=74 63 58 135 242 38 99 56 21 593 659 42 437 103 87 123 930 133 136 94 206 194 16 36 110 7267 97 95 18 77 34
internal_value=0 0.066571 -1.23022e-05 -0.0187826 -0.0316272 0.0480409 -0.0163222 -0.0411306 -0.0131231 -0.071342 0.0348031 1.69092e-05 0.0219074 0.0372821 -2.10279e-05 0.0276514 -0.0423472 -0.0886255 -0.0139667 -0.0303158 -0.0597433 0.067509 -0.0413678 9.70804e-06 -1.5556e-06 0.0710003 0.101724 -0.0508338 -0.113906 0.0456298
internal_weight=0 0.157123 1421.33 2.20852 1.7815 0.189862 0.122363 1.59163 0.825941 0.765693 0.427027 1419.13 2.45515 1.89674 1416.67 1.74545 1.028 0.390778 0.637218 0.558406 0.402461 0.309012 0.0738878 1415.64 1415.42 0.224576 0.235124 0.118016 0.0796642 0.155946
internal_count=12273 132 12141 2055 1708 193 155 1515 835 680 347 10086 1689 1120 8397 1033 800 269 531 569 400 210 52 7597 7377 220 158 137 95 169
is_linear=0
shrinkage=0.3


Tree=517
num_leaves=31
num_cat=0
split_feature=202 191 40 161 170 237 42 187 206 88 6 23 127 74 3 175 56 36 144 225 144 299 88 2 20 221 265 100 239 266
split_gain=0.0081312 0.0196164 0.0177395 0.0115886 0.0176219 0.0162908 0.013142 0.0136172 0.0100351 0.00944788 0.00863595 0.0121736 0.0122102 0.0122973 0.011214 0.0154017 0.0189836 0.0229287 0.0140687 0.0133746 0.016267 0.0132978 0.0127339 0.0104828 0.00946264 0.00851808 0.0085136 0.00778177 0.00745964 0.00753299
threshold=-0.055826500058174092 0.0012489999644458001 0.019848783385186374 -0.072041785234973219 -0.010563179434885632 0.036305500194430303 -0.011518999934196398 -0.035894007749320229 0.037155744253122118 0.045032000169157906 -0.12000755825170054 0.022780999541282602 -0.047142214582857146 -0.054124999791383639 -0.049305999651551198 -0.0019280000124126497 -0.082827500998973777 -0.041190000250935492 0.004263499984517651 -0.033885501325130442 -0.010488499887287598 0.036202000454068156 0.13119449466466901 0.0063535000663250503 -0.016974500380456396 -0.030850000679492898 -0.015027743077895088 -0.076717149114654618 0.11247099936008452 -0.0075085000135003991
decision_type=2 2 2 2 2 2 2 2 2 2 2 2 2 2 2 2 2 2 2 2 2 2 2 2 2 2 2 2 2 2
left_child=1 2 8 4 -4 -6 27 -8 -1 25 11 12 13 23 18 16 22 -18 19 20 -12 -21 -16 -2 -20 -3 -13 -5 -11 -30
right_child=10 9 3 6 5 -7 7 -9 -10 28 14 26 -14 -15 15 -17 17 -19 24 21 -22 -23 -24 -25 -26 -27 -28 -29 29 -31
leaf_value=-0.17380573144712611 -0.15957951385427591 0.09503201929961301 -0.13977010236885867 -0.14375654991265269 0.095056811079758594 -0.15181631911150525 0.12719031308160897 -0.03132534458675091 0.065722298575266014 -0.15829132567995688 -0.11820007832857753 0.026736007712733493 0.14133295816498906 0.13915708945449876 -0.017508798653027322 -1.336475839706896e-05 -0.00020263356864167392 0.059532640249185594 -0.1968663173769496 0.05521822381023641 0.088382366840155477 -0.050362045439132294 -0.17882847290054429 0.11754408634520011 -0.051245277762398116 -0.087965602413219907 -0.16644583647856143 0.0096711805144784682 -0.14996298759112167 0.15469481007334865
leaf_weight=0.075333314940151608 0.043147640260144726 0.037306562000537724 0.038507232540723635 0.096096414228966864 0.29567684848120734 0.026187367420448027 0.073225382371759906 0.14606329249170358 0.019899945122460849 0.1590291452437782 0.17214220058644969 0.053883126197433739 0.13918932979186038 0.036916637636750238 0.3524609036729206 1311.4492970562469 1.0452529175534839 1.2945511306655519 0.070184672367304302 0.27437886265589284 0.042843414179174033 0.17637999513434011 0.050326005946772057 0.017174905805404705 0.093883187281775804 0.059250556526649234 0.03317112795173216 0.043093763888919057 0.014215651260400364 0.015024374322820222
leaf_count=145 56 73 80 161 272 35 93 205 32 286 297 88 172 57 450 5128 1520 1553 125 444 64 315 69 41 189 145 53 81 31 13
internal_value=0 -0.0257929 -0.00208439 0.0140344 0.0520248 0.0749708 -0.0241566 0.0216066 -0.123754 -0.0935562 2.36435e-05 0.0490351 0.0843493 0.00278222 1.15871e-05 3.3601e-05 0.0224916 0.0328473 -0.0348523 -0.0154605 -0.0770313 0.0139051 -0.0376648 -0.0806775 -0.113539 -0.0172612 -0.0468739 -0.0962548 -0.132685 0.00657904
internal_weight=0 1.09891 0.814084 0.71885 0.360371 0.321864 0.358479 0.219289 0.0952333 0.284826 1315.35 0.323483 0.236429 0.0972392 1315.02 1314.19 2.74259 2.3398 0.829812 0.665744 0.214986 0.450759 0.402787 0.0603225 0.164068 0.0965571 0.0870543 0.13919 0.188269 0.02924
internal_count=12273 1652 1104 927 387 307 540 298 177 548 10621 467 326 154 10154 8720 3592 3073 1434 1120 361 759 519 97 314 218 141 242 330 44
is_linear=0
shrinkage=0.3


Tree=518
num_leaves=31
num_cat=0
split_feature=88 192 144 4 165 156 280 236 97 229 72 115 21 86 31 66 139 152 11 111 77 105 184 133 235 216 248 270 258 179
split_gain=0.00932346 0.0128098 0.0103316 0.0134316 0.0101439 0.00897511 0.00834969 0.028644 0.0246038 0.0242915 0.020742 0.0200985 0.0200579 0.019791 0.0188079 0.0184349 0.0180095 0.0177818 0.0167525 0.0163611 0.0163557 0.013912 0.0161505 0.017981 0.0138059 0.0133748 0.0118679 0.0078215 0.00732614 0.00707754
threshold=-0.031351999379694392 0.058337999507784809 -0.051803819867292523 -0.061232094189614707 -0.010797672814369027 0.058047499507665606 -0.043029787028755893 -0.12297699972987168 -0.052416998893022489 -0.034306361946239892 -0.040525086035961132 -0.064550315736139216 0.044936959228715025 0.0078690465239545041 -0.021041009396843554 -0.10541399940848344 -0.022049642949914659 -0.045480733729733956 -0.0077136112847887078 0.018250679689351637 -0.071625500917434623 -0.084592998027801444 -0.035396329779150547 0.034652501344680751 0.054745499044656705 -0.048556501045823042 0.038846462441287859 -0.021966500207781747 -0.085071001201867988 -0.019726131421617211
decision_type=2 2 2 2 2 2 2 2 2 2 2 2 2 2 2 2 2 2 2 2 2 2 2 2 2 2 2 2 2 2
left_child=1 2 3 -1 -4 -6 8 16 9 10 14 19 15 24 -2 -13 18 -12 28 25 -21 -9 23 -23 -11 -10 -14 -15 -8 -18
right_child=6 -3 4 -5 5 -7 7 21 11 13 17 12 26 27 -16 -17 29 -19 -20 20 -22 22 -24 -25 -26 -27 -28 -29 -30 -31
leaf_value=0.15197563670346842 -0.053132505379393555 -0.15361174198772673 0.15032864870783277 -0.11949298647030233 -0.11962315979116085 0.10572232879295086 -0.17767730743585347 0.14990633234375605 -0.049294855590812092 -0.0051394003942797448 0.10777487161489244 -0.066879873545413221 0.078633918905489528 0.060426418496018847 0.12230555888982377 -0.0048841141580679027 -0.074962514619459519 -0.10398742009962539 0.13847799829695429 -0.050961064665214571 0.10690520651408118 -0.032595354263583086 2.3954260713378592e-06 0.05151504098131926 0.1585381690372451 0.076263439104421654 -0.11443784220494146 0.16133917814306106 0.0054529070333220369 -0.19033729379791825
leaf_weight=0.024990452511701733 0.084289819576952141 0.024894858124753227 0.14134838592053711 0.047736947562952992 0.028347502928453561 0.036245714683900587 0.039219964819494635 0.055688300832342885 0.21548508711111936 0.22039131718338445 0.043995564636134077 0.50092420001146853 0.32174926347852295 0.092872741350220167 0.15824973744747695 3.1226735231116431 0.079029912689293269 0.1889949804317439 0.048382165899965912 0.069777407952642534 0.38474373174176435 2.2577676351971827 1342.1962819047808 0.25453638872943418 0.058741389220813289 0.11825979164495937 0.031454672865947941 0.27034751519022393 0.039423080990673043 0.12129769753619157
leaf_count=16 47 22 97 51 25 27 18 35 167 149 24 329 262 59 61 2224 69 123 21 55 242 1725 5851 179 38 74 35 131 33 84
internal_value=0 0.0525729 0.0709924 -0.0262114 0.10532 0.00682678 -8.65206e-06 -5.79756e-05 0.0112688 0.0513242 -7.40033e-05 0.00187182 -0.00680256 0.0893741 0.0613355 -0.0134544 -0.0887893 -0.0640004 -0.00042245 0.045634 0.0826698 -3.6376e-05 -4.25855e-05 -0.0240736 0.0293053 -0.00480429 0.0614399 0.135537 -0.0858757 -0.144822
internal_weight=0 0.303564 0.278669 0.0727274 0.205942 0.0645932 1350.97 1345.09 5.88295 1.11788 0.47553 4.76507 3.9768 0.642353 0.24254 3.6236 0.327353 0.232991 0.127025 0.788266 0.454521 1344.76 1344.71 2.5123 0.279133 0.333745 0.353204 0.36322 0.078643 0.200328
internal_count=12273 238 216 67 149 52 12035 8015 4020 632 255 3388 2850 377 108 2553 225 147 72 538 297 7790 7755 1904 187 241 297 190 51 153
is_linear=0
shrinkage=0.3


Tree=519
num_leaves=31
num_cat=0
split_feature=294 288 101 266 254 230 267 180 122 18 231 22 183 138 44 58 188 279 182 265 78 30 62 156 275 205 270 238 142 142
split_gain=0.00805195 0.0166487 0.0131072 0.0115584 0.00798921 0.0217227 0.0242894 0.0212025 0.0158227 0.0152356 0.0144275 0.01721 0.0134445 0.0150446 0.0189905 0.0205085 0.0142132 0.0129832 0.0126 0.0107241 0.0101448 0.0218186 0.0138784 0.017203 0.0166037 0.0127897 0.00845888 0.0069033 0.0095658 0.00559113
threshold=-0.12234000116586678 0.052519488004551376 -0.0010945479370554729 0.015901999548077552 -0.072799500077962834 0.096754498779773726 0.021579500287771152 -0.045020737515582214 -0.061747877840591055 -0.042398618985982149 -0.074721999466419137 0.022497000172734202 -0.076060000807046835 0.012843620768414133 0.0070470001082867011 0.025095312594183555 -0.020729019910866456 -0.023829000070691098 0.051382999867200803 0.077672500163316657 -0.11329849809408184 0.010892936565368527 -0.018400999717414296 0.047775510803723976 -1.0000000180025095e-35 -0.017042000778019397 0.029628000222146504 -0.047085041642862806 0.043517713767859255 0.015761975880886892
decision_type=2 2 2 2 2 2 2 2 2 2 2 2 2 2 2 2 2 2 2 2 2 2 2 2 2 2 2 2 2 2
left_child=1 2 3 27 5 6 7 8 -2 -9 -8 -12 13 16 15 -15 19 -16 -18 -6 21 25 23 -22 -24 -14 -23 28 -1 -4
right_child=4 -3 29 -5 12 -7 10 9 -10 -11 11 -13 20 14 17 -17 18 -19 -20 -21 22 26 24 -25 -26 -27 -28 -29 -30 -31
leaf_value=-0.067625744289287984 0.17332172238951371 0.1663462282062135 -0.012434259876587431 -0.13878184307800001 -0.092373469122908627 -0.16091540124022846 0.14608928121863674 0.011396682930131578 -0.0044910350418442598 -0.061738965757759834 -0.0095938651489567966 0.093544384108428941 -0.080461192834183612 -0.16202542881939633 -0.082649918203096057 0.050948678316481484 0.13522966220261451 0.10915294261013027 -0.015043948832316049 0.19476784409177472 -0.0094876301691806594 -0.14593000709543602 -0.026344226475816166 0.058837965222082421 1.7513223754803429e-05 0.099635674027137314 0.061549516788680425 0.16024133125227702 0.16914388330884358 -0.18557989793670696
leaf_weight=0.040726173923758324 0.070933473954937654 0.079987893610450556 0.03183242760792282 0.023425613966537639 0.061247715079161935 0.090643116549017466 0.086093513166360935 0.33198026421041538 0.12338399103941866 1.1253724754001895 0.57364361140971443 0.19514037970341747 0.057034964671856869 0.10220599297917943 0.041671441125799902 0.067613873410664382 0.26497890183463724 0.13357376390194986 0.06195879550796235 0.014472115959506482 0.5700551460299994 0.16021740594442235 2.1535730545965626 0.79301818940845692 1413.6344445039949 0.093942126920182001 0.019879305994891183 0.064031787740532309 0.0246537069324404 0.03550779634679202
leaf_count=38 33 61 29 27 112 41 56 272 70 1249 518 167 58 79 28 65 138 81 44 6 653 167 1964 648 5476 87 30 40 16 20
internal_value=0 0.0491253 0.00654031 0.0551264 -1.49509e-05 -0.0166385 -0.0114211 -0.0326673 0.0604176 -0.0450789 0.0296278 0.0165857 1.54917e-05 0.0402323 -0.00573603 -0.0772297 0.0796258 0.0635443 0.106751 -0.037493 -5.72275e-06 -0.0525142 6.54425e-06 0.0302633 -2.2586e-05 0.0316001 -0.123028 0.090227 0.0216563 -0.103732
internal_weight=0 0.300165 0.220178 0.152837 1420.83 2.59719 2.50655 1.65167 0.194317 1.45735 0.854878 0.768784 1418.23 0.747723 0.345065 0.16982 0.402658 0.175245 0.326938 0.0757198 1417.48 0.331074 1417.15 1.36307 1415.79 0.150977 0.180097 0.129412 0.0653799 0.0673402
internal_count=12273 231 170 121 12042 2406 2365 1624 103 1521 741 685 9636 553 253 144 300 109 182 118 9083 342 8741 1301 7440 145 197 94 54 49
is_linear=0
shrinkage=0.3


Tree=520
num_leaves=31
num_cat=0
split_feature=199 92 175 59 280 115 53 293 236 180 240 298 22 105 295 261 8 214 85 134 130 113 243 163 153 65 172 76 66 9
split_gain=0.00787754 0.0127984 0.0137324 0.0121548 0.0137549 0.0167692 0.011938 0.00823198 0.00927635 0.00808003 0.0108837 0.00878708 0.00801289 0.00955226 0.00790741 0.00872793 0.00933826 0.00829594 0.00919341 0.00778271 0.00745532 0.00725432 0.00652314 0.00608219 0.00581954 0.00543346 0.00525232 0.004922 0.00462516 0.00419307
threshold=-0.08023549988865844 0.13473549485206601 -0.004855999955907399 0.047834001481533009 -0.028847489772795984 -0.046954998746514244 0.0019019778311309737 0.0018481719160563989 -0.012000800922541596 -0.07166949659585943 0.053499018883495369 0.0069650001823901506 -0.0012485000188461998 0.0030605000210925507 -0.097586955795104458 -0.012058878152978895 -0.050533608501643602 -0.075504500418901388 -0.055167999118566444 -0.032462999224662746 -0.021902999840676746 0.067760497331619221 0.011183000169694401 -0.022173499688506047 -0.065677497535943943 0.085290499031543662 -0.029954171389042782 -0.052866000682115492 -0.027298999950289695 -0.0040620001964270487
decision_type=2 2 2 2 2 2 2 2 2 2 2 2 2 2 2 2 2 2 2 2 2 2 2 2 2 2 2 2 2 2
left_child=1 2 3 4 5 -1 -6 8 -5 10 11 -2 13 -4 20 16 -16 18 -17 -19 22 24 -11 -23 -22 -18 -12 -28 -15 -3
right_child=9 29 12 7 6 -7 -8 -9 -10 14 26 -13 -14 28 15 17 25 19 -20 -21 21 23 -24 -25 -26 -27 27 -29 -30 -31
leaf_value=-0.1274818460714888 0.15417680476559334 -0.0098572074531021008 -0.20014419818277387 0.099933620891151556 -0.11085300459092251 0.027857070507443796 0.10293520422033769 -0.15239267539781901 -0.16621179025699415 -0.14115342933016553 0.044878095741356816 -0.15287983287077095 -0.16298955411658131 0.15181087623462244 0.16321222439234664 0.11915980633470083 -0.14902071981294979 0.020035522770281929 -0.13546727541984069 4.531541839978791e-06 -0.065988036045510998 0.12797622004827997 0.11877209893982874 -0.16315795818745274 0.1328296500454578 0.063219750869866212 0.092738429806968489 -0.18070952807313631 -0.087122649999614055 -0.20015496730645715
leaf_weight=0.093026885859750053 0.026980796954417907 0.013217595775586233 0.016375121015130389 0.033293565162693994 0.026765665240645831 0.19088269475565767 0.19311107334068822 0.069744501973861617 0.018245649750269877 0.027316633912164434 0.013298628261850354 0.012171837551704812 0.083320393135184356 0.023735882647088147 0.011859398349770345 0.015429549112013774 0.078728598861288357 1.7480197527274857 0.073809067538376349 1313.1020968072849 0.014768549514428742 0.01025858470438834 0.01274339590429463 0.017433508884437288 0.12887799869360961 0.012592141324830664 0.0064425761993334154 0.073639744104482929 0.010524521874231141 0.049251824054067583
leaf_count=184 44 28 38 54 27 296 267 196 52 53 19 24 212 39 15 17 182 2489 160 7223 21 25 21 47 237 21 10 146 31 95
internal_value=0 -0.0293666 -0.0186242 5.60258e-05 0.0205823 -0.0230419 0.0769107 -0.0852056 0.00571418 1.99702e-05 -0.0740501 0.0587185 -0.105791 -0.0116706 2.7434e-05 1.81076e-05 -0.0872311 2.49538e-05 -0.0914417 3.11616e-05 0.058044 0.0852856 -0.0584692 -0.0553068 0.112389 -0.119755 -0.129717 -0.158711 0.0784124 -0.159891
internal_weight=0 0.821495 0.759026 0.62507 0.503786 0.28391 0.219877 0.121284 0.0515392 1315.39 0.132534 0.0391526 0.133956 0.0506355 1315.25 1315.04 0.10318 1314.94 0.0892386 1314.85 0.211399 0.171339 0.04006 0.0276921 0.143647 0.0913207 0.0933809 0.0800823 0.0342604 0.0624694
internal_count=12273 1519 1396 1076 774 480 294 302 106 10754 243 68 320 108 10511 10107 218 9889 177 9712 404 330 74 72 258 203 175 156 70 123
is_linear=0
shrinkage=0.3


Tree=521
num_leaves=31
num_cat=0
split_feature=4 157 122 176 221 171 186 255 117 292 108 100 260 244 62 162 228 73 182 135 58 256 29 161 216 237 159 280 267 89
split_gain=0.00845205 0.0172105 0.0187111 0.01944 0.0178882 0.0180654 0.0150866 0.0222355 0.0139922 0.0129827 0.0136285 0.015748 0.0128156 0.0123256 0.0119741 0.0200914 0.018183 0.0198227 0.018712 0.0182169 0.0158776 0.0133369 0.0266657 0.0303863 0.0191961 0.0154303 0.0153841 0.0239581 0.018068 0.0131253
threshold=-0.046687999740242896 0.088782999664545018 -0.11732799932360644 -0.083859685529878367 -0.014806000050157248 -0.062804264551278591 0.00035499999648890007 -0.02915314374753309 -0.033828498795628492 0.023594946283982513 0.021966499276459151 -0.14789099991321555 0.11391676466516966 -0.035130500793456997 -0.013338500168174448 0.14868299663066861 -0.030206829599724403 0.020595500245690304 0.036800000816583557 0.093219848256146501 0.095966385496902257 -0.0003975494996729427 0.028436999768018653 -0.0019590679294124525 -0.00932520507850855 -0.091868001967668492 0.00091449997853485009 -0.06830399855971328 -0.021352999843656996 -0.0079324999824165986
decision_type=2 2 2 2 2 2 2 2 2 2 2 2 2 2 2 2 2 2 2 2 2 2 2 2 2 2 2 2 2 2
left_child=1 2 13 4 8 -6 7 -5 -4 10 11 -3 -8 -1 15 16 17 29 19 -18 -19 22 23 24 -16 -23 28 -28 -24 -2
right_child=14 9 3 6 5 -7 12 -9 -10 -11 -12 -13 -14 -15 21 -17 18 20 -20 -21 -22 25 26 -25 -26 -27 27 -29 -30 -31
leaf_value=-0.12075159821309631 -0.1413542777080137 0.11132196234241938 0.11742192951160928 -0.039920083564883489 0.1013683484855709 -0.11355438945409156 0.059900739159935629 0.055211537492143907 -0.043465850923414255 0.067739969838799416 0.039198422710428761 -0.12457866720417496 0.15795839576974283 0.049548863391397129 0.055371299258751998 0.15079512290837047 -0.044932753286596995 -0.10202037253913364 0.054842952526263047 0.057828743147247827 0.063341013342531241 -0.13014439916716339 -0.04215415441507344 0.16298381305995041 -0.076535545362774987 -2.7248537985756737e-05 0.062306910803312521 -0.055389761755555003 0.059103471812730693 0.062957240709234974
leaf_weight=0.12077344813002355 0.034862307789353508 0.028631811277591623 0.10932493865675497 0.30560338769646544 0.04269718492651009 0.20041947665049598 0.40805584726626865 0.79994283493573226 0.087658358534099534 0.08338486023421865 0.086175713706325041 0.23054580851385242 0.16990023135440424 0.055976369143764582 0.58186901146245873 0.059043110119091469 0.83371968047867884 0.57764947771647712 0.3466003095522866 0.19078841616828868 0.057456652633845806 0.082030204665442308 0.22320287539514538 0.20982211157342989 0.11972403406161902 1343.2366085126037 0.20224307323223922 0.67573654080820222 0.54793368260470721 0.1503068749698292
leaf_count=145 52 17 62 215 19 132 276 546 63 60 59 214 62 45 343 37 794 529 226 126 31 93 168 73 98 6724 102 517 334 111
internal_value=0 0.0166816 0.0269667 0.0347725 -0.0213664 -0.0758087 0.0494483 0.0289145 0.0458262 -0.0385021 -0.064154 -0.0985183 0.0887265 -0.0668177 -3.05234e-05 -0.0218954 -0.0265482 -0.0618788 -0.00541145 -0.0257961 -0.0870605 6.03651e-06 0.0216367 0.062818 0.0328619 -3.51942e-05 -0.00112296 -0.0282783 0.0297948 0.024491
internal_weight=0 2.72909 2.30035 2.1236 0.4401 0.243117 1.6835 1.10555 0.196983 0.428738 0.345353 0.259178 0.577956 0.17675 1348.13 2.25043 2.19138 0.820275 1.37111 1.02451 0.635106 1345.88 2.56053 0.911415 0.701593 1343.32 1.64912 0.87798 0.771137 0.185169
internal_count=12273 1915 1565 1375 276 151 1099 761 125 350 290 231 338 190 10358 1906 1869 723 1146 920 560 8452 1635 514 441 6817 1121 619 502 163
is_linear=0
shrinkage=0.3


Tree=522
num_leaves=28
num_cat=0
split_feature=245 143 78 142 270 232 119 170 257 199 229 184 108 172 200 18 268 19 291 205 133 26 147 223 180 201 123
split_gain=0.00750015 0.00855081 0.010781 0.00782289 0.0125763 0.00993641 0.00867655 0.0138557 0.0122442 0.0111386 0.0086247 0.00805169 0.0144047 0.0110671 0.00892686 0.0169509 0.0110528 0.00734408 0.00687572 0.0046334 0.00462266 0.0019966 0.00198119 0.00184185 0.00158884 0.00020999 1.13638e-07
threshold=-0.1048386869564062 -0.022394500672817147 -0.021857397213721139 -0.085123383250636078 -0.013849509680913917 0.052427560513548195 -0.14942399412393562 0.011309999972581851 -0.058426501229405396 -0.060937499627470949 -0.064760997891426045 -0.12834149599075312 0.015059500001370853 0.044865000993013361 -0.14277750253677357 0.015660999342799103 -0.052682500332593897 0.074599658653598785 -0.015293172293690998 -0.063062001019716235 0.0045339845479542085 -0.052210067811868426 -0.044648197896858824 -0.06251300126314159 0.020383499562740253 -0.017132000066339945 -0.053482001647353138
decision_type=2 2 2 2 2 2 2 2 2 2 2 2 2 2 2 2 2 2 2 2 2 2 2 2 2 2 2
left_child=1 22 17 4 5 18 7 8 -5 -10 -6 12 13 -8 15 -13 -16 24 -2 -12 25 -4 -1 -21 -3 -9 -24
right_child=3 2 21 6 10 -7 11 20 9 -11 19 14 -14 -15 16 -17 -18 -19 -20 23 -22 -23 26 -25 -26 -27 -28
leaf_value=0.075330867734139967 -0.022709397467522409 -0.072206185776773388 0.05880307833831825 0.16228513392853283 0.073417842957105336 -0.1415569710046746 0.12957362576150019 0.20035472702337823 0.086122233163733922 -0.12449505112110226 0.010255170575012703 0.090232032081310296 -0.13600571611180379 -0.07632729687231378 -0.018251024333033185 -0.041790118694665999 7.2142901669085502e-06 0.090322887092251225 0.17166678425913565 -0.063699393547839142 0.038863747234742042 0.20024405767659481 0.20029839937402882 -0.18061508083681466 -0.19949840969295649 0.16645155377154394 0.19922573952688996
leaf_weight=0.016478686306982127 0.028293140831010533 0.014652041409135563 0.01611903851153329 0.030578355916077271 0.01944345937226899 0.022233853607758647 0.13841304631182438 0.041515664561302401 0.033912545317434706 0.067738918380654378 0.015638912958820583 0.25750317832262126 0.028546968710543297 0.028297425717028091 2.9902974166247978 0.13259803269056647 1416.6172912371217 0.016828810450533638 0.038893390126759186 0.014013487036095285 0.02621463638934074 0.020287065341561994 0.023768467413901817 0.090079526564408208 0.022190994157199384 0.02722443979291711 0.014198653740550071
leaf_count=21 30 25 16 26 15 37 129 24 26 59 24 160 22 23 2699 143 8464 23 26 23 27 26 19 93 35 25 33
internal_value=0 0.0683353 0.0116033 -9.95297e-06 -0.0555026 0.0322838 -1.02224e-06 0.0586223 -0.00416036 -0.0542298 -0.111906 -1.04001e-05 0.0609056 0.094624 -1.87763e-05 0.0453568 -3.12453e-05 -0.073875 0.0898124 -0.142 0.146051 0.13762 0.162196 -0.164875 -0.148876 0.186927 0.199897
internal_weight=0 0.144524 0.0900779 1420.65 0.228596 0.0894204 1420.42 0.227185 0.13223 0.101651 0.139175 1420.19 0.195257 0.16671 1420 0.390101 1419.61 0.0536718 0.0671865 0.119732 0.0949547 0.0364061 0.0544458 0.104093 0.036843 0.0687401 0.0379671
internal_count=12273 198 125 12075 248 93 11827 187 111 85 155 11640 174 152 11466 303 11163 83 56 140 76 42 73 116 60 49 52
is_linear=0
shrinkage=0.3


Tree=523
num_leaves=29
num_cat=0
split_feature=35 126 57 55 297 172 86 89 69 144 128 91 141 21 143 182 175 51 226 118 124 14 235 289 232 168 40 104
split_gain=0.00732407 0.0145941 0.0114159 0.0104386 0.00851279 0.00762285 0.00994678 0.00794879 0.00786925 0.00796303 0.0110684 0.0074494 0.00633416 0.00613472 0.00437905 0.00421224 0.00429214 0.00351556 0.00342667 0.00267348 0.00155724 0.000845727 0.000332029 0.000167132 7.91412e-05 5.81171e-05 6.07777e-09 2.61551e-09
threshold=-0.08846149966120713 0.0090292282926218454 0.0060485000722110003 0.019361500628292502 -0.020406499505042999 -0.085002999752759892 0.043013127952132163 -0.093266502022743183 -0.10461537478473359 -0.13904922280740145 0.074550226825607496 -0.11443899944424624 -0.016724999994039497 -0.074293625455677345 0.0044189558261620932 0.048187036433386336 -0.072117021409941029 -0.034545499831437988 0.028098000213503754 -0.020079729988190829 0.0030474999221041508 0.0073774987562736745 -0.0024525502750319546 -0.030306593204608483 0.026868462174039532 -0.0081580001860856472 0.082175953774288699 0.029588440328312062
decision_type=2 2 2 2 2 2 2 2 2 2 2 2 2 2 2 2 2 2 2 2 2 2 2 2 2 2 2 2
left_child=1 3 13 18 25 6 19 12 14 10 -10 -11 -7 -3 -9 16 -4 -15 -1 -2 -19 -14 -21 -20 -16 -5 -23 -24
right_child=5 2 15 4 -6 7 -8 8 9 11 -12 -13 21 17 24 -17 -18 20 23 22 -22 26 27 -25 -26 -27 -28 -29
leaf_value=0.019092946068733133 -0.029420464134183567 0.011631160572354438 0.13180876657439131 -0.16969144884681991 0.075373028118972937 0.051093612203195492 0.06942372442113659 0.023353066528094272 0.14538425961127274 -0.16726014515054935 -0.11718198252755244 2.3892307000777621e-05 -0.085510662786756828 0.070505123963344588 -0.16517677045112922 0.20018613700028864 -0.15964312257917726 -0.20021302889656978 0.15791121259193466 -0.13614309544248743 -0.12029692125319702 -0.20012265394875134 -0.20008723875398068 0.19864573768236626 -0.20017753055530782 -0.2001762795569679 -0.20039184879252106 -0.20024299835554926
leaf_weight=0.017128899651651319 0.011937314814076672 0.020270118276926041 0.0082934232341358438 0.0091524533993379009 0.020505009979387978 0.014854792461846955 0.024856836320395814 0.012008238853239983 0.069189114978143063 0.023958681303382856 0.018263633287006087 1315.4451664517985 0.007074720181832527 0.0053437005835803566 0.0078836341201622417 0.012063480204233201 0.010068613984458352 0.081151590149602271 0.015771035170473624 0.0089769229583680499 0.030078433347512146 0.019302222149747195 0.019493286066221027 0.021319872021194897 0.022149618829416795 0.014617223738241591 0.012395955414149284 0.019318052330163482
leaf_count=26 25 30 13 22 29 34 32 33 117 54 32 11263 21 14 14 14 27 133 21 23 54 62 57 24 46 23 9 21
internal_value=0 -0.0497951 -0.103741 0.0418194 -0.0662588 1.2218e-05 -0.0900466 1.80078e-05 2.27158e-05 2.68636e-05 0.0905499 2.08456e-05 -0.115478 -0.140696 -0.129768 0.0624707 -0.0280056 -0.167183 0.130074 -0.156416 -0.178602 -0.179296 -0.188138 0.181325 -0.19099 -0.188438 -0.200228 -0.200165
internal_weight=0 0.265764 0.167269 0.0984945 0.0442747 1315.74 0.0845824 1315.65 1315.6 1315.56 0.0874527 1315.47 0.0536277 0.136844 0.0420415 0.0304255 0.018362 0.116574 0.0542198 0.0597256 0.11123 0.0387729 0.0477883 0.0370909 0.0300333 0.0237697 0.0316982 0.0388113
internal_count=12273 430 285 145 74 11843 158 11685 11559 11466 149 11317 126 231 93 54 40 201 71 126 187 92 101 45 60 45 71 78
is_linear=0
shrinkage=0.3


Tree=524
num_leaves=18
num_cat=0
split_feature=210 251 276 53 192 77 266 215 127 249 197 275 256 255 103 234 225
split_gain=0.00797066 0.0139249 0.0117926 0.00734238 0.0107435 0.00733721 0.00729004 0.0162337 0.0145773 0.0085545 0.00852362 0.0245478 0.0126929 0.00577187 0.00342916 0.00341512 0.000909092
threshold=-0.14175972177030802 0.013532137034869083 -0.020624500699341245 -0.062305498868226943 -0.0080641581871785852 -0.16050099581480023 -0.085890501737594535 -0.058457998558878843 -0.094203903014884488 0.074703000485897064 -0.046837501227855648 -0.0066533832057907773 -0.07510050013661379 0.012350499629974301 0.029008000157773457 -0.046139196711941048 -0.027051279073721079
decision_type=2 2 2 2 2 2 2 2 2 2 2 2 2 2 2 2 2
left_child=1 15 -3 4 14 -5 7 9 -9 -7 11 -8 -12 -4 -2 -1 -17
right_child=3 2 13 5 -6 6 10 8 -10 -11 12 -13 -14 -15 -16 16 -18
leaf_value=0.045319177712088189 0.20042420106371653 -0.20029494991046401 -0.0331103451265638 -0.13500087153952686 -0.069155916896036812 -0.17076125121356706 0.033740698252079718 0.17780052306428087 0.027448843563896586 0.037867669445660453 0.053982888893074642 -0.096057743925432718 -2.8887900067574037e-05 0.19165585338907887 0.070484720910003421 0.20051695865366592 0.13450374239509011
leaf_weight=0.028311214569839649 0.040395897027337924 0.025821849805652164 0.025857249228863566 0.036238851666211214 0.030867725130291457 0.054135646652866853 0.23710146605714044 0.062567211782152299 0.80150176152164831 0.026272827491993667 0.39169875757124728 0.29341143627215061 1348.2502587653416 0.017070911068003625 0.033385388436727226 0.037636672088410705 0.03746520628220551
leaf_count=27 20 17 32 30 23 50 214 47 566 15 240 288 10626 16 22 12 28
internal_value=0 0.0645472 -0.0400929 -7.17615e-06 0.0794541 -1.33351e-05 -9.71187e-06 0.0263377 0.0383358 -0.102593 -2.81562e-05 -0.0380471 -1.32008e-05 0.0562707 0.141628 0.134113 0.167586
internal_weight=0 0.172163 0.06875 1350.26 0.104649 1350.15 1350.12 0.944477 0.864069 0.0804085 1349.17 0.530513 1348.64 0.0429282 0.0737813 0.103413 0.0751019
internal_count=12273 132 65 12141 65 12076 12046 678 613 65 11368 502 10866 48 42 67 40
is_linear=0
shrinkage=0.3


Tree=525
num_leaves=20
num_cat=0
split_feature=2 295 21 201 222 112 246 240 48 18 223 105 122 207 233 90 171 90 24
split_gain=0.00734027 0.00703607 0.00674336 0.0176677 0.0113936 0.0138709 0.0110722 0.00804094 0.0173413 0.0135504 0.0115497 0.00931967 0.00840296 0.00670055 0.00599084 0.00560965 0.00498143 0.00408532 8.12175e-05
threshold=-0.12182400003075593 -0.13800476441438966 -0.10930049791932099 -0.0081650666536415405 -0.016438500024378248 0.0015544175147829467 0.013766000047326003 -0.0021828946164017099 -0.020676500163972298 -0.0180884148973844 -0.065360497683286584 -0.084592998027801444 -0.111182074318917 0.0076645000372081509 -0.034838998690247494 0.0061560000758617509 -0.042298499494790941 -0.029502426340364051 -0.012852775645292453
decision_type=2 2 2 2 2 2 2 2 2 2 2 2 2 2 2 2 2 2 2
left_child=15 13 3 4 5 -3 17 8 9 -4 -10 14 -13 18 -9 -1 -6 -5 -2
right_child=1 2 7 6 16 -7 -8 11 10 -11 -12 12 -14 -15 -16 -17 -18 -19 -20
leaf_value=0.17010580749159668 -0.17016549964074465 0.1028704453334696 -0.01021036926859243 -0.040218100437871336 0.061153368043468846 -0.073845956880179961 0.090569797689182593 0.037586963859873819 -0.14229302148728465 -0.1316559066024989 0.084329465214457972 0.035663691173833931 -8.5378533283605787e-06 0.03434540764223689 -0.15146189243071306 -0.018949684491015386 0.18724445794919692 -0.19078863011606778 -0.20024081804088559
leaf_weight=0.040005766478769966 0.013148963411822479 0.089949059391528863 0.15118066870672919 0.025808492100622971 0.04259588030163286 0.071953018747080932 0.027332252358974074 0.020291179750529409 0.024230688599431005 0.1825026487184509 0.12288520033011963 0.59456063486800204 1418.9862615948427 0.01881575785955647 0.058813398982009768 0.021834894460880605 0.083428503838831602 0.043641155029716994 0.020967204148972907
leaf_count=36 16 80 166 27 43 66 19 23 47 300 158 616 10447 19 62 30 54 34 30
internal_value=0 -5.78973e-06 -1.71416e-06 0.0397115 0.0769852 0.0243336 -0.0711779 -1.24723e-05 -0.0388024 -0.076633 0.0470037 6.64825e-07 6.40269e-06 -0.109381 -0.102969 0.103354 0.144626 -0.134834 -0.188649
internal_weight=0 1420.58 1420.53 0.384708 0.287926 0.161902 0.0967819 1420.14 0.480799 0.333683 0.147116 1419.66 1419.58 0.0529319 0.0791046 0.0618407 0.126024 0.0694496 0.0341162
internal_count=12273 12207 12142 323 243 146 80 11819 671 466 205 11148 11063 65 85 66 97 61 46
is_linear=0
shrinkage=0.3


Tree=526
num_leaves=30
num_cat=0
split_feature=125 230 123 174 121 155 275 269 241 185 188 225 130 164 214 107 132 66 116 48 53 7 41 127 284 228 210 294 206
split_gain=0.00695912 0.00667508 0.0105349 0.0082903 0.00745387 0.00826347 0.00696029 0.0120191 0.0117438 0.0109511 0.0105895 0.0112604 0.010153 0.009119 0.00848795 0.0083006 0.00829471 0.00488125 0.00477796 0.00456681 0.0041281 0.00200647 0.00141741 0.00111126 0.00107396 2.74013e-09 1.04782e-09 3.44528e-10 1.34261e-10
threshold=-0.098522998392581884 -0.08551287132182557 -0.0064115000423043489 0.041606500744819606 0.008405291209826771 -0.020449500530958144 -0.093882497400045326 0.14600650315084829 -0.075113350390566089 -0.043934548883347538 0.0079376718549681296 -0.022414499893784443 0.049735998734831761 -0.052525499835610293 -0.016425499692559197 -0.15069950371980662 -0.076027659103099873 -0.012797332456516866 -0.024064499884843795 -0.077029999345540931 -0.053476000204682288 -0.10758245522399552 -0.07068009750777153 -0.0074734999798237488 0.030098452954328062 -0.060527000576257643 -0.033965500071644748 0.041486499831080402 0.058743005191546287
decision_type=2 2 2 2 2 2 2 2 2 2 2 2 2 2 2 2 2 2 2 2 2 2 2 2 2 2 2 2 2
left_child=18 2 4 17 5 -2 7 9 10 14 12 -12 -8 -11 -3 26 -17 23 -1 -19 -20 -5 -22 -4 -6 -26 -10 28 -24
right_child=1 6 3 21 24 -7 8 -9 15 13 11 -13 -14 -15 -16 16 -18 19 20 -21 22 -23 27 -25 25 -27 -28 -29 -30
leaf_value=0.051554355476050258 -0.20014802111105354 0.11627286391811922 0.089288321824103706 -0.020818182682588414 -0.11407824091619871 0.17362486665954432 -0.13618672660988984 -0.18325824950627792 -0.20009345662852338 -0.15112928840834128 -0.082843241035432752 0.06729327506917554 0.017952099330711103 0.1180328167822349 -0.15717655449236809 -0.060902333352035459 3.2010013902359041e-05 0.11409549755713407 0.14366377499596206 -0.19172201528951291 0.10540145465943729 -0.20011185518756541 -0.20005029682770617 0.19944660950544582 -0.2002798398802236 -0.20012925434012804 -0.20023594051518556 -0.20014799819077558 -0.20010186537467151
leaf_weight=0.012845444914887594 0.0089436828416182834 0.015524980983173009 0.013750903966865735 0.0095505348217557184 0.01753496836136037 0.013151154081242566 0.15672491850418069 0.018421592050117397 0.0098586251079950671 0.012113236165532726 0.080763752055361238 0.10141742032152479 0.050967502384906993 0.1748019351171014 0.029876615354623937 0.20108783220302839 1314.8461223017252 0.0087739258087822236 0.0037064177957759617 0.0088049757154057273 0.0014215213111583571 0.01364114466105093 0.025649299248718616 0.020572139073919971 0.015758471476146951 0.035097263034572279 0.0087838078139829134 0.0045272021045548163 0.0055221041329787104
leaf_count=32 19 22 24 14 33 39 259 31 35 21 169 183 99 285 50 414 10083 17 9 27 11 34 208 23 11 75 9 16 21
internal_value=0 6.36706e-06 -0.0602245 0.022841 -0.12916 0.0223268 1.3947e-05 0.0499924 4.42063e-06 0.0684881 -0.0520551 0.000735418 -0.0983612 0.100589 -0.0636711 1.98546e-05 2.26924e-05 0.0894725 -0.108021 -0.0390833 -0.158229 -0.126277 -0.188373 0.155314 -0.178101 -0.200176 -0.200161 -0.200071 -0.200059
internal_weight=0 1315.87 0.165579 0.0750936 0.0904855 0.0220948 1315.71 0.250738 1315.46 0.232317 0.389874 0.182181 0.207692 0.186915 0.0454016 1315.07 1315.05 0.0519019 0.053672 0.0175789 0.0408265 0.0231917 0.0371201 0.034323 0.0683907 0.0508557 0.0186424 0.0356986 0.0311714
internal_count=12273 11976 316 139 177 58 11660 409 11251 378 710 352 358 306 72 10541 10497 91 297 44 265 48 256 47 119 86 44 245 229
is_linear=0
shrinkage=0.3


Tree=527
num_leaves=19
num_cat=0
split_feature=246 82 149 19 265 182 290 171 281 177 77 83 139 144 8 228 0 178
split_gain=0.0072781 0.0130276 0.0070651 0.00981619 0.00794526 0.00779817 0.00714281 0.00670339 0.00881485 0.00865609 0.00733188 0.0180608 0.0132617 0.00609297 0.00475893 0.00389974 0.00133008 0.000426615
threshold=-0.10917526436780446 0.032292185558780995 -0.080111999064683886 0.10489731424275048 -0.0093025755483284404 0.0018907676621853148 -0.14923824229234142 -0.13423150032758707 0.009358238470271044 -0.022649499587714596 -0.035881500691175391 0.029315232821591566 -0.017241463553502406 -0.0073712952341085493 0.067334000021219212 -0.0047526739871052281 -0.00036499999987419995 -0.0065764999017118991
decision_type=2 2 2 2 2 2 2 2 2 2 2 2 2 2 2 2 2 2
left_child=1 14 3 4 5 -2 -4 8 9 -8 11 -9 -12 -5 17 16 -6 -1
right_child=2 -3 6 13 15 -7 7 10 -10 -11 12 -13 -14 -15 -16 -17 -18 -19
leaf_value=0.14899383712410036 0.092475689293152072 -0.094763253660381672 -0.14384744129527838 -0.18618788119812429 0.1174198306005913 -0.11125309377449374 -0.11670469640659896 0.0027897342693375968 0.17629718069222017 0.11447632933438953 0.01755331501444363 -0.045995006915536291 -3.6048658074132809e-05 0.042913434433746109 0.022332256734539962 0.047089401407855065 0.20032357717029059 0.20040825758790562
leaf_weight=0.023952665340402746 0.039309806961682625 0.029884082148782909 0.031073624086728979 0.021903986882534809 0.026653890206944197 0.029674056286239647 0.029004098376390175 1.8776773143036387 0.04492768810087 0.029304372586010596 3.8689239355167038 1.0734329555952511 1342.9449059425838 0.019975248571427073 0.023961043257259007 0.032088527485028773 0.050257424663868733 0.03690181982528784
leaf_count=25 39 26 32 27 23 34 38 1540 31 23 2789 1000 6525 17 25 28 28 23
internal_value=0 0.0755663 -6.95602e-06 0.0537666 0.0845153 0.00483984 -1.57143e-05 -1.24034e-05 0.0764303 -0.000518921 -1.825e-05 -0.0149552 1.44794e-05 -0.0769128 0.135581 0.13494 0.171593 0.180171
internal_weight=0 0.1147 1350.12 0.219863 0.177984 0.0689839 1349.9 1349.87 0.103236 0.0583085 1349.76 2.95111 1346.81 0.0418792 0.0848155 0.109 0.0769113 0.0608545
internal_count=12273 99 12174 196 152 73 11978 11946 92 61 11854 2540 9314 44 73 79 51 48
is_linear=0
shrinkage=0.3


Tree=528
num_leaves=31
num_cat=0
split_feature=245 296 137 216 284 71 257 295 262 201 143 212 183 123 187 106 79 128 24 84 201 186 167 122 12 242 4 41 184 204
split_gain=0.00780823 0.0186951 0.022325 0.0169883 0.0194869 0.0223335 0.0212166 0.0183449 0.0168876 0.0197354 0.0256698 0.0204702 0.0179791 0.0179434 0.0173064 0.0161264 0.0148518 0.0140003 0.0135279 0.0147963 0.0156779 0.0128934 0.0181915 0.0125881 0.012118 0.0109636 0.0103664 0.01031 0.00900275 0.00757567
threshold=-0.042357999831437995 -0.041600499302148791 -0.10831550136208529 0.023052499629557101 0.064922927447590401 -0.060224499553441939 -0.046326499432325287 -0.047943999990820843 -0.030883501969771816 -0.032032500952482189 0.011973499786108703 0.0022904934241877108 -0.047610500827431644 -0.071261953681570719 -0.066745941916521181 0.074728702885940732 0.044927000999450607 0.082465000450611115 -0.045288998633623088 -0.052730500698089544 0.0093045001849532023 -0.0035200000274925995 0.078646998852491365 -0.046657164701666698 -0.052392000332474646 -0.0069536543244208601 -0.032654499635100344 0.034961499273776959 0.0072188408136091712 0.03405500017106531
decision_type=2 2 2 2 2 2 2 2 2 2 2 2 2 2 2 2 2 2 2 2 2 2 2 2 2 2 2 2 2 2
left_child=1 2 -1 4 16 6 -6 -7 9 12 21 14 24 -13 -12 17 25 -14 -4 -20 -21 22 -11 -23 26 -3 -2 -18 -26 -5
right_child=8 3 18 29 5 7 -8 -9 -10 10 11 13 15 -15 -16 -17 27 -19 19 20 -22 23 -24 -25 28 -27 -28 -29 -30 -31
leaf_value=0.14805070989376051 0.098211688681668977 0.083045347887443874 0.093545012096911212 -0.15302721285565085 0.10289395262883594 0.12847414638288798 -0.092243802872198563 -0.0056494549078459208 1.6093317869327292e-05 -0.085696169941424927 0.012628871054960049 0.1246722426895653 -0.03638341281454905 -0.079832056496421389 -0.093729746936232247 -0.16856709187145474 -0.13103972792074459 0.069662927564736368 -0.16433964698081135 0.081572424965897047 -0.11120059387749641 0.1160854951430705 0.085080701884608104 -0.0055076226365514376 0.11470875618309058 0.019313039302337208 -0.2002446713760723 0.053907604969185278 0.0052175096395068428 0.038230853983414893
leaf_weight=0.1911403186240932 0.017119177937274799 0.4687723385417264 0.14355364120729064 0.085874564999812608 0.057123690985122266 0.11161505576598074 0.41052634831362411 0.51646062080794741 1414.8230038696768 0.19340422070388286 0.16034430199260885 0.089765718968919828 0.36926268396257489 0.067762801649223436 0.97458756723318618 0.059784851120184612 0.07395444482426683 0.16084928249290442 0.052178037499515995 0.11524625525862608 0.056626222794875503 0.14898318574432778 0.079095694114357684 0.15777945139126259 0.23393727839629719 0.5042288460218165 0.026982243558450136 0.042842026777748288 0.095045820391987945 0.023806176490325015
leaf_count=99 10 398 137 88 40 105 231 361 7314 234 110 53 403 74 951 63 83 135 48 125 47 100 64 115 161 491 39 61 101 32
internal_value=0 0.0156774 0.0648889 0.00369735 0.00947928 -0.0187719 -0.0684076 0.0181856 -3.02538e-05 -0.0231624 -0.0411172 -0.0646374 0.0117357 0.0367022 -0.0787033 -0.0208639 0.0378842 -0.00420629 0.0216479 -0.024418 0.0180602 0.0113615 -0.0361266 0.0535456 0.0632801 0.050018 -0.0843906 -0.0631993 0.0830759 -0.111515
internal_weight=0 2.85395 0.558744 2.2952 2.18552 1.09573 0.46765 0.628076 1417.66 2.8347 1.87172 1.29246 0.962981 0.157529 1.13493 0.589897 1.0898 0.530112 0.367604 0.224051 0.171872 0.579263 0.2725 0.306763 0.373085 0.973001 0.0441014 0.116796 0.328983 0.109681
internal_count=12273 2346 456 1890 1770 737 271 466 9927 2613 1701 1188 912 127 1061 601 1033 538 357 220 172 513 298 215 311 889 49 144 262 120
is_linear=0
shrinkage=0.3


Tree=529
num_leaves=20
num_cat=0
split_feature=112 208 264 86 76 205 96 70 54 202 292 283 164 115 69 4 218 39 30
split_gain=0.00645359 0.00639527 0.00748343 0.00734748 0.00697206 0.0121836 0.0130851 0.0125809 0.012088 0.00650969 0.00861544 0.00612885 0.00400657 0.00725737 0.00263326 0.000502636 0.000159491 4.26087e-10 1.08221e-10
threshold=-0.12151389478507253 -0.10684350132942194 -0.070483286311701629 -0.061149926058231038 -0.021652113384056627 0.05685676125528423 -0.0016695000231265499 0.045966500416398007 -0.087796917320429144 0.037986788035102685 -0.12350450083613389 0.0055002457458112773 -0.0048185000196098492 0.0065485308403043447 0.039115000516176203 -0.025739500299096049 -0.031599636636833191 -0.03233466069417127 0.043656500056385959
decision_type=2 2 2 2 2 2 2 2 2 2 2 2 2 2 2 2 2 2 2
left_child=11 2 14 -4 5 6 8 -8 -3 10 -7 -1 13 -5 -2 -14 -13 -18 -19
right_child=1 4 3 12 -6 9 7 -9 -10 -11 -12 16 15 -15 -16 -17 17 18 -20
leaf_value=0.14024693504268443 -0.01855322674333984 -0.11848927312789748 0.15049369267423271 -0.18788894424869482 -1.9406511775458228e-05 0.13062995473046612 0.0087465341619235287 -0.12167887957632138 0.055774915397816711 0.071148428241491174 -0.16161099597433443 -0.14368615948303901 -0.1343008735991125 0.10922690525818551 0.19830600205107499 -0.20015881854706735 -0.20017070829474956 -0.20005761057961771 -0.20011718428993533
leaf_weight=0.0062071014833112717 0.0096858215000565906 0.037349668440583628 0.0089951764048237237 0.015500967879006566 1313.4704697316104 0.010439148718432989 1.1475535763575369 0.070661269844847996 0.87737195955674074 0.019153176259202098 0.06968102625823025 0.0056219250076878771 0.014066618161450606 0.014155827229103579 0.01050506240926552 0.040342128860344384 0.011694412051951982 0.0053032795019589719 0.0056877427632571198
leaf_count=13 31 50 17 52 8410 12 1708 131 1467 32 133 26 28 21 12 70 19 30 11
internal_value=0 2.92686e-06 -0.071284 -0.107205 9.06301e-06 0.016761 0.0215426 0.00118135 0.0486594 -0.0859731 -0.123534 -0.129723 -0.134779 -0.0460691 0.0942759 -0.183132 -0.188921 -0.200131 -0.200088
internal_weight=0 1315.82 0.113252 0.0930607 1315.7 2.23221 2.13294 1.21821 0.914722 0.0992734 0.0801202 0.0345145 0.0840655 0.0296568 0.0201909 0.0544087 0.0283074 0.0226854 0.010991
internal_count=12273 12174 231 188 11943 3533 3356 1839 1517 177 145 99 171 73 43 98 86 60 41
is_linear=0
shrinkage=0.3


Tree=530
num_leaves=31
num_cat=0
split_feature=41 182 29 64 210 274 41 123 225 279 29 103 211 20 223 230 70 256 213 271 258 13 130 223 113 210 114 194 255 259
split_gain=0.00670733 0.0158008 0.0147257 0.01124 0.00888659 0.0122545 0.00786914 0.0114482 0.011456 0.0109129 0.0153047 0.0082539 0.00756939 0.00749035 0.00888899 0.0075122 0.0172918 0.0129342 0.0107339 0.00899832 0.0166991 0.00948453 0.0073096 0.00730099 0.00687752 0.00664117 0.0064502 0.0033661 0.00382774 0.00214408
threshold=-0.057221752671639765 0.064184831892718994 -0.0073810000903903996 0.021371499635279154 -0.033268702915395 0.018966415696973816 -0.043155566322566598 0.00063399999635290014 -0.024982451994385396 -0.013462999835610348 0.04415247613851938 0.0030471051948339346 -0.067353157835558272 -0.12572050094604487 0.0040287157231141896 -0.068962998688220881 0.011373000219464252 0.074580731930098398 0.0019048756113524184 -0.018872999586164896 -0.04309042411833313 -0.14617250114679328 -0.013943000230938148 0.0031739999540149502 0.020959000103175553 -0.046034000813960994 -0.028665378797326078 -0.0092245000414549975 0.0053911155261432107 0.024945999495685055
decision_type=2 2 2 2 2 2 2 2 2 2 2 2 2 2 2 2 2 2 2 2 2 2 2 2 2 2 2 2 2 2
left_child=1 2 26 4 5 -4 7 9 -9 27 23 -12 -6 14 -8 16 17 -15 -18 20 -17 -21 -5 -11 -24 -10 -1 -2 -29 -3
right_child=6 29 3 22 12 -7 13 8 25 10 11 -13 -14 15 -16 19 18 -19 -20 21 -22 -23 24 -25 -26 -27 -28 28 -30 -31
leaf_value=-0.031120188694809425 0.17301309172843499 0.062866507789197834 0.079676750734053267 0.17996107473930645 -0.034581067903989855 -0.11940298654072844 -0.2001843143028072 0.14574965463696615 0.028407168806712315 0.18234808081963186 -0.19265442862434501 0.016836043395386142 -0.17447141922544532 0.089548216921226872 0.034102512180500942 -0.075237744111822394 0.014728839921309521 -0.075959739898207548 -0.15829863677943184 -0.087835366566154746 0.025368264572769656 1.3913083772544859e-05 -0.20018925514320066 0.011111465473817257 0.097360708604957727 -0.15592257025466041 0.17214372633135125 -0.045150231158892114 0.16211709962557969 0.20033132344078805
leaf_weight=0.02436193022003863 0.08826707237312803 0.018230076384497806 0.048996634475770406 0.022630443059824756 0.04626402200301527 0.064411129249265286 0.036075515570927474 0.022675945889204741 0.026104901655344293 0.048832350054054952 0.032903736560911057 0.034859697192587191 0.14063223485777498 0.33457073693716566 0.02445437879578094 0.38091150766013016 0.07779022236536548 0.048678419465431944 0.055140816737548448 0.1106159069554441 0.24334829865529073 1347.9035233073246 0.013792411959002493 0.041414995477907723 0.01417789451443241 0.053938751796522411 0.033196493597642984 0.015876075289213532 0.016203508508624509 0.023216889007017016
leaf_count=18 55 32 43 18 55 70 41 18 25 25 31 35 143 330 20 353 81 53 57 80 188 10278 21 48 21 52 30 24 17 11
internal_value=0 -0.0366245 -0.0545333 -0.077603 -0.0996429 -0.0333927 1.13175e-05 0.0431153 -0.0424816 0.0747023 0.0228625 -0.0848858 -0.139843 -8.56967e-07 -0.105531 3.87766e-06 0.0361882 0.0685262 -0.0570443 -9.97161e-06 -0.0360196 6.70431e-06 0.0531983 0.103767 -0.0493639 -0.0958065 0.0861111 0.142766 0.0595412 0.139869
internal_weight=0 0.44991 0.408463 0.350905 0.300304 0.113408 1349.6 0.381077 0.10272 0.278357 0.158011 0.0677634 0.186896 1349.22 0.0605299 1349.15 0.51618 0.383249 0.132931 1348.64 0.62426 1348.01 0.0506007 0.0902473 0.0279703 0.0800437 0.0575584 0.120347 0.0320796 0.041447
internal_count=12273 462 419 371 311 113 11811 330 95 235 139 66 198 11481 61 11420 521 383 138 10899 541 10358 60 73 42 77 48 96 41 43
is_linear=0
shrinkage=0.3


Tree=531
num_leaves=31
num_cat=0
split_feature=289 229 258 284 242 7 213 239 72 142 30 27 194 42 85 151 297 172 222 227 18 238 289 230 208 238 48 99 197 102
split_gain=0.00752825 0.016625 0.0131968 0.0182588 0.0152124 0.0142405 0.0134623 0.0126725 0.0126324 0.0123371 0.0107295 0.00997297 0.0134167 0.0108428 0.00933647 0.0161437 0.0119146 0.0116813 0.0115733 0.0113029 0.0117134 0.0102966 0.0177759 0.014312 0.0187352 0.012824 0.0183961 0.020531 0.0155789 0.0128199
threshold=-0.06461549922823899 0.037841999903321259 -0.033325500786304391 0.079604486375834352 -0.035831582699346991 -0.13092975105418705 0.005176999839022701 0.086082747412201774 0.0068338872786238725 0.017415000125765755 -0.06138133863875981 0.076391000300645759 0.036686159201313351 -0.054652981741038692 -0.057845527407170264 -0.01197887851677004 -0.0092500001192092479 0.037137984119411209 0.0016464999644085503 -0.0095365000888704993 0.0071154998149722511 -0.094531278523680498 -0.054984499548245754 0.042392000555992106 0.00063749999389975007 -0.064243000000715186 -0.035359668285642992 0.031614200006009389 0.027629000134766053 -0.10808735846607491
decision_type=2 2 2 2 2 2 2 2 2 2 2 2 2 2 2 2 2 2 2 2 2 2 2 2 2 2 2 2 2 2
left_child=1 2 3 4 -1 -6 8 10 -5 -8 -3 12 13 -4 15 16 -2 18 -17 20 -18 22 -16 29 -25 26 27 -23 -28 -24
right_child=14 7 11 6 5 -7 9 -9 -10 -11 -12 -13 -14 -15 21 17 19 -19 -20 -21 -22 25 23 24 -26 -27 28 -29 -30 -31
leaf_value=0.14007554007387343 -0.15251274378786792 -0.074295561939281968 0.11733616747592325 0.14185124054702775 -0.1404225760733975 0.041982132907057559 -0.16802190843882614 -0.039287238044208077 -0.13360551263317724 0.035769379368868988 0.14596354476512038 -0.1957786613852581 0.13815547307015058 -0.09925834930963158 -0.14563448655961914 0.0315108031915073 0.087265469765884826 0.11700364511338034 -0.16872515961799703 -0.13760601004918069 -0.10464184260862461 -0.021531583658062306 -0.097775394539394891 0.11189218132313179 -0.03332020125682171 1.3384167470960803e-06 0.049014381815766485 -0.11420733861137418 -0.055865473920293972 0.026380902117696628
leaf_weight=0.13335866738270841 0.12924356299913597 0.022237779437091376 0.024554154227644176 0.046773214857239509 0.042564290514860548 0.40548394105788088 0.094159564039728139 0.054548265543417074 0.022046195528673707 0.037336510096793063 0.18970896503344636 0.038834215070892242 0.035280636388051789 0.13609512185523343 0.049467919165181229 0.081822510511129987 0.079699638430952291 0.078154000737185925 0.038064014869632956 0.063028367530364449 0.044667666044176713 0.6374438341546238 0.089796011581938728 0.3448361973264582 0.10410437805694528 1415.8522228812703 0.39102561838568195 0.32474163400299005 0.18911286515231041 0.44969654084093125
leaf_count=97 175 24 27 30 71 377 63 49 41 27 172 50 34 161 44 101 94 60 97 91 95 420 107 182 65 8237 322 268 214 478
internal_value=0 0.0229696 0.00548377 0.0242162 0.0511284 0.0246538 -0.0538951 0.0896654 0.0536091 -0.110158 0.122854 -0.0568919 -0.0293639 -0.0661533 -2.12307e-05 -0.0404197 -0.0824391 0.0267634 -0.0320642 -0.0341105 0.0183402 -6.57207e-06 0.0298632 0.0386463 0.078219 -2.84445e-05 -0.0273691 -0.05281 0.0148258 0.00571567
internal_weight=0 1.28298 1.01649 0.781722 0.581407 0.448048 0.200315 0.266495 0.0688194 0.131496 0.211947 0.234764 0.19593 0.160649 1418.95 0.51468 0.316639 0.198041 0.119887 0.187396 0.124367 1418.43 1.0379 0.988433 0.448941 1417.39 1.54232 0.962185 0.580138 0.539493
internal_count=12273 1223 978 706 545 448 161 245 71 90 196 272 222 188 11050 713 455 258 198 280 189 10337 876 832 247 9461 1224 688 536 585
is_linear=0
shrinkage=0.3


Tree=532
num_leaves=31
num_cat=0
split_feature=267 25 268 228 270 222 9 49 23 31 152 134 210 162 216 272 180 17 56 291 210 297 85 202 44 24 285 259 249 248
split_gain=0.00638414 0.009667 0.00718652 0.00773165 0.00638538 0.00604695 0.00639339 0.0163988 0.0135821 0.01337 0.0170873 0.0121806 0.0110952 0.0150122 0.0110292 0.010492 0.00953606 0.00949539 0.0128734 0.00531665 0.00504509 0.00376765 0.00150015 0.000557985 0.000465629 6.57379e-05 2.58889e-09 9.40345e-10 5.98215e-10 7.30656e-11
threshold=-0.084764000028371783 -0.03541450016200539 -0.035066500306129393 -0.080256499350070884 -0.012567499652504898 -0.12047800049185749 -0.022196999751031347 0.054175499826669658 -0.0034644999541341994 -0.046505536184874241 -0.010773070297576555 -0.084136046254495042 -0.099653497338294941 0.043143919692901496 -0.094841998070478384 0.027774499729275651 0.0035939998924732004 -0.037424499168991994 -0.053267000243067693 0.053419001400470713 -0.018924999982118548 0.033022999763488756 -0.019685080057012402 -0.057907000184059094 -0.019442999735474545 -0.074041001498699133 0.052532315622435578 -0.049133500084280891 0.063473999500274617 -0.063999000936746528
decision_type=2 2 2 2 2 2 2 2 2 2 2 2 2 2 2 2 2 2 2 2 2 2 2 2 2 2 2 2 2 2
left_child=1 2 3 -1 -3 20 7 9 16 10 -7 -11 13 14 -8 -10 -9 18 -14 -15 25 23 -6 -5 -4 -2 28 -27 -26 -29
right_child=5 4 24 21 22 6 12 8 15 11 -12 -13 17 19 -16 -17 -18 -19 -20 -21 -22 -23 -24 -25 26 27 -28 29 -30 -31
leaf_value=0.17844261960336968 -0.16388685023722982 -0.1358901516548181 -0.12739326094718048 -0.070750267008694759 0.19052944586570311 -0.073940932227614387 -0.17366300720134206 -0.080270928406943484 -0.0055727868215550581 -0.096288447384443906 0.061440298470643577 0.073958092566899475 0.0087864264143393093 -0.15903552798367265 0.027535579578698198 -0.13374405798154471 0.077639684254325145 2.0742377239792629e-05 -0.086611806493855553 0.052642583428023464 0.014366354164659128 0.10463238776573856 0.050910438513460089 -0.20011249655460431 -0.20008667103288894 -0.20020306849123304 -0.20029932051674645 -0.20008832465562271 -0.20016717515095964 -0.20004441476365126
leaf_weight=0.012222889736221987 0.0057295515507576047 0.011021618167205816 0.009564624777908648 0.0037121815976206554 0.016782280546976835 0.17459518088617187 0.028994357085196043 0.047858338199034733 0.10164531032410185 0.040156147608200743 0.1615398038859438 0.65092526528960004 0.24434828088175209 0.11043475712388329 0.15892694487761971 0.13229116167008215 0.12255883653949695 1313.2926501243617 0.2657816091829649 0.011822142317896578 0.017565402360559257 0.0055703533930682161 0.011793151043717809 0.015661495263827874 0.014051422581133011 0.0072021444066194809 0.011385609424905851 0.0079835652561541792 0.020321992402386968 0.0059542858029999488
leaf_count=22 10 28 26 11 22 235 51 101 173 76 273 1020 452 212 257 238 228 7810 728 26 27 25 27 58 44 6 7 19 28 33
internal_value=0 -0.0659478 -0.119051 -0.0170252 0.0580898 9.5434e-06 1.32814e-05 0.0200508 -0.0311257 0.040196 -0.0088794 0.0640657 -8.54711e-06 -0.0567409 -0.00350733 -0.0780537 0.0332936 4.84695e-06 -0.0409168 -0.138566 -0.110658 -0.112807 0.132908 -0.175325 -0.187592 -0.19239 -0.200175 -0.200115 -0.200134 -0.20007
internal_weight=0 0.132088 0.0924906 0.0371669 0.039597 1315.59 1315.54 1.43157 0.404354 1.02722 0.336135 0.691081 1314.11 0.310178 0.187921 0.233936 0.170417 1313.8 0.51013 0.122257 0.0444349 0.024944 0.0285754 0.0193737 0.0553236 0.0268695 0.045759 0.02114 0.0343734 0.0139379
internal_count=12273 298 221 116 77 11975 11880 2344 740 1604 508 1096 9536 546 308 411 329 8990 1180 238 95 94 49 69 105 68 79 58 72 52
is_linear=0
shrinkage=0.3


Tree=533
num_leaves=19
num_cat=0
split_feature=223 16 106 32 203 264 159 238 88 2 278 164 12 33 176 49 264 58
split_gain=0.00592557 0.00587588 0.00850816 0.00699033 0.00623533 0.0183708 0.0127977 0.00687861 0.0189696 0.0173078 0.0101403 0.0100378 0.00984635 0.00596981 0.00275171 0.00250753 0.00127757 4.91883e-09
threshold=-0.14422500133514402 -0.12134850025176994 0.01022974276763214 -0.010273534513148731 -0.061766499653458547 0.0059360000304877003 0.0119354999624192 -0.095642499625682789 0.14973200112581253 -0.0041030627248803209 -0.094293501228094032 0.022856965455531539 -0.056382499635219491 -0.0069280719198063874 -0.013007500208914198 -1.0000000180025095e-35 -0.062602501362562138 -0.046111999079585041
decision_type=2 2 2 2 2 2 2 2 2 2 2 2 2 2 2 2 2 2
left_child=-1 2 -2 16 5 6 14 8 9 -6 11 -9 -12 -8 -3 -10 -4 -18
right_child=1 4 3 -5 7 -7 13 10 15 -11 12 -13 -14 -15 -16 -17 17 -19
leaf_value=0.15068011320626942 0.085489874516221934 0.19467269324770142 -0.10167841834019715 0.016908612385117785 -0.054307300717936643 -0.10494531907040502 -0.16959964879901235 -0.17164821015345144 -0.07690876339546944 0.016838941274390486 0.026066139941138506 0.05267040678561441 -4.6336537474315398e-06 0.065136588475640356 0.10020319588204722 -0.20040341442103701 -0.20033858790156084 -0.20012546700402795
leaf_weight=0.023487664380580919 0.024503077385815142 0.066126323290518485 0.016503783626831137 0.025091569568758132 0.52695454862842428 0.05021239940833766 0.018176186480559409 0.059200608739501059 0.020186498419207055 0.73973623235869368 1.3050601442673713 0.025768021914700512 1346.6766528766229 0.021035746816778556 0.047815832178456641 0.055431806806154671 0.015394722926430404 0.026565474810922751
leaf_count=33 35 44 17 30 458 33 21 61 16 636 1136 21 9569 22 42 49 7 43
internal_value=0 -4.98351e-06 -0.0699586 -0.115545 6.17428e-07 0.0525271 0.104155 -7.29873e-06 -0.0214722 -0.0127585 1.40745e-05 -0.10362 2.0607e-05 -0.0436724 0.155029 -0.167436 -0.172391 -0.200204
internal_weight=0 1349.72 0.108059 0.0835556 1349.61 0.203366 0.153154 1349.41 1.34231 1.26669 1348.07 0.0849686 1347.98 0.0392119 0.113942 0.0756183 0.058464 0.0419602
internal_count=12273 12240 132 97 12108 162 129 11946 1159 1094 10787 82 10705 43 86 65 67 50
is_linear=0
shrinkage=0.3


Tree=534
num_leaves=31
num_cat=0
split_feature=18 200 148 213 178 173 216 232 291 261 174 192 59 209 231 13 0 135 262 187 223 275 67 161 40 284 134 114 53 237
split_gain=0.00698058 0.0188565 0.0165814 0.0184331 0.0167187 0.0164641 0.0203171 0.0159007 0.013952 0.0133861 0.012803 0.0118162 0.00955123 0.0158861 0.0157658 0.0186024 0.014419 0.0121802 0.0106635 0.00898552 0.00867459 0.0221685 0.0199482 0.0185665 0.0140745 0.0140666 0.0186333 0.0129702 0.0227267 0.0194011
threshold=-0.040576730116223356 -0.12093750014901158 0.096084497869014726 0.008466999977827001 -0.076184796942107072 -0.06587649881839748 -0.12679400295019141 0.058245999738573959 0.022606500424444603 0.12081532881285914 0.10747050121426581 -0.031874684576663648 -0.027331500314175996 -0.011894000228494399 -0.072779678851825055 -0.00093155761039944742 -0.029407499358057896 0.15778550505638123 -0.035739999264478642 -0.015383284566173425 -0.045607499778270694 0.004440455046501088 -0.031673773923404487 0.010225387595793348 0.083484500646591117 0.080970694692877418 -0.0041719998698680994 -0.037855999544262844 0.078886961002586978 -0.0083071132189178748
decision_type=2 2 2 2 2 2 2 2 2 2 2 2 2 2 2 2 2 2 2 2 2 2 2 2 2 2 2 2 2 2
left_child=1 7 3 9 -5 -4 -7 -1 -6 11 -8 -3 13 18 19 17 -17 -16 -2 -15 21 22 24 -24 -14 26 -23 28 29 -22
right_child=12 2 5 4 8 6 10 -9 -10 -11 -12 -13 20 14 15 16 -18 -19 -20 -21 27 25 23 -25 -26 -27 -28 -29 -30 -31
leaf_value=0.16770588940475487 -0.085044987918037204 -0.084031942989527694 0.10208621274806327 -0.1430628387275151 0.084425377943975186 0.17055325001664293 -0.098065005189899135 -0.033457433875634927 -0.010455626066094745 -0.13577957798733342 0.081991095405219705 0.030953235249408406 0.085203431312967579 0.1554637632606452 -0.11861731510137344 0.10872487049869699 -0.0779207511448229 0.13359744375772481 0.10952471054180134 -0.071226094509000623 0.05716987375326904 0.10615725960077162 -0.10421279619250963 0.094081821769271282 -0.13085983885975458 -0.093368207392955649 -0.050674530371938767 -1.431878145854389e-05 0.084604996350391787 -0.036283223990384438
leaf_weight=0.12676038537756529 0.034067184584785082 0.10848384097107555 0.064545993742285646 0.037215348384051827 0.60904540831370491 0.031606228072632803 0.34688692268719012 0.04904721235652687 0.18091604860580901 0.075780697900881933 0.039598849340109155 0.31107209701497029 0.11867193267580944 0.046569246278750143 0.36934919078308326 0.076508151049438311 0.07259973609970316 0.018076192442094907 0.09908023136807742 0.02376924023792526 0.33196597900177949 0.21805761463178897 0.4854308334085633 0.046573567965424445 0.035177107201889157 0.067859360256989021 0.099197844924070466 1414.9112804327222 0.44873092049965635 0.50267766713864037
leaf_count=86 72 126 41 36 501 20 247 40 192 94 16 312 130 30 495 92 135 8 101 32 258 187 901 66 40 63 103 7201 256 392
internal_value=0 0.0177958 0.00866152 0.0260309 0.0534386 -0.0389338 -0.0607047 0.111585 0.0626958 -0.0197379 -0.0796167 0.00122172 -2.51773e-05 -0.0340986 -0.0546872 -0.0721949 0.0178482 -0.10685 0.059742 0.0788592 -7.38602e-06 -0.0269968 -0.0593398 -0.0868534 0.0358012 0.030603 0.0571199 1.30242e-05 0.0301584 0.000886231
internal_weight=0 1.98096 1.80515 1.32251 0.827177 0.482638 0.418092 0.175808 0.789961 0.495337 0.386486 0.419556 1418.01 0.740019 0.606872 0.536533 0.149108 0.387425 0.133147 0.0703385 1417.27 1.07097 0.685853 0.532004 0.153849 0.385115 0.317255 1416.19 1.28337 0.834644
internal_count=12273 1711 1585 1261 729 324 283 126 693 532 263 438 10562 965 792 730 227 503 173 62 9597 1490 1137 967 170 353 290 8107 906 650
is_linear=0
shrinkage=0.3


Tree=535
num_leaves=30
num_cat=0
split_feature=67 20 238 291 298 125 108 174 148 88 3 37 277 244 6 123 94 81 260 4 108 53 213 56 60 34 96 60 107
split_gain=0.00596842 0.0106586 0.00907765 0.00847266 0.00804678 0.00741266 0.00761356 0.0145508 0.0132617 0.0128895 0.0115438 0.0114932 0.00755023 0.00739202 0.00736067 0.00686794 0.00750073 0.00597724 0.0058611 0.00535104 0.0040091 0.0029288 0.00206311 0.00191687 0.00105309 0.000229868 0.000120689 2.13447e-10 1.50558e-10
threshold=-0.053637498989701195 0.058702500537037808 -0.015990233973311858 -0.053795499727129895 -0.063686501234769738 -0.098522998392581884 -1.0000000180025095e-35 -0.0018673847901048751 0.15695099532604218 -0.027778999879956193 -0.036919985041269338 -0.00039743727709878077 0.036240744886459779 -0.15697572595670348 -0.067955534824173852 -0.083877696343222688 -0.050154501572251292 0.048154230074268799 0.0071122496481866807 0.032117340400209977 0.052184768900175045 -0.053476000204682288 -0.028447952617625775 -0.042525883866137822 -0.005498500075191249 -0.024347932584038331 -0.069033000618219334 0.086759001016616752 0.00052850000793105013
decision_type=2 2 2 2 2 2 2 2 2 2 2 2 2 2 2 2 2 2 2 2 2 2 2 2 2 2 2 2 2
left_child=1 2 3 14 -5 20 7 10 9 -9 19 -12 -10 -4 22 28 -17 24 -6 -7 21 -2 -1 -19 -3 -16 -23 -28 -15
right_child=5 17 13 4 18 6 -8 8 12 -11 11 -13 -14 15 25 16 -18 23 -20 -21 -22 26 -24 -25 -26 -27 27 -29 -30
leaf_value=0.19485910563508585 0.11751290602933251 0.087626914586285132 0.16786095356930214 0.14966430489766805 0.074400386510996064 -0.18609216577299895 -1.5193947412666255e-05 -0.11721888474006233 0.060386305304405231 0.029703896971871771 0.034621132787675216 -0.11124818903380108 -0.18692294362437428 -0.20006409864420091 -0.11532101035193458 0.12916508767928372 -0.059922620771971885 0.050992895962466311 -0.15267207968021304 0.026189742004785205 0.16976010892401913 -0.10898852500341653 0.03406808897148858 -0.20011698832529429 0.1954687104740854 -0.2000894026807464 -0.20004675481184758 -0.20012978907339149 -0.20012132960250734
leaf_weight=0.013982487928387854 0.0029477753293463129 0.012676228980126325 0.021815225351019762 0.0092763684633609955 0.010961614625557559 0.061679144381798778 1312.3816624207566 0.054975523362544076 0.015188065262918715 2.3920203638337219 0.14933874022119653 0.072075914194357771 0.041380067362013051 0.009318533163138909 0.004737831128295511 0.030211928221888229 0.050341092233280871 0.0047303617154739186 0.15336379511398945 0.012926743750995229 0.0035033369504162684 0.0013726153702009461 0.014766657005338857 0.0064891134976505782 0.022821473137810244 0.007338519207905847 0.025462443756906761 0.0031285884570024783 0.0074399595319505343
leaf_count=15 8 27 37 17 23 222 6578 91 31 3602 307 200 55 44 8 52 154 20 370 46 8 6 28 21 32 33 219 7 12
internal_value=0 -0.0375751 -0.0563718 -0.0932602 -0.122179 1.43964e-05 1.8144e-05 0.0156462 0.0230833 0.0264031 -0.0472518 -0.0128629 -0.120523 0.010027 0.0297107 -0.0253561 0.0109959 0.0966303 -0.137525 -0.149311 -0.135337 -0.167814 0.112271 -0.0942439 0.156958 -0.166833 -0.195884 -0.200056 -0.20009
internal_weight=0 0.380271 0.333554 0.214427 0.173602 1315.22 1315.18 2.79958 2.50356 2.447 0.296021 0.221415 0.0565681 0.119127 0.0408255 0.0973115 0.080553 0.0467172 0.164325 0.0746059 0.0364148 0.0329114 0.0287491 0.0112195 0.0354977 0.0120764 0.0299636 0.028591 0.0167585
internal_count=12273 893 793 494 410 11380 11132 4554 3779 3693 775 507 86 299 84 262 206 100 393 268 248 240 43 41 59 41 232 226 56
is_linear=0
shrinkage=0.3


Tree=536
num_leaves=31
num_cat=0
split_feature=18 268 93 288 119 159 209 31 31 13 21 91 165 120 280 288 180 201 215 142 51 21 53 93 6 197 251 88 283 11
split_gain=0.00574741 0.0159655 0.0229002 0.0185845 0.0160058 0.0182988 0.0158097 0.0170406 0.0156105 0.0150135 0.0153746 0.0139052 0.0127388 0.0120455 0.0112083 0.00987399 0.00960585 0.0139473 0.014252 0.00950079 0.00990458 0.00918751 0.00836984 0.00857862 0.00775619 0.0071067 0.00820766 0.00687501 0.00611174 0.00546788
threshold=-0.040576730116223356 -0.049258500337600646 -0.047095731020684477 0.065338999032974215 -0.029074632585423404 -0.079442501068115137 0.042308999225497204 0.016911500133573953 -0.052680999040603589 -0.029319295059815707 0.030380500480532601 -0.040206998586654594 0.015491946979029817 -0.061695589216291556 -0.11115000024437897 0.024348999373614753 -0.083715997636318193 -0.010211000218987449 -0.028540000319480847 -0.085123383250636078 0.10340899974107741 -0.050771367416940764 -0.062305498868226943 -0.1193401771630261 -0.16950099915266031 0.010496999602764802 -0.026579999364912447 0.07853950187563892 0.016995499841868853 -0.0072673477611458473
decision_type=2 2 2 2 2 2 2 2 2 2 2 2 2 2 2 2 2 2 2 2 2 2 2 2 2 2 2 2 2 2
left_child=1 3 15 6 5 27 7 11 -6 12 -11 -1 -8 -10 -7 21 17 18 -2 20 25 -3 29 -24 -25 -18 -27 -4 -20 -21
right_child=16 2 4 -5 8 14 9 -9 13 10 -12 -13 -14 -15 -16 -17 19 -19 28 22 -22 -23 23 24 -26 26 -28 -29 -30 -31
leaf_value=0.051195569170231096 -0.14627522845062094 -0.044235433193983681 -0.033401644837671919 -0.17098678377218823 0.09722679646233344 0.042784056539027705 0.16085958037928219 0.11708404738495615 0.11668817586505482 0.042460522682573831 -0.19574905417207863 -0.077144585602477111 -0.010929932308375065 -0.066900125575034081 -0.11108493934246802 -0.10003965738393941 0.14660534149339041 0.17961908980131913 0.19998261273695614 -0.0079304438039692182 -0.10338727424984516 0.13358142630771863 -0.18410834126432843 -0.14689832614801979 4.5395818266464721e-06 -0.15829483103178385 0.077933586556091519 0.15331682770047997 -0.0059259884725627755 0.16881386891281078
leaf_weight=0.10664376672139042 0.036577178747393191 0.033890724622324342 0.034848017920012353 0.045925599515612703 0.09900384167735865 0.046137274923239602 0.16816248675604584 0.074390748683072161 0.037249341286951676 0.15359694345170283 0.0289873119618278 0.26423818869625426 0.050519962340331404 0.23562861272171043 0.55682511650547895 0.028421960596460849 0.095868374231712461 0.065693263925026169 0.026252954390656669 0.024650140592711978 0.02685184076835867 0.11451728464999189 0.022778000779907326 0.032347520107122274 1346.900879741901 0.017259716158150695 0.056798618878019624 0.036167153884889558 0.0256482261512474 0.04364684534789276
leaf_count=86 22 34 26 49 60 37 64 50 31 98 26 252 37 198 536 37 91 29 13 21 31 76 43 53 10106 19 70 14 33 31
internal_value=0 -0.015629 -0.037897 0.0148783 -0.054779 -0.0823468 0.0249617 -0.0139575 -0.00481658 0.068149 0.00464206 -0.0402415 0.121173 -0.0418393 -0.0993112 0.0619515 2.14211e-05 0.0749008 -0.00285032 1.28522e-05 0.0659273 0.0929748 3.22315e-06 -2.10181e-06 1.01161e-06 0.0926824 0.0228792 0.0616918 0.0982279 0.105022
internal_weight=0 2.11515 1.22269 0.892465 1.04586 0.673978 0.846539 0.445273 0.371882 0.401267 0.182584 0.370882 0.218682 0.272878 0.602962 0.17683 1347.38 0.154172 0.0884784 1347.22 0.196779 0.148408 1347.02 1346.96 1346.93 0.169927 0.0740583 0.0710152 0.0519012 0.068297
internal_count=12273 1711 1049 662 902 613 613 388 289 225 124 338 101 229 573 147 10562 97 68 10465 211 110 10254 10202 10159 180 89 40 46 52
is_linear=0
shrinkage=0.3


Tree=537
num_leaves=31
num_cat=0
split_feature=202 100 10 176 83 152 167 219 264 99 291 167 223 164 109 89 194 124 160 276 173 265 242 61 150 188 265 34 55 104
split_gain=0.00637117 0.0211651 0.0153319 0.0135602 0.0135602 0.0119379 0.0102316 0.00710985 0.0177973 0.0147035 0.0167701 0.0142063 0.013646 0.0122615 0.0187668 0.0140843 0.0130562 0.0120789 0.0161492 0.0118097 0.0176489 0.0117526 0.0114846 0.0111109 0.0110632 0.0103746 0.010229 0.00937842 0.00857511 0.00854563
threshold=-0.10453550145030013 -0.15099452671917019 0.045311499387025757 -0.044918501749634694 0.048994500190019559 0.028471499681472702 0.034168999642133657 -0.047302096373124353 0.031416499987244557 -0.0047325000632553989 -0.039111500605940742 0.04357927846806698 0.04021599680454311 -0.039142500609159393 0.054515817779836391 -0.10888599976897238 -0.04136398312676922 -0.043168419893765311 0.0021353476830410258 -0.084568500518798786 -0.036489499732851947 -0.053608682294092026 -0.028855499811470446 0.010847500059753603 0.070591002702712957 0.086760956347718673 0.026992999948561153 -0.014284500386565898 0.03375033856163575 -0.0035877346129353899
decision_type=2 2 2 2 2 2 2 2 2 2 2 2 2 2 2 2 2 2 2 2 2 2 2 2 2 2 2 2 2 2
left_child=1 -1 3 -3 -5 6 -4 8 9 24 12 -12 -11 14 16 -15 27 26 -19 20 -17 -10 -21 -18 25 -2 -16 -9 -23 -26
right_child=7 2 5 4 -6 -7 -8 13 21 10 11 -13 -14 15 17 19 23 18 -20 22 -22 28 -24 -25 29 -27 -28 -29 -30 -31
leaf_value=-0.18473206500264952 -0.13506991368499552 0.14941070164122394 0.024049125150247524 -0.12961959718301291 0.15739162887393415 0.12282438703344134 -0.17566360860382599 0.08229174215778276 -0.15231467834885784 0.08256828688123026 -0.00056886384579670087 -0.075582756666478637 -0.11432718491046612 0.14026035768031439 0.048084075644005575 0.044201655183647139 0.094373864808397642 -0.015457142223594695 0.11190293473082993 0.027077067493902852 -0.09385904141215079 0.14220956211877434 -3.0130157083290902e-05 -0.027721447962583714 -0.12793176833798089 0.074914803349224221 0.1874625132235698 -0.13809925567672557 -0.037204473937320903 0.14749998449937729
leaf_weight=0.034982328244950622 0.22401668629792926 0.17026405918841192 0.044113882843703323 0.03701139959343791 0.024704233495867811 0.036150516858469928 0.048437197305247537 0.02112108165238169 0.018174914117480512 0.21404102440930806 0.50933057540281634 0.41021695992935747 0.037182701886194991 0.06441973463370132 0.081163131128960231 0.11966691593261203 0.10913853478882529 0.21678082869038917 0.15273494967982515 1.40806075670116 0.27446387006125306 0.11210622581302221 1414.8156170443986 0.17406926975127135 0.015862153192102824 0.023386384705645469 0.11388565295055741 0.098039057607820723 0.030498046758111741 0.028094409891934902
leaf_count=23 329 99 29 39 20 20 34 29 28 248 628 470 35 49 75 93 112 200 153 1299 246 102 7485 156 29 26 61 90 25 41
internal_value=0 0.0380631 0.0596719 0.105742 -0.0147315 -0.0233687 -0.0804718 -1.09191e-05 -0.0198561 -0.0302739 -0.0152661 -0.0340331 0.0534265 1.17995e-05 0.0337831 -1.12505e-05 -0.0157236 0.0690667 0.0371856 -1.76292e-05 -0.0519407 0.0748829 -3.1792e-06 0.0193299 -0.0905797 -0.115221 0.129465 -0.099035 0.103839 0.0481078
internal_weight=0 0.395664 0.360681 0.23198 0.0617156 0.128702 0.0925511 1419.27 1.62291 1.46213 1.17077 0.919548 0.251224 1417.65 0.966933 1416.68 0.402368 0.564565 0.369516 1416.62 0.394131 0.160779 1416.22 0.283208 0.29136 0.247403 0.195049 0.11916 0.142604 0.0439566
internal_count=12273 264 241 158 59 83 63 12009 1961 1806 1381 1098 283 10048 876 9172 387 489 353 9123 339 155 8784 268 425 355 136 119 127 70
is_linear=0
shrinkage=0.3


Tree=538
num_leaves=29
num_cat=0
split_feature=220 95 55 213 197 10 242 85 47 114 189 283 51 267 207 33 124 106 97 51 194 107 200 64 243 35 61 199
split_gain=0.00558586 0.0137923 0.0118035 0.00693815 0.00692271 0.00880633 0.00667436 0.00637082 0.016149 0.0133702 0.012314 0.0117721 0.0135637 0.0113068 0.00991762 0.00364313 0.00318489 0.00245733 0.00135596 0.00132321 0.000404636 0.000334526 3.03615e-06 1.88592e-08 2.19579e-09 4.69134e-10 1.4396e-10 7.87291e-11
threshold=-0.051669664005775502 0.004505966534371895 -0.026795721549301002 0.046776597168212392 0.011964999604970153 0.046707000583410201 -0.11012400314211838 -0.012648500036448199 0.011758828113156898 -0.057076999917626346 -0.053062338907689306 0.029616357966103544 0.080104500301314316 0.031399824103418843 0.015171295595996555 -0.0064660001080482496 0.052325500175356809 -0.032533500343561145 0.056819500401616062 0.04095499962568281 0.012155999895185151 -0.085090499371290138 -0.14277750253677357 -0.12484431554301366 0.02081103449147596 -0.072720293313489684 0.007538642790296278 -0.058780734802842405
decision_type=2 2 2 2 2 2 2 2 2 2 2 2 2 2 2 2 2 2 2 2 2 2 2 2 2 2 2 2
left_child=1 16 15 4 19 -6 17 8 9 14 -11 13 -13 -10 -8 -3 18 -2 22 -4 -17 -19 -1 -24 26 -23 -5 -27
right_child=6 2 3 24 5 -7 7 -9 11 10 -12 12 -14 -15 -16 20 -18 21 -20 -21 -22 25 23 -25 -26 27 -28 -29
leaf_value=-0.18806933089285247 0.037100502518157615 -0.018217402607355427 0.18932284830709098 -0.20011114364995794 -0.14600087107408416 0.094244590744691228 -0.11869337051221389 -1.2322751911345985e-05 0.057785327579090107 -0.021134782982106876 0.058144139781796028 -0.032211289648687184 -0.18557151180457776 -0.18347381241602653 0.028713991092160565 0.12861081489410875 0.043899714996693789 -0.082515272985673196 -0.074012286513329445 0.047514242631127752 0.19319938547390683 -0.20017278802019695 -0.20064842277985281 -0.20009899803114023 -0.20026595488817908 -0.20009423862612133 -0.20004975488920401 -0.20005043531061309
leaf_weight=0.001938074809004319 0.0053976986297357135 0.012460171327006719 0.012633362685562588 0.0060805817174696139 0.041962660042429434 0.020411086226886255 0.08388249143899873 1313.2814726948632 0.16444685581518559 0.21284314814101879 1.0278469026288508 0.25988982201346289 0.06485586501457874 0.019562739015640318 0.080500028904225474 0.013917763625613588 0.00623035160379004 0.0024338410167956672 0.0090567687769862459 0.011147382510898751 0.023418203511027968 0.0058997475789510602 0.0064459117784281253 0.044030421953151655 0.0090678251769986673 0.007516388214526157 0.0079108619478347464 0.0072595436120072082
leaf_count=13 17 38 20 15 99 46 125 8623 246 303 1569 402 86 35 132 30 15 15 28 23 30 13 4 214 12 33 40 47
internal_value=0 -0.0470844 0.00119819 -0.0539936 -0.0148745 -0.0673833 9.73644e-06 1.28828e-05 0.0173091 0.0338915 0.0445437 -0.028488 -0.0628393 0.0321362 -0.0465063 0.122246 -0.160485 -0.145149 -0.181201 0.122849 0.169123 -0.187717 -0.199722 -0.200169 -0.200151 -0.200101 -0.200076 -0.200073
internal_weight=0 0.226711 0.15901 0.109214 0.0861545 0.0623737 1315.22 1315.2 1.91383 1.40507 1.24069 0.508755 0.324746 0.18401 0.164383 0.0497961 0.0677015 0.0285072 0.0614712 0.0237807 0.037336 0.0231095 0.0524144 0.0504763 0.0230593 0.0206757 0.0139914 0.0147759
internal_count=12273 627 353 255 188 145 11646 11521 2898 2129 1872 769 488 281 257 98 274 125 259 43 60 108 231 218 67 93 55 80
is_linear=0
shrinkage=0.3


Tree=539
num_leaves=20
num_cat=0
split_feature=2 274 129 287 140 159 129 147 177 216 62 28 103 166 28 55 7 234 85
split_gain=0.00551167 0.00704979 0.00577811 0.00777782 0.00613209 0.0196567 0.0117451 0.0132327 0.00801738 0.0073277 0.0150631 0.0150128 0.00961942 0.0134231 0.0114578 0.00541845 0.00169964 0.00140363 0.00120679
threshold=-0.12182400003075593 0.0031515000155195004 -0.10123719550002912 0.035013999789953155 -0.10641699656844134 0.060566000640392255 0.030777500011026804 -0.044012000784277895 -0.019362040010491768 -0.10139850154519074 0.11094979641375133 -0.12876850366592396 -0.068499498069286333 -0.053814999759197145 -0.12460852780054603 -0.020174499601125696 -0.077723696349013355 -0.05511377387055337 0.010381000116467453
decision_type=2 2 2 2 2 2 2 2 2 2 2 2 2 2 2 2 2 2 2
left_child=1 17 3 15 5 6 7 -4 -7 10 11 -6 13 -11 -14 -2 -8 -1 -17
right_child=2 -3 4 -5 9 8 16 -9 -10 12 -12 -13 14 -15 -16 18 -18 -19 -20
leaf_value=-0.087325197714536743 -0.0074575066266864259 0.066780106877888906 -0.14735017149312721 -0.063667316886765191 -0.12117044390163997 -0.20040265586541192 0.19977004226617209 0.056416810252213553 -0.0033550111971914036 0.034679575659369737 0.13074090184425602 -0.017150682163451652 0.041125654697364615 -0.10215716207966098 1.2687677244078951e-06 0.19689188865696994 0.11091100881318966 -0.20020757525281746 0.1078939585532095
leaf_weight=0.015898862562607974 0.023053188793710433 0.017935894826223375 0.032051482325186953 0.029551291343523189 0.13876724137844565 0.038971664034761488 0.047941077216819394 0.27290883601960914 0.035522886035323609 0.098414229578338563 0.056292664481588761 1.2472719496986417 0.61001700529118252 0.18733319701823248 1346.1842370322222 0.037208753965159214 0.032510409600376988 0.026335881222847912 0.021714907260957261
leaf_count=17 15 18 20 27 116 22 25 173 25 60 37 1179 462 148 9815 30 28 31 25
internal_value=0 -0.090796 2.79285e-06 0.0682845 -2.85238e-06 0.0346323 0.0618995 0.0350008 -0.10644 -1.46645e-05 -0.0213864 -0.0275649 8.21843e-06 -0.0550292 1.98956e-05 0.115851 0.163862 -0.157714 0.164094
internal_weight=0 0.0601706 1349.09 0.111528 1348.98 0.459906 0.385412 0.30496 0.0744946 1348.52 1.44233 1.38604 1347.08 0.285747 1346.79 0.0819769 0.0804515 0.0422347 0.0589237
internal_count=12273 66 12207 97 12110 293 246 193 47 11817 1332 1295 10485 208 10277 70 53 48 55
is_linear=0
shrinkage=0.3


Tree=540
num_leaves=28
num_cat=0
split_feature=5 267 41 139 267 98 138 286 187 164 237 152 124 24 278 79 0 248 245 169 210 80 200 182 293 82 154
split_gain=0.00643331 0.0121841 0.00751823 0.00683769 0.00664368 0.0137478 0.0160158 0.014255 0.0135355 0.0153229 0.0133944 0.013157 0.0119396 0.0100544 0.0221716 0.0159934 0.0158755 0.0144874 0.0117597 0.00928762 0.00925838 0.00842111 0.00879573 0.00809976 0.00756371 0.00296466 0.000728771
threshold=-0.11600162317698363 0.018465500324964454 -0.030778000131249348 -0.035178113550731291 -0.030944098558942586 -0.058808000758290194 0.0083420001901686018 0.034210499376058502 -0.026775499805808047 -0.079215782318523928 -0.011426944076201019 -0.079880507624413552 -0.083777502179145744 -0.044075403682827086 -0.010022500064223947 0.068850971042649617 -0.080993778193256094 -0.072553680989778338 0.027305548170201411 -0.098592984153404548 -0.023946999572217399 0.025994000025093503 -0.021878999657928899 -0.045655372930968864 -0.0034956256944054603 -0.0012554999557323498 0.011702845302225874
decision_type=2 2 2 2 2 2 2 2 2 2 2 2 2 2 2 2 2 2 2 2 2 2 2 2 2 2 2
left_child=1 2 -1 -3 5 11 8 12 10 -10 -7 -2 -8 14 16 17 20 -16 -18 -17 -6 22 -13 -9 -23 -4 -27
right_child=4 3 25 -5 13 6 7 23 9 -11 -12 21 -14 -15 15 19 18 -19 -20 -21 -22 24 -24 -25 -26 26 -28
leaf_value=-0.060642336285078959 -0.16892517544224103 -0.20021989444864075 0.049153547507586139 0.060524961923830167 -0.19664323285296856 -0.036444919010431336 0.10713484163641088 0.10682965850302927 0.093789663575338703 -0.040312073933649502 0.081505682889344067 0.16158310848206761 -0.048762651758040683 -1.5475182139867533e-05 0.050444452541910802 0.036650404397730797 0.10937171233496369 -0.0057400270870060005 -0.084853608263943031 -0.15945322719410973 0.064659469938683059 -0.15332415983532011 -0.017472584607049386 -0.15533699593403963 0.074388582251720126 0.13125785476239474 0.19787862960273478
leaf_weight=0.018656245611055056 0.021134135015017819 0.020762932435900439 0.020893459568469552 0.016047185451498081 0.028164133733298513 0.12845235424754264 0.047823489381698892 0.011412241666221234 0.08640299281978514 0.68188619582514209 0.26625811322799109 0.10579173772975992 0.58569543220619369 1414.5907509904278 0.59832459684191652 0.029863252587574607 0.39846141081108077 1.3338799898714224 0.030181170761352405 0.079865201763368421 0.021534772258746671 0.022394424449885264 0.032208072079356831 0.15016566299101441 0.031727561203297228 0.021125789903407077 0.049181515831151046
leaf_count=31 18 25 27 21 23 113 38 22 65 691 242 100 597 7833 427 27 300 1088 34 91 23 22 53 268 33 24 37
internal_value=0 0.0628268 0.112879 -0.0865495 -7.1531e-06 -0.0165888 -0.0244666 -0.0572806 -0.00203304 -0.0252308 0.0431205 0.0557446 -0.0369942 1.8254e-05 0.0189499 0.00533092 0.0770863 0.011658 0.0956961 -0.106082 -0.0834195 0.0804592 0.119793 -0.13682 -0.0198337 0.148375 0.177861
internal_weight=0 0.146667 0.109857 0.0368101 1419.28 2.17135 1.9581 0.795097 1.163 0.768289 0.39471 0.213256 0.633519 1417.11 2.52027 2.04193 0.478341 1.9322 0.428643 0.109728 0.0496989 0.192122 0.138 0.161578 0.054122 0.0912008 0.0703073
internal_count=12273 165 119 46 12108 2262 2036 925 1111 756 355 226 635 9846 2013 1633 380 1515 334 118 46 208 153 290 55 88 61
is_linear=0
shrinkage=0.3


Tree=541
num_leaves=31
num_cat=0
split_feature=33 40 144 20 283 129 225 11 26 263 289 55 165 20 232 281 279 213 81 100 174 2 198 198 66 68 213 146 285 109
split_gain=0.00559609 0.00883965 0.009208 0.00862425 0.0110683 0.00889863 0.00776572 0.0074552 0.0132495 0.0135198 0.0142425 0.0133198 0.0172435 0.012677 0.00997428 0.00966878 0.00884794 0.00796373 0.00784864 0.00783171 0.00735077 0.00726136 0.00689985 0.00837215 0.00685146 0.00684358 0.00682941 0.0058789 0.00538279 0.00509033
threshold=-0.058585001155733993 0.019848783385186374 -0.0057769999839364988 -0.020716690680925392 0.028491499833762601 0.011757500004023253 -0.016377907243409411 -0.031214999966323296 0.0064540000166743508 -0.024889143372691203 -0.018130969219031443 0.047298616179910317 0.036211270000170361 0.030561500228941402 0.0051174978917281665 0.019008000381290902 -0.0019489943310151165 -0.066395672412244047 0.087268497794866562 -0.063835002481937339 0.018086399346087804 -0.0067280000075697491 0.017878500744700401 0.074565999209880815 -0.11181449890136713 0.026361499913036806 -0.015773999504744948 0.023421499878168103 0.049438140444842724 0.026930000633001255
decision_type=2 2 2 2 2 2 2 2 2 2 2 2 2 2 2 2 2 2 2 2 2 2 2 2 2 2 2 2 2 2
left_child=1 2 6 5 20 22 21 8 9 10 17 12 -11 -12 26 18 -13 -2 -16 -17 -5 27 -3 -24 -22 28 -10 -1 -6 -7
right_child=7 3 -4 4 25 29 -8 -9 14 11 13 16 -14 -15 15 19 -18 -19 -20 -21 24 -23 23 -25 -26 -27 -28 -29 -30 -31
leaf_value=-0.14207323707037653 0.14068556267476065 -0.16321667375929527 -0.10008409370671795 -0.1682505565494225 -0.16764282282881604 0.048735748935564233 0.12171120559587816 -1.0489323573438267e-05 0.083440858816710817 0.074108723506960836 -0.039355382210682299 -0.11917321828443328 -0.09887430086815055 0.094311436278691749 0.12980172550491811 -0.17932778732749477 0.038682896059494876 -0.12449983551879215 -0.10219907013655061 0.054133741646576014 -0.17284552930709646 -0.15139063053501828 0.14049716946579371 -0.055185389910820677 0.042530531942713744 0.082618322090057997 -0.11244307030564106 0.13857409797170922 0.040893046511925692 -0.1721399816103534
leaf_weight=0.0090857634418171074 0.010929984069662169 0.011572444499506673 0.03967448755969627 0.024166502001548906 0.13786646570474659 0.013510752527281511 0.083960404747585926 1313.2307102520836 0.02631658280006377 0.45274554517352683 0.1945988919173941 0.076077839930860591 0.058573215207388785 0.095046873633123141 0.24165532626875574 0.018337098070333013 0.055102781407299517 0.15095277004910201 0.013877410146960756 0.043873416908695617 0.015341599468229106 0.023123695230950148 0.066116596554365969 0.02801587726935395 0.099562679101609319 0.012226972968857552 0.040936470965334482 0.025773583548300394 0.012119379555770138 0.030793419721959481
leaf_count=34 18 35 130 52 349 21 130 8529 40 665 276 145 135 127 371 43 103 298 20 70 30 70 93 57 166 26 79 58 39 64
internal_value=0 -0.0282026 0.0276852 -0.0506941 -0.0799574 0.00807944 0.0633979 1.34854e-05 0.0213007 0.00445664 -0.0353254 0.0324142 0.054293 0.00450721 0.0691657 0.091381 -0.0528653 -0.106595 0.117202 -0.0146811 -0.0178564 -0.0210407 0.0553835 0.0822578 0.0137743 -0.133199 -0.0357923 0.065426 -0.150792 -0.104783
internal_weight=0 0.632911 0.181618 0.451293 0.301284 0.150009 0.141943 1314.71 1.47902 1.09403 0.451529 0.642499 0.511319 0.289646 0.384996 0.317743 0.131181 0.161883 0.255533 0.0622105 0.139071 0.057983 0.105705 0.0941325 0.114904 0.162213 0.0672531 0.0348593 0.149986 0.0443042
internal_count=12273 1354 422 932 662 270 292 10919 2390 1767 719 1048 800 403 623 504 248 316 391 113 248 162 185 150 196 414 119 92 388 85
is_linear=0
shrinkage=0.3


Tree=542
num_leaves=31
num_cat=0
split_feature=232 81 210 154 23 91 132 244 41 174 270 133 95 149 177 41 13 182 121 182 264 185 259 289 165 115 189 279 297 245
split_gain=0.00610073 0.0158479 0.0119482 0.0117112 0.0109367 0.0156761 0.0138336 0.0123131 0.0165374 0.0104632 0.0103917 0.00951192 0.0104032 0.0125104 0.0117565 0.00898192 0.0126314 0.0101272 0.01085 0.0097506 0.00849885 0.00946385 0.00939424 0.00805416 0.0175439 0.0145791 0.0126447 0.00986373 0.0255034 0.0134026
threshold=-0.0057991515520676691 0.04305849969387051 0.0057785095725252115 0.053803436483748197 0.031765000894665711 0.013984777402309563 0.00042214913202781286 -0.010696500074118348 -0.015953570534116227 0.047039505935767452 -0.026978000067174396 0.054307499900460209 -0.012515500187873799 0.049776500090956653 0.053190000355243662 -0.058942500501871095 0.024949257106073121 -0.027654000557958996 -0.0056549999862908493 0.050730999559164013 -0.10725799947977059 -0.029478499665856295 -0.0017211725468786643 -0.058230110313167903 0.0045380439964791399 -0.026788499206304498 0.061003999784588751 -0.040603499859571443 -0.0060817939683547187 -0.042838500812649644
decision_type=2 2 2 2 2 2 2 2 2 2 2 2 2 2 2 2 2 2 2 2 2 2 2 2 2 2 2 2 2 2
left_child=1 2 4 11 7 6 -6 9 -9 -1 -4 12 14 -14 -3 16 17 18 -2 -19 21 -17 -23 24 25 -22 -26 28 -25 -29
right_child=15 3 10 -5 5 -7 -8 8 -10 -11 -12 -13 13 -15 -16 20 -18 19 -20 -21 23 22 -24 27 26 -27 -28 29 -30 -31
leaf_value=0.056161091161971939 0.20026861679115493 -0.10892866139206552 0.12286311373664052 -0.16717572486550361 0.035510818336451033 0.10884391036796098 -0.1300374461201691 0.15477899873764162 -0.11680628300290417 0.14860076005098752 -0.10778037747089902 -0.18256067643059112 -0.0011069504059574864 0.15433154567342652 0.11458747265595531 0.16087261798016295 0.07659725452176705 -0.15115640283706272 -0.061964505638316854 0.030492436823505047 -0.013098665021424457 -0.097618009142688936 0.085785611633992245 0.056582554061567751 0.034851255809976986 -0.1051009236014385 -0.11573536759766982 -0.030683860374499914 -0.018188022367442224 5.579337745756885e-06
leaf_weight=0.22822668163826165 0.020515487703960389 0.10591147594391259 0.022802399500505999 0.047397307716892101 0.094178367413405795 0.0897934057720704 0.087762175895477412 0.031052021528012119 0.057627530098897095 0.21310063884220654 0.076782048474115072 0.026621967808750924 0.17292921777334413 0.063791536944336258 0.026472589699551463 0.06178360486001111 0.056172780150973267 0.14668070963671098 0.046130674717460352 0.03248569744573615 0.31042451667053683 0.041719396942426101 0.063232529657624492 0.91718399739608003 0.42731373611968593 0.30963875340785196 0.056864031771510781 1.2819436158604265 0.74328162296177314 1343.0643892439616
leaf_count=202 12 122 22 52 85 74 72 20 54 154 77 31 150 33 18 51 72 173 71 48 299 64 67 776 381 326 58 1100 714 6895
internal_value=0 0.0201995 0.0430375 -0.0262535 0.0552108 0.00627616 -0.0443443 0.0802996 -0.021708 0.100797 -0.0549687 -0.00937483 0.00311634 0.0407806 -0.0642326 -1.93674e-05 -0.051752 -0.0810822 0.0187579 -0.118221 -7.77185e-06 0.067719 0.0128809 -1.61546e-05 -0.0256269 -0.0590415 0.0171657 4.85601e-06 0.0231127 -2.36855e-05
internal_weight=0 1.34445 0.901325 0.443124 0.801741 0.271734 0.181941 0.530007 0.0886796 0.441327 0.0995844 0.395727 0.369105 0.236721 0.132384 1347.58 0.301985 0.245813 0.0666462 0.179166 1347.28 0.166736 0.104952 1347.11 1.10424 0.620063 0.484178 1346.01 1.66047 1344.35
internal_count=12273 1166 760 406 661 231 157 430 74 356 99 354 323 183 140 11107 376 304 83 221 10731 182 131 10549 1064 625 439 9485 1490 7995
is_linear=0
shrinkage=0.3


Tree=543
num_leaves=31
num_cat=0
split_feature=171 141 262 71 175 175 133 73 286 76 292 6 216 239 46 19 154 243 72 109 18 289 116 125 54 265 91 195 196 12
split_gain=0.00610752 0.0124086 0.0112632 0.011976 0.0100506 0.0105755 0.0090466 0.012961 0.0156736 0.0155811 0.0126577 0.0105966 0.00853247 0.00850823 0.00809026 0.0089056 0.00829922 0.0209155 0.010079 0.00824146 0.0107197 0.00775893 0.00753907 0.0126819 0.0123999 0.00744546 0.00730861 0.00711004 0.0067095 0.00641273
threshold=-0.10185308918018726 0.0011805000249296002 0.013330999761819803 0.0040050002280622504 -0.032344501465558943 0.026264999993145452 -0.08018999919295304 0.087851296830476822 0.053904000669717754 -0.027907006812716212 -0.067693002521991688 -0.088990862466213017 -0.05142256183867374 0.048864999786019304 -0.031538474158473107 0.027069499716162654 -0.082671497017145143 -0.0041704999748616986 -0.0026545000728218997 0.042613972944604721 0.019208269676754017 -0.026558248106539537 -0.010827000252902447 -0.08133799955248823 0.021149277924365373 -0.011034000199288097 -0.081428002566099125 -0.018349903509747818 0.0043264999985694512 0.031673236612575657
decision_type=2 2 2 2 2 2 2 2 2 2 2 2 2 2 2 2 2 2 2 2 2 2 2 2 2 2 2 2 2 2
left_child=1 2 3 -1 -3 21 7 8 11 -9 12 13 -11 -2 15 26 17 18 -16 29 -21 -6 24 -24 -18 -12 -8 -19 -13 -17
right_child=6 4 -4 -5 5 -7 14 9 -10 10 25 28 -14 -15 16 19 22 27 -20 20 -22 -23 23 -25 -26 -27 -28 -29 -30 -31
leaf_value=-0.16025096795990498 0.11789456088823387 -0.13493645144350239 0.12941789418400021 0.16897201938140374 -0.12986979923008576 -0.18648689607315416 0.14783100043857808 0.12437439277366835 -0.096333833643304403 0.15807554662317583 -0.19308864267860393 0.17132768456702122 -0.077556657198883647 -0.1326554114795663 0.13574995560817524 -0.16215165186323713 -0.0026979692499733798 0.055864270734124068 -0.04555417101662828 0.068659407970623351 -0.12388834690860297 0.10500759183805027 0.054244562526719074 -1.1353717379643686e-06 -0.067172575603017856 -0.045134423737739529 -0.14707147140065197 -0.18424531882211254 0.070760616135408919 0.098338021444875287
leaf_weight=0.034405707880522551 0.021319139708793955 0.13021474010642464 0.060023754492249282 0.013987010918299347 0.016478224628372118 0.022239733623337088 0.0082470647648733575 0.054521147080436094 0.041605686377806705 0.032778596309071872 0.056257033869769657 0.13387771554232486 0.02392653540300671 0.028511427342891693 0.15278122606559918 0.044301400522300582 0.83215813077538203 0.015937228505208623 0.033679228340588452 0.11271201609417858 0.033833716985668616 0.054597449476347037 0.38798449227624487 1416.1071559273068 0.39631677092995687 0.067148863265174441 0.091245478783519185 0.036563650709466766 0.10776903319947451 0.01052663593145553
leaf_count=72 23 208 62 17 40 34 14 47 55 31 28 115 18 22 123 103 920 18 42 160 73 63 380 8608 554 66 190 53 118 16
internal_value=0 -0.0406903 0.0425951 -0.0650952 -0.0810853 -0.00594003 7.49121e-06 0.0378702 0.0759148 -0.0161378 -0.0586721 0.100502 0.0586513 -0.025462 -7.66482e-06 -0.0491968 2.77225e-06 0.0559063 0.103002 -0.0129175 0.024205 0.0505535 -6.65046e-06 1.37228e-05 -0.023498 -0.112582 -0.122627 -0.111357 0.126477 -0.112139
internal_weight=0 0.331947 0.108416 0.0483927 0.22353 0.0933154 1418.83 0.567715 0.333083 0.234632 0.180111 0.291477 0.0567051 0.0498306 1418.26 0.300866 1417.96 0.238961 0.18646 0.201374 0.146546 0.0710757 1417.72 1416.5 1.22847 0.123406 0.0994925 0.0525009 0.241647 0.054828
internal_count=12273 496 151 89 345 137 11777 523 333 190 143 278 49 45 11254 556 10698 236 165 352 233 103 10462 8988 1474 94 204 71 233 119
is_linear=0
shrinkage=0.3


Tree=544
num_leaves=21
num_cat=0
split_feature=206 120 295 241 44 165 71 133 138 104 181 182 271 251 222 268 181 9 56 10
split_gain=0.00548691 0.00508351 0.00538408 0.00691269 0.0079489 0.00638345 0.00635203 0.00652652 0.00679013 0.00624757 0.00619887 0.00557208 0.00431641 0.00290288 0.00288166 0.00287423 0.00113934 0.000808977 2.57517e-05 3.70811e-06
threshold=-0.14327900111675254 -0.10238499939441674 -0.099882353275230748 0.020726675340991992 0.028092999942600654 0.034814499318599652 -0.12736050039529798 -0.10050160537012391 0.059292500838637303 -0.0069935000501572487 0.049963112133633379 -0.05778699927031989 -0.0033589999657123999 -0.004416999872773799 0.066896728572726299 -0.013734842275906798 0.018520500510930956 -0.049831917318067319 -0.085367500782012898 0.020995999686419953
decision_type=2 2 2 2 2 2 2 2 2 2 2 2 2 2 2 2 2 2 2 2
left_child=-1 12 3 4 5 -3 9 8 -8 10 -4 -9 -2 -11 17 -6 -5 -14 -19 -18
right_child=1 2 6 16 15 -7 7 11 -10 13 -12 -13 14 -15 -16 -17 19 18 -20 -21
leaf_value=-0.16296741784450558 0.045838741353476889 0.084843046989056259 0.041095917191407379 0.069511298181664641 -0.18668855022802588 -0.14289224674211579 -0.16322819675362801 0.050868887917020815 0.031605259541560599 -0.037506272919627444 -0.17655723546092658 2.7596371826479893e-06 -0.063881552742475298 -0.19153793341749606 0.055901839254254751 0.011868462559006823 0.19284182922384643 -0.17326289553784735 -0.20010904888734837 0.20013678983463731
leaf_weight=0.018593571902100758 0.014796985523503281 0.097523593155925847 0.051941390378956953 0.008013100966309139 0.01888909145765183 0.012496865790126321 0.044027635654457664 0.19385046597767441 0.025378513644170653 0.015623165969486763 0.015229804479304221 1314.5406684719208 0.0048240576061431275 0.037305902137275804 0.0055458262481806733 0.010053606659312209 0.0094133059606065217 0.003690236640522925 0.025011128402964711 0.018787386747135315
leaf_count=33 28 244 122 31 36 30 154 428 47 42 34 10742 20 83 14 31 20 13 89 32
internal_value=0 2.33273e-06 6.1076e-06 0.0525969 0.0221745 0.0589753 -8.98652e-07 5.40321e-06 -0.0919869 -0.0689908 -0.00825284 1.02596e-05 -0.0921546 -0.146072 -0.144415 -0.117717 0.169337 -0.177552 -0.196657 0.197702
internal_weight=0 1315.15 1315.1 0.175177 0.138963 0.11002 1314.92 1314.8 0.0694061 0.1201 0.0671712 1314.73 0.0538682 0.0529291 0.0390712 0.0289427 0.0362138 0.0335254 0.0287014 0.0282007
internal_count=12273 12240 12076 424 341 274 11652 11371 201 281 156 11170 164 125 136 67 83 122 102 52
is_linear=0
shrinkage=0.3


Tree=545
num_leaves=31
num_cat=0
split_feature=131 23 200 2 158 99 41 68 228 88 41 136 71 15 14 132 148 176 126 130 163 105 131 266 3 17 99 85 287 27
split_gain=0.00654309 0.0120325 0.0141232 0.0137665 0.0129854 0.0123786 0.0125117 0.0121276 0.0119052 0.011754 0.0130816 0.0126576 0.0122458 0.0107848 0.00968825 0.00952721 0.00916224 0.00897265 0.00892022 0.00935746 0.00912352 0.00836689 0.00744033 0.00725341 0.00709225 0.00702592 0.006773 0.0124053 0.0106907 0.010203
threshold=-0.012593500316142947 0.022413500584661902 -0.10558849883293646 0.04634450003504751 -0.10291050001978869 -0.018566376857603397 0.040322501212358454 -0.063156994963451521 -0.074595998972654287 0.070178535687954208 0.022110000252723656 0.0034199435976552078 -0.064492497593164388 -0.049326999112963642 0.04080200221536575 -0.0087413829382376827 0.093701999634504277 -0.025174774376720627 -0.013872772818964067 -0.005282999947667049 -0.081271044197223072 0.040931999683380106 -0.011987270275251842 0.0028392210592481106 0.0097479510582992781 -0.11114550009369843 -0.053527500480413388 0.016895405044789414 0.0066980000119655509 -0.0038270000368355998
decision_type=2 2 2 2 2 2 2 2 2 2 2 2 2 2 2 2 2 2 2 2 2 2 2 2 2 2 2 2 2 2
left_child=1 2 4 9 -1 15 8 16 -7 12 11 -11 17 -12 -9 -4 -6 -3 -5 20 -20 -14 -2 -8 -17 -24 27 29 -29 -27
right_child=22 3 5 18 7 6 23 14 -10 10 13 -13 21 -15 -16 24 -18 -19 19 -21 -22 -23 25 -25 -26 26 -28 28 -30 -31
leaf_value=0.14756834927381543 -0.12301613411459404 0.14302327337763129 -0.15200223393416007 -0.10751927428570388 0.12973639123864172 -0.053465499554557094 0.13783748370044377 -0.16628451615249387 0.064824079173774113 -0.066140049953398533 0.087272091158579798 0.18633838834944158 -0.07107539139548856 -0.15580793495414727 0.033810519817154779 -0.066301322552245509 -0.069208801026167291 -0.029664401160327696 0.16305073290584868 0.16289857732392232 -0.076987206715206494 0.059480597219269918 0.088776864934439162 0.024472958270245839 0.16390574636855351 -0.14591617031382764 -3.2209117049857846e-05 -0.15334247605709922 0.050049601297954972 0.13771092944129948
leaf_weight=0.033184012048877776 0.044264185327618999 0.07661334311706014 0.042014952662611904 0.022917822570889257 0.042624923734820186 0.10137447083206996 0.2531387408489536 0.088610703671292756 0.31301530891113238 0.053770407635965967 0.018445360634359531 0.026766937536194746 0.16858876607216178 0.15011568110986673 0.028874289215309545 0.025284798495704197 0.040753900189884007 0.04188351665288792 0.021991613160935231 0.078935513760370668 0.040487995895091444 0.059866795119887684 0.08019421302765195 0.063547946037942893 0.023001240013400093 0.012608074786840007 1346.447327961479 0.038341760535331559 0.059122668051713845 0.12063285271187751
leaf_count=29 33 59 54 29 40 84 150 63 283 68 19 23 189 116 26 22 25 44 17 59 44 57 101 66 18 19 10316 51 52 117
internal_value=0 0.0179985 0.038727 -0.010773 -0.026285 0.0572518 0.0701953 -0.0550067 0.0358862 -0.0319682 -0.0816871 0.0177723 0.00372801 -0.129208 -0.117107 -0.0475382 0.032496 0.0819856 0.066104 0.0942415 0.0075015 -0.0368632 -2.21572e-05 0.115089 0.0433587 -1.81147e-05 -2.34024e-05 0.0513746 -0.0299633 0.110872
internal_weight=0 1.81581 1.05543 0.760384 0.234048 0.821377 0.731076 0.200864 0.41439 0.596051 0.249098 0.0805373 0.346952 0.168561 0.117485 0.090301 0.0833788 0.118497 0.164333 0.141415 0.0624796 0.228456 1346.8 0.316687 0.048286 1346.76 1346.68 0.230705 0.0974644 0.133241
internal_count=12273 1584 860 724 183 677 583 154 367 575 226 91 349 135 89 94 65 103 149 120 61 246 10689 216 40 10656 10555 239 103 136
is_linear=0
shrinkage=0.3


Tree=546
num_leaves=31
num_cat=0
split_feature=112 242 250 188 155 214 208 290 210 260 245 147 43 97 165 228 158 60 135 39 218 119 61 108 249 161 29 87 116 196
split_gain=0.00571953 0.0121668 0.0102936 0.00860188 0.0121934 0.0111014 0.0149907 0.013223 0.0119954 0.0114656 0.00869 0.011537 0.0114795 0.0133512 0.0103838 0.0101965 0.0135296 0.0196905 0.00954062 0.01081 0.00904803 0.00776673 0.00957731 0.00851117 0.0087862 0.00715026 0.00645436 0.00815079 0.00590947 0.00681619
threshold=-0.07473655468940138 0.025379000231623604 0.023896740521590281 -0.035372499376535339 -0.091838002204894978 -0.035326011368175383 -0.052595588574808408 0.057065000757575007 -0.046500581708270525 0.11825849860906597 -0.06028549931943409 0.031504999846219954 -0.031959500163793494 0.0064530000090598514 -0.023017999716103046 -0.11360950022935863 -0.038873501121997799 -0.012012026298230553 0.071119232385050871 0.013767499942332501 -0.079112162262641922 -0.042414000257849645 0.054298499599099111 0.0078105825227997314 0.022737079560052529 0.021480000577867003 0.057950265216319845 0.033415354399932325 -0.016442280332661232 0.012404282242366465
decision_type=2 2 2 2 2 2 2 2 2 2 2 2 2 2 2 2 2 2 2 2 2 2 2 2 2 2 2 2 2 2
left_child=1 21 -3 4 -2 6 -6 8 -7 -8 11 12 13 -5 -14 18 17 -17 19 -12 -13 23 28 -1 -25 26 -4 -28 -23 -30
right_child=3 2 25 10 5 7 9 -9 -10 -11 15 20 14 -15 -16 16 -18 -19 -20 -21 -22 22 -24 24 -26 -27 27 -29 29 -31
leaf_value=0.13428056607362496 0.1388983909865692 0.12107811703975202 -0.15157399162798671 0.1378848162665364 0.14267280850902309 -0.11265544422506789 0.017212464863876977 0.10263314018627771 -0.024469196508253802 -0.20028398123197108 -0.074416256219506274 -0.08354281639522855 0.041060513147094961 -0.0058715600934367528 -0.037706888388992901 -0.00045183768147104156 1.7760033815168225e-05 -0.05212508928405301 0.13900852336849523 0.15681891182581859 0.14240549844031677 -0.16378777630416372 -0.14003307090658973 -0.16506004268994348 0.11148125163638195 0.14585091508337872 -0.10225929691230846 0.13755207697863456 0.16189413770343519 -0.057532023291017233
leaf_weight=0.16041924416046527 0.03639456498740401 0.032102696330184699 0.068224961939961304 0.12695009109324928 0.06434691621791444 0.29172803026938254 0.085656109686738091 0.042649810420698486 0.2648538627021243 0.029267470181366662 0.057236272447652392 0.018559439941327582 0.253053488662772 0.10728006524777811 0.37214116900349736 1.6723735874321621 1413.7161910630066 1.1003901534435261 0.091898912605756777 0.026675392873585224 0.11347600952376524 0.0090741889311516388 0.030320082543198623 0.019458460987152648 0.022065507305455867 0.012766629261022899 0.034349842695171162 0.020290401651436696 0.042312187962045722 0.018230818499432644
leaf_count=202 35 40 100 138 58 514 130 37 471 24 69 33 219 153 345 1634 6347 1167 65 22 151 33 43 31 23 13 66 20 46 44
internal_value=0 0.0331009 -0.0316797 -1.23974e-05 -0.030826 -0.0387605 0.0267367 -0.0583551 -0.0706913 -0.0381771 5.31484e-06 0.0280817 0.0153973 0.0720428 -0.00582503 -1.43346e-05 -2.33012e-05 -0.0209587 0.072229 -0.000906942 0.110645 0.069095 0.000692272 0.102946 -0.0181082 -0.0678359 -0.0900396 -0.0132065 0.0619818 0.0958201
internal_weight=0 0.469615 0.167735 1418.47 0.814897 0.778502 0.17927 0.599232 0.556582 0.114924 1417.66 0.99146 0.859425 0.23423 0.625195 1416.66 1416.49 2.77276 0.175811 0.0839117 0.132035 0.30188 0.0999373 0.201943 0.041524 0.135632 0.122865 0.0546402 0.0696172 0.060543
internal_count=12273 661 239 11612 1269 1234 212 1022 985 154 10343 1039 855 291 564 9304 9148 2801 156 91 184 422 166 256 54 199 186 86 123 90
is_linear=0
shrinkage=0.3


Tree=547
num_leaves=31
num_cat=0
split_feature=106 4 77 293 104 124 220 44 9 31 62 259 59 46 243 108 215 157 118 3 22 154 118 261 105 125 187 139 85 268
split_gain=0.00505957 0.00925305 0.0106932 0.00856287 0.00840462 0.00737475 0.00877531 0.008075 0.0109798 0.0125911 0.00968888 0.00968138 0.00885371 0.00869772 0.00823405 0.00797034 0.00720297 0.00625833 0.00554394 0.00548911 0.006241 0.00478239 0.00448639 0.00353572 0.00351759 0.00636256 0.00350878 0.0020096 0.000894104 0.000817603
threshold=-0.038941750966347013 -0.039188999682664837 -0.036493996945246854 -0.0075075000058858988 -0.030211499892175146 -0.095661502331495243 0.0098189995624124518 -0.027142500504851248 -0.017633000388741448 -0.037118193467606274 -0.042523162386664155 0.027440500445663856 0.09382750093936916 0.0018589743670814802 -0.035276500508189139 -0.038664000108837991 -0.0046078546110827562 0.073702502995729405 -0.0018159999744965997 -0.057336018664908207 0.022040000185370404 -0.020660529963764478 -0.022960999980568799 0.036159001290798153 -0.020365499891340694 0.014759088939110099 -0.047855603860477637 0.023021597566605011 -0.0084320004098116987 -0.098800998181104632
decision_type=2 2 2 2 2 2 2 2 2 2 2 2 2 2 2 2 2 2 2 2 2 2 2 2 2 2 2 2 2 2
left_child=1 24 4 22 26 6 -2 8 9 14 13 -12 -11 -10 -7 -8 18 -18 -5 20 -6 -17 -4 -21 25 -1 -3 29 -23 -26
right_child=5 2 3 16 19 7 15 -9 10 12 11 -13 -14 -15 -16 21 17 -19 -20 23 -22 28 -24 -25 27 -27 -28 -29 -30 -31
leaf_value=-0.16587237821935535 -0.18865206342180044 0.051040578489741549 0.017254987247655729 0.17363549120355348 -0.1744552056068536 -0.11134607570119666 0.15301869531293147 -8.1116325850628747e-06 0.084158345092228221 0.10501410463026646 0.032285203127541191 -0.059577860180176745 -0.17288148618247487 -0.11629840747838985 0.032632935163110499 0.11193504333325038 -0.11333953254727969 0.10650276250359257 -0.022550265126271261 -0.031948653821113414 0.15108645510235003 -0.065965051816372813 -0.18755019236089862 0.15613675207956562 -0.082698350102391224 0.12739965954010762 -0.19475597147973453 -0.039009850181053816 -0.20011858199376581 -0.20011741234077882
leaf_weight=0.01438914492814547 0.04083501002901968 0.008155558149155695 0.011979765538626452 0.025889753838242768 0.012656966843081818 0.046615374494365369 0.018798952292449655 1313.281201930206 0.024344912944400221 0.30134203123395764 0.56511381192734578 0.12633440811873697 0.010684043433855095 0.097501131699004873 0.15334950198428032 0.0075103135869767348 0.059624758285479085 0.014485353172062787 0.025964825135872616 0.010332517103961436 0.0091184286857952657 0.006110836120114981 0.048999470042190296 0.069498193589993207 0.0060804075778833058 0.012391246906190645 0.014555815762832935 0.010103774846356828 0.016664243974730653 0.043660519124287589
leaf_count=40 114 21 31 63 28 85 36 8418 67 613 1021 358 47 225 301 28 158 38 53 24 23 19 79 120 15 24 36 26 50 112
internal_value=0 -0.0338252 -0.00969042 -0.0550347 0.0584965 9.63146e-06 -0.0859023 1.55079e-05 0.0234211 0.0578368 0.00175543 0.0155009 0.0954987 -0.076247 -0.000931137 -0.000421072 -0.010362 -0.0703698 0.0754006 0.0953753 -0.0381349 -0.0956652 -0.147315 0.131793 -0.120546 -0.0301758 -0.106491 -0.160987 -0.164124 -0.185764
internal_weight=0 0.397886 0.311261 0.186944 0.124317 1314.7 0.0899194 1314.61 1.32529 0.511991 0.813294 0.691448 0.312026 0.121846 0.199965 0.0490843 0.125965 0.0741101 0.0518546 0.101606 0.0217754 0.0302854 0.0609792 0.0798307 0.0866251 0.0267804 0.0227114 0.0598447 0.0227751 0.0497409
internal_count=12273 891 674 422 252 11382 247 11135 2717 1046 1671 1379 660 292 386 133 312 196 116 195 51 97 110 144 217 64 57 153 69 127
is_linear=0
shrinkage=0.3


Tree=548
num_leaves=31
num_cat=0
split_feature=266 1 47 138 276 220 233 36 187 192 277 203 70 86 147 14 222 172 73 246 82 126 0 230 101 21 4 114 160 23
split_gain=0.00596317 0.0104689 0.0154299 0.0125961 0.013218 0.0123335 0.0119459 0.0107183 0.0102004 0.00996839 0.00956515 0.00670041 0.00643642 0.0133496 0.0111653 0.0106013 0.0102523 0.0110065 0.00944972 0.0068416 0.00719477 0.00711569 0.0135691 0.0113593 0.0111336 0.00948048 0.0113328 0.00640801 0.00588405 0.00485411
threshold=-0.078653499484062125 -0.0078630000352858994 -0.05773049965500824 0.026363846532502174 -0.048298001289367641 0.04770898771880986 -0.062854332210785901 0.0063099998515099009 -0.0097505003213881978 -0.025325500406324798 0.012482000049203553 -0.00065480657419216101 -0.077700499445199883 -0.065841000527143381 0.042560499161481809 0.026434248470615589 0.029547000303864455 -0.027932500466704344 0.089875500649213763 -0.10917526436780446 0.023857471447956618 -0.0019099999917670497 0.04974271403123711 -0.027265008155020056 -0.013856499921530449 -0.12618250399827952 -0.045307157444107536 0.038063704781735139 0.018943000584840702 0.0067541798778333224
decision_type=2 2 2 2 2 2 2 2 2 2 2 2 2 2 2 2 2 2 2 2 2 2 2 2 2 2 2 2 2 2
left_child=1 2 9 4 6 8 -4 -6 10 -1 -3 -7 13 15 16 -2 17 -15 -18 20 -14 22 23 -21 -24 27 -27 -23 -12 -5
right_child=12 5 3 29 7 11 -8 -9 -10 -11 28 -13 19 14 -16 -17 18 -19 -20 21 -22 25 24 -25 -26 26 -28 -29 -30 -31
leaf_value=0.068252938942307745 -0.070717389563635061 0.07864823979916935 -0.082930342108758451 0.062315961605840416 0.092227162749303024 0.033808266797638459 0.052371809275378399 -0.10354842970591953 0.10616257088431701 -0.14342700223008459 -0.1525725543391129 -0.16299290173970371 0.16320145167364344 0.034118020419265607 -0.17440120120626931 0.14036878296768829 -0.034795976721172552 -0.069329422463945925 0.15540907919487859 0.0083530431525305014 -0.041399433298690634 -0.17992127178751907 -0.017313553664710286 -0.055019085885551107 0.12133593843155836 0.027979213595073341 -4.1270050141217248e-06 0.016337828792463892 0.022361576877310604 0.18172752427217259
leaf_weight=0.029533000953961164 0.03098157462591189 0.042328728548454819 0.1225814321951475 0.047895729367155582 0.29395144222098679 0.020057621921296231 0.11274471524666296 0.027524769011506578 0.07095776982487112 0.062171483077690937 0.055055527220247313 0.069590683822752908 0.045927678206907241 0.11835960925054678 0.052886722014136467 0.069334728705143789 0.046918013111280743 0.42476857049041328 0.047114731336478144 0.37789534692001314 0.023323777480982244 0.04397673143080183 0.10944203660983476 0.78001398893411433 0.099526107547717291 1.3037676160556646 1343.6874053623242 0.022702522932377178 0.025237547510187142 0.085029850273713237
leaf_count=28 38 40 81 46 231 25 82 28 75 60 58 67 50 102 80 46 52 427 32 537 25 54 123 888 85 1124 7665 20 32 72
internal_value=0 0.0224452 0.0403549 0.0557263 0.0359177 -0.0269682 -0.0181071 0.0754649 0.0156345 -0.0752565 -0.0367515 -0.118961 -1.56312e-05 -0.0270803 -0.041946 0.0751772 -0.0309518 -0.0467859 0.0605055 2.55184e-07 0.0942922 -4.59459e-06 -0.021639 -0.034337 0.0487216 1.73907e-05 2.29987e-05 -0.1131 -0.0975876 0.138701
internal_weight=0 1.06466 0.781432 0.689728 0.556802 0.283228 0.235326 0.321476 0.19358 0.0917045 0.122622 0.0896483 1347.28 0.790364 0.690048 0.100316 0.637161 0.543128 0.0940327 1346.49 0.0692515 1346.42 1.36688 1.15791 0.208968 1345.06 1344.99 0.0666793 0.0802931 0.132926
internal_count=12273 925 628 540 422 297 163 259 205 88 130 92 11348 777 693 84 613 529 84 10571 75 10496 1633 1425 208 8863 8789 74 90 118
is_linear=0
shrinkage=0.3


Tree=549
num_leaves=31
num_cat=0
split_feature=184 146 62 142 234 216 28 43 291 265 39 201 45 12 108 140 70 44 81 95 207 293 45 41 64 194 211 188 138 59
split_gain=0.00611604 0.0164052 0.0108599 0.0127756 0.0102606 0.00954618 0.00987302 0.00950983 0.00957843 0.00930914 0.00924853 0.00916733 0.00694482 0.0156263 0.0134199 0.0136957 0.013174 0.0127344 0.0120765 0.0103608 0.0102115 0.00779858 0.00672859 0.00663545 0.00593624 0.00581259 0.0160361 0.012831 0.011661 0.00533714
threshold=-0.087722159837525807 -0.042712001129984842 -0.032801499590277637 0.038909383868411217 0.045212499797344159 -0.088593501597642829 -0.075074501335620838 -0.0007143228183564066 0.022606500424444603 -0.11099499836564058 0.0144009999930858 0.012357073806722569 -0.084651499986648532 -0.030176830645491166 -0.034166000783443388 -0.067092886667342075 -0.027797999791800945 -0.066870723985756012 1.0000000180025095e-35 -0.064639002084731986 0.0029599999543279006 -0.027250392774759959 -0.083096999675035435 0.042554499581456108 0.013889263610952879 -0.022544123397736111 -0.0018658429434860247 -0.033950568153981849 0.010453932550280527 0.0036783986650698584
decision_type=2 2 2 2 2 2 2 2 2 2 2 2 2 2 2 2 2 2 2 2 2 2 2 2 2 2 2 2 2 2
left_child=1 4 11 7 5 6 -1 8 -4 -7 -9 29 13 17 18 24 -17 -2 -15 -19 -20 -21 23 -14 -16 26 28 -28 -24 -3
right_child=12 2 3 -5 -6 9 -8 10 -10 -11 -12 -13 22 14 15 16 -18 19 20 21 -22 -23 25 -25 -26 -27 27 -29 -30 -31
leaf_value=0.18557081315436072 0.11937609604024009 -0.0048906238776083169 0.087901246236126787 0.13464146205270888 0.17831034618391803 0.13183047708976084 -0.090323336245265812 -0.071172713178705035 -0.047229072819825225 -0.1174145286172627 0.12862237166153592 -0.052891703034440136 -0.004008236245821196 -0.12176844487760748 -0.1906697174545415 0.069404222804968246 -0.061816526108733318 0.10483373584863161 0.0070634015840592111 -0.011979701833098298 0.15160859265744225 -0.14301502929300094 -0.012134760217549827 0.18877721522778498 0.033263171114473522 1.854212552731174e-05 -0.10119708013966641 0.041657050815777308 -0.067065880352540228 0.17779697168896236
leaf_weight=0.025236913141270634 0.025900159085665564 0.016607593584808455 0.15820066726189452 0.084485359971949947 0.017366218220558949 0.014804558799369261 0.021721009837619931 0.15735083238541747 0.067290167209193896 0.15148181046276932 0.024037293849403341 0.022955376741435884 0.030681389346681409 0.027600266800618556 0.058667939305678374 0.12486691544498285 0.15351388995494986 0.02046489086933434 0.075500519655747667 0.05101733402239006 0.1053851790529734 0.20566253073462804 0.94642429198233935 0.033735861092281993 0.013018247896980029 1414.8334746624671 0.063451271695157629 0.52308240164160125 0.54989621227610996 0.10790199431176006
leaf_count=21 51 37 177 99 21 10 34 178 93 214 42 35 39 50 100 174 256 15 98 87 86 309 979 19 11 7506 105 539 758 130
internal_value=0 0.0251525 0.0499118 0.0284837 -0.043435 -0.0614936 0.0579523 0.00644081 0.0475761 -0.0952241 -0.0446962 0.121312 -1.67359e-05 -0.0269425 0.00281651 -0.0330696 -0.00295783 -0.0817923 0.0630726 -0.100592 0.0912764 -0.116971 -3.63671e-07 0.0969551 -0.150003 -4.77156e-06 -0.0158412 0.0262031 -0.0323219 0.153429
internal_weight=0 0.86944 0.638829 0.491364 0.230611 0.213244 0.0469579 0.406879 0.225491 0.166286 0.181388 0.147465 1417.84 0.861598 0.558553 0.350067 0.278381 0.303045 0.208486 0.277145 0.180886 0.25668 1416.98 0.0644173 0.0716862 1416.92 2.08285 0.586534 1.49632 0.12451
internal_count=12273 1091 791 589 300 279 55 490 270 224 220 202 11182 1237 775 541 430 462 234 411 184 396 9945 58 111 9887 2381 644 1737 167
is_linear=0
shrinkage=0.3


Tree=550
num_leaves=29
num_cat=0
split_feature=35 280 239 159 144 140 249 165 271 29 46 239 87 291 223 139 277 160 112 101 79 179 11 7 208 58 126 174
split_gain=0.0056341 0.0102826 0.00881669 0.00608652 0.00673727 0.00513528 0.0128549 0.0187489 0.0133528 0.0121982 0.0120091 0.0127122 0.0105754 0.0105124 0.010119 0.0114484 0.0100309 0.00832444 0.00738959 0.00733277 0.005181 0.00478703 0.00476947 0.00438828 0.0011314 0.000760893 0.000679877 2.65542e-05
threshold=-0.08846149966120713 -0.017038595897968235 0.030123000033199756 -0.026585999876260698 -0.037614999338984392 -1.0000000180025095e-35 0.016280000098049602 0.025128000415861555 0.027380145972391103 0.0096964999102055523 0.068124890624942133 -0.010672499891370448 0.014831000007688952 -0.045402500778436591 0.00098331515957989705 0.00081535781093116657 0.073268264465750216 0.046602885338942295 0.0093783711566127123 -0.0078329310430255948 0.071014001724792344 0.046143999323248808 0.040100499987602206 -0.029785330876468386 -0.017315513446820977 -0.070078843699806603 0.016719999723136404 0.018086399346087804
decision_type=2 2 2 2 2 2 2 2 2 2 2 2 2 2 2 2 2 2 2 2 2 2 2 2 2 2 2 2
left_child=1 2 3 -1 -5 6 7 8 13 14 11 -11 18 -2 20 -16 -12 -10 -9 -14 -8 23 25 26 -6 -4 -3 -27
right_child=5 21 22 4 24 -7 9 12 17 10 16 -13 19 -15 15 -17 -18 -19 -20 -21 -22 -23 -24 -25 -26 27 -28 -29
leaf_value=-0.19408302194681576 -0.04513808185997422 0.18824388537558429 -0.10190872675119737 -0.1172607239809408 0.061331013794226799 -1.9535022108756942e-05 -0.14188997439935877 -0.18674151672051539 0.046569711173929419 -0.073792917507526604 -0.01213050160736486 0.029450666409357729 0.083389927850847298 0.13452129346144201 -0.091124871053133202 0.11872090816376966 -0.12236694155370448 -0.083165853862568501 -0.022247174502390128 -0.1883403794239549 0.035334973567218285 -0.12276433759205566 0.03347462550824739 -0.036164263388010667 0.19504740972272833 -0.17827065256559385 0.097068814715932539 -0.20016006845202475
leaf_weight=0.01111196472879783 0.033038048704497669 0.021022512852141517 0.0083598358311292031 0.012988690004931414 0.0087081121212122525 1311.7650747785663 0.11558955696674678 0.052071134848187484 0.3343716552008118 0.11666912708024346 0.36965506889953292 1.3414971254621613 0.060113368435054326 0.25989257890256157 0.048726185623735319 0.045014544031310777 0.092975534458105358 0.051347752845458672 0.046552902978277189 0.010498889799237077 0.017033632128686804 0.011464944619319795 0.010089634828261751 0.015898643300743198 0.016458330502246099 0.0054633009447115901 0.011326540669529095 0.057305966563063748
leaf_count=29 69 27 15 37 24 6522 247 125 651 226 596 2251 152 399 112 89 149 113 90 24 28 25 26 28 34 26 31 128
internal_value=0 -0.0516283 -0.0988152 0.0013097 0.0582142 8.79546e-06 0.0124169 0.0436934 0.0659707 6.62641e-05 0.00782873 0.0211901 -0.0456405 0.114258 -0.0658016 0.00964362 -0.0342849 0.029299 -0.109096 0.0429881 -0.119128 0.051486 -0.159551 0.0928925 0.148779 -0.186931 0.15632 -0.198255
internal_weight=0 0.190198 0.130486 0.0492671 0.0381551 1314.76 2.99505 0.847886 0.67865 2.14716 1.9208 1.45817 0.169236 0.292931 0.226364 0.0937407 0.462631 0.385719 0.098624 0.0706123 0.132623 0.0597126 0.0812187 0.0482477 0.0251664 0.0711291 0.0323491 0.0627693
internal_count=12273 430 319 124 95 11843 5321 1623 1232 3698 3222 2477 391 468 476 201 745 764 215 176 275 111 195 86 58 169 58 154
is_linear=0
shrinkage=0.3


Tree=551
num_leaves=30
num_cat=0
split_feature=210 253 91 179 57 89 17 184 242 179 102 74 185 78 91 119 278 199 61 192 45 8 241 143 268 169 282 75 283
split_gain=0.00502806 0.0050808 0.00499882 0.0157381 0.0149006 0.0149732 0.0216643 0.0153343 0.0148826 0.01424 0.0143455 0.0140532 0.0161849 0.0208073 0.0166363 0.0135147 0.0135031 0.014137 0.0128382 0.0175699 0.0123865 0.0111379 0.0109814 0.0106671 0.0102035 0.00991066 0.00757765 0.00499078 0.00067724
threshold=-0.15217500180006019 0.018836999312043103 -0.025523500517010644 0.0069234999828040001 -0.075715497136115986 0.037963800209504732 0.0047295000404119015 -0.050382500514388043 -0.029500499367713848 0.0029370000120252002 -0.11756949871778484 -0.11016849800944324 0.052548000589013058 -0.061792500317096689 -0.076588500291109043 -0.020520000718533948 -0.015368999913334798 -0.088118501007556874 -0.0069839293204886129 -0.00057892411234294753 0.043175736104603381 0.030770000070333453 -0.032667499035596792 0.044927254034161479 -0.080006498843431431 0.00048360237698269243 -0.052562000229954692 0.029063500463962503 0.018126210407623626
decision_type=2 2 2 2 2 2 2 2 2 2 2 2 2 2 2 2 2 2 2 2 2 2 2 2 2 2 2 2 2
left_child=1 -1 3 9 5 7 25 8 -4 10 24 16 14 -14 -13 -12 26 -18 19 23 -9 -21 -8 -6 -2 -7 -5 -11 -29
right_child=2 -3 4 11 18 6 22 20 -10 27 15 12 13 -15 -16 -17 17 -19 -20 21 -22 -23 -24 -25 -26 -27 -28 28 -30
leaf_value=0.15658761661946394 -0.087678294103723312 -0.012468231339610208 -0.1003228987310308 0.078823245123176816 -0.11207088057028754 -0.0050228073582072189 0.019160187151941777 0.076927948539022295 0.030526282296813742 -0.03793725840049831 -0.059294846753285793 0.058217738850267618 -0.049117311149184613 0.083120912825087004 -0.038326734996881627 0.015879926283062167 -0.051374379006693761 0.10690084137995645 1.3959839277421344e-05 -0.046250316862668048 -0.14085864332040351 0.05244049159285321 -0.14474444981655304 -0.0048168425627776309 0.10883076966241469 0.13213135296523548 -0.16590976250118672 -0.13078746353695661 -0.20033168134684173
leaf_weight=0.03692493184439527 0.030772770580369979 0.028233512035512831 0.10178336615842909 0.016860677635122556 0.29285155361822035 0.13314313508453768 0.051342996880521241 0.76144365447510054 0.3380824028608912 0.028718639205180696 0.80850582231673207 0.18785551706332659 0.15919708085857565 0.32717064864436896 1.1086588696426809 0.29331379049065687 0.062217078917456092 0.27652675729405052 1342.0524840895891 0.19375998553255058 0.024251910799648613 0.21951666712038786 0.12978277714864817 0.1167202037242987 0.10466201703820832 0.073642500112782727 0.035071253829300986 0.016096462936047828 0.058062730532128626
leaf_count=38 32 28 113 12 326 152 52 648 296 32 841 151 124 216 990 307 38 158 6708 232 18 242 138 111 73 82 36 26 53
internal_value=0 0.0833348 -3.92352e-06 -0.0113047 2.56098e-05 0.0288381 -0.0225306 0.0450972 0.00024825 -0.0368744 -0.0279571 0.00446069 -0.00683128 0.0398369 -0.0243381 -0.0392827 0.0559925 0.0778304 -9.00859e-06 -0.0374701 0.0702056 0.00617045 -0.0982831 -0.0815055 0.064181 0.0438219 -0.0864526 -0.144118 -0.185237
internal_weight=0 0.0651584 1348 3.51369 1344.49 1.61347 0.387911 1.22556 0.439866 1.34013 1.23725 2.17356 1.78288 0.486368 1.29651 1.10182 0.390676 0.338744 1342.88 0.822848 0.785696 0.413277 0.181126 0.409572 0.135435 0.206786 0.0519319 0.102878 0.0741592
internal_count=12273 66 12207 3089 9118 1499 424 1075 409 1364 1253 1725 1481 340 1141 1148 244 196 7619 911 666 474 190 437 105 234 48 111 79
is_linear=0
shrinkage=0.3


Tree=552
num_leaves=26
num_cat=0
split_feature=244 258 26 207 194 121 212 6 6 237 132 261 180 40 184 163 216 197 237 260 23 206 65 68 61
split_gain=0.00544024 0.00709179 0.00632737 0.00873361 0.00911412 0.00752671 0.00740652 0.00726037 0.00592366 0.00711772 0.0073098 0.00692895 0.00642408 0.0140659 0.0140946 0.00694485 0.0070371 0.00632607 0.00436178 0.00423731 0.00238313 0.00145354 0.00128754 0.000891794 3.58235e-09
threshold=-0.18708749860525123 -0.092004507853021181 -0.11134199798107143 0.039591001346707309 0.017187999561428951 0.067673508149514575 0.0040143053515299476 -0.051700500771403292 -0.13573750108480448 -0.047067396508766561 -0.025775999762117797 0.057974701634059121 -0.047912999987602144 0.10855749994516371 -0.0072643850544911156 -0.16154100000858304 -0.094375498592853477 0.0040089997928589001 0.025394000113010354 0.084032997488975469 0.017899499274790256 -0.052612999454140642 0.01457224195917939 -0.057327406473726548 0.052394163918924312
decision_type=2 2 2 2 2 2 2 2 2 2 2 2 2 2 2 2 2 2 2 2 2 2 2 2 2
left_child=1 -1 3 4 5 18 -6 -7 9 19 17 -12 13 14 -10 21 -17 -11 -2 20 -4 -14 -15 -5 -3
right_child=2 24 8 23 6 7 -8 -9 12 10 11 -13 15 22 -16 16 -18 -19 -20 -21 -22 -23 -24 -25 -26
leaf_value=0.067012819824139924 0.13377624213721009 -0.2001213057679439 -0.20007161397513137 0.10542761805128402 -0.18043033474117379 0.1015074815718742 0.084913585471980121 -0.17162072229139827 0.038829743272033083 0.17761207843470805 0.00040644241454035221 -0.1756933160668078 -0.2002066413814434 0.11555101005755969 -0.053474952559759953 0.022193376127518479 -3.4042059420467723e-05 -0.12791118740199742 -0.02275096708780475 0.18948438144151111 0.07776854109428892 -0.059758742096537629 0.20012121902245247 0.19500061352014558 -0.20034162002547379
leaf_weight=0.013451461323711555 0.07861865511506394 0.012709449897100877 0.0053534840725433241 0.014650437122327276 0.030458958790404722 0.014976218712945411 0.013737656159264588 0.021100558421494497 0.57618436631389613 0.015138580973143689 0.028019851241631311 0.071226210189470507 0.017922706537319755 0.030663367913803086 0.20075881904381176 1.2830730858254344 1415.8919171691696 0.01021514830259207 0.020123505828451016 0.014703770919368253 0.0057763297263591085 0.010527286344539699 0.03435438638746291 0.031538336263906785 0.013914722660047119
leaf_count=22 94 34 24 22 39 22 21 28 459 12 50 167 24 27 197 1468 9367 41 31 13 17 29 18 37 10
internal_value=0 -0.110534 3.39701e-07 0.050282 0.020273 0.0590302 -0.0979533 -0.0582395 -7.64485e-06 -0.0595356 -0.0892491 -0.125976 -1.32982e-06 0.0261957 0.0149786 -1.68935e-05 -1.39179e-05 0.0545152 0.101876 0.0837774 -0.0558737 -0.148237 0.160237 0.166589 -0.200236
internal_weight=0 0.0400756 1418.42 0.225204 0.179016 0.134819 0.0441966 0.0360768 1418.2 0.150433 0.1246 0.0992461 1418.05 0.841961 0.776943 1417.2 1417.17 0.0253537 0.0987422 0.0258336 0.0111298 0.02845 0.0650178 0.0461888 0.0266242
internal_count=12273 66 12207 294 235 175 60 50 11913 324 270 217 11589 701 656 10888 10835 53 125 54 41 53 45 59 44
is_linear=0
shrinkage=0.3


Tree=553
num_leaves=31
num_cat=0
split_feature=47 241 139 183 171 130 284 182 39 117 207 68 68 109 17 91 63 74 285 106 163 85 84 12 15 52 294 124 220 206
split_gain=0.00502193 0.0097156 0.00818123 0.0100632 0.00727511 0.00608217 0.00568137 0.00556048 0.0112249 0.00690883 0.00878762 0.0149445 0.0187178 0.00961392 0.00846827 0.00846876 0.0128968 0.00843017 0.00823768 0.00677596 0.00648827 0.00655424 0.00578479 0.00514102 0.00434105 0.00407833 0.00387356 0.00355308 0.00334746 0.00298114
threshold=-0.066717789740387293 0.028428931415359914 -0.031192500144243195 -0.026450761887537724 0.008920543766259368 -0.075738999992608927 0.024532000534236403 -0.054300378221149255 -0.03731653124840266 -0.054923565043207272 -1.0000000180025095e-35 -0.0008019999950192499 -0.0018869999912566999 0.080392308425474943 -0.028170415187807843 -0.010497499722987347 -0.070751000195741584 0.034359000623226159 -0.031793969534258289 0.026000500656664306 0.019455499947071051 -0.044190372192833109 -0.074738498777151038 -0.063123551596095909 0.077137999236583668 0.039787366558708633 -0.053451498970389345 0.048164999112486756 -0.042131397625679259 -0.015675177244642274
decision_type=2 2 2 2 2 2 2 2 2 2 2 2 2 2 2 2 2 2 2 2 2 2 2 2 2 2 2 2 2 2
left_child=1 2 24 4 6 -5 -4 8 22 14 11 12 -11 -13 17 16 -16 23 -17 20 21 -10 -2 -9 27 -7 -3 -1 -28 -24
right_child=7 26 3 5 -6 25 -8 9 19 10 -12 13 -14 -15 15 18 -18 -19 -20 -21 -22 -23 29 -25 -26 -27 28 -29 -30 -31
leaf_value=-0.18004353156201111 -0.14096095146942247 -0.058493044770902974 -0.073841865384928138 0.14242519764868278 -0.200224667976348 -0.13670243851465608 0.11833121971197749 -0.0098344937461461463 0.16323977399388626 0.020408859014206564 -4.3462089672094594e-06 0.13666918182465429 -0.16052739257554619 -0.053868975846278082 -0.13731862186094582 -0.1343415008726393 0.059382638031885704 0.10212892637446391 -0.013681049909139363 -0.14308136466209811 0.12617787231027444 -0.11031745050615301 0.05463798552235731 -0.15962689425933266 0.027460122328059399 0.043473128877519085 -0.034420373054149987 0.034029901067204348 0.1834882483254012 0.18524378713064032
leaf_weight=0.070425853605343036 0.0065810473643068681 0.012422740102238095 0.017594301433064174 0.009372192740556784 0.0094702786810785256 0.0797175552823991 0.064982555777760354 0.026547506874180726 0.010269621984662081 1.1055506208723356 1312.3241140935768 0.14736467043952828 0.053969218744896241 0.02843115354312431 0.035604595200538824 0.075769580224744004 0.19055061297653708 0.016584487597128827 0.15529327171682794 0.027527474836574584 0.035005889202693652 0.033912693183366538 0.02123337410307613 0.092373421982514969 0.013151509228919167 0.013175329235821209 0.0081487080960869207 0.0077452523147485399 0.028658397354945464 0.060674673819278269
leaf_count=260 20 35 65 18 22 246 132 66 41 1905 7253 180 5 57 69 218 402 27 286 95 80 110 45 323 23 35 24 23 74 134
internal_value=0 -0.0367299 -0.0579443 -0.0231375 0.0488237 -0.0879086 0.0773857 1.33137e-05 0.0506424 5.79383e-06 2.04045e-05 0.0243449 0.0119873 0.105854 -0.0323759 -0.0128546 0.0284151 -0.0982441 -0.0532477 -0.0148661 0.0297041 -0.0467325 0.129644 -0.126188 -0.132005 -0.111147 0.0863572 -0.158833 0.135246 0.151386
internal_weight=0 0.334865 0.285635 0.194312 0.0920471 0.102265 0.0825769 1314.45 0.195205 1314.25 1313.66 1.33532 1.15952 0.175796 0.592723 0.457218 0.226155 0.135505 0.231063 0.106716 0.0791882 0.0441823 0.0884891 0.118921 0.0913226 0.0928929 0.0492298 0.0781711 0.0368071 0.081908
internal_count=12273 957 824 518 219 299 197 11316 525 10791 9400 2147 1910 237 1391 975 471 416 504 326 231 151 199 389 306 281 133 283 98 179
is_linear=0
shrinkage=0.3


Tree=554
num_leaves=24
num_cat=0
split_feature=223 202 265 249 21 195 214 97 102 246 211 21 139 256 133 225 40 157 252 290 254 182 232
split_gain=0.00506305 0.00940813 0.00680387 0.00576616 0.00541964 0.00505854 0.00513147 0.0149202 0.0187973 0.0158152 0.0145047 0.0132192 0.0113125 0.0107903 0.0214508 0.0229342 0.0175014 0.00810226 0.00434189 0.00463078 0.00280487 0.002275 0.000215313
threshold=-0.10889479815506141 0.022454002449351817 0.036104999482631663 -0.028017499484121747 -0.076655088152567261 -0.09011700004339214 -1.0000000180025095e-35 -0.025597499683499298 -0.0069329999387263497 -0.052547797070767795 -0.070969499647617285 0.048977637891846365 -0.0055794999934732489 -0.0003975494996729427 -0.013377999886870348 -0.0014250000240280997 0.061584519212312706 -0.019730499945580897 0.007865916533743883 -0.030437115749743057 -0.086739502847194574 -0.017496000044047794 0.042178670091575367
decision_type=2 2 2 2 2 2 2 2 2 2 2 2 2 2 2 2 2 2 2 2 2 2 2
left_child=1 2 3 -1 -5 -2 7 9 11 17 -11 -9 -10 14 16 -16 -8 -7 19 -3 -4 -6 -20
right_child=5 18 20 4 21 6 13 8 12 10 -12 -13 -14 -15 15 -17 -18 -19 22 -21 -22 -23 -24
leaf_value=-0.11512947722316647 0.13160914080494854 -0.11388647285192965 -0.010754160065618929 -0.10163136114317405 0.024626223167217954 -0.0707982070547339 -0.032314448058543478 -0.024963176572525794 -0.055743899788638598 -0.075049987837594215 0.013322334844214743 0.06875967260537072 -0.17659849277858289 -1.5101188350151817e-05 0.021896603576696951 0.12701989089194701 0.033999220469479986 0.14601237148463828 0.15659857754030562 0.14861641158825967 -0.18860311049743547 0.18900544836676478 0.20019876663093403
leaf_weight=0.014959349349737749 0.026280774603946067 0.010940701755316695 0.013159616912162164 0.0098655638139462098 0.01019439199444605 0.018225387607344601 0.76344309649266529 1.4476619056588189 0.20488563571745999 0.19317686423983094 1.2409047554031647 0.14942250839976612 0.10565162171776776 1341.8606392362371 0.51742039069085877 0.29229105175499981 0.67477223986861645 0.10422406956831753 0.014768919500056654 0.013525231668154447 0.020280284312320873 0.029519894065514474 0.032906402986100147
leaf_count=37 32 21 17 18 22 30 727 1589 249 185 1002 165 141 6621 473 232 470 93 18 26 25 42 38
internal_value=0 0.0517504 -0.00878644 0.0481189 0.0973746 -7.46395e-06 -1.00308e-05 -0.0115415 -0.0293261 0.0102545 0.00141821 -0.0161945 -0.0968613 1.96891e-05 0.0207872 0.0598442 -0.00120185 0.113742 0.133969 0.0312301 -0.118614 0.14681 0.186692
internal_weight=0 0.17012 0.0979791 0.0645392 0.0495798 1347.6 1347.57 3.46415 1.90762 1.55653 1.43408 1.59708 0.310537 1344.11 2.24793 0.809711 1.43822 0.122449 0.0721413 0.0244659 0.0334399 0.0397143 0.0476753
internal_count=12273 264 161 119 82 12009 11977 3454 2144 1310 1187 1754 390 8523 1902 705 1197 123 103 47 42 64 56
is_linear=0
shrinkage=0.3


Tree=555
num_leaves=16
num_cat=0
split_feature=243 105 179 244 20 207 114 242 24 284 197 258 81 213 61
split_gain=0.00543072 0.00736728 0.0133015 0.00499967 0.0050697 0.00486877 0.0182928 0.0140738 0.0120892 0.0116607 0.0114145 0.00403095 0.00318746 0.000502099 1.93001e-09
threshold=-0.14992249757051462 -0.017699499614536696 0.017460499890148602 -0.18708749860525123 -0.12572050094604487 -1.0000000180025095e-35 -0.037855999544262844 -0.036390999332070288 -0.048905791179326176 0.017749999649822653 -0.005747916609654187 -0.092004507853021181 0.00057726866291823943 0.012266251681198017 0.071667120116173613
decision_type=2 2 2 2 2 2 2 2 2 2 2 2 2 2 2
left_child=1 -1 -3 11 12 6 8 9 -6 -7 -8 -2 -5 -14 -13
right_child=3 2 -4 4 5 7 10 -9 -10 -11 -12 14 13 -15 -16
leaf_value=0.18048778058677131 0.024544476186434072 0.12373987501667894 -0.14048067387277213 -0.023882083153982596 0.08740193622926902 0.11238184413227162 0.0022281961636437145 -7.8431484943399112e-06 -0.0005790539613398177 0.021837322282950503 -0.044784465254223201 -0.20011031803603491 0.11851652597269512 0.19870402208332352 -0.2002962179643353
leaf_weight=0.03504022672859719 0.01117228497605538 0.040580771367330182 0.029696284662804828 0.011859058521166754 0.22748551077381762 0.15780699083332095 0.74879217381817431 1414.7294387413608 0.36784703764999482 0.67795003979328783 1.225550677429281 0.010234390559843543 0.013129070481227245 0.015122740765946219 0.0098769629566959338
leaf_count=24 21 39 36 23 181 193 916 7692 488 738 1841 34 23 17 7
internal_value=0 0.0681183 0.0120908 -8.16422e-06 -5.51867e-06 -8.53528e-06 -0.0130552 1.51482e-05 0.0330398 0.0389339 -0.0269544 -0.119938 0.106648 0.16144 -0.200202
internal_weight=0 0.105317 0.0702771 1418.21 1418.17 1418.13 2.56968 1415.57 0.595333 0.835757 1.97434 0.0312836 0.0401109 0.0282518 0.0201114
internal_count=12273 99 75 12174 12112 12049 3426 8623 669 931 2757 62 63 40 41
is_linear=0
shrinkage=0.3


Tree=556
num_leaves=31
num_cat=0
split_feature=33 0 129 251 233 213 72 251 202 201 54 40 69 30 54 260 222 143 4 77 204 201 3 243 97 215 103 283 177 203
split_gain=0.00468953 0.00727632 0.00814839 0.00809661 0.00760508 0.00746426 0.00667797 0.00741936 0.00689376 0.00600992 0.00653754 0.0059889 0.00983976 0.00797082 0.0140061 0.0144771 0.0139212 0.00955831 0.00951872 0.00858336 0.00763699 0.00748783 0.00745512 0.007059 0.00589922 0.00496657 0.00685095 0.00595739 0.00474316 0.00420047
threshold=-0.058585001155733993 -0.011230109103887508 0.025531500577926605 -0.060180999338626841 0.053245430263832633 0.017079499550163704 -0.016899481950543638 0.00091651450047300559 -0.053344000130891744 -0.066645998507738044 0.037169499322772005 -0.011885500047355849 -0.010003554738946813 -1.0000000180025095e-35 -0.033610498532652792 0.13181910397620375 0.00082699184293652365 0.031772000715136459 0.011537000071257303 -0.020922999829053848 0.0084102166369089768 0.010573438110917561 -0.047772496241678945 0.055134501308202709 0.03947144460680093 -0.0081606825190330048 -0.044319499284028945 0.091042000800371156 0.0047199998516589013 -0.018365830087236922
decision_type=2 2 2 2 2 2 2 2 2 2 2 2 2 2 2 2 2 2 2 2 2 2 2 2 2 2 2 2 2 2
left_child=1 5 6 -4 -5 9 7 8 -3 -1 28 12 20 14 18 16 -16 -17 19 -13 22 -20 -2 -14 -9 -7 -27 -28 -11 -8
right_child=11 2 3 4 -6 25 29 24 -10 10 -12 13 23 -15 15 17 -18 -19 21 -21 -22 -23 -24 -25 -26 26 27 -29 -30 -31
leaf_value=-0.17122167441431452 -0.12722493280916916 -0.1794512641008407 0.12259677034276438 -0.16718262482580931 0.15316687482240579 -0.18269132172889144 -0.12943223090509234 -0.18295653321926345 0.082302777559705498 0.10057953174062659 -0.16466106435151281 -0.0089804632149521404 -0.12886135380436406 -5.6920603652575973e-06 0.061156682601560694 0.035059837215404524 -0.0096979464777529958 -0.10071620984241908 0.074448084042373408 -0.14194226429335843 -0.14008862220997365 -0.16008550182811032 0.11206396570806725 0.11252889423691605 0.073969033682381849 0.096336550001548893 -0.15882725012654006 0.070570085293284776 -0.13658698354232832 0.10901187806738429
leaf_weight=0.015960969668583402 0.014483680740795535 0.010648949371216077 0.0143169260783651 0.054214631110468758 0.0076051721530774321 0.05500146190564692 0.0071784958729494966 0.03091784122750596 0.060516829909147418 0.05698415832853243 0.012890596546732525 0.078068488216558762 0.11188453447654367 1312.1477142002341 0.96595944222925456 0.078958830137551561 0.33650289771949815 0.11408757174262973 0.075441124072767707 0.099246753105710073 0.020478415896363344 0.014626836005561472 0.061365136897165939 0.012080204652420434 0.010871139582377509 0.018174346442947353 0.050577997107382089 0.012759029277617628 0.0087554104431433188 0.090173373615818231
leaf_count=48 28 30 26 180 18 168 18 89 113 130 34 167 306 7271 1559 117 676 196 164 194 58 36 119 28 23 52 156 43 37 189
internal_value=0 -0.0285494 0.00340175 -0.0806927 -0.127773 -0.0681515 0.0338462 -0.0157829 0.043135 -0.0033817 0.0306878 1.30992e-05 -0.0494475 2.13919e-05 0.0201804 0.0314871 0.0428507 -0.0451818 -0.0430599 -0.0834017 0.022479 0.0363604 0.0663706 -0.105338 -0.116119 -0.113031 -0.0660264 -0.112616 0.0689929 0.0914296
internal_weight=0 0.517547 0.286443 0.0761367 0.0618198 0.231104 0.210307 0.112955 0.0711658 0.0945911 0.0786302 1314.13 0.220292 1313.91 1.76289 1.49551 1.30246 0.193046 0.267383 0.177315 0.0963272 0.090068 0.0758488 0.123965 0.041789 0.136513 0.0815114 0.063337 0.0657396 0.0973519
internal_count=12273 1354 686 224 198 668 462 255 143 249 201 10919 539 10380 3109 2548 2235 313 561 361 205 200 147 334 112 419 251 199 167 207
is_linear=0
shrinkage=0.3


Tree=557
num_leaves=31
num_cat=0
split_feature=115 154 60 174 220 80 203 292 190 226 291 52 98 121 113 127 188 267 130 201 33 93 212 254 94 135 250 136 258 215
split_gain=0.00531298 0.0103798 0.0109581 0.00947375 0.0110644 0.0105315 0.00800766 0.00764906 0.00654698 0.0135935 0.0134937 0.0145295 0.0190517 0.0132979 0.0141949 0.0126189 0.0119647 0.0113051 0.0110612 0.0131139 0.0127031 0.0122022 0.0121565 0.0139973 0.0144876 0.0114855 0.0108886 0.0106361 0.00979635 0.0131219
threshold=-0.078891010904456119 -0.037630001083016347 -0.073037501424550941 -0.0049870000220834992 0.058490000665187808 0.02038000058382745 0.023373537888573666 -0.091545000672340338 -0.060068709537794432 0.04498049989342686 -0.024489152844814368 -0.015728499740362095 -0.029038500040769497 0.087838999927043915 -0.023129000328481145 -0.028254992115233673 -0.015076499897986598 -0.018409179630497097 -0.014849000144749847 -0.025616691722028444 -0.023586999624967544 0.051678563824042609 -0.080199502408504444 -0.10939300060272214 -0.0051866971890178375 0.11677699908614157 0.063518027224406151 -0.060639999806880944 -0.040336124884065648 0.02841426763066662
decision_type=2 2 2 2 2 2 2 2 2 2 2 2 2 2 2 2 2 2 2 2 2 2 2 2 2 2 2 2 2 2
left_child=1 7 6 -4 5 -5 -3 -1 9 10 11 15 -13 14 -12 -2 17 -11 19 21 -21 26 23 -20 -25 -22 -10 -23 -18 -30
right_child=8 2 3 4 -6 -7 -8 -9 18 16 13 12 -14 -15 -16 -17 28 -19 22 20 25 27 -24 24 -26 -27 -28 -29 29 -31
leaf_value=-0.077007387791366774 -0.080311130332623909 0.038439355899782077 0.12381252499372512 0.063751115936089175 -0.12225857725528255 -0.034832621564356667 -0.1961458299522876 0.11663855572225285 -0.075296560054590275 0.08352975852315267 0.039944887121896366 -0.051048448318670246 0.11600742532838483 0.090812279769685214 -0.052549797009073806 0.058444860259582891 -0.11089148505731954 -0.069294842507794177 0.082636040943948663 0.089025499109931683 0.030379164827991779 0.17751117064647734 -1.4115537979544807e-06 -0.1148578879941707 0.03205139090844588 -0.13839320607198322 0.008124216052247564 0.013785066358971209 0.094834482615081733 -0.1315572174399787
leaf_weight=0.021053105892860913 0.13916275869269157 0.019804843628662638 0.069020772898511495 0.22934220997762977 0.054517436961759813 0.16968306275521172 0.038662250910419971 0.14342769905556452 0.23598473144103593 0.089884814342752861 0.18769951918122274 0.081318152142557665 0.25134391926485489 0.084370709857466863 0.73046277725717257 0.1023870534645539 0.30479881748271964 0.084536871422642434 0.057491401013976429 0.39313053137811949 0.50568246362234848 0.053161624069616664 1342.6075042301293 0.24125364045471542 0.080597633803562441 0.039096093898479012 0.34920054928807076 0.10878025692322524 0.054796937525679712 0.039761196811014088
leaf_count=16 143 33 58 214 48 173 52 132 343 114 203 107 192 65 727 106 374 129 45 321 521 41 7220 244 92 34 298 118 53 57
internal_value=0 0.0253202 0.00648602 0.0202669 0.00450915 0.021829 -0.116684 0.0918524 -1.25568e-05 -0.0165521 -0.00216387 0.0345069 0.0751712 -0.0231675 -0.0336411 -0.0214959 -0.0560909 0.00946034 1.38947e-05 0.0243049 0.047926 -0.00534786 -1.65831e-05 -0.0537133 -0.078069 0.0182672 -0.0255165 0.0675324 -0.0847208 -0.000362033
internal_weight=0 0.745511 0.581031 0.522563 0.453543 0.399025 0.0584671 0.164481 1346.82 2.15052 1.57674 0.574212 0.332662 1.00253 0.918162 0.24155 0.573779 0.174422 1344.67 1.68504 0.937909 0.747127 1342.99 0.379343 0.321851 0.544779 0.585185 0.161942 0.399357 0.0945581
internal_count=12273 726 578 493 435 387 85 148 11547 2270 1543 548 299 995 930 249 727 243 9277 1676 876 800 7601 381 336 555 641 159 484 110
is_linear=0
shrinkage=0.3


Tree=558
num_leaves=22
num_cat=0
split_feature=173 82 290 37 31 88 85 20 26 216 179 116 277 18 178 56 137 217 274 57 219
split_gain=0.00515774 0.00730514 0.00585358 0.00563726 0.0116272 0.00918803 0.00802068 0.00727025 0.00640117 0.00880829 0.00814331 0.00681981 0.00639496 0.00567709 0.00506599 0.00648022 0.00369784 0.00133854 0.00042416 0.000411825 6.29407e-09
threshold=-0.13439650088548658 -0.01048174942443416 -0.14923824229234142 -0.071557499468326527 -0.07402313551109603 0.054801196980256546 -0.027398617674609355 -0.08154800161719318 -0.11134199798107143 0.0090445000678300511 0.054343499243259354 -0.089842310613203288 -0.066772992296441194 0.050920000299811308 0.013815297113475794 -0.026101154295195193 -0.061104500666260643 -0.0010084999958052498 -0.01865369204918596 -0.069015953273821581 -0.0095545002259313488
decision_type=2 2 2 2 2 2 2 2 2 2 2 2 2 2 2 2 2 2 2 2 2
left_child=1 -1 -2 4 13 7 -7 -6 9 10 -5 17 -13 18 15 16 -3 -10 -4 -16 -21
right_child=2 14 3 8 5 6 -8 -9 11 -11 -12 12 -14 -15 19 -17 -18 -19 -20 20 -22
leaf_value=-0.090551438552923719 0.16085479975911668 -0.0083560619243319752 -0.13473381330651055 0.10899545168867501 0.071872812408986464 -0.11651009168376458 0.093158021287518794 -0.10152433555795709 -0.054541116726164608 -0.11891649788892798 -0.08447603118496913 -0.093390160091763763 -4.4573106489602078e-07 0.022521575738406036 0.13106445583113396 -0.12458754245284273 0.18444635575679039 -0.20013966524930391 -0.2001868974902376 0.1999645635413381 0.20024670390276386
leaf_weight=0.022278118514805101 0.020358821518583592 0.014933049438695889 0.011000987114130112 0.13626010260008925 0.027892704377222799 0.020076732707366318 0.090169284094031354 0.099019533519139169 0.0083677455913857557 0.022609480359278677 0.02286551968427375 0.065993651693132871 1417.4089683047732 0.014437651082744196 0.010598080374620622 0.015306789269259435 0.022356516406063065 0.017710499731946494 0.046896074138885524 0.012363299626031221 0.016766870130595635
leaf_count=29 32 20 14 208 23 59 111 180 15 35 25 146 11124 25 16 25 34 42 69 25 16
internal_value=0 0.0636391 -6.92654e-06 -9.23611e-06 -0.0404931 -0.0083797 0.0549757 -0.0634152 -3.98113e-07 0.056299 0.0811946 -7.61615e-06 -4.79369e-06 -0.145781 0.100846 0.0397701 0.107236 -0.153421 -0.18775 0.181704 0.200127
internal_weight=0 0.114603 1418.01 1417.99 0.309493 0.237158 0.110246 0.126912 1417.68 0.181735 0.159126 1417.5 1417.47 0.0723347 0.0923246 0.0525964 0.0372896 0.0260782 0.0578971 0.0397283 0.0291302
internal_count=12273 165 12108 12076 481 373 170 203 11595 268 233 11327 11270 108 136 79 54 57 83 57 41
is_linear=0
shrinkage=0.3


Tree=559
num_leaves=31
num_cat=0
split_feature=294 40 249 156 143 139 175 186 67 171 114 238 235 240 147 139 1 232 246 274 154 288 142 221 40 138 263 151 272 75
split_gain=0.00499796 0.00951124 0.0122099 0.00994141 0.00966301 0.00794104 0.00773482 0.00758212 0.00901833 0.00752219 0.00958261 0.0079896 0.00970283 0.0071809 0.00642838 0.0062396 0.00617164 0.00607748 0.00686416 0.00425884 0.00356502 0.00328171 0.00243179 0.00226806 0.00209393 0.00180052 0.00148026 0.00110349 0.00108603 0.000684282
threshold=-0.066067498177289893 0.092536501586437211 0.043759759856697493 0.092022497206926304 0.059163000434637007 -0.067615501582622486 -0.074253000319003989 0.024039000272750802 0.016789035054712641 -0.0524807680996719 -0.054596500471234294 -0.018027500249445397 0.093292500823736163 0.153710117518538 0.0038287119992581856 -0.030522499233484195 -0.013782202278314374 -0.0013928205459291358 -0.0030732102436764799 -0.0097209997475146987 0.039065865105721263 0.065338999032974215 -0.031736999750137294 -0.083411592446175534 0.059266463721931242 0.069167997688055025 -0.058922998607158591 -0.036263499408960294 0.0059817630390386943 0.028575671458813918
decision_type=2 2 2 2 2 2 2 2 2 2 2 2 2 2 2 2 2 2 2 2 2 2 2 2 2 2 2 2 2 2
left_child=1 2 3 7 5 21 16 8 -1 10 14 12 13 -12 20 -7 -3 -13 -19 -16 27 -4 -5 -8 -21 -24 -9 -2 -14 -6
right_child=9 6 4 22 29 15 23 26 -10 -11 11 17 28 -15 19 -17 -18 18 -20 24 -22 -23 25 -25 -26 -27 -28 -29 -30 -31
leaf_value=-0.074553974551651414 -0.085184666754261937 -0.1385067523558671 -0.19463494388447194 -0.025174972453588369 -0.082096023607262078 0.13185761881651473 0.020666516310376946 -0.01402027649206122 0.073182576973745209 -5.2979190929396068e-06 0.071040465453402674 -0.18001749463507594 -0.062200163023560233 -0.08202823763166206 -0.1290675297324915 0.028289490818685294 0.14939090003223676 -0.057828048551614906 0.062765601935906204 0.18263449972526302 0.019097979274794924 0.066579942534644679 -0.19866500439006632 -0.1983331193750931 -0.01028712547466634 -0.050019171987334729 -0.20012378248283388 -0.20014189928037898 -0.20015456809772902 -0.20014674325046258
leaf_weight=0.069437206143990404 0.0098601986683206633 0.01271118748900335 0.016075530299417551 0.011113553405039056 0.0063450699803979651 0.080309381839008154 0.004620289970716839 0.0046452612943710383 0.08006708156628406 1313.0389526143504 0.53711800281232058 0.018212787464948477 0.0087187592207556008 0.029076680462594595 0.0094355911199670572 0.15039787906595237 0.014174070727676735 0.085152366696604531 0.084767108095957222 0.013855185216016253 0.011030900038576874 0.0059236236887727492 0.052246428085467755 0.053991786403059905 0.0079795314086368307 0.0085314918169387965 0.022371517823160048 0.031599244941162397 0.012497815618189634 0.014559375085127613
leaf_count=200 27 31 71 37 17 182 15 18 183 8736 1114 51 21 55 28 357 26 219 246 39 25 19 160 146 16 35 84 54 25 36
internal_value=0 -0.0272038 -0.0120126 -0.0601643 0.0317045 0.0479197 -0.119957 -0.0218643 0.0045664 1.30652e-05 0.0280724 0.0384838 0.055716 0.0631797 -0.0683266 0.0643416 0.0132746 -0.0153209 0.00233207 0.0393511 -0.132474 -0.124299 -0.154205 -0.18107 0.112131 -0.177799 -0.168125 -0.172802 -0.143463 -0.164315
internal_weight=0 0.607521 0.522023 0.248413 0.273611 0.252706 0.0854973 0.176521 0.149504 1313.9 0.859304 0.775544 0.587411 0.566195 0.0837607 0.230707 0.0268853 0.188132 0.169919 0.0312703 0.0524903 0.0219992 0.0718915 0.0586121 0.0218347 0.0607779 0.0270168 0.0414594 0.0212166 0.0209044
internal_count=12273 1617 1399 717 682 629 218 485 383 10656 1920 1731 1215 1169 189 539 57 516 465 83 106 90 232 161 55 195 102 81 46 53
is_linear=0
shrinkage=0.3


Tree=560
num_leaves=29
num_cat=0
split_feature=149 168 283 140 114 85 19 185 95 25 77 8 41 63 243 4 24 216 291 78 239 8 208 225 225 127 297 135
split_gain=0.00514097 0.0066597 0.0066537 0.00480883 0.0111873 0.00941674 0.00888382 0.00693136 0.00647155 0.00584936 0.00531917 0.0108575 0.0107118 0.0107994 0.0074706 0.00589672 0.012803 0.0147331 0.0128914 0.00899268 0.0142051 0.00488441 0.00455846 0.00426636 0.00384648 0.00331425 0.00153751 0.00100007
threshold=-0.080111999064683886 0.0051565000321715506 0.063807697958591994 -0.10641699656844134 -0.061261499300599043 0.042997814763123678 0.015591499861329751 0.033292498439550358 -0.03761399909853929 -0.11179799959063523 -0.093345500528812339 -0.014433626414294786 0.061516501009464201 -0.012832000385969848 -0.031735999509692144 -0.046687999740242896 -0.053024454216598127 -0.064864768227631361 -0.036711499094963039 -0.034058500081300687 0.078157499432563768 0.036689499393105458 0.0062555000185966006 -0.034239670097314358 -0.012328803223504414 -0.046351499855518292 -1.0000000180025095e-35 0.042898999527096707
decision_type=2 2 2 2 2 2 2 2 2 2 2 2 2 2 2 2 2 2 2 2 2 2 2 2 2 2 2 2
left_child=1 2 24 4 7 6 -6 23 -8 -7 11 14 13 -13 -5 16 17 -12 -18 20 -17 -14 27 -2 -1 -4 -26 -3
right_child=3 22 25 10 5 9 8 -9 -10 -11 15 12 21 -15 -16 19 18 -19 -20 -21 -22 -23 -24 -25 26 -27 -28 -29
leaf_value=-0.051151140539106431 -0.20033663467540166 0.11405096112533358 0.00090073486598289806 -0.058891239476524825 -0.059459451275386564 -0.16304901835181479 -0.011578277447506098 0.067168072313872243 0.13677193308093943 0.040968070442768657 -0.086488955380899679 0.020041642325496052 -0.029868452465437331 -0.10230571205894892 0.16092812241675378 -0.029553065827778752 -0.017126095855606874 0.018209940722434894 0.054630007008393357 1.0673485913266917e-05 0.01727710752543217 -0.18715528810217011 -0.012537443819467435 -0.034946635030710833 0.19176713432425152 -0.18927594354287031 0.059883328633816818 0.19808406117461327
leaf_weight=0.016118860057758866 0.029514905618270859 0.020840241728365072 0.014681544300401583 0.021428685569844674 0.031156836542932775 0.02353219164069742 0.031523094064894508 0.025380371014762204 0.16494195353152463 0.027345062204403803 0.19497273157584516 0.18030070604982029 0.024582368962001055 0.10147567757485276 0.03968053911376046 2.1163137554354985 0.30762318185557536 0.31866512032502203 0.84235501974894944 1341.8057270545394 0.80458228842769575 0.064113547290617134 0.017071502377802972 0.026768104500206391 0.016628392564598471 0.018818694232322741 0.01525369369528462 0.032816551174619235
leaf_count=30 16 35 20 34 35 13 30 20 125 27 164 244 31 171 31 2399 328 289 860 6495 638 93 26 31 18 24 22 24
internal_value=0 0.0551291 -0.00332485 -4.84542e-06 0.0346556 0.0632866 0.089367 -0.0629857 0.112969 -0.0533957 -1.41142e-05 -0.033314 -0.0526394 -0.0240191 0.0838458 -3.44001e-06 0.0178463 -0.0215329 0.035435 -2.55226e-05 -0.0166534 -0.143563 0.122486 -0.121677 0.0682846 -0.105931 0.128669 0.165446
internal_weight=0 0.152229 0.0815012 1347.18 0.360163 0.278499 0.227622 0.0816634 0.196465 0.0508773 1346.82 0.431582 0.370472 0.281776 0.0611092 1346.39 1.66362 0.513638 1.14998 1344.73 2.9209 0.0886959 0.0707283 0.056283 0.0480009 0.0335002 0.0318821 0.0536568
internal_count=12273 199 114 12074 297 230 190 67 155 40 11777 604 539 415 65 11173 1641 453 1188 9532 3037 124 85 47 70 44 40 59
is_linear=0
shrinkage=0.3


Tree=561
num_leaves=31
num_cat=0
split_feature=202 100 250 145 178 139 94 43 54 26 124 86 125 2 238 60 137 168 257 16 263 98 278 173 147 142 135 32 238 67
split_gain=0.00502677 0.0139363 0.0101249 0.00878229 0.00956203 0.00867186 0.00623333 0.00803349 0.00504509 0.012075 0.0124487 0.0095168 0.0146508 0.0157527 0.0131549 0.0120926 0.0101255 0.00947655 0.00869015 0.0117466 0.00842261 0.00859374 0.00782362 0.012198 0.0120896 0.0120161 0.0132173 0.0117621 0.00694246 0.00670081
threshold=-0.10453550145030013 -0.15099452671917019 0.09407350048422812 0.033414499834179809 0.002358854606537559 -0.022538499906659046 -0.03259100019931789 0.020288546753057451 -0.0241175294415189 -0.076136586742848386 0.024876500479876953 0.0023710000095888504 -0.0073464999441056498 0.038440923937232509 -0.08030899986624708 -0.0098634257080128969 -0.14326202514653133 -0.081687998026609379 -0.076006990875747846 -0.059265033502176163 -0.069506999105215031 0.03555800020694725 -0.027452299758611898 0.031748998910188606 0.050311500206589657 -1.0000000180025095e-35 0.13366815852452052 -0.094448813345215502 0.012274001271098825 -0.035501500591635642
decision_type=2 2 2 2 2 2 2 2 2 2 2 2 2 2 2 2 2 2 2 2 2 2 2 2 2 2 2 2 2 2
left_child=1 -1 3 4 -3 -5 -4 -8 9 10 20 12 13 -11 15 -13 -16 -14 19 29 -2 -22 23 27 -25 26 -24 -20 -21 -10
right_child=8 2 6 5 -6 -7 7 -9 18 11 -12 14 17 -15 16 -17 -18 -19 22 28 21 -23 25 24 -26 -27 -28 -29 -30 -31
leaf_value=-0.18369928750179598 -0.11276694137163437 -0.1226156587148321 0.18906794102945632 -0.063089539747433837 0.095384655396686654 0.17570410663089772 0.16408875618072066 -0.05839533505526584 0.092112600048215171 0.072398541237649314 -0.1371477390137438 0.094819539960370583 0.13921348686783802 -0.076686523501617324 0.091152821781823226 -0.062186656378263365 -0.092562734153858697 -0.053992252245284512 0.15608121707928785 0.11850422422521528 0.12757306616116301 -0.04815734348983184 -0.033182383600888002 -0.12257924789747154 0.1735265208490811 1.6580931630773378e-05 0.041175651276287285 0.030182253539777187 -0.060396117167996394 -0.15029531203873747
leaf_weight=0.023166715865954757 0.019167004062182968 0.059436114789831573 0.062382214224271593 0.020917374229611596 0.026042725186925963 0.039596502721678917 0.029176108237152221 0.029250326886540279 0.01505576115596341 0.28513471512340505 0.028298765310864837 0.087295905523319561 0.024240645688678231 0.082167991212145353 0.028816196217121615 0.08932710753936135 0.42841459144653982 0.39776642561181941 0.075204230387498683 0.15164602925551562 0.14304627819683435 0.030361467860984703 1.6826626732697594 0.074855001281321165 0.014875849534291774 1413.145618227418 0.24668446460964322 0.59661432539564785 0.022407027394365286 0.032240164326594822
leaf_count=23 21 67 31 25 37 35 20 26 24 332 39 101 29 108 30 153 610 673 86 156 170 41 2178 125 8 6087 166 771 40 61
internal_value=0 0.0394941 0.0588743 0.00571178 -0.0561978 0.0931621 0.123119 0.0527054 -9.35179e-06 -0.0166185 0.0486442 -0.0267472 -0.00476305 0.0390472 -0.0541231 0.0154136 -0.0809844 -0.0428943 9.93137e-06 0.0594477 0.0759462 0.0968049 6.39003e-07 0.0303996 -0.0734899 -1.57208e-05 -0.023675 0.0442755 0.0954732 -0.0731293
internal_weight=0 0.289968 0.266801 0.145993 0.0854788 0.0605139 0.120809 0.0584264 1417.7 1.64404 0.220874 1.42316 0.78931 0.367303 0.633854 0.176623 0.457231 0.422007 1416.06 0.221349 0.192575 0.173408 1415.84 0.761549 0.0897309 1415.07 1.92935 0.671819 0.174053 0.0472959
internal_count=12273 264 241 164 104 60 77 46 12009 2307 271 2036 1142 440 894 254 640 702 9702 281 232 211 9421 990 133 8431 2344 857 196 85
is_linear=0
shrinkage=0.3


Tree=562
num_leaves=31
num_cat=0
split_feature=199 175 5 16 17 16 93 280 246 174 160 100 258 87 259 95 183 216 69 200 70 188 176 298 153 13 155 189 59 267
split_gain=0.00520182 0.0103934 0.0105766 0.00841292 0.00730012 0.00706951 0.01332 0.00803412 0.00672635 0.00781822 0.00668527 0.00562834 0.00551413 0.00823701 0.0078819 0.00722282 0.011767 0.0136433 0.0108314 0.0101424 0.00801386 0.00803668 0.00549541 0.00501803 0.00494486 0.00485795 0.00460569 0.004754 0.0045457 0.00546872
threshold=-0.077574998140335041 -0.004855999955907399 -0.0099194226906738538 0.031313501298427554 -0.044107500463724088 -0.015298633402783058 -0.0013842974962337388 -0.053254976804896589 0.028339999658894621 0.026814430277366932 0.086550854487735515 -0.091032497584819724 -0.14297899603843681 -0.028639898424349209 0.001105604624616234 -0.0028704999713226498 -0.058561851590290613 -0.078482467301788553 -0.0018915000255219497 -0.084441121916009373 -0.083608999848365742 -0.018462000414729045 -0.04165500029921524 0.0047421580873447701 -0.038915440309735407 -0.025187550128889746 0.00034790525837732471 -0.0097754998132585976 -0.054292500019073445 -0.065843942873505604
decision_type=2 2 2 2 2 2 2 2 2 2 2 2 2 2 2 2 2 2 2 2 2 2 2 2 2 2 2 2 2 2
left_child=1 2 4 8 11 7 -7 -6 10 -10 -4 -1 13 14 26 16 20 18 -18 -19 -14 -22 -3 -24 -5 -13 27 -2 -15 -30
right_child=12 22 3 24 5 6 -8 -9 9 -11 -12 25 15 28 -16 -17 17 19 -20 -21 21 -23 23 -25 -26 -27 -28 -29 29 -31
leaf_value=-0.18480576661054757 -0.1962356878064774 -0.18025728295994731 -0.15261636218488703 0.16062908810287585 -0.025167893712380669 0.12962983361319441 -0.12034090645490693 0.12466342026368156 0.12077799101680917 -0.17688537469881385 0.10427289525494488 0.11122764591269464 0.095499671031491623 0.11812788934338916 -0.1365353583431588 -1.3669331821367557e-06 0.037807217157085765 -0.005366684539168531 -0.069720083483636161 0.082977485246986463 0.052803083760773709 -0.10945413479927137 -0.14183542392464082 0.060584472337152792 -0.056483898306243965 -0.13781438979151098 0.140965441687884 0.11695614491843355 0.073464015510609604 -0.16979572272277371
leaf_weight=0.023581034089147579 0.0091594100159682057 0.054871155046214426 0.10802488240155839 0.020586575149309283 0.044391790115270169 0.031033672826424663 0.050250957141720676 0.11736175299017759 0.023108139900557489 0.012099668793723595 0.0099578199688039604 0.01768148424714866 0.030428117814835787 0.0066520780310383989 0.021453911846606388 1312.4753928701914 0.18142807931371863 0.15312188436266183 0.15750835623856396 0.49521095006291271 0.035511121101308163 0.12137778619823791 0.021496428806201062 0.022621145048418612 0.017438605799725337 0.01172327367686421 0.035551119358018468 0.0083279262423729961 0.0094678633768126019 0.068448645699986765
leaf_count=84 26 194 346 43 120 62 130 223 60 38 26 59 63 16 76 7609 370 377 381 1028 84 280 97 82 38 50 62 24 25 200
internal_value=0 -0.028253 -0.0102481 -0.0652432 0.0252758 0.0472729 -0.0249045 0.0835436 -0.0965943 0.0184817 -0.130935 -0.0756217 1.29143e-05 -0.0558408 0.0168992 1.96772e-05 0.0235343 0.0366135 -0.0121622 0.0621125 -0.0454007 -0.0727279 -0.116876 -0.0380453 0.0610596 0.011938 0.0789631 -0.0470856 -0.119914 -0.140237
internal_weight=0 0.586228 0.48724 0.191216 0.296024 0.243038 0.0812846 0.161754 0.153191 0.0352078 0.117983 0.0529858 1313.81 0.159061 0.0744924 1313.65 1.17459 0.987269 0.338936 0.648333 0.187317 0.156889 0.0989887 0.0441176 0.0380252 0.0294048 0.0530385 0.0174873 0.0845686 0.0779165
internal_count=12273 1652 1279 551 728 535 192 343 470 98 372 193 10621 429 188 10192 2583 2156 751 1405 427 364 373 179 81 109 112 50 241 225
is_linear=0
shrinkage=0.3


Tree=563
num_leaves=31
num_cat=0
split_feature=43 161 172 86 243 157 122 231 102 244 9 240 98 214 267 98 172 45 116 115 170 209 77 134 51 231 137 135 86 157
split_gain=0.00516512 0.0172872 0.012809 0.0162831 0.0161309 0.0149916 0.0154963 0.0127862 0.0132062 0.0125613 0.0116072 0.0105074 0.0104312 0.0101589 0.0163401 0.0200423 0.0160077 0.0148238 0.0136491 0.013172 0.0119998 0.0141583 0.0115753 0.00988008 0.00946315 0.0091035 0.00869924 0.00834811 0.00782213 0.00703285
threshold=-0.014901000075042197 0.019690500572323754 0.039393000304698909 0.049393998458981452 0.012992000207304901 0.043834243822992301 -0.056978541374599075 0.0090245003812014519 -0.0082284782219820152 -0.11392699927091593 0.00034749999758780005 0.15727999806404111 0.027344999834895103 -1.0000000180025095e-35 -0.027425363429903742 -0.026555873586601057 0.055780999362468657 -0.06669328942488556 0.052461998537182759 -0.037597998976707396 0.027660583052312029 0.063710879640696272 0.046618468333871482 -0.055827999487519243 0.097583918907277148 -0.025404564232372084 0.011122500058263502 0.11583841505390528 -0.071159973901148907 0.1020749231416818
decision_type=2 2 2 2 2 2 2 2 2 2 2 2 2 2 2 2 2 2 2 2 2 2 2 2 2 2 2 2 2 2
left_child=1 2 5 4 12 6 9 11 -9 -1 -8 -7 -4 14 17 24 19 22 -18 -17 21 -19 -2 -22 27 -5 -6 -16 -3 -30
right_child=13 28 3 25 26 7 10 8 -10 -11 -12 -13 -14 -15 15 16 18 20 -20 -21 23 -23 -24 -25 -26 -27 -28 -29 29 -31
leaf_value=-0.1118942388497098 0.13955310966486695 0.096688721042771306 -0.095535749584694171 -0.04136835990664571 0.0005293053280612097 -0.034628737615879562 0.027881250816985267 0.066237948133694088 -0.11281499776566237 0.02617593877792793 0.10276368670319781 0.13262135679444589 0.016711311670997042 1.4331514944517018e-06 0.056927477308154902 -0.038564526844948342 0.082713858143154906 -0.038616435504370897 -0.15935147237480091 -0.12208529380467287 0.058243605912537508 0.089377165532659272 -0.066613363048024274 -0.11618926346040974 -0.1032362629815237 0.14229452400560846 0.16147387665876853 -0.12508233919357406 -0.12183380086701637 0.10317386216888891
leaf_weight=0.065225946236751708 0.12106560857318982 0.020076720298675355 0.32814143985888211 0.035360000227228738 0.11550895565960673 0.63605377932526586 0.29939793769275935 0.31010205222764853 0.042106793240918705 0.65309396698842193 0.49317594669264508 0.035704506255569868 0.096402206661878154 1341.9954833676163 0.25120356461205506 0.29478241990463505 0.096986226797525887 0.15720377130097052 0.02674557487716811 0.40128678057159473 0.03808122051123064 0.15395570402961312 0.030731278711755294 0.12565582789011387 0.048461921020134469 0.077576638329475145 0.040937512723758118 0.024930773851338017 0.14319302229341691 0.013697952737857122
leaf_count=95 112 20 363 43 117 803 354 382 67 687 428 14 101 6607 275 242 70 198 35 538 27 87 24 127 70 69 42 30 228 18
internal_value=0 0.0116693 0.0166731 -0.0194413 -0.0397025 0.0265596 0.0455526 -0.0014652 0.0448321 0.0136387 0.0744765 -0.0257393 -0.0700475 -2.85328e-05 -0.0227344 -0.0440583 -0.0690402 0.016205 0.0303896 -0.0867146 -0.00988088 0.0247123 0.0978147 -0.0756205 0.0190358 0.0847904 0.0426438 0.0404947 -0.0796263 -0.102189
internal_weight=0 3.40576 3.22879 0.693927 0.58099 2.53486 1.51089 1.02397 0.352209 0.71832 0.792574 0.671758 0.424544 1343.77 1.77109 1.1444 0.819801 0.626693 0.123732 0.696069 0.474897 0.311159 0.151797 0.163737 0.324596 0.112937 0.156446 0.276134 0.176968 0.156891
internal_count=12273 3831 3565 735 623 2830 1564 1266 449 782 782 817 464 8442 1835 1260 885 575 105 780 439 285 136 154 375 112 159 305 266 246
is_linear=0
shrinkage=0.3


Tree=564
num_leaves=31
num_cat=0
split_feature=18 200 224 165 28 36 20 272 128 85 173 223 265 158 93 17 240 196 60 111 138 59 209 14 296 254 168 31 119 22
split_gain=0.00509603 0.0103352 0.0103821 0.00957818 0.0125722 0.0118531 0.0101265 0.0103029 0.00962869 0.00850981 0.00879531 0.0072187 0.0136767 0.0134612 0.0160476 0.0108962 0.0099419 0.0121065 0.00945324 0.00703118 0.0070046 0.00644058 0.0111244 0.00745307 0.0065631 0.015379 0.0061199 0.00583519 0.00565318 0.00533659
threshold=-0.040576730116223356 -0.12180599942803379 -0.033367499709129292 -0.04549250006675714 -0.071362998336553476 -0.05515207711330062 -0.076509501785039888 0.032376000657677602 0.036612690444416209 -0.0046163567971657851 -0.025630500167608244 -0.046690499410033143 0.073267497122287709 -0.044763821032138613 0.062219500541687005 0.0039990001823752503 0.049713499844074208 -0.013233718168719303 -0.0048094116965439046 -0.057854438243691887 -0.016464999876916346 -0.037288499996066045 -0.011894000228494399 0.014817975280419117 -0.042023999616503639 -0.06466200202703469 0.054338999092578853 -0.033640000969171441 -0.017895039079956741 0.024718999862670853
decision_type=2 2 2 2 2 2 2 2 2 2 2 2 2 2 2 2 2 2 2 2 2 2 2 2 2 2 2 2 2 2
left_child=1 2 -1 4 27 8 -7 -8 20 -6 -11 12 13 16 15 -15 -2 -18 -14 26 -5 22 29 -24 25 -23 -13 -3 -10 -21
right_child=11 3 -4 5 9 6 7 -9 28 10 -12 19 18 14 -16 -17 17 -19 -20 21 -22 24 23 -25 -26 -27 -28 -29 -30 -31
leaf_value=0.14516629513214283 -0.16244731774791496 -0.054653656078557974 -0.085978321208903349 0.096734857249656941 -0.17343318928326132 0.13971361524002293 0.048193364822177544 -0.031412596853986195 0.13057197042424673 0.062482356510334978 -0.12679662654558535 0.1328591062246296 0.10746422148284017 -0.022071607198344379 -0.15419805220211083 0.089112155091517556 0.048420081609959413 -0.097050097068856506 -0.097710115642350326 -0.044215681867212017 -0.0523363214894281 -0.032569752909199466 -0.0081317848729139924 -0.12470288095105642 -1.457936257454064e-05 0.054724062641618325 -0.069321230410809148 0.13499974050924804 -0.0094406974367966159 0.15077951015730606
leaf_weight=0.096261972234060522 0.10598276631419878 0.022952453342441004 0.021371582675783318 0.045080646810674807 0.067018255873449561 0.044591233284336118 0.20827875655132222 0.49188954385931538 0.17325278636303665 0.044412856771231191 0.043968339105504017 0.062370290404486606 0.097846847053460806 0.21101913491828028 0.055595485201592965 0.12711769294560327 0.074414253561826627 0.16712905565945135 0.02547174078063108 0.020641134786274051 0.07652435566706095 0.26781879199943148 0.08151315398197212 0.12515022942909582 1414.2899455983008 0.56445756911121137 0.017187560402589952 0.040126654490450164 0.030526781745720655 0.032552508618664433
leaf_count=100 409 30 23 50 132 54 255 583 211 50 61 112 114 399 74 189 95 340 46 32 94 350 118 290 7313 611 27 44 24 43
internal_value=0 0.0180491 0.103172 0.0102786 -0.0469637 0.021965 0.00109583 -0.00773225 0.0697317 -0.0928138 -0.0316811 -1.93044e-05 -0.0274235 -0.0428135 -0.004832 0.0197263 -0.085845 -0.0522339 0.065085 -2.56572e-06 0.00292641 -7.57865e-06 -0.0472331 -0.0787244 1.09331e-06 0.0266337 0.0891804 0.065991 0.109598 0.075114
internal_weight=0 1.40626 0.117634 1.28862 0.218479 1.07014 0.74476 0.700168 0.325385 0.155399 0.0883812 1416.33 0.864577 0.741258 0.393732 0.338137 0.347526 0.241543 0.123319 1415.46 0.121605 1415.38 0.259857 0.206663 1415.12 0.832276 0.0795579 0.0630791 0.20378 0.0531936
internal_count=12273 1711 123 1588 317 1271 892 838 379 243 111 10562 1666 1506 662 588 844 435 160 8896 144 8757 483 408 8274 961 139 74 235 75
is_linear=0
shrinkage=0.3


Tree=565
num_leaves=31
num_cat=0
split_feature=285 279 244 87 231 97 76 162 112 119 34 205 278 169 277 139 215 172 114 13 185 256 63 125 190 275 142 72 148 6
split_gain=0.0050747 0.00724648 0.00635576 0.00548989 0.00763806 0.00494233 0.00897102 0.00540644 0.00522395 0.00510324 0.00569137 0.00501687 0.00759786 0.00669377 0.00714201 0.00658292 0.0136716 0.0129004 0.00834413 0.00644922 0.00609753 0.00696115 0.00523412 0.00430483 0.00406904 0.0040663 0.0035788 0.00343306 0.00181523 0.00146629
threshold=-0.10289799794554703 -0.016080999746918647 -0.098238501697778632 -0.022792499512433947 -0.023858627967604282 -0.069194505158165776 -0.010929696475300898 0.094707907642202188 0.071937002241611467 -0.0013276414841232947 0.017047878122706625 -0.06208150088787074 0.025134084833793546 -0.07077678152494199 -0.035134005700684971 -0.032689500600099494 0.060684999451041208 0.018829513897361597 0.02393993842946221 -0.027203386120445872 -0.034954000264406142 0.046896041835010609 -0.012333000078797299 -0.028597845847873806 -0.065435446143251835 -0.045544501394033397 -0.064479171357123957 -0.093614999204873942 0.12880700041824641 -0.093616500496864291
decision_type=2 2 2 2 2 2 2 2 2 2 2 2 2 2 2 2 2 2 2 2 2 2 2 2 2 2 2 2 2 2
left_child=1 24 -3 4 -4 6 7 8 23 26 -11 12 13 19 -15 16 18 -18 -13 -7 22 -22 -14 -2 25 -1 -8 -28 -26 -5
right_child=5 2 3 29 -6 11 9 -9 -10 10 -12 15 20 14 -16 -17 17 -19 -20 -21 21 -23 -24 -25 28 -27 27 -29 -30 -31
leaf_value=0.19680495747879534 -0.061574315276543362 0.14545708906743937 -0.17659240012677643 0.040582302322164886 0.15775612084170296 -0.19370974351005066 0.07420121221294447 -0.15631321055528552 -0.14472712893904913 -0.1440751743119324 0.12798366199026887 -0.030185108706103921 -0.16962579804073838 -0.20010376193373114 0.040390307313183063 2.3951422974907793e-05 0.077705162527724692 -0.070905578072512285 -0.11223013311908507 0.069106353964312167 0.12787038151630034 -0.10035081809121991 0.086346874884075595 0.097178024951937961 -0.18617735582092212 -0.13398013513595064 0.028497693993118925 -0.18389201026283991 -0.019742505740515757 -0.18868282018540658
leaf_weight=0.0062331239823834039 0.019639666492437868 0.021504322587887259 0.0094415239221348202 0.0028790519590984323 0.017635238007542853 0.02793220259991358 0.0062357382180380219 0.014800117500627152 0.01243109004454368 0.012673820328393925 0.01524466194678098 0.56758423215721521 0.014735898026970062 0.012006348877491746 0.14946092019175594 1312.5321548302786 0.18151736489136283 0.074003811775554595 0.13885573367819859 0.012019073645205935 0.12936954660312949 0.01326152764067956 0.014039020236850774 0.070762682833333201 0.046872291548108791 0.0072174804304268037 0.0076237178520841544 0.067443542806437051 0.0067466606014932031 0.019621103238082749
leaf_count=17 70 42 24 9 39 49 32 59 27 31 22 1383 36 28 395 7849 463 225 456 28 234 27 37 143 160 26 19 231 24 88
internal_value=0 -0.0574926 0.0092485 -0.0498329 0.0411706 8.00101e-06 -0.0442687 0.0132165 0.0376158 -0.106181 0.00448036 1.56459e-05 0.0348112 -0.00469613 0.0225077 5.76948e-06 -0.0248023 0.0346647 -0.0463116 -0.114643 0.0812362 0.106651 -0.0447391 0.0626895 -0.128226 0.0193085 -0.144181 -0.162322 -0.165236 -0.159347
internal_weight=0 0.138151 0.0710812 0.0495769 0.0270768 1314.09 0.226855 0.117634 0.102833 0.109221 0.0279185 1313.87 0.372825 0.201419 0.161467 1313.49 0.961961 0.255521 0.70644 0.0399513 0.171406 0.142631 0.0287749 0.0904023 0.0670696 0.0134506 0.081303 0.0750673 0.053619 0.0225002
internal_count=12273 429 202 160 63 11844 634 299 240 335 53 11210 834 500 423 10376 2527 688 1839 77 334 261 73 213 227 43 282 250 184 97
is_linear=0
shrinkage=0.3


Tree=566
num_leaves=30
num_cat=0
split_feature=223 38 65 269 226 172 140 18 243 196 84 123 145 87 153 176 229 31 281 24 36 281 102 240 170 100 21 121 200
split_gain=0.00467014 0.00651441 0.00697902 0.0056763 0.00441546 0.00808122 0.00897108 0.00480748 0.0138538 0.0187225 0.0147119 0.0146767 0.0135363 0.0116792 0.0100434 0.0127223 0.0100402 0.0073474 0.00474444 0.00471931 0.00640168 0.0035733 0.00573779 0.0035463 0.00258967 0.00198601 0.00137572 0.000697386 0.000111267
threshold=-0.10889479815506141 -0.0065299998968838995 -0.032729499042034094 0.10892549902200696 -0.067473497241735389 -0.033669000491499838 -0.05862832291814301 -0.017199790762428054 -0.047906527946048806 -0.011747500393539599 -0.032817499712109545 -0.093563500791788032 -0.013930500019341648 -0.049690499901771497 -0.032017501071095446 -0.10321549698710433 0.040643000975251156 -0.10071050003170963 -0.019109999760985347 0.017275705842026298 -0.035081544764069848 -0.042882999405264792 -0.0048509999178349495 0.077684000134468065 -0.026258000172674597 -0.086920998990535694 -0.052167499437928137 0.025784499943256354 -0.088621978351390227
decision_type=2 2 2 2 2 2 2 2 2 2 2 2 2 2 2 2 2 2 2 2 2 2 2 2 2 2 2 2 2
left_child=1 3 -3 25 5 18 -7 8 10 17 11 -6 -12 -11 15 23 -17 -10 -2 24 -21 22 27 -9 -8 -1 -23 -4 -28
right_child=4 2 21 -5 7 6 19 14 9 13 12 -13 -14 -15 -16 16 -18 -19 -20 20 -22 26 -24 -25 -26 -27 28 -29 -30
leaf_value=-0.011101296427793153 -0.20025657179460879 -0.11360839330965312 -0.20005665703934236 0.12027625451596266 -0.010573670164089407 -0.10111540483939513 0.065914409712121258 -0.0081327604714445025 0.077430563313711134 -0.081149189943578906 0.053383912496282958 0.088982241109924295 -0.040297352840293489 0.0011067313652132311 -9.6481409352506387e-06 0.046003677751460068 -0.045130001865058167 -0.094625838729782946 0.030028745120098975 0.11422066442796071 -0.12946906468757818 0.10124257427006056 0.18043683988277778 -0.17630722565649593 0.18202516450890982 -0.18532811365849317 0.16096735296837372 -0.046101468590407174 0.199623603113114
leaf_weight=0.0088351640661130659 0.016676971179549582 0.012513554989709519 0.0061677333033003379 0.012172764392744284 0.22606873937183991 0.021770480383565882 0.024328579216671642 0.017114453301473875 0.023663676081923768 0.18349149400364684 0.18554820222925628 0.3246691028866735 0.55115717973707512 1.0130936624314999 1342.5323424905364 0.94043796362791343 0.12303274438875178 0.39858397408420398 0.015568474467727356 0.026530310080488562 0.015295525445253588 0.023060130994053907 0.010112700295849208 0.033130398252978921 0.059736836458795461 0.017654609830060508 0.0083151936846661556 0.0046403393789660186 0.034530524097362014
leaf_count=21 23 14 29 20 156 24 29 27 20 230 151 254 524 1210 7435 1081 168 496 23 32 25 36 18 37 64 33 16 13 64
internal_value=0 0.0551844 0.0958473 -0.0492953 -6.10878e-06 0.0469894 0.0767016 -1.23876e-05 -0.0122007 -0.0306721 0.0110254 0.0481162 -0.0167026 -0.0115069 1.39753e-05 0.028491 0.0354604 -0.0849834 -0.0890722 0.107452 0.0251044 0.126034 0.0180147 -0.119023 0.148423 -0.127218 0.160323 -0.133958 0.192121
internal_weight=0 0.138003 0.0993402 0.0386625 1346.73 0.179907 0.147662 1346.55 2.90628 1.61883 1.28744 0.550738 0.736705 1.19659 1343.65 1.11372 1.06347 0.422248 0.0322454 0.125891 0.0418258 0.0868266 0.0209208 0.0502449 0.0840654 0.0264898 0.0659058 0.0108081 0.0428457
internal_count=12273 264 190 74 12009 220 174 11789 3041 1956 1085 410 675 1440 8748 1313 1249 516 46 150 57 176 60 64 93 54 116 42 80
is_linear=0
shrinkage=0.3


Tree=567
num_leaves=24
num_cat=0
split_feature=60 245 143 78 78 146 229 231 190 119 216 89 262 202 48 180 102 221 10 229 181 164 189
split_gain=0.00486195 0.00435068 0.00485699 0.0052386 0.0045401 0.0168497 0.0128881 0.0123994 0.00841636 0.00759876 0.0111876 0.0117765 0.00697962 0.0105808 0.00668067 0.00477667 0.00427652 0.00405139 0.00362929 0.00216913 0.000882176 0.000527391 7.03878e-10
threshold=-0.14232850074768058 -0.11017800122499463 -0.022394500672817147 -0.021857397213721139 -0.10704150050878518 -0.018612048874439468 -0.020241000689566097 -0.050967217255919149 -0.020242999307811194 -0.12196955060037484 -0.093398999422788592 0.050805998966097811 -0.027599000371992546 -0.10045050084590904 -0.07373660199282478 0.0420220740323815 -0.050100304064754513 -0.0068442715879044871 -0.0065655000507830992 0.0023062845399290681 0.066900189820991232 -0.0061540000606327989 -0.033258580473607156
decision_type=2 2 2 2 2 2 2 2 2 2 2 2 2 2 2 2 2 2 2 2 2 2 2
left_child=17 2 20 16 5 14 8 -8 -7 10 15 -12 13 -11 -3 -6 19 -1 -16 -4 22 -19 -2
right_child=1 4 3 -5 9 6 7 -9 -10 12 11 -13 -14 -15 18 -17 -18 21 -20 -21 -22 -23 -24
leaf_value=-0.043709316349113479 0.20019609060809279 0.059486325646929836 -0.072383268925332298 0.14715548387775934 0.1751452364624948 -0.012268462612746037 0.079049630003788285 -0.066410368147554855 0.17081787019132744 0.058546036987442859 0.041854800299477878 -0.084144996222023177 1.7746096959045582e-05 -0.021223082042189652 -0.052491222017861876 0.021055893871971283 -0.1585878404482203 0.20022501505206025 -0.186305232724714 0.19997726503990457 0.087368599747111295 0.12110018728284049 0.20008587522534618
leaf_weight=0.012331963631368126 0.010244667475490132 0.014931648191122804 0.004650057418302822 0.01596567369267532 0.065415054514005533 0.037474369665233098 0.07035816131883621 0.21065124306545513 0.056920684688918755 0.16012073770741642 0.32377264270746664 0.08410147840152149 1413.9681529976037 2.2896372000237752 0.0237419913805752 0.025035474867763696 0.017622214219954913 0.014997332356870174 0.078736673672779034 0.0060632219871195048 0.0089083578332065372 0.015331983297072749 0.010622224988992457
leaf_count=26 10 31 29 35 71 71 86 368 71 144 335 109 7593 2993 29 36 22 12 105 18 20 28 31
internal_value=0 -3.15588e-06 0.0726992 0.00972181 -6.95544e-06 -0.0287966 0.00222607 -0.0299906 0.0981335 3.05783e-06 0.0370421 0.0158743 -9.97326e-06 -0.0160092 -0.127988 0.132495 -0.0677154 0.101275 -0.155304 0.0817602 0.1664 0.160226 0.20014
internal_weight=0 1417.48 0.0740764 0.0443012 1417.41 0.492815 0.375404 0.281009 0.0943951 1416.92 0.498325 0.407874 1416.42 2.44976 0.11741 0.0904505 0.0283355 0.0426613 0.102479 0.0107133 0.0297753 0.0303293 0.0208669
internal_count=12273 12207 165 104 12042 761 596 454 142 11281 551 444 10730 3137 165 107 69 66 134 47 61 40 41
is_linear=0
shrinkage=0.3


Tree=568
num_leaves=26
num_cat=0
split_feature=57 295 151 49 129 112 228 281 1 269 245 207 246 232 30 268 24 27 141 147 169 229 191 272 149
split_gain=0.00411921 0.00437857 0.00476667 0.00465628 0.00458463 0.00477115 0.00453392 0.0111316 0.0069849 0.00437468 0.00421592 0.00328705 0.00388277 0.00321353 0.00319909 0.00223328 0.00181638 0.00167853 0.00147809 0.000701482 6.07876e-05 3.60622e-05 3.82571e-10 1.44686e-10 8.59157e-11
threshold=-0.14637000113725657 -0.097586955795104458 0.036627000197768156 0.022189220784460208 -0.096019502729177378 -0.12151389478507253 -0.080256499350070884 0.039028499275445862 -0.067685499787330586 0.10222922268552619 0.014974229402098787 0.023762869254209628 -0.010328953779813337 0.014269505149694878 -0.041881499812006888 -0.15361383099069423 -0.020206204727906563 0.063545185547077207 0.057073999196290956 0.014252446162085779 -0.080369003117084434 -0.030398000031709598 -0.061459500342607443 0.0075688499704637379 0.026285999454557854
decision_type=2 2 2 2 2 2 2 2 2 2 2 2 2 2 2 2 2 2 2 2 2 2 2 2 2
left_child=9 2 3 11 14 19 7 -7 -8 15 13 18 -13 -5 -3 -1 -12 20 -2 23 -16 -17 -23 -6 -24
right_child=1 4 -4 10 5 6 8 -9 -10 -11 16 12 -14 -15 17 21 -18 -19 -20 -21 -22 22 24 -25 -26
leaf_value=0.0033702168001293201 0.17988507531653833 0.027986829548011235 -0.16859061216654722 0.072127298362654746 -0.20012967359467573 0.036263976474706611 -0.040166221795338998 -0.13019017292536467 3.4064387379418362e-06 0.057430563466117517 -0.024215310222670653 -0.20008327870116205 0.12972152009444879 -0.1123275567235679 -0.16582342209919984 -0.17053552207171577 0.16346826017269594 -0.027280155478273126 0.044876113793925324 -0.052584122167834764 -0.20012776643283781 -0.20015801432966276 -0.20004768710376941 -0.20005806122586908 -0.20009679466821159
leaf_weight=0.0064958856137309331 0.043751671297967643 0.012869949995604202 0.008139679182306736 0.012659093300953828 0.0036393035638430113 0.57472235223840229 0.38970485747131434 0.038586328710017881 1312.8909571552772 0.012488081345509272 0.0064572401402074311 0.0055849415366537869 0.0075636415058397688 0.025876158383823622 0.0064617758689564644 0.0045723140483460148 0.016497886749675672 0.0075220102808088987 0.0087594113756495062 0.003823727979352042 0.016571644489601023 0.0052820918190263867 0.0097940972987079523 0.0083998667956137751 0.0047670445646872403
leaf_count=16 117 29 34 39 7 1140 962 79 9303 28 23 15 34 117 21 17 39 27 34 22 45 7 49 54 15
internal_value=0 3.87829e-06 0.0539714 0.068219 -1.67842e-06 1.54319e-06 3.52956e-06 0.0257915 -8.51356e-06 -0.0924218 0.00889533 0.123776 -0.0103651 -0.0517329 -0.0974769 -0.152962 0.110673 -0.150322 0.157364 -0.164526 -0.190504 -0.194554 -0.200089 -0.20008 -0.200064
internal_weight=0 1314.09 0.13529 0.12715 1313.95 1313.91 1313.89 0.613309 1313.28 0.0433995 0.0614904 0.0656597 0.0131486 0.0385353 0.0434254 0.0309114 0.0229551 0.0305554 0.0525111 0.0158629 0.0230334 0.0244155 0.0198432 0.0120392 0.0145611
internal_count=12273 12141 452 418 11689 11567 11484 1219 10265 132 218 200 49 156 122 104 62 93 151 83 66 88 71 61 64
is_linear=0
shrinkage=0.3


Tree=569
num_leaves=31
num_cat=0
split_feature=24 199 179 245 31 13 62 245 143 94 270 190 24 208 176 146 112 225 132 248 190 180 92 113 129 19 126 228 37 205
split_gain=0.00461994 0.015759 0.0108938 0.0128372 0.0139903 0.0117536 0.0126583 0.0108245 0.00914316 0.0080914 0.00743439 0.00736982 0.00700606 0.0133198 0.0141949 0.0120829 0.0125994 0.0160349 0.0132441 0.0100049 0.00994836 0.0109075 0.00880133 0.0104166 0.0083401 0.00705947 0.00687179 0.00676965 0.00535278 0.00520065
threshold=-0.092374499887227943 -0.016583606061795063 0.0043214923654765341 0.018583000637590802 -0.0022729586444927507 -0.023282590136840444 0.0070040000136941004 -0.046892000362276996 0.064804111120786684 0.033201500773429808 -0.04402259237199669 -0.071506212619146844 -0.017543000169098297 0.0098508150519247776 -0.078137682900299557 -0.043396161706163686 0.061163357126138483 -0.042113000527024193 0.026932499371468955 -0.033921498805284445 0.020900223331761652 0.037535367073253403 0.088881875188484366 0.018370000645518251 -0.027782999910414146 0.014825500082224602 0.023640000261366301 -0.080696001648902838 -0.028096500996680082 -0.025097716674626881
decision_type=2 2 2 2 2 2 2 2 2 2 2 2 2 2 2 2 2 2 2 2 2 2 2 2 2 2 2 2 2 2
left_child=1 2 3 4 7 29 10 -1 9 27 -7 -8 13 15 19 20 18 -18 -17 24 21 -2 23 -16 -15 -22 -5 -3 -24 -4
right_child=12 8 5 26 -6 6 11 -9 -10 -11 -12 -13 -14 14 22 16 17 -19 -20 -21 25 -23 28 -25 -26 -27 -28 -29 -30 -31
leaf_value=0.047624160275257434 -0.048280900174937219 0.043231242305510995 0.17776399543930793 -0.03613802006516028 0.094431560376178253 0.059289040340498124 -0.060743740831295322 -0.13379710265787678 0.082506448670043461 0.092310878299486115 -0.19895290620059647 0.12864010777011031 2.0673175107583852e-05 0.083649600178856767 0.069005363930285377 -0.054594324877097963 0.075623998475470675 -0.040428712548050583 0.0031159984511299646 0.052787923262682175 -0.027009797174011505 0.063774376328528504 0.0013587019199248825 -0.042260635965025273 -0.14964129632635176 0.15403925943710184 0.18712113552844978 -0.13774510771557008 0.14135520032501103 0.054000968061525302
leaf_weight=0.041457441130205552 0.18635305964016957 0.02220710074834642 0.11458201978530269 0.017278279978199862 0.056195611729080497 0.015477410408493597 0.024171996819859487 0.10347661082050763 0.037763898304547183 0.020837060794292483 0.028522509347567393 0.078717899399634916 1342.4483394558119 0.016603366995695978 0.18684106733388706 1.49093872784293 0.20862668603513157 0.22029578692331586 0.4709457324342593 0.051867975226741692 0.026215699737804243 0.13468753161487257 0.031010159826109884 0.12733322720305296 0.081442996290206793 0.074369380374264438 0.044016969608492218 0.11459598007981142 0.11854757022911144 0.041670548962429166
leaf_count=43 204 25 49 20 68 16 28 108 23 21 33 59 7963 15 195 1643 161 209 481 57 32 163 33 175 81 72 44 126 96 30
internal_value=0 0.0233679 0.0487441 0.00399446 -0.0326349 0.087483 0.0265572 -0.0819027 -0.0500795 -0.0818415 -0.108114 0.084148 -1.39053e-05 -0.0135629 0.0264826 -0.0223004 -0.0305581 0.016019 -0.0407411 -0.0537665 0.0245242 -0.00126987 0.0524253 0.0239098 -0.110135 0.106852 0.124187 -0.108367 0.112328 0.144758
internal_weight=0 0.760971 0.565567 0.262425 0.20113 0.303142 0.14689 0.144934 0.195404 0.15764 0.0439999 0.10289 1345.87 3.42608 0.613646 2.81243 2.39081 0.428922 1.96188 0.149914 0.421626 0.321041 0.463732 0.314174 0.0980464 0.100585 0.0612952 0.136803 0.149558 0.156253
internal_count=12273 693 498 283 219 215 136 151 195 172 49 87 11580 3617 652 2965 2494 370 2124 153 471 367 499 370 96 104 64 151 129 79
is_linear=0
shrinkage=0.3


Tree=570
num_leaves=25
num_cat=0
split_feature=10 288 239 82 185 87 176 75 171 56 184 92 273 156 48 289 76 207 161 218 279 284 158 67
split_gain=0.00468779 0.00612805 0.0042858 0.00487102 0.00471271 0.00768774 0.00656781 0.00607561 0.00958475 0.00885794 0.00660795 0.00937576 0.00775343 0.0053331 0.00508276 0.00406583 0.00374474 0.00272998 0.00248764 0.00175298 0.000662236 9.91685e-05 9.3885e-05 1.19422e-09
threshold=-0.077316999435424735 -0.045320000499486847 -0.05230600014328949 0.039818000048398909 -0.10478850081562995 0.019354534972271267 -0.026077999733388344 -0.0058373607969083932 0.063362081174943505 -0.079665001481771427 -0.085714866200071904 0.10025034881880418 -0.082828889974045652 0.071431799383827585 -0.036731157988056103 -0.0086264100049088539 -0.018462500534951649 0.028308429256170296 -0.042128945626792716 -0.02400670562396261 -0.020692000165581648 0.001971309374353311 -0.036032601739581303 -0.080463003367185537
decision_type=2 2 2 2 2 2 2 2 2 2 2 2 2 2 2 2 2 2 2 2 2 2 2 2
left_child=1 -1 3 17 5 6 14 8 9 -6 11 -9 -12 -8 -4 20 -5 21 -10 -7 -3 -2 -21 -23
right_child=2 15 4 16 7 19 13 10 18 -11 12 -13 -14 -15 -16 -17 -18 -19 -20 22 -22 23 -24 -25
leaf_value=-0.12925042243166091 -0.14923353693228578 0.11681656930174289 0.1823503030309763 -0.1037783061590392 0.041426300333563364 0.057572435088919481 -0.15867402282919496 0.05053354734166874 0.040404975589379138 -0.062522543945090228 -0.07751746975476026 -0.051402116735365107 -1.1705266305805741e-06 0.044361131903606375 -0.019411975763090155 -0.0069675520931780054 0.15308382929936995 0.028372642395546255 0.20015140154903777 0.16911040416878387 0.19786946314418125 -0.20027998100386477 0.20020031976562105 -0.20009804016629346
leaf_weight=0.01068460586884612 0.0040216920278329784 0.013842669297446264 0.023635410434508231 0.0096869731088418121 0.090600365291094498 0.013010719276508098 0.027670209918368438 0.46133838644818936 0.017813572776503861 0.39739133314441222 0.11614104814634529 0.098555995251260242 1415.9051484953493 0.020102254500670824 0.021422514085998046 0.016493663741811271 0.010806857512307033 0.0061140308384892697 0.017287826405663509 0.015763249233714305 0.026326204511860851 0.0038689723005518309 0.019625353161245584 0.020193369683454421
leaf_count=19 13 29 19 18 145 19 49 692 18 721 181 166 9881 25 37 19 26 23 22 23 32 2 17 77
internal_value=0 0.0791466 -4.36045e-06 -0.0839827 -1.11971e-06 0.0547978 0.00425815 -6.58101e-06 -0.0323322 -0.0432234 5.35569e-06 0.0325902 -7.52836e-06 -0.0732385 0.0864237 0.118443 0.0316709 -0.15329 0.119082 0.151733 0.169938 -0.192839 0.186352 -0.200127
internal_weight=0 0.0673471 1417.3 0.0546919 1417.25 0.14123 0.0928304 1417.1 0.523093 0.487992 1416.58 0.559894 1416.02 0.0477725 0.0450579 0.0566625 0.0204938 0.0341981 0.0351014 0.0483993 0.0401689 0.028084 0.0353886 0.0240623
internal_count=12273 99 12174 159 12015 189 130 11826 906 866 10920 858 10062 74 56 80 44 115 40 59 61 92 40 79
is_linear=0
shrinkage=0.3


Tree=571
num_leaves=27
num_cat=0
split_feature=95 259 40 267 152 132 11 49 125 170 81 224 64 138 146 99 48 102 245 36 203 129 255 219 284 164
split_gain=0.00403556 0.00713746 0.00540585 0.00467492 0.00481239 0.00417808 0.00418475 0.0100667 0.0108191 0.0117361 0.00974337 0.00657966 0.00434712 0.00383762 0.00382056 0.0036694 0.00347078 0.00469386 0.00302411 0.00222175 0.00099801 0.000822667 0.000347193 2.5776e-05 2.13805e-10 1.83776e-11
threshold=-0.064639002084731986 -0.010519674130061076 0.06545449793338777 -0.062048500403761794 -0.089034501463174778 -0.11573799699544902 -0.031816900892646792 0.089979499578475911 -0.010689999908208798 0.037920230762050311 0.078015498816966969 -0.043721644164842317 -0.032199999317526797 0.070285194221323219 -0.10939049720764153 0.0035205000312998505 -0.032496171421529378 -0.018372246410487399 -0.038745000958442639 -0.060041500255465445 -0.020874000154435596 -0.012398471159527528 -0.012823000084608748 -0.05018699914216989 0.091294497251510565 -0.040823268962362984
decision_type=2 2 2 2 2 2 2 2 2 2 2 2 2 2 2 2 2 2 2 2 2 2 2 2 2 2
left_child=1 2 16 18 -5 13 7 8 9 -7 -10 15 -13 23 -6 -9 21 22 -3 -4 -16 -1 -18 -2 25 -25
right_child=5 3 19 4 14 6 -8 11 10 -11 -12 12 -14 -15 20 -17 17 -19 -20 -21 -22 -23 -24 24 -26 -27
leaf_value=0.074359378335017212 -0.17158802173332346 -0.12036056987052408 0.032769517357613902 0.10598097547180646 0.13072148672540682 0.015109741517987161 -6.2126596076804516e-06 -0.0150802347644442 0.060537178887497212 -0.10807930292894712 -0.039818661737981299 -0.10866922524985888 0.066519769490512304 0.077437059564955307 -0.068265471999536698 -0.1870577234842781 -0.20008354546188636 0.13115193470335323 0.16633488928348661 -0.20010087184532813 -0.19073016594201853 0.19265301908819593 -0.087624803616426633 -0.20006555263044304 -0.20012382653085223 -0.20003752506669628
leaf_weight=0.0076095379508842589 0.0035606222936621626 0.0054277715504440502 0.0056266851515829322 0.0067598893747344837 0.0038399232369101801 0.27792904228561699 1312.6482067638399 0.015330018828592529 0.64426849382266738 0.092855889197167585 0.10067534155331259 0.019669385246984916 0.03622496063948677 0.0063001016114867517 0.0067095137548278663 0.041107031882063438 0.0060504636028326786 0.010536397357100213 0.0084919184911598222 0.010697862626898313 0.055771748479691463 0.017366103726089932 0.0041760638165371233 0.003083789070558395 0.004795127310288195 0.0066372897456251643
leaf_count=18 15 27 19 13 14 697 8795 44 1323 225 202 93 102 14 47 109 30 38 31 35 268 38 16 10 8 42
internal_value=0 -0.0493563 0.0283671 -0.104801 -0.135151 7.85927e-06 1.01636e-05 0.0175144 0.0261328 -0.0157406 0.0469746 -0.0680874 0.00487025 -0.124191 -0.159729 -0.140343 0.0812622 -0.00937518 0.0545424 -0.119836 -0.177579 0.156612 -0.15416 -0.194461 -0.200072 -0.200046
internal_weight=0 0.149064 0.0620631 0.0870008 0.0730811 1313.9 1313.88 1.22806 1.11573 0.370785 0.744944 0.112331 0.0558943 0.0243769 0.0663212 0.0564371 0.0457386 0.0207629 0.0139197 0.0163245 0.0624813 0.0249756 0.0102265 0.0180768 0.0145162 0.00972108
internal_count=12273 594 194 400 342 11679 11590 2795 2447 922 1525 348 195 89 329 153 140 84 58 54 315 56 46 75 60 52
is_linear=0
shrinkage=0.3


Tree=572
num_leaves=31
num_cat=0
split_feature=263 196 203 109 28 69 141 243 61 86 83 261 3 223 280 252 253 35 241 215 198 11 117 259 173 174 158 195 103 80
split_gain=0.00442842 0.011776 0.0127644 0.00942953 0.00806365 0.0106252 0.00586554 0.00568127 0.00460107 0.0117831 0.0118325 0.0103211 0.00950295 0.010484 0.00966177 0.00814568 0.00694886 0.0121533 0.0112232 0.013659 0.00989716 0.00948404 0.0119265 0.0103004 0.0143679 0.00933917 0.00693609 0.00804264 0.00700284 0.00813074
threshold=-0.082680238182002749 0.028912499547004655 0.072654999792575822 -0.016881453798930576 -0.13031511928292103 0.055638137538465943 -0.0035594773820661462 -0.039436999708414043 -0.0069839293204886129 -0.023926488499463671 0.055810499936342205 0.045112054665779132 0.025769999250769605 -0.033977499231696046 -0.018109377464063634 -0.013870500028133349 -0.043579217931102837 -0.084880501031875596 -0.011327499989420097 -0.021604636189517364 -0.047152999788522693 -0.046165499836206395 -0.064541452257273729 -0.030168126122264105 0.010164142579015325 0.09036999940872191 -0.062236499041318845 0.053450498729944153 0.0026290685266113748 0.011357722099574414
decision_type=2 2 2 2 2 2 2 2 2 2 2 2 2 2 2 2 2 2 2 2 2 2 2 2 2 2 2 2 2 2
left_child=1 2 3 -1 -5 -6 -3 -4 9 26 12 -12 13 -11 -14 -13 17 -10 19 -19 -20 22 -18 24 -23 -24 28 -28 -2 -30
right_child=8 6 7 4 5 -7 -8 -9 16 10 11 15 14 -15 -16 -17 21 18 20 -21 -22 23 25 -25 -26 -27 27 -29 29 -31
leaf_value=0.14479751021839349 -0.10785932355683711 -0.0041694398400819828 0.18761238431506694 0.071894224002490112 -0.10036979682775175 0.13667401075804234 0.1494967976752862 0.02015203345486365 -0.10748264435319679 0.025122805848377401 -0.05501677883855724 -0.1080324132667953 0.092629604477600172 -0.060970651017980403 -0.096761093055459171 0.1202002724086698 0.05983705847451138 0.072634501222690009 -0.16320073089101531 -0.019557192316817577 0.093500816814034798 0.047852372793077497 -0.06926051209739581 -1.7472940421393581e-05 -0.035789680729134958 0.016693627281722835 -0.14836435368560108 -0.036723211638159503 -0.058312008088795581 0.11822389469273369
leaf_weight=0.024641059731948189 0.044663506036158651 0.029873283525375882 0.039649246595217846 0.039931119841639884 0.16925346194898239 0.018921076118203928 0.088840907395251634 0.033756776931113563 0.058788623564623776 0.18347193535123552 0.051792170359476586 0.015546193128102459 0.1117241421379731 0.41580131038528978 0.030960876044332508 0.14860855352958424 0.10492467137035533 0.21646309122903773 0.014192920571076684 0.43588923438449001 0.28404793616569779 0.83669146887950663 0.49002813895717068 1341.8439998280164 0.23724723810687465 0.14816612269135021 0.12075385273237771 0.11188609445798647 0.043804212140457821 0.050607932404091116
leaf_count=22 60 38 24 30 177 19 88 31 86 249 77 21 100 516 59 151 141 225 18 527 305 882 651 6853 276 197 173 153 67 57
internal_value=0 0.0299251 0.000477758 -0.0315064 -0.0505516 -0.0765349 0.110828 0.110603 -1.14664e-05 -0.0176504 -5.77661e-05 0.061746 -0.0180457 -0.0346125 0.0515342 0.0985856 5.97507e-06 0.0248881 0.0330744 0.0110338 0.0812847 -1.27168e-05 -0.0338947 6.03217e-06 0.0293747 -0.049305 -0.0629863 -0.0946715 -0.00998464 0.0363169
internal_weight=0 0.444867 0.326153 0.252747 0.228106 0.188175 0.118714 0.073406 1346 1.32962 0.957905 0.215947 0.741958 0.599273 0.142685 0.164155 1344.67 1.00938 0.950593 0.652352 0.298241 1343.66 0.743119 1342.92 1.07394 0.638194 0.371716 0.23264 0.139076 0.0944121
internal_count=12273 429 303 248 226 196 126 55 11844 1683 1173 249 924 765 159 172 10161 1161 1075 752 323 9000 989 8011 1158 848 510 326 184 124
is_linear=0
shrinkage=0.3


Tree=573
num_leaves=18
num_cat=0
split_feature=243 252 202 137 170 54 102 240 14 73 119 242 19 253 118 298 26
split_gain=0.0046119 0.0073257 0.00612883 0.00500052 0.00476118 0.00457338 0.00967901 0.00969466 0.0119557 0.00887793 0.00733886 0.0202659 0.014494 0.0101304 0.00711018 0.00495207 0.0028249
threshold=-0.14203250408172602 0.049355501309037202 0.0069870001170784009 -0.19442749768495551 -0.0034098231865584308 -0.0241175294415189 0.043540396529162202 0.058803287600199698 0.054386999458074556 0.033710398308765516 -0.079631616546279704 -0.0044616550956164906 0.094073997915633936 0.045940499752759906 0.051957456561942457 0.028751412889447193 -0.037008259608261589
decision_type=2 2 2 2 2 2 2 2 2 2 2 2 2 2 2 2 2
left_child=1 2 16 -2 -3 6 7 8 -5 -9 11 13 -13 -7 15 -8 -1
right_child=3 4 -4 5 -6 10 14 9 -10 -11 -12 12 -14 -15 -16 -17 -18
leaf_value=0.18446804286725249 0.11246462455627339 0.047509147281754781 -0.032216936593990206 -0.094199656069856016 -0.19808407294163921 0.044795073075800815 0.14191035385203044 0.045182026408294149 0.00071346340879351597 -0.023014292698975144 -1.3681823584860256e-05 -0.029729883345750718 0.07708858577584192 0.15895899122258944 -0.13268914283909045 -0.042632387524897571 0.06206437382243981
leaf_weight=0.046529114653822035 0.035577241156032779 0.014025723015038238 0.024995253324050282 0.30162168736150252 0.014396507933270186 0.64887614219998113 0.06802310009697965 0.23824035845842673 0.19775816533767454 0.61608349036339405 1414.0679042363383 0.67929054719428339 0.13745789285621868 0.078406340805031505 0.012909551418488263 0.016204385890887352 0.026710145192736401
leaf_count=33 29 20 35 659 22 692 92 344 380 784 7930 906 156 99 34 36 22
internal_value=0 0.0572433 0.0960519 -5.54055e-06 -0.0768894 -8.36427e-06 -0.0168431 -0.023407 -0.0566133 -0.00399678 8.88946e-06 0.0206803 -0.0117524 0.0571028 0.0746306 0.106406 0.139828
internal_weight=0 0.126657 0.0982345 1417.1 0.0284222 1417.06 1.45084 1.3537 0.49938 0.854324 1415.61 1.54403 0.816748 0.727282 0.097137 0.0842275 0.0732393
internal_count=12273 132 90 12141 42 12112 2329 2167 1039 1128 9783 1853 1062 791 162 128 55
is_linear=0
shrinkage=0.3


Tree=574
num_leaves=31
num_cat=0
split_feature=210 162 89 227 49 256 177 197 290 171 115 71 210 216 135 142 93 5 260 31 243 212 94 15 122 145 82 218 40 254
split_gain=0.0040814 0.0102322 0.00928337 0.00880772 0.00884605 0.00692397 0.00551846 0.0053407 0.00532901 0.00486737 0.00687408 0.00637383 0.00617643 0.00564111 0.00534043 0.0055711 0.00586044 0.00510375 0.00521254 0.00480799 0.0047799 0.00464064 0.00464291 0.00431482 0.00387739 0.00376765 0.00318964 0.00286884 0.00249186 0.00245768
threshold=-0.10408899933099738 0.046393483251875291 0.063119001686573015 -0.019015631928295865 0.055632499977946254 0.016264500096440253 -0.033868156948898415 0.0087649999186396026 -0.022871121633768275 -0.074978999793529441 -0.076967999339103629 -0.0099639999680220474 0.018760000355541654 -0.16108350455760947 0.097961999475955963 0.0064489999786019004 0.010743525489524496 -0.054912999272346441 0.040888049788602394 0.021573999896645504 -0.11337919937357006 -0.038908500224351841 -0.072471419831817221 -0.051784498617052997 -0.035669893151539976 0.063875500112771919 -0.0062326576678637972 0.0076975000556557512 -0.017444999888539248 -0.030249499715864648
decision_type=2 2 2 2 2 2 2 2 2 2 2 2 2 2 2 2 2 2 2 2 2 2 2 2 2 2 2 2 2 2
left_child=1 3 20 4 7 6 -5 8 -1 11 12 14 13 -11 15 23 -17 -16 -19 26 -3 22 -13 -2 -15 28 -6 -23 -22 -24
right_child=9 2 -4 5 19 -7 -8 -9 -10 10 -12 21 -14 24 17 16 -18 18 -20 -21 25 27 29 -25 -26 -27 -28 -29 -30 -31
leaf_value=0.11161919166637911 -0.11570773082963243 0.12644325423975755 0.11979458384795766 -0.12508992079110212 0.036977248430256376 -0.17063996629272024 0.1210729144590116 0.15667073853106367 -0.13489899848974624 0.18591379185491932 5.8996801203845592e-06 -0.18093158649568317 0.10899658571589536 -0.061444637688791125 -0.18780231501600436 0.081409969663471762 -0.060625170001536381 -0.12631217422765778 0.067261120368489025 0.13942774119887325 0.0036437314645422518 -0.18757374650144595 0.18293848395594778 0.11979211316957965 -0.17199348069763357 0.049146437848554277 -0.19811582862971736 -0.0069927856858612971 -0.17779988771901561 -0.042873044952878601
leaf_weight=0.018301404682460998 0.0073661669198372684 0.0060977413040745878 0.015035172249838524 0.013949052757197933 0.0071006270127327289 0.035109941651256804 0.019873830477414312 0.060302444924218435 0.01387563405023684 0.0065106099063996217 1313.1044700206492 0.0064800776788160866 0.016385367627208325 0.080786309487780983 0.013362071382289287 0.058689220860571822 0.047147577215866932 0.017033553398505319 0.047247606429209554 0.0073414303101344549 0.0073866728862768119 0.023339330428867266 0.013660442622494882 0.14164174444847788 0.044164695346647131 0.0081262847795073867 0.019343749802715138 0.011982993054061808 0.087579506402903462 0.0063563119738319082
leaf_count=39 29 10 43 39 23 90 75 112 38 5 9789 20 59 300 23 191 113 41 95 19 31 89 47 408 175 27 59 37 220 27
internal_value=0 -0.0339066 -0.101213 0.00892735 0.0560127 -0.0773197 0.0195518 0.104008 0.00531369 8.62294e-06 -1.38333e-06 0.0333349 -0.0646856 -0.0863333 0.0497815 0.0707678 0.018137 -0.0191008 0.0159671 -0.0753613 -0.131645 -0.0551218 0.0397804 0.10815 -0.100519 -0.14691 -0.134991 -0.126312 -0.163687 0.111232
internal_weight=0 0.319423 0.124225 0.195198 0.126265 0.0689328 0.0338229 0.0924795 0.032177 1313.65 1313.25 0.394307 0.147847 0.131462 0.332488 0.254845 0.105837 0.0776432 0.0642812 0.0337858 0.10919 0.0618192 0.0264968 0.149008 0.124951 0.103092 0.0264444 0.0353223 0.0949662 0.0200168
internal_count=12273 825 331 494 290 204 114 189 77 11448 10328 1120 539 480 900 741 304 159 136 101 288 220 94 437 475 278 82 126 251 74
is_linear=0
shrinkage=0.3


Tree=575
num_leaves=31
num_cat=0
split_feature=194 218 188 138 16 147 189 280 130 177 53 196 124 210 72 109 226 46 43 157 116 158 155 254 84 272 93 76 108 123
split_gain=0.00409273 0.0100651 0.0130978 0.0131553 0.0134726 0.014627 0.0130378 0.0117244 0.0114122 0.00971854 0.00968319 0.0106596 0.00920276 0.0110398 0.0145426 0.0133861 0.0121371 0.011673 0.0113384 0.0111319 0.0104299 0.0101756 0.00980506 0.00915401 0.00911921 0.00889909 0.00874605 0.00872236 0.00835796 0.00799832
threshold=-0.022544123397736111 -0.033425831795919424 -0.030812500044703445 0.010453932550280527 -0.017792499624192649 -0.062027781374117512 -0.027311199095587626 -0.058938842037546908 -0.037938202655216038 -0.024757499806582848 0.055827500298619256 -0.029128999449312597 -0.031148083276495649 -0.097001500427722889 -0.050625444490153472 0.12181099876761431 0.014667499810457152 0.018380901064198426 -0.0083117562515521246 0.066517565596742836 -0.029205500148236696 -0.045149501413106842 0.032666500657796811 -0.077787912033814438 0.048406500369310358 -0.030915999785065595 0.031582498922944062 -0.095847288616278045 -0.0073762895995873263 -0.094146564388117651
decision_type=2 2 2 2 2 2 2 2 2 2 2 2 2 2 2 2 2 2 2 2 2 2 2 2 2 2 2 2 2 2
left_child=1 7 -3 4 5 -4 9 10 26 -5 23 -12 13 16 15 19 -2 21 22 -15 -20 -18 -16 -1 27 -8 29 -10 -6 -9
right_child=12 2 3 6 28 -7 25 8 24 -11 11 -13 -14 14 18 -17 17 -19 20 -21 -22 -23 -24 -25 -26 -27 -28 -29 -30 -31
leaf_value=0.09032804044542922 0.11365103270125192 0.079841152907779309 -0.13625927664764259 0.045518764250102768 0.00028553516871633009 -0.012408220592597826 -0.13471309852369251 0.17460180861116231 0.074288727662928947 -0.095974342879274713 -0.11488811545576581 0.12441079928154772 2.9037938608332189e-06 0.042854934844828815 0.0065439953794047085 -0.16254065802710196 0.18659310059514156 -0.1030225870534051 0.040355595074906742 -0.096553781152189364 -0.10963901681701899 -0.038011451504275186 -0.10043307742685552 -0.057754127558641843 0.086644097833554798 0.095371804297970861 0.15070368765883721 -0.079978106492025997 0.10156991609118061 -0.12439464249595818
leaf_weight=0.053316054749302566 0.10246521436056344 0.31645784525762399 0.10002952758077288 0.10254814356812858 0.16140950349108607 0.60423087727679103 0.015849832871026592 0.011165322433953406 0.035730320836592 0.076118011941616714 0.019460190589597914 0.1204488494696534 1341.9769059656214 0.36468742132149135 0.28805502843079001 0.038071948962169699 0.033535641436174046 0.075767141642927527 0.046956429707279312 0.06003663217779831 0.37432418557329949 0.039578750645432592 0.10529736338139628 0.12721908512457958 0.036984973632570473 0.33268346954719152 0.046023885743352366 0.42949343758149927 0.13436695591345538 0.028878253939637943
leaf_count=66 106 383 112 114 188 671 35 15 41 125 25 122 7108 312 388 37 23 91 50 68 463 58 140 201 50 409 43 639 125 65
internal_value=0 0.0115566 0.0242929 0.0127827 -0.00743338 -0.0299994 0.0511304 -0.014284 -0.0394339 -0.0147622 0.0318867 0.0911263 -2.35971e-05 -0.0232864 -0.0345947 0.00787313 0.0341863 -0.0205039 -0.0587208 0.0231489 -0.0929204 0.0650087 -0.0220929 -0.0140222 -0.0567318 0.0849085 0.0615001 -0.06813 0.0462976 -0.0410257
internal_weight=0 2.75241 1.84369 1.52724 1.00004 0.70426 0.527199 0.90872 0.588276 0.178666 0.320444 0.139909 1343.51 1.52878 1.27743 0.462796 0.251347 0.148882 0.814633 0.424724 0.421281 0.0731144 0.393352 0.180535 0.502209 0.348533 0.0860675 0.465224 0.295776 0.0400436
internal_count=12273 3429 2162 1779 1096 783 683 1267 853 239 414 147 8844 1736 1458 417 278 172 1041 380 513 81 528 267 730 444 123 680 313 80
is_linear=0
shrinkage=0.3


Tree=576
num_leaves=31
num_cat=0
split_feature=117 244 142 265 8 26 134 205 53 264 125 42 101 151 238 52 92 167 195 268 70 101 36 207 213 55 148 32 25 59
split_gain=0.00433968 0.00809002 0.00915889 0.00852227 0.00727572 0.00680097 0.00881804 0.00632738 0.0106707 0.0115506 0.010223 0.00934949 0.00850359 0.0082117 0.0095315 0.00781021 0.0073821 0.00735466 0.00662854 0.00612467 0.00557219 0.00529514 0.00612665 0.00544267 0.01196 0.0124759 0.0105366 0.00759669 0.011811 0.00516214
threshold=-0.087939500808715779 -0.094110500067472444 -0.062214307025859984 0.0048632925607957787 -0.0080705749962256112 -0.071309000253677327 -0.022148703319117023 -0.059349998831748893 0.046052999794483157 -0.013110999949276399 -0.040380500257015138 -0.063437998294830225 -0.091694999486207893 -0.015984499827027248 -0.090015481417587348 -0.053529499098658541 0.13317599892616269 0.053195246583680751 0.022224358131352241 -0.014854500070214249 -0.0011004999978467499 -0.1351216545928012 -0.067728139131388407 -0.026399499736726246 0.012266251681198017 -0.067086085498055129 0.10446149855852126 -0.059077928369500883 -0.11233549937605854 0.056884986501596589
decision_type=2 2 2 2 2 2 2 2 2 2 2 2 2 2 2 2 2 2 2 2 2 2 2 2 2 2 2 2 2 2
left_child=1 3 -3 4 -1 -4 19 8 11 10 12 17 -10 14 -11 -12 18 -2 -13 -7 -5 22 -9 24 25 -23 -26 28 -25 -24
right_child=7 2 5 20 -6 6 -8 21 9 13 15 16 -14 -15 -16 -17 -18 -19 -20 -21 -22 23 29 27 26 -27 -28 -29 -30 -31
leaf_value=0.14950445974468204 0.14430826290981347 -0.086596377968902349 0.16818852114709784 0.15271945799287084 -0.13600631503160659 -0.098789324218317112 0.10878214226257545 -0.12225328392221538 -0.13014232784630467 0.16410212946431732 0.079214273042225808 -0.034280788215455445 0.12105957679363599 0.1479655121019173 -0.038935928554917835 -0.13064330626690435 0.13557421731038646 -0.17116560379283863 -0.14550778726969735 0.12155329464170632 -0.089811047900591315 0.14742438696657631 0.15990736682562778 -0.021968111239135942 -0.016265072360655362 -0.077904595916561181 0.097296577675446125 -5.5842423869874601e-06 0.047243978409501904 -0.036154935427438521
leaf_weight=0.0092669634954916091 0.027140488539771468 0.031892428892007274 0.063362857120409899 0.027102642216505046 0.060322636550608877 0.042802652923455753 0.092120662793148678 0.011693448557707598 0.016728500166209415 0.027628256279285779 0.018856906185646949 0.071147510973914474 0.044103876129156561 0.061038527363052708 0.084306017417020485 0.10392466522944233 0.011628596662319524 0.0088097139114324818 0.14964758308330772 0.015452177564384328 0.012438721232001626 0.023601503256941214 0.050725277513037237 0.32217235242410425 0.31158141910975701 0.3510565850726256 0.096246362407043762 1414.1723774524446 0.71300251076422572 0.015866439371166052
leaf_count=14 41 54 86 35 125 80 135 26 13 28 26 133 69 67 96 191 16 43 294 26 39 20 53 357 478 773 101 7820 1006 28
internal_value=0 0.0331749 0.0633717 -0.0347916 -0.097986 0.0857488 0.0510116 -9.61485e-06 -0.030189 0.00381872 -0.0485868 -0.0753749 0.0519807 0.0594482 0.0111791 -0.0984132 -0.0973969 0.0670004 -0.109667 -0.0403431 0.0764254 3.70439e-06 0.0780241 -6.09087e-07 -0.0250138 -0.06371 0.0105352 1.3221e-05 0.0257034 0.113193
internal_weight=0 0.354762 0.245631 0.109131 0.0695896 0.213738 0.150375 1416.69 0.624961 0.356587 0.183614 0.268374 0.0608324 0.172973 0.111934 0.122782 0.232424 0.0359502 0.220795 0.0582548 0.0395414 1416.07 0.0782852 1415.99 0.782486 0.374658 0.407828 1415.21 1.03517 0.0665917
internal_count=12273 594 381 213 139 327 241 11679 1017 490 299 527 82 191 124 217 443 84 427 106 74 10662 107 10555 1372 793 579 9183 1363 81
is_linear=0
shrinkage=0.3


Tree=577
num_leaves=23
num_cat=0
split_feature=180 208 66 140 200 166 210 139 205 213 198 170 123 151 184 196 60 85 1 247 87 77
